#version: 0.2
á ĥ
à ¸
à ®
à ¦
à ¤
à °
Ø §
Ġ .
à ¯
Ġ ,
a n
Ġ Ø
e r
e n
Ġ d
áĥ Ĳ
i n
à ±
à §
Ġ áĥ
à ¥
Ġ Ù
Ġ s
Ġ à¤
Ġ ×
à ¹
ã ģ
Ø§ Ù
áĥĲ áĥ
Ġ t
áĥ ĺ
a r
Ġ p
à¯ į
Ġ à¦
Ġ a
Ġ c
Ø ±
o n
e s
Ġ Î
Ġ m
áĥ Ķ
Ġ Ð
Ġ à®
Ġ à°
Ġ n
o r
Ġ -
áĥĶ áĥ
Û Į
Ġ b
a l
a t
Ø§ Ø
à¯į à®
Ġ 1
áĥĺ áĥ
Ġ 2
ã Ģ
e l
â Ģ
Ù Ĩ
Ù Ī
Ð ¾
Ø§Ù Ħ
Ù Ĭ
Ġ l
i s
à¦ ¾
Î ±
a s
Ġ :
× Ļ
Ġ v
i t
e t
ã Ĥ
Ù ħ
Ï Ħ
× ķ
Ø ¯
Ð µ
É Ļ
Î ¿
Ù ĩ
Ù Ħ
à¤ ¾
i l
Ġ h
Ø ª
Ð °
ã ĥ
Ä ±
à± į
Ġ o
Ġ k
Î ¹
u n
o m
á »
à§ ĩ
Ġ ì
Ġ âĢ
Ġ Ø§ÙĦ
áĥ Ŀ
à¦¾ à¦
Ġ ãĢ
Ġ ï
à¯ ģ
r e
c h
×ķ ×
Ġ S
Ð ¸
à® ¿
ä ¸
o s
Ñ Ĥ
à¸ ²
Ġ f
a m
à±į à°
Ġd e
×Ļ ×
Î ½
à° ¿
Ġ A
Î µ
Ġ å
Ġ w
Ġ g
à¸ Ļ
à®¿ à®
áĥĿ áĥ
e m
Ġ (
à§ į
à§į à¦
Ð ½
a d
à° ¾
Ġ P
ĠÙ ħ
e d
à¤¾ à¤
u r
en t
à± ģ
Ġ M
Ñ Ģ
Ñ ģ
Ġ )
Ġ C
r o
à¸ £
à¦ ¿
i c
Ġ2 0
Ï ģ
à¥ ĩ
Ð¾ Ð
Ï ĥ
Ġ Ã
Ġ T
Ġï ¼
ä º
Ġ 0
ĠØ ¨
Ġ B
à¯ģ à®
à°¾ à°
à¸ Ń
Ġ in
Ġ D
à¥ į
i r
o l
à¥į à¤
Ø ³
á º
Ġt h
Ø ¨
à¹ Ī
¿ ½
à¦ °
ĠÙ Ī
a k
u s
Ġ e
Ġ /
Ø ©
in g
i d
i e
Ï Ģ
a g
i m
Ã ¡
à® ¾
an g
à¹ Ģ
à¸² à¸
Ġ ë
Ï Ĥ
£ áĥ
à°¿ à°
Î ·
Ġ æ
áĥĺáĥ ¡
Ġ "
áĥĶáĥ ĳ
Ï ħ
à®¾ à®
Ø ¹
Ã Ń
Ġ 3
l e
ì Ŀ
u t
Ø§Ù Ĩ
q u
Ġ y
Ã ©
Ĥ à°
Ã ¼
i on
Ġ à¸
an d
à¹Ģ à¸
à¥ Ģ
u l
à¹ ī
Ġ r
Ġc om
Ġ Â
× Ķ
à¸£ à¸
Ġ20 1
a y
à¦¿ à¦
a c
× ¨
Ú ©
à¸Ļ à¸
Ġ N
Ġ L
Ð »
ł áĥ
o t
å ı
Ġ E
à¤ ¿
Ġà¤ ķ
ģ à¸
à¤ °
n g
i k
Ġ H
Ġ I
i g
à¸Ń à¸
Ġ z
Î »
Ġ× Ķ
× ľ
Ù Ĥ
t e
a p
Ġï¼ Į
Ġ j
Ġ ÏĦ
à±ģ à°
Ġ R
Ø§ Ø±
Ġ Ä
à§ĩ à¦
i a
à¯įà® ķ
Ø ´
Ġ K
Î º
Å Ł
Ġáĥ Ľ
Ġ G
å ®
Ġ 5
u m
ĠØ ¯
Ù ģ
áĥ ķ
es t
Î ¯
. .
Ġ ç
æ ľ
à¤¿ à¤
Ġ F
ĠØ ª
à® °
Ġ 4
ŀ ×
s t
Î ¼
a b
Ð º
à¯ Ī
Ġ i
ï ¿½
áĥ £áĥ
Ñ ĥ
Ġ un
o d
Ø§ ÛĮ
Ġ qu
ļ Ħ
à¤ Ĥ
Ã ³
à® ¤
Ġ '
à¯įà® ¤
r a
Ġ en
ĩ à¸
i v
Ġ Ø§Ø
0 0
Ġ |
Ġ V
å ¤
Ï Į
Ø Ń
ç ļĦ
e c
a h
Ħ à¸
å Ī
× ª
Ù ĥ
Ġc h
Ġ ê
ãĢ Ĳ
Î ¬
å ħ
Î¿ Ïħ
í ķ
Ġáĥ ¡
à¥ ĭ
áĥĲáĥ ľ
ĳ ãĢĲ
Ġ W
ĠãĢ Ĥ
Ġd i
à¸ µ
Ã ł
Ø ¬
Ġáĥ ĵ
Ġ O
à¦ ¨
e k
Ġ×Ķ ×
Ñ ı
± à¸
à° ¨
t er
o w
Ġa l
Ġth e
Ñ ĭ
ä »
Ä± n
ĠãĢ ģ
Ã §
ĠÙ ģ
áĥ ¡
Ġt o
áĥ ł
Ġ áĥĲáĥ
e g
Ġ× ľ
à° Ĥà°
à¤ ¨
Ø ²
Ð° Ð
ĠÄ ĳ
à± ĩ
is t
à® ©
Ġ è
o v
Ġ× ĳ
Ðµ Ð
Ġc on
Ġn a
ĠãĢ ĳãĢĲ
à° °
Ġï ¿½
à± ĭ
Ġ re
Ġl a
l i
ĠØ ¹
ĠØ Į
ç ½
® à¯į
à® Ł
Ġ× Ĳ
à¦¾à¦ °
å Ľ
Ġp r
à¹Ī à¸
Ġt r
à§ ģ
o u
Ø§Ø ª
Ġs e
× ĳ
Ø§Ù ħ
ä ¹
Ġ ?
i z
Ñ Į
æ Ĺ
Ġ à¥
er s
Ġ Ú©
Ġ ÏĢ
ĠÐ ¿
Ġs t
× Ĳ
Ġn g
ãģ ®
an t
Ú ¯
Ġ J
æ ĸ
Ġà¤ ¸
à§ Ł
Ġà® ª
ç½ ĳ
ë ĭ
Ġp ro
Ġs a
áĥ ļ
ï¿½ ï¿½
Ġ 6
ĠÙ Ħ
Ġáĥ Ĵ
Ï ī
à¤ ķ
à¤ ¤
ĠÎ º
ĠâĢ Ļ
Ġp ar
Ġà¥ ¤
ĠÙ Ĩ
à® ³
e b
×ķ× ª
ĠØ ³
âĢ Į
Ġ Ïĥ
Î Ń
à ´
×Ļ× Ŀ
Ġà¦ ķ
en d
ä ½
ĠÙ ĩ
Ġ× ©
å ½
l a
å ľ
æ Ī
r i
Ñģ ÑĤ
ĠØ ±
ĠÎ ±
à° ²
ì ŀ
Ø µ
o c
¡ à¸
Ġ é
o k
Ġà¦ ¸
Ġo f
Ġà® ķ
Ø ®
Ġ â
Ġ. ..
Ġ !
ç Ķ
Î ®
Î ³
Ä Ł
Ġà¦ ¬
u d
áĥĶáĥ ļ
¥ à¸
Ġ and
áĥĲáĥ Ľ
à¯įà® ª
Ġ 8
Ġ 7
Ø ·
Ġ U
u k
Ġà¤ ¹
× ©
l ar
Î± Î¹
× ł
o g
o p
ķ à¯įà®ķ
Ġà¤ ®
Ġ 9
à¦ ²
å ¹
à® ²
es s
Õ ¡
å Ĳ
ĠâĢ ľ
ĠØ £
Ð ²
ĠØ ´
Ġf or
ÉĻ r
à¦ ķ
Æ °
u p
in d
ãģ Ħ
áĥ ĵ
ĠÐ ²
os t
Ġa t
§ à¸
à¤ ²
un g
´ à¸
Ù ī
Ġà¦ ª
à¹ ģà¸
à¯Ī à®
ì Ĺ
Ï ĩ
Ã ¶
Ġ ;
à± Ģ
à¹ Ħà¸
Ñ ĩ
ª à¸
Ġ× ŀ×
Å Ĥ
Ġ í
ĠÎ µ
a z
ar t
à¯įà® Ł
Ġà¤ ª
äº ļ
áĥ Ľ
Ġ on
å Ĭ
Ġà® µ
Ġ1 0
à¹ī à¸
¢ à¸
à§ĩ à¦°
áĥ ľ
Ġ Ñģ
à° ķ
Ðµ Ð½
Ġ an
æ ¸
c e
Ġà° ª
ĠØ§ÙĦ Ùħ
à§ ĭ
Î¹ Îº
u b
áĥĲáĥ ĵ
áĥ ¢
à¦ ¤
å į
Ġa g
Ä Ľ
Ķ à¸
a v
à¤ ¸
i b
ĠÎ ¼
Ġqu e
Ġ is
i y
Ġà® ®
äº º
or t
o b
ãĥ ¼
à¥ ģ
à¯ ĩ
ĠâĢ Ŀ
c i
Ø§Ø ¯
× ĵ
ìĿ ´
in e
áĥĲáĥ łáĥ
ÙĬ Ø©
Ġà® ħ
à¦ ¬
ĠØ¯ Ø±
æ ī
Ï į
ÙĪ Ø±
Ð ¼
Ġ el
2 0
à§įà¦ °
ĠÐ ½
Ġáĥ ł
Ã £
Ð¾Ð ²
ĠâĢ ĵ
× ¢
à¦ ®
áĥĶáĥ ľ
Ġd o
à± Ĩ
ç ī
Ġà® ¤
d a
áĥĲáĥ ķ
ãģ §
Õ¡ Õ
áĥĲáĥ ¡
Ġà° ķ
Ġ Õ
n e
× Ĺ
Ġ1 9
æ ĺ
Î ´
ä¸ Ģ
à¤ ¹
Îµ Î¹
à¹ ĥ
Ġ %
w w
Ġà® ļ
Ġ× ķ
ï ¼
è ½
à±įà° °
ļ áĥĺ
ĠÙħ ÙĨ
er t
à® µ
Ø £
è ¿
ĠØ ®
å °
Ġáĥ ĺ
à°¾à° °
à¥įà¤ ¯
ãģ Ĺ
e v
ĠÐ ¸
à¯ģà® ®à¯į
à§įà¦ ¯
à®¿à® ²
Ã ¥
Ġ u
Ġ il
l er
ä ¼
Ġà° µ
ëĭ ¤
ãģ «
à±ĩ à°
i o
i p
at ion
Ġw ww
Ð ´
Ã ª
ÙĨ Ø¯
on g
i á»
à®¿à® ¯
æ¸ ¸
Ġáĥ ¨
ļ à¸
ê ³
Ġà¦ Ĩ
d e
i ch
à¥ Ī
åı ĳ
i j
åĪ Ĩ
Ġd a
ÙĪ Ø¯
ë Ĭ
Ġ ãĥ
i f
ĠT h
Ġ #
Ġ et
Î¹ Î±
Ġà® ĩ
o ur
è µ
ĠØ Ń
ì §
áĥĲáĥ ł
Ġ1 2
å ¿
Ġp er
Ï Ĩ
ar e
en g
c t
× §
ãģ ¦
à¹ Į
Ø ¶
Ä Ļ
ĠI n
áĥ ®
áĥĿáĥ Ľ
en s
à§ Ģ
ĠÙ Ĭ
Ġà° ®
Ġd el
à¦¾à¦ ¨
er e
ìŀ ¥
ĠÐ ¾
Ġáĥĵ áĥĲ
à¥įà¤ °
Ġ1 1
Ġà° ħ
è ®
ĠØ¨ Ùĩ
Å Ļ
Ġ =
Ñ ħ
à ¨
à¤¾à¤ °
° à¸
Ġà¦ ®
à¯ Ĩ
à¤ ®
Ĺ à¸
ãģ ¨
ì Ħ
ĠØ ¢
å ¼
Î ¸
× ¤
p l
é Ģ
å½ ©
Ġl e
Ġà¦ ı
Ĥ ¬
ĠØ ¬
ãģ ª
Ġà° ¸
ëĬ Ķ
Ġa d
Ĺ à¸µ
× ŀ×
n h
ç »
ĠÙģ ÙĬ
Ø§Ø ¨
ĠÙ Ĥ
ä¸ ĭ
¨ à¯įà®¤
an s
Ġm a
ê °
å® ĺ
Ø °
Ġs p
Ø³ Øª
Ġáĥ¡ áĥĲáĥ
Ġ× ¢
Ã ½
ĠÏĦ Î·
ç «
× ŀ
Ï İ
Ä ħ
ÉĻ n
ì ł
Ġn h
è §
Ġà® ¨
ĠÐ º
ÙĪ ÙĨ
ÏĦ Î±
e z
Ã ´
Æ° á»
áĥĺáĥ Ĺ
å ¸
ãģ Ł
Ġå ¤
× Ľ
ãģ Ļ
Ã£ o
on t
× Ŀ
Ġ x
as t
ãģ Į
g a
æ Ŀ
Ġáĥ Ļ
ãĥ ³
Ġ es
áĥĿáĥ ĳ
Ġ ä¸
Ġì Ŀ
ãĤ ĭ
å¤ §
ÙĬ ÙĨ
ª à¯įà®ª
a w
åĽ ½
Ġ ]
Ġo p
à° Ĥ
ĠÂ »
Ġ Y
å Ń
Ðµ ÑĢ
Å ¾
á Ģ
Ġà¦ ¨
Ġ or
å Ĩ
ì ķ
Ġ er
å º
áĥĲáĥ ļ
Ĥ à¸
åľ ¨
¶ ľ
è ¯
à® £
áĥ Ĺ
p r
à® ®
ãģ ¯
ç İ
y a
Ð° Ð½
as s
å ·
³ Øª
à¦ ¸
áº ¡
Ïģ Î¿
Ġd es
é Ļ
Ġáĥ Ĺ
à® ±
Ġ à¹Ģà¸
el l
ÙĪ ÙĦ
Ø§Ù ĩ
à¯įà® ±
é ĩ
Ġà¦ ¹
Ðµ ÑĤ
Ī à¸
Ġà¤ ¬
t t
ç º
áº ¿
ķ à¸
Ã ¸
Ġa v
Ġ1 5
Ġpar a
Ġà® İ
Ġ× Ľ
Ġà¤ ¨
i er
à¯ ĭ
Å ¼
Ġ [
Ġ Z
ĠÎ ´
áĥ łáĥ
æĹ ¶
ÏĦ Î¿
áĥĶáĥ ¡
z y
n ÃŃ
a i
ìĹ Ĳ
Ù İ
à±įà° ¨
¨ áĥĺ
áĥĺáĥ ľ
Ġa s
ent e
ar d
ĠÙ ĥ
ĠÐ ´
¸ à¸
ĠÙ ¾
Ġ ãĤ
à¥ĩ à¤
à° ®
u g
Ð ¿
Ġo l
ë §
Ġb e
ĠÎº Î±Î¹
ĠA n
æ Ĭ
à¥ĩ à¤Ĥ
Ã¼ n
Ð¾ ÑĢ
m a
Ġáĥ Ķ
Ġp h
ç ľ
ì§ Ģ
t o
Ġv er
ĠC h
ãģ ¾
Ġ ang
Ġà¤ ħ
íķ ĺ
áĥĶáĥ ł
¶ľ ìŀ¥
Ġà¤ ľ
à° ¤
Ġà° ļ
à¸µ à¸
il l
s k
æ ³
à¤ ª
Ġ im
Ð° ÑĤ
Ġo g
à¹ĥ à¸
×ķ× ¨
ad a
Ġà¤ µ
Ġ20 0
à¯įà®ķ à®³
Ä į
è ¡
Ġ est
e p
Ø «
« à¸
Ġ Ø§ÛĮ
ŀ à¸
Ġà¦ ¦
Ïģ Î±
ĠØ¨ Ø±
Ä± r
ç Ľ
Ö Ģ
áĥĶáĥĳ áĥĺáĥ¡
à°¾à° ²
Ġà¤ Ĩ
Ġï¼ ļ
Ùĩ Ø§
å İ
ar i
Ġà¤ķ à¥ĩ
× ĺ
f f
e w
Ġk h
ë ¡
ĠS t
Ġ× Ļ
Ġà° ¨
ģ à¸²
v er
Å ¡
Ð¾Ð »
å ¥
Ġ it
à±įà° ¯
ÏĦ Î·
æĺ ¯
ÛĮ Ø¯
à°¿à° Ĥà°
al l
Ġ1 3
ìĿ ĺ
ãĤ Ĵ
Ġ1 8
Ġs i
Ġáĥ ŀ
à¥ Ĥ
Ġn o
Ġ à§
Ġà¤¹ à¥Ī
æľ º
ĠÐ¿ ÑĢ
ĠØ§Ø ²
å ĩ
ÏĦ Îµ
à®¤ à¯įà®¤
Ġì ŀ
å ¾
ìĿ Ħ
à¤ Ĺ
à®¿à® °
s e
i en
ì ĭ
at e
ç ¥
or m
d er
áº £
à§įà¦ ¤
áĥĲáĥ ª
ÛĮ ÙĨ
ĠØ¹ ÙĦ
à® ®à¯į
à µ
Ġp l
à®¿à®² à¯į
Ð¾Ð ¼
Ġà¤ ¦
Ġv e
em b
å Į
ê ¸
Ñ İ
Ġa b
× ¡
Ã ¢
à° µ
Ð¸ ÑĤ
à® ķ
ä¸ Ń
h o
Ġs u
n a
Ð¾Ð ´
t a
Ð½ Ñĭ
´ ë
Ġ× ŀ
ÏĢ Î¿
à¯ Ĭ
× Ĵ
Ïĥ Î·
à®¤ à¯ģ
Ġ1 6
Ġ1 4
à®¾à® °
Ġà¦ķ à¦°
à° ¸
à®¿à® ©
ĠÐ ¼
à¤ µ
æĸ ¹
Ġà¦ ¤
n o
Ġt e
Ðµ Ð»
Å Ľ
Ġe x
æī ĭ
æ Ģ
id e
áĥĺáĥ ļ
áĥĶáĥĳ áĥĲ
Ġa m
z e
Ġ" :
à° ¦
å ±
Ïī Î½
à° Ł
Ð ±
ĠØ§Ø ³Øª
ĠÏĦ Î¿
Ġ201 9
ap p
/ /
Ã¼ r
i al
à¦ ¦
Î¯ Î±
ĠÏĦ Î¿Ïħ
or d
Ø§Ù ģ
Ġ em
Ġ. .
è½ ½
Ð° Ð»
Ġå¤ §
Ñ Ī
Ġ ÑĤ
Ñ Ĩ
à¤ ¦
Î¼ Î±
Ø§Ø ²
un d
1 0
ar a
é Ĺ
á» Ļ
at a
Ġg r
ÙĬ Ø±
Ġ q
à¯Īà® ¯
Õ ¸
ĠØ ¥
à±įà° ²
è ´
ĠA l
à±įà° ¤
us t
Ġà° ¤
à° ª
à° ¡
ĠÙħ ÛĮ
i an
Ø± Ø¯
ä¸ĭ è½½
Ġ1 7
Ġ Q
ĠÎ ½
Ġ0 0
ÉĻ t
ãģ ĭ
Ø§Ø ³
Ð ·
à¹ Ĥà¸
à® ¯
Ġ ÑĢ
Ġj e
ì Ĭ
ĠØ§ÙĦ Øª
or e
Ġà¦ ħ
à¯ģà® ķà¯įà®ķ
m e
íķ ľ
Ġà¤ ²
k an
Ġb y
it e
áĥ Ĵ
Ġì ł
Ġ ro
l Ä±
ad o
ĠÂ «
áĥĶáĥ Ľ
Ġà¤ °
Ġd an
å¹ ³
æľ ī
Ð½ Ð¾
Ġáĥ ¬
Ġv an
ĠÃ ł
tt p
à¯ģà® ¤
×Ļ× ª
- -
áº ¥
à§ĩà¦ ¨
à¤¾à¤ ¨
ĠâĢ ¦
æ °
Ġà¤ ¤
Î½ Î±
Ã ¤
d u
áĥĶáĥĳ áĥĺ
à¦ Ł
Ġ +
a u
Ġ2 5
å¹ ´
à¦ ª
áĥĿáĥ ¡
Ġm e
à¹Ī à¸²à¸
è Ģ
ì ļ
Ø º
ĠÎ ¿
Ġb u
Ġ ar
äº Ĩ
ë¡ ľ
Ġd u
Ġ: //
ãģ £
åı °
Ã³ n
ä ¿
Ġb ir
Ãª n
Ïģ Î¹
Ġáĥ £áĥ
áĥĿáĥ ľ
ê³ ł
k e
Ġ Ú¯
à°¾à° ¨
Ġà¦ ľ
à°¿à° ¨
Ġa p
é Ľ
k a
ĠÎ ³
et t
ë ı
å®ĺ ç½ĳ
Ġh ttp
l o
ĠÃ §
ĠÂ Ń
ĠÙĪ Ø§ÙĦ
ç Ļ
Ġp or
Ġ &
8 8
¯ äºļ
æ ķ
å¿ «
Ð¾Ð ³
à¸Ńà¸ ĩà¸
Ø§Ø ¹
Øª Ø±
ãĥ¼ ãĥ
ĠÃ ©
Ġ Û
à° ¯
å ¯
áĥ£áĥ ł
à°¿à° ķ
a j
ì ¶ľìŀ¥
á» ĳ
Ġ ed
ic a
ag e
×ķ× ľ
Ġs er
à¹ ĩ
al e
Ġy ang
u j
ä¸ į
à®¾à® ©
ãĤ Ĭ
ec t
ê° Ģ
Ġ201 7
Ġ3 0
à® Ļ
à®Ł à¯įà®Ł
ÉĻ l
Ã ¬
Õ ¥
f t
ë ¦
Ġp o
Ġ" ,
ê ²
ä¸ Ĭ
Ġ2 2
Ġd er
ä¹ Ĳ
Ø± ÙĪ
ig h
Ñģ Ðº
Ð ¹
Ġ×© ×ľ
Î ²
ĥ ½
Ø§Ù Ī
à±įà° Ł
Ġ um
iá» ĩ
Ġt er
i es
áĥ §
áĥĺáĥ ĵ
à± Ĥà°
in i
t h
Ġ >
à¤° à¥įà¤
à±ģà° ²
ï¼ Į
Ġd ie
× ¦
é ¢
Ġn e
Ġ× ł
m ent
Î ĳ
à¤ ļ
Ī ëĭ¤
ç Ĳ
ÉĻ s
æĹ ¥
Ġï¿½ ï¿½ï¿½
ĠØ§ÙĦ Ø£
Ð ³
ãĤ Ĥ
Ġê °
à® ¨à¯įà®¤
Ġáĥ ķ
Ġ) .
å Ŀ
Ġ201 8
Õ ¶
Ġm en
Ġáĥ ĳ
å ĵ
ãĤ ¹
ë ¥
ĠØ µ
à¦¿à¦ ķ
Ġà¤® à¥ĩà¤Ĥ
Ġ2 1
a ch
Ã º
em ent
Ġ ãģ
à¸£à¸ µ
ĠáĥĲáĥ ł
Ġv o
æ Ķ
ic e
è ¦
Ð¾ ÑĤ
Ġ Ø§ÙĨ
æ ´
Ġun d
e y
áĥĶáĥ ķ
Ľ à¸
æ Ń
Ġà° °
à¸Ńà¸ ĩ
Ġm ga
æ µ
r u
Ú Ĩ
ĠÎ ĳ
é ģ
Ġ× Ĺ
ì ľ
ì ĥ
æ ŀ
à¤ ¯
Ġì ķ
k s
Ø§Ø ¡
ent o
à± Ī
ÙĪ Ùħ
Ð¸ Ñı
Ĺà¸µ à¹Īà¸
Ġë °
ĠÎ¼ Îµ
à¦¾à¦ ²
Ġp ag
in a
æ ł
ä¼ ļ
ê¸ °
×Ļ× ¨
am p
áĥĶáĥ Ĺ
ul t
u y
z a
A N
ĠØ§ÙĦ Ø¹
ĠÐ ±
æ İ
çº ¿
à®¾à® ķ
ch e
Ġf r
a ÅŁ
ìĦ ľ
it h
Ð¾Ð ¹
Ø ¸
Ġcon t
Ġ äºļ
áĥĺ áĥĲ
Ø§Ù Ĥ
k t
Å ¯
áĥĲáĥ ®
ãģ Ĩ
à¯ Ģ
Ø§Ù Ĭ
Ġ2 4
ç §
Ġ) ,
Î½ Î¿
ãĤ Į
Ġå¤§ åıĳ
Ġ2 3
é Ŀ
à®° à¯į
à®¿à® ±
ion e
å¹³ åı°
on d
Ġa c
ãĥ ĥ
æĪ ı
Õ «
ĠØ§ÛĮ ÙĨ
Ø± ÙĬ
ÏĦ Î¹Îº
Ø§Ø ¦
à¯įà® ļ
Į Ģ
ãĤ ¤
ãĤ ī
at o
ì ĸ
Ġm ed
Ġà¦ª à§įà¦°
Ġa u
Ù Ģ
Ø± ÛĮ
áĥ£áĥ ļ
ÐµÐ ¼
ç« Ļ
ĠÐ½ Ð°
u e
å ĳ
Ġo b
l y
ĠD e
Ġáĥł áĥĿáĥĽ
Ã´ ng
g r
áĥĲáĥ ¢
Ø§Ø ´
ĠØ ²
ì Ľ
ìĿ ¼
iv e
æ¸¸ æĪı
à¦¿à¦ ¨
ĠÃ ¼
çĶ ¨
ê µ
áĥĲáĥ Ĺ
å¤ ©
å® ¶
à® ªà¯įà®ª
E R
ĠA r
ë Ĥ
ĠÎ½ Î±
Ã ¨
å¼ Ģ
à® ļ
à¤ £
æīĭ æľº
ĠÚ© Ùĩ
ĠÎ ķ
à¦ Ĺ
Æ ¡
n y
ac k
Ġ0 1
Ġà®İ à®©
å Ĵ
Ġà¦ °
à°Ĥà° ¦
m i
áĥ£áĥ ļáĥĺ
à¯ģà® ķ
ĠÎ ł
Ð° Ðº
æ ĭ
ìĿ Ģ
Ġ \
Ġà® ī
Ġe en
Ĭ à¸
em p
à¹ ĩà¸
ë ĵ
h e
à±į âĢĮ
Ä ĩ
áĥ ĳ
× Ł
Î ¾
×ķ× ĵ
áĥĲáĥłáĥ Ĺ
Ð¾ Ð½
à¦¾à¦ ®
à¤ ¡
à¥ĭ à¤Ĥ
æĸ °
ì Ĥ¬
on e
Ð¸ Ð½
Î¼ Îµ
ĠTh e
è Ĥ
á» §
à¯ Ĥ
Ġç İ
ÐµÐ ´
Ġ× ª
r y
Ġ à¹ģà¸
áĥĶáĥ łáĥ
Ġm an
ãĥ Ī
6 5
Ã§ Ã£o
Ġd is
Î Ł
Ī ĺ
à¤¾à¤ ¤
Î Ļ
ì ²
· à¹Ī
×ķ× Ł
ĠP ro
ĠÄ °
ĠØ¨ Ø§
áĥĶáĥ ĵ
Ġà¦ ¶
Ġà° Ĩ
ĠÎ Ń
s p
à¦° à§įà¦
r an
Ð° ÑĢ
ĸ áĥĶ
Ġà¤ķ à¥Ģ
Ġà¤ ¯
ĠØ¹ÙĦ Ùī
à± Ĭ
1 1
à¤¾à¤ Ĥ
à±ģà° ¨
ĠÃ ¶
i h
¹ à¸
áĥ ª
Ġáĥ ľ
áĥĿáĥ ķ
Ġà¤ Ĺ
áº Ń
Ġ X
Ġ }
£ ¼
è¡ Į
ĠÐ ·
Ġd et
ÏĢ ÏĮ
Ġs om
Ġp re
Ġa y
ĠM ar
u re
à¸£ à¸²à¸
Ġì Ĺ
qu e
Ġc o
ĠÄĳ á»
áĥ Ļ
Ġ us
Ġê ²
à¹Į à¸
Ġv á»
×ķ× ĳ
Î» Î¿
à®¿à® Ł
f orm
ìĬ ¤
áĥ ¥
u al
Ġ× ¨
Ö Ĥ
Ġd en
áĥĺáĥ ł
ÏĦ Î¹
à¤¿à¤ ¯
à¦¾ à§Ł
ç ¾
Ġ ÛĮ
ĠE n
i el
Ġg i
ģà¸² à¸£à¸
åĴ Į
Ġ $
ĠÎº Î±
Ġà¦ ¯
à±ģà° Ĥà°
r es
Ġ0 9
Ġå ħ
Ġh et
×Ļ× ł
d i
Ġà¤ķ à¤°
Ġ Ñ
Ġv Ãł
à±ģà° ķ
à¤ ¬
ÙĦ ÙĬ
it y
à¦ ¼
ä¸ ī
t en
il e
Ġ ä»
à¹ī à¸²à¸
ĠâĢ ĺ
Ġr es
Ġh e
à¤ ľ
Ġ201 6
áĥĿáĥ ĵ
à¸£à¸ ±à¸
×ķ× ł
ìĿ ¸
à®¾à® ²
çĶ Ł
ĠÏĦÎ· ÏĤ
Ġà°ª à±įà°°
Ġm o
Ä± l
am a
Ø ¥
à¦¿ à§Ł
à¤¾à¤ ²
Ŀ ¼
Ġ Ñĥ
à¦¿à¦ ¤
à®© à¯į
åĩ º
l ÉĻr
Ġt il
Ġáĥ ®
Ġ0 2
ĠT r
O M
ĠU n
± à¸Ļà¸
ÛĮ Ùħ
à¹Ī à¸²
³ à¸
Ġl es
à¯įà® ²
Ġb l
×Ļ× Ķ
á ŀ
Ġ× ¤
ç½ĳ ç«Ļ
Ġà¤ķ à¥ĭ
is s
æĿ ¥
Ĺ à°¾
ĠØ± Ø§
ë¦ ¬
ä½ ĵ
Ñ ī
ÙĬ Ø¯
an a
Ġv ÉĻ
Ġy ou
è ĩ
à¹Ħà¸ Ķ
à¦ ¹
Øª Ùĩ
àµ į
id ad
Ġì ĺ
à¦¾à¦ ķ
Îµ Î¯
à¤ Ł
à¤¨ à¥ĩ
in t
Ð°Ð ²
åľ °
Ã¡ c
Ġ0 8
áĥ ¨áĥĺ
ãĤ ĵ
k i
Îµ ÏĤ
i re
Ġin ter
it o
à°¿à°Ĥà° ļ
è ī
Ġs o
Ä± ÅŁ
it a
å ¨
ëı Ħ
m er
Ä± m
Ġæ ľ
Ġch e
à® ´
Ġà¤ Ń
Ġm et
h a
Ġw ith
çī Ī
p ort
Ġs on
Ð°Ð ¼
Ġà¤ ī
c a
Ġ×Ĳ ×ª
ic k
å ī
ĠÙĦ ÙĦ
áĥķ áĥĶáĥļ
Ð°Ð ·
Ð¸ Ðµ
ë§ Ī
Ġë §
.. ..
áº §
Ġáĥ ¤
c o
à®¿à® ķ
áĥĺáĥ ª
l u
à¯įà®ķà®³ à¯į
on s
à¯ģà® µ
ĠÙħ Ø¹
I N
Ġl o
ĠÎ ļ
Ø§Ø Ń
æ ²
áĥĿáĥ ļ
Ġáĥ ¥
Î¿ Ïį
à¤¿à¤ ķ
n i
ä½ ľ
ĠØ ·
1 9
ľ à¸
à® ķà¯įà®ķ
Ġà¦ Ĺ
ĠÎ £
g e
v e
Ã³ w
æ ¬
c z
ĠÏĦÎ· Î½
Ġs k
ãģ ı
Ġw e
× ĸ
al a
å Ł
Ġï¼ ī
Ġà® Ĩ
à¹ī à¸²
an o
æ ĥ
Ĺà¸µ à¹Ī
à¸£à¸ °à¸
Ġáĥ ©
« ĺ
ì ĺ
ac i
b l
Î ¶
åħ ¬
Ľ à§ĩ
à®£ à¯įà®Ł
ä ¾
Ġun a
Ġì ĭ
p e
é ¡
ÙĦ ÛĮ
Ïİ Î½
d en
Ø¨ Ø±
áĥĿáĥ ł
ĠØ§ÙĦ Ø³
à§ģ à¦
Ġth at
ic o
Î £
à®¿à® ¤
al i
Ġå ı
ãĥ «
am b
Ġ *
Ø± Ø¨
Î± Î½
×Ļ× ľ
Ġl Ãł
à°¾à°° à±ģ
ay a
Ġ0 5
ë ħ
ĠÃ ¥
ìĭ ľ
åĲ Ī
ĠC om
Ġ0 3
Ġg Ã¶
Ñģ Ñı
Ġ× §
ĠP r
Õ¸ ÖĤ
Ġk an
Ġm as
Ġà¦ ļ
ĠÎ ¤
in o
à°¨ à°¿
and o
âĢ Ŀ
ÛĮ Ø±
Ġp od
Ġw h
Ġ1 00
ÉĻ k
à¦¾à¦ ¦
Ġ ent
ë¥ ¼
A R
Ð ¶
en e
ĠÐ ³
Ġb er
1 2
Î¯ Î½
å° ı
Ġ", "
Ġ {
Ġ2 6
os s
Ġ0 7
Ð» Ð¸
áĥ ¬
éĽ Ĩ
ĠØ£ ÙĨ
e h
igh t
à§įà¦ Ł
Ġì Ħ
æ³ ¨
æ Ļ
å¸ Ĥ
Ġs h
æ ±
Ø¯ Ùĩ
Ù ĳ
Ġï¼ Ī
b er
áĥĶáĥĳ áĥ¡
Ġ20 20
i et
i áº¿
è ¾
à°° à±įà°
ê ±
ë °
Ùħ Ø§
Ġ2 7
Ġm ar
E N
íķ ´
ÙĪ Ø²
Ġà° ¬
Ð¾ Ñģ
Ġl os
ĠáĥĲáĥ Ľ
æĪ ·
9 9
ĠÎ Ķ
Ġà¤ ĩ
Ġo d
Ġe in
è Ī
Ġà° ¦
Ġ5 0
Ġê ³
í Ĭ
5 0
ä¸ º
ac e
Ġ0 4
æľ ¬
åĿ Ģ
Ġà° ĩ
çľ Ł
Ġ ist
Ġ ÅŁ
Î ķ
çĲ Ĩ
åľ¨ çº¿
Ġp ÅĻ
æ Į
Ù Ĳ
p er
Ġ2 8
Ġà¤¸ à¥ĩ
¯ à¦¼
O N
Ġ0 6
Ġt ak
Ġp Ã¥
à¥įà¤ ¤
er n
éĻ ħ
Æ°á» Ŀ
à¸Ļ à¹Ģà¸
Ġ ÏĮ
j a
a il
çĶ µ
b e
j e
æľ Ī
ì ¹
ç¥ ŀ
ĠÎ³ Î¹Î±
Õ¡Õ ¶
ãģ į
Ġà¦¬ à¦¿à¦
áĥĿáĥ Ĵ
ãĢ Ĥ
ä¸ ª
Ġth á»
Ġà¤ª à¥įà¤°
Ġ× Ĵ
Ġo m
¡ à¸²à¸
Ġm in
å®ĺ æĸ¹
Ġáĥĵ áĥĲáĥ
Ġ": "
Ġäºļ æ¸¸
áĥĺáĥ ¢
c ia
s i
Ġ ut
áĥĿáĥ łáĥ
Ġ×ľ ×Ķ
à ¶
Ð¸ Ðº
ĠL a
ë ³
l ine
ĠÎ ľ
à¦¾à¦ ¤
Ġ Ñĩ
à§įà¦ ¬
æ Ħ
Ġà¤ ¶
Ġh ar
áĥĵ áĥĲ
ÙĦ Ùĩ
a in
Ġv ar
ĠÐ Ł
Ġ à¨
Ġà° ī
ĠáĥĴ áĥĲáĥĽ
ĠR e
Î» Î»
ä¸ ļ
Ġà° Ĺ
è¦ ģ
Ā Ā
ĠÎ± ÏĢÏĮ
ãĤ ¯
áĥĺáĥ Ļ
Ġt á»
ĠÙħ ÙĪ
p t
à¦¿ à¦°
Ð¸ Ð¼
x t
ìķ Ī
ĠØ§ÙĦ ØŃ
ÉĻ d
Ľ i
ĠØ¨ Ø§ÙĦ
1 8
ÑģÑĤ Ð²
ãĥ ©
Ġçİ ¯äºļ
ot el
² à±ĭ
r at
è ĥ½
ë ¶
à¦ ľ
é ĺ
ç¥ ¨
ĠÎ ¸
à¦ ĩ
as i
n ie
k y
Ġh o
å Ģ
± ä¹Ĳ
æĪ Ĳ
lar Ä±n
Ġ Ïĩ
à®¿à®© à¯į
Ġh a
Ð¾Ð ±
ë ł
m an
Ġå °
un t
à±įà° ª
Ġ201 5
ĠÎ ·
am i
Ä °
k o
à¹Ħà¸ ¡
Ġ× ĵ
Ġb r
ek t
ç Ń
Ġ×Ķ× ŀ×
åŃ Ĳ
Ġà¤ ı
Ľ à¹ĩ
3 0
ur a
Æ°á» £
à¦¾à¦ ¬
Ä± z
à°¨ à±įà°¨
è§ Ĩ
à¥ģ à¤
Ġå ½
ĠÐ ¡
f er
ç ł
áº¥ t
Ġc Ã³
Ùħ Ø§ÙĨ
Ġà¤ ļ
Ø ¦
à®¿à® ķà¯įà®ķ
í Ļ
Ã ¹
il m
ak t
Ġ2 9
Ġ×ľ ×Ĳ
é ĥ
ÉĻ m
ul l
à¯įà® ³
i ed
2 2
Ġk om
åħ ¨
Ġ are
Ġ ik
åĵ ģ
Ġ0 00
íĬ ¸
ÙĬ ÙĦ
Ġì §
ĠL e
ãģ ĵ
ig n
æ ¯
Ä ĥ
à®¾à® ¤
äº ¬
il i
ÏĦ Î¬
ãģ¾ ãģĻ
k u
áº¡ i
Ġal l
Ïģ Î¬
à¦¾à¦ ¸
ra v
Ùĩ Ø§ÛĮ
o y
Ġm od
Ø± Ùģ
Ġw y
ì £¼
ä» ¥
ac t
Ð¾Ð³ Ð¾
Ù ı
Ġáĥ Ŀ
à¦¾à¦ ĩ
in in
ĠÐ Ĵ
ĠìĿ ´
u c
åĽ ¢
å¨ ±ä¹Ĳ
ãĥ ª
Ġ up
ct ion
Ġpar t
ģà¸² à¸£
Ġ ÚĨ
à ·
Ġd at
ç Ĥ
à¦ Ĥ
k en
é «ĺ
Ġà¦ ī
à° Ĺ
åĪ °
Ġp a
à¯įà® µ
×Ļ× Ł
ãģĹ ãģ¦
Ġà®ļ à¯Ĩ
ĠÏĥ Ïħ
Ġn ot
Ġ× ¡
Ø§Ø ¬
as Ä±
Ġà¦ ĵ
h r
ÙĪ Ø§ÙĨ
à®² à¯į
é Ĵ
Ħ à¸£à¸
×ł ×Ļ
s s
ĸ à¸
à® ª
å¤ ļ
6 6
_ _
ãĢ ĳãĢĲ
Ġ art
al am
à¯ģà® ®
áĥĺáĥ ķ
it t
×ĳ ×¨
åĽ½ éĻħ
am e
ĠÏĢ Î¿Ïħ
ãģ ķ
Ã© s
ĠãĢ ĳ
Ġc ol
ëĭ Īëĭ¤
Ġcom p
eg o
áĥłáĥ Ĺ
ie w
è ¨
at t
Ġ×¢ ×ľ
áĥĶáĥ ¢
Ġa ut
Ġc n
ur s
Î¹ Ïĥ
Ġà¦ Ń
ic i
è ģ
ĠÙĩ Ùħ
ĠÙħ ØŃ
§ à¸²à¸
ç¾ İ
Ġm u
è½ ¦
åŃ ¦
7 7
à¤¿à¤ ¤
Ġc á»§
à®¾à® Ł
à¦ £
at er
à ©
Ġà° İ
ĠÐ °
Ġk e
áĥĺáĥ Ľ
Ġë Ĥ
Ġ Å
à§ĩà¦ ķ
o ut
Ġå ®
Ġ à´
E S
ÎŃ ÏĤ
Ġï¿½ ï¿½
Ð° Ñı
àµį à´
Ã ²
à°ķ à±įà°
Ġcá»§ a
an te
1 5
ÐµÐ ¹
im e
ĠÂ ·
ĠÄ Ĳ
Ð» Ñı
× ļ
à°¾à° ¯
Ġ201 4
à§ ľ
ch t
Ġm ak
å· ¥
à¯ģà®¤ à¯įà®¤
Ġà¤ Ķ
ãģ£ ãģ¦
Ġn ie
Ïģ Î¯
äº ĭ
Ġ× ĸ
ç ¨
n er
à¯įà® ©
çĻ »
¦ à°¿
Ã ±
ìŀ Ĳ
Ä±n da
à¤ §
Ġà° ľ
ìľ ¼
Ùħ ÙĨ
ĠS e
áĥĶáĥ Ĵ
à¸Ļà¸ µ
at i
Ġà¤ª à¤°
ĠC OM
d an
Ġè ¿
à¸Ń à¸Ļ
Ð¸ Ð¸
l ik
om e
ÉĻ y
Ġt y
el e
à¹ĥà¸ «
· ¸
à¯ģà® Ł
ãģ Ĥ
ç ¤
Ø§Ø± ÛĮ
end e
×ķ× Ŀ
Ġë ĭ
à°Ĥà° Ł
Ġáĥ ¢
Ġà¤Ķ à¤°
Ł à¸£à¸µ
l es
áĥķ áĥĺáĥ¡
Ġ Ø§Ùħ
å® ī
ĠS p
åĽ ¾
ãģ§ ãģĻ
° à¹Ģà¸
ĠâĢ ŀ
éĹ ¨
ë Ŀ¼
Ġà¤¹ à¥ĭ
Ġ201 3
ÏĦ Î±Î¹
ich t
Ø± Ø§ÙĨ
Ø¹ Ø¯
ol og
Ðµ Ðº
Ùĩ Ùħ
Ġp ol
Ġh á»
Ã¢ n
or s
z i
áĥĶáĥļ áĥĺ
Ġth is
er a
áĥ ¨
Ùħ ÙĦ
éĩ ĳ
z en
Ġà°ļ à±ĩà°
à±ģà°¨ à±įà°¨
ĠáĥĴ áĥĲáĥľ
Ġæ Ī
Ġm Ã¼
ĠÙĩ Ø§ÛĮ
à¥įà¤¯ à¤¾
à®² à¯įà®²
Î¹ Î¿
Ġì Ĥ¬
Ġc an
æ³ ķ
Ġw as
å ģ
Ġ4 0
à°¿à° ¤
à¦¿à¦ ²
à¤¿à¤ ²
à±įà° µ
Ġå Ī
é £
lar Ä±
áĥĲáĥ Ĵ
± à¸Ļ
Ġs ur
Ġå ĩ
v en
×ķ× Ĳ
o ok
u z
áĥĺ áĥĲáĥľ
æ Ľ
Ġc l
Ð¾ ÑģÑĤ
ĠQ u
Ġ á
ĠÏĢ ÏģÎ¿
áĥĺáĥ Ŀ
Ġãĥ »
Ġà®ĩ à®°
ç ®
áĥ ŀ
æľ Ģ
n ÄĽ
ÙĪ ÛĮ
Ġo s
Ð°ÑĤ ÑĮ
à§ģ à¦²
ÎŁ Î
Ġæ Ĺ
Ð° Ñģ
ãģ ł
n ya
ìĽ Ĳ
i ÅŁ
u h
Ġm er
as e
Ġvo or
Ġs ol
Ġ201 2
ĠÎµ ÏĢ
à®Ļ à¯įà®ķ
Ã¡ t
W W
×Ļ ×ķ×ª
Ġs c
Ġl as
Îµ Î½
éĥ ¨
n Ã©
Ġp ers
ab le
å½© ç¥¨
y o
ĠE l
Ù ¾
áĥ ¦
1 6
3 3
éĽĨ åĽ¢
Ġà¤ķ à¤¾
Øª Ùħ
Ã¡ n
áĥ £
Ġï¿½ï¿½ï¿½ ï¿½ï¿½
Ġre c
Î® ÏĤ
áĥĺáĥ ļáĥĺ
ĠÐ ļ
¸ à±įà°¤
Ġà¸ ªà¸
Ġp our
à®± à¯įà®±
av e
å® ¢
Ïģ ÏĮ
×Ļ× §
ì Ĩ
ĠÃ ¨
ë ŀ
×Ļ× ĳ
ë ©
¡ à±ģ
åħ ¥
ÙĦ Ùī
åı ¯
Ġs ch
çľ ĭ
à§ĩà¦ ²
âĢ ¦
Õ¥ Õ
ãģĹ ãģŁ
ĠÏĥ ÏĦÎ¿
æ ı
n et
Ã¡ s
à¤¾à¤ ®
m o
å ł
Ġê ¸
a f
ç ķ
Ġë ª
à°Ĥà° ¤
Ġg o
Ð¾Ð º
w e
el d
is e
ç½ĳ åĿĢ
áĥĲáĥ ĺ
à§ĩà¦ ¶
ĠØ§ÙĦ Ø¬
Ġáĥ ª
O R
ĠØ§ÙĦ ÙĤ
ÙĦ Ùħ
Ð¸ Ð»
ç ´
Ġå ľ
Ġm ag
t uk
Ġà® Ĵ
r et
Ð¾Ð ¶
o x
à¥įà¤ Ł
èĩ ª
Ù Ĵ
Ġå į
Î¿Ïħ Î½
é ķ
aci Ã³n
æ £
g i
Î Ĺ
is h
ĠÐ »
5 5
á» ĭ
áĥĲáĥ ¨áĥĺ
à¤¾à¤ ¯
×Ļ× ©
A L
Ġë ³
Ïģ Î³
Ġå Ĳ
Ġb il
Ñ Ħ
§ à§
ĠÐ¾ ÑĤ
en a
Ð¸ Ð¹
Ã¬ nh
áĥĺáĥ £áĥ
Ïĥ ÎµÎ¹
ĠØ¹ ÙĨ
Î¼ Î¿
´ à¸Ļà¸
è ·
à§ģ à¦°
1 4
Ġì Īĺ
m in
è ¶
y n
ÙĢ ÙĢ
Ġáĥ §
ÖĢ Õ
Ġà°µ à°¿à°
áº ¯
à¹ĥ à¸Ļà¸
Ĥ °
1 7
el s
ÑĤ Ð¾
çİ ¯äºļ
à¦¾à¦ ľ
ë ¬
à¦ ¶
à° ļ
Ø¨ ÙĬ
áĥļ áĥĺáĥ¡
Ã¸ r
Øª ÛĮ
g en
ĠÐ½ Ðµ
à§įà¦ ·
Ħà¸ §à¸²à¸
ãģ ĳ
m en
ad e
ç Ħ
å ķ
a ÄŁ
Ġin d
ch en
ĠW WW
Ġà¦ª à¦°
Ġáĥŀ áĥł
A T
è® ¡
æĹ¶ å½©
n en
à¤¤ à¤¾
Ġin c
er v
èĤ ²
à¤¾à¤ ¸
t r
ĩ à¹Ģà¸
Ġà¦ı à¦ķ
in k
y ch
ìĸ ´
å® ļ
ĠÏĦ Î±
áĥĲáĥ Ļ
à¹ī à¸Ńà¸
Ġch o
Ġsi ÄĻ
Îĳ Î
ĠÎ ²
ä¹ Ī
) ;
×Ļ× ĵ
Ġcon s
Ġt a
ÑĢ Ñĥ
ĠØ§ÙĦ ÙĨ
åİ ħ
Õ¸ÖĤ Õ
ä¹ ĭ
å½ ķ
Ð¸ Ð²
ow n
à®³ à¯į
Ø³ ÛĮ
w a
or a
Ġáĥĺ áĥ¡
Ġ ä½
ĠÑ į
Ġì ¹
eng an
èĢ ħ
ĠØ§ÙĦ Ø´
ĠA d
Ġc u
Ġm ay
ĭ à¸
à¦¤ à§ĩ
åī į
åľ º
ĠÏĥ ÏĦÎ·
b a
ĠâĢ Ķ
Ġìŀ Ī
ì² ľ
4 4
é ¦
Ġ×Ķ× Ĳ
n ing
èµ °
åĬ ł
åį ķ
Ġ ÏĨ
ãĥ³ ãĥ
ig e
à±ģà° ¤
Ġê µ
ãĤ ¢
à¤ ¼
ĠØ¢ ÙĨ
åĬ Ľ
à¤¾à¤ µ
æĸ ĩ
ä¿ ¡
e j
æĹ¶ æĹ¶å½©
Ġæ ĸ
in h
Î» Î·
Ġå Ľ
åĬ ¨
å §
à¹Īà¸ ĩà¸
¡ à¸µà¸
ä¸ ĩ
Ġv i
å¥ ½
Ġal s
í ĸ
Ø§Ø ®
l ÉĻ
es i
ļ à¸Ńà¸
l and
Ġà¦ ²
çİ °
y s
Ã ¦
¹ Ħ
Ġf in
ÙĪ Ø¹
id o
çī Į
) .
1 3
ĠB r
éĢ Ł
é ĸ
er i
6 0
æĬ ķ
Î± ÏĤ
Ġà¦ ¥
ãĥ³ ãĤ
á» ¯
Ġd as
ĠÎ Ł
à¤¨ à¤¾
å¿« ä¸ī
Ġç Ķ
à®¿à® µ
ĠP h
ĠØ º
à¯ģà® ±
å¿« 3
ĠØ¨Ø± Ø§ÛĮ
ĠÏĢ Î±
ãĤ Ī
×ķ× ¤
à ª
Ġì ĥ
å¿ ĥ
iá» ģ
ar y
ë§ Į
j i
æ´ ²
S T
h er
Ġm eng
Ġf un
t i
Ġre g
à¤¾à¤ ¹
Ġy our
à°¨ à±ģ
l an
Ġà° ²
á» ±
as a
¯ ¸
Ġë ĮĢ
à¦ Ń
å ĭ
Ġï¼ ģ
ion s
é ľ
Î¼ ÎŃ
ÐµÐ» ÑĮ
áĥ£áĥł áĥĺ
ĠÐ¾ Ð±
Ġê ·¸
Ġå ¹
ad os
ĠáĥĽ áĥĿáĥ
ar s
ĠØ§ÙĦ Ø¥
ĠØ§ÙĦ Ø¯
¥à¸ °à¸
è £
à°ķ à±ģ
2 4
al ar
Ġ3 5
is i
èµ Ľ
ĠÏĥ Îµ
w o
áĥĲáĥ ļáĥĺ
äº §
Ġo ver
í Ķ
à¦ ļ
Î½ Î·
Ø§Ù ĭ
åĬ ¿
Ġáĥ ļ
ĠG r
ĠØ§ÙĦ Ùģ
ê² Į
ak an
Ġæ ĺ
ì Ĥ°
-- --
áĥĶáĥ ¥
2 8
us e
Ġ Ïħ
Ġå Į
Î¿ Î»
Ġ201 1
ĠO n
Ġs el
Ġb el
à¤¿à¤ ¸
Ġg en
Ġj ak
ĠÙħ Ø´
ÙĦ Ø§Ùħ
ÙĪ Ø¨
g an
×ķ× ©
d ÉĻ
áĥĽ áĥĲ
à±Ĩ à°²
Ðµ Ñģ
ĠÎ »
ik a
Ġ id
± Û
áĥĺáĥ łáĥ
u a
Ġp ost
Ġp as
ê³ ¼
à®¾à®° à¯į
Æ°á»£ c
×Ļ× Ĳ
Ġ ä¸Ģ
Ġ ÑģÑĤ
à¤ ¶
Ġà®ª à¯ĭ
ìĹĲ ìĦľ
ĠãĢ Ĳ
Ġë ¶
à¦¨ à§įà¦
ģ à¸£à¸
ëĵ ¤
í ĺ
an ce
· à¸Ńà¸
Ļ Ģ
äº İ
à¹Ħà¸Ķ à¹ī
» ¿
ä» £
ÙĤ Ø¯
ë ĮĢ
Ġs al
Ġk o
k er
åº ¦
d ir
ĠÙħ Ø±
ë ª
er o
ìł ķ
áĥĶáĥĳ áĥ£áĥļáĥĺ
or y
×¨ ×Ĳ
Ġ íķ
Ð¸ Ñĩ
ãĥ¼ ãĤ
éģ ĵ
in s
å £
or es
à¦ §
à®¿à®¤ à¯įà®¤
à¤¹ à¥Ģ
à®© à¯įà®±
Ġà®ħ à®µ
ĠÎ± Î½
Ġun tuk
±à¸ ĩà¸
Ã© m
ÙĦ Ùĥ
ÙĬ Ùħ
Ø§Ø ·
ìľ¼ ë¡ľ
Ä± k
ä¹ Ł
Ïī ÏĤ
éĿ ¢
iy a
à®¾à®© à¯į
Ġà¦¸ à¦®
à±įà° ļ
Ġin i
r en
ÏĦ Î®
Ġg e
emb er
Ġde m
ä¸ »
Ġfr om
el a
ĠS ch
ãĥ ¬
áĥĶáĥĳ áĥĺáĥĹ
r on
à¯ģà® ³
ion al
Ø§Ø µ
9 0
Ġl ang
ç Ł
×ķ× §
ĠØ§ÙĦ Ø¨
åĪ ©
é¢ ĳ
g o
Ġà¦¹ à§Ł
an y
à¹ Ĥ
ĠÚ© ÙĨ
à®¾à®² à¯į
ĠØª ÙĪ
Ġd engan
Ġun e
Ġk on
Î¬ Î½
re d
èī ²
Ġì ¶ľìŀ¥
Ġå½ ©
à°² à±ģ
Ġi Ã§
ÃŃ a
o h
åĮ ĸ
à°ª à±įà°ª
Ð°Ð ´
c es
Ġ3 1
æŀ ľ
áĥĲáĥ ĸ
8 0
ĠÙħ Ø¯
ìĦ ±
ĠâĢ ¢
ÐµÐ ²
áĥ£áĥ łáĥ
Ġì ľ
Ġ Ø§Ø±
áĥĲáĥ ¨
am an
Ġp os
id a
Ġs eg
ĠS h
2 5
Ã µ
Ùĩ âĢĮ
ing s
¶ à¸
Ġpr z
Ġe v
Ġáĥ¡ áĥĲáĥĽ
Ïģ Îµ
Ġâ Ĥ¬
áĥĶáĥľ áĥ¢
Ġp e
ab il
ģà¸ ±à¸
áĥ® áĥķ
å ¦
Ġê° Ģ
×ķ× ¢
or i
à°² à±ĭ
Ġà¦ ĩ
Ĺ äº¬
Ġk ar
çĤ ¹
à¥įà¤ µ
ìķ Ħ
áĥĲáĥ ¥
á» ¥
Ġc ar
í Ĩ
ĠB u
à¦¾à¦ ¹
ar k
å »
âĢ ľ
åĮ º
á» ©
ÏĦ ÏĮ
iv ers
ÙĨ Ú¯
an k
à¹Ī à¸Ļ
Ġâ Ĩ
à§ĩà¦ Ľà§ĩ
ĠÏĦ ÏīÎ½
ÉĻ h
est a
áĥ ĸáĥĶ
ä» ¶
Ġà¦ «
ij n
¡ à¸²
im a
á»Ļ t
è ²
Ī à¸²à¸
Ġm it
Ġh er
¾ ³
Ġä¸ Ń
Ġà®ķ à¯Ĭ
ot o
Ġà¤ «
Ø° Ø§
à§ ¦
íĻ Ķ
Ø§Ù ĥ
Ġb ar
s ch
Ġap p
ãģ Ĭ
ĠÄ į
Ġo ut
Ïĥ Îµ
è °
· à¸Ń
à°¿à°ķ à°¿
è´ ¹
A S
ed e
es e
Ġb et
ÉĻ b
à¯ģà® ¨à¯įà®¤
é ¾
Î» Îµ
00 0
u x
Ġs up
Ġc Ã¡c
à°¿à° ¯
Î¯Î½ Î±Î¹
l et
å½ ±
en ÃŃ
os e
à¹ Ĩ
el le
ÙĨ Ø§
ĠØª ØŃ
Î» Î±
Ð¾Ð» ÑĮ
çĻ» å½ķ
ul a
! !
áĥĺáĥ ĸ
Ġcom o
éĢ ļ
ë ²
á ł
¬ ¬
g er
l am
Ã© r
Ġkh Ã´ng
ê± ¸
×ķ× Ĺ
Ġà§ ¨
Ġà¤¹à¥Ī à¤Ĥ
Ġo u
ç« ¯
áĥĶáĥ Ŀ
à¹ī à¸Ļà¸
E L
is a
Ġn on
am ente
Ġ @
à°Ĥà° ¡
4 0
å¯ ¹
åĨ Į
Ãł y
ĠÐ Ŀ
Ä±n Ä±
Ġà¤ ĸ
2 7
Ġáĥ¡áĥĲáĥ ¥
y m
Ġc a
ĠV er
ĠÙħ Ø³
Ġv on
à¯Īà® ķ
us s
áĥĺáĥ ¨
ĠãĢ į
Ø§Ø ³Øª
à¸£à¸ ´à¸
Ð¸ ÑĢ
oc k
Ġin form
ĠØ¯ Ø§ÙĨ
ãģª ãģĦ
à¤¿à¤¯ à¤¾
à°¿à° ª
Ġm i
c ess
ìķĪ ë§Ī
ÎĻ Î
Ġi f
E T
½ ľ
×ķ× ¡
m l
áĥĿáĥ ¤
ĠÐ¿ Ð¾
áĥķ áĥĶáĥľ
åĲ İ
ÐµÐ ³
ol l
Ġà¤ı à¤ķ
Ġpr es
¥ à¸²à¸
ĠÐ ł
à±įà° ¸
Æ ı
æĥ ħ
ëĤ ĺ
äº Į
Ã¼ k
Ġ Ĉ
ĠÐ ľ
Ġà¤¨ à¥ĩ
Ã¡ v
çľŁ äºº
Å Ħ
ĠC on
Ġ201 0
á» Ł
ĠÛ ±Û
ĠØ¥ ÙĦÙī
ÙĪ Ø´
I C
ë į
ĠÚ© Ø±Ø¯
ìł ľ
à¤¿à¤ ı
ë¶ Ģ
y st
Ġ <
Ġon line
? ?
à±įà° ®
ãģ£ ãģŁ
Ø ¢
Îº Îµ
z ie
ub l
Ùĩ Ø±
Ľà¹ĩ à¸Ļà¸
ìĥ ģ
à¯ģà®ķà¯įà®ķ à¯ģ
Î¿ Î½
Ġà¦ ĸ
à§ ĥ
± à¹īà¸
ĠÄĳ Æ°á»£c
à° ¹
à± Ĥ
ĠE r
j on
è ĭ
ç ©
à° ľ
Ġà¤ĩ à¤¸
å° ±
ĠA m
à¤¿à¤ ¨
áº ·
Ġ à¹Ĥà¸
à¤¾à¤ ¦
Ġz u
ĠÙģ Ø±
à§ Ĥ
ĠØ§Ø ³
2 3
ÙĬ Ø³
áĥ ĸ
Ġë ı
æĪ ĳ
Ġk i
im i
è ª
Ġin f
ĠØ§ÙĦ Ø®
Ġáĥ¨ áĥĶáĥĽ
ĠáĥĶ áĥłáĥĹ
å¤ ĸ
Ġ4 5
à¤¾à¤ ļ
à¦Ł à¦¿
Ġ3 3
ÐµÐ½ Ð¸Ñı
Ĥ à¸Ńà¸ĩà¸
Ġ× ¦
æĸ Ļ
b et
è Ĳ
ĠN o
ĠÙħ Ø§
æ Ł
í ĥ
ĠÐ ŀ
è¿ Ľ
Ġ×Ķ× ©
Ġb aÅŁ
Ġìķ Ħ
Ġd Ã©
æ³¨ åĨĮ
Ġd r
Ġn i
áĥĲáĥł áĥĺ
ÛĮ Øª
ìł Ħ
l ed
ĠÎµ Î¯Î½Î±Î¹
Ġà¦Ĩ à¦®
ĠÏĢ Îµ
p o
em a
Ġê¸ °
à§ĩà¦ ĩ
ð Ł
Ð¸ÑĤ ÑĮ
Ġa f
r os
ë Ł
à¤¾à¤ ľ
Ð¸ Ð·
ĠÛĮ Ú©
åĪĨ å½©
ad i
æľ Ł
ap at
ä» ¬
ĠI t
ay s
à¤¤ à¥ĩ
ĠO r
Ġà®İà®© à¯įà®±
áĥ ¤
è§Ĩ é¢ĳ
ÙĪ ÙĤ
é¾ Ļ
y t
é ļ
en n
à±ģà°² à±ģ
åı ¸
ro l
à®¾à® µ
ë Ĳ
2 9
Ġæ ī
ĠM a
et e
Ð¾Ð ·
ĠÙħÛĮ âĢĮ
èµ° åĬ¿
s c
×Ļ ×Ļ×Ŀ
ĠA p
à¦¾à¦ ª
or k
ah a
Ġm al
ĵ à¸
ĠB l
à°¾à° Ĥà°
ul ar
Ġpers on
à¸Ń à¸²à¸
Ġh ave
Ðº Ð°
Ġåľ ¨
Ġ íķĺ
at iv
ç» ı
ÛĮ Ø´
Ġd ur
Ġà®ħ à®¤
z o
åĪ Ĵ
Ð°Ð» ÑĮ
ĠP l
Î ¡
ÅĽ ci
r it
U R
az ione
×Ļ× ¢
à´ ¿
ä¿ Ŀ
ĠØ§ÙĦ Ùĥ
ļ à¸²à¸
Æ° Æ¡
ìĥ µ
à¸Ńà¸ ¢
áº§ n
u i
Ġà®ļà¯Ĩ à®¯
Ùħ Ø¯
¾³ éĹ¨
¡ °
ĠØ¨ Ø§Ø²
g et
ik e
Ġma is
å¾ Ĺ
Ġà¦ Ľ
à¤² à¥ĩ
Ľ à¸£à¸°à¸
Ġw ill
à¹ī à¸Ļ
Ġr el
ĠÐ² Ñĭ
Ã¼ m
ç ³
Ï Ī
Ã¡ ch
Ġst r
at ur
ĠÃ º
£áĥ ļ
Ġser v
Ġz a
p h
à°¾à° ¤
Æ°á» Ľ
Ġj s
an e
Ġy a
æ Ĵ
í ı
ut e
æ º
áĥĺ áĥĺáĥ¡
Ġìł Ħ
ìł ģ
Ðº Ð¸
à¤ķ à¥įà¤
à°¿à° ²
Ġ, "
Ġs it
Ġp i
Î¯Î± ÏĤ
æ° ĳ
à¤° à¥Ģ
åį ļ
Ġåĩ ¯
Ð°Ð ±
Ġtr ong
á» ĩ
ler i
åı Į
å® ŀ
ol e
à¯įà® ®
ind e
Ġj u
Ġb a
Ġs am
åĲ Į
Ġ Ø§ÙĪ
Ġå½© ç¥ŀ
ĠN ew
Ġdel la
Ġb es
à¸£à¸µ à¸
ĠØ§ÙĦ Øµ
al iz
Ø§Ø± Ø¯
Ġas s
Ġë ¬
ãģĻ ãĤĭ
ëħ ¸
à°¿à° °
ĠÎ ĵ
Î¿Ïħ ÏĤ
ol d
åĨ ħ
å®¢ æĪ·
iá»ĩ n
ĠÙĨ Ùħ
ĠÐ µ
åŁ İ
à§įà¦ ª
Ã Ł
Ġi ÅŁ
ĠÙħ Ø¬
Ġ6 0
åĲ į
éĩ į
ÏĥÎ· ÏĤ
à¹īà¸ §à¸
à®¾à® ¯
Ġf e
æĬ Ģ
à¤ Ń
æĹ Ĺ
à° ¬
çī ©
à§įà¦ ¥
ìĨ Į
Ø± Ø©
æ° ´
* *
à°Ł à±įà°Ł
im ul
Ġì ļ
Ġ× ĺ
ł à¸²à¸
Ø± Ùĥ
Ġpro du
Ð½Ñĭ Ðµ
æ ¶
ĠÎ± Ïħ
Ø¨ Ø§Ø±
d Ä±r
Æ°á»Ŀ i
ind ÉĻ
í ħ
êµ Ń
ãģ ©
Ġh ab
ĠP re
Ä± ÄŁ
æīĭæľº çīĪ
it s
çŃ ī
ĠA z
y on
Ġì ĸ
ion i
if ic
è¿ ĩ
à°Ĥà° ²à±ĭ
Ø§Ø¯ Ùĩ
à°¾à° ®
O S
v a
Ä±n a
Ġm em
ļ Į
Ùģ Øª
ä½ĵ èĤ²
Ġm y
an c
ãģĭ ãĤī
« áĥļ
ĠT e
Ġì¹ ´
en i
æ ¥
ĠØª Ø¹
êµ ¬
ãģ Ī
Ġt od
×ķ× ŀ
d y
p a
Ġw eb
Ġï »¿
Å¼ e
A M
Ġm il
è Ĭ
Ġt u
à¦¿à§Ł à§ĩ
Ġ3 4
ä¹ ħ
Ġï¼ Ł
Ġà¦ Ł
Ġæ Ŀ
æ į
Ġ×Ķ ×ª
Ġ Å¾
7 0
l ad
à°¾à° Ł
Ø§Ø ¶
an i
Ġà¦¬ à¦²
ìļ Ķ
è¿ Ļ
ĠU S
Ġà° Ī
ĠæĪ ĳ
ÙĦ Ø§
ĠB e
áº¡ n
Ġm á»Ļt
ãĤ ģ
Ïģ Î·
Ø§ÙĨ ÛĮ
é Ĥ
ent i
Ø ¤
ĠãĢ ĭ
iy y
Ïģ Ïī
§à¸ ´à¸
Ġpro f
çī ĩ
ation s
Ġà¦ħ à¦¨
Ġpro p
ĠÎ ¬
´ Ģ
er en
Ġìĭ ľ
Ġà§ §à§
ĠÚ© Ø§Ø±
Ġc i
Ú¯ Ø§Ùĩ
Ġn u
¨ à¸
h i
ing en
I T
ĠP ost
Ġ×ŀ× ©
ĠÙħ Øª
v o
Ð½Ñĭ Ñħ
Ø³ Ø¨
ç ²
re e
áĥĲáĥłáĥĹ áĥķáĥĶáĥļ
Ġà¤ ¥
å¼ ı
and a
k et
ĠÃ ĩ
à¸² à¸Ļà¸
Ġd ans
Ġp u
Î ¤
Ġc z
Ġv al
Ġì§ Ģ
ĠØ§ÙĦ Ø±
æ ģ
ĠãĢ Į
Ġh as
à¤¤ à¥Ģ
é ĥ½
à¦¿à¦ ¬
ĭ çīĮ
Ġáĥ ĸ
è¡ ¨
ç Ī
Ġc as
Ùħ Ø©
Ġf Ã¼r
æŃ £
ç Ŀ
li ch
Ġvá» Ľi
Ð°Ð ¹
ra f
at u
od e
Ġà¤µ à¤¿à¤
à° £
am il
er d
è¿ Ĳ
Ð¸ Ñħ
Ġ×ŀ ×Ķ
Ġ×Ķ× Ĺ
Ġa i
ÑĢ Ð°
et te
Ġv ide
Ġc or
Å¡ ÃŃ
ÙĦ Ø©
ãĤ Ħ
¥ ¿
é Ķ
ĠáĥĶ áĥ¡
Ġum a
ĠF or
å± ķ
Ú ĺ
Ð¾Ð ¿
ĠÏĦ Î¹
ÐµÐ ·
ë³ ´
Ġin st
æĢ §
æı Ĳ
×Ĺ ×¨
Ãµ es
ãĢ ģ
Ġfor m
Ã¡ l
à¦ ¯à¦¼
Î Ŀ
am ento
æķ °
à®¾à® ³
Ġv ol
Ġk l
ĠW e
2 6
Ġin s
on a
ĠÐ Ĳ
Ġ×ĳ ×Ĳ
à¹ĥà¸ Ĭ
ĠØ® ÙĪØ¯
Ġí ĺ
ist a
à°¾à° ķ
×ķ× ¦
il d
à¥ĩà¤ ¶
u ch
ĠH otel
ĠÎ¸ Î±
çĲ ĥ
ro w
Ġà® °
èµ Ħ
à¦ ¥
al t
à®Ļ à¯įà®ķà®³
Ã½ ch
y l
Ġd al
Ġd os
Î¹ Î¬
ĠP ar
Ġà¸ ª
å®¢æĪ· ç«¯
ãĥ ķ
Ġ3 6
ul d
Ġà®ª à¯Ĩ
Ġn ew
à§ĩà¦ Ľ
Ä±n Ä±n
Ġy ap
Ġà¤¸ à¤Ĥ
ìļ ©
Ð½Ñĭ Ð¹
çł ģ
à°ķà±įà° ķ
ĀĀ ĀĀ
Ġau f
å ¢
áĥĺáĥ¡ áĥ¢
Ħà¸ ¸à¸
Ġ Ø§Ùģ
o i
Ġ" .
Ġæ ¾³éĹ¨
ind i
ol a
iá» ĥ
Ġ×ķ ×Ķ
b i
áĥĲáĥ ¤
Ġag çİ¯äºļ
Ġg el
èµ°åĬ¿ åĽ¾
ĠÏĥÏĦÎ· Î½
Ġà° Ń
åħ ³
Ġa k
éķ ¿
Ġ ur
é ħ
à®¿à®Ł à¯įà®Ł
Ð¸ Ñģ
Ġg et
¤ ĳ
ĠÏĦÎ¿ Î½
ĠA ng
åĬ ¡
×ķ× Ĵ
Ġd ari
ĠÐ Ķ
Ġ ant
Ã¼ l
Ġm at
Ġd ÉĻ
ãģĵ ãģ¨
4 5
d uk
à¹ĥà¸« à¹īà¸
Ġp ot
Ġ3 8
Ġa an
r as
×Ļ× ĺ
Ġin v
em e
Ä± s
áĥĿáĥ ª
Ġâ ĺ
ĠP ol
at ed
ìĹ ħ
y r
c an
ir a
Ġk a
ÙĤ Ø©
áĥĲáĥ ĳ
.... ....
à¤ Ī
ÙĪ Ø³
æ£ ĭçīĮ
Ġç ļĦ
ĠÙĨ ÛĮ
½ľ ê±¸
ĠI l
Ġj ed
Ġ5 5
ë© ´
ĠgÃ¶ r
å» º
7 8
Ġà° ¶
an h
ÅĻ ÃŃ
åħ ĥ
Æ°á»Ŀ ng
Ġs em
áº£ i
áĥĹ áĥĲáĥľ
Ġë ĵ
Ø² Ø§Ø±
Ġà®µ à®°
ĠA b
áĥĲáĥ ĸáĥĶ
×© ×¨
à¥ ī
ĠÎ Ĺ
ĠP er
×Ļ× ŀ
Ø§ÙĨ Ùĩ
Ð½ Ð¾Ð¹
è®¡ åĪĴ
Ġà®Ĵ à®°
Ġà¦ķà¦° à§ĩ
ov e
pr es
Ġ3 2
Ã¡ m
Ġ íķľ
ãĥ Ń
all y
è§ £
ç³ »
Ġtr ans
á» į
à±ģà° °
Ø± Ùħ
Ġt ut
è§ Ħ
à®¾à® ®
gr am
Ãł ng
iá»ģ u
ä½ į
Æ°Æ¡ ng
ÙĨ ÙĬ
a ar
Ġé ĩ
æĺ İ
Ġáĥ «
ion es
Ġin t
à¦¬ à§ĩ
×Ļ× ¤
Ã¥ r
s te
« à¸Ļ
Ķà¸ ´à¸
ëı Ļ
çĽ ®
Ġáĥ¨ áĥĶáĥ
i x
Ġåĩ¯ åıĳ
Ġs ec
Ġìł ľ
Ö ģ
Ġal le
ì Īĺ
à¦¿à¦ ¸
Ġs v
Ġí Ļ
Ġ200 9
ĠáĥĲáĥ ĵ
ĠìĿ ´ë
à¸Ń à¸£
èĪ °
Õ¸ Õ
E D
ĠIn d
Ġà° ¹
Ġb o
Ġ3 9
à¦ķ à§ĩ
à®³ à¯įà®³
à°° à±į
ĠÑ Ħ
it Ãł
Î± Ïĥ
Ã¼ ÅŁ
Ã¶ n
ĠÂ °
í Ħ
áĥ£áĥ ľ
à¦ ĸ
åĪ ¶
Ġhttp s
ģ à¹Ģà¸
Īà¸ °à¸
áĥĿáĥĳ áĥĺáĥ¡
Ġof f
Î¸ Î·
à°¾à°² à±ģ
áº£ n
ĠáĥĹ áĥĲáĥķ
à°Ĥà° Ĺà°¾
çī ¹
or n
Ãł nh
à®¿à® ªà¯įà®ª
at is
it ion
à¥ Į
Ġä¸ į
Ġb ut
ÙĨ Øª
å· ŀ
åı £
Ġk ung
Ļ à§įà¦
il a
Ġ×Ķ× ¢
ãģ ¤
Ġt ra
Ġà®µ à¯ĩ
×ł ×ķ
Ġk al
à¹Ħà¸Ķ à¹īà¸
om b
w i
ãģ ¡
ĠIn ter
ĠA s
ç µ
æµ ·
Ġáĥĺ áĥľ
å¥ ĸ
Ġs l
ĠáĥĴ áĥĲáĥĵ
à¹Ħà¸¡ à¹Īà¸
ĠE x
ì§Ģ ëħ¸
ĠÎ´ Î¹Î±
ìĬ µ
Ġê² ĥ
Ġáĥĺ áĥĽ
×Ļ× ¡
äº Ķ
Ġ Ô
Ġs oc
ang an
ag a
ä¸ İ
Ġdi re
Ġt id
éĩ ı
Ġs m
il le
à¥įà¤ ¹
åĳ ĺ
ãĤ ¿
Ġæĸ °
ĠP M
Ð° ÐµÑĤ
b ay
áĥĶáĥł áĥĺ
åħ į
ãĤ ·
ëĭ Ī
à¹ī à¸Ńà¸ĩà¸
Ġ4 8
en ce
Ġqu i
ĠAn d
à¯ģà® ªà¯įà®ª
áĥĿáĥĳ áĥĲ
ĠN e
à¤¨ à¥Ģ
ĠØ °
ent s
ĠÏĦÎ¿Ïħ ÏĤ
Ġ áĥĲáĥľ
äº ¤
ĠÃ ĸ
t re
Ð½Ð¾ ÑģÑĤ
Ġn et
ĠS a
±à¸ ģà¸
æī Ģ
Î¹Îº ÏĮ
ĠM an
¶ Ķ
áĥĲáĥ ¦
éĹ ´
æĹĹ èĪ°
Ġde c
Ġng Æ°á»Ŀi
æĦ ı
à¦ ĵ
à°ļ à±įà°ļ
åĽ ŀ
end o
Ġ×© ×Ķ
Ġé Ģ
Ùħ Ø±
Ġìł ķ
Ć Ĉ
æĬ ¥
ĠÐ¸ Ð·
Ĥ à¸Ńà¸ĩ
Ø§ÛĮ ÛĮ
Ħà¸§à¸²à¸ ¡à¸
Ł à¸
×ľ ×Ķ
à§ĩà¦ ĸ
id er
Ġs ob
Ġ×ĳ ×¢
m et
Ø¬ Ùĩ
ol o
Ø³ Ùħ
Ġa ct
Ãł n
an ia
ç¨ ĭ
n ik
Ø¨ ÙĦ
ÏģÎ¹ Ïĥ
ĠH e
×Ļ× Ľ
Ġå ¥
á»¯ ng
3 5
ak i
Ú¯ ÛĮ
Ġt em
à¤¹ à¥ĩ
Ġëª ¨
Ġ3 7
iz e
å± ±
ãģ Ľ
çĽ ´
Ġ9 0
ĠáĥĲáĥ ¡
×Ļ ×ķ
à¸Ļ à¸²à¸
ĠØ¬ Ø¯
Ġìĺ ¤
ĠØª Ø±
Ġm el
ÐµÐ½ ÑĤ
at s
ë ¹Ħ
Ġì Ĩ
Ġv is
æ ¡
Î¿ ÏĤ
§ à¹Īà¸²
Î¸ Îµ
ķà¸ ±à¸
ãĥ Ĺ
Â µ
I S
Ġf a
ĠÙĪ Øª
Ġ8 0
Ġro z
Ġd on
à´¿ à´
ov Ã¡
Ġt emp
c c
ì °
« à¸Ļà¸
Ãł i
ÙĦ Ùģ
Ġ$ (
à°¾à° µ
Ð½ Ð¾Ð³Ð¾
Ġm ot
ĠØ´ Ø¯
åķ Ĩ
ļà¸Ńà¸ ¥
Ġj est
å¥ ³
u ÅŁ
ÅĤ a
ĠÅ ŀ
à¸£à¸±à¸ ļà¸
p k
Ġa us
ìĺ ¤
Ġà®ĩ à®¨à¯įà®¤
åı ·
Ġâ ĸ
Ġs in
ÐµÐ½ Ð¸Ðµ
à¤¸ à¥ĩ
×¤ ×¨
ĠR es
ĠÎ Ŀ
Ġ19 9
Ú¯ Ø±
Ġr a
éĩ Į
Ġ4 4
A P
Ġde v
Ġáĥ¨ áĥĶáĥ¡
O L
c on
ĠåĮ Ĺäº¬
åįķ åıĮ
éĴ ±
Ø¹ Ø©
à±ģà° µ
à¤¿à¤ Ĥ
è¯ ´
åħ¬ åı¸
è į
ay an
Î¿ Î¹
ĠD es
à¦¨ à§įà¦¤
ç® ¡
Ñĥ ÑĤ
ic t
à° ³
A D
áº§ u
un a
Ġ; &
Ġc re
×ŀ ×Ķ
ìĿ´ íĬ¸
ª à¯į
ÙĦ Ø¨
er k
ÏĥÎµÎ¹ ÏĤ
ç ±
à¯Īà® ķà¯įà®ķ
uj e
Ġ3 65
à¹Īà¸ ĩ
ÙĬ Ùģ
ÙĬ Ùĩ
Ġà¤Ń à¥Ģ
Ã© e
Îº Î±
idad e
I L
é »
à±Ī à°¨
ëĵ ľ
ĠÎ± ÏĢÎ¿
Ġnh Æ°
Ġn ov
Ú© ÙĨ
Ġà¦ľ à¦¨
l en
ah an
à¸µà¸ ¢à¸
à¯ĩ à®°
áĥĲáĥ ¬
Ġv ers
o z
Ġ) ;
I D
Ġà¤ķ à¤¿
Ġol m
Ð°Ð ¶
ĠÐ´ Ð»Ñı
Ġ Ö
Øª Ø¨
Ã¶ r
Ġse x
Ġç ľ
Ġt ro
el t
at h
§ à¹Īà¸²à¸
Ġp ass
Î¹Îº Î®
p le
ä» ĸ
×ķ× Ľ
u f
×ł ×Ķ
ad ing
Ġz ijn
ab a
ik an
á» ĵ
ic al
ĠØ¨ ÙĨ
Ø¯ Ùħ
à®¿à® ´
Ġ×ĳ ×ŀ×
ow a
ĠiÃ§ in
íĦ °
èµĽ è½¦
Ġëĭ ¤
Ġ×Ļ ×©
ķ à¹Ī
Ã§ a
ãĤ £
ØŃ Ø¯
p on
et s
Ñĥ Ð´
Ġà¸ Ħ
ĠØ´ Ø¯Ùĩ
o f
p os
×ľ ×Ĳ
ç¤ ¾
Ġg er
imul yo
à° §
ed er
iv o
Ñİ ÑĤ
v is
Ġw ord
Ġå ¼
ĠáĥĲáĥ ¦
ĠB ar
Ġn ag
Ã¢ y
áĥł áĥĿ
à¹Īà¸ §à¸
Ġáĥ ¯
ãĤ ³
ÙĦ Ø³
ªà¸ ¸à¸
è ¢
is k
éĻ ¢
é ©
Û °
å Ļ
Ġal t
Ùĥ ÙĨ
b y
ĠÐ ¢
Ġh al
li y
à§ĭ à¦¨
s a
mi ÅŁ
áĥķ áĥļ
æĢ Ŀ
as h
ľà¸ ¹
à¯ģà®³ à¯įà®³
ĠC o
Ġ9 9
ãĤ ı
Æ°á»Ľ c
Ġis ang
Ġse b
ÃŃ t
u w
é ĵ
el ij
Ġf ra
ç ¦
ĠA M
à¤² à¤¾
à°¿à°Ĥà° ¦à°¿
äº ī
ç ĥ
çĽ ¸
f or
ri j
Ġà¤ Ł
Ġè¿ Ļ
r am
i Ãªn
Ġ ć
Ïģ Ïĩ
à®ªà¯įà®ª à®Ł
Ùĩ Ø¯
ĠØ «
ãģ ¿
à§ģ à¦¨
æ¬ ¡
Ġn el
ar m
Ġà¦¬ à§įà¦¯
Ġes c
ãģĦ ãĤĭ
à®¤à¯įà®¤ à®¿à®²à¯į
ĠØ¨ ÙĪØ¯
æĶ ¿
à¸Ń à¸Ļà¸
Ġ4 9
Ġn Ã£o
Ġà¦¨ à¦¾
ģ à¹ĩà¸
ri b
ĠáĥĲáĥ łáĥ
Ġ×Ķ ×¨
Ġv y
Ġp en
Ġs ing
´à¸ Ķà¸
æ¯ Ķ
Ġz e
¥à¸ °
¡ à¹Ģà¸
Ġà¤² à¤¿à¤ı
Ġng ud
Ġngud imulyo
ĠAl l
áĥĹ áĥķáĥĺáĥ¡
ĠÄĳ á»Ļ
Ġc r
ÏĢ Î±
ĠØ¢ Ùħ
Ġk m
à±ģà° Ĺ
Ġor gan
æĻ Ĥ
Ġ×Ľ ×ľ
ëĤ ¨
im o
ĠØ± ÙĪ
ï ½
ĠØ§ÙĦ Ø°
2 1
áºŃ n
ĠØ Ł
è· ¯
ĠÙĩ Ø§
an n
Ġáĥ£áĥ ľ
è® ¾
Ġm emb
à° Ń
ĠÃ ¡
Ġ ess
Ġr et
í ļĮ
Ġáĥ¡áĥĲáĥ¥ áĥĲáĥłáĥĹáĥķáĥĶáĥļ
Ã¼ z
Ġng h
Ġ7 0
Øª ÙĬ
æ ¼
Ġâ Ļ
ĠìĿ ¸
ig en
Ġà¤¸ à¤®
ĠÎ ®
ĠØ§ÙĦØª ÙĬ
ÑĨ Ð¸
ĠE st
ĠáĥłáĥĿáĥĽ áĥĶáĥļ
Õ µ
il er
à ¬
à¥ģ à¤°
Ġì Ĭ
Ã´ i
6 8
Ġà¤ ¡
ĠÐ ¶
Ð° ÑģÑĤ
Ð¾ Ñĩ
à°¾à° ¦
Ø® Ø±
Ġà¦¬ à¦¾à¦
à®° à¯įà®ķà®³
Ġáĥ¨ áĥĶ
Ġm us
Ø® Øµ
ent es
à°¿à° Ĺ
d f
it Ã©
íķĺ ëĬĶ
Ġå ¾
Ġáĥ¡áĥĲáĥ ®
ÙĤ ÙĬ
èµ Į
à°¨ à±į
ª à¸²à¸
er g
Ġb est
à¹Ī à¸Ļà¸
åİ ¿
um ent
à¸Ļà¸µ à¹ī
ĠD et
ĠC ar
è§ Ĥ
ĠC l
Ġr Ã©
à§Ģ à¦°
p ar
ov er
à§įà¦ ²
in iz
å ŀ
ag en
å° Ĩ
äºļ æ¸¸
ç ģ
ed en
Ġìŀ Ĳ
Ġl oc
ĠáĥĽ áĥĺáĥ¡
ĠØª Ùħ
Ġh an
ìĹ ¬
Ġs ub
ĠØ¨ Ø¯
ÅĤ o
é ª
ĠN g
y e
Ġáĥĺ áĥ§
Ġè Ģ
Ġpl us
Ġà¦ ¡
Ġ4 7
Ġ;& #
in ÉĻ
Ġk at
Ùģ Ø±
áº¿ n
à§ĩà¦ķ à§ĩ
Ġt en
Ġa z
ë ¯¸
f r
ĠJ e
Ġà¸ Ĺà¸
c y
ĠÙĦ Ø§
åı Ĭ
Ġnh á»¯ng
Ġà° ı
áĥĲáĥ Ŀ
áĥł áĥĺ
ur o
Õ¥ ÖĢ
Ġ ul
Ġm ore
æ´ »
ir m
Ð¸ Ð´
ãĥĥ ãĥĪ
an ie
Ġ/ /
Ġa le
à¤² à¥Ģ
äºļ æ´²
Ġç »
Ġ4 3
«à¸ ¥à¸
à®® à¯įà®ª
Ġà¦¤ à¦¾à¦°
ĠW h
Ġpro bl
Ġs us
ĠG o
Ġbu h
¡ à¸µ
á» ķ
à¹Ħà¸¡ à¹Ī
Ġ200 8
Ġn as
A C
Ġ×ŀ× Ĳ
Ġ×Ķ× ŀ
Ġm es
ĠáĥĲáĥ ®
u an
Ġà¤Ĩ à¤ª
à¸£à¸±à¸ ļ
Ġæ µ
Ġac c
è ¥¿
Å ©
Ġes p
ĠT er
èµ ·
à¸£ à¸£à¸
Ķ à¹Ģà¸
åº Ĺ
èĢ ĥ
ĠÙĪ Ø£
ĠØ§ÙĦ ÙĦÙĩ
lo ad
Ã¦ r
Ġ _
ÃŃ c
ĠØ ¶
í Į
ÏĢ Îµ
Õ¡Õ ¯
ĠÙħ ÙĤ
Ä± lÄ±
Ġre v
Ļà§įà¦ Ĺ
à¹ ģ
Ġãģ Ŀ
çİ ©
i os
Ġà° Ł
à¸² à¸Ļ
U S
on es
ang e
Ġe k
Ġ×Ķ× ĳ
à¸² à¸£
áĥĲáĥ £áĥ
c k
ut o
ĠØ¨ Ø§Ø´
à®° à¯įà®ķà®³à¯į
à¦ķ à§įà¦·
f a
Î¼ ÏĮ
Ġd om
´ à¸Ļ
à¤ķ à¥ĩ
çº §
çĻ ¾
çĿ Ģ
Ðµ ÑģÑĤ
Ġs et
c l
ÙĬ Ø¹
à°¿à° µ
ĠÐ ĺ
á» Ń
Ġp el
ìĽ Ķ
ìĬµ ëĭĪëĭ¤
ì ½ľê±¸
ÉĻr bay
al an
ÉĻs i
Ġc ent
ad as
Ġê² ½
Ġ4 6
al es
Ä± y
ä½ ¿
n ost
å®ĺæĸ¹ ç½ĳç«Ļ
à¦ Ľ
Ã¶ v
áĥĺáĥĵ áĥĲáĥľ
p s
à§įà¦ ®
åħį è´¹
æĹ ł
ĠM as
ĠæĹ ¥
ĠÎ´ ÎµÎ½
áºŃ t
× £
å ĸ
Ġáĥ§ áĥķáĥĶáĥļ
el i
Ġì °
Ġ. ,
iáº¿ t
Ġik ke
3 8
ĠÎµ Î½
Ġ Æı
Ð¸ ÑģÑĤ
áĥĿáĥ Ĺ
b ar
20 19
Ġpr zy
ÙĪØ± Ø¯
à®¾à® ®à¯į
áĥļ áĥĶáĥĳ
âĢ¦ âĢ¦
Ġæ Ń
à¯ģà® °
ĠÙħ Øµ
ai re
à¤Ĥ à¤¤
Ľ à¸£à¸
ar an
æĢ İ
at an
Ġim p
æ ¨
a q
Ġí ı
Ġp op
æľ į
ìĭ ł
Ġì ²
ec e
Ðµ ÑģÐº
à§ĩà¦ Ł
ĠØ¬ Ùħ
åĻ ¨
à¸Ńà¸ ¢à¸
ĠA G
Ġb ul
Ã§ Ãµes
Ġc ap
ur n
Ġà¦ı à¦¬
Ġf il
íħ Ķ
à¥įà¤ ®
ĠÑĩ ÑĤÐ¾
æĴ Ń
å½ ĵ
ĠI m
Ġk r
è ³
Ġu 0
Ġ×¢ ×Ŀ
ĠAr t
Ġà¦¨ à¦¿à¦
ri o
ant o
Ġà¸ ŀ
aw a
Ïĥ Î±
Ø§Ùħ Ùĩ
Ġb ag
Î´ Î¿
Ġg ro
à¤ ı
al ah
ÙĦ ÙĪØ¯
ÃŃ m
uk an
Ġà® ı
Ġol an
é Ł
Ġu it
Ĺ à¸²à¸
æ ·
âĢ į
ï¼Į ãĢĳãĢĲ
ĠÎ¿ Î¹
ĠØ´ Ø±
Ø¨ Ø¯
es te
ĠÎµ Îº
Ġb ij
on o
ĠÏĦÎ¹ ÏĤ
Ġë° Ķ
ĠT o
l ig
åı ĸ
ÉĻl ÉĻr
ÙĬ Ø§
Ġ×ľ ×ŀ×
b o
ĠØ§Ø ®
ĠM ay
à¦ķ à§įà¦¤
Ñĥ Ñİ
Ġt ot
Ġ( "
à¦¾à¦ Ĺ
Ľ Ħ
ent a
ic as
it al
Ġs im
åį ģ
Ġg Ã¼n
×ª ×Ļ
Ġat t
à¸Ļ à¹Į
O T
ĠÄĳ Ã£
i ro
Ġh t
à¤¹à¥Ģ à¤Ĥ
y le
Ġent re
Ġf al
à¥Ĥ à¤¨
Ġà° Ĵ
æĦ Ł
Ġ×ĸ ×Ķ
ĠØ£ ÙĪ
l d
å ²
Ġâ Ĺ
áĥĶáĥĳ áĥ£áĥļ
ĠÐ¿ Ð¾Ð´
æİ ¥
ģ éĢŁ
Ñĥ ÑĢ
ĠD E
ĠÏĥÏħ Î½
ì ĻĢ
æĮ ģ
à§ĭ à¦Ĺ
Äĥ ng
Ġw ir
æł ¼
è£ ħ
Ġn icht
Ġk t
Ġ5 9
Ġà°ļ à±Ĩ
Ñı ÑĤ
Ġf ac
ĠØª Ø§
×ĳ ×ľ
Ġ×ŀ× ª
Î¼ Î¬
ĠÎ Ĵ
Ġ ðŁ
Ġ×Ķ× ¤
ëħ Ħ
æķ Ļ
à¤¡ à¤¼
Ġam p
ĠØ¨ Ø¹Ø¯
ìĤ¬ ì§Ģ
Ĺà¸ ¢
Õ¡Õ µ
3 6
åĲ Ĺ
ÃŃ nh
Ġd ata
Ġ×ŀ× Ĺ
Ïģ ÎŃ
m un
Ġt el
c ie
ĠF ran
Ïģ Ïİ
à ²
à®¾à®Ł à¯įà®Ł
ĠH o
à¹ģà¸ ¥à¸°à¸
ĠãĢĳãĢĲ ï¼ĮãĢĳãĢĲ
Ġæ ŀ
áĥ£áĥ Ľ
åį Ĺ
Ġqu al
Ġì £¼
Ġil ÉĻ
ra w
à¤ķà¥įà¤ ·
Ġp oss
Ġë³ ´
.. .
ãĥĥ ãĤ¯
Ġo k
ĠE m
ĠÄĳá» ĥ
ĠF r
à¹ĥ à¸Ļ
Ġen c
ĺ à¸
ãĥ Ĩ
Ġil e
al Ä±
ĠA v
ĠÙĨ Ø¸
Ð°Ð ¿
Ġn iet
á ½
Ġ5 4
t on
Ġb ez
ĠÐ ĳ
le g
æº Ĳ
ĠD ie
×Ļ× ¦
Ġà¤ħ à¤ª
Ġb en
áº¿ t
Ġ= "
ĠáĥĲáĥ ¥
à®Ł à¯ģà®¤à¯įà®¤
ĠAz ÉĻrbay
Ŀ i
n es
º «
Ġà°¸ à°Ĥà°
ĠÎŃ Ïĩ
ĠØ³ Ø§ÙĦ
ĠÎ± Î½Î±
à¦¦ à§ĩà¦°
à¤ ĸ
Ġfun ction
Ġà¤ ĺ
, "
ad or
±à¸ ĩ
à°¾à° Ĺ
æĹĹèĪ° åİħ
Ġà®¤ à¯Ĭ
Ġm on
à¥ĭ à¤Ĺ
å° ĳ
ĠÑĢ Ð°Ð·
ï¿½ï¿½ ï¿½ï¿½
âĢĮ ÙĩØ§ÛĮ
Ġà®Ĵà®° à¯ģ
à°¿à° ¸à±įà°¤
iyy ÉĻt
y d
it er
Ġà®µ à¯Ĩ
Ġ5 8
Ðµ Ñĩ
Ġv Ã½
ìĸ ĳ
est o
Ġê³ ł
×Ļ× Ĺ
b r
am os
×¨ ×Ļ×Ŀ
Ø¨ Ùĩ
áĥĺáĥ Ĵ
Ġh el
Ġl eg
et er
è® ¯
Ġà¦¸ à¦Ĥ
à®¿à® ļ
Ġh ad
ãĤ «
ĠÎ¼ ÎŃ
æµ ģ
Ġf l
Ġ5 00
m as
à¯Īà®¯ à®¿à®²à¯į
ÙĤ ÙĦ
Ġå Ĩ
Ġà®¨ à®Ł
ÙĨ ÛĮ
Ġà¦¥ à§ĩà¦ķà§ĩ
Ġ×Ķ× ł
Ġà¦ı à¦ĩ
Ġ' ,
àµ ģ
ĠN ov
ÏĦ Î¯
h t
Ã© n
à¯Ī à®¤à¯įà®¤
ç ¬¬
Ġå ¯
ĠãĢ Ĭ
·à¹Ī à¸Ńà¸
à¥įà¤ ¥
Õ ¿
Ġ( '
à¦ «
¡ à°¾
Ġin n
app ä¸ĭè½½
pk 10
Ø¯ Ø±
à¥įà¤° à¥Ģ
à±įà° ¦
à¨ ¾
Ġvo us
Ð¾Ð² Ð°Ð½
Ïĥ Î¹
åİ »
Ġthá» ĥ
à¹Ħà¸ ¥
ĠM e
à®© à¯įà®©
Ġà¤¸ à¤¾à¤
ud e
ÃŃ n
and e
çŁ ¥
Ġ à¹Ģ
ģ à¸²à¸
à±ĩà° ¦
A G
Ø° Ùĩ
à®ªà¯įà®ª à®Łà¯įà®Ł
el er
3 4
å¤ ĩ
Ú© ÛĮ
Ġo lar
à°¾à° ľ
ess o
ë¬ ¸
u er
ĠëĤ ĺ
ĠØ§ÙĦ Ø·
ĠØ§Ø ¹
Ġs ich
Ġ... .
r al
ĠØ¯ Ø³Øª
à¥įà¤ ²
ÃŃ ch
à°¿à° ®
ed i
Ġ×ĳ ×©
Ġy e
Ġb as
Ġà¦Ĩ à¦°
ç¤ º
ÙĪ Ø§
à®Ļ à¯įà®ķà®³à¯į
à§ĩ à§Ł
Ġ ÉĻ
ĠØ¯ ÛĮ
Ġå Ĭ
å¼Ģ æĪ·
ĠG i
Ġ×Ĳ ×ľ
Ġm Ã¡
Ġç §
ì§ Ħ
è ĥ
×¨ ×Ľ
Ġà°¤ à±Ĩà°²
ãĥ ¡
ĠN a
Ù ĭ
à°Ĥà°¦ à°¿
à¦¾à¦ ¶
at or
ÏĦÎ± Î½
ç» ĵ
ĠâĢĿ .
áĥĲáĥľ áĥĺ
áĥĺáĥļ áĥĺáĥ¡
Ġ×ķ ×Ĳ
ĠØ¯ Ø§Ø±
7 5
am o
à® ¸
Ġd iv
æĶ ¾
é¢ ĺ
ìķ ¼
à¤¾à¤ Ĺ
__ __
à±Ĥà° °
Ñĥ Ñĩ
Ð½ Ð¸Ðº
ĠÑģ Ð²
Ġc e
£áĥ ļáĥĺ
b en
à¦¾à¦¦ à§ĩà¦°
Ð°Ð ³
ÙĬ Øª
Ġg j
Ġ5 6
Ġkt Ã³
à¦² à§ĩ
ãģ¾ ãģĹãģŁ
à¤¾à¤° à¥Ģ
Ø¹ ÙĦ
à¤¾à¤ ª
á»ĳ i
éĢ ī
d o
Ġ ~
Ø¬ Ùħ
ec k
à¤¿à¤ µ
µ ľ
in ci
ĠìĹ ¬
Ö Ħ
Ġë ²
×Ļ× ļ
ç² ¾
Ġà®ķ à¯Ĥ
ç§ ĳ
ç« ĭ
Å¼ y
ç ĭ
Ġà°ķ à±Ĭ
ãģ® ãģ§
è Ħ
o j
Ġê ±
Ġt im
áĥķ áĥĶáĥ
ĠÐ± Ñĭ
ĠA t
à±įà°² à±ĭ
Ø¯ ÙĬ
ĠÙĤ Ø±
3 65
Ġd in
ĠD r
Ġk ter
ÙĨØ¯ Ùĩ
ĠÕ °
áĥĲáĥĵ áĥĴ
ĠÃ¼ Ã§
Ġ Ñħ
l t
Ġbuh ok
Ġà°ħ à°¨
áº ©
¢ à¸Ļà¸
Ġì ¤ĳ
ĠØ§Ø ¨
Ã¼ t
or g
ĠØª ÙĨ
f e
id en
å¸ ĥ
Ġcom e
çĦ ¶
Î»Î¿ Î³
Ð½ Ð°Ñı
ĠÙĦ Ùħ
Ġpro v
Ġà¦ªà§įà¦° à¦¤
ĠÃ ľ
Ġd alam
Ø´ Ø±
à®¿à® ®
d Ä±
×Ľ ×ľ
ĠÐ¿ÑĢ Ð¾
Ġà®ħ à®°
ãĥ £
Ġol du
ÐµÐ ±
à§ĩà¦ ¤
Ġ4 2
ny ch
ä¸ ľ
Ġï¿½ï¿½ï¿½ ï¿½
à´ ¾
Ġt i
ãĥ ŀ
ĠìĿ ¼
ment s
à¤¾à¤¨ à¥ĩ
ê³ Ħ
ÏĨ Î¿
ĠO p
à¹ģà¸ ¥
ot e
Ġç Ľ
Ã¼r k
ay Ä±
Ġk am
ÉĻ c
ãģ¨ ãģĦ
à° ·
Ġres p
Î Ľ
ĠÎ Ļ
ĠÎ ¹
æĪ ĺ
à®± à¯įà®ķ
áĥĲáĥłáĥ Ľ
áĥĶáĥ¥ áĥ¢
Ġãģ ĵ
ĠS ie
á Ł
Ġà¦ ĺ
c ar
Ġp an
áĥĲáĥłáĥ ĵ
µ à¸
ì¹ ´
Ġp df
Ġst ud
Ã¹ ng
al s
Ġon e
Î ł
ro p
áĥ£áĥ Ĺ
à¸Ļà¸ ±
it i
ê° Ħ
Ġ×ŀ× ¢
à¹ĥà¸« à¹ī
Ġk ap
it as
Õ¡ ÖĢ
à°¾à°¨ à°¿à°ķà°¿
å¼Ģ å¥ĸ
ĠP a
ê ¹
E C
Æ¡ n
³ Û
ç ¼
Ġw er
ì¹ ĺ
Ġë¶ Ģ
Ġáĥ ¦
ĠáĥĽ áĥĲáĥĴ
Ġà¦ §
ci Ã³n
à±Ģ à°¸
Ġl u
Ġy er
é¡ µ
ĩà¸ ´à¸Ļà¸
à¦¿à¦ ¶
Ġè ¯
Ĥ à¸²à¸
r z
à°¾à° ¸
Ġáĥł áĥĿáĥĴ
å± Ģ
R O
Ġ5 7
Ġht ml
ĠÙĩ Ø°Ø§
ib le
éĢ ģ
è Ļ
Ġà®® à¯ģà®
à¯Īà® µ
į à¸
ĠÎµÏĢ Î¹
è ©
à¤¿ à¤°
Ġav ec
Ķ à¹īà¸§à¸
æĽ ´
×ĵ ×Ļ
E M
or te
Ġde i
à°¾à°¯ à°¿
Ùĥ Ø±
ĠÃ¼ z
Ġbl og
Ĭ é¾Ļ
Øª Øµ
Ġto p
æ Ĥ
Ġäºļæ¸¸ éĽĨåĽ¢
Î´ Î±
v ent
ģà¸±à¸ ļà¸
æ ®
ĠC ont
Ġi ch
æĢ »
qu es
Ø§Ø± Ø©
Ġ×ŀ× ¡
áĥł áĥĲáĥĽ
Ġag åĽ½éĻħ
re m
èĢ ģ
áĥĶáĥ ª
ë £
p x
ie j
el y
×¨ ×Ķ
Ġà¤¨ à¤¹à¥Ģà¤Ĥ
áĥĶáĥĳ áĥĲáĥ¡
ĠÐ² Ñģ
à°¾à° ¡à±ģ
Ħ à¸£
áĥĶáĥĳ áĥļ
Ġn ak
ĠI s
ãĥ ¥
Ġ5 3
Ġm Ã¡s
Ġà° «
Ġc Ã´ng
Ġe ff
íı ¬
è Ń
9 8
Ġth u
et a
ĠÐ¿ ÐµÑĢ
ãģĦ ãģ¾ãģĻ
à¸Ńà¸¢ à¹Īà¸²à¸
Ć ć
ĠÚ© Ø´
Ġï ½
Ġà° ¯
ic s
Ġà¦ıà¦¬ à¦Ĥ
ĠØ§ÙĦ ÙĪ
j ect
Ïĥ ÏĦÎµ
çķ Į
6 4
Ġê³ µ
Ġb áº¡n
à¸Ń à¸Ńà¸Ļ
å¸ ¸
Ġh and
Ø§Ùħ ÙĦ
à±ĩà° ¶
E W
un u
i or
ì¶ľìŀ¥ ìĥµ
Ġë§ Ī
Î· ÏĤ
Ø§Ø± Ùĩ
Ġpro gram
æ ¢
ar io
ÙĪ Øª
Ġn am
à±įà°² à±ģ
Ġìĥ ģ
ĠØ¯Ø§ÙĨ ÙĦÙĪØ¯
à¯įà® £
ĠP o
Ġs z
Ġà°ª à±Ĩ
ĠR eg
Ġs á»ĳ
Ġáĥ¡áĥĲáĥ Ļ
iá»ĩ t
ÉĻ z
æ »
© à¸
pl ic
ro v
Ġr is
Î»Î» Î¬
à°ķà±įà° ·
à± ĥ
m ente
Ø¯ Ø©
ik k
Ġtid ak
à¯įà®¤ à¯įà®¤
à¸Ńà¸Ńà¸Ļ à¹Ħà¸¥
à¦¦ à§įà¦
ÅĽ Äĩ
th er
ra z
åŀ ĭ
Ġk n
ÄĽ t
y k
à±ģà° ¡à±ģ
æĢİ ä¹Ī
à°Ĥà° Ĺ
à¦ ¡
Ġd oc
ĠÐ ĵ
áº ½
Ġ×ľ ×¢
éĻ Ĳ
Ġå¤ ©
re at
ur op
Ļ à¯įà®ķ
åĲ ĳ
à¤ «
Ġ×ĳ ×ª
ÏĦ ÎŃ
ĠØ§ÛĮ Ø±Ø§ÙĨ
à°¤ à±įà°¤
ĠáĥĹ áĥ£
à¤¾à¤ ķ
¢ à¸²à¸
Ġo t
ĠÐŁ ÑĢ
Ø² ÛĮ
áĥĶáĥĿ áĥĳ
ow s
Ġh otel
ĠØª Øµ
Ð ŀ
I A
Ġt an
Ġ×Ķ× §
è º«
n d
éľ ¸
à¹Ħà¸ Ľ
Ã© t
Ġo ur
à¹Ħà¸ Ľà¸
Ð½ Ð°
Ð¸Ñĩ ÐµÑģÐº
· à§įà¦Ł
áĥ ¯
ĠØ§ÙĨ Øª
ĠC ol
á»Ļ i
à¦ķ à¦¾à¦°
ä¸Ń åĽ½
ãĥ ī
à°¿à° ¸
ir i
Ġà°ļà±ĩà° ¸
ãĤ µ
ĠD i
à¦¨ à§ĩ
ot t
ĠÃ¶ z
Ġv a
Ġ×Ķ ×ķ×Ĳ
Ġt ime
á» ī
ä¸ ĸ
Ġà° ¡
ow e
Ġb ack
Ġl ev
ĠS o
ìļ °
f in
è ±
Ġab out
Ġn um
Ġå ¿
Ä±n dan
è¢ «
áĥĲáĥĽ áĥĵ
åº Ķ
Ø± Ø¶
ap a
iv er
Ġh ay
Ġb al
m m
ĠÙĥ Ø§ÙĨ
ĠÙĪ ÙĤ
Ġp ow
à®¾à® £
Ġáĥ łáĥ
Ø³ ÙĬ
ĠN h
ÏĢ Î¿Ïħ
íĶ Ħ
Õ¸ÖĤÕ ´
p g
à±ģà°Ĥà° ¦à°¿
ĠD o
éĸ ĵ
ag es
æ¬ ¾
v al
à¯Ĩ à®°
at ie
à±Ģ à°°
ung en
« à¸²à¸
Ġ×Ķ× ¡
Īà¸²à¸ ģà¸
æ Ĳ
Ġà°® à°°
Ġìľ Ħ
at ing
ÑĢ Ð°Ð½
im ento
ĠâĢĿ ,
ÄŁ i
áĥĺ áĥĶáĥł
ic os
à¦¾à¦ Ł
Ġgr atis
ç ı
ĠB er
9 5
Ġk un
Ġn os
Îµ ÏĦÎ±Î¹
ä½ ķ
æĥ ³
is te
ĠåĽ ½
ÏĦÎ¹Îº ÏĮ
« à¸£à¸
Ġ Ø§
é¦ ĸ
yst em
à¦¿à¦ Ł
Ġà¤Ĩ à¤¹à¥ĩ
Ð½Ñĭ Ð¼
c el
is ter
ĠH ome
Î¼Î± ÏĦÎ±
as an
ÅĤ y
åł ´
ag s
Ġà§¨ à§¦
ist r
æ¸ ħ
Î ľ
Ġç Ļ
áĥĲáĥķ áĥļ
ÄĻ d
ÙĦ Ø§ÙĦ
Ĭ à¸²à¸
à¦¾à¦ ļ
áĥĲáĥķ áĥ¡
íķĺ ê³ł
à±įà° ķ
à¦¨ à§ĩà¦°
Ġa kan
ch n
Ġà®ª à®Ł
Ġe ine
Ġw ar
¹ Û
Ġb isa
Ġn Ãły
ĠìĿ ĺ
Ġå ·
Ġ( )
Ġm á»
ic z
ot a
Ġtá» «
ak e
Ġè ®
ĠÅ¾ e
Ġà°ķ à±ĭ
Ġà¸ ģà¸
×ķ× ĺ
Ġ Å¼e
Ġp al
v ar
åħ ĭ
Ġáĥĵ áĥĲáĥĽ
ĠH er
Ġl á»
Ġc al
Ġà¸ Ħà¸
è¿ ĳ
äº Ľ
ĠáĥĲáĥł áĥĺáĥ¡
Ġà¤¹ à¥Ģ
Ð¿ ÑĢ
Ðµ ÑģÑĤÐ²
Ġs ist
à¦¾ à§ľ
ķ à¸²à¸
4 8
ä¼ ģ
ãĥ Ĳ
Ġ äºº
ç ĸ
Ġà¦ª à¦¾à¦°
d ÉĻn
Ġæľ ī
Ġè ĩ
à´¾ à´
ĠAn da
áĥĺáĥ£áĥ ł
ĠØ³ Ø±
ĠÑĤ Ð°Ðº
Ġ4 1
à§įà¦ ¨
Ġp ort
éĴ Ł
Ġáĥ£áĥľ áĥĵáĥĲ
Ġau ch
Ġà® Ł
à¦¿à¦¤ à§ĩ
Ġim port
Ġ×Ķ× Ľ
ĠáĥĹ áĥ¥
ĠÙĩ ÙĪ
own load
Äħ c
à¤¾à¤ Ī
åŁ º
ci o
ed ia
ĠØ§ÙĦ Ø«
ĠÐ¿ Ð¾Ð»
ĠM od
ä» »
Õ« Õ¶
Ġà¦ī à¦ª
à¤ķ à¤°
Ķ à¸µ
ķà¸ ´à¸
à¸Ńà¸ ļà¸
Ġà¤ī à¤¨
áĥĲáĥłáĥ Ĵ
à¥ ĥ
it en
¢ à¹Ģà¸
ãĥ ģ
å¦ Ĥ
Ø® Øª
Ùģ ÙĬ
Îº Î¿
Ġt ar
à¦¿à¦ ®
im iz
U N
Ø§Ø± ÙĬ
Ġb i
Ġí Į
ik i
Ġhá» į
é ł
in al
à¯įà® ¯
Ð½ Ð¸
ìĦ ¸
Õ« Õ
Ã¡ ng
ìŀ Ħ
Ġà¦ľ à¦¾à¦¨
Õ¥Õ ¬
à¦¾à¦ §
ĠP or
ĠáĥĽ áĥ®
ÐµÐ ¿
r ist
Ø§Ø± Ø§Øª
ĠÎŃ Î½Î±
ĠÃ¼Ã§ Ã¼n
ÏĦÎ¹Îº Î®
Ġ×ĳ ×Ķ
m asÄ±
å¸ Ī
à¤¾à¤Ĥ à¤ļ
Î¹Îº Î¬
Ã© ho
Ġ5 2
ĠK ar
æİ Ĵ
ãģĤ ãĤĭ
Ġb ah
Ã¨ s
iy e
ç» Ł
ĠãĢ ı
Ġad d
Ġáĥĵ áĥ¦
à°¾à° ¡
×ķ ×Ļ
Îº ÏĮ
ĠI N
èģ Ķ
ĠM in
ä¼ ł
ul o
ÏĦÎ¿ ÏĤ
Ġà®İà®©à¯įà®± à¯ģ
Ñĭ Ðµ
Īà¸ ±à¸
£ Â
Ġë į
è¨ Ģ
iv a
un da
Ġ ide
Ġ ą
ĠÙĪ Ùħ
Ġt al
Ġw o
Î· Î½
Î» ÎŃ
àµģ à´
Äĥ m
lÉĻ ri
x x
ä½ ł
om m
à±įà°¨ à°¿
Ġop t
ê³ µ
on y
ĠÏĮ ÏĦÎ¹
ĠÙħ Ø·
Ã ľ
Ġre m
Î¼ Î²
à®¤ à¯į
l in
or um
eb ook
å°ı æ¸¸æĪı
Ġ×Ĳ ×ķ
ar ch
ìľ Ħ
Ġs ite
os a
ĠB el
Ġ×© ×Ĳ
áĥ® áĥĿáĥķ
Ġà¤¤ à¥ĭ
Ġl i
Ø§Ø «
Ġg u
à±įà° ¥
æł ·
ä» Ģ
Ġpl an
z t
ĠáĥĽ áĥĺáĥ
Ġáĥ °
Ġl ib
äºī éľ¸
is ch
ĠÛ ²
à§ °
Ġ! !
Ġáĥ© áĥķáĥĶáĥľ
áĥĲáĥłáĥ ¢
Ð ł
Î ¥
Ġf ilm
ÑĨ Ð¸Ð¸
ot h
Ĵ Ī
ãĥ ĭ
à¦ Ļà§įà¦Ĺ
á»ĳ c
áĥķ áĥĲ
Ùĳ Ùİ
à¥ģ à¤²
ĠH a
ant s
Øµ ÙĦ
Ġl et
à¹Ģà¸ ¥
è »
Ġg iá»
ĠÐº Ð°Ðº
à®¾à® ±
I R
ation al
ÛĮ Ùĩ
v i
la ÅŁ
Ġ×Ķ× Ĵ
ĠAzÉĻrbay can
ĠìĦ ľ
Ġd it
Ġh indi
×ŀ ×¨
Ø± Ø³
Ġà®ķ à®Ł
our s
ä¾ Ľ
à¹Īà¸ §
Ġdi b
ĠS am
ĠJ an
i que
Ġkh i
Ġ200 7
Ġà®ļ à¯Ĭ
ĠØ§Ø ¬
Ġp ada
Ġå Ń
Ð¾ÑĤ Ð¾ÑĢ
ãģ Ŀ
or o
å¤§ åıĳ
åİ Ł
ë§Ī ìĤ¬ì§Ģ
ĠL es
«à¸ ¡à¸
Ġà¦ķà¦° à¦¾
à¹ĩ à¸Ńà¸
Ã¡ p
ĠÄĳ áº¿n
Ġ×ľ ×©
à§ĩà¦ ĵ
Ġsp ec
à¹ĥà¸Ĭ à¹īà¸
ì¶ľìŀ¥ ìķĪë§Ī
ĠF l
Ġl og
elij k
à¦¾à¦ ģ
pr ess
Ľà¹ĩ à¸Ļ
ĠÙĥ ÙĦ
Ġà°¸ à°®
åħ Ī
ind en
å¾ Ī
âĢ Ļ
×ĳ ×¢
Õ¡ ÖĢÕ
Ġp at
Ġ5 1
es ch
el en
æĸ ¯
ķ à¹Īà¸
k in
çĦ ¡
ê ´Ģ
Ġa Ã§
à° ¶
ãģĦ ãģŁ
Ġk ont
è¯ ķ
Ġ à¸Ńà¸
¢ à¸Ļ
Ã¼ y
en c
ä¸Ģ ä¸ª
Ġson o
Ġê ¹
à° Ĺà°¾
Ġå ¸
à§ĩà¦ ®
à¯Īà®¯ à¯ģà®®à¯į
av a
å§ Ķ
r ic
Ġs ay
Î ©
è® °
Ġb us
ĠØ§Ø Ń
Ð ¡
Ġp ubl
ĠØ§ÙĦ ÙĬ
Ġ à¶
Ġ7 5
Ġa kt
od y
Ġcon c
ãģ °
Î» Î¬
áĥ «
Ġp ok
Ġk ol
Ġm is
Ġsob re
ĠY ou
Ġvide o
ê¸ Ī
áĥĲáĥķ áĥ¨
åı Ĺ
Ġà®ĩ à®¤
§à¸ ±à¸
---- ----
Ġáĥ® áĥĶáĥļ
Ú© Øª
Ġd aha
à¹Ģ à¸£à¸
Ġì Ľ
Ġs ab
n ia
Ġs te
Ġvá» ģ
Å© ng
Ĭà¸ ±
eb ru
ĠS er
y g
ëŁ ¬
æ± Ĥ
Ġë Ĳ
à¦¾à¦ ĵ
íķ ł
Ġí Ķ
Ġà¤¯ à¤¹
Ġcon f
un e
Ã¡ d
ik t
à¤¯ à¤¾
áĥĿáĥłáĥ ª
I M
Ø§ÛĮ Øª
Ġáĥ£áĥ ¤
ĠØ® ÙĪ
Ã¡ i
×ĵ ×¨
à§įà¦ ķ
ÏĦÎ± ÏĤ
ĠÑį ÑĤ
áĥľ áĥĺáĥ¡
Ġf o
ant es
á»© c
iáº¿ n
è¦ ĭ
áºŃ p
à¦¿à¦ ¦
×ŀ× ª
à¯Īà® ªà¯įà®ª
å·¥ ä½ľ
3 7
ìŀ ħ
ÛĮ ÙĦ
¡ Â
Ġc m
Ġáĥ¡ áĥ¢
ì ¡°
Ñĭ Ð²
ĠÐ¸ Ð½
6 7
Ì ģ
åħ ¶
ãĤĪ ãģĨ
ĠÎ §
Ġn eg
íĸ ī
Ġthe ir
Ð°Ð¼ Ð¸
Ġ ir
Ġd ig
Î» Î®
à¹ī à¸Ńà¸ĩ
Ġæ Ĭ
Ġs ek
Ã¨ re
ÐµÐ ¶
Ġ×ľ ×¤
p ert
Ø§ÙĨ ÙĬ
à§ĩà¦ ¬
Ġm ad
ah r
Ġà®ħ à®®
li j
s h
ĠÎº Î¬
éĹ ®
áĥł áĥĺáĥ¡
à±įà° ¡
æİ ¨
ĠA g
9 7
Ġ Ñı
ĠÃ¶ n
ìķ ½
å ĥ
ob il
à®® à®¾à®ķ
ãĤ ¦
Ġn eb
×ł ×Ļ×Ŀ
ĠG e
çĽ Ł
æ ¹
Ùĥ ÙĦ
ĠpÅĻ ÃŃ
à¥įà¤ ª
Ø¨ Ø©
ĠA c
l ass
Ġà®ª à®¿à®°
it u
ĠlÃł m
à¸² à¸£à¸
Ġdel l
Ġ á»Ł
æ¥ Ń
Ã ĩ
à¤¹ à¤¾
æ° Ĺ
Ø´ ÙĨ
å¯ ¼
ãĥ¼ ãĤ¹
en za
à¹īà¸ §
à¥ĩà¤ Ł
·à¹Ī à¸Ńà¸ĩà¸
og le
ëª ħ
à¸£à¸²à¸ Ħ
ÙĪ ÙĬ
ĠÃ Ĺ
Ø¨ Øª
m Ä±ÅŁ
ĠÑģ Ð»
Ġí Ĩ
åĪĨ å¿«3
éĿ ŀ
or ia
Ġs ul
Ġâ Ķ
st er
æĬķ æ³¨
ĠÙĪ Ùĩ
ç§ į
at en
ãģ¨ãģĦ ãģĨ
æī ĵ
as jon
Ġìķ Ī
ĠÏĢ Î¿Î»
ãģ« ãģª
ĠNew s
Ñħ Ð¾Ð´
ĠG en
à®¿à®± à®¤à¯ģ
åħ ī
Ġæ ²
áĥĿáĥ Ļ
Ð´ Ð°
à¥įà¤ ķ
Ø§ÛĮ Ø´
5 8
st r
ĠáĥĽ áĥĹ
à¹ĥà¸ «à¸
áº¥ y
Ġpi Ã¹
Ïĩ Îµ
Ġprodu ct
Ġv el
Ġ×ĳ ×¨
Ġthe y
ÙĪ Ø¬
Ø¹ Ùĩ
Ġä½ Ĩ
at eg
Ġ Ø§ÙĬ
à§įà¦ ļ
áĥĲáĥ ŀ
Ã ĥ
Ġä¸ Ĭ
Ñĥ Ð¿
íķ Ļ
ĠS up
Ø§ÛĮ Ø¯
ĠTh is
¡à¸ ŀà¸
Ïį Î½
ê² ½
ãĥ¼ãĥ «
åĪĨ éĴŁ
áĥĿáĥłáĥ Ľ
Ġa o
Ġ Ø§ÙĤ
à¥įà¤ ¸
ãģĤ ãĤĬ
Ġt áº¡i
Ð Ĳ
ad y
à§ĩà¦Ľ à§ĩà¦¨
ãģķ ãĤĮ
ant i
×ľ ×Ļ
end er
ĠØ§Ø ª
ĠV ide
Ġà® ľ
ĠÙĪ Ø¨
è¿ ĺ
è ĳ
ell o
Ħà¸¸à¸ ĵà¸
l em
el f
ĠJ ul
ĠÎµ Î¾
at ch
åĪ Ĺ
Ïĥ Î¿
ĠR ed
Ġut il
Û ķ
ir t
Ġì ¡°
ĠáĥĻ áĥĿáĥĽ
p ut
¦ Ĥ
Ġg ia
Ġå° Ĭé¾Ļ
Ø§ÙĦ Ùħ
Ġæľ Ģ
it es
Ġä» ĸ
it ar
Ġit o
Ġà°ª à°°
è¶ ³
à¤Ĥ à¤Ĺ
ot os
à¦°à§įà¦ ¬
ĠM o
Ġat au
om o
à®ª à¯į
Ġä» Ĭ
åģ ļ
in n
à¤¾à¤ ĩ
Ġk ur
ÎŁÎ ¥
×ķ× Ķ
Ġon t
Ġa ir
Î¿Ïħ Î¼Îµ
å Ħ
ĠI I
s zy
çľ ģ
io us
Ġc áº£
±à¹īà¸ ĩà¸
Ġé Ŀ
ud i
Ġy aÅŁ
Ġb ed
Ġt it
Ïģ Î®
Ġæ °
ï »
ĠM on
Ġà°ķ à±Ĥà°
à¹Ħà¸ Ĺà¸¢
ĠáĥĽ áĥĲáĥĹ
Ġêµ ¬
ess e
Ġì¹´ ì§Ģëħ¸
à¸Ńà¸¢à¸ ¹
ä» ·
Ġt ek
ĠK om
= =
ì ¦
Ġc el
Îµ Ïħ
ic le
×ķ× ŀ×
ĠØ¬ Ùĩ
Ġb ak
ĠE d
Ïĥ ÏĦ
in er
ĠØ¯ ÙĪ
ÉĻ f
Ùĭ Ø§
ł à¸
à¹Ĥ à¸£à¸
ir st
ĠN am
ĠÙĪ ÛĮ
ÙĬ Ø²
áĥĵ áĥĶáĥĴ
æģ ¯
Ġáĥ¡áĥĲáĥ¥áĥĲáĥłáĥĹáĥķáĥĶáĥļ áĥĿáĥ¡
Ø³Øª Ø§ÙĨ
la v
Ø´ Ø§Ø±
à¸Ń à¹Ģà¸
6 9
ØŃ Ø©
ĠØ¨ ÙĦ
áĥĵ áĥĶáĥĳáĥĲ
ĠT Ã¼rk
ĠM il
Ġëĵ ±
è® º
Ġà¤ħ à¤¸
Ġà®ª à®¾à®°
ãĥ ĸ
er c
×ķ×ł ×Ķ
í ģ
ãĤ Ń
al is
ĠC ent
Ġ×ľ ×ĳ
Ġà° ²à±ĭ
à¸£à¸ §à¸
at es
n Ã¡
Ġor g
3 9
Ġà®ĩà®° à¯ģà®ķà¯įà®ķ
ç© º
ãģĦ ãģ¦
Ġcom pl
ĠÂ» .
Ġà®µ à®¾à®
Ġà¦¤ à¦¿à¦¨
æĮ ĩ
Ġï¼ Ľ
ol i
Ġçľ Ł
Ġh at
Ġ3 00
Ġè µ
d ag
im ent
±à¹īà¸ ĩ
æ° Ķ
Ġ ÅĽ
Ġl ike
Ġt ip
Ġit u
Ġå¤§åıĳ å¿«ä¸ī
ĠåĪ Ĩ
Ġs áº½
à¦° à¦¾
áº ±
æľ ¯
c m
ÎµÎ¹ Î±
à¸Ń à¸Ńà¸
Ġà®ª à¯Ĭ
ìĹ Ń
l k
Ġd apat
ãĤ į
à¹ ģà¸£à¸
Ġals o
Ùĥ ÙĪÙĨ
ow y
ãĥ ĩ
Ġh ist
l ing
Ñĭ Ð¹
ÉĻ q
Ġdi ff
r ar
à¹ģà¸ ļà¸
v ert
ov a
Ġo ok
Ġà¤ķ à¤¾à¤°
×© ×Ķ
ĠØ§ÙĦ ÙĦ
åĳ Ĭ
ĠÕ §
íĶ ¼
à¤ķ à¥Ģ
ÎŃ Ïģ
Ġr u
Ġ ÑĨ
ĠØ± ÙĪØ²
ĠÐ· Ð°
ĠÂ ²
Ġgen er
ç ¢
ç ¡
ĠS an
Ġgi Ã¡
à¸Ńà¸Ńà¸Ļà¹Ħà¸¥ à¸Ļà¹Į
Ġdo or
Å¡ t
Ġprobl em
iá»ĩ u
Ġs ie
Ġm om
Õ ¨
å¼ º
Ãª u
áĥĶáĥ Ļ
Ġ×Ķ ×Ķ
Ġp m
ĠÎ Ľ
æľĢ æĸ°
Ġà¤® à¤¹
Ġà®¨ à¯Ģ
áĥĺáĥľ áĥĲ
ĠÎ ¦
à¸µ à¹Īà¸
Ġ×ŀ× §
Ġfal se
pl y
Ñĥ Ð±
ĠáĥĽ áĥĲáĥ¡
Ġy ar
Î¬ Î»
id ent
Ġ! !!
Ġsoc ial
à®ļ à¯įà®ļ
ĠÐ¿ÑĢ ÐµÐ´
Ð¸ÑĤ ÐµÐ»ÑĮ
áĥķ áĥĺáĥĹ
ev er
Ġd ir
Ø§Ø ©
ç¾ ¤
Ġà¦ľà¦¨ à§įà¦¯
ter n
ì ¶Ķ
Ġà¸ ķ
Ġb eg
à¥ĩà¤ µ
Ġp in
Ġd á»¥
Ġg am
c zy
ch a
à§ Ī
à±ĩà° ¸
Ġà®ķ à¯ģà®±
ĠáĥĽ áĥĿáĥĽ
ÏĦÎ¹Îº Î¬
Ġáĥ¡ áĥĲáĥ¡
à®¿à®° à¯ģà®¨à¯įà®¤
I d
Ùħ Ø§ÙĦ
ĠìĬ ¤
Ġæ ±
à°Ĥà° ļ
å ©
ÐµÐº ÑĤ
an Ä±n
Ġpart ic
à¦¬ à¦¾à¦°
ê² ©
è§Ĥ çľĭ
ÛĮ Ú©
ÙĪ Ùģ
Ġpro duk
I n
ëĲ ĺ
Î» Î¯
Î± Ïģ
Ġn Ã³
ìĺ ģ
è¯ ·
ä»Ģ ä¹Ī
í ĴĪ
Ġde g
Ġwh ich
Ġp eng
à¯įà® ¨à¯įà®¤
ÙĨ Ùĩ
ĠØ´ ÙĪØ¯
æĶ ¶
IN G
å· ²
à°¾à° ª
ĠáĥĻ áĥĺ
Ġw id
Øª Ø§Ø¨
Ġìŀ Īëĭ¤
æĪ ¿
ï º
à¦¨ à¦¾
Ġs Ã¶
s er
Ġà®¤ à®®
ľà¸¹ à¹īà¸
Ø§Ø¯ ÛĮ
ĠØ¨ ÙĬÙĨ
à¦¸ à§įà¦¥
ĠìĨ Į
Ġt ur
Ġæŀ ģéĢŁ
Î¼ Î·
à§ĩà¦ ¸
å Ķ
ĠÎµ Î¯
ĠW eb
ang g
Ġnh Ãł
à¤Ĥ à¤¦
Ġb Ã¶
æ± Ł
æ² »
ĠØŃ Ø§ÙĦ
é£ ŀ
Ġh alam
n Ã½
Ã² ng
ĠÄĳ Ã³
Ġet m
Ġ8 8
Ġä» ¥
Ġ" ).
ĠS i
Ġà¸ ¥à¸
á» ģ
æĭ Ľ
ç Ĺ
áĢ ¹
à°¾à° ¬
Ġn ap
Ġpr os
Ġæ ķ
ĠÙĪ Ø¬
ur g
as il
Ġj eg
æ ©
Ġb in
is che
Īà¸ °
Ġà¸ §à¸
ĠÎ ĺ
ĠA ut
3 2
ĠåĮĹäº¬ èµĽè½¦
ãģ ĺ
¥ à¹ĩà¸Ńà¸
Ġi y
Ġà°ī à°¨à±įà°¨
Ġc Å©ng
Ġm Ãł
à®¿à®² à¯įà®²
Ġes te
à®£ à¯įà®£
à°¤ à±ĭ
EN T
Ġ6 5
le x
à¨¾ à¨
Ġà°µ à±Ĩ
j et
ed a
ĠâĢ ĭ
ë Ħ
Ġç ī
ãĥ³ãĤ °
Ġs ind
ÉĻ ri
Ö ¼
v el
à¹Ģ à¸£
ĠãĤ ¹
ìĭ ¤
ĠÃ ī
Ġà°Ĵ à°ķ
ĠÐº Ð¾ÑĤÐ¾ÑĢ
éĢ ł
ri pt
Ġ×Ķ× ĵ
Ð½Ð¾ Ðµ
ĠØ§Ø ¯
æ² ¡
ĠOn line
æł ĩ
Ðº Ð¾
Ĥ à¹īà¸²à¸
Ġæĺ ¯
Ø± Ùĩ
b ang
R E
Ġad alah
eg en
áĥłáĥ «
à¦¾à¦¬ à§ĩ
ĠA pr
ĠH ar
ĠE s
à§Ģ à§Ł
Ġçİ¯äºļ ag
½ Ķ
à¦ Ľà§ĩ
Ġju ga
i ÄĻ
Ġd ob
ĠÙĩ Ø°Ùĩ
Ġt am
ÉĻ ÅŁ
Ġæ ¯
il ir
ãģ Ķ
Äĥ n
ĠS el
áĥĺáĥ¨ áĥķ
à¦¤ à¦¿
ç ¶
à¸² à¹Ģà¸
ĠS al
è½ ¯
ÙĪ Ùĩ
Ġt in
j em
ir es
Ġs ah
Ġj ust
Ġìľ ł
´ à¹Ģà¸
ak s
ãĤ ¸
Ġit em
é ¤
åı¯ ä»¥
ĠÕ ´
u es
Ġ ä¹
Ø§Ùĩ Ø¯
è Į
Ġl ist
Ġà®¤ à®¿à®°
ĠØ± Ø³
ele f
íķ ©
áĥĲáĥª áĥĺ
Ġk ad
A B
Ã© d
åħ ±
or ld
ĀĀĀĀ ĀĀĀĀ
Ġd ag
Ġ×ľ ×Ĺ
Ġ- -
et en
Î¹ Î½
åĭ ķ
ÙĨ Ø©
áĥĲáĥļ áĥ£áĥłáĥĺ
ĠG u
ê ·
ĠM al
Ġl iv
4 9
ĠÏĢÏģÎ¿ Ïĥ
Õ¸ÖĤÕ ©
ic es
Ġá ¼
Ġ19 8
Ø§Ø¯ Ø©
à¯ĩ à®©à¯į
áĥĺáĥ ¥
ac y
ĠØª Ø¬
ĠØ§ÙĦÙħ Øª
Ã ģ
ÙĬØ± Ø©
×¨ ×ª
åį İ
à¤ķ à¤¾à¤°
ĠÄĳá» ĭ
åĨ Ľ
ë° Ķ
¬ áĥ§
Ġì¶ľìŀ¥ ìķĪë§Ī
Ġal la
Ġ à¸Ļ
op p
Ġà°µ à±įà°¯
Ø· Ø©
k at
à§ĭ à¦°
U L
Ã³ r
ert a
un un
Ã Ħ
è İ
ĠÐº Ð¾Ð¼
é£ İ
Ķ à¸µà¸
Ġë ¹Ħ
ĠE t
Ðµ Ðµ
ĠáĥĽ áĥĿ
Ġh Ãłng
Ġà°ª à±ĭ
ov Ã©
Ġt amb
ag g
ķà¸±à¸ §
à§įà¦ ¡
à®¿à®© à¯įà®±
ĠâĢ İ
ãĥ §
Ġáĥ¡ áĥ®áĥķ
ìĿ´ ëĭ¤
ad an
Ġ×Ĵ ×Ŀ
ĠS ep
p ro
ìĥ Ŀ
áĥ£áĥ ¡
áĥĲáĥ «
4 7
a ut
ä¸ ĵ
Ð° Ñħ
ĠáĥĲáĥ ķ
à°¦ à±įà°¦
Ġà®® à¯ĩ
ib il
y cz
åĮ Ĺ
åł Ĥ
lÄ± k
ÙĬ Ø§Øª
ĠP ort
çĪ ±
Ã ĸ
Ġinc l
ĠØ§Ø µ
Ġà¤ §
å® ¹
ľà¸ ¥à¸
ĠvÃł o
ĠN EW
áĥĶáĥ ĸ
A V
Ñ ĳ
Ġen d
Ú© Ùĩ
Ġç ¾
Ġà®ĩà®° à¯ģà®¨à¯įà®¤
áĥ£áĥ ¨
Ġh eb
à¦¾à¦ķ à§ĩ
Ø± Ø§Øª
ë© °
l as
Ġà¦ı à¦°
Î¼ ÏĢ
Ġs il
Ġ×Ľ ×Ļ
ÙĤ ÛĮ
áĥł áĥĿáĥ¡
áĥĿáĥ ¢
Ġw p
Ð» ÐµÐ½
Ġà¤² à¥ĩ
Ġ9 5
ĠáĥĹ áĥĲáĥľ
åı ª
ĠØ³ ÛĮ
Ġáĥ£áĥ Ļ
Ġg ar
C H
ag i
um b
Äį nÃŃ
Ġz o
ur es
ur t
ìĦ ł
Ġc am
Ġag äºļæ´²
Ġmas k
Ġw ork
áº «
c om
Ä±ÄŁ Ä±
ĸà¸ ¶à¸
æĺ Ł
Ġn at
Ĥà¸ ¶
Ġn ec
ĠO b
ĠÎ ¾
à±ĩ à°ķ
Ġà®ķà¯Ĭ à®£à¯įà®Ł
ĠB ir
ì Ļ
Ġà¦ķ à¦¾à¦°
Ġà¹ģà¸ ¥à¸°à¸
Ø³ Ø±
ĠÐ £
Ġç ½
ĠB o
m ak
Ġun der
¯ ¼
Ġoldu ÄŁ
Ġs ou
ÅŁ Ä±
åº Ĩ
ĠÃ© t
à¥ĩ à¤²
à±ĩ à°°
ÐµÐ½ ÑĮ
à¤¾à¤ ¬
um p
Ġ6 00
à¦Ł à¦¾
ud ah
Ġrev iew
±à¸ ļà¸
å¾ ĭ
æµ ĭ
à°¿à° Ł
Ġl áº¡i
Ġsu a
ĠD er
ĠÏĥ ÏĦÎ±
Ġ×ķ ×ŀ×
ëį °
ãģ§ ãģį
A K
Ġsing aw
ê± °
ãĥ¼ãĥ Ī
ç Ĭ
áĥĺáĥ ¤
Ġ×¤ ×¨
Ã¢ m
ĠÐ¿ÑĢ Ð¸
Ġ. "
Ġtr Ãªn
ĠãĤ ¢
ia ÅĤ
Ġà°® à±Ģ
Ĥ à¦²
è ı
ĠÎ¤ Î¿
1 00
ad er
ÏĦÎµ ÏĤ
Ġup ang
ĠØª ÙĤ
Ġp ou
ç ¯
ĠÛ±Û ³Û
Ġcl ass
ĠáĥĴ áĥķ
æīĭæľº å®¢æĪ·ç«¯
ÐµÐ³ Ð¾
à®³ à¯Ī
áº »
ĠÎ¼ Î±ÏĤ
Ġ. âĢĿ
à§ģà¦ ·
I G
l ag
Ġal g
Ġag çľŁäºº
Ġáĥĺáĥ§ áĥĿ
ãĥ ł
Ã «
ĠM en
ĠØ§ÙĦØ° ÙĬ
Ġà¤¹ à¥ģà¤
Ñĭ Ñħ
Ġà¤ħ à¤¨
à¥ĩ à¤¤
ķ Į
ç ħ
áº· t
à¥ģ à¤¨
ç½ ®
Ġì ¢
t ir
n s
åŃ Ĺ
Ġt re
Ġp om
ĠÛĮ Ø§
w it
i i
ĠØ¨ ÛĮ
Ġop p
ĠáĥĻ áĥĿáĥľ
Ġà® ¯
Ġnh iá»ģu
Ñĥ Ð»
ãģ§ ãģ¯
Ð°Ð± Ð¾ÑĤ
Ø« Ø±
ĠS c
Ġan y
à¹Ģà¸ ģà¸
à¹īà¸² à¸Ļà¸
Īà¸²à¸ ģ
Ġå İ
Ġà¤ķ à¤¿à¤¯à¤¾
Ġk ay
ĠØµ ÙĪØ±
Ġdel le
ĠS te
áĥł áĥĺáĥķ
¹à¸ ģà¸
Ġ×Ķ× ¦
Ġg a
Ġìĭ ł
à°¾à°¨ à±įà°¨à°¿
ÙĨ Ø¬
z Äħ
å¼ ķ
ĠáĥłáĥĿáĥĽáĥĶáĥļ áĥĺáĥª
ÎĻÎ ļ
Ùĥ Ùħ
ãĥ Ł
ãĤ »
in es
çİ ĩ
Ġl ar
ĠÏĢ Î¿
Ġä¸Ń åĽ½
áĥĲáĥľ áĥ¡
à°¦ à°¿
ri p
Ġm ater
áĥķ áĥĲáĥļ
ĠK h
Ġ×Ĳ ×ķ×ª
ìĭ Ŀ
ķ à¹īà¸Ńà¸ĩà¸
Ġt ab
á»ĳ ng
Ġl eb
if t
emb re
ê¹ Į
Ġp un
ut t
Ġç ¬¬
ê° ľ
à°¸ à±įà°¤
j Äħ
Ã´ n
ĠP art
æĶ ¹
Ġà§¨à§¦ à§
Ġà¦Ĩ à¦²
e ft
Ġâ ĩ
à¹Īà¸ ĩà¹Ģà¸
lar a
Ġà¤¯ à¤¾
Ġhalam ang
Ġt est
áĥ® áĥĲáĥĵ
ost a
áĥĿáĥł áĥĺáĥ¡
ĠÎ ¶
ä¸ ¤
Ø Į
ung s
k ol
ç ·
Ġv ed
×ĳ ×Ķ
Ġë§ Į
Ñģ Ð¿
ĠìŀĪ ëĬĶ
Ġ Å¡
Ć ą
é© ¬
é¦ Ļ
à¸Ļà¸µ à¹īà¸
Ġ) :
ĠÎļ Î±
Ġà®µ à®¿à®
ĠÏĥ ÏĦÎ¹
Ĺà¸ ³
åıĳ å±ķ
à¹Ģà¸ Ľà¹ĩà¸Ļà¸
ĠØ§ÙĦÙħ ÙĨ
å¤ ´
³à¸ «
Ġ: )
å¤ Ħ
Ġel ler
×ł ×ķ×ª
Â »
j er
éĿ Ĵ
Ġìĺ ģ
Ľà¸ ¥
à¦¦à§įà¦ §
Ġìļ °
Î³ Îº
ĠSe x
I ON
il la
ÎµÎ¹ ÏĤ
w ar
ç» Ħ
o o
æ ħ
Ġà®¤à®® à®¿à®´
æ¡ Ī
h od
ĠØ¹ Ùħ
ãģ Ń
Ġæ ¬
åĲ Ħ
Ãł o
à§ Į
ªà¸ ´
Ġa ko
ĠØ¯ Ø§Ø´
ä» ĺ
ĠÄ Į
ĠH et
Ã į
P art
ĠØ Ľ
ĠD ec
áĥĶáĥĳ áĥ¨áĥĺ
Ġåħ ¨
åľ° åĿĢ
4 6
å®¶ ä¹Ĳ
Ġëı Ļ
ĠÙħ Ø³Øª
×© ×Ļ×Ŀ
åħ ·
à¯ģà® ª
s o
ĠP ara
Ġà®® à¯ģà®Ł
×ŀ ×ķ
U T
Ġà®ī à®³à¯įà®³
Ġà¦¬à¦¾à¦ Ĥà¦²
Ġde p
Ġm ont
£áĥ ¡
ĠUn ivers
Ġmen j
ĠI D
ĠÏĢÎ± ÏģÎ±
ib i
Ġà®µà¯ĩ à®£à¯įà®Ł
ê° ķ
Ø¹ Øª
ch o
idad es
id os
èĢ Į
3 1
ind ÉĻn
iy or
Ġáĥĺ áĥ¥
ĠM ag
A Y
ĠÏĢÎµ ÏģÎ¹
Ġw ie
ĠD en
v ol
ë¶ Ħ
íĸ Īëĭ¤
ä¼ ĺ
2 00
×ķ× ĸ
Õ¡Õ ´
áº¥ p
æł ¡
Ġd ist
à±ģà° ª
ĠÙĪ Ø±
ĠØ£ ÙĬ
le y
Ġpo z
Ġà¤ª à¤¹
Ġà¦¬à¦¿à¦ ¶
ìĿ Į
Ġ×ĳ ×Ĺ
Ġâ ľ
çĥ Ń
ì ħ
áĥĹ áĥĲ
e e
áĥ£áĥ ¤
Ġolar ak
à¥įà¤ ¦
Î³ ÏģÎ±
Ġ. )
Ġë ¯¸
Ġpar te
a Ã§Ã£o
v ers
id as
ĠO s
ÙĤ Ùĩ
iá»ĩ c
â ĸ
l im
u is
Ġb ek
ĠA N
ap t
Ġb ud
ĠI B
ĠØ¨ Ø¹
ãĥ³ ãĥĪ
em os
Ġke Ã§
Ġå° ı
Ġà¤¤ à¥įà¤¯
ĠáĥĽ áĥĺáĥĽ
Ġë ħ
Ġáĥĵ áĥĲáĥ¡
ÄĽ l
Ġv ia
éĺ ³
ãĤ §
Ġâ Ħ
ĠD a
à®± à¯įà®ª
ĠÎºÎ± ÏĦÎ±
Ġê ´Ģ
à¯ĩ à®ļ
Ġs ang
Ġm ula
Ġcol or
Ġáĥ¬ áĥĲáĥłáĥĽ
à°® à±įà°®
ãĤ ª
Ġáĥ¬ áĥļáĥĺáĥ¡
ĠÐ Ĺ
Øª ÙĨ
ĠC as
à§įà¦ ¸
à±ĩà° µ
áº ¹
Ġ×Ķ× ĸ
ÙĢÙĢ ÙĢÙĢ
i q
à¦ĸ à¦¨
Ġv ot
åĢ ¼
Ġo der
en z
åĬ ©
ak a
Ñĥ Ð¶
ãģķ ãĤĵ
ãĤ °
ĠS k
Ñĥ Ð¼
ĠÄĳ áº§u
±à¸ ļ
l Ã¼
ub e
áĥĶáĥłáĥ ¡
å£ «
o us
§ à¹ĩà¸
iz z
ĠØ³ ÙĬ
ĠT el
ich e
×Ļ× Ĵ
om en
è½¯ ä»¶
ĠÑģ Ð¿
Ġl ab
ne j
èĬ ±
åĬ ŀ
Ġde ÄŁ
ĠèĢ Į
à¤¾à¤ £
ļ à¸£à¸´à¸
Å¡ e
g el
ĠìĦ ł
k on
ĠS T
æŁ ¥
d z
g in
Ġh is
ĠØŃ Ø³
à¤Ĥ à¤¡
ĠØ¹ÙĦ ÙĬ
Ġk j
ÃŃ s
Ġtr ab
à±ģà° ¡
áº£ o
ou g
ĠØ ¸
Ġan che
p ap
ģà¸±à¸ ļ
ìĹ °
à¸Ńà¸£ à¹Į
à¹Ģà¸ ¥à¸
Ġy az
Ġ×ķ ×ľ
à¯įà® °
çł Ķ
Ïģ Î¹Î±
p or
Ġà®ļà¯Ĩà®¯ à¯įà®¤
Ġê° ľ
Ùģ Ø³
und o
Ãª m
áĥĺáĥĲáĥľ áĥĺ
r ap
ĠT V
ì Ī
é¡ ¹
à¤ ·
oc i
Ġ ÑĪ
æŃ ¤
Ø§ÙĨ Ø¯
åħ ļ
om a
è¶ ħ
ĠÂ ³
Ġí ĥ
Ġà¦¨ à¦¿
ĠØ´ ÙħØ§
íĺ ¸
áĥĿáĥĳ áĥ¡
ĩ à¸²à¸Ļà¸
ãĤ ¨
à±ģà°Ĥà° Ł
ĠÎ¼ Î¹Î±
u le
c ed
Ġm ost
¡à¸² à¸£à¸
ĠÙĨ Ø´
ç Į
as Ä±nda
Ġch á»ī
Ġz d
ĠÚ© Ùħ
Ġch i
ow er
ĳ ľ
ÏĦ Ïħ
est er
if e
à®ķ à¯į
å¾ ·
ãģ« ãģ¯
Ïģ Î¿Ïħ
ĠE urop
Ġï¿½ï¿½ï¿½ï¿½ï¿½ ï¿½ï¿½
Ä ©
Ġê¹ Ģ
æķ ´
h or
ìŀ ¬
ĠÎ´ Î·
íĨ ¡
ģ à¹ĩ
ÎĹ Î£
Ġìĺ Ī
w er
m y
Ġ' ).
ĠÙĩ Ø³Øª
à¯ģà®® à¯įà®ª
\ \
Ġc zy
´ë Ŀ¼
ĠM ed
Ġn ÄĽ
ĠÐ¼ Ð¾Ð¶
Ġä¸ ī
O P
lÄ± ÄŁ
ĠV al
Ġà¦® à¦¾à¦¨
ch er
Ġre d
ĠÂ ¿
ĠÕ ¯
êµ Ĳ
ĠV i
åĽ Ľ
à¦¨à§įà¦ ¦
Ãº ng
ĠØ¨ Ø®
ĠM ad
à¥ģ à¤ķ
ind a
Ġãģ Ĭ
ÏĢÎ¿ Î¹
Ġbe i
Ġt rav
ie f
t y
Ġm ass
í ŀ
×ķ× ļ
O D
Ġar r
Ä± q
Ġà¸ ¡à¸
áĥĲáĥľ áĥĵ
Ġop er
ģà¸ ¥à¸
ĠS on
æį ®
Ġex p
ĠØ³ Ø§Ø²
ÏĦ ÏģÎ¿
ĠÙ¾ ÛĮØ´
ĠÎł Î±
Ġnh áº¥t
Ġà¦Ĩ à¦ª
ĠØ¯ ÙĪØ±
Ġæ ³
Ġs n
sk i
Ġà§¨ à§
Ġáĥ© áĥĶáĥĽ
s ung
Ġæ Ľ
Ġb it
ĠâĢ ¬
áĥĿáĥł áĥĺ
åĪ Ľ
ä¹ ¦
ĠM us
ĠÙĪØ§ÙĦ Ùħ
id s
Ġà¦¹ à¦¬à§ĩ
ĠF ac
× ¥
Ġb an
Ġà¸ ĭà¸
eb ut
à§įà¦¯ à¦¾à¦¨
ãĥ ĳ
Ġd ok
æĶ ¯
ĠÕ ¸
end a
Ð¾ Ðµ
Ġà¤¸à¤¾à¤ ¥
Ġb á»ĭ
ar ak
Ġ×ľ ×§
Ø¦ ÙĬØ³
ĠÄĳá» ĵ
Ġg ir
áĥĺáĥ §
Ġà°¨ à°¿à°°
ĠÙĩ Ø±
è° ĥ
Ã© c
Ġ×ŀ× ĵ
íĨ ł
áĥķ áĥ¡
ce pt
à¦° à§ĩ
Ġà¦Ĩ à¦¸
Ġà°ķà±Ĥà° ¡à°¾
Õ¸ÖĤÕ© Õµ
Ġd la
ab r
ĠD is
at ive
à°¡ à°Ĥ
ij d
Ġper o
Ġjak o
Ġn ull
Ġ8 5
Õ ¾
Ö ¸
ĠE ng
ĠS u
ĠìĹ °
Ġs es
ĠÎ¿ ÏĢÎ¿
ģà¸ ±à¸Ļ
ë² ķ
Ïħ Î½
Ġna ar
Ġcon st
ak Ä±
ÏĢ Î¬
Î´ Î¹Î±
Ġf re
Ã¼ s
à°ķ à°¿
à¥Ĥ à¤°
Ø¨ ÛĮ
Ġwer den
èĩ ³
åı Ĥ
Ġs á»±
×ĺ ×¨
Ġ×Ĳ ×Ĺ
ÙĪØ± ÛĮ
Ġ×ķ ×ĳ
Ġìķ Ĭ
Ġ áĢ
Ø¯ Ø¯
Ø± ØŃ
à¦§ à§įà¦¯
×ľ ×Ļ×Ŀ
l ay
Ġà°ħ à°µ
Ð¾ÑĢ Ð¼
ĠM et
ien e
Ľ à¸£
Ġà¦¸ à§įà¦¬
ÏĮ ÏĦÎµ
ì¶ľìŀ¥ ë§ĪìĤ¬ì§Ģ
Ñĥ Ñģ
an Ä±
Ġz Ã¡
ell en
ĠC or
Ġd ol
ĠØ§ÙĦÙħ ÙĪ
ĠåĪ ©
Ã¡ nÃŃ
å· §
å Ĥ
Ġw el
ĠE sp
Ġê° ķ
à¥Ģ à¤¨
Ġå ¦Ĥ
¦ ¬
å¿ ħ
áĥłáĥ £áĥļ
Ġpa ano
Ġé «ĺ
Ġà¤ķà¤° à¤¨à¥ĩ
à¤ ł
à¦ ł
ĠØ§Ø ´
Ġèĩ ª
ä» Ĭ
Ġ200 6
à°² à±įà°²
Ġáĥ¡ áĥĲ
à¤ ¥
it or
al o
ou d
í İ
ÙĦ Ø§Øª
à¹Īà¸ ¡à¸
Ġres ult
Ġpr om
Ġn Äĥm
Ġs ent
Ġed il
ëª ¨
Å Ī
à¦° à§įà¦¤
Ġë Ķ
Ġst art
æ¸ ¯
à±ģà°ķ à±ĭ
à®¤à¯įà®¤ à¯Ī
Ïĥ ÏĦÎ·
Ġd ia
Ðµ ÑĪ
Ġh iá»ĩn
ĠR o
L E
à¤¾à¤ ı
ĠÕ ¥
è¾ ¾
×ĵ ×Ļ×Ŀ
Ġé ĺ
ç ª
ĠD u
áĥĺáĥ ŀ
Ġte xt
Ġà°¨ à±ģà°Ĥà°
åĵ ª
Ġs Ã¥
uk o
Ġà¤¸ à¤ķ
Ġdá»¥ ng
å½© ç¥ŀ
ĠáĥĽáĥĲáĥĴ áĥłáĥĲáĥĽ
p en
ĠáĥĽ áĥĶ
Æ°á»£ ng
Ġre al
é£ Ł
Ġand a
Ġd ar
Ġest Ã¡
Ø§Ø® Øª
à°¾à° §
ì² ´
Ġà¦¦ à§ĩà¦ĸ
Ġb re
Î¼ÎŃ Î½
à¦¨à§įà¦¤ à§įà¦°
Ġna ch
ìļ ´
Ġg l
Ġáĥł áĥĲ
Ġ×ŀ× ĳ
å½ ¢
Ġáĥŀ áĥĺáĥłáĥ
Ġà¤° à¤¾à¤ľ
ĠáĥĴáĥĲáĥĽ áĥĿáĥ
Ġ×ŀ× Ľ
qu ip
Â º
esta ur
al u
ek s
ĠØ¥ ÙĨ
ac iones
à®¿à®° à¯ģà®ķà¯įà®ķ
Î ļ
ªà¸¸à¸ Ķ
ĠÄĳá»Ļ ng
Ġà¦® à§ĭ
Ġk as
ĠÙħ Ø«
Ġà¦Ĩ à¦Ĺ
Ġà®ħ à®©
ëł ¥
Ġb ien
à®©à¯įà®± à¯ģ
w are
à¯įà®ķ à¯įà®ķ
éŁ ³
Ġn ad
ĠØ¨Ø§Ø´ Ø¯
Ġìĥ Ŀ
ĠÐ Ľ
ļà¸²à¸ Ĺ
å· ±
Ġf az
à°¿à°¨ à°¿
ĠÃ ¸
à§ĥ à¦¤
à§įà¦ ¦
à «
ĠA ss
Ġä¸ º
ert o
Ðµ Ñħ
Ľà¸£à¸ °à¹Ģà¸
il ip
Å¾ e
Ø¯ Ø§Ùħ
Ġn em
ĠC an
Ġ ãģ¨
ĠÛ °
í ĽĦ
ì ¡
s ite
çĶµ å½±
å® Į
ĠD an
èĲ ¥
Ġdes c
×Ļ×¨ ×ķ×ª
âĢĮ ÙĩØ§
20 20
ĥ n
à¦¾à¦ ĸ
à°¾à° £
ĠÂ» ,
Ġ×ŀ× ¦
Ã¢ u
èĤ ¡
eb er
à®¾à® ķà¯įà®ķ
ĳ Ĳ
Ġé Ļ
æĹ ©
ĠpÅĻ ed
Ġc amp
à¦¾à¦ ¯à¦¼
Ħà¸£à¸ Ķà¸´à¸
à±ģà°Ĥà° ¦
Ġæľ ¬
£Â ¬
Ġb ec
ot s
ĠìĹ Ĩ
Ġa da
Ġng Ãły
Ġà¤¹ à¤®
Ġcont ent
×ķ×ł ×ķ×ª
Îµ Ïģ
à§ĩà¦ ·
I P
áĥł áĥĶ
Ġæ ¶
ac ji
ĠØ´ ÙĩØ±
à¸Ńà¸£ à¹Įà¸
re g
Ö °
Ġdat ing
Ø¶ ÙĪØ¹
Ġæ Ļ
Ġn y
áĥĶáĥ ®
in ess
ac a
ĠB y
Ġol un
Ø ¡
Ġ íķ´
Ĺà¸ ³à¸
à±ģà°ķ à±ģ
ĠØª Ø´
Ġb on
Ġo ther
æĭ į
pl ay
ĠÎ± ÏĢ
ant a
Å ŀ
Ġ' '
Ġn ow
t s
Ġc li
Ġpr ost
çİ ĭ
ag ai
ÉĻd ÉĻ
à¦® à¦¾à¦¨
éħ į
áº¯ c
ĠâĢ ķ
Ġson ra
ĠK on
Ġd Ã¼ÅŁ
ç ¬
ä¼ģ ä¸ļ
Ð° ÑİÑĤ
I V
ĠÐº ÑĢ
Ãº c
ç¦ ı
à±Ģ à°µ
Ã ®
å¹ ¿
ch i
áĥĿáĥĵ áĥĲ
Ġm Ã¥
Ġì¹´ íĨ¡
Ġre aliz
Ġà¤¥ à¤¾
æĺ ĵ
éĺ Ł
Ġ `
Ġï¿½ï¿½ï¿½ï¿½ï¿½ ï¿½
Ġst a
à®¿à® ¨à¯įà®¤
×© ×ª
Ġì Ļ
Ø§ÙĦ ÙĬ
Ġæ Ģ
z ione
ÙĪ Ø§Øª
ĠÑģ Ð¾
åĬł çĽŁ
ç ļ
ĠPost ed
ĠÙĪ Ø³
l os
it an
Î³ Î¿
el la
Ġsup er
ç® Ĺ
è´ ¨
iz i
Ġà¤ľ à¥ĭ
Ġc ur
ĠÛ±Û³Û ¹Û
Ġw ho
Ġéĩ į
ķ à¸£
à¯Īà® ªà¯į
Ġv or
à±įà°¸ à±į
Ø§Ù ¾
á» ı
Ġç¾ İ
Ġâ ķ
Ġb aÄŁ
à¦¿à¦ Ĥ
ast a
Ġs ign
à®¿à®¯ à®¿à®²à¯į
Ïģ ÎµÎ¯
Ã² n
Ġà¦ħ à¦¬
am in
áĥľ áĥĶáĥľ
×ķ×¨ ×Ķ
ĠÎ¼ Î±
ĠáĥĴáĥĲáĥĽ áĥĿ
er ing
ap i
à© Ģ
Ġm m
Ð¸ ÑĨ
ÎŁ Î£
ĠáĥĲáĥĵ áĥĲáĥĽ
h al
Ġm ÄĽ
Ġsa at
ĠØ¯ ÙĪÙĦ
Ġv iá»ĩc
áº· c
Ġà°ħ à°Ĥà°¦
á»± c
é¢ Ĩ
am ent
è ħ
çĶ »
ĠÙģ ÛĮ
Ġà®ķ à¯ĩ
Ġà®¤ à¯Ĩà®°
Ġs an
id ir
Ġè ´
×Ļ× ĸ
p et
à§ İ
Ġl ong
Ġde y
ĠÙħ Ø±Ø¯
Ġph áº£i
×¨ ×Ĵ
Î¸ ÎµÎ¯
ar ia
Ġí ĸ
ĠÙĪ ÙĬ
ï¼ Ĳ
d r
7 9
Ġ15 0
Ã§ o
emp re
ĠáĥĽ áĥĺ
ĠÃ§ ok
Ġf amil
Ġa pr
ī à¸
ħ n
Îĳ Î£
al Ä±ÅŁ
éľ Ģ
ek a
ĠØ§ÙĨ Ø¯
s z
in c
Ġna j
Ùĥ Ø©
Ġdire ct
ĠC H
Ġç º
ĠÐº Ð¾Ð½
æ ļ
ov at
Ġà®İà®© à¯įà®©
Ġà®µ à®¨à¯įà®¤
à®µ à¯ģà®®à¯į
à±ģà° ¦
ĠS P
Ġsh ow
Ġà®ķ à¯ĭ
ĠØ§Ø³Øª Ùģ
Ġsom e
Ġth Ãłnh
æĿ ¡
æĸ ½
´ ĳ
u at
Ġåı ¯
æ¶ Ī
ÑĤ ÐµÑĢ
au x
ĠÃ¼ ber
à§Ł à¦¾à¦°
± c
Ġinter net
Ġáĥ¨áĥĶáĥĽ áĥĵáĥĶáĥĴ
à°Ĥà°¤ à±ĭ
åĩ Ĩ
Ħà¸§à¸²à¸ ¡
ë° ©
Ġn orm
à¤ ³
ut i
à¹īà¸Ńà¸ ¡à¸
è® ®
Ġäºļ æ´²
ãĢ İ
áº± ng
æĪ ĸ
ãĥ Ĭ
Ġth Ã¬
è¯ Ŀ
å ¡
åı ĭ
ĠÂ µ
æ §
Ġç ĭ
Î¹Îº Î¿
Ġì µľ
z n
Ġà¹Ĥà¸ Ķà¸
íĥ Ģ
ĠØ¯Ø§ÙĨ Ø´
te k
Ġëı Ħ
Ð½Ð¾ÑģÑĤ ÑĮ
u ar
ãģ§ ãĤĤ
áĥłáĥ ĵ
ĠA ug
Ġb is
à¤°à¥įà¤ ®
à°¨ à±ĩ
ä¿ ®
Ø§ÙĦ ÛĮ
Ġcon d
Ġ9 8
åĳ ¨
Ġà°ļ à±Ĥà°
ĠØ£ Ùħ
Ġwh at
ģ à¸£à¸°à¸
Ð° ÑĪ
è¯ ģ
×Ļ×¨ ×Ķ
ind ows
ma q
áĥłáĥ £áĥ
et r
el ig
ler e
er es
ëĭ ¨
à¯Īà® ļ
Ġà®µ à®´
ading in
Ġai adingin
à¹Ģ à¸£à¸µà¸
Ø§ÙĬ Ø©
à¤¿à¤ ¶
Ġa ff
ĠØ¢Ùħ ÙĪØ²
Ġà¤ħ à¤§
ĠØ£ Ùĥ
us h
ĠØ§ÙĦ Ùĩ
Ġà¦¤à¦¿à¦¨ à¦¿
ĠIn st
áĥĺáĥ¨ áĥľ
uy Ãªn
à¥įà¤ ¨
ĠØ® Ø±
ĩ à¸²à¸Ļ
Øµ ÙĪÙĦ
ĠD on
ĠÚ©Ø´ ÙĪØ±
j en
Ġå º
Ã Ĳ
Ð ĺ
à¸Ńà¸ ļ
ĠâĨ Ĵ
ĠA S
Ġà¤ľ à¤¾à¤¤
Ġne ed
à°¿à°Ĥà° Ĺ
Ġà°ħ à°¯
4 3
ĠÙĨ ÙĤ
à§įà¦ ľ
Ġà¤² à¤Ĺ
ĠØ® Ø¨Ø±
å° Ķ
ê± ´
ĠæĹ¥ æľ¬
Ġp ang
og raf
Ġhá»į c
ro d
áĥ§ áĥķ
à¥Ģ à¤²
Ð°ÑĢ ÑĤ
à°² à±į
ģà¸²à¸£ à¹Ģà¸
Ø±ÙĪ Ø´
Ġth em
à±ģà°¨à±įà°¨ à°¾à°°à±ģ
ç± »
à§ģ à¦®
ĠáĥĽ áĥĿáĥ¡
it ed
6 2
ĠìĦ ¸
à®¿à®ķ à®³à¯į
Ã ĵ
à§ĩà¦ ¦
ëĲ ľ
íŀ Ī
Øª Ø¯
ĠK r
Ġv il
Ĭ à¹Īà¸§à¸
çĶ ±
·à¹Ī à¸Ń
Ã¡ z
Ġæī ĭ
Ġë° ©
Ġ×Ķ×ŀ× ©
u el
c er
m es
ĠA B
ah at
l at
é¢ Ħ
Ġth ere
Ġ: :
Ġma ar
Õ¸ÖĤ Õ¶
Ġå½©ç¥ŀ äºīéľ¸
re en
áĥĶáĥĹ áĥĺáĥ¡
ĠØ³ ÙĪ
Ġleb ih
Ġqu y
×ŀ× ł
Î´ Î·
Ú¯ Ø§ÙĨ
Ð½Ð¾ÑģÑĤ Ð¸
Ġà°ķ à°²
Ġs ont
ä» İ
à®µ à¯ĩ
áĥ Ń
f ul
le h
áĥĶáĥłáĥ Ĺ
ian o
Ġç½ ĳ
Ġd il
Ùĩ ÙĨÚ¯
ãĢ Ĭ
Ã± o
Ġå ±
ap an
ĠO d
ĠáĥĽ áĥ¡
Ġt ers
Ġt om
ter s
áĥĺáĥĿ áĥľ
à± Į
Ġh ier
Ġf ree
az ioni
Ġà®ħ à®±
ĠÎµ Ïħ
ÎŃ Î½
Ð½ Ð¾Ð¼
ĠØª Ùĩ
Ġinter n
åŃ ĺ
áĥĿáĥ ŀ
Ġêµ Ń
æĬĢ å·§
Ġà®ª à®²
Ġd ah
n is
áĥĺáĥ ¦
Ġà®® à®±à¯įà®±
Ïī ÏĥÎ·
ĠD om
ens e
6 1
Ã¡ r
Ġ uk
ìľ ł
........ ........
ĠA k
o ol
ĠÙĤ Ø¨ÙĦ
ĠÙģ Ùī
æ ĵ
y w
å¾ Į
ì¹´ ì§Ģëħ¸
à§įà¦ ł
×ľ ×§
Æ¡ i
Ġex t
ĠÃ ĺ
Ġh um
áĥ£áĥ ®
ĠØ¨Ø§Ø² ÛĮ
Ġà¸ ŀà¸
f o
áĥłáĥ Ĵ
åı ĺ
á»ĩ n
à®¾à® ļ
åĪĨ åĪĨå½©
Ø£ ÙĨ
áĢ¹ áĢ
Ġl im
g l
¹ æŀľ
Ġwh en
ãĢ Į
ĠØ§ÙĦÙħ ØŃ
ĠT op
×ŀ× Ł
Ġ( );
Ġcom ment
Ġmod el
Î¾ Î·
ëĭ ¹
al d
4 1
Ġé Ĥ
à¥ĩ à¤¸
áĥĿáĥ ¨áĥĺ
Ġp ak
áº¡ o
ÙĦ Øª
Ġë¬ ¸
à¤¾à¤¹ à¥Ģ
6 3
ĠA mer
Ġsist em
Ġà¦ķ à§ĭà¦¨
Ġor ig
Ġqu est
ĠØ§Ø³ØªÙģ Ø§Ø¯Ùĩ
áĥĺáĥ «
Ġà®İà®© à¯įà®ª
ĠáĥĹáĥ¥ áĥķáĥĶáĥľ
Ùĥ Ø§ÙĨ
à°Ĥà° ª
á»ĭ ch
Ġpor no
Ġà¦¹à§Ł à§ĩà¦Ľà§ĩ
ĠÎ ¥
Ġr ic
Ġ6 8
Ã¤ t
Ġg od
op le
at r
ĠN or
à±įà° ³
ĠØ¯ Ø§Ø±Ø¯
Ġus e
Ø¯ ÙĬØ¯
ÏĮ Î½
Ġà¦ķà¦° à¦¤à§ĩ
æķ Ī
Îµ Î»
Ú© Ø³
Ġà§¨à§¦à§ §à§
ĠP al
£ p
Ġf ind
ĠAG çİ¯äºļ
ÙĤ Ø§Øª
×ł ×ª
Ïħ Ïĥ
Ã½ m
è§ ģ
\ "
Ġd op
ĠGo ogle
¡à¸²à¸ ģà¸
ĠáĥĵáĥĲáĥ ĺ
ĠìĦ ±
Ġdi es
èģ Į
?? ??
iá»ģ n
a is
ug h
ĠR ec
å ³
Ġà¤ Ľ
çĻ ½
Ġà¦ıà¦ķ à¦Łà¦¿
88 8
ÛĮ Ø³
ĠA ir
Ø² Ø´
ĠÎ¼ ÏĢÎ¿
Ġ9 7
éĹ »
Ġáĥĵ áĥĺáĥĵ
Ð¸Ð» ÑĮ
ĠS erv
×ķ×ª ×¨
Ïİ ÏĤ
Ġà®ħ à®Ł
Ġå ī
an z
åĮ ħ
ĠM art
ĠØ´ Ùĩ
à¤¿à¤¯ à¥ĭà¤Ĥ
Ġè ¦
as yon
æ ĳ
à¥ĩà¤ ĸ
æŃ ¥
åĽ ł
ãĥ ĵ
à¤°à¥įà¤ µ
ĠÏĢ ÏģÏĮ
ÏĮ ÏĤ
Ġon der
el se
áĥĿáĥķ áĥľ
Ġpro d
ģà¸ ¥
ĠÃ§ ox
ĠÄĳ i
Ġna v
Ã¡ o
ĠØ¨Ø± ÙĨ
ć Ĉ
Ġà§ ©
Ħ à¸Ļà¸
à¤¤ à¥įà¤¤
áĥĶáĥĹ áĥĺ
æĿ ĳ
end en
Ġé Ľ
es k
à¸£à¸ ¹
ud a
Øµ Ø±
ãģ ļ
ard s
Ġv oc
à© ĩ
ro om
Ġst at
Ġinv est
ub lik
ur an
ì¹ ´ëĿ¼
Ġl ig
ãĥ »
Õ¡Õ ¿
ĠH D
ĠÏĥÏĦÎ¹ ÏĤ
áĥĺáĥĹ áĥ®
éĺ ²
áĥĶáĥļ áĥ¡
ĠNEW Part
ĠÚ¯ ÙģØª
ÃŃ st
Ġe ver
ĠÐ¿ Ð»
un i
à°¾à°° à°Ĥ
Ġnew s
Ġf irst
i em
×¨ ×ĳ
×¨×Ĳ ×ľ
à¦¿à¦ ľ
Ġb le
Ġà¸ Łà¸£à¸µ
Ġpr im
ëł ¤
Ġæ Ķ
áĥĺáĥ¡ áĥĲ
à¦¾à¦¦ à§ĩà¦¶
iá»ĥ m
j o
ag er
íģ ¬
Ġth an
s Ã¥
ãĤ ĥ
ĠÎ Ī
Ã¡ nh
ÙĦ ÙĪ
æ© Ł
ĠÐ ķ
ĠÎĶ E
å¸ ¦
ĠØ³ Ø¨
à§Ł à¦¾
Ġ ä¹Ł
Ġíĺ ¸
ĠÙĬ Ø¹
Ġ×ŀ× ł
Ï Ĭ
áĥķ áĥł
Ġæ İ
Î± Î»
¥à¹ĩà¸Ńà¸ ķ
g ro
à±ģà°² à±ĭ
Ġcom pr
ĠP ubl
à¯Ģ à®°
in ter
o on
Ġáĥĵ áĥĲáĥķ
×ķ×ł ×Ļ×Ŀ
ĠØ¨ ØŃ
èī ĩ
h l
Ġ7 8
äº ĳ
ĠìĹ Ĳ
ĠS m
à±įà° Ĺ
ĠE le
or r
à®¿à®ķ à®³
Ã Ĭ
ig o
¡à¸ ±à¸
à±įà°° à±Ģ
Ġè ĭ
Ġz ap
ones ia
è¶ Ĭ
å¢ ŀ
ing er
Ġ×ķ ×¢
à¦ľ à¦¨
ĠØ§ÙĦÙħ Ø³
Ġbe en
Ġdes ign
Ġad min
à¦¾à¦ķ à¦¾
à¤¸ à¥įà¤¤
ĠâĢ ı
ëŀ ĺ
or u
Ġm ol
Ø¹ Ø±
×ĳ ×ķ×ĵ
Ġ$( "
à¹īà¸² à¸Ļ
ig li
Ġ×Ķ ×Ļ×Ĳ
ar Ä±
Ġà¸ Īà¸
Ġur l
ĠÙĤ Ø¯
ĠÐ ¤
Ġn in
ÑĢ ÐµÐ¼
ĠØ¹ ÙħÙĦ
¸ è¿Ĳ
ä¾ ¿
×Ļ×ł ×ķ
à®¿à®± à¯įà®ķ
å¤ ľ
O K
Ġm ah
Ġà¤Ĺ à¤¯à¤¾
Ġé ¦
ak k
Ġword en
×ŀ ×Ļ
Ġtr ad
Ġí Ĭ
Ä±m Ä±z
Ġjed n
Ġìŀ ¥
Ġ×Ĳ ×Ĺ×¨
ĠáĥłáĥĿáĥĴ áĥĿáĥłáĥª
æ² ³
ìĤ¬ ìĿ´íĬ¸
à¹ĥà¸ Ī
Ġmen y
is mo
ĠÎºÎ± ÏĦÎ¬
s en
t u
Ø· Ø±
à¤ļ à¥įà¤
Ġs at
st en
Ġde ze
Ġ| --
Ġon ly
Ġp ap
Ã¸ l
Ġì§ Ħ
os p
à®² à¯Ī
Ġy ol
×ľ ×ķ
Ġpr iv
à®¾à®° à¯įà®ķà®³à¯į
Ġz aman
ĠØ§ÙĦØª Ø¹
ãĤ¤ ãĥĪ
ĠÙħØŃ ÙħØ¯
Ì Ģ
Ī à¸£à¸´à¸
Ġà¤Ń à¤¾à¤°
ĠJ ak
áĥĲáĥłáĥ ¡
ä¹ħ ä¹ħ
Ġà¤ķ à¤¿à¤¸
Ġper m
Ġy an
Î¼ Î®
×ł ×¡
à¦¿à¦ ¯à¦¼
ĠÙ¾ ÛĮ
Ġ×ĳ ×¡
Î¹Îº Î®ÏĤ
¸à¸ ģà¸
k l
ĠÂ ´
å§ ĭ
à¥ĩ à¤°
ĠáĥĽ áĥĶáĥ¢
Ġíı ¬
æŀ Ĺ
Ġà°ļà±ĩà° ¯
áº¯ t
í ĭ
ãĤ ĩ
ĠÂ ±
Ð Ŀ
Ġ4 00
t ur
à¦¾à¦ ¥
Ġá ł
ÑĢ Ð¾Ð²
u v
à¦¾à¦¨ à§ĩ
Ġà¤ī à¤¸
Å º
al ia
Õ ½
st and
Ġà®ħà®° à®ļ
Ġå ĳ
Ġin de
Ġà°ķ à°¾à°°
ķ à¸£à¸
áº¡ t
ìĺ Ī
Ġà®¤à¯Ĭ à®Ł
Ùħ Øª
à§ģ à¦ķà§įà¦¤
×ķ× £
ĠãĢĳãĢĲ ãĢĤ
et o
ë¥ ´
ĠØ§ÙĦ Ø²
Ġc ost
Ġh ow
h ar
re am
ĠD el
ĠØ² ÛĮ
çł ´
åĪ «
à±ģà° ®
ut a
Ġh igh
æľį åĬ¡
ãģĹ ãģĦ
Ġn Æ°á»Ľc
¥ ¼
×ŀ× ©
Ã¦ re
ĠÙĪ Ø¹
Ġ×© ×ĳ
åħ Ń
ĠáĥĹáĥĲáĥķ áĥĺáĥ¡
å¹ ²
à¦¾à¦¤ à§ĩ
Ġí ģ
Ġë ķĮ
Ġì Ĥ
et i
à¦ª à¦°
×¢ ×ª
ob er
Øµ Ø¯
y pe
à°¿à° ļ
àµ Ĩ
ÑĢ Ð¾
Ġcont in
q q
v ÃŃ
æĹ¶ éĹ´
O W
à¸Ńà¸ µà¸
Ġest a
áĥķáĥĶáĥ §
ç» Ļ
×Ļ×ł ×Ķ
O C
Ġd ost
ãģ¾ ãģĽ
ãģª ãģ©
ĠÏħ ÏĢÎ¿
Ðº Ñĥ
ĠP R
Ġà®® à®©
ÏĦ ÏīÎ½
à±Ģ à°
è ¼
con om
Ġæ ł
Ġäºļ ç¾İ
ä»£ çĲĨ
à°¿à° ²à±ĭ
Ķà¸´à¸ ¡à¸ŀà¸
Ġk uko
ĠÐ¿ Ð¾Ñģ
d ib
ett i
à¹ģà¸¥ à¹īà¸§
Ġre qu
um a
ĠÃ§ alÄ±ÅŁ
Ġdis c
ģà¸ ©
Ð¶ Ðµ
Øª ØŃ
ro id
Ġå½ ĵ
ĠR ep
ë¬ ´
Ġver d
N o
áĥĺáĥ «áĥļ
æ¨ ¡
à°¡ à±įà°¡
Ġà¸ ģà¸²à¸£à¸
à¨ ¿
ĠI S
Ð½ Ñı
ÙĪ Ø§Ø±
Ġn atur
Ġb iz
ÙĨ Ø³
Ġ àª
h an
Ġpr inci
Ġ, ,
à¦ ·
Ġë ¨
áĥĲ áĥĲ
ç®¡ çĲĨ
Ġà¸ Ĥ
ĠÙĤØ± Ø§Ø±
Ġ×Ĳ ×ł×Ļ
Ø§ÙĦ Ø¨
Ġáĥł áĥĲáĥª
Ġk ull
p ad
áĥķ áĥĶ
ĠO ff
Ġ] [
Ġw ere
ĠV ol
à¤¾à¤² à¤¾
Ġt iáº¿
ag o
Ġp ay
Ġgo od
à¥ĭ à¤ľ
×ŀ ×Ļ×Ŀ
Ġà¸ Ĺà¸µà¹Īà¸
æ· ±
Ø±Ùĥ Ø©
à®© à®°à¯į
æ ¿
P S
Ġd ay
Ġp am
áº© m
ir s
** **
il ÉĻr
á»ģ n
ì Ķ
r ess
Ġ×Ĳ ×ł
Ġè ¡
ĠÎ¸ ÎŃ
Ġty pe
ÅĻ e
AN G
j ekt
Ġà¦Ĺ à§įà¦°
ĠØª ÙĪØ§ÙĨ
ĠC al
ĠáĥĽáĥĺáĥ¡ áĥĺ
Ġd im
ŀ à¸Ļà¸
Õ¡Õ ½
à±ĭ à°ľ
Ġé ģ
ial e
ĠL o
Ġd z
ØªØ± ÛĮÙĨ
Ġé »
h n
Ġmak e
in as
Ġë Ħ
Ġà°° à±Ĩ
ĠØ§ÙĦ Øº
Ġà°ļà±Ĩ à°ªà±įà°ª
Ùħ ÙĥÙĨ
áĥĶáĥĳ áĥĶáĥļáĥĺ
ĠÐ¸ Ð»Ð¸
Ġv iew
Ġ î
Î¯ Îº
ëł Ī
Ġp es
Ġà®® à¯ģà®¤
ĠíĨ µ
Ġg li
×Ĳ ×ª
Õ¶ Õ¥ÖĢ
Ġà¤ī à¤ª
ĠG er
in y
à¥ĭ à¤¨
AP P
ë§Į ëĤ¨
c Ä±
Ã³ d
i as
Ġt Ã´i
Ġk ab
4 2
èĩª å·±
Ã ī
Ïĥ ÏĦÎ¿
s g
Ġpol it
à¤¿à¤ ®
±à¸ įà¸
Ġh v
Ġc er
åĬ Ł
áĥĺáĥ ĳ
«à¸ ¥
Ð ķ
is m
Î¯ Î¶
ac ak
èĬ Ĥ
Ġà°® à±Ĭ
ĠO l
r id
è½ ¬
ÏĦÎ· ÏĦÎ±
S t
Ġm ul
Ġ×Ķ ×Ļ
åº ľ
Ġáĥ¨ áĥĶáĥľ
à¯ģà®ķ à¯į
ªà¸²à¸ ¡à¸²à¸£à¸
å¤ ª
Ġs ar
Ġk il
à· Ĭ
à¤ķ à¤¾
ĠÎ´ Î¹
ģ à¹Ī
âĢ ĭ
Ġj pg
Ġìĸ ´ë
Ãªn cia
ĠÑį ÑĤÐ¾
ĠÃ ª
à¯ģà®Ł à®©à¯į
Ġsk al
ĠR ev
Ġà¦ķ à¦®
Ġ×ľ ×Ľ
áº¥ n
Ġà°µ à°¾à°°
åĪĨ æĹ¶æĹ¶å½©
aw an
Ġà®ª à®¤
Ġz n
any ak
Ġs ystem
à¹Ĥà¸ ¡à¸
Ġlo ok
Ġper f
f en
Ġx u
ĠØ§Ø ·
ŀ à¯įà®ļ
Ġo c
ÉĻ li
Ġì ¶Ķ
Ġs áº£n
Ġex per
âĢ Ķ
ä¼ Ĺ
Ø§ Ø§
Øª ÙĪ
ĠØ¯ Ø§Ø¯
Ã¡l nÃŃ
áĥĲáĥ¨ áĥķ
ìļ ¸
äº ¿
Ġne j
±à¸ ģ
Ġ20 00
ĠØ¢ÙħÙĪØ² Ø´
g u
b el
ut ion
áĥķ áĥĲáĥľ
Ġà®ķ à®°
à¦¨ à¦¿
Î¼ Î¹
ny m
èĲ ½
Ġprz ez
Ġà°¸ à°¿à°¨
á ¿
åį ĵ
Ġà¤ Ŀ
ĠÚĨ Ùĩ
Ġt ah
à±ĭ à°Ĺ
à¯ģà® £
Ġm ang
áĥĲáĥ Ķ
Ġ7 7
ÙĬ Ø«
ĠÂ ©
Ġà¹ģà¸ ¥à¸°
ĠS ol
Ġè §
Ġë ©
Ø§ Ú©
Ø§Ø³ ÛĮ
Ġu z
Ġà¦¬à¦¾à¦Ĥà¦² à¦¾à¦¦à§ĩà¦¶
ĠB aÅŁ
Ġit s
áĥ£áĥ ĵ
Î³ Î³
å® Ŀ
Ġg Ã¼
ÙĦ ÙĤ
à¥įà¤ ·
Ġto ut
U M
Ïĥ Ïī
ĠU p
Ñİ Ñī
Ġch ÃŃnh
á»Ļ c
à®¿à®²à¯įà®² à¯Ī
ÐµÑĤ ÑģÑı
Ġà¤Ĩ à¤£
Ġï½ ŀ
éĤ £
åĮ »
Ġ ÉĻs
Ġf ont
Å¡t ÄĽ
Ġ×Ĳ ×Ŀ
ĠÎ±Ïħ ÏĦÏĮ
Ġla v
ãĥ Ķ
Ġà¦ħ à¦Ń
Ġhá» £p
Õ ´
j ÄĻ
Ġan o
ä¸ĸ çķĮ
Ġp s
d ay
áĥĺáĥ£áĥł áĥĺ
ë Ķ
c u
à°° à±įâĢĮ
Ġr om
ĠÙĩ ÙĨ
ĠØŃ Ø¯
ement s
Ġà¦¸ à¦¬
à¹Ģà¸ ŀà¸
Ġáĥŀ áĥĺáĥł
c ol
Ġ×ĳ ×§
Ġd est
Ġê² Į
Ð ļ
æĿ ¿
ÙĤ Ø±
ĠÐ¾ Ñģ
Ġm ÉĻn
Ġpag k
Ð» Ñİ
áº« n
Ġåħ ¶
ÙĨ Ø§ÙĨ
ç ¿
v an
Ø§Ø± Ø³
¼ åĲĪ
à¥į âĢį
Ġà¸ Ķà¸
Ġà¦¯ à§ĩ
Ð°Ð½ Ð¸Ñı
e x
Ġáĥ¡áĥĲáĥ® áĥĶáĥļ
ÛĮÙħ Øª
Ġver y
ãĥ¼ãĥ ī
Ð ¢
Ġëį Ķ
ë¹Ħ ìĬ¤
ci al
Ġl at
Ġà®® à¯Ĥ
Ïģ ÎµÏĤ
Ġì ´
Ġart icle
í Ĥ
Ġn or
{ "
Ġqu an
E O
Ġà® ²
ĠÐ³ Ð¾Ð´
Ġi P
ĠO ct
Ġpl ay
ÙĤ Ø·
Ġà®ħ à®¨à¯įà®¤
à¯Īà®ķ à¯į
ĠÂ ¹
Ġau x
åĨ į
Ġd am
Ġà°® à°¾à°°
ë¡ Ŀ
Ġan s
à¦¤ à¦¾
it ies
ĠØ° ÙĦÙĥ
ĠÃ§ Ä±
ë ¯¼
Ġà°ħ à°¨à±įà°¨
Ġë° ľ
ä½ ı
Î¯ ÎµÏĤ
Ġ6 7
à¥įà¤ §
åĮ Ĺäº¬
ãĥ¼ãĥ ł
Ġb ook
ĠM er
al og
Ġvide os
Ġprof ess
¶ à¹Īà¸ĩà¸
elef on
Ġéĩ ĳ
ĠIB _
Ð¸ Ñİ
ĠA L
Ġmin ut
Ð° Ñĩ
ig er
æĹ ħ
ug u
Ġ ^
à±ĩà° Ł
Ġm ov
ĠU m
¯ à§ĭà¦Ĺ
Ð² ÐµÑĤ
ĠM y
Ġà®İ à®¤
ĠáĥĶáĥłáĥĹ áĥĺ
Ġ ic
åį ¡
à¥ģ à¤®
Ġm ill
à±ĭ à°¯
åı ¤
ou p
Ġ200 5
à§ģ à¦¬
Ġbl ock
Ð¸ Ð»Ð¸
I K
Ñĥ Ðº
ĠÐ¾ Ð´
ay on
ç± ³
Ġà¦¸à¦® à§įà¦ª
×¨ ×Ļ
Ġ6 9
is er
ĠØ´ Ø¨
×ķ×ľ ×Ŀ
Ġwo uld
Î´ Î¹
Ġv ari
Ġà®®à¯ģà® ©
w al
èī ¯
áĥĶáĥ¡ áĥĺ
Ġà¤¤ à¤°
5 7
ovÃ¡ nÃŃ
ìĹ Ī
Ã¡ rio
Ġd ass
Ïĥ ÏĦÎ±
w ay
Ġà¦¸ à¦°
ĠáĥĽ áĥĿáĥľ
áĥĲáĥł áĥĶ
Ġg ew
Ĺà¸µ à¸
áĥĲáĥ® áĥļ
áĥĲáĥł áĥĺáĥ¡
åį ĩ
à¤¿à¤Ĥ à¤Ĺ
ãĥ³ãĥ ī
Ġnh Ã¢n
Ġvot re
ob ile
an an
ì§Ģ ë§Į
Ø¹ Ø¨
à¦¿à¦ ª
à°¿à°Ĥà°ļ à°¿
ung an
ph one
Ġà®¤ à¯ĩ
Ġst and
ĠD as
èµĮ åľº
Ġp ad
ĠØ§ÙĦÙĬ ÙĪÙħ
å¢ ĥ
O V
ĠT H
à¦¨à§įà¦ §
Ġsit u
à®© à¯Ī
ãģ¾ãģĽ ãĤĵ
id d
ĠÄĳá»ĭ nh
à¤¸ à¥Ģ
Ø§Ø º
Ö ·
ÙĪ Øµ
ĠÑĢ Ð°Ñģ
à¨ °
Ġ} .
ĠåĪ© æĿ¥
Ġæ ¸
ä» ĭ
Ġà°® à°¨
Ġl ink
Ø´ Øª
ĠÙģ Ø±ÙĪØ´
ĠG rat
´à¸ Ķ
à°Ĥà°Ł à±ĩ
ĠØ¨ ÛĮØ´
Æ° a
à¹Īà¸² à¸Ļà¸
ĠÕ ¶
¢à¸ §à¸
áĥĲáĥ¥ áĥ¢
áĥĲáĥ §
ĠØ¬Ø¯ ÛĮØ¯
à±ĩà° ·
à°¿à°Ĥà° ¦
ĠÑĤ ÑĢ
z er
Ġå¯ ¹
en cia
Ġë§ Ĳ
Ġh ÉĻr
à°¤ à°¿
ÛĮÙĨ ÛĮ
Ø§Ø¹ Ø©
Ġê± °
ĠØ§ÙĦ Ø§ÙĨ
ĠÐ §
é¤ Ĳ
ad ores
ĠÎ± Î»Î»Î¬
ĠÏĥÏĦÎ¿ Î½
ĠÑĤ Ð¾
Ġ×Ľ ×Ĳ
à°® à±Ĩ
ÏĢ Î·
Ġz am
à°¿à°Ĥà°ļ à°¿à°¨
ab i
ĠB en
ĠÎŃÏĩ ÎµÎ¹
Ġ6 4
Ġà¤¬ à¤¨
Ø¹ Ùħ
ĠâĢ º
Ø§Ùģ Ø©
on i
Ġw al
Ġà®ļ à®¿à®±
ĠçĻ ¾
ĠÚ©ÙĨ ÛĮØ¯
à°Ĥà°¦ à±įà°°
Ġpar as
éª Į
Ĺà¸²à¸ ĩà¸
Ġc ir
×¢ ×ķ×ª
Ġa qu
à®¿à® ª
ĠëĤ ´
Ġà¦¦ à§ĩà¦¶
áĥĽ áĥĺáĥ¡
æī į
ì° ¨
E G
à°¾à°¤ à±įà°°
Ġh Æ¡n
ĠëĤ ¨
f l
æµ İ
Ð°ÑĤ ÐµÐ»ÑĮ
od a
it os
à°Ĥà° ķ
Ġm Ã¬nh
Î¿Ïį Î½
Ġë° ı
à¦¿à¦ Ľ
íĨ µ
ĠS ur
ĠV iá»ĩt
Ġno us
Ùħ ÛĮ
Ġ à¸£
ul u
ĠP C
ĠØ® ÙĦØ§ÙĦ
ult ur
ê ·¸
Ä±n Ä±z
ut s
ĠØ§Ùħ Ø§
b ol
Ñģ Ð»
Ġaut om
) )
Î¯ Î¿Ïħ
Ġk or
k k
ĠÙħ ÙĪØ±Ø¯
ĠÙħ Ùĩ
Ġs or
h en
Ħà¸¸à¸ ĵ
Ġ×ĳ ×ł
à¸Ļ à¹īà¸
Ð°Ð» Ð¸
×© ×ķ×ª
Ġma in
Ġgr up
æĿ ĥ
Ġs inh
à¹ī à¸Ń
çĽ´ æĴŃ
Ġneb o
åĥ ı
Ķà¸ ¥
ĠØ¨ Øª
Ã© es
Ġca o
ÙĪØ± Ø©
åı ²
á Ī
em en
ri end
" ,"
Å¯ j
art a
Ì £
Å¾ ÃŃ
à¦¾à¦¨ à§įà¦¤
Ġhe eft
ond o
Ġz w
ĠB il
k ar
åı į
×¢ ×Ķ
n ego
ĠØ¨ Ùħ
à®® à®¾à®©
ãĤĮ ãĤĭ
à®£à¯įà®Ł à¯ģ
Ġp ens
ek i
h s
T A
à¤¾à¤ ł
Ã± os
ĠØ§ÙĦØ¹ Ø±Ø¨
ë§ ¤
ĠåĬ ł
à¥ ľ
Ġl ine
Ġph p
áº£ ng
ĠÐ¸ Ð¼
Ġà°¤ à°¨
åĳ ³
ĠÃ ´
Î¼ ÏĨ
ĠAn t
ç« ŀ
ĠS il
ĠÙħ ÙĬ
à°¿à° ·
Õ¡Õ ¾
ĠÙĪ Ùİ
Ġog sÃ¥
à¦¾à¦ Ĥ
alar Ä±
à±ģà° Ĺà°¾
Ġê ·
Ġà®ĩ à®Ł
ĠÙĦ Ùĩ
é º
áĥĺáĥľ áĥĺáĥ¡áĥ¢
Ġdib dib
h am
Ġt ent
ãĥ į
ĠØª Ø³
ìĸ ´ë
Ġsa u
à§ĩà¦ ľ
Ġb ur
g es
Ø§Ø¹ Ø§Øª
nie j
k r
Ġà¦® à¦§à§įà¦¯
ĠÃ £
ĠØ¨ Ø§ÛĮØ¯
Øª Ùī
łà¸²à¸ ŀà¸
ĠÎľ Îµ
Ġpro cess
Ġsp ort
ĠP ers
à§ģ à¦ķ
Ġf ar
Ġr ight
ac ional
ĠP D
g am
Ø² Ø±
Ġ\ /
è» Ĭ
ĠáĥĴ áĥĲ
Ø¶ Ø¹
§ ç¾İ
ĠN ot
ç© ¶
Ä±l an
9 3
à®° à®¿à®¯
åĨ ³
Ġf ut
ĠÛ² Û
Ġm ens
Ġn ame
ĠFac ebook
ĻĢ â
Ġin to
áĥĲáĥª áĥĺáĥĲ
on der
Ġpro te
á»¥ c
v in
à±įà° §
Ġw aar
Ġ\ "
ãĤ ±
y un
ä¸Ń å¿ĥ
à¦¾à¦¤ à§įà¦°
ÏĪ Î·
ÑĢÑĥ Ð³
Ġáĥ¥ áĥĲáĥłáĥĹ
om s
Ġà¤¸ à¥įà¤µ
un ic
no ÅĽci
Ġh g
Ġs ho
å¤© åłĤ
Ġìĭ ¤
à°¿à° ¦
ĠØ± Ø§Ùĩ
èĭ ±
Ġå° ±
lÉĻr in
ìŀ ĳ
il s
iel e
ul i
ĠZ e
Ġk es
à®¿à®¤à¯įà®¤ à¯ģ
à¤¾à¤¯ à¤¾
Ġg eb
lÄ± q
Ġy Ä±l
à°® à±Īà°¨
·à¹Ī à¸Ńà¸ĩ
ĠØ¢ Ø¨
Ġs ak
: :
Ġr ad
æĭ ī
ãĤ¹ ãĥĪ
oh n
Ġesp ec
ĠPro f
à¥Ģ à¤ļ
r up
Ġà®Ĩ à®©
Ġk ami
åĨ Ĩ
a a
Ġà¦Ľ à¦¿à¦²
áĢ ¬
Ġà®® à¯Ģ
ĠìĽ Ĳ
à¹Īà¸²à¸ ĩà¸
Ġh ac
Ã Ģ
Ġkh o
çĶ ·
Ð¿ Ð»
Ġngh iá»ĩ
Ġæĺ ¨
Ġed ir
Ġà°¸à°¿à°¨ à°¿à°®
à¯ģà® ²
áĥĲáĥķ áĥĺ
Ķà¹īà¸§à¸ ¢à¸
Ġt ari
à¦¸ à§įà¦¤
å· Ŀ
c ent
ĠÄĳá» ģ
ut as
ĠTr ans
Ġà¦¨ à¦¿à§Łà§ĩ
áĥĶáĥ ¤
Ø¬ Ø§Ùħ
is chen
Ġm or
æ® µ
¸à¸ ķà¸
ãģ¨ æĢĿ
æİ §
×ĳ ×Ļ×Ŀ
at Ä±
Ġà¤® à¥ĭ
à¹Ĥà¸ Ķà¸
ĠÄĳá»ĵ ng
à°µ à°°
Ġan n
Ġmu ch
ĠS port
Ġ×Ļ ×ķ×ª×¨
ÙĪÙĨ Ùĩ
ĠÐ Ń
Ġ×¨ ×Ĳ
Ġ à¸Ļà¸
Ġà®¨ à®¿à®²
à®Ł à®¿
Ġn ang
ĠçĶ µ
Õ¥ ÖĢÕ
ĠÚ© ÙĨØ¯
ĠãĢĳãĢĲãĢĤ ãĢĳãĢĲ
Ġ> <
Î¸Î· ÎºÎµ
ĠÙĨÛĮ Ø²
Ġwir d
áĥĺáĥ£áĥ ļáĥĺ
à°¿à°² à±įà°²
á»ĳ t
Ġn aman
iv al
à¦¨ à¦¾à¦°
à¯ģà®µ à®¤
ÏģÎ¿ ÏĤ
Ġ ort
áĥĲáĥĿ áĥĳ
Ġà¸ Ľ
h one
Ġà®ķ à®²
å£ °
à¹ĥà¸ Īà¸
ĠÎ¼ Î¿Ïħ
à°¨ à±įâĢĮ
Ġhel p
Ġ) {
à¦¿à¦ķ à§įà¦·
è¿Ľ è¡Į
éĹ® é¢ĺ
ê¸ ī
à§įà¦ Ľà§ĩ
×Ļ ×ķ×Ł
à¯Īà®ķ à®³à¯į
ÏĢ ÎµÎ¹
Ġ1 20
Ġs ett
ĠØ¨ Ø´
ĠØ§Ùģ Ø²
Ġà°µ à°ļà±įà°ļ
Ġà¤® à¥Ī
h y
ãĥķ ãĤ
ÅĤ ad
ĠK Äį
ĠE in
ç½ĳ æĬķ
æĿ Ĳ
ì² Ń
Ġç ¥
Ġà®ĩ à®²à¯įà®²
ĠP e
à§ĭ à¦²
åĪ ĩ
æ²¡ æľī
à´ ¤
Ġà®ª à®¯
ÏĦ ÏİÎ½
Ġà®ļà¯Ĩà®¯ à¯įà®¯
à¯ģà®ķ à®³à¯į
Ġå¥ ½
Ġt ÉĻr
Ġå® ī
Ġ25 0
b le
à¯ģà®ķ à®³
ci as
sk a
Ð°ÐµÑĤ ÑģÑı
b in
Î¿Î¹ Î½
áĥĲáĥ ©
R A
éĸ ĭ
Ġå¤§åıĳ æĹ¶æĹ¶å½©
t Ä±r
ier en
ĠØ¯ Ùĩ
Ġf ot
åĽ Ń
ĠÙ¾ Ø§ÛĮ
Ġà¦¬à§įà¦¯ à¦¬
Ġ$( '
ĩà¸ Ĺà¸
ĠáĥĴ áĥĲáĥĺ
¨ àµįà´
ĠØ§ÙĦÙħ Ø¹
à¹ĥà¸«à¸ ¡
Ġáĥ¥ áĥĲáĥļ
Ġo leh
Ġ×ľ ×ª
é£ŀ èīĩ
ä½ İ
ê° ģ
ĠÂ ®
iv id
à°¸ à±į
ĠV o
Ġre f
ĠØªÙĪ Ø³
Ø§Ø± Øª
Ġk ita
Ã Ķ
Ġe p
å°± æĺ¯
Ġst yle
Ġà°ļà±ĩà° ¸à±įà°¤
Ġsol o
ĠÑĢ Ð°Ð±Ð¾ÑĤ
ĠÐ² Ð¾Ð·
ud io
à°² à°¾
åİ Ĩ
uh an
ĠÙĨ Ø§Ùħ
ie k
uy á»
ĠÃ ģ
c is
×ŀ× ¦
ëĤ ´
t em
Ä±s Ä±
an ya
Ġà®ĩ à®µ
ÑĨ Ð¸Ñı
l ia
Ġcom m
Ġpubl ic
çģ «
Ġs um
n ess
Ã »
l l
e i
æ¸¸æĪı å¹³åı°
ĠØ§ÙĦØ¯ ÙĪÙĦ
Ø¹ ÙĪØ¯
ĠØ´Ø± Ú©Øª
ÑĤ Ð¾ÑĢ
ë¬ ¼
amp ai
íķ Ń
à¯ģà® ļ
ec ek
Ġà¤¸ à¤°
áĥľ áĥĶáĥļ
«à¸ ¡à¸²à¸
à°¾à°¨ à±ģ
Ġáĥķ áĥĶáĥł
ä¹ °
à¥ģ à¤¦
ĠÔ ±
Ġgr and
éħ Ĵ
ĠagåĽ½éĻħ äºļæ¸¸
ĠØ´ ÙĨ
èĪ ª
Ġà¤ķ à¤®
Ġdoc ument
ëŀ Į
ä¿¡ æģ¯
0 8
à¤¤ à¤¿
ĠB al
Ġun s
åĳ ½
Ð¾Ð»ÑĮ ÐºÐ¾
áĥľ áĥĿáĥĳ
uk a
ĠåĲ Į
Ġà°ľ à°°
Ġte chn
ov an
l Ã©
Ġà®µà¯Ĩ à®³
ä½¿ çĶ¨
á»ĳ n
Ġë Ĭ
è§Ĩ è®¯
ĠT ur
Ġein en
à°¾à° ·
el ing
Ġor az
Î»Î¿ ÏĤ
Ġfor ma
å® ¤
end i
a x
¢ à¸Ńà¸
Ġjs em
Ã Ĵ
à¸£à¸²à¸ °à¸
g g
à¹Ĥ à¸Ļ
st ra
ĠæĪ Ĳ
Ġáĥŀáĥĺáĥłáĥ ķ
Ġmá» Ľi
r t
ãĥĥ ãĥĹ
Ġf oi
A d
co unt
Ġb or
ģà¸ ±à¸Ļà¸
Ð¸Ð½ Ð°
ĠáĥĽ áĥĵ
f ic
Ġg est
Ïį ÏĦÎµ
ĠØ§ÙĦØ£ Ùħ
Ġpe ople
Ġáĥ¡áĥĲáĥ ĳ
Ġn Ãªn
larÄ±n Ä±
Ġc ert
Ġà¤Ĩà¤£ à¤¿
sk ie
er m
çħ §
ĠÂ ½
Ġb at
ow ych
è Ĺ
oc o
à¦ ŀ
áĥĲáĥª áĥĺáĥĺáĥ¡
Ġd av
9 2
Ùĥ ÙĬ
Ø¬ Ø±
k om
«à¸£à¸ ·à¸Ń
9 6
Ġtod os
I F
éĤ Ģ
ĠC r
Ïģ Î¯Î±
áĥľ áĥĲ
ĠØª ÙĪÙĦ
Ġm ap
Ġmed ia
Ø® Ø§Ø¨
Ġthe o
ÏĮ Î³
Î» Î¹
Ġp em
à¤Ń à¥Ģ
Ġz um
ĠP od
ÏĦ Î¿Ïħ
å¥ ĩ
§à¸ ¥
ĠW indows
ĠÙĩ ÙĬ
Ø§Ø °
ĠÙĪ ÙĦ
ost en
Ġáĥŀ áĥĿáĥļ
Ġag o
×Ĺ ×ª
à¦¾à¦ľ à¦¾à¦°
ªà¸ ³à¸«
Î¹Îº Î¿Ïį
Î¼ Î¿Ïį
Ġkan n
Ġweb site
Ġl in
p i
is on
Ġè ¶
Ġse u
© áĥĶáĥķ
ĠãĤ ·
Ð¸ Ð±
al th
in an
¶ Į
Ġs ens
à¤ ¢
æľ Ľ
et h
ĠE v
ch od
Ġorgan iz
à°¾à° ³
Ġíĺ Ħ
Ġà®®à®±à¯įà®± à¯ģà®®à¯į
Ã ĭ
Ġå ģ
ĠI f
ĠInd onesia
ĠBl ack
Ġtod o
Ø§Ø² ÛĮ
Ġc Ã¡ch
æ¼ Ķ
à°¿à°Ĥà°ļ à°¾à°°à±ģ
ÏĢ Î¹
Ġsa ÄŁ
í Ŀ
Ø§Ø¨ ÙĦ
è® ¤
Ġter m
Ġà®¤ à®²
Ġy eni
Ġth áº¿
Ġ×ŀ× ŀ×
ç§ °
ä¾ ĭ
Ġm og
à® ¨
O B
ĠÎĳ Î½
ig a
æĹ¥ æľ¬
ĠÃ¥ r
ak ukan
A H
b an
n Äħ
Ġc Ã²n
Ġl and
ĠÂ §
åŁ Ł
f ort
Ö ´
Ġ×ķ ×Ľ
ĠL os
í Ĺ
æľī éĻĲ
Ġà¸ ķà¸
Ġà¤µ à¥įà¤¯
ĠG ro
ĠÙĨ Ø¯
Æ°á» Ł
ÛĮ Ùģ
×¤ ×ª
ãģł ãģĳ
ĠB us
Ġp ra
m eld
Ġ×© ×ł
Ġà°° à°¾à°ľ
I I
Ġge Ã§
ĠÙĦ ÙĪ
Ø§ÙĤ Ø¹
è¿ ŀ
ag em
ŀ į
Ġh or
Ġå¹ ¶
Ĥ à¹īà¸²
Ġä½ ł
Ĉ Ĉ
Ġi z
à¯įà®ļ à®¿
ĠÙĤ ÛĮÙħØª
à¥ĭ à¤²
Ġla in
Ġ6 6
ĠáĥĴ áĥĲáĥķ
Ġs ize
Ġå¼ Ģ
çº ¢
Ġà¦¥ à¦¾à¦ķ
ĠR ob
ãĥ ¯
Ġpro t
×ľ ×ª
Ġà¹Ģà¸ ŀà¸
ap e
áĥľ áĥĶáĥĳáĥĲ
iá»ĥ u
ev a
à¥ĩà¤ ľ
æľ ª
à§ĭ à¦®
à¥įà¤¯ à¤¾à¤ļ
Î»Îµ Ïħ
Ġp ul
Ġs á»Ń
ed ir
Ķà¸´à¸¡à¸ŀà¸ ±à¸Ļà¸
à¥ĭ à¤ķ
çĶ °
æ¯ Ľ
ect ion
×ĳ ×Ļ
ĠM at
Ĺà¸µà¹Ī à¹Ģà¸
ì ¸
0 1
ä¹ ł
à¯ģà® ´
ì ´
un an
ì ¤ĳ
ĠH ol
ìĨ į
om i
Ġà°ħ à°¨à°¿
en y
h u
Ġà°Ĺ à±ģà°°
Ġer a
Ġí İ
ug ar
çİ ¯
j or
ĠØŃ ÙĤ
à¤¾à¤¨ à¤¾
çĶµ æ¸¸
ĠP ag
Ġm ult
Ġ> >
Ġà° ĵ
Ùģ Ø¶
Ġ ãģ®
Ġl eng
s el
Ġd á»±
Ø§Ø¯ ÙĬ
Ùģ Ø¹
à¤¾à¤ ·
ç»ĵ æŀľ
ĠÙħ Ø§Ùĩ
Ġm ata
ĠÑģ Ð¼
åı¯ èĥ½
ç» ¼åĲĪ
ĠA us
id up
Ð³ ÑĢ
æŀ Ĳ
ÉĻy ÉĻ
¤ Ģ
ĠS ec
Ø®Øª ÙĦÙģ
Ġp et
Ñ į
Ã Ĥ
Ġ ã
t el
ĠØµ Ùģ
Ã³ ÅĤ
Ġæ ·
Ġà®µ à¯Ģ
Ġì ¶
ç» ľ
à¦ ī
ĠÂ ¡Â
Ø¨ ØŃ
Ġk el
ost o
Ġ8 3
áĥĿáĥłáĥ ¢
Ġj en
il t
à±ģà° Ł
Ġà¸ ļà¸Ńà¸¥
s m
ëį ĺ
Ġe ven
Ð½ Ð¾Ð²
Îµ Ïĩ
Ġn og
as y
ĠÐ° Ð²
à®¾à®³ à¯į
ĠÙĪ ØŃ
à¤¾à¤¨ à¥Ģ
ĠÙĥ ÙħØ§
Ġq ar
ap os
Ġme er
c ion
Ġz ak
ĠÙĪØ¬ ÙĪØ¯
9 4
Ġ×Ķ ×Ļ×Ķ
Ġv ez
Ġé ķ
Ġn ar
áĥĶáĥĳ áĥĸáĥĶ
Ġà¤ħà¤ª à¤¨à¥ĩ
ĠãĢĤ âĢĿ
Ġà¤ľ à¥Ģ
è´ Ń
à¯įà®ª à¯įà®ª
ro b
Ġret urn
ãĥ Ģ
Õ ¯
Ġç Ħ
Ġw ell
Ġåħ ¬
Ġkn ow
Ġz m
çĻ º
ÙĤ Ùħ
ĠÙ¾ Ø±
Ġ100 0
áº¿ u
larÄ±n Ä±n
Ġáĥłáĥ £áĥ¡
ĠÚ¯ Ø°
à¯Īà®ķ à®³
Ð³ Ð¾
áº¡ nh
f ore
Ġ à¸£à¸
à¥Ĥ à¤ª
Ġãĥ ķ
ĠáĥĹ áĥĳ
ÉĻ x
Ø±ÙĬ ÙĤ
áĥĿáĥļ áĥĿ
à¦¿à¦ķ à§ĩ
m ÉĻt
Ġtr Æ°á»Ŀng
Ã¶v l
à¯įà® ¸
Æ°á»Ł ng
Ġà¤¦ à¥ĩ
est r
8 5
w n
ķà¸ ´
åĽ½ å®¶
Ø§Ø¹ Øª
Ġmar ket
æĪĳ ä»¬
ÙĨ ÙĬØ©
Ġc Æ¡
Ġáĥ¬ áĥĺáĥľ
Ġ ud
ÉĻs indÉĻ
Ġë¶ Ħ
Ġh Ã¬nh
l ie
æĢ ģ
el op
à°¤ à±įà°¯
à¯Īà®¯ à¯Ī
Ġí ĽĦ
à°¸ à±įà°Ł
áĥĿáĥ ĸ
r ad
ĠIn form
Ġw ant
Ġje j
T E
Ġbr uk
áĥ® áĥĽ
Ġthá» Ŀi
à¸£ à¹īà¸²à¸
Ġæ ĭ
×¨ ×ĺ
ur ch
Îµ Îº
Ġ8 7
y p
ĠF re
iá»ĥ n
Ġå Ĵ
ĠÏĥ Î·
Ġáĥ¥ áĥķáĥĶáĥ§
ĠÑģ ÑĢ
Ġs aya
Ġn Ã¡
Ø§ÙĨ ÙĪÙĨ
Ġ ãģ¾
en o
ou v
Ġb ro
Ġp la
Ġf av
Ġaf ter
à¯Īà® ¨à¯įà®¤
ĠãĤ ³
Ġact iv
Î ĵ
Ġd ivers
ish ed
Ġthá» ±c
Ġå ĵ
ÎĻ Îĳ
ãģª ãģı
Ġr áº¥t
ĠÙĨØ¸ Ø±
Ġà¦ķ à¦¿à¦¨
el li
ĠÙĪ Ø§ØŃ
x y
ĠÎºÎ± Î¸
ãģ§ãģĻ ãģĮ
n t
Ġc os
Ġà® ĵ
Ġbe h
Ġno ch
ud o
ĠáĥĶ áĥĻ
ªà¸ ¹à¸
Ġ äºĮ
Ġk imi
ĠÐ½ Ð¾
ëĬ ¥
ĠD ep
Ġf Ã¸r
Ġim m
à®¿à®¯ à®¾à®ķ
ĠáĥĲáĥł áĥĲ
ĠVide o
à±Ģ à°¯
Ð¾ÑĢ ÑĤ
Õ¡Õ¯ Õ¡Õ¶
Ġà¦ı à¦¸
Ġins an
T C
ą ć
åĦ ¿
Ġáĥ¡ áĥ¬
à¥ĩà¤ Ĺ
åħ «
§à¹ĩà¸ ļ
Î¼ÎŃ Î½Î¿
Ġthá» ©
it et
à¤¾à¤ ¶
v ious
Ġjs ou
ĠT R
ĠØ± ÙĪÛĮ
Ġf oto
Ġà¦¬à¦² à§ĩà¦¨
I O
ØªÙħ Ø§Ø¹
Ø§Ø± Ø¬
×Ľ ×ķ×ľ
Ġà¤® à¥ģà¤
«à¸Ļ à¹īà¸²à¸
Ġà®µ à®¿à®Ł
«à¸ ¥à¸²à¸
à±ĩà° ®
ĠgÃ¶ z
ac z
á»© ng
Ġu w
áĥ¡ áĥĲáĥ®
Ġv en
Ġop en
Ĭ à¸µà¸
Ġvoc Ãª
é» Ħ
Ð°Ð¹ ÑĤ
Ã¸ y
p art
âĢ¦âĢ¦ âĢ¦âĢ¦
Ġå¿ «
æĬ ¤
wit ter
Ø§Ø±ÙĬ Ø®
ÙĬ Ø¨
ĠD ire
ä¹ ī
à¤¾à¤° à¤¾
ĠÙģÛĮ ÙĦÙħ
ri os
ĠØ§ÙĦØ¹ Ø§Ùħ
Ġêµ Ĳ
Ġd id
áĥĲáĥ® áĥĶáĥĳ
ĠÑģ Ð°Ð¼
Ñĭ Ð¼
áĥ¡ áĥ¢
áĥª áĥĲ
à¤¿à¤ Ł
ĠáĥĲáĥĵáĥĲáĥĽ áĥĺáĥĲáĥľ
ĠO ne
éĤĢ è¯·
Ġkar ena
Ġf ol
×ĵ ×Ķ
áĥĲáĥļáĥĺ áĥĲáĥľ
Ġet ter
ĠçľŁ äºº
Ġe ks
Ġà¦ķà¦° à§ĩà¦¨
Ġb ay
Ġà¦¦ à§ģ
Ġë ĺ
Ġch ar
um e
I B
ģà¸ ¡à¸
Øª ÙĦ
ëĵ¤ ìĿ´
r or
´à¸ ĩà¸
Ġn ett
áĥĲáĥłáĥĹ áĥļ
×Ļ× ŀ×
ĠØ¢ Ø®Ø±
è¨ Ī
Î² Î±
Ġword t
Ġà®ī à®Ł
Ġz ÅĤ
ĠìŀĪ ìĬµëĭĪëĭ¤
Ġl ub
Ġd ownload
g t
ãĤĤ ãģ®
ĠØ¹ ÙĨØ¯
æĻ ¯
ç» Ń
ĠØª Ø¯
ĠØ¨ Ø§Ø±
is c
ĠN et
o ft
ĠÕ «
à°¾à° ¹
Ïĥ Î¯Î±
Ġag æĹĹèĪ°åİħ
ta in
ìŀħ ëĭĪëĭ¤
k il
Ġ×ŀ ×Ļ
Ð´ ÐµÐ»
Ġc in
ĠM ot
ãĤĮ ãģ¦
Ġan al
à°¯ à±įà°¯
ev o
Ø§ÙĦ ÙĬØ©
è «
×¤ ×©×¨
Ġ ä¸ĭ
Ġters ebut
Ġà¦¸à¦® à§Ł
ĠÐ± ÑĥÐ´
Ġs Äħ
ĠÚ© ÙĦ
Ġth Ã´ng
ÏĦ ÎŃÏĤ
ĠC ons
k ing
« à¹ĩ
aÄŁ Ä±
ĠØµ ÙĨ
iv es
ÃŃ d
Ġmem il
íĻĶ ìĿ´íĬ¸
i Ã§
Ġh ome
ĠØ®Ø± ÛĮØ¯
ãĥ Ŀ
íķľ ëĭ¤
ir k
Ġà¹Ģà¸ ¡à¸
Ĺà¸ ±à¹īà¸ĩà¸
ÛĮÙĨ Ùĩ
p u
Ġu 00
ãĤ º
Ġqu esto
Ã¼ ks
e f
Ħà¸£à¸ ·à¹Īà¸Ńà¸ĩà¸
áĥ®áĥĿáĥķ áĥł
Ø² Ùħ
on te
c ze
ĠØ¹ÙĦ ÙĬÙĩ
íĶĦ íĻĶìĿ´íĬ¸
ãĥ ¢
æĬ Ĭ
Ĺ ä¸ĩ
áĥļ áĥĺ
ìĻ ¸
ĠInter n
ĠÐ» Ñİ
çŃ ĸ
Î¬ Ïģ
×¡ ×§
Ġf oll
×ĸ ×Ķ
Õ¥ Õ¶
Ġà¦° à¦¾à¦ľ
Ø° ÙĦÙĥ
ÏģÎ¯ Î¿Ïħ
ind er
à¦¿à¦ ·
zen ia
Ġà°µ à±Ī
at ure
Ġp age
ĠÎ¼Îµ ÏĦÎ±
à§ĩà¦Ľ à¦¿à¦²
áĥ£áĥł áĥĲáĥĵ
æĸ° éĹ»
ĠkeÃ§ ir
à°ķ à±įà°¤
5 6
ĠÏĥ ÏĦ
à¹ Ĭà¸
Ġtim bang
ĠëĲ ĺ
un akan
em y
à¯ĭ à®¤à¯ģ
èĻ İ
ĠS im
Ġà®ķ à®¾à®²
w s
9 1
éĻ Ĩ
Î½ Ïī
Ġà¦ªà§įà¦° à¦ķ
iv i
å®ī åħ¨
éĽ »
Ġà¤¸ à¥Ģ
ĠE sc
à±Ĩ à°Ł
Ð» Ð¾
Ø§ÛĮ ÙĦ
¤ à¸
b al
ĠÂ £Â¬
åł ±
az Ä±r
áĥ£áĥ ĳ
×ķ×ł ×Ļ
ļ à¸µà¸
Ġs udah
ĠÑģÐ² Ð¾
7 2
Ġse v
Ġen g
ent er
à¹Īà¸² à¸Ļ
Ġk Ã¶n
Ġl ast
ç´ ł
ĠØ§ÙĪ ÙĦ
ãģ ¹
ĠÑģ Ðº
å¤ į
Ħà¸ ¡
Ġà¤® à¤¿à¤²
z d
Ġma x
Ġà¹Ĥà¸ Ľà¸£
áĥĺáĥ ®
b ul
æĸ Ń
è± ¡
Ġan im
à¥ģ à¤¤
è¯ Ħ
re v
I E
ĠãĤ «
ĠÎ± Î³
à¹Īà¸²à¸ ĩ
Ñ Ĭ
Ġà¤ª à¥Ĥ
or ies
ĠL u
ĠÙģ Ø¹
r um
ĠGrat is
st an
r Ã¡
il o
íĺ ķ
ĠgÃ¶r ÉĻ
à§įà¦¯ à¦¾à¦²
×ŀ× ¢
à¤¾à¤° à¥ĩ
è® ©
Ġg ibi
Ġt ay
ĠáĥĽ áĥĲáĥľ
ĠÄĳ iá»ģu
ĠáĥĵáĥĲáĥ Ļ
ĠØ§ÙĦ Ø¢
ow i
Ġn ur
Ġel ekt
ĠØ¹ Ø¨Ø¯
ar n
ĠÑĥ Ñĩ
ass e
à· Ĵ
ìł Ĳ
ë° ľ
Ġk á»
ĠL as
Ġë°Ķ ì¹´ëĿ¼
ĠI ng
å¸Ĥ åľº
é» ĳ
ÏģÎ¿ Ïį
r om
Ġà¦Ĩ à¦¬
D A
Ġáĥ¨áĥĶáĥ¡ áĥĲáĥ®áĥĶáĥĳ
in en
Ġà®ļ à®®
Ñĭ ÑĤ
Ã¶vl ÉĻt
å®ī åįĵ
á»ķ i
Ġà¹Ģà¸ ¥
à¤¾à¤² à¥Ģ
____ ____
Ġ×ľ ×Ļ
Ġsu c
ÙĬÙĨ Ø©
ĠáĥĲáĥłáĥ ¡
ë ¸
ĠÐ¾ Ð½
M S
Ġè ī
Ø§Ùģ Øª
×Ļ×ľ ×Ķ
nÃŃ ch
ies z
Ñĥ Ñī
Ġb anyak
à¤¾à¤ Ł
ĠN ie
ÏģÎ± Î³
Î Ķ
ĠÂ ¼
ì ½Ķ
Ġe u
Ġ200 4
Ġà®¨ à®¿à®±
ĠA P
Ø§Ø¯ Ø±
Ġà®İ à®´
Ġãģ Ĥ
a use
ĠãĤ µ
ĠØ§ÙĦ Ùī
y ang
à¹Ģ à¸Ļà¸
ĠC am
Ú© Ø§ÙĨ
à§ĩà¦² à¦¾
Ġsa id
Ġg ame
åĪ Ŀ
ĠØ§ÙĦØ£ Ø³
ĠÎ ¡
ìĹĲ ê²Į
à®¸ à¯į
ØŃ ÙĬ
åľ¨çº¿ è§Ĥçľĭ
ÏĢ ÏīÏĤ
Ġse Ã§
áĥĵ áĥĺ
Ĥà¸¶ à¹īà¸Ļ
ĠH al
Ġdet te
Ø§ÙĦ Ø§Øª
à¥ĭ à¤Ł
Î¸ Î®
j es
Ġdo ÄŁ
Łà¸ ¸à¸ķà¸
Ġà¤¤ à¤ķ
Ġà§ «
ĠáĥĽáĥĹ áĥĲáĥķ
à¦¤ à§įà¦¤
ĠM ic
Ġà§ ¦
ĩà¸ ´à¸Ļ
ì ¶
à¤¦ à¥Ģ
×ľ ×ķ×ª
çĬ ¶
æĬĢ æľ¯
à°¿à° ľ
ĠØ¹ Ø§Ùħ
à¸Ńà¸¢à¸¹ à¹Ī
b u
Ø§ÙĪ ÙĦ
Î³ÏģÎ± ÏĨ
ĠØ¨ Ø³ÛĮ
O G
Ġr az
ĠI k
ÙĨ Ø¨
ĠE N
éķ ·
ìĦ ¤
ÏĦÎ¹Îº ÎŃÏĤ
Ġà¦¬à¦¿à¦¶ à§įà¦¬
ĠØµÙĪØ± Øª
à¤¾à¤² à¥ĩ
Ġáĥ« áĥĲáĥļáĥĺáĥĲáĥľ
ĠB as
ÅĻ ed
Ħ à¸Ļ
Ã ı
Ġor d
7 6
ĠV is
ĠP an
å¹ ¶
à°¿à° Ĺà°¾
Ġáĥĺáĥľ áĥ¤
Ġ×ŀ× ¤
Ġp le
Ġà¦ķ à¦¥
ĠÙĪ Ø¥
ĠApr il
à¤ķ à¥įà¤¤
Īà¸ °à¹Ģà¸
Ð¾ÑĤ ÑĢ
Ġë ¦¬
ĠÐ´ Ð¾
Ġm end
Ð¾Ñģ Ñģ
ĠÙĦ ÙĬ
Ġa ch
æ¬ ¢
Ġæĺ¨ å¤©
Ġn ab
C lass
ï¼ Ī
Ġå¹ ¸è¿Ĳ
b ir
Ĵ áŀ
à°¾à°² à°¿
Ġ×ľ×Ķ ×ª
ÙĦ Ø§ÙĤ
Ġ×ĳ ×Ĵ
· à¹īà¸Ńà¸
Î² Î¬
ĠãģĿ ãģ®
Ġth ro
ë£ Į
Ð¾ÑģÑĤ Ð°Ð²
ĠÙĬ ÙħÙĥÙĨ
ĠØ® Ø·
Ġ×ĳ ×¤
Ġb ol
à®¤ à®¿
ĠØª Ø¨
0 5
Ġà¦ķ à¦¾à¦ľ
Ġye ar
Ġm am
els er
a it
ìĹ Īëĭ¤
Ġ×Ĳ ×ĳ×ľ
Ġtit le
ļ à°¿
Ġëħ ¸
Ġz ur
Ġk it
å¾ ®
Ġwid th
à±ĩà°¦ à±ģ
Ġà¤ķ à¤¹à¤¾
Ġein er
ĠáĥĲáĥ ļ
Ġs Ã³
Ġë Ĩ
Ġáĥ¨ áĥĶáĥĵ
Ø§ÙĦ Ø©
Î¿ Ïģ
m al
G B
Ð°Ð½ Ð¸Ðµ
à°³ à±įà°²
ĠÏĥ Î±ÏĤ
ì µľ
Ġà®ª à®°
Ñģ Ð»Ð¸
à¥įà¤¯ à¤¾à¤¤
Ġc asa
à¥ģ à¤ª
Ġáĥ§áĥķáĥĶáĥļ áĥĲ
Ġm eg
à°¿à°¤ à±įà°°
Ġmenj adi
Ġë° °
Ġk ons
Ġà¹ģà¸ ķà¹Īà¸
ĠØ¨ ÙĪ
Ġç ´
Î¼Î± ÏĦÎ¿ÏĤ
à° «
Ġà°Ĩ à°¯
ĠS l
Ġd Ã¼n
Ġtot al
áĥĿáĥļ áĥĿáĥĵ
Ġà®µà¯ĩà®£à¯įà®Ł à¯ģà®®à¯į
r ag
Ð°Ð½ Ð¾Ð²
ĠÙĨ Ùĩ
ĠL ib
ĠØ§ÙĦØ³ ÙĬ
Ķ à¹ĩà¸
Ġprinci p
Ġw at
ķ à¹Į
ĠÙĦÙĦ Ùħ
ĠØŃ Ùħ
Ġà° §
Ġpag gam
×Ĺ ×§
Ð° ÑĨÐ¸Ð¸
Ġf irm
Ġqu a
ĠíĮ Į
Ġà¤¬ à¤¾à¤¦
Ġdah il
Ġnel la
Ġ×ŀ× Ĵ
ĠØ£ Ø³
ĠÎº Ïħ
Ð°Ð» Ð°
Ġìł Ģ
Ġ×Ķ× ĺ
à¤¾à¤ ĵ
Ïħ Î½Î±
il en
gro und
l ÉĻn
Ġà®¤ à®©
à¯ģà® ªà¯į
al ing
ãĤĬ ãģ¾ãģĻ
st a
åģ ĩ
Ķà¸¥ à¸Ńà¸ĩ
à¤¾à¤Ĥ à¤Ĺ
in ya
Ġs r
à¦¾à¦² à§ĩ
el o
à±Ģ à°²
Ïĥ ÎºÎµ
as on
à¤¾à¤ §
0 2
áĥĿáĥĳ áĥĲáĥ¡
Ġà§ ª
ĠdÃ© c
± à¸Ļà¹Ģà¸
ov o
Ġp ert
Ġ] .
æŀ Ħ
Ġg ÉĻl
ìĭ ¬
Ġë¬ ´
ĠØ¨ ÙĬ
Ġáĥ¡áĥĲáĥ¥ áĥĽ
ķ àµįà´
Ġgr ande
Ġtr ue
ĠU N
ï¼ ĳ
í ĳľ
èģ ĺ
Ġà¦ı à¦®
ĠíĶ Ħ
Ðº ÑĤ
ĠA C
ĠÚ¯ Ø±Ùģ
ÑģÐº Ð¸Ð¹
å¯ ¾
am en
ĠC ity
¡ à°¿
d ate
ĠÙĬ Øª
ªà¸ Ķà¸
Ġpres ent
à¹ģà¸ ¥à¸°
ç» ´
ĠC ap
aj Äħ
ĠM ich
áĥĶáĥķ áĥĶ
ĠØ³ Øª
rat eg
Ġtemp o
èĭ ¹æŀľ
Ġe f
à®° à¯ģà®®à¯į
ìłģ ìĿ¸
ìĶ ¨
à¤Ĥ à¤¬
åĩ ł
ek en
à¹Ģà¸ ª
ª à¹Īà¸§
Ġmo Å¼
ĠáĥĽ áĥĲáĥĺ
ĠáĥĴ áĥĲáĥł
Ġkh Ã¡ch
ow ie
Ġë ¡
ĠI P
×ķ×¨ ×Ļ×Ŀ
d ing
Ġçĭ Ĺä¸ĩ
Ġà¸ ĸ
Ġty m
ber g
Ħ à¸£à¸±à¸ļ
Ġ ä¼
à¤° à¥ĩ
Ġcol le
Ã Ī
g al
Ġt v
Ã§ Ä±
à±Ģ à°ª
Ø´ ÙĪØ¯
Ġem p
à® ŀà¯įà®ļ
Ĭà¸± à¹Īà¸Ļ
Ġéĩį åºĨ
Ġs atu
Ġem pres
m u
è ĸ
à®ķà¯įà®ķ à¯ģ
Ġpre z
â ĺ
ĠØº ÙĬØ±
æ ¤
un n
Ġs ed
å¤§ åħ¨
it el
Ġl ok
Ġv ÃŃ
pres ent
ĠÏĥ Ïĩ
áĥļ áĥĶáĥĳáĥĺáĥ¡
´à¸ ķà¸
ĠÛ° Û
ĠæĿ ¥
Ġìļ° ë¦¬
ĠÎµÏĢ Î¯
Ġx e
áĥĲáĥĵáĥĴ áĥĶáĥľ
ÙĪ Ø·
Ġk le
ĠÙĪ Ø²
à¤Ĥ à¤ļ
Ġáĥĵ áĥĲáĥľ
×ľ ×ĳ
ĠCh rist
Ġever y
Ġëĺ Ĳ
Ġ": {"
li o
æıĲ ä¾Ľ
Ġà® ¸
Ġà¤² à¥ĭà¤Ĺ
à®¿à®ķ à¯į
æľīéĻĲ åħ¬åı¸
ÄĻ p
ab or
áº¡ ng
re a
ÏĦ Ïī
m ÉĻk
íķ© ëĭĪëĭ¤
Ð¾Ð»ÑĮ ÑĪ
è² ¸
ĠInter net
Ġáĥ¡ áĥĲáĥĵ
á»į n
áĥĿáĥľ áĥĺ
Ġãģĵ ãģ®
ì¶Ķ ì²ľ
ļà¸Ńà¸ ¥à¸
Ðº Ðµ
à¦¿à¦ ļ
å¤ ±
à§ģà¦° à§ģ
ĠØ§ÙĦÙħ Ø³Øª
à° ¥
à¸£à¸²à¸Ħ à¸²à¸
is me
iy i
ĠNe xt
ac ÃŃ
Ġáĥ¡áĥ®áĥķ áĥĲ
à®¾à®± à¯įà®±
im m
à¸Ļà¸± à¹īà¸Ļ
ÉĻc ÉĻk
Ġvi Ãªn
Ġein em
à¸Ńà¸¢à¹Īà¸²à¸ ĩà¸
ĠD ownload
ĠP S
Ġì Ī
du ct
ĠÙħ Ø®
Ġà¦¤ à¦¾à¦¦à§ĩà¦°
Ġs iy
Ġh ot
à¹Ģ à¸£à¸²à¸
ĠM Ã¼
uy á»ĩn
áĥĺáĥª áĥĺ
es h
00 00
ĠG l
Ġp ast
w an
áĥĺáĥĻ áĥ£áĥłáĥĺ
m ar
ĠM ont
åĽ ´
Ġà¦ķ à¦¾à¦
á» £
æĭ ¿
ç½ĳ ä¸Ĭ
ust om
id ente
Ġl ik
Ġpag pap
Ġor ang
ÑģÑĤÐ² ÐµÐ½
Î´ Î®
ĠJ o
ĠÃ ¢
ĠT ra
ĠsÃ¶ z
y an
à¦¾à¦° à¦¾
Ä±y or
Ġï¼ļ âĢľ
à®¾à®¤ à¯ģ
åĢ ĭ
ĠãĢĤ ãĢĤ
ï ¾
Ġf ig
ĠÙ¾ Ø³
g ar
Ġà®ļà¯Ĭ à®²à¯įà®²
Ġg es
Ġc le
Ġserv ice
Ġ×Ĳ ×ĳ
Ġma il
Ø§Ø² Ùħ
ĠÎ¼Îµ Î³
Ġw r
Ġcom mun
Ġà®ħà®¤ à®¿à®ķ
ĠÙħ Ø¨
áĥĶáĥ¡ áĥ¢
ĠE UR
Ġà¦¨ à¦¾à¦®
åĪ Ļ
ãĥ Ļ
Ã¼t Ã¼n
Ġå¤© å¤©
Ġ365 bet
ĠØª Ø£
Ġg ra
Ġ×¢ ×ĵ
us i
Ľà¸£à¸°à¹Ģà¸ Ĺà¸
Ġê³ Ħ
» ¤
ç« ł
áĥ§ áĥĿáĥ¤
ç Ĩ
ĠF e
ĠáĥĲáĥĵ áĥĴ
çĶµ åŃĲ
éĤĢè¯· çłģ
é Ń
à®¾à®¯ à¯į
à°· à±įà°Ł
Ġinf o
Ġà¤µ à¤°à¥įà¤
Ġæ Ħ
Ġà°¤ à±Ģà°¸
og o
ĠåĽ ł
um at
«à¸£à¸ ·à¸Ńà¸
å¤§ åŃ¦
Ġæ Į
Ġseb agai
Ġs ig
áŁ Ĵáŀ
çŁ ³
A A
ĠA D
Ġà°ª à°¾à°°
Î¹Îº ÎŃÏĤ
ĠáĥĹáĥĳ áĥĺáĥļáĥĺáĥ¡
Ġh av
ÙĦÙĬ Ùħ
ģà¸ ³à¸
Ġ" )
id i
ï¼ ¿
Ġag å¹³åı°
Ġl ay
ãģĹ ãģ¾ãģĻ
ĠÙĤ Ø§ÙĦ
ÙĪ ÙĪ
Ġ×ĳ ×ĳ
ä» ½
Ġà¹Ģà¸ Ķà¸´à¸¡à¸ŀà¸±à¸Ļà¸
ell es
im in
Ġáĥ¡áĥĲáĥ £áĥ
à¹ĥà¸Ĭ à¹ī
ler in
Ġà¦¬à¦¿à¦ Ń
as Ä±nÄ±n
ĠB est
Ġaut o
E K
à¦Ļà§įà¦Ĺ à§ĩ
ĠS oc
Ġseg u
èį ī
à¹Īà¸²à¸ ¢à¸
Ġà®Ĩ à®ķ
omb re
à°°à±įà° µ
ĠÃ ·
ĠA R
à¦° à§ĩà¦°
Î½Î¿ Î¼
Ġin g
Ġl Ã½
Ġ$(" #
Ġag è§Ĩè®¯
èµ ¢
ÏģÎ¹ Î½
Ġr en
Īà¸£à¸´à¸ ĩ
äºº æ°ĳ
ÐµÐ» Ñı
Ġev ent
il ik
en ia
ĠM i
ar be
Ø¬ ÙĦ
ĠÐ¾ Ð¿
×ķ×ĳ ×Ķ
ad Ä±r
I Z
Ġpel o
à¦§ à¦¾à¦¨
ĠØ¹ Ø¯Ø¯
at her
íĥ Ŀ
Ġsp ot
Ġë§ İ
ĠØ² ÙħØ§ÙĨ
ĠktÃ³ re
Ùĥ Ø³
ĠÙĬ ÙĤ
ip s
ĠØ¨Ø¹ Ø¶
Ġëª¨ íħĶ
ac aq
M T
ĠæŃ £
Ġl itt
Ïİ ÏģÎ±
Ġà°ī à°Ĥà°¡
Ð Ĵ
Î¯ Î¿
od o
Ä± b
is ke
Ġê³ ¼
ĠãĢ İ
à®¿à®¯ à¯ģà®®à¯į
ĠØ¯ Ø§Ø®
é ¥
Ġ×ľ ×¦
Ġb ÄĻd
Ġh om
à¦¾à¦ £
c ak
Ġc Ã¹ng
ĠL eg
ativ a
áĥĴ áĥĲáĥľ
Ġse e
à¸Ńà¸¢à¹Īà¸²à¸ ĩ
Ġc áº¥p
M A
è© ±
0 7
Ġà®ķ à®Łà¯įà®Ł
äº§ åĵģ
ĠÙĦ Øª
h ol
ãģ¾ ãģ§
å± ĭ
à®¤ à¯Ī
ĠSep t
Ð½ ÑĥÑİ
à¦ª à§ģà¦°
ÏĨ Î±
Ġk Ã¶
c ul
ĠáĥĻ áĥķ
ou w
ì ¶ľ
ç»ı æµİ
Ġ< /
ä¸ ¾
ian a
Ġt wo
ãĥ© ãĤ¤
ec n
ĠK am
Ġh un
om p
Ġ×ŀ×Ĺ ×Ļ×¨
Ġv id
Ġ äºĶ
è ŀį
l ama
Ġab er
ãģĹ ãĤĩ
Ġå ¨
à¯įà® ¨
Ġf ull
ĠØª Øº
à¦¾à¦° à§ĩà¦°
à§Ģ à¦¨
ih an
ĠÏĥ Ïį
ĠnhÆ° ng
áĢ¬ áĢ
à°ªà±įà°ª à±ģà°¡à±ģ
Ġc c
Ġs en
Ġinde x
ą Ĉ
Ġvá» ¥
æĻ ®
³ à¸Ļà¸
st at
s b
à¦°à§įà¦ ¥
ze j
lar da
áĥĶáĥĳ áĥĶáĥļ
Ð¾Ð¼ Ñĥ
à°¿à°¤ à±ĩ
ľà¸¹ à¹ī
ec z
×ŀ ×ķ×ª
ĠëĮĢ íķľ
Ġ×¢ ×¦
à¹ģ à¸Ļà¸
à§ĭ à¦ķ
¡à¸²à¸ ģ
ĠÙħÙĪ Ø¶ÙĪØ¹
Ġà°ħ à°§
à®µ à¯ģ
ĠØ§ÙĦØ¬ Ùħ
Å¯j Äį
ĠIn n
szy st
äº Ĵ
Ġà¸ ¢à¸
Ġ×ľ ×Ĵ
ãģĵãģ¨ ãģĮ
nost i
re f
Ġg an
ÛĮ Ø±ÛĮ
ÐµÐ» Ð¸
åĭ Ļ
Ġt ing
Īà¸±à¸ Ķà¸
Ð¾Ð»ÑĮ Ð·
à¦¿à§Ł à¦¾
ĠC amp
Ġe quip
and er
ĠT ak
áĥ£áĥ ¥
Ø¦ Ø©
Ġà®ī à®£
ÏĦÎ¿ Ïį
à¥ĩà¤ ļ
íķĺ ìĹ¬
ĠØ³ Ùĩ
à¦¸ à¦²
Ġta o
Ġk ep
y b
ìĿ´ ìĬ¤
ĠG ar
×Ĳ ×Ļ
Ġj a
à°Ł à°¿
àµį âĢį
å¤ĩ çĶ¨
ç¤¾ ä¼ļ
à¯ģà®ķà¯įà®ķ à¯ģà®®à¯į
Ġs empre
ic ial
ag ram
ĠØ§ÙĦØ¹ Ø§ÙĦÙħ
ĠB a
Ġv Ã¦re
ĠØ³ Ø§ÛĮØª
olog y
Ġà¸ ļ
Ġpl ace
Ġà®¨ à®¾à®©à¯į
Ġ. -
ang er
Ġs he
Ġfin al
Î¹Îº ÏİÎ½
à°¾à° ¶
Ġáĥ¡áĥĲáĥ ¨
Ġìķ Į
ë¥ ¸
Ġind ust
Ġun o
Ġà°ªà±įà°° à°Ń
n al
çĻ¾ å®¶ä¹Ĳ
à¦¤ à§įà¦¯
Ġpag b
Ġst ar
Ġs Ã£o
Ġd ro
à±įà° ·
Ġ6 2
Ġph áº©m
ĠD ev
Ġin te
ĠØ¨ ÛĮÙĨ
à°¯ à°Ĥ
Ġíĺ¸ íħĶ
Ġm Ãª
Ġ":" ","
Õ¡ Öģ
ĠÕ ¿
Ġan h
ĠÃ Ķ
ÙĬ ÙĪ
ĠP ok
± ¼
ĠH indi
çĶ ³
Ġä» İ
Ø§ÙĨ ÙĬØ©
Ġæ ĥ
Ġ8 00
å¤© å¤©
×¤ ×§
Ġà®µà®¾à® ´
en ie
ĠNov ember
Ć ï¼Į
li p
0 4
ĠÂ ¬
ĠP res
ĠÙĪ Ùĥ
Ġáĥ¡ áĥŀ
çī Ľ
ÑĢ Ð°Ð·
é¦ĸ é¡µ
Ġæ ı
ĠÐ²Ñģ Ðµ
0 3
iel d
ĠéĢ ļ
Ġíı ī
Ġà¤¸ à¥įà¤¥
áĥĺáĥľ áĥĺ
Ġ= =
Ġâ ŀ
ĠM or
ç¡ ®
à§Ģ à¦¬
Ġìŀ ħ
Ġess ere
Ġìĺ¤ íĶĦíĻĶìĿ´íĬ¸
ç ¹
áĥĲáĥ «áĥļ
Ø§Ø± Ø§ÙĨ
Ġê° Ļ
ĠÐ· Ð°Ðº
Ġde fin
± ħ
æĸ¹ æ³ķ
à°¿à°¯ à±ģ
ĠØ§ Ú¯Ø±
Ġ' );
à±įà° ¬
sk Ã©
áº¥ u
Ãº t
åĢ Ł
Ñĥ Ð½
ak u
éĵ ¶
çĹ ħ
Ġid ent
P R
Ġà¤ Ĳ
ĠV ers
ag ement
Ġà¤īà¤¨ à¥įà¤¹
r ent
ĠÎŁ Î¹
Ġà¤¦ à¤¿à¤²
à§ģà¦ ĩ
o und
Ġtr Ã¬nh
ÏģÎ¹ Î¿
Ïĩ Î±
ì ¢
0 6
ãģ¨ ãģĹãģ¦
am es
ÐµÑģ Ñģ
ÑģÐº Ð¾Ð¹
ĠÚ©Ø±Ø¯ Ùĩ
Ġs Ã¼r
á» «
k ow
Ã¼ c
Ġáĥ¡áĥĲáĥ ĸ
Ġde f
Ġ} );
Ħà¸£à¸Ķà¸´à¸ ķ
AN D
Ġkull an
Ġc our
Ķ à¸²à¸
ĠS em
ĠÙĤ Ø·
d ar
×¨×Ĳ ×©
oc a
Ġà¤¨ à¤¿
Ġ6 3
ĠÄĳ ang
ĠA f
Ġwe ek
Ġde b
Ġà¦Ĩà¦® à¦¿
Ø± ÙĤ
Ġ ig
à¸£à¸£à¸ ¡à¸
ĠâĢİ #
Ã¤ n
Ġà¤ķ à¥ģà¤
ģà¸ §à¹Īà¸²
ĠØ§ÙĦÙħ Øµ
Ġà¦¸ à¦¹
ĸà¸¶à¸ ĩà¸
ier a
Ġk ra
ķà¸²à¸ ¡à¸
Ð¾ Ñı
us o
à®¿à®² à¯ģà®®à¯į
à§įà¦ Ľ
r il
us a
ĠØ£ Ø¨
es z
Ġé Ķ
Ġ8 4
×ĵ ×Ŀ
à¶ ±
Ġaut or
ĸ à±įà°¯
Ġn ed
7 4
ĠK al
os i
ach t
ĠnÃ³ i
art o
ĠA T
ĠÙħ ÙĦ
ĠH ow
Ġm uy
Ġáĥ¡áĥĲáĥ Ķ
Ġo cc
Ġà¦®à¦§à§įà¦¯ à§ĩ
Ġr est
iss ion
Ġà¤¬ à¤¹
×ľ ×ĺ
á»ĵ i
uj eres
Ġà¤ħà¤§ à¤¿à¤ķ
å° ¼
Ġl Ãªn
Ġol d
v ir
Ġk im
il ang
Ġê° Ĳ
ĠØ± ÛĮ
×Ĳ ×Ļ×Ŀ
he id
ĠæĪĳ ä»¬
ĠÙĥ Ùĩ
c ont
ah l
os o
íĸ Ī
Ġà¤ªà¥įà¤° à¤¤
Ġh ij
v ed
íĭ °
Ġn iya
Ġà¦ķ à¦¿à¦Ľ
à´ °
Ġma i
é Į
à¸£à¸²à¸ ¢à¸
Ġk er
st o
d d
à§ĭ à¦Ł
Ġ emb
iy et
U D
Ġk em
áĥĺáĥłáĥ ĵ
åİ ĭ
èĩ ´
Ġos ob
Ïģ Îº
è¯ »
íķĺ ê²Į
áĥĲáĥķáĥ¨ áĥĺáĥł
ĠØ§ÙĦ Ø§Ø³Øª
Ġb iáº¿t
à°Ĥà° §
ĠT im
Ġà¦¹ à¦²
ÙĪ ÙĨØ¯
ä¾ Ŀ
à§ĩà¦¨ à§įà¦Ł
Ġheb ben
ĠÃ§Ä± x
Ġhab en
Ġch Ãºng
å£ ²
Ġj Ã¡
Ġ×Ĳ ×Ļ×ļ
Ġà¦¦ à¦¿à¦¨
Ġå »
à¹Ĥà¸ ¥à¸
un ci
ķà¹Ī à¸Ńà¸
à®Ł à¯ģ
Ġáĥ £
Î» ÎµÎ¹
Ġ à¹Ħà¸¡à¹Īà¸
áĥĶáĥ ŀ
à¯ģà®³à¯įà®³ à®¤à¯ģ
æĽ ¸
ĠÎ¸ Îµ
ur i
ĠB an
à±ĭ à°¤
à®¤à¯įà®¤ à®¿à®©à¯į
çłĶ ç©¶
è´ £
ĠÃª tre
Ġ. [
0 9
Ġch eck
Ð Ł
ĠÎ´ Îµ
ĠÃ Ń
Ġch at
Ġkh Ã¡c
Ġc ab
ne y
Ġme hr
Ġh Ãłnh
Ġd ik
Î»Î» Î±
Ã³ l
Ġìĺ ¨
Ġë Ŀ¼
Ġap ar
re k
Ġáĥ Ń
ĠM ac
Ġil k
Ġì ¦
Ġà¦¹à§Ł à§ĩ
ĠáĥłáĥĿáĥĴ áĥĿáĥł
Ø± Ø§ØŃ
5 9
Ġ×§ ×¨
æ² ¹
¥à¸ ·à¸Ńà¸
à¹Ĥà¸£à¸ ĩ
à¦ª à§įà¦°
Ġresp ons
Ġãĥ ĸ
ÙĬØ¯ Ø©
ĠS ub
Ø´ Ø¯
ĠF ilm
ĠÃ ½
Ġl Æ°á»£ng
ĠØŃ Ø¶
Ä±m Ä±
Ġìĸ ĳ
Ġr ap
Ùİ ÙĦ
s un
Ġáĥ£áĥ¤ áĥłáĥĿ
ĠáĥĶ áĥ¥
eb a
à¹Ħà¸ §
çĽ ĳ
æĶ¿ åºľ
áĥĶáĥĳ áĥĶáĥľ
Ġber b
ĠáĥĽáĥ® áĥĿáĥļáĥĿáĥĵ
æķĻ èĤ²
l ast
k m
çĶŁ æ´»
Ãº bl
ĠA y
«à¸ ±à¸
ØªØ± ÛĮ
Ã± a
ĠV e
çº ¦
å»º è®¾
ÎĳÎ ¤
ãģĭ ãģ£ãģŁ
Ġ×ĳ ×Ľ
Ġà¦¹ à¦¯à¦¼
ĠØª Ùģ
Îº Î±Î½
Ġm ir
Ġ= >
et y
Ġb ase
ĠÙħÙĨ Øª
Ġm uk
ÎĻ Î£
è¾ ĵ
è¨ ĺ
åį Ĭ
ĠÐ´ Ð²
Ġà°Ń à°¾à°°
à¸²à¸ ģ
à Ń
iz ione
å¿ Ĺ
Ġqu ando
ĠâĢ ª
à¦Ĺ à§įà¦°
ut er
ãĥ¼ãĤ ¸
ĠktÃ³ ry
Ïĥ Î¿ÏħÎ½
à¸Ńà¸²à¸ «
Ġ×Ĺ ×©
Ġt et
Ġel ement
Î´ Î¹Î¿
Ġà¦¬ à¦Ľ
nÃŃ m
ĠÄ° n
ĠÙĬ ØŃ
Ïĥ Î±Î½
ĠP L
áŀ ¶
Ġn ost
ĠP ra
à§įà¦¤ à§ģ
Ġê² °
èī º
Î· ÏĥÎ·
Ġãĥ ¬
ĠØ§ÙĦÙħ Ø¯
Ġcas o
ĠR om
Ġ ÉĻm
åĢ Ļ
ĠØª ÙĦ
Ġa ÄŁ
Ġkad ar
Ġp ub
Ġsp r
Î¸ ÎŃ
ĠK ung
åĨ ł
à¯Ĩ à®¯
è¡¨ ç¤º
×Ĳ ×¨
Ø§Ø¦ ÙĦ
áĥĶáĥĳ áĥĿáĥĵáĥĲ
Ø± Øª
Ġs end
ĠSt r
å± ŀ
à¹ģà¸ļà¸ ļ
Ġ: -
Ġà®® à®ķà¯įà®ķ
Ġch a
¢ à¹Į
Ġk ey
Ġ200 3
ĠmÃ¡ y
i u
N G
èŃ ¦
ru ct
Ġé ĵ
k ap
Ġab s
à±ģà°¤ à±ģà°¨à±įà°¨
Ġ ub
ĠÏĢ Î±Î¹
ìħ ĺ
er y
Ġk w
Ġ8 2
Ð¸ Ð³
Ġáĥĵáĥĺáĥĵ áĥĺ
ĠP ark
Î¿Î½ ÏĦÎ±Î¹
Ġdis pon
à±ĩà° ¤
Ġy ak
Ġà°ķ à°¾à°¨
à°° à±ģ
Ġà°®à°° à°¿à°¯à±ģ
Ã¼ b
i ent
Ġè ħ
è¾ ¹
à¤¾à¤ ģ
ĠÎľ Î±
çĽ ĺ
Ġ, .
ĠÂ ¶
à®° à¯Ī
ĠØ§ÙĦÙħ Ø´
Å ¥
Ġb ene
Ġâ Ī
Ø¯Ùħ Ø§Øª
à¤ķ à¥ĭ
ÄŁ u
ëĤ ľ
k Å¯
ĠØ§Ø· ÙĦ
ï¼ ģ
Ú© Ø±
å¿ µ
à¸Ńà¸ ģà¸
à¦¸ à§įà¦¯
Î© ÎĿ
Ã ¯
ĠáĥĻáĥĿáĥĽ áĥŀ
ĠF ebru
uj Äħ
°à¹Ģà¸ ļà¸µà¸
×Ļ×§ ×Ķ
7 3
é ±¼
Ġà¸Ĺà¸ Ķà¸¥à¸Ńà¸ĩ
áĥł áĥĲ
ĀĀĀĀĀĀĀĀ ĀĀĀĀĀĀĀĀ
Ø²Ø§Ø± Ø´
Ġth ese
ĠT ag
ĠSup er
ÐµÑĢ Ð¶
ãģ ³
éĻ ¤
æ¸ ©
ĠÙĪ ÙħÙĨ
×ŀ× ĵ
ĠÙĦ Ø¨
Ġn Ãło
áĢ ¯
×ķ×ľ ×Ķ
Ġc all
à¦¾à¦® à§Ģ
Ġ7 2
le ÅŁ
Ġf Ã¥
à¤¸ à¥įà¤¥
ĠD I
Ġc ara
Ġáĥ¡áĥĲáĥ ĺ
red it
C I
à¹Ģà¸ ķ
íķ ¨
Ġh od
Ġ ult
Ġà®ª à¯ĩ
Ø® ÙĪ
à±ģà°ķ à±ģà°Ĥà°Ł
ev en
Ġr in
íķĺ ê¸°
áº¯ n
ĠÎł ÏģÎ¿
Ġdu e
ĠØªÙĪÙĦ ÛĮØ¯
Ġr estaur
ol u
ĠÙħØ« ÙĦ
¥à¸ ´à¸
ãģĹ ãģ¾
Ġh ere
à¤¾à¤ł à¥Ģ
Ø§Ø³ Ø¨
ëħ Ģ
Ġf er
Ġà®¤ à®¾à®©à¯į
Ġw ay
åĵ į
al er
ĠÙĪ ÙĨ
Ġè¦ ģ
ÑĨÐ¸ Ð¾Ð½
à¸£ à¹Įà¸
Ø« ÙĬØ±
¸ áĢ
Ġå Ł
Ġk 8
áĥ£ áĥĲáĥļ
Ġà®ħ à®´
Ø§ÙĪ Ø±
ë° ĺ
Ġæīĭ æľº
ê¹Į ì§Ģ
Ïĩ ÎµÎ¹
Ħ à¹Īà¸
Ùģ ØªÙĩ
ĠF orm
åº ·
Ġà¤¸ à¤¬
ĠÐ¿ Ð¾Ðº
æĺ ¥
Ġcas ino
ĠP as
Ġà¦¶ à¦¿à¦ķà§įà¦·
áº£ m
åı Ī
Ġpartic ip
k ov
Ġdes de
å¿« ä¹Ĳ
ãģ »
à®¿à® ³
Ġcont r
Ġm obil
ĠÚ©ÙĨ ÙĨØ¯
ªà¸ ±à¸
á»ĩ nh
ĠØŃ ÙĬØ«
Ġg eh
åĨ µ
ĠB re
Ġà¤° à¤¹à¥ĩ
Ġå¤§åıĳ å½©ç¥ŀ
Ġà¸ ¥
ĠÙ¾ Ø±ÙĪ
ìĪ ł
Ðº Ð¾Ð²
é«ĺ æ¸ħ
à®¿à®¯ à¯Ī
ĠÙħÙĪ ÙĤ
ķà¸±à¸ §à¸
ac ion
Ġbes te
Ġ à¸Ń
ĠØªÙĩ Ø±Ø§ÙĨ
Ġà¦ķà¦° à§įà¦®
è¯ Ń
ĠØ¬ Ø§Ùħ
¸à¸ Ķà¸
Ġà¤ ł
ĠB ut
à¥įà¤ ¡
g est
à±įà°¯ à°Ĥ
Ð» Ðµ
à¯ģà®ķ à®¿à®±
à°¾à°Ĥà° ¤
áĥĿáĥľ áĥĺáĥ¡
Ġ×Ļ ×Ľ×ķ×ľ
Ġb ig
ï¼ ļ
éĩ İ
Ø§Ø±ÛĮ Ø®
Õ¸ÖĤÕ©Õµ Õ¸ÖĤÕ¶
Ġ×¨ ×§
à±ģà°ķà±ĭ à°µ
áĥĵ áĥĶáĥľ
Ġáĥł áĥĶ
ĠSept ember
Ġw iÄĻ
Ġáĥ¬ áĥ§
Ġç Ł
Ġmu ito
à¸£à¸²à¸Ħ à¸²
ĠãĤ ª
ĠS in
Ġ Ä±n
ìĺĪ ìķ½
ÏĦÎ· ÏĤ
Ġind ivid
×ŀ ×ķ×ĵ
Ġback ground
Ø±ÙĪ Ø²
ÑģÑĤÐ² Ð°
Ø± Ø§Ùĩ
æľ ¨
ĠìĤ¬ ëŀĮ
at z
ĠÚ¯ Ø²Ø§Ø±Ø´
Ġpo int
Ġáĥ¨áĥĶ áĥĺáĥ«áĥļ
Ġun ter
ë³ ¸
è² ·
ç Ĵ
ist as
ĠÙĬ ÙĪÙħ
Ġ9 6
«à¸Ļ à¹īà¸²
ĠO f
ÉĻt i
Ġpaggam ot
Ġh u
ĠÎ Į
ik o
áĥĶáĥ £áĥļ
ĠØ§ÙĦØ¹ ÙħÙĦ
Ġtr Æ°á»Ľc
Ġbec ause
ãģĹãĤĩ ãģĨ
Ġv ir
Ġë§ ¤
à¯ģà®ķ à®¿à®±à®¤à¯ģ
Ġáĥ£áĥ Ľ
ãĥ Ħ
Ġprz ed
à¹Īà¸²à¸ ¢
ĠØ¬ ÙĨ
20 18
ĠØ¯ÛĮ Ú¯Ø±
Ã ļ
at to
Ù į
Ġìŀ ĳ
à±ģà°ķ à±ģà°¨à±įà°¨
Ġà®ķà¯Ĥ à®±
ĠØ¹ÙĨ ÙĪØ§ÙĨ
Ġn Äĥng
Ð» Ð°
áĥĲáĥĵ áĥĺ
Ġë ¹
à¦¾à¦¨ à§ĩà¦°
5 4
Ġg reat
áĥĿáĥĳ áĥĺáĥĹ
Ġh azÄ±r
áĥĶáĥĳ áĥĹ
Ī ¬
æ¼ ı
ĠØ¨Ø® Ø´
à¯ģà® ©
Ð¸ÑĢ Ð¾Ð²
à®² à®¾à®®à¯į
Ġåı ĳ
Ġac cess
Ġà®İà®¤ à®¿à®°
Îµ Ïį
Ġæī Ģ
ãģŁ ãĤģ
åº §
Ġà¦ķ à§ĭ
Ø¬ Ø¨
Ġlá» Ľ
ĠéĤ £
Ġé £
Î½Î¿ Î½
ÙĪ ÙĬØ©
çķ ¥
Ġnh áºŃn
Ġc áº§n
ĠT or
ac ja
ĠA ct
Ġsang at
Ġc ateg
el n
d Ã¼r
ĠØŃ ØªÙī
Ġre p
f i
Ġ" );
à¦°à§įà¦ ®
à®¾à® ľ
Ġà¦ķà¦¿à¦¨ à§įà¦¤à§ģ
ĠÙħØ¬ Ùħ
Ã³ a
oug h
ev e
Ġà¤µ à¤¹
à¤¾à¤Ĥ à¤¨à¥Ģ
Ġco unt
ES T
éļ ¾
åį ı
Õ¸ ÖĢ
Ġëĭ ¹
ÑģÑĤ Ð°Ð²
Ħ à¹īà¸²
Ø¬ Ø©
Ġc ette
ĠÄĳ Ã¢y
li che
if ik
ĠÐµ Ð³Ð¾
×ª ×¨
ĠJ un
áĥĺáĥĵ áĥĲ
Ġa h
å®ī è£ħ
Ġmer eka
d ur
S S
ĠÙħ Ø¤
ÃŃc ÃŃ
ost i
äº Ī
áĥ ©
Ġç «
ĠbÃ¶ l
æŃ »
U B
Ġp il
Ġm ent
Ã© ri
Ġh ai
Ġà°¨ à±ĩ
ĠK ur
i w
Ġt or
Ġà¦ķ à§įà¦·
æŃ ¢
og rap
¡ à¸Ļà¸
Ġáĥ§ áĥĿáĥķ
à¤¾à¤ĵ à¤Ĥ
á»ĵ ng
áĥĿáĥ ¥
Ġph Ã¡t
ć ć
Ġfin an
Ġà® ¹
Ġw orm
áĥĹ áĥ®áĥķ
åĪĨ æŀĲ
E _
Ġ×Ļ×© ×¨×Ĳ×ľ
ÙĤØ¯ Ùħ
Ġà¤ĩ à¤¨
å ª
Ø¶ Ø§
Øª ÙĪØ§ÙĨ
Ġa j
Ġìŀ ¬
Ġæµ ·
Ġs un
F F
ÑĥÐ» ÑĮ
§à¸¥ à¸²
Ġà¦¨à¦¿à¦ ľ
ĠAr ch
v v
à¤¿à¤ ª
Ġà¦¸à¦° à¦ķà¦¾à¦°
Ġye ars
Ġæ ´
Ð» Ð°Ð´
Ġà¦¬à¦¿à¦ ·
Ġ à¹ĥà¸Ļà¸
Ġdur ch
Ġya x
çĽ Ĭ
ļà¸ ±à¸
Ġà® Ĭ
Ġç¥ ŀ
ãĤĮ ãģ°
Ø§Ùħ Ø¬
åĩ »
5 3
Ġod p
Ġà¦ĺ à¦Ł
ĠáĥĽ áĥĿáĥķ
r Ã¼n
Ùĥ Øª
æ¯ ı
ĠÙĨÙħ ÛĮ
ĠáĥĻ áĥĲáĥłáĥĴ
Ġs os
Ġc ou
ĠØ² Ùħ
5 1
ìłģ ìľ¼ë¡ľ
Ġsp e
Ġj o
Ġexper ien
ÏĦÎ¹Îº Î®ÏĤ
ĠØ§ÙĨ Ø¬Ø§Ùħ
łà¸ ±à¸
ķà¹Ī à¸Ń
ey d
Ġà¤¥ à¥Ģ
áĢ Ń
ow ied
éĻ ©
Î¼Îµ Î½Î¿
Ú© ÙĦ
áĥĶáĥ ¨
à°Ĥà°¤ à±įà°°
à¯ĭ à®®à¯į
Ãº n
agg io
ĠâĨ ĳ
Ġ Õ¡Õ
ĠØ´ Ùħ
Ð¸ ÐµÐ¼
Ġc ada
ard o
Ġà°Ĺ à±įà°°
Ġà¤¦ à¤¿à¤¯à¤¾
Ġè ½
Õ¸Õ ¾
e uk
Ġë¶ Ī
ĠÃ¶ lk
à±įà° £
Ġà¦Ĩà¦® à¦¾à¦°
Ġâ Ĥ
Ġ×ĳ ×Ļ×Ł
ãģŁ ãģĦ
ëĵ ł
ĠO ut
åį °
k ie
Ùİ ÙĨ
Ġenc ont
Ġà¦ ¢
Ġel se
ĠK o
Î³ Î®
Ġsup port
Ġt Æ°
×ŀ× Ĳ
Ð¾ ÑĪ
à¦Ĺ à§ģà¦²
Ġnec ess
à¸Ńà¸¢à¸¹ à¹Īà¸
ĠáĥĲáĥ® áĥĲáĥļáĥĺ
Ġ Þ
ìĥ ī
íĮ Į
áĥĺáĥ¢ áĥĶáĥ¢
Ġà¸ Ĺà¸µà¹Ī
×¤ ×Ļ
ic y
Ġj our
Ø± Ø§
Ġà¸ Ĭà¸
Ġà®® à®°
Õ¸Õ ²
ªà¸ ´à¸
Ġl ie
Ġëĭ ¨
Ġc at
ÉĻn in
ãģ® ãģ¯
ģà¸ ´à¸
ãģ Ĵ
owa Äĩ
Ġm áº·t
ÙĪ Ùī
er al
à®¤ à®¾à®ķ
ĠåĴ Į
ĠØ³ Ø§Ø®Øª
æŀ ģ
ãĥ§ ãĥ³
Ġhe ight
Ġæ¶ ĵ
Ð¾ÑĢ Ð¾Ð´
áĥĿáĥĳ áĥļ
ĠØ§Ø³ ÙĦØ§Ùħ
å¯ Į
éĻ į
ĠØªÙħ Ø§Ùħ
ed y
ĠD em
Ġkter Ã©
ĠÎ± Ïĥ
Ġíķ ł
ĠÙħ Ø®ØªÙĦÙģ
áĥĲáĥłáĥ Ļ
æĭĽ èģĺ
ÏģÎ¿ Î½
ĠÎ±Î½ Î¬
à¥ģ à¤¸
ĠØ¯ ÛĮØ¯
Ã¼y Ã¼k
Ġsex o
ĠH and
Ġh em
du c
ëĭ ĺ
à¦¿à¦ ī
ç ¸
Ġç ¦
à§ģà¦ ĸ
5 2
am s
ĠáĥĴ áĥĲáĥ¡
éĶ Ģ
à¯ĭ à®¤
§à¸ ±à¸Ļ
Ġçī ¹
ow anie
ìĹĲ ëĬĶ
Ġh ÉĻm
Ġà¦®à¦¾à¦¨ à§ģà¦·
± áĢ
Ġà®ī à®°
ĠíĬ ¹
iy le
Ġc art
z w
áĥĵ áĥĶáĥ¡
ĠÐ¿ Ð¾Ð¼
Ġè ģ
ĠëĶ °
ĠBl og
ãĥ Ľ
áĥ¬ áĥ§
ĠJan u
Î»Î» Î·Î½
Ġì¢ ĭ
ĠØ§ÙĦÙħ Ø¬
å® Ł
Ġà¤Ńà¤¾à¤° à¤¤
Ġv end
Ġpr Ã³
Ġs iz
Õ¥Õ ¿
Ġv ida
íĤ ¤
Ġà®ª à®£
à®¾à®® à®²à¯į
Ð¸ÑĤ Ðµ
áĥĹáĥ®áĥķ áĥĶáĥķ
ç³» ç»Ł
Ġcont act
ĳ åħĭ
ĠB ank
à¥ĭ à¤°
à¦¡ à¦¼
ĠD ig
ŀ à¸£
ĠáĥĶ áĥļ
åħ ħ
ĠØª Ø§Ø±ÛĮØ®
ÙĬ Ø´
Ġ×ľ ×ķ
Î»Î¿ Î½
ÏĥÎµ ÏīÎ½
à¸£à¸¹ à¹īà¸
Ġp ela
Ġå¹ ¿
ĠB ay
ĠÎ´ Î¹Î¬
ad ÉĻ
ìĦ Ŀ
Ķà¹īà¸§à¸ ¢
Ġis ÉĻ
Ø§Ùĩ Ùħ
pert i
Ġcont rol
Ġan ak
Â ª
ê ¶Į
ro t
ĠáĥĲáĥķ áĥ¢
åĨ ľ
ĠbaÄŁ lÄ±
à§įà¦ ŀ
Ġ8 9
Ġinform ation
ĠÐ± ÐµÐ·
å¼ ł
à§ĩà¦ ¡
áĥłáĥ£áĥ ľ
ë ĳĲ
çĦ¡ æĸĻ
Ġáĥ¨áĥĶáĥĺáĥ«áĥļ áĥĶáĥĳáĥĲ
Ġcu i
Îº Î¹
Ñĥ ÑĪ
ĠÎĳ Ïħ
or ie
ãģª ãĤĵ
Ġj ob
Ã© g
ĠU r
áĥĲáĥĽáĥĵ áĥĶ
à¨¿ à¨
Ġfav or
ĠW ar
Ġà®¤à¯Ĭà®Ł à®°
à°¾à°° à°¿
ara f
Ġtamb Ã©m
ĠÕ Ģ
Ġthro ugh
id es
ĠÐ¿ÑĢ Ð¾Ð´
áĥķ áĥĶáĥķ
ant en
E P
Ġà¹Ģà¸Ķà¸´à¸¡à¸ŀà¸±à¸Ļà¸ Łà¸£à¸µ
Ø¹ Ø§Øª
§ à¸Ļà¸
Ġà¦¸ à¦Ļà§įà¦Ĺà§ĩ
ç¯ ĩ
Ġsec ara
è¡ Ģ
ĠÙĪ ÙĦØ§
m ek
ĠÐ½ Ð¾Ð²
æĲ ı
ÙĨ ÛĮÙĨ
ur y
ag t
ì¡ ±
â Ķ
Ġà®ķ à®¾à®°
ÎĳÎ Ŀ
Ġí ļĮ
åº ķ
à¤§ à¥įà¤¯
g ang
ĠÐ¿ÑĢ Ð°Ð²
áĥĶáĥłáĥ ĵ
Ġ} ,
Ġman y
×ŀ ×Ļ×ĵ
Ġn un
âĢ¦ ]
ì² ĺ
Ġà¦Ĩ à¦ĩ
Ġà¦ª à§ľ
Ïĩ Î½
èĮ ĥ
æł ¹
ÑģÑĤ ÑĢ
Ġv ert
Ġs iya
à°® à±ĩ
n ou
à±ģà° ¸
ØŃ Ø±
Ùİ Ø§
Ġï¿½ï¿½ï¿½ï¿½ï¿½ ï¿½ï¿½ï¿½ï¿½
k lad
Ġà¦¬ à§ĩà¦¶
ĠáĥĴ áĥĲáĥ®
à±įà°Ł à±įà°°
ĠC ON
Ġåĩ º
Ġà¤¦ à¥ĩà¤ĸ
Ø§Ø¨ Ø·
I J
ĠÙĩ ÛĮ
Ð¸ÑĢ Ð¾Ð²Ð°Ð½
ĠPl us
åĶ ®
à°°à±įà° ¶
8 6
ch Ã©
à¦° à¦£
æĺ ¾
Ð¾Ð» Ð½
ĠAug ust
ÏģÎ¹Ïĥ Ïĥ
ĠPD F
ª à¸Ļ
20 17
Ġíķľ êµŃ
Ġk iÅŁ
Ø§ÙĦ Ùĩ
aj e
g eb
Ġà¹Ģà¸ ŀ
ĠÃ Ī
ĠI ST
re z
ĠíĻ ķ
ch es
Ġà¦¬à¦² à§ĩ
Ïĩ Î®
×¤ ×ĺ
à°ķà±įà°ķ à°¡
Ġb ard
Ġap plic
Ð Ķ
ÙĪ Ø§Ø¹
Ġæ± Ł
Ġçİ °
ì¦ Ŀ
Õ ¤
Ġè¿ ĺ
ov ern
ĠMar et
Î¾ Îµ
ing ga
×ł ×ĺ
à°¿à°Ĥà°Ĺ à±į
Ġu Å¾
Ġtr as
ç¨ ³
Ġà®ª à®¾à®¤
ĠÃ ĵ
ass en
ĠØ² ÛĮØ±
åĪĨ pk10
ara q
Ġ[ âĢ¦]
Ġåī į
Ġpl at
æī ¹
Ġk ul
æĹ ı
æŃ Į
áĥĽ áĥĶáĥĵ
à¦¿à¦ ¡
Ġloc al
åľ ĭ
Ġ8 6
Î¼Î± Î½
Ġen erg
Ġch ild
S P
Ġm emp
à¹ Ħà¸£
Ġê²Į ìŀĦ
Ġ×¤ ×¢
Úĺ Ùĩ
ÙĪØ± ÙĬ
Ġ×Ĳ ×¨
ĠH ab
Ø± Ø§ÙĤ
ĠP et
Îķ Î£
é ²
if ica
ĠáĥĲáĥ¡ áĥĶáĥķáĥĶ
ab y
ÙĪÙħ Ø§ÙĨ
Ġà°ī à°Ĥà°Ł
ur as
ĠgÃ¶ st
Ġé Ł
Ġtá» ±
Ġutil iz
Ġáĥĺáĥľ áĥ¢
Ġà¦ħà¦¨ à§ĩà¦ķ
ãĤ¹ ãĤ¿
Ġç ģ
åľ Ł
łà¸²à¸ ŀ
ĠÎ® ÏĦÎ±Î½
ãģķ ãģĦ
aj a
à°³ à±įà°³
Ã ĺ
êµ °
è¨ Ń
ĠåĲ į
å® ģ
ĠO m
Ġy et
Ġ9 4
Ġà¤µà¤¿à¤ ¶
å¾ ħ
ĠAnd roid
ĠáĥĽ áĥĺáĥĸ
å®ĺç½ĳ çĻ»å½ķ
Ġáĥĵáĥ¦ áĥĶáĥ¡
å± ħ
Ġáĥĺ áĥĴ
i Ã©n
ĠáĥĽáĥĿáĥ ®
Ġ×ŀ ×¨
Ġw orld
Ġt elefon
Ġi b
ĠâĢĿ ï¼Į
à°¸ à°Ĥ
éĩį è¦ģ
Ġ6 1
Ġro ku
Ġâĺ ħ
æ§ ĺ
ft ware
à¦ ·à§įà¦Ł
áĥĲáĥľ áĥ¢
ĠS eg
n it
ĠRe ad
à ³
æ¢ ¦
ĠáĥĹ áĥĲáĥĽ
Ġper i
j Å¡ÃŃ
ĠÎ½ ÎŃ
ĠØ® Ø§ÙĨ
ãģĪ ãĤĭ
iv os
å© ļ
ê »
Ġb á»Ļ
ĠÎ Ĩ
ĠÙĦ Ø£
Ġ, âĢĿ
Ġel e
å¹ ķ
iy at
ÏģÎ¹ÏĥÏĥ ÏĮÏĦÎµ
èİ ·
ĠáĥĴáĥĲáĥľ áĥ¡
ort h
Ġáĥ¨áĥĶáĥĽ áĥĹáĥ®áĥķáĥĶáĥķ
lÉĻ ÅŁ
ģ à¸£
ĠØ¨ Ø§ÙĨ
ĠC D
ĠØ§ÙĨØª Ø®Ø§Ø¨
è¯ Ĩ
ĠF in
ç¬¬ ä¸Ģ
áºŃ y
Ġen s
èĭ ı
Ġk et
ĠÕ º
ĠS and
ãĤ ¬
á»¯ a
ma il
Ġë ¸
ĠØ³ ÙĨÚ¯
Ïģ Î¸
Ġk dy
Ġch áº¥t
Ġa ÅŁ
Ġf am
li chen
Ġë° ĺ
Ĺà¸²à¸ ĩ
ĠF oto
çı Ń
Ġm undo
ĠéĿ Ĵ
ĠÚ¯ Ø±Ø¯
à¤Ĺ à¥ĩ
ĠáĥĲáĥ¥ áĥķáĥ¡
Ġà¸ª à¹Īà¸ĩà¹Ģà¸
Õ¸ ÖĢÕ
ĠT ags
ĠÐ² Ð¸Ð´
Ġy o
à¦¤ à§ĭ
h m
áĥĲáĥĵ áĥĿ
Ġd ate
áĥĺ áĥĲáĥĹ
ĠR us
ad es
ĻĢâ ĻĢâ
z u
Ġbus iness
Ġmemil iki
Ġà¤ľ à¤¿à¤¸
ĠâĢ¦ .
Ġ×ľ ×ĵ
at y
à¸Ńà¸ Ķà¸
Ġà®µ à®¿à®°
ĠæĹ ¶
ëĿ¼ ìĿ¸
×ł ×Ļ×ª
Ġ" ]
è¾ ĥ
éģ ¸
Ġg ez
ĠÐ ¥
ì° ½
áĥĲáĥ¬ áĥĺáĥļ
l ement
ĠÐ² ÑĢÐµÐ¼
zen ie
ëĶ Ķ
Ġè ¾
m ÉĻ
ç§ Ĵ
ĠB on
Ĺà¸ ¸à¸ģà¸
à§Ł à§ĩ
ä½ĵèĤ² æĬķæ³¨
Ġ×Ĺ ×ĳ×¨
U P
Ġà¦ķà¦¿à¦Ľ à§ģ
Ġv Ã¬
Îµ ÏĢ
Ġun ivers
Ùĩ Ùĩ
ÙĲ ÙĬ
ÉĻd ÉĻn
åŃ £
à¤¾à¤µ à¤°
Ġbe fore
ĠÎĶ Î¹Î±
Ġ×Ļ ×Ķ
ĠÂ ¸
ul an
ĠÙĪØ§ÙĦ Øª
ĠCom p
Ġm ez
è Ľ
ĠU t
ĠC u
æŃ£ è§Ħ
Ġse perti
åĢ į
ĠÎº Î¹
ĠB ur
ĠÕ ¤
Ø§ÙĦ Øª
Ġu y
à¹ģ à¸Ļ
áĥł áĥĿáĥĽ
ist en
æİĴ åĪĹ
Ø® ÙĦ
Ġpr ac
ob a
Ġnghiá»ĩ p
éĸ ¢
à¤ ĺ
da ÅŁ
çı ¾
Ġth en
Ã ķ
Õ¡Õ ®
Ġëª ©
Ġà°® à°¹
Ġà®ĩ à®¯
Ġpos it
Ġob s
Ġl ove
çĤ º
ĠÏĩ Î±
_ id
è§Ħ å¾ĭ
Ġà¤Ĩ à¤ľ
il y
ĠRe ply
ĩà¸´à¸Ļà¸ ļà¸²à¸Ĺ
ĠØµ ØŃ
çİ° éĩĳ
Ġà° ·
Ġ×© ×¢
ì§ ģ
Ð» ÐµÐ½Ð¸Ñı
Ġv it
Ġmer c
Ġab euk
åģ ¥
Ġà¤° à¤¹à¤¾
Ġà®ĩà®¨à¯įà®¤ à®¿à®¯
8 9
´ à¹Īà¸¡à¸
Ġc Ã´
ìĹħ ìĨĮ
ist an
Ø± Ø³ÛĮ
åĲ §
Ġk op
å¤ ®
Ã©r ie
ĠáĥĲáĥ® áĥļ
ĠÎº ÏĮ
ter e
ĠK e
å®ĺç½ĳ ä¸ĭè½½
ĩà¸´à¸Ļà¸ļà¸²à¸Ĺ à¹Ħà¸Ĺà¸¢
ar ing
Ġæ į
Ġb ank
Ġìĥ Ī
ĠRes p
Ġ ÏīÏĤ
l og
áº¡ ch
ob al
Ġg ian
ìķ ĺ
Ġxu áº¥t
Ãº p
ĠÎ¤ Î±
Æ°á»Ľ ng
Ġat tr
j Ã¸
Ġim g
áĥĹ áĥĲáĥķ
à¹ĥà¸«à¸ į
ĠØ® Ø§Øµ
Ġå ķ
à¤¿à¤ ľ
f Ã¼
ont o
im al
Ġ×ĳ ×ĵ
Ġç Ī
à®¿à®Ł à®®à¯į
è¯ ¥
b ra
ĠS en
ĠÙĤ Ø³Ùħ
Ġf aire
à¹Īà¸ ¡
ĠD av
Ġà¦¬ à¦¾
Ġl ot
Ø´ ØªÙĩ
ĠR ad
íĹ ĺ
Ġd ot
Ĺ à¸£à¸
Ġo v
Ġ à¹Ĩ
×ķ ×ķ
à±įà°° à°®
ĠÃ ĥ
k el
Ġà¦® à¦¹
Ġs w
E X
ãĥĩ ãĤ£
T ype
ĠU s
ĩà¸Ĺà¸ °à¹Ģà¸ļà¸µà¸
áĥĲáĥłáĥ ©
Ġj un
à°ª à±Ī
Ġab y
Ġcons ider
ic ar
Ġcom me
Ð¾Ð¿ ÑĢ
æ£ Ģ
Ø¹ Ø§Ø±
à®¾à® Ļà¯įà®ķ
ĠáĥĽ áĥĻ
áĥĲáĥ Ń
Ġà¤° à¤¹
ĠÅŁ ey
Ġ7 4
ĠæĹ ł
ãģ« ãĤĪ
Ġf em
Ġé ļ
p p
à¦¾à¦° à§ĩ
L C
Ġgro up
áĥľ áĥĺáĥ¨áĥķ
ĠTÃ¼rk iye
Ñı Ð·
s et
ĠÐ¾ ÑĢ
ĠK ap
ãģ ¸
Ġáĥ¡áĥĲáĥ®áĥĶáĥļ áĥĽ
Î½Î· ÏĤ
ĠØ³ ÙĨ
Ġkan yang
ĠÙĨ ØŃ
Ġ7 6
Ùģ ÙĤ
åķ ı
×ľ ×Ĺ
Ġè ¥¿
à®² à¯įà®µ
ÙĪ Ø©
ic an
I m
ĠÙĩÙħ ÚĨ
ol f
Ġas p
Ġà¦ķà¦¥ à¦¾
é Ĭ
ov ÄĽ
ãĤĵ ãģª
ĠÙħ Ùħ
ĠØ§ÙĦØ£ ÙĪÙĦ
Ġà®ķà¯Ĥ à®Ł
Ġà®ª à®¿à®±
Ã³ ng
áĥ¬ áĥĺáĥ¤
Î» Ïħ
ĠáĥĽáĥĺáĥĽ áĥĲáĥłáĥĹ
Ġà¤¦ à¥ĭ
áĥª áĥĺ
à¸Ńà¸ĩ à¹Ģà¸
à¤°à¥įà¤ ¤
us u
ĠÎĶ Î·
à®¾à®² à¯ģà®®à¯į
ĠMar ch
ĠiP hone
Ġmuk ha
×¨ ×ļ
b all
ÙĩâĢĮ ÙĩØ§ÛĮ
V D
Ø§Ø¦ ÙĬØ©
à®¿à®© à¯įà®©
Ġdet ail
ì ¼
à¥įà¤Ł à¥įà¤°
Ġdis play
à±ģà°¨ à°¿
Ġà°µà°¿à° ·
Ø· Ùģ
Ð°Ñģ Ñģ
l ish
áĥłáĥĺáĥķ áĥĺ
Ø§Ø¦ ÙĬ
ai x
Ġãĥ ŀ
Ġad v
Ð¾ÑģÑĤ Ð¸
Î» Î¿Ïħ
ĠÎ¼ ÏĮ
us to
ä¾ ¡
ĠS et
Ġ? ?
Ġsho uld
ĠáĥĽ áĥĲáĥĽ
Ġà®ļ à®¿à®²
ĠB ook
ĠØ¨Ø±ÙĨ Ø§ÙħÙĩ
ĠâĢ ļ
Ġà¦ļ à¦²
Ġk art
Ķà¸ ¹à¸
ĠF er
æĻ º
s l
Ġà¤ ĳ
Ñĭ ÑĪ
Ĺà¸µà¹Īà¸ ªà¸¸à¸Ķ
es a
ÚĨ Ùĩ
ĠT a
al ler
Ġcom ments
Ġre fer
Ġhar us
Ġæ Ĳ
íĥ ľ
ĠP RO
áĥĺáĥ¡ áĥĹáĥķáĥĺáĥ¡
Ġd Ã¢n
åħ ´
ĠáĥĻ áĥĺáĥĵ
ĠK ab
à¦¾à¦° à¦£
à® ·
á»į i
Æ Ĵ
ĠÂ ¾
ĠT em
Ġà¦¯ à¦¾à§Ł
Ġw szyst
Ġ×ķ ×©
à§įà¦° à¦®
à¹ĥà¸«à¸¡ à¹Ī
æŀ ģéĢŁ
ĠM ak
à¦¾à¦ «
ĠçĶ Ł
à¹ģà¸ļà¸ ļà¸
à¦ ı
ĠáĥĹ áĥ£áĥĽ
¸ à¹Īà¸Ļ
ÛĮ Ø²
j ÃŃ
r er
Ī à¹īà¸²à¸
7 1
Ġä¸ »
Ġw ind
Ġà°ķ à°¨
ĠáĥĲáĥ Ĵ
ĠæĹ ©
à§įà¦¬ à¦°
ĠV en
Ġm ade
Ġand ere
Ġsu ch
al q
ãģĹãģ¦ ãģĦãĤĭ
-------- --------
h ip
ĠÎ±Î½ ÏĦÎ¹
é¡¹ çĽ®
Ïĥ Î¹Î±
¥à¸ °à¹Ģà¸
æķ ħ
ĠÃ§ Ä±k
Ġ9 1
Ġà®ª à®ķ
am y
ìĦľ ë¹ĦìĬ¤
à¤Ĥ à¤§
Ġt ag
à±Ģ à°¨
ª à¹Į
çľ Į
Ø§Ø¨ Ø©
um an
¶ à¹Īà¸ĩ
à¤Ĺ à¤¾
ĠP en
ĠÙģ ÙĤØ·
ĠÙħÙĨ Ø·
ÅĤ ug
á» Ĺ
Ø¨ Ø§ÙĨ
Ġà®¨ à¯ĩà®°
×¨ ×ķ×ª
Ġincl ud
ĠD at
à®° à¯įà®µ
ìł Ģ
à¥ĩà¤ ¡
Ã İ
áĥĶáĥłáĥ ķ
ow ej
Ġ7 9
Î¯Î½ ÎµÎ¹
Ġìļ Ķ
Î¼ÏĮ ÏĤ
Äį ÃŃ
h at
æ² Ļ
ĠK a
ist o
or ks
æķ° æį®
Ġà¤ķà¥ģà¤ Ľ
à§ģ à¦¦à§įà¦§
u en
à°Ł à±įà°²
áĥķ áĥĺáĥļ
Ġáĥĳ áĥł
ĠÃ ļ
à¯ģà®³ à¯į
Ġhar ga
à¸²à¸ ªà¸´
Ġs Ã¼
×ĳ ×ª
Ġv ac
ov en
ĠáĥĽ áĥĿáĥĴ
Ġv s
t Ä±
Ġ×Ľ ×ļ
×ķ× ¥
ion ale
Ġnu est
ĠM ah
à¹ģà¸¥ à¹īà¸§à¸
à¤Ĺ à¥Ģ
re b
Îº Î®
à¤µ à¤°
ĠÙħØµ Ø±
I tem
Ġ×ĳ ×Ļ×ª
ï »¿
Ġem ail
áº¯ ng
ĠM it
Î»Î» Î·
ĠÚ© ØªØ§Ø¨
Øª ÙĩØ§
è ķ
à· Ģ
Ġmater ial
Ġà°ħ à°Ĥà°¤
Ġ ä½ľ
éĩ ĩ
ĠPl ay
w ij
T V
ÙĦ Ø§ØŃ
áŀ¶ áŀ
j ak
Ġà°Ĩà°¯ à°¨
ķàµįà´ ķ
Ġf Ã¸l
éĿ ©
Ġà¤ķ à¥Ī
ien ia
ĠÎ ¯
ĠL ED
Ġt Ã©
à§Ĥ à¦²
Ġà¦¸ à¦¾à¦®
Ø¯ ÛĮØ¯
ĠÙĩØ³Øª ÙĨØ¯
áº¹ p
ĠÎµ ÏģÎ³
Ġpr Ã©
ĠÄĳ iá»ĥm
z k
ĠÐ¸ ÑģÐ¿
ãĥ İ
ĠUS D
at ura
à¹Ħà¸Ķà¹ī à¹Ģà¸
ìĺ Ģ
áĥ£áĥłáĥ ¡
am m
E B
ol es
Ġo tr
à¤Ĥ à¤Ł
Ġ8 1
à¤Ĺ à¤°
ĠØ§ÙĬ ÙĨ
ķ à¹īà¸Ńà¸ĩ
Ġà¸ ¡à¸µà¸
ĠÙĬ ÙĨ
ĠM el
ãģª ãĤī
an za
Ġkun nen
T ER
áĥĺáĥĻ áĥĲ
å¨ ģ
ĠÃ ³
ĠÛĮÚ© ÛĮ
ĠÎº Î¬Î½
Ġk inh
ÙĬ Ùĥ
Ġ×ľ ×¡
ìĺ¤ íĶ¼
Ġco uld
ì¦ Ī
à±Ĥà° ª
à¥ĩà¤ ¦
l ah
Ġáĥŀ áĥĲáĥ¢
A Z
áĥĶáĥĳ áĥĶáĥĳáĥĺ
qu er
w ard
ist i
b it
ĠF ree
Ñĥ Ñħ
Ġpl ac
Ġà®ķ à®µ
ĠØ§Ø³Øª Ø§ÙĨ
sk e
ik el
Îķ Î¡
ter i
Ġìł ģ
ho ut
é¦ Ĩ
ë² Ħ
Ġwh ere
Ġk áº¿t
Ġtr Ã¨s
Ġ×Ĺ ×ĵ
Ġim age
w ie
Ø³Øª Ùĩ
à®² à®ķ
ªà¸ ¡à¸
Ġf u
Ø³ Ø§ÙĨ
Ö ¹
Ġà¦Ń à¦¾à¦°
Ġ×ĳ ×Ľ×ľ
ri ft
Ġt Ã¢m
Ð» Ð°Ð²
Ġb oy
Ġà¤ª à¥Ģ
Ġà°¨à±ģà°Ĥà° ļà°¿
å· ´
Ġ×Ķ× Ŀ
ow ania
ĠãĢı ãĢİ
é į
ĠÐ¼Ð¾Ð¶ ÐµÑĤ
in ing
ĠãĤ ¤
ÏĦÎ· ÏĥÎ·
Ġl ugar
ĠÐ´ ÑĢÑĥÐ³
en en
ĠT rip
Ġåİ Ł
Ø§Ùģ Ø¸
Ġ×Ľ ×ŀ×ķ
k em
il ler
Ġl ed
Ġ9 3
áĥľáĥĺáĥ¨áĥķ áĥľáĥĶáĥļ
ĠSt ar
Ġ7 3
Ġle ft
Ġj an
Ġáĥ¡áĥĲáĥ ¤
ãģĤãĤĬ ãģ¾ãģĻ
Ġb áº±ng
ĠÏĢ ÏģÏİ
à°ķ à°°
Ġand re
Ġà¤¸ à¤¾à¤®
ĠÂ º
ĠK ol
×ĳ ×ķ×ª
Ġâ Ŀ
s il
Ġt ul
Ø± Ø¬
Ġeff ect
Ġà¤ķ à¤¾à¤®
Ġden ne
Ġse in
áº£ nh
ĠáĥĽ áĥĺáĥĶáĥł
ĠÏĩ ÏģÏĮ
op e
ĠW est
Û° Û°
à¦¬ à¦¾à¦¦
ĠØ± ÙĤÙħ
à¸£à¸°à¸ ļà¸
Ġáĥ¨áĥĶáĥ £áĥ
im os
æī ¿
r is
å¯ Ĩ
ect or
Ġ ust
ar es
à¥Ĥ à¤²
vis or
ik ip
áĥ¥ áĥĿáĥľ
Ġ% )
Ø±ÛĮ Ú©
Ġå¾ ·
áĥĿáĥĳ áĥĲáĥ¨áĥĺ
ĠØ¨Ø± Ú¯
y c
Ġà¤ķ à¤¹
Ġw ur
Ïģ Ïħ
ĠØ³ Ø±ÛĮ
ãĥ ¤
à¥Į à¤°
em i
ì¢ ħ
pl o
Ø¯ ÛĮ
Ġpod e
à¹ī à¸Ļà¹Ģà¸
à¸£ à¹Į
Ġin sp
Ġth áº¥y
ØŃ Ùĩ
Ġw it
áĥ£áĥłáĥ ľ
ir d
lij k
Ġä¸ ľ
Ġp Å¯jÄį
çķ ª
ĠÕ £
ê ´ĳ
Ġd zie
ĠØ§ÙĦÙħ ÙĨØª
Ġch á»§
ĠÐ¼Ð¾Ð¶ Ð½Ð¾
Ġíķ Ħ
S I
à¤¿à¤ ĸ
×ĳ ×ķ×¨
ĠáĥĹáĥ£áĥĽ áĥªáĥĲ
le p
Ġà¤ľ à¤¬
Ġa ma
Ġpro gr
ut en
et to
íı ī
×Ļ×ĳ ×Ķ
áĥĵ áĥĿáĥĽ
Ġdur ante
ç§ ģ
å® ³
Ġgo ed
ch ten
Ġet c
ĠB i
ŀà¸Ļà¸ ±à¸Ļà¸
ĠÙħ ÙĩÙħ
Ø§Ø¨ Ø¹
áĥĲáĥĽáĥĵ áĥĶáĥľ
Ġp esso
ĠØ¨ Ø£
ÑģÐº Ð¾Ð³Ð¾
Ã¶ l
åĵ ¡
Ã¤ r
ÄŁ Ä±
ìķĦ ê°Ģ
Ġ| |
é ¼
ÃŃ as
Ġb áº£o
Ġä¸ ĩ
äº ²
Ġr ac
å¯ Ł
il de
ãĥ ı
à¤¾à¤¤ à¥įà¤°
Ġå° Ĩ
à¸£à¸µà¸ §à¸´à¸
áĥ£áĥ ¢
à¸Ńà¸ Ķ
ÏĢ Î¯
Ġm ÉĻl
ªà¸ ´à¸Ļà¸
ì ¤Ģ
Ĭ à¸Ļà¸
ĠÄ° ÅŁ
ĠkÃ¶n nen
Q U
Ġi p
sk ap
ĠìĤ¬ ìļ©
Ø´ Ø§ÙĨ
Ã Ĩ
8 7
ãĤ ½
Ð ľ
Ġáĥ¡áĥĲáĥĶ áĥłáĥĹ
à¦¿à¦ Ń
Ġà¤¦ à¥ĩà¤¶
áĥĶáĥĽ áĥĳ
ĠÐ´ Ð¾Ð»
Îº Î¬
Ġà¤¸ à¥ĭ
Ġto Ãłn
Ġgr an
Ġy Ã¼ks
æ³ ¢
Ġfa it
áĢ º
os c
ÙĦ ÙĬØ©
Ġà¤ļ à¤¾à¤¹
Ġh iá»ĩu
à°¾à°² à°¨à±ģ
Ġde d
ang k
Ġãĥ ¡
P r
ĠPre vious
áĥĲáĥĹ áĥķáĥĺáĥ¡
§à¸´à¸ ĺ
Ķà¸ ¹
ĠÙħØ¬Ùħ ÙĪØ¹
ĠÅ ł
ĠCh ar
à°¾à°² à°¨à°¿
Ġåį Ĺ
à¦ ¯
Ġmom ent
our ce
Ġg Ã¬
áĥĲáĥł áĥĲ
Ġtrab al
à¤¿à¤ ·
eg a
ĠÏĢÎ± ÏģÎ¬
ÏĦÎ¹ Ïĥ
Ġè Ĥ
éĿ ł
Ø³ Ø³
ĠÎ± ÏģÏĩ
×Ļ×© ×Ķ
nÃŃ ho
ros oft
Ġáĥľ áĥĲáĥ®
Ð°Ð½ ÑĤ
L A
Ġph Ã²ng
à¤¾à¤ ¡
çķ Ļ
Ġar be
Ġgr atu
ĠÏĮ ÏĢÏīÏĤ
ur en
ag n
ick Ã©
à±ĩà° ª
ĠÃł s
Ġà§¦ à§
áĥĶáĥ ¨áĥĺ
Ġt iá»ģn
¸ ı
å¼Ģå¥ĸ ç»ĵæŀľ
æĸĩ åĮĸ
ãģĪ ãģ¦
Ġà°ħ à°Ń
Ġæĸ ĩ
ĠØ¨ ÛĮÙħ
ĠâĢ¦ âĢ¦
ie b
Ġb and
ç¦ »
åħ »
Ġáĥ¢ áĥł
ĠÐ¾ Ñĩ
Ġt á»ĳt
an j
ģà¸²à¸£ à¹ģà¸
ĠJ u
Ġar ch
Ø¨ Ø¹
à®¿à®Łà¯įà®Ł à¯ģ
$ (
Ġáĥĵ áĥłáĥĿáĥ¡
Ġà°¸ à±įà°µ
à®¿à®ļ à¯įà®ļ
ĠR a
×Ľ ×Ŀ
ĠØ£ Ø¹
ĠÎ´ Ïį
Ġà¤¯ à¥ĩ
çľ ¼
y al
un s
Ġof fer
áĥĿáĥĵ áĥĶáĥ¡
à¸Ńà¸Ńà¸ ģà¸
ĠãģĿ ãĤĮ
Ġw ied
ĠØ¢ ÙĩÙĨÚ¯
ĠB akÄ±
ãĢ ħ
áĥĺáĥĽ áĥĶ
Ġà¤ķà¤¾à¤° à¥įà¤¯
æ¹ ĸ
á ī
à¤¢ à¤¼
Ð¾ ÑģÐº
äº «
ĠJ une
ĠC op
áĥĶáĥ¥ áĥ¡
Ð´ Ðµ
à¹īà¸Ńà¸ ¢
Ġáĥķ áĥĺáĥľ
Ġu yg
b ack
à¥įà¤° à¤®
äºº çļĦ
Ġáĥł áĥĲáĥĽáĥĵáĥĶáĥľ
Ġáĥ¡ áĥĺáĥĽ
out h
ÄŁ er
áº¡ c
ãģ« ãģ¤
Ġà®ķ à®£
ek er
ë¡ ł
Ġsa ja
ĠS ab
Ġf ile
ĠØ§ÙĦØ± Ø¦ÙĬØ³
Ġ3 D
åĸ ľ
à§ĩà¦ ª
×Ĵ ×ĵ
áĥĶáĥĳ áĥĲáĥ¨áĥĺ
il es
Ġç Ń
Ġà¦¹ à¦¾à¦¸
Ġw ater
æ ½
Â ·
um i
Ġ×Ĳ×Ĺ ×ĵ
el ler
Ġp on
ĠâĢľ ,
Ġd Ã¶n
ar am
m am
Ã¶ z
· à¹īà¸Ń
Ġå½©ç¥ŀäºīéľ¸ 8
Ġà¦ķà¦° à¦¾à¦°
Ġthá» ĭ
ëł ¨
ªà¸¸à¸ Ķà¸
rol l
¨àµįà´ ¨
Ġà¦Ĩà¦® à¦¾à¦¦à§ĩà¦°
Ġl ife
ĠáĥĲáĥ® áĥĲáĥļ
Ġà®ĩ à®¤à¯ģ
Ġáĥĳ áĥĲáĥķáĥ¨
Ġg ebru
ĠÙĦ ØŃ
ĠáĥĶ áĥķáĥł
æĵ į
ĠI T
ĠP our
Ġãĥ Ĳ
áĥĲáĥłáĥ ¯
ĠPro duk
ç§ ¯
lÄ±ÄŁ Ä±
ĠØ§ÙĦÙħ ÙĤ
Ġr i
Ġb Ã¡n
ĠÎ¼ÏĢÎ¿ ÏģÎµÎ¯
ê°Ģ ê²©
Ùģ Ø§Ø¹
ĠãĤ ¯
ĠJ eg
ĠØ£ ØŃ
as ar
Ġbil dir
ĠtÉĻr ÉĻf
Ġk ah
Ħ à¹īà¸²à¸
Ġå¹ ³
Ġl ive
ç½ĳ ç»ľ
ĠØªÙĪ Ø¬Ùĩ
ic io
Ġà®ķ à¯ģà®Ł
ĠØ¢ÙĨ ÙĩØ§
ĠØ¯Ø§Ø´ ØªÙĩ
l Ã¡
ĠJul y
ĠT ab
è¿ İ
ĠÄĳ Æ°á»Ŀng
Ġáĥ¡áĥĲáĥ®áĥĶáĥļáĥĽ áĥ¬áĥĺáĥ¤
r ac
ĠØ± ÙĪØ´
áĥĲáĥĹ áĥĲ
ãģ§ãģį ãĤĭ
Ġà®® à¯ģà®±
Ġe conom
áĥĲáĥķ áĥĲáĥĵ
Îº ÏģÎ¹
ari os
ĠÙĨ Ø³
ĠìĦ ¤
Ð°Ðº ÑĤ
Ġà¹Ĥà¸Ľà¸£ à¹Ĥà¸¡à¸
ĠA uf
Ġsp an
ĠÙĨ Ø¨
à±ģà°¤ à±įà°µ
Ġà¤¹à¥ģà¤ ı
Ġ9 2
m it
ad en
Ġo h
Ġn ay
t or
m el
ĠáĥĶáĥłáĥĹ áĥĲáĥĵ
ĠáĥĲáĥĽ áĥĳ
à¹ģà¸ ¡
Ġà°ļà±ĩà° ¶
larÄ±n a
Ġk ind
à°Ĥà°¡ à°¿
ĠÚĨ ÙĨØ¯
ĠW orld
Ġáĥ¡áĥĲáĥ Ĵ
t es
Ø¨ ÙĬØ±
Ġad i
ativ o
al y
ĠØ´ Ø®Øµ
æ´» åĬ¨
ĠáĥĻ áĥĲáĥľ
Ð½ÑĭÐ¼ Ð¸
Ġà¦¨à¦¿ à¦°à§įà¦¬
áĥĴ áĥĿáĥĽ
Ġtel ah
ĠL A
h op
Ġà¸ ľà¸
à±Ĥà° ²
Ġpor que
à°¾à°² à±ĭ
ĠIt alia
Ġåľ °
Ġp emb
ÏģÎŃ ÏĢÎµÎ¹
Ġáĥ¬ áĥĶáĥļáĥ¡
ĠÙħØ±Ø¯ Ùħ
ĠØª Ø¹Ø¯
Ġvers ch
áĥĵ áĥľáĥĶáĥľ
ĠáĥĴ áĥĲáĥ£áĥ
ĠE en
à®¾à® ª
¾ è®¯
at ori
v ÄĽ
Ð°ÑĤÑĮ ÑģÑı
ad u
Ġà¦ĩ à¦ī
ĠíĻ Ķ
ript ion
å¤ «
ak it
Ħ à¸²à¸£
ĠãĤ ¨
Ä° N
Ġh ard
×Ĳ ×ķ×ª
Ð¾Ð³ Ð´Ð°
Ġ200 2
å·¥ ç¨ĭ
ĠÙĨÛĮ Ø³Øª
Ġar asÄ±nda
Ġm ur
éģ İ
Ã¨ me
ĠÄĳ á»ĳi
áĥłáĥĴ áĥĲáĥľ
ÐµÐ½ Ð°
Ġáĥ¨áĥĶáĥ¡ áĥĲáĥ«áĥļ
Ġà°° à±ĭà°ľ
ì§ Ī
m az
à¤¤ à¥įà¤°
Ġng o
Ġc op
à¤ķ à¤¿à¤¨
Ħà¸§à¸²à¸ ¡à¹Ģà¸
Ġëĵ ¤
ãĢ į
ĠáĥĽ áĥ¨
ĠS ampai
ra ft
b at
Ġj aar
à¹Ĩ à¸
Ġsm art
ë¶Ģ íĦ°
ª à¸£à¹īà¸²à¸
Ġtiáº¿ p
åį ³
Ġé Ĺ
à®±à¯įà®ķ à¯ģ
pl ik
ĠT ar
åĲ ĥ
Ġíķ Ļ
æ± ½
éľĢ è¦ģ
à¦°à§įà¦ £
Ġì² Ń
Ġpam am
Ġp end
Ġà°ļ à°¾à°²
±à¸Ļà¸ Ĺà¸µà¹Ī
à®¾à® ªà¯įà®ª
à¤¾à¤ ĸ
Î´ ÎµÏĤ
Ġt araf
Ġik i
Ġà¦ªà¦° à¦¿à¦¬
Ġå Ģ
Ø§ÛĮ ÙĨ
Ġy ung
Ġåı ª
Ġà®Ĩà®© à®¾à®²à¯į
Ġed ib
ers te
ib ile
Ġth iáº¿t
ĠéĩįåºĨ æĹ¶æĹ¶å½©
ĠØª Øª
Ġp ant
ç´ ¢
Ġh á»Ļi
Ġà°ħ à°²
Ġà¦Ĩ à¦ľ
d at
à±ģà°¨ à±ģ
Ġà®İ à®²à¯įà®²
Ġk os
ÙĪÙĨ ÛĮ
å¤§åıĳ å¿«ä¸ī
éĵ ¾
Ġ×Ĳ ×Ļ×Ł
il li
Ġáĥ¨ áĥĿáĥłáĥĺáĥ¡
áĥĲáĥĽ áĥĺáĥ¡
¹à¸ ģ
ami ento
áĥĶáĥĳáĥ£áĥļáĥĺ áĥĲ
ĠMas k
Ðµ Ñī
ç²¾ åĵģ
v es
ess age
Ġè °
ãģĦ ãģĦ
á»Ń a
à¤¸ à¤¾
Ġcz as
r Ã©
ĸà¸ ¹à¸ģà¸
Ġf ung
Ġs ans
Ġà¤¦ à¥Ģ
Ġà¦¹ à¦ļ
×Ĳ ×Ķ
Ö ¶
ĠEn t
×ķ×ŀ ×¨
ĠSam sung
à°Ĥà° ¬
à¸µà¸¢à¸ ĩ
Ġpr ice
ĠM P
ä¹ Ŀ
Ùĥ ÙĪÙħ
Ġt áº¿
Ġal tern
is es
åĩ ¡
Ð¾Ð± Ñĭ
Ġì° ¨
ÙĦ ÙħØ§ÙĨ
ëł ¹
è¶³ çĲĥ
ĠáĥĽ áĥĶáĥĿ
ĠáĥĲáĥ ĺ
b or
Î´ Îµ
Ġtá» ķ
Ġåĳ ¨
Ġy ay
y en
Ġçİ ĭ
ĠS ing
ä¸Ń æĸĩ
ĠS H
à§ĭ à¦§
\\ \\
ans k
ĠØ§ÙĤ ØªØµ
ĠæŃ ¤
ar o
áĥĶáĥłáĥ Ľ
à°Ĥà°¦ à±ģà°ķà±ģ
æł ¸
M L
ĠÑį Ðº
Ġt Ã¡c
Y n
us z
Ġ×Ķ ×ľ
Ġ×ķ ×ľ×Ĳ
C D
å¤ ī
ãĥ¼ãĤ º
à¯Īà®¤à¯įà®¤ à¯ģ
¯ à§
Ð»Ñİ Ñĩ
ĠéĢ ģ
Ġp ed
Î» ÎµÎ¯
à®¿à®±à¯įà®ķ à¯ģ
Ġà¤¹à¥ĭ à¤¤à¤¾
åħ µ
eber apa
ĠáĥĽ áĥª
Ġda ar
ĠPro gram
Ġà¦ı à¦ĸà¦¨
Ġvá» ĭ
è´ ¢
Ġà°ī à°Ĥà°¦à°¿
ĠÙĩ Ø¯
ĠÕ ¢
Ġb az
æľ ĥ
áĥĶáĥĳ áĥĽáĥĲ
Ġlo áº¡i
ãģ£ãģ¦ ãģĦãĤĭ
ĠV an
à®© à¯įà®ª
Ġë° Ľ
ãĥª ãĥ¼
Ã¡ rios
à°Ł à±įà°²à±ģ
Ã¼n Ã¼
ĩà¸Ĺà¸°à¹Ģà¸ļà¸µà¸ ¢à¸Ļà¸
åĽ½ äº§
æĴŃ æĶ¾
å¤ļ å°ĳ
à¦¤ à§įà¦°
à§įà¦¯ à¦®
Ġà°µ à°°
ĠÃ Ģ
ĠK l
·à¸Ń à¸Ļà¸
Ø® Ø¯Ø§Ùħ
áĥĲáĥľ áĥĴ
à¦Ń à¦¾à¦¬à§ĩ
Ð¸ Ð¿
Ġ áŀ
à§ĭ à¦¸
Ġt Ã¬nh
en as
à¸Ļà¸± à¹īà¸Ļà¸
Ġà¦ªà§įà¦° à¦§à¦¾à¦¨
Ġë¡ ľ
ĠP lan
Ġbl ir
ãģ« ãĤĤ
ÑĦ Ð¾ÑĢÐ¼
ĠØªØŃ Øª
å¸ Ń
æ» ¡
ce j
ÅĻ i
Ġà®® à®Łà¯įà®Ł
Ġtak e
Ġmeng g
ŀà¸ ´à¸
ĠL and
ĠáĥĲáĥ £áĥ
Ġd od
ĠÏĢÎ¿Î» Ïį
åĨ Ļ
Ġs yn
à¹ģà¸ ķà¹Īà¸
ĠØ³ Ø§Ø¹Øª
§ à¸Ļ
Ġbil ÉĻr
Ã³ g
Ķ à¸µà¸¢à¸
ĠÏĢÎµ ÏģÎ¯
Ġì° ¸
Ġes per
áĥĲáĥĽ áĥĶáĥľáĥ¢
à®µ à¯Ī
ĠÃ©t Ã©
ĠMa x
Ġmom ento
ë£ ¨
âĢĭ âĢĭ
Ġà¤ľ à¤¾
ĠØ¢ ÛĮ
Ġnorm al
Ġo wn
ĠáĥĲáĥ Ļ
Ġà®ķ à¯ģà®´
or no
ĠIn t
ĠÃ Ĵ
ï¼ Ĵ
ĠÑģ Ð¾Ð±
ĠÐ½ Ð°Ð¿
ĠÏĢÎµ ÏģÎ¹ÏĥÏĥÏĮÏĦÎµ
ĠáĥŀáĥĿáĥļ áĥĺáĥ¢
ĠÃ ħ
ot to
ĠB ah
Ġiy ong
Ñī Ðµ
ĠVide os
ĠE k
à°¡ à°¾à°¨à°¿à°ķà°¿
ak er
ç½ Ĺ
Ġ? âĢĿ
à±įâĢĮ à°²à±ĭ
ÐµÐ½ Ð¸Ð¸
à§Ģ à¦¤
ìĿ´ ëĿ¼
Ġæ° ´
Ġà¤ªà¥įà¤° à¤¦
ĠÚ©Ø±Ø¯ ÙĨ
ĠÎŃÏĩ Î¿ÏħÎ½
r Ã³
Ġt ÃŃnh
éĥ¨ åĪĨ
r ik
imi ento
Ġà¤ľ à¤¨
Ġb Ã¼tÃ¼n
ĠØ² ÙĨØ¯
ÙĦ Ø§Ø«
Ã ħ
Ġà¨ ¦
Ġto pl
abil ir
Ð° ÑİÑī
ar Ã¡
ĠN u
ë¶ ģ
ĠI ch
ĠPor no
áĥĶáĥ £áĥļáĥĺ
Ġw a
à¹Ģà¸ Ľà¹ĩà¸Ļ
em ente
al im
ĠAll ah
Ġge en
v at
E V
Ġà¤¬ à¤¾à¤¤
à®µ à®¿à®²à¯įà®²à¯Ī
Ð¿ÑĢ Ð°Ð²
eg u
Ġé ¢
ĠS eb
à±ģà°Ĥà° ¡à°¾
à°¾à°Ĥà° Ł
ÉĻn c
Ġà¤¬ à¥Ī
Ġm ÉĻs
Ġë³ ´ë
on da
à¤ļà¥įà¤ ļ
Ġz aw
åį ĥ
Ġ×ŀ× ĸ
ÉĻs inin
ÙĪÙĦ Ø©
áĥ£áĥł áĥĺáĥ¡
Å¯ m
Ġà¦¸ à§įà¦¥
Ġà®® à®¿à®ķ
Ġbu y
a ft
Ġì ¶ľ
à°¾à°² à±įà°²à±ĭ
Ġf akt
al aki
und en
ak ing
Ġv ÄĽ
ect ed
áĥĲáĥł áĥĶáĥĳáĥĺáĥ¡
Ġà¦Ĩ à¦¹
Ġà¤²à¥ĩ à¤ķà¤¿à¤¨
áĥĲáĥł áĥĶáĥĿáĥĳ
Ġb ers
ÏĦ Ïİ
Ġj i
Ġsuc cess
Ġf act
Ġk g
Ġc áº§u
å¤§ å°ı
ĠHotel s
ĠáĥĻ áĥļ
ed es
Ġ7 00
áĥĲáĥ£áĥ ł
à¤µ à¤¾à¤°
ĠØª Ø®
ala xy
âĢ ĺ
Ġáĥĺáĥľáĥ¤ áĥĿáĥłáĥĽ
Ġì ½ľê±¸
Ì ī
â Ļ
Ġ×Ĳ ×ĸ
×Ĺ ×ķ×ª
Ġà®ħ à®³
Ġà¦¦ à¦¿à§Łà§ĩ
ib t
ĠPers on
Ġà¤¸à¤° à¤ķà¤¾à¤°
Ġl l
Ġag ain
Ú© Ø±Ø¯
Ġdeg li
Ġ ĆĈ
è§ ī
à´ ¯
ĠáĥĿ áĥłáĥĴáĥĲáĥľ
ad em
Ġh es
Ġt ap
Ġn l
Ð½ Ðµ
æĸ Ĺ
ir an
aj o
ate ur
Ġdev elop
ĠW ith
Łà¸¸à¸ķà¸ ļà¸Ńà¸¥
áĥĲáĥ« áĥĶ
Ġ9 18
ĠÎĳ Î½Î±
à¤°à¥įà¤ £
åĿ Ľ
Ġà®ħà®µ à®°à¯į
ĠJanu ary
ÑĤ ÑĮ
m os
ĠÐ ¯
Ġå¤ ļ
×ķ ×Ļ×ķ×ª
Ä±l masÄ±
Ð¸ÑĤ ÑģÑı
ÏģÎ¯ Î¶
ÑĢ Ñı
Ġà¦° à¦¾à¦ĸ
à±Ĩ à°ķ
ĠP op
or en
i Ã³n
Ġë Ī
Ġà®ı à®±à¯įà®ª
l us
ä¸į æĺ¯
Ġb ra
ÏĦÎ¹Îº ÏİÎ½
x _
Ġcom un
Ð°Ð¶ Ð´
æ¥ ½
åī ¯
ÏĦÎ¹Îº Î¿Ïį
Ġà°ª à±Ĭ
Ġre k
Ġà®ª à¯ģà®¤
à°® à±ģ
ĠolduÄŁ u
é ¸
à®Łà¯įà®Ł à¯ģ
Ġà®¨ à®¾à®Ł
ÏĦÎµ Î¯
ĠDes ign
Ð¼ Ð¸
Ġ×© ×Ľ
Ġ×ĳ ×¦
ĠØ¨Ø± Ø®
ord an
Ġt ub
Ġà¦¦ à¦²
à§Ģ à¦¦à§ĩà¦°
ĠìĹ Ń
ĠÑģ Ð¾Ð²
ĠÙħ Ø§ÙĨ
ÄŁ a
Ġph ÃŃ
ĠH ot
à¦² à§įà¦ª
Ġà®® à®ķ
l Ã¼k
Ġà®µà®¿à® ³
Ġg em
ĠN on
à¦¿à¦ Ĺ
ÑĢ Ð°ÑĤ
ĠÃ Ļ
Ġare a
· ¨
Ġà¤¦ à¤¿à¤¨
Ġd own
Ġbah wa
Ùģ Ùĩ
ĠØ· Ø±ØŃ
ê» ĺ
Ġà¦Ń à¦¾à¦²
è§ Ĵ
Ġà¤ħ à¤¬
j ek
Ġà¤ ĵ
ĠÄ ĥn
ÙĨ ÙĬÙĨ
à¤¾à¤ «
çº¿ ä¸Ĭ
à¥ĩ à¤¨
ot her
Ġà®ħà®µ à®°
åĪĨéĴŁ å¿«ä¸ī
Ã¸ k
å± Ĥ
à¦¿à¦ ĵ
å¾ Ģ
Ġà¸ Ľà¸
Ð½Ð° Ñĩ
ĠáĥĽ áĥĲáĥłáĥ¢
ĠÙĩÙħ Ùĩ
ĠØ®ÙĪØ¯ Ø±ÙĪ
Ġr um
Øµ Ø©
ÑģÐº Ð°Ñı
ez e
ĠØ¨ Ø²Ø±
ag on
Ġspec ial
Ġt ego
×¢ ×Ļ×Ŀ
v ik
ÏĦ Ïģ
ÉĻl ÉĻri
ç¼ ĸ
ĠÑģ ÐµÑĢ
Ġç ¼
ĠT L
Ġfamil y
à¤Ĥ à¤ª
Ùģ Ø©
Ø¯ Ùī
b urg
is p
Ä±n d
å¦Ĥ ä½ķ
Ġsist ema
ÐµÑĤ ÑĮ
Ġà¸ªà¹Īà¸ĩà¹Ģà¸ ĩà¸´à¸Ļà¸ļà¸²à¸Ĺà¹Ħà¸Ĺà¸¢
Ġ äºĨ
Ġ... ..
Ġé ĥ
×¨ ×ĵ
Ã¡ st
à±Ĩ à°¨
ªà¸²à¸¡à¸²à¸£à¸ ĸà¸
ĵ ľ
Ġb áº£n
æ¿ Ģ
ÑģÑĤÐ² Ð¾
ow o
Ġm Å¯
Ġm ac
ĠM u
Ġíķ ¨
and id
ĠÄĳ o
ĠÃ´ ng
b ox
Ġan meld
ĠÃ Ĭ
æİ ¢
Ã§ ek
Ġà¤° à¥Ĥà¤ª
Ġcon ta
æŃ ¦
w ork
Ġdi fer
Ġb ang
Ġb em
f ol
ĠØ¹ Ø±Ø¶
åĸ Ħ
ãģĭ ãģª
Î¹Î¿ ÏĤ
ĠUS B
Ġh ol
Ġà® Ĳ
is in
ack ing
olog ia
Ġfor um
Ø² ÙĬ
Ġe ach
Ã© p
ĠáĥĽ áĥľáĥĺáĥ¨áĥķáĥľáĥĶáĥļ
Ġbr and
ĠØªÙĪØ³ Ø·
Ġà¤ľ à¤¾à¤¨
Ġan ni
Ġ ÉĻl
emp o
8 3
Ġà¸¥à¸ ĩà¸Ĺà¸°à¹Ģà¸ļà¸µà¸¢à¸Ļà¸
Ø Ł
ĠL at
Ġqu áº£
8 4
ĠN az
à¦¾à¦¥ à§ĩ
Ùĩ ÙĪØ±
ĠB ro
ĠØ®ÙĪ Ø§ÙĩØ¯
Ġt áº¡o
ĠÛ µ
l s
é¡ Į
Þ ¦
Ġm ÉĻh
Ð¸Ðº Ð°
Ġtut ti
Ġ ÅĻ
un o
Ġäºļæ¸¸ åĽ½éĻħ
Ġà¦¸ à§ģ
çº ª
Ġdal la
å®¢æĪ·ç«¯ ä¸ĭè½½
è¿ ľ
Ġà°® à°¾à°Ł
Ġs wo
à¦¿à¦¨ à§įà¦¨
c ell
ĠìĦľ ìļ¸
à¯ģà®ķ à®¿à®©à¯įà®±
ÙĲ ÙĨ
ĠðŁ ĺ
Ġáĥª áĥ®áĥĿáĥķáĥł
Ġz al
Ġorgan is
om as
Ġpro ject
m uÅŁ
if i
Ġl id
et ta
ĠØ³Ø§Ø² ÙħØ§ÙĨ
Ġ×ĳ ×ŀ
ĠQ ue
Ġè Ĭ
ĠáĥĶ áĥł
d om
C h
j el
Ġis e
Ġà°ħ à°¦
Ġf und
à¹Ģà¸£ à¸²
Ġu00 3
ĠÙĨ ÙĪØ¹
â Ĺ
Ġí Ŀ
d ek
ĠåĽ Ľ
à®Ļà¯įà®ķà®³ à¯Ī
j u
Î³ Îµ
ie g
Ġà®ī à®¯
Ġì ½Ķ
Ģ ìĿ´
Ġ' :
Ġà¦Ĩà¦® à¦°à¦¾
à¦¾à¦ ¡
Ġà°ªà±įà°°à°Ń à±ģà°¤à±įà°µ
ĠØ¬ Ø§ÙĨ
Ġt ÉĻh
Ġi hr
Ġl ahat
ĠÐºÐ¾Ð¼ Ð¿
ÙĪ Ø§ÙĦ
ilm ÉĻsi
à§Ł à§ĩà¦°
áĥ£áĥłáĥ Ĺ
×ĳ×ķ×ĵ ×Ķ
Ġà¸¥à¸ĩà¸Ĺà¸°à¹Ģà¸ļà¸µà¸¢à¸Ļà¸ Łà¸£à¸µ
ĠagåĽ½éĻħ åİħ
ĠÐ¾ Ðº
à¥įà¤¯ à¥Ĥ
Ġà¸ Ī
áĥĲáĥľ áĥĺáĥĲ
ãĤĮ ãģŁ
Ġà®®à¯ĩ à®²
åĲĪ ä½ľ
ĠÐł Ð¾ÑģÑģ
il ib
Ġgi Ãºp
z z
à±ĭ à°Ĥà°¦à°¿
er de
Īà¸ ģ
Ġáĥ§áĥĿáĥķ áĥĶáĥļ
ì§ ĳ
at ic
áĥĲáĥ¡ áĥ¢
áĥĺáĥĻ áĥĺáĥ¡
ĠJ a
å ĺ
Ø² Ø©
Ġ×ŀ× ĺ
ĠÙĨ Øª
Ġà®¤ à®°
Ġà®ĩ à®²
Ġl ag
íĮ Ĳ
Ġk eh
¢à¸ ±à¸ĩà¸
ĠØ¯Ø§ÙĨØ´ Ú¯Ø§Ùĩ
ãĥ ľ
Ġpr ima
ãĥ ļ
à¦¾à¦¨ à¦¾
à¸Ńà¸ °
Ġal ler
Ġt ÄĽ
Ġà¹Ģà¸ Ľà¹ĩà¸Ļà¸
r ÉĻ
ĠÙĪ ÙĦÙĥ
ob re
cl us
Ġà¤ķà¤° à¤£
×Ļ× £
up akan
Ã¬ m
çļĦ ä¸Ģ
ĠOct ober
à°¿à° ¶
aw ala
à®® à¯įà®®
Ġtah un
Ad visor
Ã¤ ng
Ġà¦¤ à¦¬à§ĩ
ë¦ ½
ov Ã½
çĻ» éĻĨ
h et
Ġp k
Ġhá» ĵ
Îµ ÏģÎ³
ĠO g
ĠRe al
g ent
Ġè ²
Ġà®ļ à¯ĩà®°
ed s
à¸£à¸ ¹à¸
ì´ Ī
ĠS A
ĠRed ir
×ŀ× Ĺ
èĳ Ĺ
Ġg ed
ĠG od
Ġ à¹Ħà¸
à¦¿à¦ ĸ
ail able
Ġt ecn
à¤® à¥ĩà¤Ĥ
ĠÎ±Ïħ ÏĦÎ®
ç§ĳ æĬĢ
ëŀ ĳ
à¥ĭ à¤ª
Ġ×ŀ×Ĺ×Ļ×¨ ×ķ×Ł
ĠÐ· Ð°Ð¿
íİ ¸
ĠÛ ´
Ġdis pos
àª ¾
Ġm ember
à®® à¯ģà®®à¯į
st ell
ìľ ¡
is an
Ġà¤¥ à¥ĩ
Ġv Å¡e
ĠØ¢ Ø±
b ud
Ġt w
Ġà¸ªà¸ ¥à¹ĩà¸Ńà¸ķ
Ġà¦ªà¦° à§įà¦¯
elij ke
ë² Ī
es ar
ag gi
uj c
ĠÙħØ¬ ÙĦØ³
Ð² Ð¾Ð´
uyá» ĥn
ĠUn ter
à¸Ļ à¹Įà¸
Ġà¦¤ à¦¾
ĠØª Ø·
Ġà¤Ĩ à¤°
Ġhá» ĩ
Ġm ic
à®µ à®°
Ġ" >
ĠáĥĲáĥ¦ áĥĽ
Ġà¸ Ľà¸£à¸°à¸
ĠAp ple
ĠìľĦ íķ´
à¤ ģ
il ÉĻn
Ġhan ya
leg g
Ġimport ant
y Ã¼k
éª Ĺ
Ġty l
Ġ{ "
Ġà¦® à¦¾à¦°
ĠmÃª me
¥à¸ ĩ
à¥ ¦
ëĭ¤ ëĬĶ
×¨ ×Ĺ
Ġà¤Ĩ à¤¯
Ġà¦ľ à¦¾à¦¤
åİĨ åı²
ĠÐ± Ð¾Ð»ÑĮÑĪ
èª ī
Ġth Ã¡ng
Ġt ijd
ĠØ§ÙĦ Ø¨Ø±
O ST
èµ ļ
Ġà¦¸ à§ĩà¦ĩ
ĠL in
_ t
à¤¾à¤Ĥ à¤¨à¤¾
Ð¾ Ñī
à§ģà¦ §
ĠØ¨Ø¯ ÙĪÙĨ
Ġh app
Ġå¤ ĸ
Ġà¹Ĥà¸Ľà¸£à¹Ĥà¸¡à¸ Ĭà¸±à¹Īà¸Ļ
Ġac qu
ê° Ĳ
ĠÙĨ ÙģØ³
à¹ĥà¸Ĭà¹īà¸ Łà¸£à¸µ
Ġà¦ķà¦¾à¦° à¦£
ĠáĥĲáĥĵáĥĴ áĥĺáĥļ
Ġb ad
ĠÙĪØ§ÙĦ Ø£
Ġ×Ľ ×ĵ×Ļ
Î¿Î¹Î½ ÏīÎ½
ÏĨ Î®
ÎµÎ¯ Î¿
Ġáĥ§áĥķáĥĶáĥļ áĥĲáĥĸáĥĶ
Ġáĥ¨áĥĶáĥ ®
å· ®
à§Ģ à¦Ĺ
åħ °
à°¿à°¨ à±įà°¨
Ð¾Ð» Ð¾Ð³
áĥĵ áĥĶ
íĺ Ħ
Ġmak s
h h
Ġc ustom
ì¸ ł
Ġ ÉĻn
âĢĮ âĢĮ
Ø±ÙĪ Ø¹
Ġen er
ĠÏĢÎ¿Î» Î¹
ual iz
Ġh ÉĻy
Ġà´ ª
ÙĨØ¯ ÛĮ
b b
Ġà®ļ à®¨à¯įà®¤
ĠSex o
Ø§Ø³ Ùħ
B C
à°¾à°· à±įà°Łà±įà°°
Ġm ÉĻ
ĠÙĨ Øµ
lar dan
ĠØ£ÙĨ Ùĩ
Ġph áº§n
ì£¼ ì¶ľìŀ¥
Ġèī ²
Ġà°¸ à±įà°¥
Ġà¤ķà¤° à¤¤à¥ĩ
ĠÃ¶ ÄŁ
Ġx xx
ĠÄĳ iá»ĩn
Ġà¦¹ à¦¿à¦¸
ĠÏĢ ÏģÏī
Ñ ĸ
à¦¨à§įà¦ ¨
Ġpod er
Ġà¦¶ à§ģà¦°à§ģ
Ġh im
à¥įà¤¯ à¤¾à¤¸
Ġf est
à¤Ĥ à¤ķ
Ġext ra
ĠØ¯Ø§Ø´ Øª
à¤² à¥įà¤¯à¤¾
ĠC a
Ġ11 0
ĠØ¨ Ø·
Ġon un
à¦¿à¦ ı
au f
ĠØµ Ø¯
à°° à°¿à°ķ
ÙĬ Ø·
Ġm l
Ġv ur
Ġy en
Ġn oss
Ġp ut
Ġà¸Ĺà¸Ķà¸¥à¸Ńà¸ĩ à¹ĥà¸Ĭà¹īà¸Łà¸£à¸µ
ĠK at
Ø´ Ùħ
×Ļ×¢ ×Ķ
à¦ŀ à§įà¦ľ
Ġm iss
à¯įà®¨à¯įà®¤ à¯ģ
ĸà¸¶à¸ ĩ
ê² ł
Ø¨ Ø§Øª
Ġh ak
à®µ à®°à¯į
ĠÙħÛĮâĢĮ Ø´ÙĪØ¯
Æ° u
Ġáĥŀáĥł áĥĿáĥª
ĠÂ ¡
Ġk v
ĠØ¬ Ø²
ĠP at
à±ģà°² à°ķà±ģ
ç» ĩ
ĠCh ina
à¤ķà¥įà¤ ¸
ĠÙģØ¹ Ø§ÙĦ
T S
à¥Ģ à¤°
à¤µ à¤¾
ess a
à°¾à°Ł à±ģ
Ġà¤° à¤¹à¥Ģ
am er
ort s
Ġo tt
C O
Ġ×ĳ ×ĺ
Ø¹ ÛĮ
à¯Īà® ®
à§ĩà¦² à§ĩ
Ġà¤® à¤¨
Ġ' )
áĥľ áĥĺ
ĠÎ£ Ïħ
ĠÄĳ áº¹p
èı ľ
Ġé ©
Ð¸Ðº Ð¸
ĠØ³ ÙĦØ§Ùħ
b on
ac ter
I j
ĠÑĤ Ð¾Ð»ÑĮÐºÐ¾
à¤¾à¤ ³
åŁ ¹
Ġà°ªà±Ĩ à°Łà±įà°Ł
Ġar k
Ġë¬ ´ë
B N
áĥĽ áĥĺ
ĠÏĢ ÏĮ
Ġæ Ł
åŃ ©
åħ ¸
Ġåı °
Ġà¦ķ à§ĩà¦¨
Ġê ´ĳ
ĠB R
Ġpu ede
è® ²
à¦¾à¦ ī
áĥĲáĥľ áĥĲ
Ġäºļæ¸¸ ag
Ġf ant
Ú¯ÛĮ Ø±ÛĮ
ĠÄ° l
ÄŁ ini
Ġz ab
ĠâĹ ı
Ġm Ã¶
H otel
l iv
ĠEurop e
Ø§Ø¨ Ø±
à¤¹ à¤°
ªà¹Īà¸§ à¸Ļà¸
Ġc amb
ĠÏĦ Îµ
ĠV iew
à®µ à®°à¯įà®ķà®³
æĸ¹ éĿ¢
ÑģÑĤ ÑĮ
ĠM ore
o od
ÉĻn i
Ø³ ÙĦØ§Ùħ
Ġ Å¼
ĠØ± Ø¦ÙĬØ³
Ġp ier
ÙĩâĢĮ Ø§ÛĮ
ard en
ĠW ir
à· ı
p li
ĠN av
åĪ ¤
Ġà¦¤à¦¾à¦° à¦¾
×Ĺ ×ĵ
Ġpa a
é §
Ġpr ime
àµįà´ ¤
ar on
Ġd á»ĭch
Äħ z
Ã§ e
æĹł çłģ
ĠÎĵ Î¹Î±
Ġå §
Ġper form
ĠÐ¸Ð½ ÑĤÐµÑĢ
Ġk end
«à¸ §à¸
uc k
ĠáĥĴáĥĲáĥľ áĥĽ
ĠDec ember
à®Ł à¯įà®ļ
ĠçĽ ¸
ç ĩ
ij k
Ø¬ Ø§Ø¯
Ø§Ø³ ÙĬ
ĠÐ´ ÐµÐ»
Ġs ama
èµĦ æºĲ
ĠØ® Ø¯
ÐµÑĢ Ð°
à¥ĩ à¤ķ
äºº åĳĺ
áĥ¦ áĥķ
Ġf riend
áĥĲáĥ¡ áĥĹáĥĲáĥľ
Ġà®® à®¾à®¤
ĠÃ¼z er
Ġà®ħ à®ªà¯įà®ª
Ø² Ø§ÙĨ
Ġå¹ ´
Ø¬ Ø¯
er ne
æį ¢
ÉĻb ÉĻr
æī ¾
å®ĺæĸ¹ ä¸ĭè½½
ĠÃ ¤
Ġst an
Ġt on
á»Ļ ng
Ġáĥ¡ áĥĻ
ac aÄŁ
×© ×Ļ
ett en
Ġà¦ı à¦²
Ġus ed
Ġna z
Ã¸ re
ãģ£ ãģ¨
Â ´
à®¨à¯įà®¤ à¯ģ
d Ã¼
M P
Ð° ÐµÐ¼
Ġt ÉĻÅŁ
ors o
ab an
à±Ģ à°¡
Ð Ľ
Ġç µ
Ġel le
ĠK an
ĠC ast
à¯ģà® Ļà¯įà®ķ
iz met
Ġ ÏĪ
ĠÎºÎ± Î»
Ġh ari
ĠT est
áĥĶáĥł áĥĲ
ĠáĥĽáĥĿáĥ ¥
ĠÐ¿Ð¾Ð» ÑĥÑĩ
ĠæĽ ´
ĠÎķ Ïħ
Ġam b
eder land
Ġperson al
Ġre ce
g n
Ġhan no
Ġd ou
Ġ200 1
áĥĺáĥ ¬
ab les
N A
ÑĤ Ð¾Ð¼
T R
ĠÅŁ ek
ĠÃĸ z
à¹Ģà¸£ à¹ĩà¸
áĥĿáĥļ áĥĿáĥĴ
ĠV el
ĠFebru ary
Ġse arch
è´ §
Î¼ Î¼Î±
ªà¸³à¸« à¸£à¸±à¸ļà¸
Ġte am
¡à¸ ·à¸Ńà¸
ÑĢ Ð°Ð²
ĠFran ce
Ġim pl
ĠM ur
åķĨ åĵģ
ON G
Ġve el
Ġval ue
Ġve ya
Ġà¦® à§ģ
Ġst or
ut sch
Ġåį ģ
ĠáĥĲáĥłáĥ ª
ÙĦÙĬ ÙĦ
Õ¡Õ £
Ġbet 365
Ġch u
ĠáĥĵáĥĲáĥ ĳ
od u
Ġw sp
Ġsus o
à®ļ à¯į
st yr
à±ģà°Ĺ à±ģ
å·² ç»ı
Ð³ Ð°Ð½
Ġà®İà®© à¯į
à±Ĩ à°°
ĠÎł Îµ
ÐµÐ½ Ð½Ð¾
Ħà¸£à¸ ±à¹īà¸ĩ
ul as
à¯Ĥ à®°
b ed
Ã³ s
ĠA le
Ġà¸ŀ à¸Ļà¸
åł´ åĲĪ
Î»Î¿ Î¹
Ġat Ã©
Ġáĥ Ł
Ġl um
Ø¨ÙĬ Ø¹
Ġ9 00
ĠÙħÙĪÙĤ Ø¹
à¤¿à¤ ¦
ĠÏĩ Ïī
áĥĿáĥ¤ áĥļ
ĠØ§ÙĦÙĤ Ø±
à¯Īà®ķà¯įà®ķ à¯ģ
Ġà¤ī à¤¤
æĻĤ éĸĵ
p ie
ĠÕ ½
Ġor der
ÏĦ Î®ÏĤ
ig t
Ġmen c
åª Ĵ
ŀ à¸²à¸
m ier
r ing
ÏĢÎ¬ ÏģÏĩ
Ġà®ī à®±
Ð¾Ð² Ð¾ÑĢ
on om
ĠØ¨Ø§Ø² Ø§Ø±
Ġ7 1
ë©´ ìĦľ
ĠÙĥØ§ÙĨ Øª
ar en
Ġ à¹
à°¾à°° à°¾
Ġ, -
áĥĶáĥł áĥĶáĥ¡
ĠB iz
ĠgÃ¶st ÉĻr
Ġba ik
Ø§Øª ÛĮ
ĠÏĦ ÎŃ
ĠÙĨÙħ Ø§ÛĮ
Ġw erk
Å¾ it
Ġà¹Ĥà¸Ķà¸ ¢
à¦ķ à§ĩà¦°
Ġpr est
Ġáĥ©áĥĶáĥĽ áĥĺ
Ġà¦¸ à¦¾à¦¥à§ĩ
çµ Ĳ
ke it
à¹Ģà¸ ¡à¸
è® ¸
à´ Ĥ
ØŃØ¯ Ø©
Ġtyl ko
ĠÙĪÙĩ ÙĪ
ĠØ£ Ø®
Þ¦ Þ
Ġakt iv
k ur
Ġà®¤ à¯ĭ
ÑĥÐ»ÑĮ ÑĤ
Ïĥ Ïĩ
áĥł áĥĿáĥĳ
Ġl am
ĠR el
ĠI r
Ð¸Ð¼ Ð¸
Ġq al
Ġ×© ×§
ĠÐ¿ÑĢ Ð¾Ð²
ĠØ§ÙĦÙħ Ø±
Ø¯ ÙĨ
Ġse pt
áĥł áĥĲáĥ¤
ĠâĦ ¢
ª à¸Ļà¸
éŁ ©
ĠÐ² Ð¾
æ¹ ¾
à°°à±įà° ļ
ep at
Ġtr ang
8 2
Ġt ÉĻs
ĠPar is
Ġtá» Ľi
ÏģÎ± Îº
áĥĲáĥ¢ áĥĺ
Ø¸ Ø±
Ġ: #
Ġà¤ķà¤° à¥ĩà¤Ĥ
ãģĿ ãģĨ
Ġ ara
Ġà¸ ļà¸
Ġkter Ã½
Ġ- --
Ø¨ Ø§
ĠÐ¶ Ðµ
Ġth ink
Ġæ¬ §ç¾İ
æĶ »
Ġfoll ow
æ£ĭçīĮ æ¸¸æĪı
Ġre ad
ī ´
å¥ ¹
ĠØ± Ø¯
ÅĤ u
à°Ĺ à±įà°Ĺ
re et
Ġà®ħ à®²à¯įà®²
ĠBr asil
Ġà¦ª à§ģà¦²
ãģķãĤĮ ãģ¦
à®² à®¿à®²à¯į
Ġå® ¶
å¥½ çļĦ
Ġu c
å¥ Ĺ
Ġse hr
ĠTh ere
æĭ ħ
ĠWh at
à®¿à®¯ à¯ĩ
art en
Ġà°¨ à°¾
Ġloc ation
×Ļ×ª ×Ķ
ĠolduÄŁ unu
ĠèĢ ģ
ĠãĤ Ĵ
ĠØ® Øµ
ÙĤ Øª
á ĭ
Ú© Ø§Ø±
Ġw enn
Ġà¦¹à¦ļ à§įà¦Ľà§ĩ
d 88
ĠM ga
ĠÙģ ÙĨ
Ã¦r t
ÏĦÎ¿ Î½
áĥĺáĥľ áĥĴ
ÙĬÙĦ Ø©
ĠL ond
éķ ĩ
Ġq ÉĻd
ĠØ® Ø§Ø±Ø¬
\ /
Ð°Ð½ Ð´
ĠÎĺ Îµ
ÑĢ Ð°Ð¼
ÎĳÎ ¡
ĠF il
ç· ļ
Ġth Æ°á»Ŀng
ez a
éĽĨåĽ¢ å®ĺç½ĳ
ä¾ Ĩ
ĠÃ Ĥ
ĠG el
Ġl ÃŃ
olog ie
5 00
ê² °
×ķ×ľ ×Ļ×Ŀ
I ST
Ġà¤ķ à¥įà¤¯à¤¾
Ġë¬ ¼
Ġà¤Ĩ à¤µ
Ġf ace
åĿ ĩ
3 d
Ġà°ªà°¾à°° à±įà°Ł
Ø³Øª Ùħ
µ à¹Īà¸
Ġo ss
Ġpre v
ä¸ Ķ
Ġà°¤ à°°
Â ¡Â
à±ĩ à°²
Ġa Ã±os
ĠØ§ÛĮÙĨ Ú©Ùĩ
Ġph Ã¡p
Ġáĥ© áĥĲáĥĽ
à±ģà° ļ
ĠáĥĵáĥĲáĥ £áĥ
Ġà¦¸ à¦ķ
Ġgi áº£i
å± Ĭ
è® Ń
à¦¥ à¦®
Ġm iej
ĠÎķ Î»Î»Î¬
Ġal Ä±n
Ġt ung
Î¬ Î¶
id ing
Ġé¦ ĸ
Ïĥ ÏĦÎ¬
åĨħ å®¹
ÃŃ vel
Ġà®ª à¯ĩà®ļ
Õ¡Õ °
b sp
Ġ×¦ ×¨
ĠS ar
Ġà®ķ à®¿à®Ł
åģ ľ
è Ĵ
Ġ ä¼ļ
== ==
ĠB it
ĠSa int
_ d
ĠĈ Ĉ
ul os
Õ £
ć ï¼Į
t n
à¦¾à¦° à§įà¦¥
ãĤ Ģ
à¹Ĥà¸£à¸ĩ à¹ģà¸£à¸
Ð¸ ÑĪ
à®¿à®¯ à®¿à®©à¯į
ĠÐ»Ñİ Ð±
Ġkh u
Ġà¤ªà¤¹ à¤²à¥ĩ
ĠÑĢ ÑĥÐ±
Ġà¦¬ à¦¿à¦°
à® ľ
åģ ·
sch aft
Ġ à¹Ħà¸¡à¹Ī
ĠâĦ ĸ
Ġtip o
ĠÙĨ ÙĪ
is en
ĠÙĬ Ø§
è´ Ł
ãĥĥ ãĥī
à±ĭ à°Ł
áĥĶáĥľ áĥĺ
Ø§Ùħ ÛĮ
ÏĦ ÏģÎ±
Ġà¦¨ à§ĩà¦¤
Ġv as
Ø±ÙĪ Ùĩ
I AN
çĶ £
à¦¾à¦ Ń
à¤ļ à¥įà¤¯à¤¾
Ġl ing
Ġà¤® à¥įà¤¹
al en
Ġsch ool
Ġconst ru
ãĥ» ãĥ»
Ïĩ Î±Î½
¥à¸ ¹à¸ģà¸
×Ļ×ķ×ª ×¨
ĠI h
ĠÃ İ
Ġb aw
Ùĩ Ùı
B O
[ ]
ĠP ower
ĠçĶ ¨
ÙĬÙĨ ÙĬ
ight s
Ġà®Ĩ à®°
ç§ »
Ú¯ Ùĩ
Ġpe ut
à¯Ĭ à®°
ert y
ĠÙĦ Ùĥ
Ġê²½ ìļ°
Ġà°Ĩ à°°
Ġê° Ħ
Î½Î¿ ÏĤ
ĠÕ ¾
Ġà¤ķà¥ĭ à¤Ī
Ġà¦¸ à¦Ń
ĠÎµ Î¹
à¦¨à§įà¦¤à§įà¦° à§Ģ
und an
ÅĽ cie
er te
b um
Ġ" }
Ġà¤®à¥Ī à¤Ĥ
Ġdan n
æĥħ åĨµ
Ġl ov
x i
à¤Ĥà¤¤ à¥įà¤°à¥Ģ
Ġnatur al
Ġn ev
Ġim ages
á»Ł i
ļ à¸Ļà¸
ªà¸ ¥à¹ĩà¸Ńà¸ķ
Ġæı Ĳ
Ġv iel
Ġth o
Ľà¸£à¸°à¹Ģà¸Ĺà¸ ¨
ĠãĢ Ĺ
ĠT rav
Ġà¦ªà§įà¦° à¦¶
áĥĿ áĥĲ
re c
Ġà§§à§ ¦
ĠØ® ÛĮ
ĠØ¨Ø³ÛĮ Ø§Ø±
Ġch á»©c
Ĥ à¸²
à°¾à°¨ à°¿
12 3
Ð¸ ÑĢÑĥ
Ä ŀ
un j
ĠA kt
«à¸¥à¸ ±à¸ĩà¸
Ġv z
Ġà°İ à°¨à±įà°¨
Ġà¦¸ à¦¦
Ġ% ,
in ho
Ġho áº·c
Ļ à¯įà®ķà®³à¯į
ĠG R
Ġb ude
Ð» Ð°ÑģÑĤ
áĥĺáĥļáĥĺ áĥĲ
Ø§Ø´ Øª
Îº Î·
Ġà¨ ķ
Ġáĥ©áĥķáĥĶáĥľ áĥĺ
Ġà°¨à±ģà°Ĥà° ¡à°¿
Ġáĥ£áĥĻ áĥķáĥĶ
ĠÙħÛĮ ÙĦÛĮ
ĠØ§ÙĦ Ø¶
Ġu0 9
æ ĩ
áĥĲáĥ¡ áĥ£áĥ®
ĠC Ã´ng
æ¯ į
à±Ĩ à°Ĥà°Ł
¥à¸ ±à¸ĩà¸
ÐµÐ½ Ñĭ
ĠÏĥ Î¿Ïħ
ĠÄĳ áº¡i
Ġáĥ¨ áĥĶáĥķ
ler ini
Ġi h
Ġà¹Ģà¸ ĩà¸´à¸Ļà¸
h ad
à¹ģà¸ ģ
Ø¶ Ø§Ø¡
ģà¸ ¥à¸²à¸
Ġd ÉĻy
ĠìĥĿ ê°ģ
å° Ħ
Î¸ Î½
h ou
ĠJ ust
ë ¨
ĠS um
ãĥĨ ãĤ£
Ġ×ª ×§
ĠÎ¿ Î¹ÎºÎ¿
Ľ à¸µ
ê² ĥ
ĠÐ¡ ÑĤ
Ġinte gr
ĠA ust
Ġd Ã¹ng
Ĺà¸ ĺà¸
à¯ĩ à®¯
az on
Ùģ Ø§ÙĤ
Ġs ug
Ð¾ÑĤ Ð¾Ð²
Ø§Ø³ Ø©
ÅĤ Äħ
77 7
Ġãģĵ ãĤĮ
olog i
Ġå± ±
ê· ¼
åĲ ¬
Ġdo es
Ġgiá» Ľi
áĥĶáĥĳáĥĺáĥ¡ áĥĲ
m ark
à¯Īà®¯ à®¾à®ķ
ç´ Ħ
C E
Ġaus si
à±ĭ à°¦
à¥ ¤
Ø³ Ø§ÙĦ
eh r
ãĤĭ ãģ¨
×ĳ×¨ ×Ķ
es p
Ġng a
Ġáĥ¡ áĥ£áĥļ
êµŃ ìĿ¸
ĠØ¨ÛĮØ´ ØªØ±
é¢Ħ æµĭ
á Ĭ
Ġtr at
åĽ¾ çīĩ
ëĬĶ ëį°
Ġãĥ ĳ
Ġr app
à°¾à° ļ
ĠSt ud
Ġà®ªà®¾à®° à¯įà®¤à¯įà®¤
Ġb ilm
Ġà°¸ à±įà°Ł
ĠÙ¾ Ø±Ø¯
×ķ×¨ ×ª
à®Ļà¯įà®ķà®³ à®¿à®²à¯į
Ġé¦ Ļ
à¥ĩà¤Ĥ à¤¦
à¥ĩ à¤®
ĠÏĢ ÏģÎŃÏĢÎµÎ¹
Ġçľ ĭ
ê¸ Ģ
ëª ©
Ġro om
Ġáĥ¨ áĥĶáĥĴ
Ġà¤Ĺ à¤Ī
Ġà¤µ à¤¿à¤ķ
ĠÐĿ Ð°
Ġmer upakan
à±įà°¯ à±Ĥà°
áĥ¡ áĥĲáĥª
à±ģà°Ĥà° ¡
×ĺ ×Ļ
Ġi be
Ġ×©×ľ ×Ĳ
à¤ Ĩ
Ð ĵ
Ġnh iÃªn
Ġpr Ã©s
¨à¸ ¶à¸
çľŁ çļĦ
ĠOr gan
in ar
èĦ ĳ
à¹Ģà¸¥ à¹Īà¸Ļà¸
ÉĻn d
ĠInd ia
ĠAl le
à¦² à¦¾
w ays
Ġg ev
ur os
Ġãĥ ©
à®Ł à¯į
Ġon s
ĠL oc
Ġà°ķà±ĭ à°¸à°Ĥ
Î»Î¿ Ïį
à±ģà°² à°¨à±ģ
Ġáĥ« áĥĲáĥļ
Ð»Ð¸ Ñĩ
Ġ×¢ ×ķ×ĵ
Ġà¸ ¡à¸µ
Ġibe x_
ÐµÐ½ Ð¸Ð¹
eb r
ĠáĥĻáĥĺáĥĵ áĥĶáĥķ
ĠT ek
ĠS w
Ġcompl et
ĠE U
×ķ×¨ ×Ļ
ĠpÅĻ i
à°¿à° ¡
ä¹ ¡
ãĤ ¶
ª áĥ®
Ġà¤¦ à¥įà¤µ
à¤°à¥įà¤ ľ
Ġqu el
Ġà®ļ à®°
×Ļ×ŀ ×Ķ
Ġç§ Ĵ
Ð¼ ÐµÑĢ
Ġmod o
Ġc ult
ĵ à¹Įà¸
© ëĭĪëĭ¤
æīĭæľºå®¢æĪ·ç«¯ ä¸ĭè½½
ĠÐŀ ÑĤ
Ã¼ ck
Ø§Ø¹ Ø¯
Ġd Ã¼
Ø§Ø¬ Ùĩ
Ġáĥĺáĥ¥ áĥľáĥĶáĥĳáĥĲ
il di
Ġà®ĩ à®±
è² »
ìĺ ¨
Ã© nÃ©
ĠáĥĲáĥ ĸ
·à¹Ī à¸Ļ
èĲ Ħ
à®¿à®ķà¯įà®ķ à¯ģ
Ġà¦Ĩ à¦Ľà§ĩ
ĠQ ual
ÄŁ lu
ĠM es
Ġinter ess
¥à¸ ĩà¸
ĠáĥĽ áĥĺáĥľ
Ġãĥ Ī
Ġsec ond
Ġre ally
ĠáĥĵáĥĲáĥ Ĵ
Ġà§ §
Ġpa ÃŃs
Ġáĥ¡áĥĲáĥĻ áĥ£áĥĹ
ĠV or
Ġs ier
Ġh ost
Ġcont ra
na j
Ġd ent
Ġà®ħà®µ à®°à¯įà®ķà®³
Ġ×ĵ ×ĳ×¨
åŁİ å¸Ĥ
Ġt iene
Ġ ä¿Ŀ
O U
è®¾ è®¡
çª ģ
ÐµÐ¼ Ñĥ
ab el
Î¼ÎŃ Î½Î·
Ġespec ial
ĠP H
ìĸ ¸
Ġd un
×¤ ×Ļ×Ŀ
æī ĳåħĭ
áº© n
Ġà¦ªà§ģà¦² à¦¿à¦¶
çļĦ äºº
ĠØ¯ ÙĦ
Ġvis it
Ġb á»ĩnh
um u
ĠÐŀ Ð±
ĠÙħØŃ ØµÙĪÙĦ
y i
Ġw ij
Ġ à¬
æĽ ²
s u
ĠØ« Ùħ
Ġ×ĳ ×Ļ
Ġmot or
Ġger ek
Ħ à¸Ńà¸
´à¸ ķ
à°¾à°Ĥà° Ĺ
à¤°à¥įà¤ Ł
à¸Ļà¹īà¸ ³à¸
ĠH igh
ÑıÑĤ ÑĮ
iá» ħn
an ces
Ã³ b
Ġ×ľ×Ķ ×Ļ×ķ×ª
ĠJ ohn
à¸Ńà¸Ńà¸ ģ
à°°à±įà° ª
Ġà¦ªà§įà¦° à¦¥à¦®
Ġan os
×¤ ×Ķ
ĠÙĬ ÙĥÙĪÙĨ
ĠíĨ ł
Ġtamb iÃ©n
Ġ18 0
èª ¿
ĠÙģ Ø§Ø±
Ġà¤¨ à¤¾à¤¹à¥Ģ
Ġst rateg
Ġsel v
Ġp ic
Ġ×Ĺ ×Ļ
à¤Ĥ à¤ľ
à®¿à®¯ à®²à¯į
Ġz ar
Ø±ÙĬ Ø¯
à®± à¯ģ
Ð¿Ð» Ð°ÑĤ
iv en
ba ar
Ġà¦¬ à¦¾à§ľ
ĠC at
áĥĶáĥĳ áĥĹáĥĲáĥľ
on n
áĥĶáĥł áĥĺáĥ¡
Ġlá»Ľ n
Ġn Ä±n
à®Ł à¯ģà®ķà¯įà®ķ
up a
áĥķ áĥļáĥĺáĥ¡
k ou
Ġt anto
ĠG Ã¼n
Ġ ãģĦ
Ġr end
u we
re as
ne h
Ġb eberapa
ìĽ Į
el eri
Ġãĥ ª
ĠØ¬Ùħ ÙĬØ¹
et zt
ĠÎ¼Îµ ÏĦÎ¬
Ġno en
Ġtr á»ĭ
Ġà°ļ à°¿à°¤à±įà°°
pl es
ĠB ol
Ø§Ø¨ ÙĤ
×ķ×ľ ×Ļ
Ġmo Å¼e
ĠÙĨ Ø³Ø¨
äºĨ ä¸Ģ
ĠD ies
à¹Ģ à¸Ńà¸ĩ
ĠB at
st aw
áº§ m
ĠÃº lt
ÙĪÙħ Ø§Øª
Ġst op
ĠQu á»ĳc
ĠÙĪ ÙģÙĬ
Ġdiff er
Ġme jor
Ġc Ã¡i
Ġbe ing
æĸĻ çĦ¡æĸĻ
ÙĦÛĮ ÙĦ
Ġs b
Ġà¤ħ à¤²
Ġpre mi
ĠJ os
ĠaÃ§ Ä±k
Ä±l Ä±r
è ¿½
áĥľ áĥĺáĥ¨áĥľ
ĠáĥĴáĥĲáĥľ áĥª
Ġb ok
ĠÙĦ ÙĥÙĨ
Ġgj enn
Ġà¦ªà¦¾à¦° à§ĩ
Ġt we
à°° à°¿
Ħà¸ ¥
Ġm ange
à±ģà°ķ à±Ĭ
ĠÙģ Ø¥
ĠdÃ¼n y
åº ĵ
Ġáĥĳ áĥĶáĥķ
ĠØ¨ Ø³
Ġà¤ľà¤¾à¤¤ à¤¾
Ġt ÉĻm
ÙĪ Ùĥ
ç ĳ
ak in
à®ªà¯įà®ªà®Ł à®¿
ĠãĢĤ ï¼Į
åį Ī
Îº Î»Î·
Ġà¸ ģ
ĠUn tuk
ãģ¡ ãĤĥ
Ġæ Ĥ
Ġst ore
ÃŁ e
Ġà§© à§
S H
ĠØ§Ø¯ Ø§ÙħÙĩ
Ķà¸ ´à¸Ļà¸
ĠÐĴ Ñĭ
Ġx em
Ġst ill
Ġmu a
Ġà¤¬ à¥Ģ
Ġay r
ĠÐ² Ð½
ĠÎº Î¿
Ġà°° à°¾à°·à±įà°Łà±įà°°
è¿Ļ ä¸ª
à© °
ĠAl s
æĻ ļ
ãĥ¼ ãĤ¯
y z
Ðµ ÑĨ
à¯įà®ļ à¯įà®ļ
á»į c
á» Ľ
et ail
è³ ª
å¿ ľ
ĠÃ Ħ
ĠC re
Ġêµ °
è¦ģ æ±Ĥ
Ø£ Ø³
ĠÃ į
Ġáĥĵ áĥĶáĥĵ
ri es
ĠÐļ Ð°Ðº
åİ Ĥ
à¶ º
¢à¸ ±à¸ĩ
ĠáĥĴ áĥĸ
ĠK as
Ġm g
íĿ ¥
ad Ä±n
ĠH u
Ġcl ick
Ġs ame
s iz
à±ĩà° ¯
æĭ¿ å¤§
Ġà°ī à°¦
Ġn ep
ĠS car
åį «
ĠíĶ ¼
áĥ®áĥķ áĥĲ
¢ à¹Įà¸
w eg
Æ° ng
ÙĤ Ø¨
Ġg in
ĠÚ¯ ÙĦ
áĥĲáĥłáĥĵ áĥĲ
B A
Ġà®® à®¤
Î §
ĠD ur
à¦¤ à¦¾à¦°
le ich
ĠP os
ĠS un
åĪ© çĶ¨
Ġk áº¿
Ġd ÉĻr
Ġetm ÉĻk
Ġ×ľ×Ĳ ×Ĺ×¨
ëĵ¤ ìĿĺ
å® £
ĠÕ¸ ÖĤ
à¤°à¥įà¤ ¥
Ã§ i
Ġà°ħ à°¤
ĠØ§ÙĦØ¹Ø±Ø¨ ÙĬØ©
ÛĮØ¯ Ùĩ
Ġà®ªà¯ĭ à®²
Ġw in
ĠB lu
á»į ng
h ir
Ġz or
Õ¡Õ ¬
ind o
Ġ×ĳ ×ľ
à°¾à° Ĥ
ĠEng lish
Ġà°ķ à°¾à°²
à§ĩà¦¬ à§ĩ
ĠØ¯ Ø§Ø¯Ùĩ
Ġ×ķ ×Ĺ
áĥĶáĥĳáĥļ áĥĲáĥĵ
« à¸²
ãĤĵ ãģ§
áĥĶáĥĹ áĥĲ
à±ģà° ¸à±įà°¤
ç¾İ åĽ½
Ð¾ÑģÑĤ ÑĮ
Ġà¤¸ à¤¹
æĤ ¨
ro f
à¥ ħ
ÙĪØ¯ Ø©
ec er
ĠØŃ ÙĪÙĦ
Ġal u
Ġb ill
Ġre port
Ġå°Ĭé¾Ļ d88
Ġne xt
ÙĨ Ø§Ø¡
à§ģà¦ ľ
Ġì¶ ©
Ġà¤¸ à¥ģ
Ľà¹ĩ à¸Ļà¹Ģà¸
á» ¹
ici Ã³n
ĠÙħØ´ Ø§Ùĩ
ĠÐ½Ð° ÑĪ
Ġà®®à¯ģà®© à¯įà®©
ą ï¼Į
no ÅĽÄĩ
il ÉĻ
ĠØ§ÙĦ Ø§Øª
un ta
Ġà¨ ¸
Ġà¦Ĺ à¦¤
Ġag èµĮåľº
ĠP AR
§ áĥķ
Ġí Ĺ
ist rat
Ġà¸ ģà¸£à¸
Ġ Å¼y
Ġ×ķ ×ł
à¦¬ à¦°
u ally
Ġthá»© c
ĠØ§ÙģØ² Ø§ÛĮØ´
ĠÚ¯ ÙĪØ´
Ġhac er
· à¹īà¸Ļà¸
ÙģØ¶ ÙĦ
X X
ĠçĽ ®
Ġæ ¥
Ġà°µà°¿à° µ
Ġç ļ
Ġà°ªà±įà°° à°ķ
ÙĨ Ùħ
áº ³
ĠÏĥ ÏĩÎµ
Ġb ata
bar u
Ġr un
Ġc ual
Ġe igen
Ħà¹Īà¸ °
Ġart ic
ĠH Ãł
ãĥķãĤ ©
Î¼ Î¿Ïħ
un kt
à¤§à¥įà¤¯ à¥ĩ
¬ áĥĽ
ĵ °
urs o
ŀ à¸£à¸
Ġà¦ķ à¦²
ww w
ĠÐ¿ Ð¾Ð²
Ġk az
Ġju Å¼
æĥ ł
Ġsa o
Ġáĥ¡áĥĲáĥĸ áĥĿáĥĴ
in os
ĠØ® Ø¯ÙħØ§Øª
is ion
íĻ ©
à®¿à®°à¯ģà®¨à¯įà®¤ à¯ģ
ĠB and
ĠE 0
Õ ¬
Îº Î¿Î»
Ġå· ¥
ĠØ¯Ø³Øª Ú¯Ø§Ùĩ
è¾ ¼
ur u
c r
Ġà¦¤ à¦¾à¦ģ
Ġo yun
ä»¥ ä¸Ĭ
Ġmemb uat
×§ ×¨
ĠA li
à¹Ħà¸Ķà¹ī à¸£à¸±à¸ļà¸
ÄŁ un
Ġà¦īà¦ª à¦ľ
ow ego
Ġç¦ ı
ĵ à¹Į
Ħà¸ ¥à¸
à¤ļà¥įà¤ Ľ
ĠØ§Ø® Ø¨Ø§Ø±
ÙĪÛĮ ÛĮ
Ú¯ Ø°
ir os
áĥĲáĥļ áĥĲáĥ¥
ent ar
Ġd ov
Ð¸ Ð¾Ð½
ëį Ķ
8 1
Ð £
à®¿à®ķà¯įà®ķ à¯ģà®®à¯į
v r
à®µ à®°à¯įà®ķà®³à¯į
Ġm ÉĻr
ĠF i
Ø§ØŃ Ø©
er b
Ġä½ ¿
ĠÐ ¨
ÙĬ Ø§ÙĨ
un ya
ÙĤ Ø§ÙĦ
ĠR em
lar la
Ġå¤§åıĳ å¿«3
Ġk aya
à¯ģà®¤ à¯į
ĠC R
Ã ĳ
Ġé ¡
ĠÐ½Ð° Ñĩ
çĻ¾ å®¶
d im
ãĥª ãĤ¢
à°° à°Ĥ
ĠÙģ Ø¶
å½± éĻ¢
áĥĲáĥłáĥ ļ
Ġwind ow
Ã§ as
Ġà®¤ à¯ĩà®°
Ġà¦ķ à¦¿
ĠØ¯Ø§Ø® ÙĦ
Ġà¦Ĩ à¦¦
Ġáĥ§áĥķáĥĶáĥļ áĥĲáĥ¤
ĠCh a
Ġch á»įn
f ord
Ġà¹Ģà¸ Ħà¸£à¸Ķà¸´à¸ķ
Ġ) (
ç½ĳ é¡µ
Ġæ¯ ı
Ġd Ã¶vlÉĻt
ĠII I
ad Ä±
ĠãĤ Ń
Ġç§ ģ
ë³ µ
ĠØŃ Ø±
m p
Ġáĥ¨áĥĶáĥĵ áĥĶáĥĴ
Ùģ ÙĦ
l ak
à®¿à® ¸
ĠTe chn
Ġà®ªà¯Ĩ à®°
ĠÃ¡ n
Ġel ect
uj ÃŃ
ĠØ§ÙĦ Ø¨ÙĬ
Ġprof es
w id
éĶ ĭ
ĠG es
Ġç» ı
ĠC O
idup an
Ð°Ð¹ Ð½
Ġ áº£nh
èķ ī
à¹īà¸Ńà¸¡à¸ ¹à¸
Ïĩ Î¿
Ġg ay
å¤§ çļĦ
liy ev
ĠN ap
er st
ER S
ĠS om
Ĥà¸Ńà¸ĩ à¹Ģà¸
à±ĩà° ľ
m at
Ġå¦Ĥ æŀľ
Ġit al
Ġc ode
à°¾à°ķ à±ģ
ĠáĥĴáĥĲáĥľ áĥķáĥĺáĥĹ
Ġcáº£ m
à¦°à§įà¦ ķ
Î¼Îµ Î½
ĠáĥĲáĥ ŀ
Ġà¤ħ à¤®
ĠÙ Ģ
¹ à¹Īà¸
Ġà¤ķ à¥įà¤·
áĥ£áĥļ áĥĲáĥĵ
ĠáĥĽáĥĺáĥ ¦
Õ¥Õ ½
· °
ĠÑĥ Ð´
è¿ Ķ
Ãª s
ìķ ł
ĠÙĪ Ø²Ø§Ø±
Ġlang is
f all
ëĭ ¬
áĥķ áĥĶáĥĵ
×ª ×Ķ
à¯įà®¸ à¯į
à¹ Ħà¸£à¸
ĠW i
ê³ ³
Øº ÙĬØ±
ë¥ ĺ
Ø§Ø¨ ÛĮ
ut an
ction s
Ġs ad
à´ Ł
Ø§Ùħ Ø©
Ġà¦¸ à§ĩ
Ġqu ot
ir ma
Ġl un
Ġed uc
éĢ £
Ġgar ant
ĠU na
m ay
ĠMar ket
as c
Ġáĥ¡áĥĲáĥĸáĥĿáĥĴ áĥĲáĥĵáĥĿ
à±ĭ à°¡
ĠØ§Ø·ÙĦ Ø§Ø¹Ø§Øª
id ay
Ġto ur
à¹ģà¸ «
ĠáĥĻ áĥł
Ŀ à¸
Ġcom mer
à© ĭ
Ġë ĳĲ
Ġà¦¶ à§ĩà¦·
×¨×Ĳ ×Ķ
ĠSp iel
ç¨ İ
el as
Ġà°¨ à±Ģ
Ġbard zo
Ø®Ø± Ùī
Ġà¦ĩ à¦¸à¦²
Ġà¦¨ à¦¿à§Ł
ĠdÃ¼ÅŁ Ã¼n
Ġé» Ħ
Ġà¦ªà§įà¦°à¦ķ à¦¾à¦¶
ĠØ£Ùĥ Ø«Ø±
ĠE L
áĥłáĥ ª
Ġqu Ã¡
èį ¯
Î³ ÏģÎ¬
ih at
Ġáĥ¡áĥĲáĥ¨ áĥ£áĥĲáĥļ
à¥ĭ à¤§
æĢ ¥
à±Ģà°° à±ģ
ãģı ãģł
Ġäºļæ¸¸ å®ĺç½ĳ
Ġà¦ħà¦Ń à¦¿à¦
ç» Ĩ
g io
99 9
Ġist if
ĠØŃ ÙĦ
ĠO ver
Ġpro c
Î¼Î¬ ÏĦÏīÎ½
Ġå¥ ³
ĠPre z
ch te
ä½ Ļ
ĠT witter
ĠØ§ÙĦØ³ Ø¹ÙĪØ¯
Ġol ur
ĠØ§ÙĦÙħ Ø¤
à°° à°£
à¤¿à¤ §
à±įà°° à±Ĩ
Ġç Ĥ
Ġà¤¸ à¤°à¥įà¤µ
Ġ×Ļ ×¦
Ġà¸ Īà¸²à¸ģ
ĠS C
à¸£ à¹Īà¸§à¸
Ġh ref
éĢ ²
áĥĲáĥľ áĥĺáĥ¡
Ġáĥł áĥĶáĥĴ
Ã Į
Ġà° ĸ
×ķ×¦ ×Ķ
¢à¸ ¡à¸
Ø§Ø³ ÙĬØ©
Ġy Ãªu
éĵ ģ
Ġn Ã¥r
à±ĩ à°Ĥà°¦à±įà°°
à¤Ł à¥Ģ
Ġex ist
ÐµÐº Ñģ
ĠÑģÑĢ ÐµÐ´
ãĥ³ãĤ ¿
ec to
Ġè® ©
Ġ Ø§Ùĥ
z on
à¯Ĩ à®²à¯įà®²
ĠÂ £
áĥĲáĥ Ł
_ gr
ĠÙĪ Ø§ÙĤØ¹
¸à¸ ¡à¸
Â ³
æĿ ±
Ġex pl
ĠM em
è³ ĩ
à®² à®®à¯į
m ed
è¡ Ĺ
le v
ãģ ĸ
×Ļ×Ķ ×Ŀ
Ġpen y
Ġ×ŀ ×ľ
à¹ĥà¸Ļà¸ ģà¸²à¸£à¸
åį ´
à®ķ à®°
t Ã¼r
Ġà°® à±ģà°Ĥà°¦
ĠM A
åĪ ¥
Ġty p
ÅĤ em
Ġà¤® à¥ģ
Ġh on
Ġç ²
l ang
Ġt áºŃp
à¦¬ à§ĩà¦¨
Ġï¼ ı
ÉĻh ÉĻr
ĠÙħØ¯ ÙĦ
Ġ3 60
ĠD it
ĠCom ments
at el
ĠÏĢ Î»Î·
áĥĶáĥĳáĥĺáĥ¡ áĥĹáĥķáĥĺáĥ¡
ĠM ov
Ġæ ¢
Ġb ody
àµ ĩ
ĠB or
he im
ĠÐ±ÑĥÐ´ ÐµÑĤ
à§ģ à¦Ł
Î» Ïī
ë¡ ¯
ĠÐ± Ð¾Ð»
ĠL ang
åĩº æĿ¥
à¨ ¤
Ġéķ ¿
Ø² ÙĦ
ÐµÑģ ÑĮ
E F
è· Ł
Ġà°¸ à°°
Ġsh op
it ions
ug e
ve is
ĠTr ung
liy i
Ġn ÉĻ
Ġåħ ³
ĠN ederland
Ø² Ø¯
ĠØ¹ Ú©Ø³
Ġc ase
áĥĲáĥł áĥĿ
éĢļ è¿ĩ
Î³ Ïī
m ir
áĢ¯ áĢ
s an
it r
Ġè ·
à¯Īà®ļ à¯į
Ġæ ģ
è®º åĿĽ
áĥĿáĥ¡ áĥ¢
emb ro
Ġìĺ ¬
æĮ Ĥ
à¸²à¸ ģà¸
ĠT od
ÏĮ ÏĦÎ·
Ġdi p
Ġfe ed
ĠD oc
Ġs ym
y ar
Ġp Ãºbl
ëĵ ±
Ġáĥ¡áĥĲáĥ¥áĥĲáĥłáĥĹáĥķáĥĶáĥļ áĥĿáĥ¨áĥĺ
Ġà°ªà±įà°° à°ľ
Ġãĥ Ĺ
Ġà¸ Ĺ
ĠIntern ational
iá»ĩ m
20 16
Ġal an
ĠØ§Ø¬ ØªÙħØ§Ø¹
ĠÐº Ð¾Ð»
Ã¤ hr
à°¬ à±įà°¬
Ġpro b
ib a
ĠQ U
I X
ĠìķĦ ëĭĪ
æĿ Ģ
Ã³ j
att i
à°¿à°ª à±ĭà°¯
Ġà¦¨à¦¿à¦°à§įà¦¬ à¦¾à¦ļ
ķà¸ ´à¸Ķà¸
åº ı
Å¾ d
u ah
Ĥà¸¶ à¹īà¸Ļà¸
iz io
ĠØ· Ø¨
Ġìĸ ´
è³ ¼
Ø§Ø¦ Ùĩ
Ġserv ices
×Ļ×ª ×Ļ
ĠÙ¾ Ø§Ø³
Î½ Î¹Î±
Î´ Î¹Î¬
å¤ Ł
áĥĲáĥļ áĥ£áĥł
Ġp ujc
áĥĵ áĥĺáĥ¡
ep t
Ġsp raw
Ġl agi
Ġd ays
Ġj in
l ou
ĠÏĢ Î¬Î½
ĠK ont
ãĤ¤ ãĥ³
Ġèħ ¾è®¯
ĠØª Ø³Øª
as k
Ġíĸ ī
à°°à±įà° ®
à°¿à°¯ à°¾
ul es
if y
äº¤ æµģ
à¤° à¤£
Ĺà¸ ĩà¸
Â «
ĠK n
à¦¾à¦ ł
Ø§ÙĤ Ø©
Ġsit es
ĠÐ¸ Ñħ
Ġà¤¬ à¤¾à¤°
op er
ĠÑĩ Ð°ÑģÑĤ
æĬķ èµĦ
× ³
ang i
ĠA V
áĥĶáĥľ áĥĲ
Ġì§ ģ
à¥įà¤ ļ
Ġà¤ª à¤¾à¤°
akt u
×Ļ×ª ×Ł
Î ĺ
×Ļ×ł ×Ļ
Ġà°¤ à°®
ok o
Ġil g
Ġcol l
Ġà¸§à¸ ±à¸Ļ
áĥĺáĥ Ń
à¹ĥà¸«à¹ī à¹Ģà¸
Ġ×ĳ×ŀ× §
Ð» ÐµÐ½Ð¸Ðµ
larÄ±n da
Ġà° Ĳ
ĠMic rosoft
it Ã©s
Ġf ast
æ¬ §
ĠÖ ²
Ġpro ces
ĠÎ¼ Î·
Ã¸ p
àµ ĭ
áĥĸ áĥĲáĥĵ
Ġç ®
Ġà¦Ł à§įà¦°
ĠJ ah
Î³ Î±
Ġà§ ¬
ES S
à¥ĥ à¤¤
Ġà¤Ĺ à¥įà¤°
ĠÙĪØ§ØŃ Ø¯
ĠÉĻs as
ë³ Ħ
ÎŁÎ Ŀ
Ġno e
un ter
Ġå¼ ł
Ã¸ d
Ġà°ª à°¦
ĠØ¨Ø²Ø± Ú¯
Ġe g
à°¾à°¦ à±ģ
Ġå¸ Ĥ
à°¿à°Ĥà°ļ à±ĩ
Ġà®ªà¯Ĩ à®±à¯įà®±
Ġl ek
Ġdo anh
ĠTrip Advisor
ĠãĤ Ĥ
Ġopt ion
ç» Ī
ĠâĢĿ ãĢĤ
Ġ Ć
L ist
ĠCh at
Ġæ· ±
Ġro b
te ur
ĠH P
ãģ«ãģ¤ ãģĦãģ¦
Ġy Ã¶n
Ġé ĥ½
Ġn om
Ġfor t
stan bul
Î¼ÎŃ Î½Î±
p c
Ø§Ø ¸
Ġà°ļà°¾à°² à°¾
Ġ×ł ×Ľ
èĪ ¬
áĥł áĥĶáĥĳáĥĺ
ĠÏĨ Î¿
Ġ×Ļ ×ķ×Ŀ
ĠìĬ ¬
ĠáĥłáĥĿáĥĽ áĥļáĥĶáĥĳ
é ¨
Ġen n
Ġà¤ķà¤¿à¤¸ à¥Ģ
_gr id
Ġà¸ª à¸²à¸
Ø¨ Ø±ÛĮ
Ġáĥĵ áĥłáĥĿ
Ġmol to
à®±à¯įà®± à®¿
Ġà®® à®±
Ġj ul
Ġqu esta
éļ Ľ
Ġr Ã©s
ĠW al
Ġc are
Ġb ere
Ġà¸ ģà¸²à¸£
íĽĦ ê¸°
×Ļ×ľ ×ķ
Ġv áºŃy
n am
ëĦ ¤
à®¾à®£ à¯įà®Ł
h and
Ö µ
w erk
ĠÏĢ Î¹Î¿
Ġsh ort
Ġà¦ª à§Ĥ
æĮ ī
ĠÙĦ ÙĨ
ä¸Ń çļĦ
¨ à¸²à¸
Ġà¦ķà§ĭà¦¨ à§ĭ
ĠM ens
Ġ×ķ ×ª
ĠáĥĶ áĥľ
Ġc es
in ce
Ġm ust
ĠÙħ Ùĥ
á» Ŀ
à¦ ĥ
ĠP i
Ġà¤° à¤ĸ
ĠA cc
à¹Ģ à¸Ń
æĿ ¯
ĠáĥĹáĥĲáĥľ áĥĲáĥĽ
Ġd ru
ĠÙĤ Ø§ÙĨÙĪÙĨ
ĠÙģØ± ÙĩÙĨÚ¯
ĠÚ© ÙĪØ¯
Ġro l
×¨ ×ķ
Ġà°® à±ģà°
Ġek stra
íİ ĺ
éļ ľ
Ġáĥ¡ áĥĺáĥ¢
áĥĵ áĥĺáĥľ
ĠÎ½ Î¿
Ġv u
ĠâĨ Ĳ
z za
Ġt um
_ m
ĠÐ ¦
Â ²
ł áł
Ġà®ħ à®¤à¯ģ
Ġáĥª áĥĶáĥľáĥ¢
_ c
ĠN ord
à®¿à®µ à¯ģ
Ġê± ´
ãģ® ãģĭ
ĠS ist
ĠÙĤ Ø¨
à¯įà®ķ à®¿à®±
Ġimport ante
ĠT om
Ø§Ø± ÙĬØ©
å² Ľ
j ar
Ġle ur
íķĺ ì§Ģ
ĠC L
Ġà°ļà±ĩà°¸ à°¿à°¨
3 00
Ġinst all
à°°à±įà° ¥
ĠUS A
ov nÃŃ
Ġs Ä±
×Ĵ ×ľ
ĠS n
ĠS K
ĠS ystem
ĠÏĢ ÏīÏĤ
æľ¬ éģĵ
à®ķ à®®à¯į
ot er
Ġà¸ĭà¸ ¶à¹Īà¸ĩà¸
×ĵ ×ķ×ª
ÑĤ Ð¾Ð±Ñĭ
Ġì¢ ħ
ĠØ§ÙĦÙĪ Ø·
Ġç Ĳ
ĠØ¨Ø§ÙĦ Ùħ
ĠGr and
Ġmes mo
Ġà¦¬à¦¿à¦ ¦
ĠB ed
room _grid
Ġà¤® à¤¾à¤°
ag ue
ĠØ± Ø§ÛĮ
Ġf ond
Ġà°® à±Ĥà°
ĠH an
st vÃŃ
el ik
re di
Ġde ux
ĠSt and
Ġc á»©
ĠN ach
Ø±ÙĪ Ø³
Ġë ł
Ġt ÉĻl
ĠgÃ¶ re
á» Ŀi
à®¾à®¤ à¯įà®¤
Ã¥ d
ans e
Ġè ¢
ĠìĻ ¸
Ġå® ŀ
Ġć Ĉ
Ġth á»§
ĠØ¯Ø± ÛĮ
eng er
Ġà¤¸ à¥įà¤Ł
z ÄĻ
Ġà¤ħà¤ª à¤¨à¥Ģ
Ġà´ ķ
à±ģà° ¬
it im
ĠCom ment
Ġh asta
à¦°à§įà¦ ·
Ġv áº«n
Ġgebru ik
Ġà®ħ à®£
è£ ½
Õ¶Õ¥ÖĢ Õ«
l ess
ĠL iv
ãĤĪãģĨ ãģ«
Ġà¦ıà¦® à¦¨
Ø§Ø² Ùĩ
Ġë² Ī
ĠPubl ic
äº§ ä¸ļ
ÉĻs inÉĻ
ÅĽ li
op t
ä¸Ģ ç¯ĩ
Ġb Ã¼yÃ¼k
ut z
it z
áĥ£áĥ Ļ
Ĭà¸ ´à¸
áĥĺáĥľ áĥĺáĥ¡
à¹ģà¸ Ĺ
Ø´ Ùģ
igh et
Ġà°ľ à°¨
Ġsá»ĳ ng
ç¢ °
Ð¾Ð²Ð°Ð½ Ð¸Ñı
ĠG alaxy
ìķĦê°Ģ ìĶ¨
è¡Į ä¸ļ
Ġv ai
Ùİ ÙĬ
ĠP ak
ĠS pr
§à¸ ĩà¸
ĠÎ´Î· Î¼Î¿
ÏĢÎ¿ Î¯
áĥķ áĥĺáĥĵ
Ġà¦¦ à§ĩà§Ł
Ð» ÑĮ
re ich
Ø± Ø§Ø¯
Ġà°ħà°§ à°¿à°ķ
Ġ ä¹ĭ
æīĭæľºçīĪ ä¸ĭè½½
Ġà¦¬ à§ĥ
ÃŁ en
èª ŀ
å¼ ·
w y
Ġ×ľ ×ł
Ġbes ch
æĪĲ äºº
ĠCl ass
à¦Ľ à§ĩà¦¨
Õ¸ÖĤÕ©Õµ Õ¡Õ¶
ĠØ¥ Ø°Ø§
à¹Ī à¸Ļà¹Ģà¸
×Ļ×ł ×Ļ×Ŀ
Ġà¹Ģà¸ Ĭ
og a
v est
à¹Īà¸²à¸ §à¸
à¤¾à¤ļ à¥įà¤¯à¤¾
Ø±Ø§ØŃ ÛĮ
Ã³ m
Ġpe u
Ġsem ua
Ġe uro
ĸà¸ ·à¸Ń
ĠS S
áĥĺáĥ¢ áĥĿáĥĽ
ĠáĥĲáĥĽ áĥĺáĥ¡
ĠØ¨Ùĩ Ø§
à¤µ à¥Ģ
ĠÙĪÙĦÙĥ ÙĨ
ĠáĥĹ áĥĺáĥĹ
ĠØ§Ø³ÙĦØ§Ùħ ÛĮ
ĠL ong
b and
Ġth i
ĠP ap
ãĤĪãģĨ ãģª
ÎĹ Îľ
Ġá ½
ĠL ink
Ġpor n
m on
ĠR os
ëĵ¤ ìĿĢ
ĠS ant
à¹Ģà¸ ĭ
ent os
ĠÏĥÏħ Î¼
R L
ĠØ¬ ÙĪ
ÐµÐ¶ Ð´
Ġorig inal
íĮ ħ
Ġq ur
à¦¾à¦² à§ĩà¦°
ĠRev iew
ĠÙĦ ÛĮ
åŃ¦ çĶŁ
à© ±
ãģĮ ãģĤãĤĭ
Ġsol l
Ġmu á»ĳn
ĠBaÅŁ kan
ÙĤÙĬ ÙĤ
ç¬ ĳ
Ġ×ĳ ×ķ
ÎŁÎ Ľ
Ġ×ľ×¤ ×ł×Ļ
b re
Ġáĥŀáĥĺáĥłáĥķ áĥĶáĥļáĥĺ
ig ing
Ġb ox
Ġz aj
Ä±ÄŁ Ä±nÄ±
Ġpr ess
ĠH ay
Ġs ter
à§ģ à¦¦
Ġë¨ ¹
à¦¬ à§įà¦¯
Ĺà¸µà¹Īà¸ ¡à¸µà¸
Ġpk 10
Ġcu ando
Ġáĥĺ áĥª
ĠØ§ÙĦØª ØŃ
Ġind ic
Ġ×ł ×ķ×¡
Ðº Ð¾Ð¹
ell ik
Ġà¤ľ à¤¾à¤ı
ĠÐº Ð»
Ð¸ Ð½Ñĭ
ung kin
Ġt Äĥng
ï¼ Ł
Ġè¶ ħ
à¤¾à¤Ĥà¤ļ à¥įà¤¯à¤¾
Ġav ailable
Ġë³ Ģ
Ġcon v
Ġå» º
Ġon ze
Ġ×Ľ ×ª
´ë ı
Ġà¹Ģà¸ĩà¸´à¸Ļà¸ Łà¸£à¸µ
Ġy ok
ĠIn f
à¯Ĩ à®©
à¹ĥ à¸Ļà¹Ģà¸
p at
ĠåŃ ¦
áĥĺáĥ£áĥ ļ
is o
Ġz ich
ĠdeÄŁ il
un k
Ġis so
à°¿à°¸à±įà°¤ à±ģà°¨à±įà°¨
un to
áĥłáĥĹ áĥ®
æĹħ æ¸¸
Ġà¦ħ à¦¸
Ġy ox
Ġà°¸ à±įà°ª
æĹ¶ åĢĻ
ĠN eg
Ġqu er
ÑĥÐ¿ Ð¸ÑĤÑĮ
ĠCom o
Ġë° ķ
Ġger Ã§ek
Ġfac ebook
å¤ ı
ä½ ³
im ana
ĠØ§Ø «
Ġp ng
Ġc ri
Ġt Ãłi
ĠK im
ĠáĥĴáĥĲáĥĽ áĥĿáĥª
ĠT u
Ĳ à¸
Īà¸ ³à¸
Ġà¹Ģà¸ §à¹ĩà¸ļ
áĥĶáĥĽ áĥĲ
ĠÐ¿ÑĢÐ¾ Ð¸Ð·
ģà¸© à¸²à¸
Ġà¦¬ à¦¾à¦¸
ãĤģ ãģ¦
Ġê²ĥ ìĿ´
Ø¯ÙĬ Ø«
Î¹ Î»
ª à¸µà¸
or ma
ĠÚ© ÙĦÛĮ
ÐµÐ» ÐµÐ¹
ĠA nh
ç £
éĢ Ģ
et ter
ÏĨ ÎŃÏģ
áĥ£áĥ ª
ĠçĻ ½
ì »¤
à¸²à¸ªà¸´ à¹Ĥà¸Ļ
¸à¸ Ķ
Ġpart ir
Ġê² Ģ
áĥĺáĥ¡ áĥ£áĥ¤
Ġåį ļ
ĠÐ³ ÑĢ
ĠåĮ Ĺ
Ġsa v
Ġf it
Ðº ÑĢ
Ġà¦¬à¦Ľ à¦°
à¤° à¤¾
Ñģ ÑĮ
Ġìĺ¨ ëĿ¼ìĿ¸
Ġiy i
ĠUnivers ity
ĠÙģ ÙĦ
ĠÐ° Ð½
ĠØ® ÙĪØ¨
ÏĢÎ¿Ïħ ÏģÎ³
b il
Ġ×Ķ×ŀ× §
ÙĬ Ø¬
Ã¡ ÅĻ
Ġì¶ľìŀ¥ ìĥµ
Ġà¤¸ à¥ģà¤°
çĽ¸ åħ³
à¤¾à¤² à¤¯
Y W
ą ĆĈ
Ġha qq
ÙĪÙħ ÛĮ
en Ã©
Ġpl ast
ķ à¹Īà¸²à¸ĩ
Ġ à¸Ļà¸²à¸
ĠáĥĽ áĥĶáĥł
ĠE D
ÅĤ am
Ġà¤¹à¥ĭ à¤¤à¥ĩ
ĠáĥĲáĥ¡ áĥĶ
×Ļ×¨ ×Ļ×Ŀ
vo or
Ġà°¦ à±ĩà°¶
Ð² ÐµÑĢ
Ġà¤¹à¥ĭ à¤¤à¥Ģ
Ġà¤® à¤¾à¤¨
Ġter min
ĠMad rid
ĠéĶ Ľ
Ġna w
j al
Ġà®ļ à¯Ĥ
Ġview s
ãģĹ ãģĭ
áĥĲáĥķ áĥĲáĥļ
áĥĺ áĥĶáĥłáĥĹ
à±ĩ à°¨
Ġà¤¸à¤ķ à¤¤à¥ĩ
çĭ ¬
à¯Īà® ª
çİ© æ³ķ
ĠÕ¸ ÖĢ
Ħà¸£à¸Ķà¸´à¸ ķà¸
Ġà¦¹ à¦¾à¦ľà¦¾à¦°
Ġba x
uy or
ĠÚ© ÛĮÙģ
ĠFor um
çİ° åľº
ĠáĥĽ áĥĺáĥķ
ĠÎ´ Î¹Îº
Ġcon n
ĠB ag
Ġ×Ļ ×ĵ
Ġ? "
Ø®Øµ Øµ
ĠØ§ÙĦØ¨ ÙĦ
ĠÅ ļ
à¦ ģ
à¥ĩà¤ ¬
Ġh Ã´
í ļ
Ġåķ Ĩ
Ġ×¨×Ĳ ×©
Ġà®ķ à®¿à®°
ĠF est
Ø´ ÛĮ
« a
Ġg ast
ad s
Ġm ut
×ķ×ĳ ×¨
ĠØ¨Ø± Ø±Ø³ÛĮ
áĥĶáĥĳ áĥĶáĥĳáĥĺáĥ¡
áĥĶáĥĳ áĥĵáĥĲ
ëª¨ íħĶ
à®¾à®µ à®¤à¯ģ
ĠÐ³Ð¾Ð´ Ð°
Ġpow er
Ġa inda
Û İ
¹ à¹Ī
ªà¸²à¸¡à¸²à¸£à¸ ĸ
in ta
Ġob jet
Ġ? ??
ĠqÉĻd ÉĻr
Ġë¨ ¸
ĠT en
Ġbl ack
Ġæĺ İ
im um
Ġíķĺ ëĤĺ
Ġn ok
ĠS he
à¦¨à§įà¦ ¡
Ġà¤¹à¥ĭ à¤¨à¥ĩ
Ġth ose
Ġà¸ «à¸£à¸·à¸Ń
ie ve
ĠÃ¼z rÉĻ
Ġg ÅĤ
×Ĺ ×Ķ
Ġä¸ İ
Ġbe aut
Ġà°® à°¾à°¤à±įà°°
ĠÚ¯ Ø±ÙĪÙĩ
ĠG B
om at
åĲ «
çł´ è§£
Ġtaraf Ä±ndan
ÏĨÎ¿ ÏģÎ¬
éģ Ĺ
Ġ×ĸ ×ķ
Ġ= '
Î¯ Ïĥ
ĠÎ± ÎºÏĮ
ĠÙĨÙħ Ø§ÛĮØ´
Ġà°µ à°¸à±įà°¤
Ġag äºļæ¸¸
ĠáĥĽ áĥĲáĥ¦
out ube
áĥł áĥĲáĥĵ
Ġíķĺ ëĬĶ
à¥įà¤ ŀ
we en
åī §
g lich
m itt
Ġt uy
çŁ Ń
à¥ĭà¤Ĥ à¤¨à¥ĩ
Ġser Ã¡
à°¬ à°¡
èĦ ±
ion n
Ø¸ Ùħ
ov i
ĠDire ct
ĠØ³ Ùħ
Ġ×Ĳ ×Ļ×©
ãĥĥãĤ¯ ãĤ¹
Ġv om
ÏĦ Î¹Î±
Ġy Ã¼z
Ġl ui
à¥Ģ à¤¤
Ġm and
Ġan no
Ġn ya
Ø§Ø¨ Øª
Ġà®¨ à®²à¯įà®²
à±Ĥà° ¨
Ġà¤®à¥įà¤¹ à¤£
×Ķ ×ľ
íĻ ĺ
ĠáĥĽ áĥĲáĥ¨
à¯Īà®ļ à¯įà®ļ
Ġs Ã©
à¸Ļà¸ ³
Ġ×Ĵ ×ĵ
Ĭà¸ ·à¹Īà¸Ńà¸
ĠÄĳá» ķ
ëŁ ¼
à¥Ĥ à¤¸
à°² à±įà°²à±ĭ
Ð» Ð°Ð³
ĠT ri
Ġáĥ£áĥ ¡
els en
H T
ĠØ§ÙĦ Ø±ÙĬ
zen ÃŃ
à¤Ĥà¤¤ à¥įà¤°
Ġà¤µ à¤¾à¤²à¥ĩ
×ķ ×ķ×ª
Ġ16 0
áĥĲáĥª áĥ®áĥĲáĥĵ
Ġà°¸à°¿à°¨à°¿à°® à°¾
ë¦ °
as Ä±na
à¸£à¸£à¸ ¡
Ġì Ĥ°
ĠáĥĴáĥĲáĥľáĥª áĥ®áĥĲáĥĵ
ĠÙħ ØªØ±
ĠÙĨ ÙĪØ´
Ġm Ã©
Ġâĸ ł
Ġp ig
Ġgiá» ¯
Ð¾Ñģ ÑĮ
à®£ à®®à¯į
ĠØ´ ÙĬ
ĠÐ¼ ÐµÑģÑĤ
Ġs op
à°µ à±įà°µ
ĠÕ¥ Õ¶
Ġà¦Ĩà¦Ĺ à§ĩ
Ġà¤ª à¥Ī
Ġe urop
Ġg ot
Ã¡ le
ĠØ§ÙĦ ÙĴ
ĠÏĦ ÏĮ
Ġ×Ĳ×ķ×ª ×ķ
à®¿à®ªà¯įà®ª à¯ģ
Ġwh ile
Ġp ob
à¦¾à¦° à§Ģ
iy on
Ġà°ľà°° à°¿à°Ĺ
à¦¾à¦¨ à§ĭ
ĠØ¬Ùĩ Øª
Ġi ba
im p
Ġà°µà°¿à° ¦
Ġh am
æĸ¹ å¼ı
à¸Ļà¸ ´à¸
Ġid i
Ã¸ n
el ah
«à¸ ¡
áĥłáĥ £áĥļáĥĺ
Ġm ind
à¤¯ à¥ĭà¤Ĺ
ard Ä±m
Ġfil es
Ġf ue
ë¸ Į
à¹Ħà¸ ĭà¸
ĠØ§Ùħ Ø±ÙĪØ²
ĠY ork
® à¸
Ġáĥľ áĥĲáĥĻ
ĠO N
à§ĭ à¦°à§įà¦
ĠìĨ į
n Ã½ch
ĠPh ilip
áĥ¬ áĥĲáĥķáĥļ
ĠP el
z em
Ġà¦ķ à§įà¦°
ĠL ast
´ à¸Ļà¹Ģà¸
Ġb Ãłi
éĿŀ å¸¸
Ġs ia
Ġmod ern
ĠçĶ ±
Ġà¹Ĥà¸Ķà¸ ¢à¸
ĠÙģÙĬ ÙĩØ§
c ji
ĠåĪ °
áĥĺáĥĵ áĥĶáĥľáĥ¢
Ã³ c
ĠØ§ÙĦØ® Ø§Øµ
Ġç ©
ĠëķĮ ë¬¸
ç¨ ®
ĠØ§ÙĦØª Ø¬
ĠíĶĦ ë¡ľ
ĠÅĽ wi
er ek
Ġm p
a el
IN E
Ġad am
Ġà®ªà¯Ĭ à®°
le b
Ġà¤µà¤°à¥įà¤ ·
ash ion
ĠW y
ëŁ ī
at ore
j s
ikip edia
Ġëį °
å ´
Ġh iss
ĠçĶ ·
Ġà¦ħ à¦°à§įà¦¥
ĠÐ´ ÐµÑĤ
Ġwal ang
Ġ áĥĲ
Ð² Ð»Ñı
® áĥĶáĥĵ
Î¼ ÏīÏĤ
ĠB L
l ÃŃ
Ġà¤ĺ à¤°
ĠØ± Ø¦
áĥĶáĥļ áĥĺáĥ¡
áºŃ u
ma in
ä» ķ
Ø§Ø¶ ÙĬ
Ġkom mun
ĠbÄĻd zie
Î´ Î¹Îº
Ġà¦Ł à¦¾à¦ķà¦¾
Ġg ift
Ġdis se
Ġáĥŀáĥł áĥĿ
Ġj p
Ġà®¨ à¯ĭ
ä¼ ¦
Ġad vert
ĠÚ© Ø¯
Ïĩ Î¹
Ġëĭ ¬
Ġè Ļ
Ġåľ¨ çº¿
ĠØ¨ ÙĤ
ĠÎµÏĢ Î¹Ïĥ
Ġà¤¹ à¥ĩ
us es
Ġnum ber
à§įà¦ §
èĽ ĭ
u it
lÉĻr inin
Ġà¤¬à¤¹ à¥ģà¤¤
Ġë £
ĠS z
ë ·°
Ġde k
ĠG re
Ġse h
à°² à°ķà±ģ
Ġl iÃªn
Ġ2019 å¹´
Ġà°¨à±ĩ à°¨à±ģ
ĠÙĩÙħ Ø±Ø§Ùĩ
ĠT P
an Ã§a
áĥĲáĥļ áĥ®
Ġco ok
Ġ& &
ë¦¬ ê³ł
Ġ% .
Þ °
Ġà¥ §
Ġte ch
n ot
Ġg ut
ãĥ¼ãĤ ¿
ÏĥÎºÎµ Ïħ
áĥĲáĥ¨áĥķ áĥĺáĥļáĥĺ
Ġst ron
Ġv os
çļ ĩ
Ġà¦¦ à§ģà¦ĩ
ÐµÐ» Ð¾Ð²
«à¹ĩ à¸Ļà¸
à¦¾à¦§ à§įà¦¯à¦®
Ġm ujeres
áº¡ m
ac o
ĠØ¯ÙĪÙĦ Øª
ite it
Ġto us
ĠÙģÙĬ Ùĩ
Ġrequ ire
åĪ »
ĠØ§ÙĦØ£ Ø®
Ġst ato
ad ora
Ġm ÃŃst
Ġcap ac
Ġ×ĺ ×ķ×ĳ
Î½Î± Î½
Ø§Øµ ÙĦ
ĠL eb
Îº Î¿Ïį
Ġà¦¬ à¦¿à¦ķ
Ġï ¸ı
h ur
66 6
Ġn Ã¥
ĠCl ub
Ġs pl
×ŀ ×ľ
oc uk
Ġz elf
è¡ £
Ġà¸ «
Ùħ ÙĴ
ķà¸ ±à¹īà¸ĩ
Ġn ut
Ġm Ã©d
èª į
Ġà¦ħà¦¨ à§įà¦¯
l ers
Ĺ à¹Īà¸²
ĠÏħ ÏĢÎ¬ÏģÏĩ
am ing
Ġà°ħ à°¸
ĠØ´ Ø±ÙĥØ©
ag ra
ĠÐ¿ Ð¾Ð·
æ± ĩ
ĠZ o
ĠP ass
Ġà®ĩà®²à¯įà®² à¯Ī
Ġt Ã¬m
áĥ£áĥļ áĥ¢
µà¹Īà¸ ¢à¸§à¸
Ø² ÙĬØ¯
Ġíķľ ëĭ¤
Ġtod as
iv il
Ġà® Ī
Ġba o
Ġà°ħ à°Ĥà°Ł
acy j
Ġà°®à±Ĭ à°¦
ak am
T O
Ġáĥ¡áĥĲáĥ®áĥĶáĥļáĥĽáĥ¬áĥĺáĥ¤ áĥĿ
Ġal c
C C
ìĨ ¡
à¸£à¸µà¸§à¸´à¸ §
ch ar
Ä±y la
ĠD ol
äº ®
áĥ¢ áĥł
i um
æ´ ¾
Ù Į
z in
og en
ĠC N
à¥ĩà¤ ·
Ġè Ī
Ġb are
E Z
Ġà°² à±ĩà°¦
Ġáĥł áĥĲáĥĽ
Ġà¤¸à¤® à¤¯
Ġtr iá»ĥn
à¶ »
ĠáĥĽáĥ¡ áĥĿáĥ¤áĥļ
Ġf ab
áĥĲáĥĵ áĥĲáĥ¡
Ġs ci
ĠÐ¼ Ñĭ
Ġpagk awala
à¸£à¸§à¸ ¡à¸
ĠN r
Ġà§ Ń
Ġæ ¹
ãģ Ĳ
ÙĪØ± Øª
ĠC i
t il
Ġå Ŀ
ĠæĿ İ
ĠgÃ¶r Ã¼n
Ġb ev
æľ Ŀ
áĥĺáĥľ áĥĿ
Î½Î± ÏĤ
p m
à±ĭ à°µ
ĠÙĪ Ùģ
d ik
ļ à¹īà¸²à¸Ļ
Ġem pl
Ð± Ð¾ÑĢ
Ġà°ªà°¾à°°à±įà°Ł à±Ģ
Ġp ie
ç® Ģ
×Ļ×¤ ×Ķ
Ġ×ķ ×Ĵ
ĠØ¢ Ø²
ĠR estaur
à¹Ģà¸£à¸ ·à¹Īà¸Ńà¸ĩà¸
Õ ¢
ÏĨ Îµ
Ä±l mÄ±ÅŁ
à®³ à¯įà®µ
ØŃ Ø§Øª
b ÄĽ
Ġtak Ã©
áĥ£áĥļ áĥĺáĥ¡
ĠáĥĳáĥĲáĥķáĥ¨ áĥķ
ä» ¤
æŁ Ĳ
Ġìŀ ĺ
èĤ ī
çµ Ħ
p is
ĠØ´Ø¯ ÙĨ
ľ à¹Īà¸²à¸Ļà¸
ĠÙĦÙĦ Øª
à§ģà¦· à§įà¦ł
Âµ ÃĦ
ãĤĪ ãĤĬ
à§ĩà§Ł à§ĩ
ĠØ± Ùħ
Ùĩ ÙĦ
Ġáĥ£áĥ łáĥ
ĠAl t
Ú© ÙĨØ¯
Î¯ Î´
Ġj ika
áĥĲáĥĽ áĥĲáĥłáĥĹáĥļ
æ´ ¥
à¥ī à¤²
ole Äį
ĠÎºÎ¬ Î¸Îµ
ĠÙĨ Ø±Ùħ
ĠS at
Ġv r
Ġà¸ªà¸ ¡à¸±à¸
Ġsul la
æ± ī
à¦° à¦¿
à¥Ģ à¤¡
ord in
éĽ Ħ
st it
ĠC P
Ð¾Ð± ÑĢ
ĠÙĪ Ø¶Ø¹
å² ģ
Ġbar u
Ġà®¤ à®µ
Ġà®®à¯ģà®Ł à®¿à®¯
el es
ĠÐ¿ Ð¾ÑģÑĤ
ĠM S
Ġ ãģ¯
ÏĦÎµ Ïģ
à¯ģà®Ł à¯Īà®¯
ĠÙĩ Ø²Ø§Ø±
Ġmak en
ib li
Ġa ug
èĥ ľ
Ġ) )
Ġì¶Ķ ì²ľ
à°¾à° Ĺà°¾
ĠP u
ĠÐ´ Ð¾Ð¼
ĠÏĢÎµÏģÎ¹ Î¿
Ø§ÙĪ ÙĨ
×¡ ×ĺ
Ġ×ł ×ª
ĠØŃØ¶ ÙĪØ±
Ġtar get
ãģıãģł ãģķãģĦ
uk u
Ġ ā
Ġà°ķà°¾à°¨ à±Ģ
åķ ª
Õ º
Ġf Ã¥r
à¸Ńà¸ ģ
ada ÅŁ
ë³´ ê¸°
ĠØ¯Ø§Ø± ÙĨØ¯
´ à¹Īà¸ĩà¸
n ah
Ġà§ ·
Ġn ila
à¹Ģà¸¥à¸ ·à¸Ńà¸
ĠÙĬ ØªÙħ
Ġed ÉĻn
ä¸ ¥
æ° ¸
ªà¸ ĸ
Ġà¦¬à¦¿à¦Ń à¦¿à¦¨à§įà¦¨
Ġæ ¿
± à¹Īà¸ĩà¸
Ġä¸ ¤
Ġdi y
ĠCol le
iy ÉĻ
à¯įà®¤ à®¾à®©à¯į
ic ol
_ p
Ġkam u
à®Ł à®¿à®¯
Ġà¤¹ à¤°
áĥĲáĥ¬ áĥ§áĥķ
Ġar ound
çĶ º
Ġà°µà°¿à° ľ
ë³´ ìŀ¥
Ġam bi
ç ĵ
Â ¨
S h
Ġth Æ°Æ¡ng
ÑĤ Ð¸
ĠT our
à¦ĵ à§Ł
ĠG ir
Ġjs me
Ġr Ã³w
Ġpop ul
à°² à°¨à±ģ
à¥įà¤Ł à¥Ģ
ĠI V
à¤ķà¥įà¤· à¤¾
Ġåħ į
Ġcontin u
ÏĦÏĮ ÏĤ
im mer
ä»£ è¡¨
Ñĥ Ð·
Ġmengg unakan
ĠØ§ÙĦ Ø§Ø³
ett ing
Ġà¦¨ à¦¤
im b
Ð ĳ
ĠØ¯ Ú©
apt op
Ġmass as
ë° ķ
à¨ ¨
Ġáĥŀáĥł áĥĿáĥĴ
áĥłáĥ Ľ
áĥĺ áĥĶáĥļ
é ½
Ð³ Ð¸
Ġà¦¨ à§ĩà¦ĩ
ĠáĥĿ áĥĹ
Ġd Æ°á»
ĠM ass
ĠÐº Ð¾ÑĢ
Ġì´ Ī
Ġm ali
v d
ro c
Õµ Õ¡Õ¶
Ġsch on
Ġm ong
E A
Ġfo und
à°§ à±įà°¯
ĠÎ£ Îµ
Äħ d
Ġnec es
o ir
Ġà°Ĩ à°®à±Ĩ
ĠNor ge
s ze
łà¸²à¸ ©
Ð¼ Ð¾Ð¶
ìĤ° ì¶ľìŀ¥
v iew
ĠØ³ ÙĪØ±
Ġ×ª ×©
ÙĦØ³ Ø·
ÑĥÑİ Ñī
Ġìĥģ íĴĪ
ĠáĥĽáĥ¡áĥĿáĥ¤áĥļ áĥĺáĥĿ
Ġà°¶ à±įà°°à±Ģ
Ġ! âĢĿ
w as
ĠÐ¼ ÐµÐ½
Î¼Î± ÏĦÎ¿
ĠK it
à§İ à¦¸
Ġv iv
à¯Ĭ à®´
ë¦ ¼
ff en
Ġáĥ¡áĥĲáĥĻ áĥĺáĥĹáĥ®
ĠA u
ac ks
!! !!
Ġå ĸ
Ġà¦Ĩ à¦ķ
ãģ¨ ãģ¯
ãĥĥ ãĤ·
Ķ à¹īà¸²à¸Ļà¸
Äħc ych
ent al
ĠM ult
Ġëª ħ
Ġà¦° à¦¹
Ġ ä¿
Ġà¤®à¥ģà¤ ĸ
ĠØ§Ø ¶
Ġà®ĩà®°à¯ģà®ķà¯įà®ķ à¯ģà®®à¯į
à®µ à¯įà®µ
Ġ100 00
ĠCas ino
Ġn ito
ĠO pt
Ø§Ø¦ Ø±
ĠÃ Ĳ
Ķà¸ ±à¸ļà¸
§ áĥĶáĥľ
Ġà°ªà±ĭ à°²
Ġà¤² à¥ĭà¤ķ
Ð¸ ÑģÐº
ĠÙĪ ÙĤØ¯
Ġà®ªà¯Ĩ à®£
re i
ä¸ ĥ
o ch
ard i
Ġà¤® à¥Į
Ġgjenn om
æ± º
ĠF a
åħ¨ åĽ½
é Ĩ
èµĦ æĸĻ
Ġus ing
Ġë³ ¸
Ġà°ª à°¡
ĠØ¢Ùħ Ø±ÛĮÚ©
Ġun g
Ġl oro
Ø³ ÙĨ
eb ilir
ãģł ãģ£ãģŁ
he it
Ġà¤²à¥ĭà¤Ĺ à¥ĭà¤Ĥ
Ġáĥ¡áĥĲáĥĵ áĥĲáĥª
å® ĥ
Ġtut to
Ġb li
Ð¸Ð· Ð½
ì²ľ ì¶ľìŀ¥
Ġà¦ķà¦° à§ĩà¦Ľà§ĩ
âĢ ı
Ġus o
ìĬ¤ íĬ¸
Ġà¤¤à¤° à¤¹
åıĳ å¸ĥ
Ġs ila
ëŀ Ģ
à¯Īà®¯ à®¾à®©
Ġhe alth
Ġà®ĩ à®©
Ġwur de
é «
Ġáĥķ áĥĲáĥł
Ġà¦° à§Ł
ĠÙĩÙħÚĨ ÙĨÛĮÙĨ
ÙĬÙĨ Ø§
Ġa Å¾
Ġà°ķ à±įà°°
Ġcert ain
ĠØŃÙĤ ÙĪÙĤ
r zy
la q
áĥĿáĥª áĥĲ
ĠØª ÛĮÙħ
Ġo x
Ġà¸ ¢
ä¼ ĳ
ĠD VD
à¸Ńà¸²à¸« à¸²à¸£
d ated
Ġcont rib
Ġà¤Ĩ à¤¦
Ġpos ition
Ġg esch
ĠAd min
wo od
Ġcur rent
Ð¸ Ð¶
Ġbes ar
Ġen f
à¦¾à¦¨ à¦¿
ĠÙĪ Øµ
D R
ĠÑĤ ÐµÐ¼
ÎĻÎ Ŀ
ĠP in
ķ à¹Įà¸
Ġà¦¬à¦¿à¦ ľ
Ġt ÉĻd
ç¢ º
Ġwied er
ba ik
ÉĻx s
ĠM B
ĠI M
Ø§ÙĬ Ø±
n ic
ç¶ ļ
à±Ĩ à°¡
Ó Ļ
cel ona
ĠáĥĲáĥ ĳ
Ġv ra
Ġd us
à¥ĩà¤ £
×Ļ×¨ ×ª
Ġï¼Į âĢľ
ÏģÎ± ÏĤ
Ġê¸ Ī
Ġ×Ļ ×ĵ×Ļ
à´¿à´ ²
Ġ×Ĳ ×¤×©×¨
Ġc Ã¡
àª¾ àª
am it
à¸Ńà¸µà¸ ģà¸
à°°à±įà° ¸
Ġà¦Ĩà¦ª à¦¨à¦¾à¦°
Ġma ch
Î¼ÏĨ ÏīÎ½
ĠØ· Ø±Ùģ
Ġå £
ĠÚ¯ ÛĮ
Ġdist rib
Ġ à¸Ńà¸²à¸
ĠM erc
ĠH el
áĥĲáĥĵáĥĴ áĥĲáĥľ
Ġà¦ĩà¦¸à¦² à¦¾à¦®
æīĢ æľī
à°Ĥà° ľ
Ùħ Ùĩ
Ġparas ito
çŃ Ķ
Ġà°ħà°¯ à°¿à°¤à±ĩ
Ġla z
ĠS Ã£o
Ġà®¤à¯Ĩà®° à®¿à®µ
ĠÚĨÙĩ Ø§Ø±
Ġf otos
à´ ®
¸à¸ ģ
Ġr am
ä¿¡ èªī
à¹Ģà¸£à¸ ·à¹Īà¸Ńà¸ĩ
Ħà¸ §
Ġmen os
çīĪ ä¸ĭè½½
èĲĦ äº¬
áĥĶáĥ £áĥ
at if
Ŀ à¸²à¸ģ
Z W
Ġæ¯ Ķ
Ġus er
Ġpr akt
Ġk amp
is se
à±Ģ à°ľ
ĠN G
Ġà°ª à±Ī
Ã¨ res
çĽ Ľ
âĢĮ à°°
Ġ Ø§Ùĩ
Ġà¤ľ à¥Ī
ĠØ¨ÙĪØ¯ Ùĩ
Ġáĥĺ áĥĹ
åĪ° äºĨ
Ġà¦¨à¦¤ à§ģà¦¨
Ġà°² à°ķà±įà°·
Ġdiffer ent
ĠAp p
Ùħ ÙĬÙĦ
Ġn ast
ĠResp ublik
ĠÐ¿ÑĢ Ð¾ÑģÑĤ
Ġáĥł áĥĲáĥĵáĥĴáĥĲáĥľ
a Å¼
ĠR od
ac je
Ġáĥ¡áĥĲáĥ Ń
ĠÐ» ÐµÑĤ
ĠE ss
Î½ Î®
à¤¿à¤ ¹
ĠE S
ãĤ¤ ãĥ«
Ġà¤¨ à¤¾à¤®
Ġm obile
Ġcre am
Î· Î³
Ġà®ī à®¤
åĨ ·
à¤ķ à¤¿
¢à¸ ¡
Ġent r
è¯ ¾
à°¿à°Ĥà°ļ à°¿à°Ĥà°¦à°¿
Ġr á»ĵi
Î¼Î¿ ÏĤ
q t
à±ĭ à°°
sk Ã½
Ġkeh idupan
åº Ń
ĠÎ¿ÏĢÎ¿ Î¯Î±
ĠB ad
à®¾à® ¨
Îĳ ÎĻ
uy á»ģn
ĠØ¯ ÙĪÙħ
Ġtr á»įng
Ġ Ćć
à¤¿à¤ķ à¤¾
à°ªà±įà°ª à°Ł
ãģĦ ãģ¾ãģĹãģŁ
Ġk unt
Ġal d
Ä±l dÄ±
§à¹ĩà¸ ļà¸
à°¾à°¨ à±ĩ
×ĺ ×Ļ×Ŀ
Î½Î¿ Ïį
Ġngh Ä©
Ġå¥ ¹
Ġag åľ¨çº¿
Ġl áº§n
Ġtr y
Ġà¦Ńà¦¾à¦° à¦¤
ĠF OR
Ġpre par
ĠÏĥÏĦ Î¿ÏħÏĤ
å¼Ģ å§ĭ
×Ĺ ×ł×ķ
åĿ ļ
à±Ĥà°° à±įà°¤
Ø² Ùĩ
ĠâĢĶ âĢĶ
o unt
¶à¸ ĩà¸
æĭ ©
ë ĳ
Ġáĥł áĥĲáĥ¡
Ġà¤¬ à¤¤
áº³ ng
¡à¸ ±à¸Ļà¸
Ġr ip
Ùĥ Ø§Øª
ff e
Ġb iá»ĩt
Ġãĥ Ľ
ĠÃ¼ st
ent en
ĠS ay
ÙĪÙĦ Ùĩ
ĠÑĥ ÑģÑĤ
è² ©
áĥĿáĥķ áĥĲáĥľáĥĺ
à¯ģà® ¨
ĠÐ¼ Ð°ÑĤ
ĠÙĪ Ø§ÙĨ
Ġ365 ä½ĵèĤ²æĬķæ³¨
ĠÙĥ Ùħ
Ø±Ùģ Ø©
à¥įà¤¯ à¥ĭà¤Ĥ
ĠÙħØ´ Ø§Ø±
é ¹
ĠF R
à¶ Ń
ĠÙĩÙĨ Ø§Ùĥ
Ġmak a
an ne
ļà¸²à¸ Ħà¸²à¸£
ĠEurop a
à®¤ à¯ģà®®à¯į
ĠC e
Ġè ¨
ĠA lex
Ġr ich
ãĥĥ ãĥģ
oc us
ec ut
ÏĮ ÏĦÎ·ÏĦÎ±
skie go
Ð¸Ð» Ð°
Ġáĥ¡áĥĲáĥ£áĥ Ļ
Ġà®¨ à®¿à®©
ìµľ ê³ł
ord en
art ment
Ġte x
ens ion
Ġãĥ ı
Ġb um
Ġ×Ľ ×©
Ġ×Ĳ ×Ļ×ł
Ġà¹Ģà¸ ģà¸¡à¸
Ġà®ª à¯Ĥ
áĥĲáĥ¡ áĥĺ
Î¸ Î¿ÏįÎ½
Ġà¦ī à¦¦
Ġsr c
è¿ °
r im
Ġ* *
h old
Â ¹
Ġfaz er
à¤¬ à¤°
ÙĪ Ø¶
il miÅŁ
Ġé ħ
Ġà¤Ł à¥Ģ
à±ģà°¤ à±ģà°Ĥà°¦à°¿
ĠáĥĿáĥłáĥĴáĥĲáĥľ áĥĺáĥĸ
Ġp raw
Ġl an
Ġà¦ªà¦° à¦¿à¦ļ
Ġpag s
ĠÆı liyev
ãģĳ ãĤĭ
áł łáł
Ġolar aq
æ ¦
en ci
à¦¦ à¦¿
ĠP eng
à¤¿à¤² à¤¾
ĠH y
Ð¸ÑĤÑĮ ÑģÑı
Ġmo Å¾
×Ľ ×ł
ĵà¸ ĳ
Ġà®Ĩ à®¯
Ġ* **
ob y
ĠÄ° s
Ġs enza
Ġãĥ ĩ
ĠìķĦ ìĿ´
Ġà¤ħ à¤Ń
à§ĭ à¦ļ
¶à¸ ģà¸
ĠØ§Ø± Øª
Ġfac il
Ð½ ÐµÐ¹
ĠB ud
á»ĵ n
ĠP ot
à±įà°Ł à±į
Ġs ays
å¸ Į
Ġáĥķ áĥĺáĥĵ
Ġ12 5
Ġx o
Ġe y
Ġe c
èĤ ĸ
ÎµÎ¯ ÏĤ
ĠDom ain
ä»ĸ ä»¬
ang en
ĠÄĳ áº¥t
ĠT al
çĶŁ äº§
Ġì° ½
Ġx ÉĻbÉĻr
h os
Ġáĥ¥áĥĲáĥłáĥĹ áĥ£áĥļáĥĺ
ªà¸ §à¸
Ġï º
Ġìĸ´ë ĸ
Î¯ ÏīÎ½
Ġar aw
×Ļ×ł ×ª
å® Ī
ĠÎ¼ÏĮ Î½Î¿
Ġn Ã¦r
Ú¯ ÙĪ
ĠO per
ĠM AR
à¸²à¸£ à¹Įà¸
Ġhum an
Ġan c
Ġb Ã½
íĶ Į
ĠÐ¾Ð± ÑĬ
Ġhab it
ol s
å¸ ģ
Ã³ Å¼
ÐµÐ¹ ÑģÑĤÐ²
Ġdal Å¡ÃŃ
ÐµÑĢ Ð¸
ãģĵ ãĤį
Ġg um
Ġc rit
Ä Ĳ
± Ħ
æ´ ŀ
th ing
ĠáĥĽáĥĺ áĥĺáĥ¦
ĠH ist
op en
Ġs ik
Ġsh are
Ġw rit
Ġt end
à¤¯ à¥ĩ
ĠTh ey
ĠF ar
Ġh Ã³a
Ġp oc
Ġmar k
à§ģ à¦¤
ãĤĴ è¦ĭ
ĠA tt
Ä° L
ĠTel ugu
áĥĲáĥ¥ áĥķáĥ¡
ekt edir
è ĵ
ĠA K
é¦Ļ èķī
ãģ« ãģĬ
Ġ×Ķ×ŀ× Ĺ
Ġf are
ĠD ay
Ġáĥŀáĥł áĥĶáĥĸ
Ġ×Ķ ×¨×Ĳ×©
åĵ ¥
Õ¥ÖĢÕ ¨
ĠM ir
ĠA uto
à¯Īà®¯ à¯ĩ
Ð¸Ñģ ÑĮ
ä¸ĵ ä¸ļ
r ie
ĠáĥŀáĥłáĥĿ áĥĶáĥ¥áĥ¢
×ŀ× ĳ
Ġim mer
à¤Ĥà¤¤ à¤°
ãģ İ
Ġì§ ĳ
ĠÐµ ÑģÐ»Ð¸
ÑĨÐ¸ Ð°Ð»ÑĮ
à°¨ à°Ĥ
Ð» ÐµÐ´
¸ à¸Ļ
nÃ© ho
ÑĥÑī ÐµÑģÑĤÐ²
p ond
az z
Ú¯ Ø±ÛĮ
g ende
Ġà®ħà®± à®¿à®µ
ĠE xt
ĠF eder
ĠÐ²ÑĢÐµÐ¼ Ñı
ãĥ³ ãĤ¹
à¥įà¤ ¬
Ġà¨ ¹
Ø¬ Ø§ÙĨ
Ġáĥŀáĥĺáĥłáĥķ áĥĶáĥļ
Ġ13 0
à¦°à§įà¦ ¶
æĥħ åł±
y y
ĠØ£ ØŃØ¯
Ġver ir
ìł Ī
çŁ¥ éģĵ
æĿ ¾
ĠG al
à°¡à±įà°¡ à°¿
Ġà®İà®´ à¯ģà®¤
Ġtr ÃŃ
Ġ] ,
ĠÙĬ Ø³Øª
ĠÐ¾ÑĢ Ð³Ð°Ð½
Ġ19 99
à¦¹ à¦¾à¦°
à°ķà±įà°ķ à±ģà°µ
ãĥķãĤ ¡
×ĵ ×ª
ĠÛ ³
Ġ×ĳ ×Ļ×ķ×ª×¨
m ÉĻn
ã ħ
à¥ģ à¤£
Ãº s
Ġà°ĩ à°Ĥà°Ł
man n
il eri
Ġà¦¬ à¦¾à¦°
Ġæ³ ķ
Ġbene f
Ġal m
ãģ§ ãģĹãģŁ
à®ķà¯įà®ķ à®®à¯į
ĠçĦ ¶
Ġä¸ ĸ
ĠSh op
Ð¾Ð½ ÑĤ
ãģĳ ãģ¦
áĥĶáĥłáĥ ¢
ĠÎ±ÏĢÎ¿ ÏĦÎµ
Ġma w
Ġà¦¹ à¦¤à§ĩ
alam an
Ġà¤¹à¥ģà¤ Ĩ
é¡ į
Ġm ijn
ĠÐļ ÑĢ
à§ĩà¦ ¹
ĠåĨ ħ
ç¨ ¿
áĥĶáĥľ áĥĵ
×¨ ×§
Ø¨Ø§Ø± Ùĩ
ĠÙħØª ÙĨ
ĠØ§Ùħ Ø§Ùħ
Ø±ÙĬ Ø¨
ÙĦ Ø·
ĠØ³ Ù¾
Ġl ow
íħ Į
æ´ Ĺ
Ã Ĺ
à±ĭ à°¨
Ġ Õ¡Õ¶
çľŁ éĴ±
ĠO R
sk Ã¡
Ġd ic
Ã¶ net
Ġà¦® à¦¾à¦¸
Ġíİ ¸
Ġv ent
Ġp ov
for ma
è½ »
Ġà¦ª à§ģà¦°
Ġæľ ª
ĠØ®Øµ ÙĪØµ
Ġse us
à¹ĥà¸ ª
ĠÙĬ Ø¯
ãĥ¼ãĤ ·
ach e
Ġáĥĺáĥ§ áĥĿáĥ¡
ĠÐ¸ÑģÐ¿ Ð¾Ð»ÑĮÐ·
ĠìĿ´ ìļ©
Ø±ÙĪ Ùģ
li f
ĠÙħ Ø¨Ø§Ø±
Ġr ayon
Ġan i
è®¾ å¤ĩ
u u
ĠT O
Ä±z Ä±
Ġb oth
çļĦ æĺ¯
à¤¦ à¤¾à¤°
Ïĥ ÏĦÎ®
Îµ ÏĦÎµ
ĠM ill
ĠáĥĽ áĥĺáĥ£áĥ
Ä ı
ìŀ Ī
ĠÑĤÐ°Ðº Ð¶Ðµ
ĠÂ ¤
åľ¨çº¿ è§Ĩé¢ĳ
uss en
if f
ì¶ľìŀ¥ë§ĪìĤ¬ì§Ģ ìĥµ
Ġáĥ¡áĥĲáĥ ŀ
Ġtab let
Ġqu anto
ë° °
Ġsz cz
áĥ£áĥłáĥ ķ
iáº¿ u
à®¤à¯įà®¤ à®¿à®¯
ĠíĻ ľ
ç½ĳ _
Ķà¸ ±à¸ļ
Ġï¿½ï¿½ï¿½ï¿½ï¿½ï¿½ï¿½ ï¿½
Ġà°ĩ à°¦à°¿
Ã© o
ĠáĥĽáĥĲáĥĹ áĥĺ
Ġà¤Ĺ à¤ı
ĠØª Ø§Ø±ÙĬØ®
de j
Ø´ Ùĩ
ĠåĲ Ħ
ĠØ¹ Ø¶
Ġà¤ĩà¤¸ à¤ķà¥ĩ
ĠÐ¾Ð± ÑĢÐ°Ð·
à¦°à§įà¦ ľ
ìĨĮ ìĿ´ìĬ¤
ĠbÃ¶ yÃ¼k
ĠSm art
æīĭæľº app
à¦¾à¦ ·à§įà¦Ł
Ġb Ã¡o
ĠáĥĲáĥ¦ áĥľáĥĺáĥ¨áĥľ
Ġleng th
aj ar
ĠN ational
Ġà®ªà¯ĭ à®Łà¯įà®Ł
Ġb eb
ĠE X
à¹īà¸ ĩ
íĸ ¥
Ġ×© ×Ŀ
â Ĩ
áĥĵ áĥĺáĥļ
G R
Ġà°Ńà°¾à°° à°¤
Ġha ir
ĠN at
if ied
ĠÙħØ± Ú©
Ġt ÃŃch
Ġà®ī à®²à®ķ
ĠÎ± Ïģ
Ġtr ung
Ĥ à¹īà¸Ńà¸¡à¸¹à¸
Ġth Ãªm
ĠáĥĽ áĥ¬
ãģĹ ãģı
ãĢ ĳ
ØŃ Ø§Ø¯
akt adÄ±r
Ġ() {
å¨±ä¹Ĳ å¹³åı°
Ġmel akukan
ÃŃ r
æĦ Ľ
ĠØ£ ÙĪÙĦ
ĠR am
ä» ħ
Ġà¦¸ à§įà¦Ł
ĠØ¨Ø§Ø² Ø¯ÛĮØ¯
ĠáĥĴ áĥĺáĥĿ
ĠmÉĻl umat
h b
Ġà°ªà±įà°° à°¯
Ġ×Ĳ ×ļ
è® ¿
áĢº áĢ
ØªÙĩ Ùħ
ut styr
Ġëĵ ľ
Ġf ÉĻ
æĭ ¬
ÙĨ Ùī
ĠØ§ÙĦ Ø§Ùħ
Ġíĥ ľ
åħ¥ åı£
ĠÚ© Ø§ÙĦ
Ġf ark
ĠÎ» Î±
Ïģ ÏİÎ½
å³ ¶
C A
Ġsing le
ĠG Ã¶
Ġgia o
Ġhad de
Ġbet ween
Ã¥ de
Ġà®ĩ à®ªà¯įà®ª
àµįà´ Ł
Äį et
ãģ¨ ãģª
Õ¡Õ Ń
ĠÃ¶n em
Ġn r
ĠN atur
Ġ×ł ×©
Ġw z
ÏĦ ÏĥÎ¹
Ġvi ol
ar ang
Ġà®ª à®¾à®Ł
ĠÙħØ¯ ÛĮØ±
ë³ ´ë
Ġsp o
áĥĲáĥł áĥĶáĥĳáĥĲ
ĠÑĩ ÐµÑĢ
Ġpu Ã²
Ġprop os
Ġn eden
à±Ī à°¤
m t
æķ ĳ
å «
ci os
×Ľ ×Ł
Ġcomp any
ĠÐ³ Ð¾ÑĢÐ¾Ð´
à¥ĩà¤ ª
Ġ14 0
à¤¾à¤Ĥ à¤¤
áĥķáĥĶáĥļ áĥĺ
Ġh ele
ê°ķ ì¶Ķ
åĲ ¦
Ùĳ Ø©
ĠgÃ¶r Ã¼ÅŁ
ĠÐ¿ÐµÑĢ Ð²
ab e
Ĭà¸µà¸ §à¸´à¸
×ķ×¨ ×ļ
ĠH om
×Ļ×ľ ×ķ×ª
Õ¸ Õ¶
Äį ky
Ã¥ l
ê²Į ìŀĦ
ĠÄĳ Æ¡n
ĠD ate
ĠÎ¶ Ïī
Ġti Ãªu
Ġs yst
Ġbag i
ĠØ¯ ÙĪÙĨ
ë¯¸ ëħĢ
Ġass ist
s on
Ġè¡ Į
éħĴ åºĹ
w ord
ĠáĥĴ áĥĲáĥĴ
Ð¼ ÐµÐ½
r ir
ant al
Ġ Õ¡Õµ
à§ĭ à¦·
ĠL og
Ġ) ØĮ
ĠØ¨Ø´ ÙĥÙĦ
Ġà¤¦à¥įà¤µ à¤¾à¤°à¤¾
Ġab i
Ø§ÙĦ ØŃ
· à¸Ńà¸Ļ
à±įà° ľ
Ġabs ol
ich er
×Ļ×ľ ×Ļ×Ŀ
................ ................
Ġf our
Ġth á»ĳng
ÏĨ Î·
· à¸
¥à¸ ±à¸
Ø¯ Ø§ÙĨ
E x
Ú¯ Ø±Ø§ÙĨ
ÐµÑĤ Ð°
à¦¿à¦Ł à¦¿
Ġáĥĵ áĥĲáĥ®
ĠOr ig
à§įà¦ Ń
à¦¦ à¦¿à¦¨
à®£à¯įà®Ł à¯ģà®®à¯į
Ġà®ª à¯ĩà®°
Ġæľ Ī
ĠM eng
ä¼ ¼
Ġà¸ ļà¸²à¸Ĺ
Ġà¦Ĩ à¦¶
Ġ×ĸ ×Ĳ×ª
ĠÑĥ ÑģÐ»
Ø§Ø¯ ÙĤ
lÉĻr ÉĻ
Ġfac ial
Ġe h
áĥĲáĥļ áĥĵ
Ġà®µ à¯Īà®¤à¯įà®¤
ĠD A
Ġm ie
à¤¾à¤ ¥
ĠØ¹ Ø¨
ĠvÅ¡e ch
Ġtá» ī
Ġç ¨
Ġk in
ze it
Ġhv or
as z
çº ³
à°¾à°° à±į
×ķ×ĵ ×Ķ
Ã¬ n
Ġ×Ĳ ×©×¨
ÏĢ Î®
Ùİ Ø±
à¯įà®Ł à¯į
Ġbas ed
Ġbal at
Ø§ÛĮ Ùĩ
ĠéĢģ æĸĻçĦ¡æĸĻ
Ġcont ro
į à¸²à¸
ĠØ§ÙĦØ¬ Ø¯ÙĬØ¯
ĠM c
ìľ¼ ë©°
ãĥ³ ãĤ¯
Ġnh au
y at
Ġl ight
áĥĿáĥª áĥĺ
Ġà®® à®£
à¤°à¥įà¤ ¶
j oy
Ġä¸Ĭ æµ·
Ġ×ł ×¢
Ġà¸ŀ à¸£
ĠØ£ Øµ
Ġt at
ĠO k
à§ĩà¦® à§įà¦¬à¦°
ãģĳ ãģ©
×ĸ ×ķ×¨
m alar
ĠE uro
Ġ ÅĤ
ard ia
ĠÙħÙĪ Ø¬
ĠZe it
çŃ ¾
f Ã¸r
ay d
Ġest ar
ĠAr be
ak at
áĥ£áĥłáĥľ áĥĲáĥļ
áĥķ áĥĹ
ĠW ord
Ø³ Ø©
ŀà¸ ±à¸
ĠÙħ Ùģ
Ġ×©×ľ ×Ķ
nÃ© e
«à¸ ķà¸
or an
Ġn Ã¡s
Ġ ÅĻÃŃ
n u
E Y
ĠâĢľ .
ĠáĥĽ áĥ£áĥ¨
Ġpop ular
à°¨à±įà°¨ à°¿
ĠÐ¼ Ð¸Ð½
Ø² Ø¨
Ġê°Ģ ê²©
Ġà¤¸ à¤¿à¤Ĥ
áº¯ m
ĠÎ ĸ
è¯ ¢
à¦¿à¦¬ à¦¾à¦°
Ġprobl ema
Ġáĥĸ áĥĿáĥĴ
ĠØ´ ÙĪØ±
ig os
Ġà¨ ¨
ĠÃ ĭ
Ġl inda
Ġgiá» Ŀ
Ġad ip
à±Ĭ à°ķà±įà°ķ
Ġl á»±c
Ġmar gin
áĥĶáĥĳáĥĶáĥļ áĥĺáĥĲ
Ġà®µ à®ķ
Ġ à¹Ħà¸Ķà¹ī
Ġ35 6
åĲ ī
¢à¸ §
Ġ à²
Ġà¦ķà¦° à§ĩà¦Ľà§ĩà¦¨
Ġesc ort
m b
åĮĹäº¬ èµĽè½¦
ãģ® ãģĮ
d em
Ġso ftware
æ¬ §ç¾İ
ani u
Ġtr á»Ł
Ġtent ang
áĥĿáĥ ļáĥĺ
ass er
ĠÐ· Ð°Ð²
Ġsl ot
id mÉĻt
st av
å® ¡
ĠÑģ Ð°Ð¹ÑĤ
Ġto o
ÃŃ l
áĥĲáĥķ áĥĹ
Ľà¸ ´à¸Ķà¸
Ġtiáº¿ ng
Ġà®ĩà®° à¯ģà®ªà¯įà®ª
Ġc la
ĠáĥĲáĥ ¤
ien en
Ġáĥ¡ áĥĲáĥľ
à±ģà° £
ĠØº ÛĮØ±
Ø§Ø¦ Ùħ
vo ir
or ge
Ġà®ķà¯Ĭ à®³à¯įà®³
T I
Ġáĥ¥áĥĲáĥļ áĥĲáĥ¥
ÙĪØ³ Ø·
abil ity
Ġà¤īà¤¨à¥įà¤¹ à¥ĭà¤Ĥà¤¨à¥ĩ
_ b
ĠìĪ ľ
ning er
Ġob ject
Ġac count
à¯ĭ à®ķ
×Ľ ×ª
ĠíĨµ íķ´
Ġà¹ģà¸ ¥
ow ane
ĠÎ± Î¾
ĠáĥĿ áĥłáĥĺ
ĠÙĨØ¸ Ø§Ùħ
ãģĭ ãĤĬ
Ġáĥĵ áĥĲáĥª
áĥĶáĥĵ áĥĺ
×Ļ×Ľ ×Ķ
à¤¿à¤ Ĺ
ÏĨ ÎŃ
Äħ Å¼
æį ķ
Ġáĥĺáĥ¡ áĥĶ
ĠÙħÙĨ Ø°
ĠÐµ ÑģÑĤÑĮ
Ĳ áĢ
ĠÐ½ Ð°Ð·
å® ¾
Ġn ic
à§ĩà¦ Ĺ
C M
Ġv Å¡
Ġch á»ĭ
ĠS v
Ġè į
ĠÏĢÏģÎ¿ ÏĤ
ĠC el
Ġà¦ļ à¦¾à¦²
×¦ ×ľ
Ġáĥł áĥĿáĥĵáĥĶáĥ¡
ĠS ci
Ġà¦ ł
Ġà®¤à®®à®¿à®´ à¯į
Î¹ Ïİ
Ġì¦ Ŀ
Ġà¤ĩ à¤¤
ĠÙĩ ÙĦ
z iaÅĤ
t d
ķ áĢ
å³ °
L I
Ġà®ķà¯Ĭà®£à¯įà®Ł à¯ģ
ĠÙĤØ³Ùħ Øª
ad t
zi ÄĻ
unic ip
Ġç ı
uj er
Ġnot re
à· Ķ
iz a
ÑĨ Ð°
b s
ãģ ¶
est en
ĠáĥĲáĥłáĥ¡ áĥĶáĥĳ
Ġkan ilang
ĠMa is
çļ ®
Ġà¸ªà¸ ³à¸«
à°¸ à±įâĢĮ
it utas
Ø±Ø¨ ÙĬØ©
Ġtemp er
ãĥ¼ãĥ Ħ
Ġf i
Ġà®ª à¯ģà®°
Ġcom ent
Ã© l
ow an
Ġáĥ¨áĥĶáĥĽáĥĹáĥ®áĥķáĥĶáĥķ áĥĲáĥ¨áĥĺ
ĠÑĤ ÐµÑħ
à¥įà¤¯ à¤®
Ïį ÏĢ
ÎĳÎ Ľ
Ġì§Ģ ëĤľ
Ġw iel
Ġpub bl
ĠL ive
ĠáĥłáĥĿáĥĽáĥļáĥĶáĥĳ áĥĺáĥª
Ġáĥł áĥĿáĥªáĥĲ
m ÄĽ
ĠT emp
à¯ģà®® à¯ĩ
Ġb lo
Ġpr Ã¡
ä¸ °
ial is
ĠØ®ÙĪ Ø§Ùĩ
à¦¾à¦ĩ à¦¨
Ġèĭ ±
áĥĶáĥĹ áĥ¨áĥĺ
ĠD O
um ento
Ġ3 50
Ġà°ª à°¾à°²
à¹Ģ à¸Ļ
à¤¸ à¥įà¤Ł
áĥ¯ áĥĲáĥ®
ĠæĻ Ĥ
Ġdon de
×ķ ×ķ×Ķ
Ïģ ÎµÎ¹
ÎĳÎ ļ
G A
áĥ¡áĥĲáĥ® áĥ£áĥł
į ¼
ĠÙħ Ø±Ø¨
U K
áĥĶáĥł áĥĺáĥĿ
oug ht
Ġsm all
Ġëª »
áº§ y
9 18
ç»Ħ ç»ĩ
ĠCent er
ÙĬ ÙĬÙĨ
Ġà¸Ĺà¸ ³
Ġà¤¶ à¤¿à¤ķ
iz ed
kt ober
ÙĬÙħ Ø©
å¹ ħ
Ġ×ŀ×Ĳ ×ķ×ĵ
à®¿à® ªà¯į
Ġk asi
ĠÎµÎ½ Ïİ
Ġà¤ķà¤° à¤¨à¤¾
ĠÎķ ÏĢÎ¹
ê¸° ë¥¼
ãĥ¬ ãĤ¹
áĥ¡ áĥĺ
ÑĥÑĩ ÑĪ
ĠMar ia
áĥĶáĥłáĥ Ĵ
ru z
éĽ ¨
áĥĶáĥľ áĥĺáĥ¡
Ġmas ih
ãģ® ãģĬ
à±Ģ à°Ł
à§ĭ à¦ª
ĠáĥłáĥĿáĥĵáĥĶáĥ¡ áĥĲáĥª
ak as
Ġho áº¡t
à¹ģà¸ ķ
Ð¼ Ð°
d zie
ĠØ§ÙĦÙħ Ø´Ø§Ø±
æĺ¯ ä»Ģä¹Ī
ĠÙħ ÙĦÙĬ
Ġ×Ķ×ĸ ×Ķ
ìĦ¸ ìļĶ
áĥĺáĥ ©
èģĮ ä¸ļ
Ġ/ >
Ġà¤¸à¤ķ à¤¤à¤¾
ĠÐ½ Ð°Ð´
Ġpro jet
ĠdÉĻ f
Ġà¤ħ à¤µ
row n
Ġm ich
Ġm ab
ĠPa ul
Ġì´ Ŀ
Ñĥ ÐµÑĤ
Ġbil g
lad Ä±
Ġt Ã¼m
Ġ$(' .
Ġ. :
×¦ ×ķ×¢
áĥł áĥĶáĥ¡
il an
Ġcon oc
ä¼ Ĭ
ab ile
Ġà¤® à¥ĩ
Ġreg ist
Ð°Ð½ Ð¸Ð¸
à¦¿à¦ §
Ġå¥½ è¿Ĳ
Ġà¦Ĩ à¦¨
ĠÐºÐ¾ÑĤÐ¾ÑĢ ÑĭÐµ
Ġt ÉĻk
ĠâĢ Į
æī §
ĠB es
à¸Ńà¸ ±à¸
Ġæ² ³
ħ è¯»
ĠP ed
Ġé© ¬
or zy
ĠA ÄŁ
Ġinst it
×Ľ ×Ķ
éĸ Ģ
Ġ ä¹ħä¹ħ
ig i
à¦¦à§įà¦ ¦
Õ¡Õ ¼
ĠØŃØ³ Ø§Ø¨
Ø±ÙĬ Ùĥ
×ķ×¨ ×¡
å¿ħ è¦ģ
ĠÎł Î¿Î»
Ġáĥ¬áĥĲáĥłáĥĽ áĥĿ
U t
Ġà´ µ
Â ¿
ĠØ¯ Ø®
Ġje ho
Ġc uk
æ±½ è½¦
à°¾à° ¸à±įà°¤
Ġáĥ¤ áĥĺáĥļ
ĠØ¨ Ùĥ
ĠÃ ı
à°¾à°¬ à±ģ
Ġáĥ¯ áĥĶáĥł
Ġcomp et
åħĥ æ£ĭçīĮ
Ġà¦ħ à¦§
à¹īà¸ ¡à¸
Ġà°Ĺà±įà°° à°¾à°®
íķĺ ëĭ¤
L AR
Ġ×© ×Ļ×©
Ġí ĳľ
Ġg ol
ĠD ette
u ur
Ġv Äĥn
Ġmo et
Ġempres a
Ġc ant
ĠíĻ ĺ
ÉĻ v
Ġáĥ¬ áĥĶáĥķ
Ġn ombre
Ø³Øª Ø±
ĠØ§ÙĨ ÙĪØ§Ø¹
Ġà¦¨à¦¿ à¦°à§įà¦
æīĭæľº çĻ»å½ķ
ĠT ot
Ġs ac
ĠØ§ÙĦÙħ ÙĦ
Ġv áº¥n
ĠÐ¿ Ð¾ÑĤ
Ġog ni
ĠÃ§ ev
ÅĦ st
Ġqu á»ĳc
C om
ill es
Ġb Ãªn
ĠVo or
ĠP age
Ġáĥ¡ áĥĺáĥ¡áĥ¢
ìĬ ¹
D E
i ap
à¦¾à¦ Ľ
Ø§Ø§ Ø§Ø§
c le
é¢ Ŀ
l ige
ĠáĥĲáĥ ¨
ans a
Ġb ott
Ġam er
OR T
ĠF eb
ç§ Ģ
pr ise
ĠvÉĻ z
Ġes pa
Ġbil ang
ĠGro up
ĠÎĿ Î¿
Ġres erv
ĠÐ¿ÑĢ Ð¸Ð½
Ġhab e
Ġd all
ĠáĥĽ áĥĺáĥľáĥĺáĥ¡áĥ¢
Ġà§ ®
b ij
Ġà¤« à¤¿à¤°
ĠÙĨ ÙĪØ±
Ġà¦ľ à§Ģà¦¬
à¹Īà¸ ¡à¹Ģà¸
Ġpros es
Ġn ez
à¦¿à¦ ¹
à¤ļ à¥Ģ
Ġcu á»Ļc
à±Ģ à°¤
Ð¼ Ð¾ÑĤÑĢ
Ġà®µ à®¿à®Łà¯įà®Ł
è²¸ æ¬¾
ĠÐ² ÐµÑĢ
Ġ2 20
× ģ
Ġëł Ī
Ġà®ļ à¯ĩ
ĠA qu
æĸ°éĹ» ç½ĳ
à°¿à°¨ à°¾
ĠØ« Ø¨Øª
ĠÎĶ ÎµÎ½
az ar
ĠØ¹ÙĦ Ùħ
if est
Ġà¤Ł à¥įà¤°
ĠØ§Ø¹ ÙĦØ§Ùħ
Ġãĥĸ ãĥ©
Ġà¦® à¦¨à§ĩ
ãģ§ ãģĤãĤĭ
Ġm Ã¶v
æĪĲ ä¸º
r d
ľ ëĵľ
Ġáĥ¢ áĥĶáĥ¥
Ġ×Ļ ×Ĺ
Ġg re
è Ĩ
eh ir
ĠSp ec
è´ ¦
Ġg ibt
ãĥĶ ãĥ¼
33 3
éģ ĩ
ĠÐ± ÐµÑģ
Ġw atch
Ġs d
Î³ Ïĩ
à¯Ĭ à®£à¯įà®Ł
Ġa os
ĠáĥĴáĥĲáĥľ áĥĲáĥªáĥ®áĥĲáĥĵ
à©± à¨
apat kan
ĠáĥĴáĥĲáĥĵ áĥĲáĥ¬áĥ§áĥķ
ĠC ur
é¢ ¨
à¤¾à¤ ī
ĠJ es
Ġ×Ķ×Ĳ ×Ŀ
ĠÙħÛĮâĢĮ ØªÙĪØ§ÙĨ
Ġ×Ļ ×¢
Ġà¤ļ à¤²
ĠI de
ĠØ³ Ùģ
Ġm Ã£
Îķ ÎĿ
Ġç ¤
Ġf on
± à¹īà¸Ļà¸
ĠØ§ÛĮ Ø¬Ø§Ø¯
Ġb ran
ĠØ± ÙĨÚ¯
Ġpag t
Ġall es
ien ie
Ġà¤µà¤¿à¤ ¦
Ø¢ ÙĨ
Õ¡Õ º
ft ar
ĠÏĮ Î»
ĠáĥĴáĥĺáĥĿ áĥłáĥĴ
Ġab b
à±Ģà° İ
Ġ×ŀ× ŀ
áĥĶáĥķ áĥĲ
b st
Ġà°ī à°ª
Ġpr v
Ġå ĭ
Ġwy k
ç® ±
ov al
Ġbu ild
Ġl ic
ĠUn ited
éĢī 5
Â °
ĠØ¶ Ø¯
áĥ¢ áĥĺ
Õ ¹
ill o
Ġà®ĩà®°à¯ģà®¨à¯įà®¤ à¯ģ
Ġl Ãºc
ĠAzÉĻrbay c
à°¾à°Ĥà° ¡
ĠáĥĵáĥĲáĥĻ áĥĲáĥķáĥ¨áĥĺáĥł
Ġz p
ĠÙĨ ÙĤÙĦ
ĠA h
áĥĿáĥľ áĥĿáĥĽ
Î»Î· ÏĤ
Ġáĥ¤ áĥĶáĥ®
Ġdey il
ä»· æł¼
Ġà¤¸à¤¬ à¤¸à¥ĩ
Ø§ÙĨ Ø§Øª
ĠT ut
ĠHo use
Ġfot ograf
Ġby l
} ,
Ġt able
Úĺ ÛĮ
Ġr ag
Ġng ay
ĠdeÄŁ iÅŁ
èĹ ı
Ġà°ķ à°°
ĠÏĩ ÏģÎ·
ģà¸© à¸²
à¤¶ à¥Ģ
Õ¥Õ ²
ĠR oma
Ħ à¸£à¸²à¸°à¸
Ġph Æ°Æ¡ng
Ġf rem
Ã¼ f
ĠÙĤ Ø¯Ø±
à±Ĩ à°Łà±įà°Ł
ĠÚ© Ø§Ùħ
t ar
åľ° åĮº
Ġt es
à¦ ĺ
ic ia
Î´ Ïħ
B S
ĠìĹ ħ
à¤¡ à¥Ģ
Ġhe Ã§
ı à¸
Ġæį ®
Ġáĥ§ áĥĿáĥ¤
åĽ °
ãĤĵ ãģł
à¨ Ĥ
ĠáĥĵáĥĲáĥ Ķ
à´¤ àµįà´¤
ŀà¸ §à¸
Ġfo od
ãĥ¼ ãĥ³
Ð°ÑĤ Ð¾ÑĢ
Ġíģ ¬
×ķ×¤ ×Ķ
à¥įà¤° à¥ĩà¤¸
Ġà®İà®©à¯įà®ª à®¤à¯ģ
á»ĩ t
Ġsal ah
Ġn ÉĻz
Ġst ory
Ġp ur
ĠÎ¾ Îµ
â ķ
à°ª à°¡
ĠáĥĽáĥĲáĥ¨ áĥĺáĥľ
è´ µ
ãĤ ´
äºº çĶŁ
ab l
it le
ĠÎķ Îº
à¯Īà®ķ à®³à¯Ī
à¦¾à§ľ à¦¾
Ġb un
ãģ«ãģª ãĤĭ
Ġpart ner
ĠC Ã³
Ð° ÑĨÐ¸Ñı
ĠÐ½ ÐµÐ´
ĠÏĢ ÏģÎ±Î³
Ġbir lik
ord o
Ġper d
ĠB ey
à§ľ à§ĩ
Ġ×Ĵ ×ĳ
ãĥ¼ãĤ «
Ġs lik
ĠE ste
èĥ½ åĬĽ
ĠÙĨ Ø¬
ĠL uc
áĥĲáĥłáĥļ áĥĲáĥĽáĥĶáĥľáĥ¢
Î´ ÏĮ
Ġà´ ¸
ÛĮÙħ ÛĮ
ÙĨØ¯ Ø§ÙĨ
Ã¤ nd
et as
à¦¿à§Ł à¦¾à¦°
Ø· ÙĦ
Ġì º
Ã¡v el
Ġà®İ à®Łà¯ģà®¤à¯įà®¤
ĠáĥĶáĥķáĥł áĥĿáĥŀ
à¹īà¸Ńà¸ ¢à¸
ãĤ¤ ãĤº
´à¸ Ķà¹Ģà¸
ick y
Ġà¦ĩ à¦¨
åı ³
ĠÐ´ Ð°Ð½
Ġä½ ķ
éģ ĭ
æ¥ ¼
ro ve
ĠÙ¾Ø§Ø³ Ø®
Ġk up
å¥ ¥
pl an
ĠÙħØ³ Ø¦
Â ¸
aw ang
Ħà¸£à¸²à¸°à¸ «
Ġ à¹ĥà¸Ļ
à®¿à®ķà¯įà®ķ à®ªà¯įà®ªà®Łà¯įà®Ł
Ø¨ Ø±Ø¯
ÙĪÙĨ Ø§
Ġà®µ à®³
ĠÙĦ Ø¥
Ġde ve
Ġcons um
ĠÙĦ ÙĩØ§
ĠÎļ Î±Î¹
Ġ×©×Ķ ×ķ×Ĳ
ĠÐŁ Ð¾
£ Į
èĥ Į
áĥĲáĥłáĥ £áĥļáĥĺ
ĠĈ ć
Ġmus ic
ĠW as
åº Ħ
ĠÙħ ÙĦÛĮ
ÙĬÙģ Ø©
à°¿à° §
Ġs le
Ġ? !
Ġå¤§åıĳ æŀģéĢŁ
Ø± Ø®
ĠB ak
Äį e
à¦¾à¦ĩ à¦²
ÏĢ ÎŃ
©áĥĶáĥķ áĥľ
ro k
à§įà¦² à¦¾à¦¹
×ķ×ŀ ×Ļ
amp a
S A
ĠØ· Ø±Ø§ØŃÛĮ
Ġ à¸Ńà¸Ńà¸Ļà¹Ħà¸¥à¸Ļà¹Į
Ġth am
Ġal am
Ø³Øª ÛĮ
ĠC Ã¡c
à§ ¨
at ro
Ġv eg
ĠÑĤ ÐµÐ»
v od
ĠÑĩ ÑĤÐ¾Ð±Ñĭ
¸ à¸Ļà¸
æĦŁ ãģĺ
è¡ ĵ
×¨×Ľ ×ĸ
çİ¯ å¢ĥ
Ġw il
Ú¯ ÛĮØ±
aw in
Ġe qu
Ġb ab
Ġf lo
æĿ İ
áĥĽ áĥĲáĥľ
Ġà¤ª à¥ģà¤²
Ġc av
ĠæĬ ķ
Ġbor der
éĵ¾ æİ¥
ĠP T
à§ĩà¦² à¦¾à¦°
Ġáĥĺáĥ¡ áĥ¢
à°ļà±įà°ļ à±ģ
Ġà¹Ģà¸ §à¸¥à¸²
and Ä±r
ĠÚ©ÙĨ ÙĨØ¯Ùĩ
Ã °
g ing
ë¦ Ħ
ãģĿ ãģ®
á» ħ
ĠS outh
ĠfÉĻ al
åĵģ çīĮ
r ak
Ġà¤¸ à¤¾à¤²
Ġà¦ħ à¦ªà¦°
Î² Î¿Î»
à§įà¦¯ à¦¾
ĠÙĪØ± Ø²Ø´
×Ļ×ĵ ×Ķ
ra it
ĠÎ¬ Î½
Ġà°ª à°Łà±įà°Ł
Ġval or
ĠåĲ Ī
Ġà¤¸ à¤Ńà¥Ģ
Ġdi ese
Ġexperien ce
Ġdu y
ĠO P
è¯ Ģ
ĠØ§Ø¬ Ø±
Ġd áº«n
ĠÙĪ Ø§Ø±Ø¯
Ġch ang
Ġmeng h
áĥĲáĥķ áĥĶ
à°¿à°Ĥà° ª
is ation
ĠF ra
Ġ365bet å®ĺç½ĳ
Â ¼
à¤µ à¤¨
ĠæĿ ±
Ġs og
ow any
Ġre present
ĠS ev
ë§ Ĳ
az a
ÏĥÎ¹ Î¼Î¿
uk s
Ġby Äĩ
ĠØ® Ø§ÙĨÙĩ
ĠUn d
ĠtÉĻÅŁ kil
c as
Ġa ks
à¹ĥà¸«à¸į à¹Ī
Ġte Å¼
ĠN á»Ļi
éĺ ¿
ÉĻt ic
ĠëĶ Ķ
Ġcl ub
Õ ©
ĠÙĪØ§ÙĦ Ø¹
ĠØ§Ø³Øª Ø®Ø¯Ø§Ùħ
Ġagçİ¯äºļ éĽĨåĽ¢
ig ur
Ġob j
Î¹ÎºÏĮ ÏĤ
ĠáĥĽ áĥĶáĥª
ĠáĥĲáĥ Ĺ
ìĭľ ê°Ħ
ver pg
Ĥà¸²à¸ ¢à¸
Ġà¦¨ à§Ł
æŁ »
re ct
ĠÄĳá»ģ u
à¤ļ à¤¾
ÛĮÙĨ Ú©
Ġsu o
ĠT i
ĠS anta
å½± åĵį
ĠÑĢ ÐµÐ³
Ġè ĥ½
ĠÎ´Ïį Î¿
< /
ĠS it
overn ment
Ġí ħ
Ġà¹ģà¸ ķà¹Ī
am ina
ĠØ¨ Ø¥
àµįà´ °
p end
il ing
ÎŃ Ïĩ
ĠInst it
Ġh izmet
à®Ļà¯įà®ķ à¯ģ
Ġà¦¦ à§įà¦¬
à¦¿à¦· à§įà¦ł
al Ä±k
ç§ Ł
ĠÙģ Ø±Ø¯
ĠÑĩ ÐµÐ»Ð¾Ð²
ĠÃ¶ l
Ġr ela
ĠçĻ¾ å®¶ä¹Ĳ
Ġn ada
Ġs ide
l end
Ġë© Ķ
ì ±ħ
ĠP ay
Ġhes ab
ĠáĥĶáĥł áĥĿáĥķáĥľ
Ġç Ĵ
Ġà°¹ à±Ī
ĠÙĦ Ø¹
ĠN as
Ġæ ¨
Ġver m
Ġæ £
Ġch Æ°a
×ĸ ×§
à¯ģà®± à¯Ī
áĥĶáĥķ áĥ¡
áĥĲáĥĸ áĥłáĥĵ
ä¸į åĲĮ
Ġà®®à¯ģà®¤ à®²à¯į
Ġáĥŀáĥł áĥĿáĥĳáĥļ
ist s
af e
ĠAn n
Ø² Ø§Ø±ÛĮ
Ġà°¦ à±įà°µ
å¤§ åİħ
Ġd ere
U C
h as
Ġstand ard
ĠT ro
à¤°à¥įà¤ ¸
ĠÙĪÙĤ Øª
w iet
ªà¸ ¡
ĠØ¥ ÙĦØ§
ë¦ ī
à°¾à°¨ à±į
Ġb áº¥t
Ġ>< /
v Ã¡
ar ed
Ġà¦ħà¦¬ à¦¸à§įà¦¥
ĠWh en
×Ĵ ×¨
k ÄĻ
ang kan
Ġke ep
ÅĽ my
Ġáĥ¥ áĥĲáĥłáĥĹáĥķáĥĶáĥļ
å¾ ģ
li ÄŁi
ĠØ§ÙĦÙħ Øº
Ġinst al
Ġb ent
ĠN um
Ġë ģ
ĠÄĳá»ĭ a
Ġne i
Ġar m
ament os
und u
ikt ig
ĠÚ© ÙĪ
ĠÐ¸ Ð³ÑĢ
Ġap a
ĠS M
Ġà®¤ à¯Ĩ
ĠD al
áĥ£áĥ ©
d s
ĠÙĥ ÙĬÙģ
un de
ĠÙĩÙħ ÛĮÙĨ
Ġver g
Ã©c n
Ġà¦¸ à¦¾à¦§
à¹īà¸ ³à¸
Pr ice
ĠØ² ÙĬ
ĠBe ach
ÙĪØ¯ Ùĩ
ĠáĥĿ áĥ¥
ìĻ¸ êµŃìĿ¸
ëŁ °
Ġà®ħà®µ à®°à¯įà®ķà®³à¯į
çµ Į
ut h
H A
Ġáĥ¬ áĥĲáĥĽ
Ġç ĸ
áĥľ áĥĺáĥĶáĥł
Ġpro jekt
Ġà¦ķà¦¾à¦ Ľà§ĩ
à¥ģà¤ ³
t id
ĠÙħ ÙĩØ±
Ġz as
ĠAn o
Ġg Ã¼z
ĠZ a
ĠÃ© ta
Ġáĥ¡ áĥĿáĥ¤
Ġà°¤ à±ĭ
ĠÐ´ Ð¾ÑģÑĤ
ĠR p
Î® Î¼Îµ
ä¸į èĥ½
Ġk lar
Ħà¸ ³à¸
ĠIn c
×ķ×¨ ×ķ×ª
Ġà¦¤ à¦¾à¦ĩ
el um
Ġdo en
Ġà°¤ à°ªà±įà°ª
ĠÂ ¨
il ar
Ġà°ļà±ĩà°¶ à°¾à°°à±ģ
áĥĿáĥłáĥª áĥĺáĥĶáĥļ
Ġà¦¦ à§ĩà¦ĵ
Ġb ert
Ġbul ate
Ġp Ã¡
Ġindust ri
Ġtá» ¥
ĠT an
ĠåĪĨ åĪĨå½©
ÅĻ eb
Ø± Ø§Ùģ
Ľà¸¥ à¸µà¹Īà¸
Ġçº ¿
à¥ĩà¤Ĺ à¤¾
ĠáĥĽáĥĶáĥĿ áĥłáĥĶ
à°ª à±ģ
Ġcent er
uk i
ol ar
Ġà¦¨ à¦¿à¦°
Ġp ati
Þ ¬
at os
ĠÃ¶n ce
Ġmarket ing
ë° ±
ĠØ¹ Ø¯Ùħ
Ġver b
à±ĩà° ¸à±įà°¤
Äį enÃŃ
à¥ģà¤ ·
uk tur
ĠW ed
Ġà¹Ģ à¸£à¸
Ġs Ã¡ng
Ġho Ãłn
lÉĻr ini
ĠB M
è¯ į
¤ Ħ
áĥĲáĥ¡ áĥ¬
p re
ï¼ ĵ
ĠA Z
åŃ¦ æł¡
Ġà¤¦ à¥ĭà¤¨
Ħ à¹Ī
Ġop in
åŃ ¸
ĠÕ Ħ
ĠPr z
ÅĻ ej
Ġáĥĵáĥ¦ áĥĶ
Ġãĥ Ń
ĠOp en
ç» į
Ħà¸ ·à¸Ń
ä¸Ń å¤®
Ġæ ¡
Ġãģ ©
ĠÑĥ Ð¶Ðµ
ra in
Ġà°ª à°¨
Ġilg ili
ÙĪÙĨ ÙĬ
ä¸ ½
Ġgi Ãł
à¸Ļà¹īà¸ ³
Ð¸Ð½ Ð³
à¹Ĥà¸ ¢à¸
Ġà´ ®
èĮ ¶
Ĺ i
ĠW o
åŃ¦ éĻ¢
ĠR uss
ĠBus iness
Ø· ØŃ
Ġê°Ģ ìŀ¥
ki ÅŁ
à¯ģà®³à¯įà®³ à®¾à®°à¯į
ĠæīĢ ä»¥
Ġde al
ĠCh i
áĥĿáĥļ áĥĺáĥ¡
Ķà¸ ³
ip p
ĠD ata
ãģ§ ãģĹãĤĩãģĨ
ĠTr ong
ê¹ Ģ
Ġant es
ç¤ ¼
áĥ® áĥĶáĥĵ
Ġpig ment
Ķ à¹Į
Ġà°µà°¿à° ¶
Ġter j
ĠN ag
Ġtr ading
à¯ĭ à®Łà¯ģ
· à¸Ńà¸ĩ
ĠÎ±Ïħ ÏĦÎ¿
ÑĢÑĥ Ð´
Ġal ways
áĥ£áĥ ŀ
ĠM ater
´ë ¦
end re
ĠY eni
ĠP ero
Ġ: "
ÐºÐ° Ñĩ
Ġcle an
Ġáĥ¤ áĥĲáĥ¥áĥ¢
ĠØµÙģ ØŃÙĩ
ĠÐ¾Ñĩ ÐµÐ½ÑĮ
Ġol ub
ĠServ ice
Ġcz ÄĻ
ĠR oz
Ùĩ ÙĲ
k Ã¼n
er os
áĥĺáĥ« áĥĶ
à°Ĥà° ¡à±ģ
Ġà¤« à¤¿à¤²
çĻ ¼
«à¸ ¢à¸
Ġá¼ Ģ
ç¶ ²
ä¹¦ è®°
à°¦ à±ģ
ĠåĨ į
ĠP ad
Ã³r ia
Ġs ort
à¥ģà¤ ĸ
f ach
ĠL ev
ÛĮØ¯ ÛĮ
ĠmoÅ¼ na
Ġd y
ĠÃ© c
Ġaut res
Ġ ä¹Ĳ
à¹ģà¸ Ĥ
ap on
Ġorig in
en ne
N S
à§ĭ à¦ľ
H z
Ġh á»Ļ
Ġà¸ Ĥà¸
eld ig
Ġav ant
ĠtÉĻrÉĻf indÉĻn
Ġáĥ£áĥ ĳ
Ġà¸ §à¸´à¸ĺ
Ġwe er
à¤¨ à¤²
Ġa w
×ª ×Ĺ
æĺ¯ ä¸Ģ
al mente
âĸ ¡
irs iniz
à±Ģà° Ĩ
©à¸ ±à¸
as is
Ġr z
Ġnie uwe
à¶ ļ
ĠÏħ ÏĢÏĮ
Ġm ÉĻq
à¤¦ à¤¾
w in
Ġs ÉĻn
Ġbir i
ĠU hr
ãĤ» ãĥĥãĥĪ
Ġà®ĩ à®©à¯įà®©
Ð ¤
Ġen vir
×¤ ×ľ
k Ã³w
ľà¸¥à¸ ´à¸ķà¸
ĠÐ½Ð° Ñģ
à®¾à® ¨à¯įà®¤
Ġà¦ıà¦ķ à¦Łà¦¾
Ġà¤Ĩà¤ª à¤ķà¥ĭ
ĠÐ° ÑĢ
m aya
ÙĪÙĤ Ø¹
Ð°Ñģ ÑĮ
ot en
ĠÎ¼ÎŃ ÏĥÎ±
Ġà¤Ĩ à¤®
Ġil alim
ĠL im
Ġpol ÃŃt
Î´ Î±ÏĤ
Ġà°ķà°¾à°° à±įà°¯
ĠÄĳá»ķ i
Ġut en
à´ ³
ĠØ¯Ø± Ø¨Ø§Ø±Ùĩ
ĠÎ£ ÏħÎ½
Ġw on
ĠÐ ĸ
ĠÄ° stanbul
åıĸ ãĤĬ
kat apos
Ġëĭ¤ ë¥¸
Ġva xt
àµģà´ Ĥ
ä¸Ĭ çļĦ
Ġis s
Ġbel ÉĻ
c iones
Ġistif adÉĻ
Ġwit hout
Îº ÏģÎ±
à¤¾à¤ļ à¤¾
×ł ×§
n an
Ġf an
Ø§Ùĩ Ø´
h ttp
ĠfÃ¸l ger
Ġíķ¨ ê»ĺ
éĥ¨ éĹ¨
è¯ ī
à¥Ĥ à¤®
ÉĻ st
áĥļ áĥĶáĥĳáĥĲ
ĠÙħ Øº
à¹Ĥ à¸Ńà¸
à´ ¨
à¦Ĺà§ģà¦² à§ĭ
«à¸¡à¸ Ķ
ĠåĽ½ éĻħ
Ġà°ħ à°¡
Ġà°¸ à°¾à°§
ĠB ang
Ø¶ Ø±
ĠåŃ Ĳ
ĠD EL
Ġbon us
as Ä±nÄ±
Ġáĥ¡áĥ¬ áĥĿáĥł
ĠÚ¯Ø±Ùģ ØªÙĩ
ç¦ı åĪ©
ĠØ¯Ø± ØµØ¯
Ġç¾İ åĽ½
Ġà¦¹à¦¿à¦¸ à§ĩà¦¬à§ĩ
Ġdur um
ĠA gen
Ġ$(' #
Ħà¸ °
Ġ& #
Ġáĥŀáĥł áĥĿáĥ¤
áĥļ áĥĶáĥĳáĥĺ
Ġq eyd
Ð¾Ð½ Ð°
Î» Ïİ
Ġåį İ
ĠÛ±Û °
ĠØ§Ùģ Ø²Ø§Ø±
å§ Ĳ
áº¥ m
ĠF ull
ĠÙħØ¯ ÛĮØ±ÛĮ
Ġ×Ļ ×ľ
Ġse p
er ca
ĠHa ir
Ð°Ñĩ ÐµÑģÑĤÐ²
à¤ª à¥Ģ
Ġì »
ĠðŁ Ļ
Ġà®ĩ à®£
Ġpesso as
Ġil dÉĻ
ĠáĥĿ áĥŀ
à¹Ģà¸£à¸µà¸ ¢à¸
ĠåĲ İ
Ġåħ Ī
Ġkont akt
ĠM edia
éĢ Ĥ
à®© à®®à¯į
r ig
ĠØ§ÙĦØ¬ Ø²
ib ig
Ġz v
Ġè Ĳ
ÉĻt ÉĻn
Ø³Ø¨ Ø¨
Ġâĺ Ĩ
ĠG esch
Ġ×ľ×ŀ× ©
è° Ī
åĪĽ æĸ°
ĠD Ã¼n
Ġà°® à°Ĥà°ļ
Ġv ie
Ġt oll
åŃ¦ ä¹ł
à¶ ¸
ÑĨÐ¸ Ñİ
ÏģÎ¯ ÏĤ
it ional
Ġreg ul
ĠáĥĺáĥĴ áĥĺ
éĢ ı
áĥĲáĥ¦ áĥĽ
çĸ ĳ
áĥĲáĥĻ áĥĶáĥĹ
ĠÐ¾Ð± Ñī
ĠWh ite
ĠU l
ĠâĻ ¥
Ġáĥ¬ áĥĺáĥľáĥĲ
Ãº mer
er min
ĠØ¨Ùĩ âĢĮ
ĠI d
Î¯Î½ Î·
Ġà°ķ à±ĩà°¸
ĠÐ½ ÑĥÐ¶
er er
ĠØ¥ ÙĦÙĬ
ª à¹Īà¸ĩà¸
ĠP s
×ķ×ĳ ×Ļ×Ŀ
**** ****
Ġta x
Ġk um
55 5
Ð» ÐµÐºÑĤ
ĠC C
à°¾à°Ĥà°Ł à°¿
Ħà¸£à¸Ķà¸´à¸ķà¸ Łà¸£à¸µ
Ġ×ª ×Ĺ
ĠÐ¿ Ð°ÑĢ
ÙĪ Ø§Ø¬
Ġde di
Ġà°ķ à°¥
at te
Ġchild ren
Ġb ac
ĠÏĩ Ïİ
ÙĢÙĢÙĢÙĢ ÙĢÙĢÙĢÙĢ
Îķ ÎĻ
ĠM use
à±Īà°¨ à°¾
© ´
Ĺ à¹īà¸²à¸
Ġà°ľ à±Ģà°µ
Ġst av
åıª ä¸º
à¸Ļà¸µ à¸
Ġs ÅĤ
Ġl iá»ĩu
éģ ķ
Ġw aktu
Ġc it
Ġc ad
Ġ×Ķ×ŀ× ª
Ġê°Ģ ëĬ¥
ĠÐ² Ð·
Ø§Øª Ùģ
Ġë² ł
Ġáĥŀ áĥĲáĥ¡áĥ£áĥ®
ĠØ§ÙĦ ÙĪÙĤ
Ġp unt
à¤¾à¤· à¥įà¤Łà¥įà¤°
Ġà®ħ à®²
D etail
ew s
Ġa ang
Ùģ Ø¸
Ġåį ³
åĩ ı
áĥĲáĥľ áĥĻ
Ġgo ing
åįķ ä½į
ch ter
ap s
ĠH or
Ø³ ÙĦ
, ,
Ġìłľ ê³µ
Ġáĥ¨áĥĶáĥ¡ áĥĲáĥĳ
Ġà°ķ à°¿
Ġprop ri
à¹īà¸²à¸ ĩ
od en
ĠÎ» ÏĮÎ³
Ġant i
Ġh y
ĺà¸ ¸
Ġë¸ Ķ
ģà¸ §à¹Īà¸²à¸
ĠÙĪ ÙĦÛĮ
Ġcont en
áĥĽ áĥľ
der n
ĠF amil
Ġà¦ħà¦¨ à§ģà¦·à§įà¦ł
Ġà¤ķ à¤Ī
Ġs á»Ł
åĤ Ļ
ess en
ell ing
ĠS E
Ġmy e
g j
à®¿à®ķà¯įà®ķ à¯Ī
ĠG reen
Ġà¦® à¦¾à¦®
Ġ×ľ ×¨
Ð¸ÑģÑĤ ÐµÐ¼
ĠF ol
çĦ¡ ãģĹ
à®¤à¯įà®¤ à¯ģ
áĥĲáĥ¨ áĥĿáĥłáĥĺáĥ¡
ĠÏĩ ÏģÎ®
Ġc en
áĥľ áĥ¢
Ġç ĥ
Ġà°®à±Ģ à°¦
à§ĩà§Ł à¦¾à¦°
Ġq ÉĻb
uz ione
ë ¹
×© ×ĳ
ĠãĢĳ ,
Ġãģ¾ ãģŁ
ĠCom m
à· ĥ
Ġmont h
à¦¾à¦ķ à¦¾à¦°
ĠV ir
Ġpr is
ĠÐ´Ð¾Ð» Ð¶
ĠH ier
Ġcent ro
ĠT amil
à¦¾à¦ĵ à§Łà¦¾
ĠÐĿ Ð¾Ð²
Ġph oto
à°¨à±įà°¨ à°¾à°°à±ģ
Ġ×Ĵ ×¨
ĠÕ ©
è° ·
ot ti
Ġáĥ¨áĥĶáĥ¡áĥĲáĥĳ áĥĲáĥĽáĥĺáĥ¡
Ġ×© ×ŀ
ĠB ig
ĠAm azon
ãģķãĤĮ ãģŁ
c Ã¼
Ġà¦® à§ĥà¦¤
Ġp is
ļ áŀ
×ķ×Ĺ ×ķ×ª
ĠK ing
åħŃ åĲĪ
åħ³ ç³»
ãĥ³ãĤ º
ik ir
ĠØ²ÙĨØ¯ Ú¯ÛĮ
×¤ ×ķ×ª
ki em
Ġp oco
×¨×Ľ ×ª
p an
c am
ĠØ¬Ùħ Ø¹
ĠØ§ÙĦ Ø§ØŃ
ĠØ± ÙģØª
Ġsol id
Äį ka
Ġà®µà®´ à®Ļà¯įà®ķ
Ġä½Ĩ æĺ¯
à¸µà¸¢à¸ ĩà¸
Ġç ł
Ġng hi
ìĸ µ
ÐµÐ½ Ð´
Ø¬ ÙĬÙĦ
ou ve
ļ à¹Ģà¸
ĠâĻ ª
Ã¤ h
áĥĶáĥĿáĥĳ áĥĺáĥ¡
à¤¾à¤ļ à¥Ģ
Ġà¤ķà¤¾à¤° à¤£
ĠÙĨÛĮ Ø§Ø²
à®ªà¯įà®ªà®Ł à¯ģà®®à¯į
Ġrec ord
áĥª áĥĺáĥĲ
ĠØ³ Ø±Ùħ
Ġf lere
ib er
Ġáĥª áĥľáĥĿáĥĳ
à±ĭ à°ª
ĠâĢĻ ,
Â ½
Ġ×Ľ ×ŀ×Ķ
Ġinc ont
ĠF em
Ġn bsp
E lement
Ġanmeld elser
at ter
Øº Ø©
Ġn ik
ãĤµ ãĤ¤ãĥĪ
è¿ĳ å¹³
Ġà¦ Ŀ
Ġis te
ªà¸£à¹īà¸²à¸ ĩà¸
ķà¸ ¥
à¤² à¥įà¤¯
ific ation
nie Å¼
N D
e ur
ĠÃ£ ÆĴ
éģ Ķ
ĠëĲ ľ
à¦¿à¦ķ à¦¾à¦°
ŀà¸ ·à¹īà¸Ļà¸
ĠT ari
Ġbel ir
ĠS pe
Ã² a
ĠÑģÑĤ ÑĢÐ°Ð½
à´ ²
Ùĩ ÙĨ
ĭ à¸µ
Ð°ÑĤ Ð°
ĠN O
à°¾à°¨ à°Ĥ
ÏĦÎ¿Ïħ ÏģÎ³
ç´ §
Ġà¦® à§ģà¦ĸ
ĠØ³ÛĮ Ø³ØªÙħ
Ø±Ùĥ Ø§Øª
×¤ ×¡
ĠáĥĴ áĥĿáĥĴ
Ġm id
Ġinter est
à¹Ģà¸£à¸µà¸ ¢à¸Ļ
ÛĮ Ø§ÙĨ
à¤ Ŀ
Ġh ey
Ġkter Ã¡
uk t
ÙĪ ØªØ±
Ġà®Ĩ à®¤
Ġti empo
ç§ ĺ
ÙĥÙĪÙħ Ø©
Ġm 2
×ķ×© ×Ķ
Ġol uÅŁ
ĠR et
è¿ ·
Ġtrans form
Ġà°ª à±ĩà°°
Ø³ Ùĩ
Ġà¦ľà¦¾à¦¨ à¦¾à¦¨
g od
Ġà° Ĺà°¾
Ġáĥ¡áĥĲáĥŃ áĥĺáĥł
ĠSt at
Ġìĭ ¬
ov Ã½ch
ĠÎķÎ»Î»Î¬ Î´Î±
Ġreg istr
Ġb ot
ĠØ¬Ùĩ Ø§ÙĨ
ĠÙĪ Ø´
Ġà¦¸ à¦¾à¦°
ìĹ Ĩ
ill s
Ġg ag
à°¾à°° à°¨à°¿
ĠØ³ Ø§ÛĮ
Ġch uyÃªn
é¨ ĵ
à¸£à¸ ĸà¸
Î¿Ïħ ÏģÎ³
ĠÎ¼ÎµÎ³ Î¬
çĭ Ĥ
Ø§Ø· ÙĤ
Ġé ĸ
_ n
Ġ×ľ ×ĺ
Ġ×Ķ×Ĳ ×Ĺ×¨
Ġà¸ ľà¸¹à¹īà¸
à¥įà¤² à¥Ģ
vv ÉĻl
aar ing
Ġãĥ Ģ
«à¸Ļà¸ ±à¸ĩà¸
Ġà°µà°¿à° §
Ġé¦Ļ æ¸¯
Ġt eng
Ġm oc
Ġè¿ ĳ
Ġà¤ī à¤¦
Ġà®ª à®¿à®©à¯įà®©
Ø° Ø±
ĠÚĨ ÛĮ
Øº Ùħ
Ïĥ Î¯
Ġs y
Ġà¦® à¦¨
æĶ¿ çŃĸ
×ĳ×¨ ×Ļ×Ŀ
Ġà¸ «à¸£à¸·à¸Ńà¸
ayÄ± b
Ġà¦® à¦¾à¦§à§įà¦¯à¦®
Ġon a
Ġë§ ŀ
ĠØ³Ø±ÛĮ Ø§ÙĦ
Ġìł Ĳ
Ġk ec
Ġtrans port
áĥķ áĥĺáĥłáĥ
ĠSt art
Ġáĥŀ áĥĲáĥłáĥ¢
à¤¾à¤¸ à¥įà¤¤
em at
ĠáĥĹ áĥķáĥĺáĥĹ
å· ¦
×ĸ ×¨
à¦¿à¦¤ à§įà¦°
Ġqual ity
Ø® Ø¯Ùħ
×ķ×¤ ×Ł
Ġå¤ ª
Ġsu re
à¹īà¸ ĩà¸
ìĿ´ ëĤĺ
Ġc v
áĥ£áĥ «
Ġhe ad
Ġà°ķ à±ĩà°Ĥà°¦à±įà°°
à¤ķ à¥įà¤Ł
ec a
Ġm igli
eb i
Ġth Ã¢n
Ġs erta
Ġà°ľ à°¿à°²à±įà°²
if ul
Ġà¦¦ à¦¿à§Ł
ģà¹Ī à¸Ńà¸Ļà¸
çĪ Ĩ
Îº ÎŃ
à°¦ à±ĩà°¶
à¦¾à¦¦ à¦ķ
ar ab
ag ens
ĠÅŁek ilde
Ġs ÉĻr
à¤¤à¥Ģ à¤¯
1 20
Ġà®ļà¯Ĩà®¯ à®²
Ġà°ªà±įà°° à°¤
Ġf ew
e arch
ĠØ² ÙĨ
ĠBl ue
Ġê°Ļ ìĿĢ
Ġà°ļ à°Ĥà°¦à±įà°°
ĠÃ Ĩ
ĠK le
ë§ Ŀ
Ġà°ħ à°®à±įà°®
kiÅŁ af
ĠáĥĽáĥĶáĥ¢ áĥĺ
Ġà®ķà¯ģà®± à®¿à®ªà¯įà®ª
Ġà¤¤ à¥ģà¤®
ĠG ame
n ers
Ã¡ Å¡
Ġme et
ir as
èĢĥ è¯ķ
åĦ ª
ĠáĥĿ áĥ¯áĥĲáĥ®
ÙĩâĢĮ ÛĮ
Ġi phone
åĲ ¸
ĠÙĬ Ø³
×¦ ×Ķ
F OR
C P
ĠáĥŀáĥłáĥĶáĥĸ áĥĺáĥĵáĥĶáĥľáĥ¢
ĠØ¬ Ø§ÛĮ
Ġkar ÅŁÄ±
Ġæ² ¡
Ġk ong
§à¸ ±à¸Ļà¸
Ġparas ites
Ġh Ã¡
à¨ ¹
Ġk ort
ri cht
ici os
Ġà®ķ à®£à¯įà®Ł
Ġf ine
à¦¸ à§įà¦ķ
le ct
Ġà®ªà¯ĭ à®°
Ġz ad
à®¿à®¯ à®¤à¯ģ
ÏĦÎ¿ Î¹
ay ÉĻt
Ġ ãģĮ
ĠìĿ Į
ĠÐĺ Ð½
Ġrem ove
äº ķ
à°¿à° ³
Ð°Ð» Ð¸Ð·
ĠÐ¼ ÐµÑĤ
ëĵ¤ ìĿĦ
à°¾à°Ĥà° ķ
Ġà®®à¯ģà® ´
Ġ×ŀ×ŀ× ©
Ġ[ /
à¸£à¸²à¸ Ĭà¸
t te
ÙĪÛĮ Ø³
ent ing
áĥ® áĥļ
urs os
Ð¾Ð² Ð°ÑĢ
Ġè¿ Ľ
ar et
Ġtro p
Ġh ast
op h
ĠØ¯Ø± ÙħØ§ÙĨ
ĠØ§ÙĦ Ø§Ø¬
ç²¾ ç¥ŀ
áĥĲáĥłáĥ £áĥļ
ĠÙĨØ´ Ø§ÙĨ
à¹ģ à¸Ńà¸
ÐµÐ½ Ð¸Ñİ
Ġ- >
à¸Ńà¸ ±à¸Ļà¸
ĠgÃ¶ ster
áĥĺáĥł áĥĶáĥĳáĥĲ
ì½ľê±¸ ìĥµ
áĥ¤ áĥĶáĥł
in u
ĠB et
é¦Ļ æ¸¯
å¸ «
Ġup load
Ùİ Ø¨
ãĥ¼ãĥ ĳ
ĠY our
×© ×ķ
Ġ á»©ng
Ġì² ´
IC A
ĠØª Ùĥ
ĠG old
à¤ ĥ
Ġ×Ķ×ŀ× ¢
ĠL et
à®¾à® ¸
Ġéĺ ¿
äº¤ éĢļ
Î¸Îµ ÏĥÎ·
g ed
ĠA F
zie j
Ġga an
at Ä±r
Ġà®¤ à¯Ģ
Ġà¦¬ à¦¨à§įà¦§
ĠN A
Ø§ÛĮ Ø·
éĶ Ļ
à¦ª à§įà¦¤
Ã¤ ch
Ġé ľ
Ġr áº±ng
Ġï »
Ġà°ªà±Ĩ à°¦à±įà°¦
Ġsim ple
Ġc od
Î¿Î½ ÏĦÎ±ÏĤ
ke y
ĠÐ¿ÑĢ Ð¾Ð³
uyá» ħn
à¹Ī à¸Ńà¸
à°¯ à°Ĥà°²à±ĭ
Ġáĥĵ áĥĺ
Ġtr áº»
Ġìļ ´
ĠØ§ÙĦ Ø§ÙĤ
ĠÐ¾Ð± Ð»Ð°ÑģÑĤ
Ġm áº¯t
ĠB ul
Î¾ Î·ÏĤ
Ġ199 8
è´ «
Ġdur ing
ro du
ĠíĮ Ĳ
ĠìĿ´ë Ł
ë§ Ľ
Ġà¤° à¥ģà¤ª
ĠÎĳ ÏĢÏĮ
ãģ¨æĢĿ ãģĦãģ¾ãģĻ
à¥ĩà¤Ĥà¤¦ à¥įà¤°
ĠáĥĽáĥĿáĥ «
Ġo ch
ÑģÐº Ð¸Ðµ
wi ÄĻ
ĠØ¹ Ø¨Ø±
ĠÏĢ Î¬
à±ģà°ķ à±ģà°¨à°¿
Ïĩ Î·
Ġà¤¬ à¤¦
ĠT am
Ġmel hor
´à¹Ģà¸ Ħà¸£à¸²à¸°à¸«
Ġ×§ ×ĺ
áĥł áĥĶáĥĳáĥĺáĥ¡
Ñĥ ÑģÑĤ
Ġver di
ĠÙĪ Ø¯
ĠÃ§ ÉĻk
atu ur
Ġåħ ±
Ġà®ª à®´
Îº ÎµÎ¹
Ġ×ľ ×ŀ
ut in
ÏĨ Ïħ
iz m
Ħ à¹Įà¸
à© ģ
t Ã¼
Ġà¦°à§Ł à§ĩà¦Ľà§ĩ
áĥľáĥ¢ áĥĶáĥłáĥĶáĥ¡
Ġpres yo
Ġ×¢ ×ĳ×ķ×¨
Ä° R
Ġáĥĺáĥ¡ áĥĺáĥľáĥĺ
Ġáĥ® áĥĿáĥļáĥĿ
Ġà°ķ à°¾à°µ
ĠØ¹ÙĦ ÛĮ
b c
Ïĥ Î¯Î±ÏĤ
ì Ĥ
c ciÃ³n
ri er
Ġ\" :
ãģĹ ãģ¾ãģĹãģŁ
ç² ī
ØªØ¨ Ø§Ø·
éĽ ª
ĠçŃ ī
ĠN Ã£o
ĠH av
ĠG a
ĠÖ ĩ
Ġj us
è®° èĢħ
à¯ģà®ļ à¯į
Â £Â¬
oc ia
éĵ¶ è¡Į
ÑĢÐ° ÑĦ
9 44
ĠØ§Ø³ Ùħ
Ġmay or
Ġk val
act ion
Ġm iá»ħn
ĠI hr
Ð¾Ð± Ñī
Ġk en
à¹Ħà¸ Łà¸
Ġï ¹
Ġáĥľ áĥĲáĥ¬
Ġtemp s
Ġt ema
ÏĥÏĦÎ± ÏĥÎ·
Ġà¤¨ à¤µ
Ġ×© ×ł×Ļ
Ġngo Ãłi
ch an
ĠØ³ Ø§Ùħ
à®¾à®± à¯ģ
íĻ ľ
áĥĺáĥ¡ áĥĻ
Û ²
Ġpres idente
ĠN ike
à§ĩà¦¤ à§ĩ
ĠÏĮ Î¼ÏīÏĤ
Ġz we
à¤Ĥ à¤¸
ĠáĥĹáĥ¥áĥķáĥĶáĥľ áĥĺ
ĠØ±Ø¦ ÛĮØ³
ĠÐ¿ Ð¾ÑĢ
Ġa ja
ĠO K
Ø§Ø¹ Ø¯Ø©
ar se
Ġper c
à¤¡à¤¼ à¤¾
ĠØ± ØŃ
Ġka Å¼
à¥ĩà¤ ¯
Ø¬ Ø§
Ķ ëĭ¤
ĠìĿ Ģ
Ġà®¨ à®¿à®°
åį ĸ
Ġst ate
ĠPubl ished
éļ ı
Ġ×© ×ª
ĠÄĳ Ã¡nh
Ġwy s
ĠO ur
ĠB in
Ġì² ĺ
ĠM ari
à¤ķ à¤¾à¤°à¥Ģ
ĠE T
ĠØ® ÙĦ
à¥ĭ à¤¡
ĠìĬ¬ ë¡¯
Ġfor s
ĠSoc ial
ĠÙģØ¥ ÙĨ
e a
à¦¬ à¦¿
Îµ Î´
ÏģÎ¿ ÏįÎ½
åħ¶ ä»ĸ
est i
ĠDav id
el ine
ĠÎµÎ¯ ÏĩÎµ
ul ta
Ġc ï¼Ĳ
×Ļ×© ×¨×Ĳ×ľ
³à¸ Ħà¸
ı i
ĠÅŁ ÉĻxs
Ġth ree
Ġà¦¤ à§ģà¦²
Ø§Ø· Ø±
Ġseb uah
ĵà¸ °à¸
à±Ĩà°² à±įà°²
ÙĤ ÙĤ
ning s
Ġr und
Ġè ĥ
Ġpad ding
éľ ²
ian te
à´ µ
k n
Ġv ind
Ġpom oc
up un
Ġà°² à±ĩà°¦à±ģ
Ġen k
×Ļ× ¥
ĠãĤ ¸
:: ::
Ġà°¨à°¿à°° à±įà°®
à¤°à¥įà¤ ¦
Ġsp oleÄį
à¦¨ à¦¾à§Ł
à¹Ĥà¸Ķà¸ ¢à¸
Ġ ãģ¨ãģĦãģĨ
çĶ¨ æĪ·
ÉĻf ÉĻr
ĠÑģ Ñĩ
Ġl iter
Ġà®¤ à¯Ĥ
Ġho use
ut ions
æī ĺ
Ġin gin
Ø¨ Ø§Ø¨
EN G
ĠAl b
æ´ ĭ
Ġv ic
Ġi hn
Ġs lu
à°¿à°¤ à±ĭ
Ġg ang
ub a
ãģĵ ãģ®
y abr
ĠP ÅĻ
Ñı Ð²
Ġà®İ à®¨à¯įà®¤
Ġw w
Ġf all
Ã³ p
ĠØ´Ø± Ø§ÛĮØ·
ĠÐ¼ Ð¾Ð³
un uz
Ġà¤ķà¤° à¤¤à¤¾
ĠØ§ÙĦÙħÙĪ Ø¶ÙĪØ¹
åĪĨ æİĴåĪĹ
ĠãĤ »
ĠH v
ÉĻy i
ell om
ĠëĬ Ķ
é§ ħ
à¯ģà®µ à®¤à¯ģ
·à¹Ī à¸Ńà¹Ģà¸
ĠÙĤ Ø§Ø¨ÙĦ
ĠPro duct
æĹ¶ ä»£
put er
ĠR en
ä¸» è¦ģ
à°¾à°² à°ķà±ģ
ter ior
ĠÑįÑĤ Ð¾Ð¼
Ġp c
ï¼ Ľ
å¤ĩçĶ¨ ç½ĳåĿĢ
ĠÙĦ Ø£ÙĨ
ĠØ¢ ÙĦ
ĠÃ ķ
ĠÙĥ ØªØ§Ø¨
à¤ľ à¥Ģ
Ðµ ÑĦ
Ġà¦Ńà¦¾à¦² à§ĭ
Ġsp es
ĠDe utsch
Ġà¤² à¤¾à¤Ĺ
Ġë² ķ
Ġb om
Ġà®ķ à®¤
Ġpr ix
ç³» åĪĹ
n ak
ä¸Ģ æŃ¥
Ġtak Å¼e
çĸ Ĺ
Ø® Ø§ÙĨÙĩ
Ġas i
Ľà¸ ±à¸įà¸
Ġ×Ĳ ×ľ×Ĳ
ĠAn ton
ch u
à°Ĥà°Ł à°¿
Î¹ Î²
Å¾ enÃŃ
Ġìŀ Ħ
Ġæİ ¨
ĠÄĳ Ã¡
Ġìļ ©
ĠáĥĴ áĥĲáĥĹ
Ùģ ÛĮ
Õ¡Õ ²
Ġà¦¯ à¦¾
Ġà®ķ à®¾à®£
S E
Ġdig ital
ãģķ ãģĽ
Î¸ Ïħ
d c
ĠáĥłáĥĿáĥĽáĥĶáĥļ áĥ¡áĥĲáĥª
ãĤ¹ ãĥĨ
Ð°ÑĤ Ñĭ
Ġkat eg
Ġh ans
ĠØ¨ Ø£ÙĨ
Ġà¨ µ
Ġst ay
ers on
ÉĻr ÉĻk
Ġà¤¸ à¥Ĥ
ä¼ ¤
ä¹ ±
ĠÙħÙĪ Ø§Ø¯
ĠÐº Ð²
Ġg ek
Ġc ity
æĽ °
å® ħ
´à¹Ģà¸ ¨à¸
ĠÏĥÏħ Î¼Î²
à¯ģà®µ à®°
Ġìĭľ ê°Ħ
ĀĀĀĀĀĀĀĀĀĀĀĀĀĀĀĀ ĀĀĀĀĀĀĀĀĀĀĀĀĀĀĀĀ
ãĤ ®
Ø£ Ø©
ri as
ĠØ¯ Ø¹
Ġsam men
Ġch Æ¡i
à¦ª à¦¿
ĠãĤ ¿
Ġà¦¬à§ĩà¦¶ à¦¿
ãĥ³ãĥ Ĩ
ĠN ar
à¤¾à¤¦ à¥Ģ
ĠD iv
Ġà¦ī à¦¤à§įà¦¤
¡à¸ ´à¸
isi Ã³n
Ġh in
Ġc ss
Î¯Î½ ÎµÏĦÎ±Î¹
à§įà¦° à§Ģ
ĠÎ¼ Î¹Îº
Ġch uyá»ĥn
à°¤ à±įà°°
Ġhab er
ah kan
Ġser ie
r ia
or ial
ĳ ìĿ´
27 0
Ġl Ã¡
ĠD eze
ļà¸£à¸´à¸ ©à¸±à¸
ĠØ§ÙĦØ¹ Ø±Ø§ÙĤ
å½©ç¥¨ å¹³åı°
ëĭ ´
ÑĢÑĥ Ð¿
ĠáĥŀáĥłáĥĿáĥĴ áĥłáĥĲáĥĽ
Ġinf orma
ĠR E
Ĺà¸µà¹Īà¸ Īà¸°à¸
ĠÎ³ Îµ
à®ķ à¯ģ
ĠáĥĽ áĥĶáĥĴ
ĠØ¬Ø¯ ÙĬØ¯
ï½ Ĺ
ì £
ìł ¸
Ġlitt le
ĠK er
ì¶ľìŀ¥ ë§ĮëĤ¨
Ġsa an
Ġrum ah
à®¿à®¯ à®®à¯į
us an
Ġx Ã£
Ġå ¢
á»± a
Ïĥ ÏĦÏĮ
ä½į ç½®
Ġquy áº¿t
Ġë¬¸ ìłľ
ĸ à¸²à¸
Ġç ķ
Ġro d
ĠØ§Øµ ÙĦÛĮ
Ġgrand es
Ġìķ ½
ÏĢ Î¹Ïĥ
Ġso us
Ġà¤¬ à¥įà¤°
Ġn ÉĻtic
à¥įà¤°à¥Ģ à¤¯
ĠáĥĽáĥĿáĥľ áĥĲáĥ¬áĥĺáĥļ
Ġà®ķà¯Ĥ à®Łà¯įà®Ł
åĴĮ åĢ¼
Ġ×ª ×Ĵ
¿ ł
Ġ[ "
Ġè¢ «
Ġ×Ĳ×ª ×Ķ
Ġ×Ľ ×ĳ×¨
Ġnav ig
ĠJ oh
éĥ½ æĺ¯
£ i
Ġà¸ Ĭ
Ġn ye
Ġ×© ×¨
Ġa ction
Ð¾Ð· Ð´
Ð°ÑİÑĤ ÑģÑı
Ġis a
Ð¾Ð² Ð°
Ġne Å¾
li cht
Ġ10 5
éªĹ å±Ģ
ÎĹ ÎĿ
Ġà¦ī à¦ł
ant u
Ġcon se
Ġà®µ à®¿à®µ
ĠÖ Ħ
ĠÎļ Ïħ
ĠC ateg
×ķ×ŀ ×Ķ
Ġà®İà®©à¯įà®ª à®¤
à®¯ à¯į
ĠìĤ ´
íķ ´ë
ä» ª
ro u
ØªÙħ Ø¹
à°°à±įà°µ à°¾à°¤
Ġà¦ħ à§įà¦¯
ĠM á»¹
Î ¦
Ġt un
ë ĥ
reat ment
Å¯ s
Ġn áº¿u
Ġre du
«à¸¥à¸²à¸ ¢à¸
Ġà¤ī à¤¤à¥įà¤¤
Ġekstra utstyr
Ġch áº¿
Ġ äºĭ
Ġí ŀ
Ġáĥ¡ áĥ®
wi Äħz
Ġ×ľ ×Ľ×ľ
é¡ ŀ
Ð½ Ð°Ðº
ĠìĤ ¼
Ġà®¤à®² à¯Īà®µ
ĠÎ¼ Î·Î½
ĠPol it
Ġ×ł ×§
11 éĢī5
Ġà¤Ĩà¤¹à¥ĩ à¤¤
Ġh ours
Ġå¤§åıĳ ä¸Ģ
Ġc ung
ĠD ar
Ġà°ĩ à°ļà±įà°ļ
áĥĽ áĥĶ
à¦¾à¦·à§įà¦Ł à§įà¦°
ĠØ¨Ø± Ø¯
Ġà¤ª à¥ģà¤°
áº¯ p
èŃ ·
ul s
Ġpro ced
Ùĥ Ø¯
ÙĦÙĬ ÙĤØ§Øª
ĠÐ¿ÑĢ Ð¸Ð¼
ê° Ŀ
Ć ĆĈ
Ġà¦¤ à¦¥
Ġpagpap alaki
Ġm Ã¼n
áĥĶáĥĳáĥĺ áĥĲáĥľ
Ã¼ Ã§
ĠáĥĴ áĥĲáĥĶ
Ġy orum
ÑĮ Ñİ
Ð¸ Ð½Ð¾
Ġ×ĳ ×ł×Ļ
æĽ ¾
ØªØ± ÙĨØª
ª áĥĺáĥļ
Ġg az
Ġil s
Ġtel ev
ĠT re
à§ «
ĠÐ°Ð² ÑĤÐ¾Ð¼
à®¿à®² à®¿à®°à¯ģà®¨à¯įà®¤à¯ģ
Ġï ¾
Ġ×Ĳ ×ŀ×¨
Ġà¤ķ à¥įà¤°
ĠÚ© Ø±
ĠÐ²Ñĭ Ð¿
çİ ī
Ġposs ibil
æľº æŀĦ
à¤ı à¤¸
Ġà°µà°¿à°¦ à±įà°¯
Ġc Ã¼
áĥĲáĥ¦áĥĽ áĥĵáĥĶáĥĴ
åįģ åĪĨ
Ġà°® à°§à±įà°¯
Îķ ÎĽ
ĠÙģ ÙĪ
Ġz osta
Ġ365 æ£ĭçīĮ
Ġtod ay
Ġt ÉĻq
Ġà¤¶ à¥ģà¤°
éĿŀ åĩ¡
Ġc ell
ĠC asa
ĠB ack
Ġd ito
as te
Ġth ings
ĠA IJ
R e
áĥĿáĥ £áĥ
æıĲ çİ°
ÏĩÎµ Î¯Î±
ok s
ĠÙĦÙĦ Ø£
ĠÎµ Î³
ĠO t
Î¶ Î¯
áĥ¥ áĥķ
à¤°à¥įà¤ ļ
Ġè ª
sk er
Ġdev am
ĠHar ga
è° ±
ih in
ĠÙħ Ø§Ø´
ĠçĽ ´
ĠØªØº ÛĮ
à¤¤ à¥ĭ
Ø´ ÙĬ
ĠØ£ Ø¯
Ġg ive
Ġposs ible
Ġd ÃŃa
æĦ ¿
Ġà¸Ħ à¸²
ĠÑĢ ÐµÑĪ
ĠìĦľ ë¹ĦìĬ¤
Î» ÏĮ
ĠáĥłáĥĲáĥĽáĥĵáĥĶáĥľ áĥĺáĥĽáĥĶ
à¯Īà®¯ à®¿à®©à¯į
ªà¸´ à¹Īà¸ĩà¸
ĠÑģ ÐµÐ±
ĠÅ¾ iv
Ġà¥ ¨
Ġrec omm
Ġmog elijk
Ġhaqq Ä±nda
Ġa plik
ãģ¦ ãĤĤ
à®¿à® £
Ġbet ter
ĠÐ² Ð¾Ð´
ĠB ez
Ġà®¤à¯Ĩà®° à®¿à®¯
à°ª à±įà°°
à¯ģà® Ļà¯įà®ķà®³à¯į
Ġal go
_ s
Ġà®ªà¯Ĩ à®¯
ĠOs lo
è½ ®
à¦¤ à¦¿à¦ķ
ķ à¹Īà¸²à¸ĩà¸
Ġs ido
èį Ĳ
Ġw ala
ik al
ĠáĥĹ áĥķáĥĲáĥļ
Ġà¦¦à§ĩà¦¶ à§ĩà¦°
à±ģà°Ł à±įà°Ł
ĠS D
à¥ĥ à¤·
Ġà¸ ģà¹ĩà¸
Ġtr en
ĠìĿ´ë ²
Ġà¤Ĩ à¤Ī
ĠØ¯ ÙĩØ¯
Ġsign ific
Ġga at
ĠÂ ¦
v id
ĠC ara
Ġar g
ĠáĥĽ áĥĿáĥĵ
Ġmali it
Û µ
ĠæŃ ¦
_ P
ĠÎºÎ± Î½
è´ ¸
ĠÎ¹ ÏĥÏĦÎ¿
Ļà§įà¦ ķ
ĠáĥĵáĥĲáĥ ¬
ou ch
Ġà¦¬à¦¿à¦ ı
ĠE M
æĶ¯ æĮģ
ĠáĥĻ áĥķáĥļ
ĠAG äºļæ¸¸
Ġ8 88
à¤¾à¤Ĥ à¤¸
c ret
Ġlav oro
ÙĪ ÙĬØ±
ĸà¸ ¹à¸ģ
Ļ áĢ
us ay
à¹ģà¸ ľ
Ġdop o
ĠØ§ÙĦÙħØª ØŃØ¯Ø©
áĥĲáĥĺ áĥľ
ªà¸ ĩà¸
ens i
ĠÄį l
ĠMar k
Ð»Ð¸ Ð²
b ook
H U
à¹Ģà¸ Ĭ
ĠæĪ ĸ
åıĤ åĬł
im at
???? ????
Ġà®¤à¯Ĭ à®´
Ġz ast
ĠÃ©ta it
Ġg al
ĠáĥĴáĥĲáĥľ áĥ®
ĠbÃ½ t
ÙİÙĬ ÙĴ
ens a
L ER
ĠØ§ÙĦØª Ø¯
Ġ à¸£à¸µà¸§à¸´à¸§
m g
ĠçĪ ±
Ġl á»ĭch
Ġz ou
ªà¸³à¸« à¸£à¸±à¸ļ
S K
Ġà¦§ à¦°
åĪ ·
Þ ª
Ġas k
Ġà®¤ à®ķ
Ġ×ł ×Ļ×ª×Ł
áĥĲáĥļ áĥĺáĥ¡
Ġdi z
Ġha ar
Û ±Û
×Ĺ ×Ļ×Ŀ
ĠMar c
it Ã¤t
Ġáĥ® áĥĲáĥļáĥ®
Ġà¤°à¤¾à¤ľ à¥įà¤¯
Ġkdy Å¾
ans ke
ĠÚ©ÙĨ ÛĮÙħ
Ġh Ã£
æ± ł
Ġc ard
Ġà¦¬ à§įà¦°
ĠHab er
áĥł áĥĲáĥ¢
×ķ×Ĳ ×¨
28 29
Ġmen u
ĠM r
Ġminut es
Ġc andid
Ð» ÐµÐ¼
lÉĻr dÉĻ
à´ ¸
ÏĢÎ· ÏģÎµ
Î³ Î·
l ist
Ø§ÙĬ Ø§
ĠÙģØ§Ø± Ø³ÛĮ
Ġà®Ĵ à®©à¯įà®±
ĠØ¢ Ø²Ùħ
Ġest r
ÑĥÑĢ Ñģ
ĠØª ÙĥÙĪÙĨ
áĥĺáĥ§ áĥķ
à¦ŀ à§įà¦ļ
ĠáĥĶ áĥĽ
Ġe ÅŁ
k Ã¡
ĠÕ Ń
ÅĤÄħ cz
ÄŁ an
Î® Î½
ĠM erk
z ien
Î»Î¯ Î¿Ïħ
æľ Ĺ
Ġåħį è´¹
Ġ×©×ľ ×ķ
Ø¸ Ø§Ùħ
s ÉĻ
in si
ĠÎĶÎ· Î¼Î¿
Ġpro to
Ġn ell
á Ĥ
Ġ×Ĺ ×ľ×§
Ġvá» «a
áĥĶáĥłáĥ «
åľ° æĸ¹
à¸Ļà¸ ³à¸
ĠØ¯ Ùħ
ĠÐľ Ð¾ÑģÐº
ĠÐ¢ Ð°Ðº
Ġth ÃŃch
Ġpre cis
à¯ģà®¤ à®¾à®©à¯į
ĠØªÙĨ Ø¸
l ic
h led
Ġà¤ªà¥ģà¤² à¤¿à¤¸
Ġ2 10
Ġ" ;
Ġáĥ¡áĥ®áĥķ áĥĲáĥĵáĥĲáĥ¡
âĢ ¢
Ġk ond
Ġqar ÅŁÄ±
S c
ĠIn s
à§Ģà¦° à¦¾
ļà¸²à¸Ħà¸²à¸£ à¹Īà¸²
Ġë¬´ë £Į
à¤® à¤¾à¤¨
ªà¸ °à¸
av i
R o
Ġãĥ» ãĥ»ãĥ»
æŀ ¶
à®¿à®¤ à¯į
end ed
Ġà®µ à®²
Ĥ à¸µà¸
ĠÙĨ ÙģØ±
ĠÐŁ Ð¾Ð´
Ġsend iri
Ġ Úĺ
Ut ama
Ġãģ ķ
Ġáĥ¡áĥĲ áĥĲáĥĹ
Ġà¦¤ à§ĭ
ĠÙĬ Ùı
Ġ' .
Õ¡Õ¶ Õ«
ning en
Ġà¦¹ à¦ĵ
ail angan
ag ne
Ġà¦¦à§ĩà¦ĸ à¦¾
ĠÚ© Ø§ÙĩØ´
ĠØ´Ùħ Ø§Ø±Ùĩ
um s
ĠC our
Ġí Ī¬
ĠØ§Ø¹ Øª
ĠDomain Utama
Äį ek
Ġgi áº£m
Ġà¤¤ à¥ĩ
Ġass oci
å¸ ®
ĠCh o
Ġë ¥¼
ĠÎ¿ Î¼Î¬
æŁ ĵ
Ġå Ķ
ĠrÃ³w nieÅ¼
Ġb Ã³ng
Ġ10 1
Ġoh ne
à¤ļ à¥ĩ
Ġà°¸à°Ĥà° ¸
ĠÎºÎ±Î¸ ÏİÏĤ
Ġà°µ à°¿à°¨
ª à¹Įà¸
Ġà°¤ à°¿à°°
ĠØ§Ø± Ø§Ø¦Ùĩ
ĠW ars
Ġìĭľ ìŀĳ
q a
à°Ĥà°Ĺ à°¾à°£
r ay
nÄĽ jÅ¡ÃŃ
ĠØª ÙĪÙħØ§ÙĨ
à¤ Ľ
ĠíķĦ ìļĶ
ĠìĿ Ħ
us en
ĠG ran
Ġà®¤à¯ĩ à®µ
Ãĥ O
à¹Īà¸²à¸ §
ert i
Ïģ ÏīÎ½
45 6
ĠÕ° Õ¡Õ´
Ġáĥ¢ áĥĶáĥł
çĿ £
Ġê·¸ ëŁ¬
ĠM ÉĻn
Ġq iy
Ġide a
ãĥĹ ãĥª
ĠP em
Ã³ t
Ġdr ug
rij f
om et
Ġà®ª à®Łà¯įà®Ł
Ġh d
ĠØ¨Ùĩ ØªØ±ÛĮÙĨ
Ġby la
Ø§ÙĬ Ø§Øª
d es
ay o
×Ľ ×ķ×ª
Ġk osten
ĠÐ¿ Ð¾Ð½
ķà¸²à¸ ¡
å° ģ
Ïĥ Î¿ÏħÎ¼Îµ
Ġè¯ ¥
Ġbul un
iy an
ĠĈ ą
Ġà°®à±ģà° ĸà±įà°¯
ĠmÉĻs ÉĻl
ĠTh u
Ĺ à¹Į
åĨ ²
ĠD ia
Ġst ra
áĥĺáĥļ áĥ¡
Ġì¹ ĺ
áĥļáĥĶáĥĳ áĥ¨áĥĺ
Ġçİ¯äºļ éĽĨåĽ¢
å¦ ¹
ĠØ§ÙĦØ¥ Ø³ÙĦØ§Ùħ
ĠØ¨ Øµ
zÄħ d
ib les
Ġç Ŀ
Ġmer k
Ġgener al
Ġprost itutas
h ec
Ġà¦Ĩà¦ª à¦¨à¦¿
Ùİ Ø©
enc ont
ĠåĬł æĭ¿å¤§
ĠÑı Ð²Ð»Ñı
Ġä» £
ĠH T
ĠG ra
à§ĩà¦ ¯à¦¼
Ø¨ Ø§Ø´
ib e
Ġf ire
äº¤ æĺĵ
Ġà¦ĵ à¦ĩ
Ġs Ä±r
Ġì² ľ
Ġà®µ à®¿à®´
å¼Ģ å±ķ
áĥĺáĥķ áĥĶ
à¤Ł à¤°
æ¼ «
ĠFl or
ĠáĥĴáĥĺáĥĿáĥłáĥĴ áĥĺ
åĲ ¯
N ame
Ġą ĆĈ
Ġquest ion
æĹ¥ æĬ¥
áĥĲáĥ¨áĥĿáĥłáĥĺáĥ¡ áĥĿ
Ġà¦¬ à¦¸
ort o
Ġáĥ¡áĥĲáĥĽ áĥĺáĥľáĥĺáĥ¡áĥ¢
Ġà¤¹à¥ģà¤ Ī
ĠS ky
ëŀ ¨
ä¸į åı¯
ĠÄĳ áº·t
Ġz ona
ĠY e
ĠM Ã¡
à± ĸ
un der
um en
nÃ© es
¥à¸ ¢à¸
Ġr it
Ġet ti
ĠÐ´ ÐµÐ½ÑĮ
ĠáĥĲáĥ®áĥļ áĥĲ
ÙĢÙĢ ÙĢ
AN T
Ġfr ont
Ð½ ÐµÑĤ
Ġproduct s
Ġ Ïİ
å¤Ħ çĲĨ
Ġà¤Ńà¤¾à¤° à¤¤à¥Ģà¤¯
ĠB ew
amb ar
Ġlar ge
à®¿à®°à¯ģà®ķà¯įà®ķ à®¿à®±
Ġíķ Ń
à´¿à´ ¯
n em
un c
Ġà¸§à¸ ±à¸Ļà¸Ĺà¸µà¹Ī
Ġgo ogle
ãģı ãģª
Ð¾Ð¿ÑĢ Ð¾Ñģ
Ġdz iaÅĤ
Ú©ÙĨ ÙĨØ¯
ĠØ´ Ú©
Ġ( {
×Ļ×ĳ ×ķ×ª
Ġà¦¸à¦¦ à¦¸à§įà¦¯
Ġ×Ĳ ×ŀ
emb le
ĠU U
Ġà¦ªà¦°à§įà¦¯ à¦¨à§įà¦¤
Ġà¤µ à¥ĩ
Ġad res
om men
ĠÃ ¦
ĠëĶ° ëĿ¼
ĠíĬ ¸
ĠØ§ÙĦØ´ ÙĬ
Ġperf ect
ur ing
Ġibex_ room_grid
íķ´ ìĦľ
s is
ci p
ĠÏĮ ÏĦÎ±Î½
à¯ĭ à®°
Ø´ÙĨ Ø¨Ùĩ
iment os
a ires
Ġê²ĥ ìĿ´ëĭ¤
Ġáĥ£áĥłáĥ Ĺ
Ġl Ã©
zy m
ĠÏĦ ÏģÏĮ
Ġtip s
ãĥ³ãĥ Ĺ
Ã¼ ne
Ġro dz
´à¸ ĩ
Ġel eg
r ze
Ġ×Ķ×ŀ× ĵ
áĥ¢ áĥĻ
Ø§Ø¯ Ø§Øª
Ġre cht
Ġê¸° ìŀĲ
Ġpagb aba
ĠP le
ĠØ§ÙĦØ° ÙĬÙĨ
æĹ© é¤Ĳ
Ġn one
ĠB A
´à¸ §
ĠáĥĽáĥ£áĥ¨ áĥĲáĥĿáĥĳ
Ġmis mo
à¹ ĭ
éĢī æĭ©
Ġ×© ×Ĺ
ĠÃ¼ rÃ¼n
Î®Î¼Îµ ÏģÎ±
Ġà¸ªà¸ ¹à¸
ĠL G
lÉĻr inÉĻ
ĠL i
Ġ12 3
im es
Ġà¤ª à¥ĭ
Ġ×ĳ×ŀ× ©
Ġstat us
ĠJ ed
ĠØ¨Ø±Ø® ÛĮ
Ġsel ect
ĠScar pe
Ġg eg
ĠN ow
ĠáĥĲáĥ¥ áĥ¢
Ġà¹Ģ à¸£à¸²à¸
Ġlin ks
Ġh ub
ĠáĥĴáĥĲáĥĽáĥĿáĥ §áĥĶáĥľ
Ġinclud ing
åĢ ĳ
Ġl it
Ġ12 8
ç¦ ģ
Ġà°İ à°µà°°
Ħ à¹Į
ĠáĥĽáĥĿáĥ Ĺ
à°µ à°¿
áĥ£áĥł áĥĲ
Ġå¿ ĥ
ĠGo od
Ġtil b
ìĪ ľ
ĠãĢĳ, ãĢĲ
Ġà°¬ à±įà°°
Ġn á»Ļi
Ġ356 bet
ĠÎ» Î¯
ĠEle kt
à§įà¦¦ à§įà¦°
à¯Ĭà®° à¯ģ
p f
Ġà¦Ľ à¦¾à¦¤à§įà¦°
ĠMot or
Ġ2018 å¹´
iy orum
ĠáĥĴáĥĲáĥľáĥĲáĥªáĥ®áĥĲáĥĵ áĥĲ
Ġà¦¹ à¦¾à¦°
ett es
Ġ×Ľ ×Ł
è¡ ¥
oc ol
æĺ ł
Ġjed en
à¥ĩà¤¤ à¥įà¤°
te xt
Ġv ille
Ġè ĳ
ĠÙĩÛĮ ÚĨ
ĠÎºÎ¬ ÏĢÎ¿
ur ity
ä¼ł å¥ĩ
×ł ×Ļ×Ķ
ĠÙĨ Ùģ
id ed
ĠM obile
Ä° Y
Ġà°® à±Ģà°°à±ģ
Ġtá»ī nh
Ġb id
Ġà¤¹à¥ĭ à¤Ĺà¤¾
ÑħÐ¾Ð´ Ð¸Ð¼
Î» Î¹Î±
verpg bel
ĠV ous
ìĹĲìĦľ ëĬĶ
æı ´
à¸£à¸µà¸ ¢à¸
r g
Ġáĥ¡ áĥĺ
ĠU ne
Ġor e
ĠEsp a
Ø§Ùģ ÙĤ
ĠO S
ĠB á»Ļ
Ġf ly
ĠP P
ä¼ļ è®®
dag an
Ġv ys
ĠfÉĻal iyyÉĻt
iss en
à¤¿à¤ £
co in
ĠÎ£ Î¥
ĠGr up
æ¶ ²
Ġide al
à¤ª à¥įà¤°
Ġà®Ĩ à®ļ
ĠÙĪ ÙĥØ§ÙĨ
ĠÎ± ÏĨ
Ġa plic
ĠDon na
sk iej
D I
ens ch
ĠØ¯ ÙĬ
ĠGen eral
ìĿ µ
à¦¿à¦ «
ĠC um
Õ¥ Öģ
ÅĻ enÃŃ
Æ°á»£ t
Ġl Ã¸
à¦¿à¦¯à¦¼ à§ĩ
Ùİ Ø¹
Ġà®µ à®¾à®°
ĠÐ· Ð´
Õ¡Õ½ Õ¿
Ġsp rz
ĠN orth
è´¨ éĩı
Ġà®® à¯ģà®ķ
ä»¥ åıĬ
Ġs ic
Ġdá»± ng
Ġal bum
Î½ Ïİ
fa ult
Ġà°¦ à±Ģ
Ġà§§à§ ¨
ãģ¨ ãģĭ
ier ung
Ïħ Ïĩ
Ġà´ ¨
Ġà°¤à±Ĩà°² à°Ĥà°Ĺà°¾à°£
à¦Ĥ à¦¶
Ġt egen
ĠÃº n
ro uw
Ġï¼ ĳ
Ġpre fer
Ġà®ªà¯ĭ à®©à¯įà®±
Ġs ap
à¤¥ à¤¾
Ã¶ y
Ġà¤ªà¥įà¤° à¤¶
ĠÎ³ Î½Ïī
à®¨à¯įà®¤ à®¿à®°
eth ing
Ġæī ĵ
Ġs Ã¸
æĪ ¦
Ú¯ Ø±Ø¯
Ġçİ¯äºļ æ¸¸æĪı
Ġark adaÅŁ
ĠBar celona
ĠB ij
ra cht
áĥĲáĥĴ áĥĲáĥľ
à¹ģà¸Ļà¸ °
Ġà¥¤ âĢĻ
Ġbre ak
Ġà°² à±ĩà°ķ
ÏĦ ÎµÎ¹
æ£ ®
us aha
ĠÛ² Û°
ì¶ľìŀ¥ìĥµ ìĺĪìķ½
Ġç ¬
åĪ ¸
à±ģà°² à±įà°²à±ĭ
à¨ ¦
Ġáĥ¡ áĥĺáĥ¡
ĠF ore
Ġ ÉĻh
ĠL ab
à°°à±įà° ķ
×ķ×ľ ×ķ×Ĵ
æľ ĭ
s am
Ġb Ã¬nh
æłĩ åĩĨ
à¯ģà®Ł à¯įà®Ł
à¥ģà¤ķ à¥įà¤¤
łà¸²à¸ ¢
à¤¾à¤µ à¤¾
ĠÙĪ Ø®
à°Ĥà°¤à±įà°° à°¿
Ġb aba
ĠÎ¬ Î»Î»
ĠB O
Ø¯ Ø§Ø±Ø©
ĠH all
à¹īà¸Ńà¸ ¡
à®¾à®Ł à¯ģ
ĠÐ±Ñĭ Ð»Ð¾
Ġt urn
Ġáĥ¤ áĥł
ĠÑĢÐ°Ð· Ð²
ĠÐ¼ Ð°Ð³
Ġ ãģŁ
ãĥ¼ãĥ Ĺ
b ie
ĠR io
ÙĪØ² Ùĩ
ĠÙĪÙĤ Ø§ÙĦ
Ġäºļ æĲı
ÑİÑĤ ÑģÑı
Ġà®Ĩ à®£à¯įà®Ł
Â ±
ĠØ§ÙĨØª Ø´Ø§Ø±
ãģª ãģĮ
ĠØªØºÛĮ ÛĮØ±
ĠM ach
åį ł
ĠáĥĽáĥĺáĥ ¬
agg ed
Ġ×ķ ×ľ×Ķ
ĠØ§Ùģ Ø±Ø§Ø¯
ĠM ost
ĠØ´ ÛĮ
eg n
ĠM ess
ĠÐĴ Ñģ
Ð¾ÑĢ Ð¾ÑĪ
ĠØ¢ÙħØ±ÛĮÚ© Ø§
ĠÎ¼ Î¯Î±
ĠNg uyá»ħn
ĠÑĩÐµÐ»Ð¾Ð² ÐµÐº
Ġg rav
Î´ ÎµÎ¹
Ġà®ª à®¿à®Ł
ĠÏĩÏģÏĮ Î½Î¹Î±
à¤¾à¤ļ à¥ĩ
Øª Ø§ÙĨ
yr ight
ĠØ§ÙĦØª ÙĨ
å¾Ī å¤ļ
ĠD 8
ul ong
Î¾ ÎµÎ¹
ĠH il
Ġëª¨ ëĵł
à®¾à®³ à®°à¯į
Ðº ÑĢÐ°
Ġdet ermin
Ð½Ð¸Ðº Ð¾Ð²
ĠåĽ½ äº§
Ġas ÃŃ
pl ace
en ze
en ces
Ġch ange
Ġph otos
¨à¸ ±à¸
à®¿à®ķ à®´
i O
ĠÐ¾ÑĢÐ³Ð°Ð½ Ð¸Ð·
ĠB B
ãĤ¿ ãĤ¤
ĠØ´ ÙĪ
ĠM ai
ļà¸²à¸ ĩà¸
Ġà¦® à§įà¦¯
Ġc ast
ĠÎ½ Îµ
ĠU K
am enti
ĠÙħØ¯ÛĮØ±ÛĮ Øª
in ig
Ġáĥ¡áĥĲáĥĶáĥłáĥĹ áĥĲáĥ¨áĥĿáĥłáĥĺáĥ¡áĥĿ
ç» Ŀ
´à¸ §à¸
Ġæ »
åĩ °
Ġå¿ ħ
ĠÚ© Ø§ÙħÙĦ
ĠdÉĻf ÉĻ
mas Ä±na
ĠÐ±Ñĭ ÑĤÑĮ
×Ļ×¤ ×ķ×ľ
ers e
ĠiÅŁ tir
Ø¨ Ø·
Ġë¯¸ êµŃ
Ġpartic ular
ov ed
Ġc itt
Ġk ali
Ġh Æ°á»Ľng
Ġtu á»ķi
Ġà°°à±Ĩ à°Ĥà°¡à±ģ
ÙĤ Ø§Ø¡
Ã¤ l
Ġ×ŀ ×ķ×¦
ĠØŃ Ø±Ùģ
ĠØ¹ÙĦÙĬ ÙĩØ§
Ġà°µà±įà°¯ à°ķà±įà°¤
Ġt ol
Ġkh á»ı
ê² Ģ
ac zy
d iyi
Ġà®® à®¾à®±à¯įà®±
ĠÎŃ Îº
Ġw ÅĤ
ĠA fr
áº· ng
Ø±ÙĬ Ùħ
Ġn enÃŃ
ar ly
è§ Ī
el ingen
ĠØª Ú©
ek k
ä¸ ´
áĥĺáĥł áĥĶáĥĳáĥ£áĥļáĥĺ
ĠÎ² Î±
ĠC A
it ur
Ġà¸ Ħà¸§à¸²à¸¡à¸
ok e
Ġè £
à¦¿à¦ķ à¦¾
Ä±l d
at as
Ġê° ģ
Ġáĥ¨ áĥĶáĥ¥
Ġk u
ĠÚ©ÛĮÙģ ÛĮØª
Ġ×¨ ×ĳ
Ù¾ ÛĮ
Ġe ÄŁ
§à¸ ¥à¸²à¸
Ġn ich
ãĥĥ ãĤ°
à¸µà¸ ģ
Ñĥ Ð»Ñı
ir im
Ġà®ļà¯Ĩà®¯à¯įà®¤ à¯ģ
Ġrec on
ĠN ak
ing an
ĠØ§Ùħ Ú©Ø§ÙĨ
ĠáĥĵáĥĲáĥĺ áĥ¬áĥ§
Ġma aaring
à¨ ¸
èµĮ éĴ±
Ġà¤¸à¤¿à¤Ĥ à¤¹
Ġsit em
áĥľ áĥĺáĥĹ
Ġ×ŀ×¡ ×¤×¨
Ġo stat
Ġa Ã±o
ëĲĺ ëĬĶ
à±Ģ à°²à±ĭ
à±ģà°¤ à±Ĥ
à¦¾à¦® à§ĩà¦°
ÉĻs ini
Ġà¤ļ à¥ģà¤¨
Ġlá» Ŀi
Ġà®µà®¾à® Ļà¯įà®ķ
áĥĲáĥł áĥĺáĥĲ
à¯Ĥ à®°à¯į
ĠÛĮ Ø§Ø¯
ĠÐ²Ð¾Ð· Ð¼Ð¾Ð¶
Ġq az
ĠC ab
áĥĶáĥ¢ áĥĺ
à¤¾à¤¤ à¤¾
atur es
Ĺà¸³ à¹ĥà¸«à¹īà¸
Õ´ Õ¡Õ¶
ĠÄĳ áº·c
Ġat as
Ð½Ð¸Ðº Ð¸
ĠìĦł íĥĿ
à°¿à°² à±į
Ġalt ri
à°¿à° ¬
Ä±lÄ± b
à¹ģà¸ ¥à¸°à¹Ģà¸
Ùħ Ø¨Ø±
ĠÙħØ¹ Ø±Ùģ
Ġanc ora
Ġê· ¼
ĠÑģÐ» ÑĥÑĩ
Ġa ud
à°¾à°³ à±įà°³
ĠØ§ÙĦØ³Ø¹ÙĪØ¯ ÙĬØ©
ekt or
Ġåı Ī
ĠÛ ³Û
ç« ¥
Ġg ec
ig r
ĠìĺĪ ìķ½
Ġk ost
Ã¡t ica
ĠÑĢ ÐµÐ·
B y
Ġon de
Ġinn ov
ĠG et
Ġè® °
ĠÐķ ÑģÐ»Ð¸
ĠÐ¿ÑĢ Ð¸Ð²
Ġpag katapos
Ġbeh and
ĠìĻ Ħ
áº± m
à±Ģ à°ķ
ĠØª Ø±Ùĥ
Ġà¦Ĺ à§ĩà¦Ľà§ĩ
Ġo ct
ĠëĨ Ĵ
Ġsu as
Ø· ÙĪØ±
ert en
Ġà®®à®ķà¯įà®ķ à®³à¯į
åŃĺ åľ¨
est ra
ãĤį ãģĨ
à¸£à¸§à¸ Īà¸
Ñı Ð´
èĪ ŀ
ĠM ini
ĠØ± ÙĬ
ĠÎ±Î½ ÏĦÎ¯
Ð¼ ÐµÐ½ÑĤ
à¯Īà®ķà¯įà®ķ à¯ģà®®à¯į
Ġà¦ħ à¦ª
é¡ º
ĠÚ¯Ø° Ø´ØªÙĩ
æ ¾³éĹ¨
ì¶ ķ
âĸ¡ âĸ¡
Ãª t
ĠÐ±Ð¾Ð» ÐµÐµ
Ġà¹Ģà¸ŀ à¸£à¸²à¸°à¸
ĠS ek
Ġà¤īà¤¨ à¤ķà¥ĩ
Ġà°¤ à°°à±įà°µà°¾à°¤
Ġv in
ĠÐ²Ñĭ Ñģ
ĠPa ulo
åĩº çİ°
Ùģ Ø§Øª
Ġï¼ İ
4 00
Ġt iáº¿t
alÄ± dÄ±r
Ġà¦°à¦¹ à¦®à¦¾à¦¨
Ġåĩ ¤
éĤĢè¯·çłģ _
áĥľ áĥĶáĥ¡
Õ Ń
ĠãĢĤ âĢľ
ĠÙħØ´ Ø®Øµ
Ġ×ª ×ľ
Ð¾Ð² Ð°ÑĤÑĮ
Ġä¸ ª
Ġà¦ķ à§įà¦¯
ĠÑĦ Ð¾ÑĢÐ¼
ĠÎµÏĢ Î±
à¯ģà®ķ à®³à¯Ī
à°² à±įâĢĮ
å¤§ å®¶
áĥĶáĥłáĥ ľ
à®¤à¯įà®¤ à®¿à®±à¯įà®ķà¯ģ
b are
U V
Ġm ini
ĠáĥĴáĥĲáĥĵáĥĲáĥ¬áĥ§áĥķ áĥĶáĥ¢
Ħ áĢ¹áĢ
åĿ Ĺ
ĠáĥĶáĥĻ áĥĿáĥľáĥĿáĥĽ
Ġáĥ¤ áĥĿáĥłáĥĽ
à§ģà¦ ģ
Ø¨ ÛĮÙĨ
Ġà¦¬à¦¿à¦· à§Ł
Ġm s
Î¼Î¹ Î¿ÏħÏģÎ³
Ġì° ¾
ÏĥÎµ ÏĦÎµ
ier z
ast o
D S
Ġà®¨ à®©à¯įà®±
ĠÙĩØ¯ Ùģ
press ion
Ġå¾ Ī
è ¬
è© ¦
ar ma
Ġinsp ir
à¹ Ĭ
à¦¾à¦ ·
ªà¸ ³à¸Ħà¸
Ġà¦¬à¦¿à¦ ª
Ġdis p
Ġver w
Ö ĩ
ĠF ort
ĠÎ» ÎŃ
Ġ×Ķ×ŀ× ¡
à§ĩà¦Ľ à¦¿
ĠáĥĽáĥĿáĥ Ļ
ĠCh e
áĥĲáĥª áĥĶáĥĽ
Ġ×Ķ×Ļ ×ķ×Ŀ
éĴ ¢
áĥĺáĥ¢áĥĶáĥ¢ áĥĺáĥ¡
áĥ¨ áĥĺáĥł
Ġber k
ĠìĨ Ĳ
ĠÎ² Î¬
à®ªà¯įà®ª à¯ģ
Ðº Ð°Ð·
ĠP ier
åľ Ĵ
ĠU lt
ĠÎ´ ÏħÎ½Î±
Ġ à
Ġáĥ¡áĥ®áĥķáĥĲáĥĵáĥĲáĥ¡ áĥ®áĥķáĥĲ
é¢Ĩ å¯¼
Ġvol ta
ĠFran k
å· ¨
opp ing
å½© äºīéľ¸
ļà¸£à¸´à¸ ģà¸²à¸£à¸
Ġreg ion
à®¿à®© à®°à¯į
ec i
ĠMod el
Ġà¦¥ à¦¾à¦ķà§ĩ
Ġkh Ã³
oc z
Ø¬ Ø§Øª
ëıĦ ë¡Ŀ
' '
Ġsah ip
Ð¼ Ñĭ
ļ à¹īà¸²à¸Ļà¸
ÏģÎ¯ ÎµÏĤ
ĠáĥĽáĥĹáĥĲáĥķ áĥĲáĥłáĥĺ
ĠÙĪØ§ÙĦ Ø¥
ëĭ¤ ê³ł
ĠÑĢ Ðµ
ç´ °
Ġà¸ŀà¸Ļà¸ ±à¸Ļ
Ø§Ø¯ ÙĬØ©
Ġà°® à±Ĩ
Ġ9 99
ÎµÎ¹ ÏĦÎ¿ÏħÏģÎ³
ĠÙ¾ Ø±Ø³
st ar
Ġå½©ç¥ŀ 8
Ġà¦¢ à¦¾à¦ķà¦¾
Ġl ip
å¦ »
à¯Ī à®¤à¯į
×ķ×ĳ ×ķ×ª
ĠK ore
ess ion
èĩªå·± çļĦ
ªà¸´à¸Ļà¸ Ħà¹īà¸²
Ġë ¯¼
Ġ×ł ×¤
Ð» Ð°Ð¹Ð½
Ġ×Ĳ ×¡
Ġáĥ£áĥ ĸ
çļĦ ãģª
ï¼ ī
L O
Ġres pon
Ġex c
Ïĥ Î¼Î±
ĠÙħÙĨ Ø§Ø³Ø¨
ĠÕ Ŀ
åģ¥ åº·
áł ¢
Ġà¦¯ à¦¦à¦¿
ĠIt al
à¤¾à¤Ĥà¤ļ à¥Ģ
Î±Ïĥ Î¯Î±
å®ŀ çİ°
Ø±ÙĬ ÙĤØ©
Ġà¸ Ħà¸¸à¸ĵà¸
Ġà¤ľ à¥įà¤¯
Ø±ÛĮ ÙĤ
ĠÙħØµ Ø±Ùģ
iy ang
Ġà®ķà®° à¯ģà®¤à¯įà®¤
v ille
Ġåľ Ł
Ġà¹Ģà¸¥ à¹Īà¸Ļ
×ķ×ŀ ×Ļ×Ŀ
Ġs á»©c
Ġr iv
æł· çļĦ
ĠáĥĲáĥł áĥĲáĥ¡
ãģ® ä¸Ń
Ġà°İà°¨à±įà°¨ à°¿à°ķ
ç» §
áĥĴ áĥ£áĥ¤
Ġà¤ı à¤µ
ĠÙĨØ³Ø¨ Øª
} }
¸ à¹Īà¸¡à¸
un que
Ġdan Ä±ÅŁ
Ġà¦ī à¦ļ
ĠÙĬ Ùĥ
à±ĩà° ¦à°¿
ĠÙĪÙĩ ÙĬ
ĠØ§Ø¬ØªÙħØ§Ø¹ ÛĮ
ĠTe am
ĠÐ· Ð°Ð´
à¸£à¹Īà¸§à¸ ¡à¸
Ġte j
é ı
ar g
Ġà®µ à®¾à®¯
çĶ ²
áĥĺáĥķ áĥĺ
ĠÙĬ Ø´
èģ ŀ
Õ¡Õµ Õ«Õ¶
Ġf el
Ġb lij
à§ģ à¦¸
Ġà°ķà±Ĭ à°¤à±įà°¤
ÙĤÙĬ ÙĤØ©
ent ial
ĠÃ¶ÄŁ ren
Ġver z
Ùħ Ø³
ĠåĽ ŀ
g ens
ĠÕ ¹
à®¿à®¨à¯įà®¤ à¯ģ
Ġçº ¢
ĠL ight
Ġx Ã¢y
Ġg ente
Ġb áº¯t
Ġà¸ «à¸²à¸
Î»ÎµÏħ ÏĦÎ±
Ġáĥ¨ áĥĺ
Ġà¤ Ī
å®Į æĪĲ
ĠNo us
å° ļ
à§ģà¦¦à§įà¦§ à§ĩ
Ġà¤ª à¤¾à¤¸
à°° à±įà°¯
ĠãĤ ¦
m s
11 1
ĠÏĥÏĩ ÎŃ
ĠW ill
ÉĻ zi
ÅĤ e
Ġr ych
à¤¾à¤ Ń
ett re
ĠØ§ÙĦØŃ ÙĬ
ĠÐº Ð°ÑĩÐµÑģÑĤÐ²
Ġpod le
ªà¸ ¡à¸±à¸
Ġth áºŃt
ãĥ³ãĥ ģ
à¤¿à¤¸ à¥įà¤¤
Ġà°¸ à°¹
ĠÐ¾ ÑģÑĤ
á» ĥ
Ã©m u
Ġà®µ à®¿à®ļ
Ġl y
áº· p
ÑģÐº Ð¸Ñħ
ĠØ§ÙĦ ÙĪØ²
Ġà°¤ à±Ĭ
ĠOff ice
f ace
å° Ĭé¾Ļ
y u
Ġáĥ£áĥłáĥĹ áĥĺáĥĶáĥłáĥĹ
Ġë§İ ìĿĢ
ĠdeÄŁ er
re ad
×Ļ×§ ×¨
à¤£ à¥Ģ
Ġo il
áĥ£áĥ¨ áĥĲáĥĿ
à¥ģà¤³ à¥ĩ
ĠÕ ¨
ĠY o
Ġà®ļ à®Łà¯įà®Ł
Ġf arm
Ð°Ð¶ Ðµ
ĠÑģ Ð¸ÑģÑĤÐµÐ¼
Ġin kiÅŁaf
Ġdent ro
âĢĶ âĢĶ
åıĳ çİ°
Ġå ²
Î½ ÏĮ
Ġà®µ à®¯
Ġà®®à¯ĩà®² à¯ģà®®à¯į
à°° à±įà°²
ĠÐ¼ Ð½
Ġx idmÉĻt
Ġ×Ļ ×¨
Ġcom b
Ġà¤Ĩ à¤§
áĥĺáĥļ áĥĶáĥĳáĥĲ
×¤ ×ķ
ĠÐ¿ÑĢÐµÐ´ ÑģÑĤÐ°Ð²
Ø§ÙĦ Ø¯
Ĺà¸ ±
Ġfun cion
Ġd 88
áĥ« áĥ¦
ĠÐ¿ÑĢÐ¾ ÑĨ
áĢ Ģ
Ø¶ Ùħ
à¸Ńà¸²à¸ Īà¸
ĠÄĳ áº¡o
Ġìķ ŀ
ĠØ¹ Ø±Ø¨
Ġv est
æİ§ åĪ¶
Ġlab or
ãģ® ãģ§ãģĻãģĮ
ĠprÃ³ x
Ġw i
ĠáĥĴáĥķ áĥĶáĥłáĥĵ
Ġd ÄĽ
à®Ļà¯įà®ķà®³ à¯ģà®ķà¯įà®ķà¯ģ
ed o
ĠCo unt
ĠìĤ¬ íļĮ
ãĤŃ ãĥ£
nik i
un it
n Ä±
Ø§ÙĦ Ùī
k op
Ġlu Ã´n
as ter
à¯ģà®£ à¯įà®Ł
Ġà¸Ľ à¸µ
Ġæ±Ł èĭı
Ġon u
ce p
ĠØ§Ø± ØªØ¨Ø§Ø·
ĠØ§Ø´ Ø§Ø±Ùĩ
à°°à±įà° Ĺ
ud ad
ļ à¸£à¸
Ġtari x
Ġch iáº¿
ĠEle ct
Ġà¦Ń à¦¾à¦ĩ
Ġstr ong
ow ym
Ġ... ...
k Ã©
Ġ×Ķ×Ľ ×ľ
T 00
Ð Ĺ
m Ã©
ļà¸ ¸à¸
Ġ×Ĳ ×ķ×¨
Ġê¸ Ģ
æ¯ Ĵ
Ġtá» Ń
Ã¡r ia
Ġlam ang
Ġv ita
èµ· æĿ¥
ÎĻÎļ ÎĹ
Ġà®° à¯Ĥ
k g
c ÃŃ
Ġh ace
åĬŁ èĥ½
Ġã Ħ
Ġdest in
Ã¼ hr
ill as
Ġà®µà¯Ĩà®³ à®¿à®¯
ĠÐ· Ð°Ð¼
Ġjedn ak
Ġà°ħ à°®
Ġperson as
Ġà¸ ¡
Ġse ver
Ġh akk
Ġc over
Ġåı¯ ä»¥
Ġà¤ªà¥įà¤° à¤ķ
ĠSt a
áĥĸ áĥĲáĥķ
ĠéŁ ©
Ġà®ļ à¯Ģ
à°Ĥà° Ń
áĥĺáĥľ áĥĲáĥľáĥ¡
Ġ! "
à°¾à°² à±įà°¸
C l
Ġmil yon
ĠD Ã¶vlÉĻt
«à¹ĩ à¸Ļ
à¹ģà¸ ķà¹Ī
à¤ķ à¥ĭà¤Ĥ
i ÃŁ
d n
Ġs ong
Ġlev el
ÛĮØ´ Ùĩ
ĠëĤ ´ë
ãģ«ãģª ãģ£ãģ¦
Ġáĥ¨áĥĶáĥ® áĥķáĥĶáĥĵ
Ġáĥĳ áĥĿáĥļ
Ġu ÄŁ
uts che
à§įà¦¯ à§ĩ
aj ÃŃ
ĠìĿ¸ íĦ°
ĠÎ ŀ
Ġk rij
à°ķà±įà° ¸
Ġà°ķ à°¾à°¦à±ģ
ler de
is ing
íķĺ ë©°
Ġë§Į ëĵ¤
è¿ĺ æĺ¯
Ġdes en
Ġà¦¤ à§Ī
à°¾à°µ à±ģ
à®¾à®µ à®¿à®©à¯į
and en
Ġà°§ à°°
ĠÐ¾ Ð½Ð¸
à¹Ĥà¸£à¸ĩà¹ģà¸£à¸ ¡
ĠS au
Å¡ enÃŃ
ac Ä±
osp ital
Ġtod a
ĠìĿ´ ìĥģ
ç °
áĥĶáĥľ áĥ¡
áĥĲáĥĸ áĥĺ
ĠãĢ ľ
Ġh us
ĠØ¯Ø§Ø± Ø§ÛĮ
Î¸ Î±
ª à¸µ
ÄŁ iniz
ez i
Î½Î¿ Î´Î¿
ĠÑģÐ» ÐµÐ´
id ence
h em
Ġcl ose
ĠR oy
Ġà°ı à°®
ĠØªØ¹Ø¯ Ø§Ø¯
ÅŁ aq
er w
ĠáĥĲáĥ¡ áĥĶáĥĹáĥĺ
áº« u
à¸Ńà¸Ńà¸Ļà¹Ħà¸¥ à¸Ļà¹Įà¸
ê·¸ ëŀ¨
ia ÅĤa
Ġmon ey
åħ³ æ³¨
ë³ Ģ
ĠG ew
×ķ×Ĳ ×Ķ
×Ļ×Ĳ ×ķ×ª
Ġtim es
Ġnh á»ı
ä¼ļ ç¤¾
we et
end s
ĠæľĢ æĸ°
ĠâĢ «
ãģķãĤĮ ãĤĭ
Ġà®ªà¯Ĩ à®°à®¿à®¯
ĠØ§ÙĦØŃ ÙĦ
Ã¤ s
aw i
Ġer ror
ĠMas ter
Ø§Ø¦ Ø¯
Ïĥ Î¹Î¿
ur ance
ri x
ĠÙ¾ Ø²Ø´
Ġr im
ÑĤ Ðµ
à±ĥ à°·
ÙĤÛĮ ÙĤ
Ġex pert
ĠPr iv
ÑĢÑĥ Ð·
ĠÎºÏĮ Ïĥ
Ġm á»įi
Ġì ±ħ
ĠÙĩ ÙħØ§ÙĨ
Ġæķ Ļ
ĠK or
ik ut
Ġm art
Õ¡Õ ¦
wid get
ĠMart in
åĪĨ å¿«ä¸ī
à¹ī à¸Ńà¹Ģà¸
à¨ ķ
Ġwar en
ĠÐ¿ÑĢÐ¾Ð¸Ð· Ð²Ð¾Ð´
Î¶ ÎµÎ¹
Ġç Ģ
ĠC in
H e
Ġh idup
B ook
Ġà®ªà®ķ à¯ģà®¤
çĻ» åħ¥
ĠB 8
A l
ĠTh at
ëĦ ·
×¨ ×¥
Ð¾Ð± ÑħÐ¾Ð´Ð¸Ð¼
ĠÃ¼ n
Ġpok er
Ġopt ions
ĠCont act
×ł×Ļ ×Ļ×Ł
k az
ĠÙģ Ùĩ
Ġå¼ ķ
ĠpÅĻ es
ĠmÃł u
ĠV ÃŃ
ÏĨÎ¿ Ïģ
Ġå· ²
ent r
ÙĨ Ø§ÙħÙĩ
à¸Ļ à¸²
à´ £
ÑĤ ÑĢ
ĠNaz ir
r iv
Ġfe el
Ġdiff ic
as iya
ĠØ§ÙĦØ£ Ø¹
è Ķ
×Ļ×ŀ ×Ļ×Ŀ
Ġáĥ®áĥĶáĥļ áĥĺáĥ¡áĥ£áĥ¤
Ġpun to
Ġh id
ÙĪØ¯ ÛĮ
st up
ĠÎµÎº ÎµÎ¯
ff er
ĠÎ£ ÏĦÎ·
à§ĩà¦ ·à§įà¦Ł
×¦ ×Ļ
å¨±ä¹Ĳ å®ĺç½ĳ
Ĺà¸²à¸ ĩà¹Ģà¸
ĠP ER
ë¸ Ķ
um in
Ġm ellom
èģ ·
ĠØ§ÙĦØµ ØŃ
ĠÐĿ Ð¾
áĥłáĥª áĥĶáĥļ
amp le
Ġcir c
ÙĬØ± Ø§ÙĨ
Ġà¦® à§Ĥà¦²
ĠN i
Ġst y
Ġngh á»ĩ
è¾ ħ
ÐµÑģ Ð¿
Ġtari h
Ġmin ist
al ik
Õ«Õ ¯
s ce
ä»ĭ ç»į
à®¾à®µ à®¿à®²à¯į
¸à¸ Ľà¸
Ġv irt
è¼ ī
m esi
Ġà¤® à¤¾à¤®
Ùĳ ÙĲ
ĠáĥĽáĥĲáĥĺ áĥľ
ĠÐĲ Ð½
n ice
è¿ Ŀ
Ġprogr ama
Ġmember ikan
ik et
Ġun ser
×ķ×Ľ ×ľ
ation en
Ð¸Ð½ Ðµ
dek lar
Ġà¦® à§ģà¦ķà§įà¦¤
ãģ® æĸ¹
×Ļ×¡ ×ĺ
ĠØª ÙĦÙĥ
çµ ¦
å© ·
å¼Ģ åıĳ
à¹Ĥà¸ Ľà¸£
U Z
ĠØ¢Ø² Ø§Ø¯
Ġlab an
Ĥ à¸Ļà¸²à¸
ĠáĥĴáĥĲáĥľáĥĽ áĥĲáĥķáĥļ
å» ¶
Ġnh anh
Ġà®ļà¯Ĩ à®²
ĠÎµÏĢ Î¹Îº
Ð¸Ñı ÑĤ
aÅŁ Ä±
ĠnÄĽ k
çĻ Ĥ
Ġr at
ë Ŀ
áĥĺáĥ¡ áĥĺ
E E
æİ Ī
à« ĩ
ÑĮ Ñı
áĥĶáĥ ĸáĥĶ
ĠçĦ ¡
ĠáĥĴáĥĲáĥĽ áĥĿáĥķ
Ġsos ial
Ġ ãģª
à®¿à®© à®¾à®°à¯į
Ø§Ø¨ Ùĩ
ĠD C
s iniz
Ġr if
Ġlog o
é¡ »
Ġà¤° à¤¾à¤¹
Ġsoc i
Ġps ych
Ġx ml
Ġà¦¸à¦Ń à¦¾à¦ª
Ġ×§ ×¦
Ġph á»ĳ
ien i
Ġdi f
ĠØªÙĨ ÙĩØ§
Ġ×ĳ ×ĸ
áĥłáĥ« áĥĶáĥļ
í Ī¬
ĠR ich
ĠIn i
ĠÏĮ Î»Î±
Ġ×ľ×ŀ× ¢
Ð¾Ð² Ð¾Ð¹
ĠdÉĻy iÅŁ
à°¿à°ķ à±į
fÃ¼ hr
×ĳ ×ĵ
ĠÎµ Î¹Ïĥ
ĠAn al
ĠØ¨Ø§ÙĨ Ú©
Ġv last
ĠHe alth
Ġpro y
Ġse a
Ġag ar
ĠÙĩ Ø§ÙĬ
Ġy ardÄ±m
à¦ Ĩ
ĠØ¶ ÙħÙĨ
Ġj ego
ĠX X
Ø¬ ÙĪ
Ġà¦ĩà¦ī à¦¨
æ¬ ²
Ġà´ ħ
Ġà°µ à°¾à°Ł
Ġen joy
åĳ ¢
ĠV a
à¥įà¤ ł
ªà¸ Ķ
Ġint ens
ãģ£ ãģ
Ġà®ħà®°à®ļ à¯ģ
Õ« Öģ
ŀà¸ ´à¹Ģà¸¨à¸
à¹Ĥà¸Ķà¸ ¢
ÏĨ ÏĮ
b ÉĻr
ie go
al ang
Ġn á»¯
ÉĻd ir
Ġà¦¬ à§ľ
åĽ º
Ġn an
ãĥ¼ãĥ ĸ
à§Ģ à¦ķà§įà¦·
ÄĻ t
ĠP A
íı °
ŀà¸ ¹à¸
à¤® à¥Ģ
Ġà®İ à®£à¯įà®£
Ġc osa
å¼ ¹
iv itÃł
Īà¸ ³
ĠAut or
Ġà¤µà¥įà¤¯ à¤ķà¥įà¤¤
Ġcom bin
Ġáĥ¡áĥŀ áĥĶáĥª
Ġda x
ĠB eg
Ð¿ÑĢ ÐµÐ´
à¤¿à¤¤ à¤¾
ol en
Ġá¼ Ĳ
Ġest ado
Ġbar ÉĻdÉĻ
cz as
ag itan
Ġodp owied
Ġlain nya
à°Ł à°Ĥ
à®±à¯įà®± à¯ģ
å°ı æĹ¶
ot y
ĠÙħÙĨ ÙĩØ§
ä¸ª äºº
ĠR ab
çĶµ è¯Ŀ
à®¿à®¯ à®¾
æľĢæĸ° çĻ»å½ķ
_ C
Ġwith in
ert as
Ġh va
à¤¡à¤¼ à¥Ģ
«à¸Ļà¸ ±à¸ĩ
Ġn elle
ĠL ove
à¤¬ à¤Ĥà¤§
Ġà¸ Īà¸°à¸
Ġà°µà±įà°¯ à°µ
Ġph á»¥c
ĠëĤ ł
Ġè ©
à¤¡ à¥ĩ
st al
Ġà°ħà°§à°¿à°ķ à°¾à°°
à§ĩà¦¶ à¦¨
es inde
Î Ĵ
Ġd ess
Ġ' ;
à¹ī à¸Ńà¸Ļ
ĠÎł Î¡
Ġs ÉĻh
Ġtek n
ent ly
Ġìĭ Ŀ
ĠÐ¸Ð¼ Ðµ
n te
Ġt ÅĻ
à¹ĩà¸ ģ
à®¿à® Ļ
Ġà®®à®ķà¯įà®ķ à®³
Ġà¤ħ à¤ļà¥įà¤Ľ
ĠØ¨ Ø§Ø¹
çµ Ĥ
Ġà¦ĸ à§ģà¦¬
Ġkep ada
Ġ199 7
Ġs ÉĻb
Ġà¦ª à¦¾à¦¶
Ġav oir
æĿ Ł
Î¸ ÏģÏī
deklar asjon
Ġà¦ĵ à§Ł
Ġtrabal ho
ÐµÐ½ Ð½ÑĭÑħ
P L
Ġà¦¸ à¦°à§įà¦¬
Ġt ow
à§įà¦¯à¦¾à¦¨ à§įà¦¡
ĠáĥĴáĥĲáĥľáĥĽáĥĲáĥķáĥļ áĥĿáĥĳáĥĲáĥ¨áĥĺ
à¥įà¤ ľ
Ġ= \"
áĥ£áĥľ áĥĵ
al ui
Ġáĥĵ áĥĶáĥĻ
Ø¶ Ø§ÙģØ©
Ġv ec
ĠG eb
à¹Ħà¸§ à¹ī
Ġy outube
áĥ¡ áĥĲ
ri ed
ĠÄĮ esk
Ġáĥ¢ áĥĶáĥļ
ĠÙħÙĨØ· ÙĤÙĩ
è¦ ı
ÏĦ Ïĥ
Ġb Ã©
ĠC ong
å§Ķ åĳĺ
áĥĿáĥĵ áĥĺ
Ġà§§à§ ¯à§
Ġkom un
ek an
ĠØ¢ Ø³ÛĮ
à°¾à°¬ à°¾à°¦
ĠÎĳ ÏĢ
ĠáĥĲáĥĽ áĥĺáĥ¢áĥĿáĥĽ
ĠÙ¾Ø§ÛĮ Ø§ÙĨ
Ġma ior
ÃŃ z
ĠØ§ÙĤ Ø¯Ø§Ùħ
Ġà¤ľ à¤°
ĠØ¬ ÙĪØ§ÙĨ
ĠÑĥ Ð²
åį Ģ
bo ard
Ġáĥ¬ áĥļ
ar kan
áº¡ y
pl ate
Ġè ı
Ġà®µà®° à¯ģà®®à¯į
Ġj am
Ġf en
ĠT ip
á»« ng
ĠáĥĴáĥĲáĥľ áĥĲáĥĹ
Ġ10 8
Ġpo j
Ġper man
áĥĲáĥŀ áĥĺáĥł
à¯įà®µ à¯ģ
ri ch
or ang
Ġà¨ ª
Ġz ach
Ġby lo
à¥ĩà¤ ³
Ġká» ³
ĠK rist
Øª Ùĥ
ĠåĮ ħ
Ġà¦ª à¦¾à¦²
Ġhor as
P C
ĠìľĦ íķľ
ĠÕ į
ĠÎĳ ÏģÏĩ
à§įà¦Ł à¦¾à¦°
Ġm áº¡nh
Ġ1 åĪĨå¿«3
é¾Ļ èĻİ
Ġsel f
A n
Ġsek s
Ġmend apatkan
Ġth anh
ĠØ¯ÙĪØ± Ùĩ
Ġv ak
Ġà¤µà¤¿à¤ Ń
×ĳ ×ķ×¢
Ġv áºŃt
Ġak ing
Î±Î¹ Î¿
ick Ã½
G V
ĠÑĩ ÐµÐ¼
éĽ ·
ÙĩØ§ÛĮ ÛĮ
ĠtÉĻl ÉĻb
Ġt inh
ãģ ²
ĠØ² Ø¨Ø§ÙĨ
Ġà¤ķà¥įà¤· à¥ĩà¤¤à¥įà¤°
åĪ© æĿ¥
on de
Ġquy á»ģn
çŃ ĳ
åŁº æľ¬
«à¸Ļà¸ ¶à¹Īà¸ĩ
Ġs and
ual mente
Ġà®ķ à®¾à®Łà¯įà®Ł
ual itas
çĮ ľ
Ġlim it
ì¶ľìŀ¥ ìĦľë¹ĦìĬ¤
ë¬ ´ë
Ġà¦ħ à¦¤
èŃ °
áĥĶáĥĳ áĥĲáĥĹ
ĠÙĨ Ø®
Ġ Ïī
á½ ¸
áĥĶáĥĽáĥĳ áĥĶáĥłáĥĺ
Ñĥ Ð³
ÐºÐ°Ñĩ Ð°ÑĤÑĮ
C ont
ĠÙħØ¹ Ùħ
Ġn Æ¡i
Ġ ãģ«
à¤ı à¤®
un es
f ahr
V iew
T o
Ġà¤¨ à¤¿à¤ķ
ĠÅŁ ÉĻhÉĻr
Ġcons ult
Ä Į
ĠáĥĽáĥĲáĥĺáĥľ áĥª
åıĳ çĶŁ
áĥĶáĥĿáĥĳ áĥĲ
y la
ĠrÃ© g
ÙĪ ÙĬÙĦ
Ø« ÙĦ
g ev
Ġà®ķà¯ģà®´ à®¨à¯įà®¤
Ġà¦¹ à§ĭà¦¸
à¦¾à¦° à¦¿
Ġnh Ã¬n
ĠInd ust
åŁ¹ è®Ń
Ġtá» ·
ort a
l ung
Ġè Ħ
Ġad ult
à¨¾à¨ Ĥ
ÎŁÎ ľ
Ġà®ļà¯Ĭ à®©à¯įà®©
ĠF ot
ĠEn erg
Ġa x
Ġ11 5
ä¾¡ æł¼
ç´ ļ
Ġçº¿ ä¸Ĭ
Ġq an
ĠØ£ Ø´
Ġà°ļà±Ĥà° ¸
Ġw orks
ãģ¡ ãĤī
Ĺà¸ ±à¸
Ġsom ething
±à¸ģà¸ ©à¸
z ioni
ic ion
in te
ĠØ§ÙĦÙģ Ø±
Ġgel iÅŁ
Ġdire kt
à¦¸ à¦¹
Î» Î¯Î±
Ġ×Ľ ×ķ×ľ
ap ter
Ġv Ã´
à¥ĩ à¤¹
ĠÙĤ Ø¶
Ġv Ã¦rt
ì¹´ ìĺ¤
éĢ Ķ
Î¾ ÎµÎ¹ÏĤ
Ġ Ë
à¤¿à¤µ à¤¾à¤°
Ġáĥľ áĥĲáĥĹ
Ġm uss
à¹Ģà¸¥ à¹Īà¸Ļ
ØŃØ¯ Ø«
Ġà°ħà°¨ à±ĩ
ĠØ§ÙĨ Ú¯
ãģĶ ãģĸ
Ġà¦ľà¦¾à¦¤ à§Ģà§Ł
ĠáĥĽ áĥĲáĥłáĥĹ
ĠAmer ican
Ġthu áºŃt
ÏĦ Î¶
iet y
Î¼ ÏİÎ½
Ġà°īà°¨à±įà°¨ à°¾à°¯à°¿
×Ļ×ĳ ×ķ×¨
¢à¸ ĩ
au fen
Ð°Ð½ Ð°
ģà¸ ¤à¸
Ġka Å¾d
Ĥà¸²à¸ ¢
ĠmÃ¼ ÅŁ
ä½ľ çĶ¨
áĥ¡ áĥŀ
Ġs ir
á» Ľi
Ġsa x
ĠÑģ Ð´ÐµÐ»
Ġm nie
Ġà¹Ģà¸ ģà¸
Ġo yn
è¦ ĸ
à¦¨ à§Ģ
ÐµÑĤ Ñĭ
Ïĩ ÏģÎ¹
Ġê·¸ ë¦¬ê³ł
or f
Ġg áº§n
Ùİ Ø¯
Â ¶
Ġs ale
ĠáĥĲáĥł áĥĺáĥĲáĥľ
ĠÙĦ ÙĬØ³
ĠÉĻ vvÉĻl
ĠÙĪ Ø·
Ġtan pa
ÙĬÙĨ ÙĬØ©
ãĤ³ ãĥŁ
esz cze
ĠáĥĲáĥ£áĥ ªáĥĺáĥļ
ç½ ª
Ġà¤«à¤¿à¤² à¥įà¤®
ĠÙĪØ§ÙĦ ØŃ
Ġmens en
æĶ¹ éĿ©
ong an
áĥĲáĥļ áĥĺáĥĸ
Ġolm asÄ±
ĠD ok
ä¸ ģ
w ick
Ġà¦¬à¦¿à¦¶ à§ĩà¦·
Ġng ayon
ìĹĲ ëıĦ
j ons
Ġ×ľ×Ķ ×Ĵ
ĠØ° Ø§Øª
ĠAust ral
iv as
ĠØ£ Ø®Ø±Ùī
ĠC rist
áĥĲáĥĻ áĥ£áĥĹ
Ð°ÑĢ Ð¸
Y X
Ġl ess
à¯įà®ª à¯ģ
al n
à¯ĭ à®ļ
t v
Ġs ampai
ģà¸³à¸ ¥à¸±à¸ĩà¸
Ġà®ªà®¾à®° à¯įà®ķà¯įà®ķ
Ġà®īà®° à¯ģà®µ
Ġj adi
ĠD engan
Ġpamam agitan
ÏĢÎ¿ ÏĤ
sp ot
Ġì¤ĳ êµŃ
Ø² ÛĮÙĨÙĩ
Ġè İ
à¸µ à¹īà¸
ĠãĤ ±
ĠÏĩÏī ÏģÎ¯ÏĤ
à¶± à·Ĭ
ĠÙģ ØµÙĦ
ĠV I
Ð¾Ñģ Ð¾Ð±
ill ing
Ġáĥł áĥĲáĥ¢
Ġ3 000
Ùİ Ùħ
um mer
Ġå® ĥ
Ġwid get
ĠB ek
ë¨ ¸
ĠÎĿ Î±
Ġproduk t
Ġg ur
ĠM obil
åºĶ çĶ¨
å°¼ æĸ¯
áĥĶáĥĹ áĥĶáĥ¡
×Ĳ ×ľ
ĠðŁĻ Ĥ
Ġdi as
ĠÎ¼ Î¿
ĠÎµ Î»Î»Î·Î½
Ġqu ant
ĠÙħØ³Øª ÙĤ
ĠH am
éĢ Ļ
à§ĭ à¦¹
id ak
łà¸±à¸ ĵà¸ĳ
ï¼ ķ
æĿ¡ ä»¶
Ġpers one
¢à¸ ¸à¸
Ø±Ø¨ Ø¹
ĠëĦ ¤
áĥ¡ áĥĶáĥľ
Ø§ÙĨ Øª
Ġ äºĳ
à¦¿à¦ ·à§įà¦Ł
Ġäºļæ¸¸éĽĨåĽ¢ å®ĺç½ĳ
Ġ×ĳ ×Ł
à±įà°¸ à±įâĢĮ
Ġà°° à°¾à°®
Ġ19 90
Ġgl obal
Î» Î¹Î¿
Ġê± ¸
Ġd Ã¶v
l ant
à¦¾à¦ĩ à¦Ł
×¨ ×¡
Î¾ Î¹
Ġà®µà¯Ģ à®Łà¯įà®Ł
Ġà¦¸ à§įà¦ķ
Ġà¦¬ à¦¿à¦¨
Ġj og
Ġ... ....
á»ķ ng
Ïĥ ÏĥÎ±
ãģĹãģ¦ ãģĦãģ¾ãģĻ
ãĤī ãģĦ
ÏĦÎµ Ïį
Ð¾Ð½ Ð¾Ð¼
ĠPro bl
å·ŀ æīĳåħĭ
u cht
éĩĳ èŀį
ä¸Ģ äºĽ
ĠìŀĲ ìĭł
Î¯Î¶ ÎµÎ¹
¡ Ù
à¦ ¯à§ĭà¦Ĺ
à¤¬ à¥Ģ
ĠáĥĻáĥĿáĥľ áĥĻ
Ġà®ªà®¿à®° à®¤
ĠÂ ¥
Ġà°µà°¿à° ¡
à¤ª à¥ģà¤°
ĠØ§Ùģ Øª
å¤§ æĪĺ
ĠØ· ÙĪÙĦ
ç¡ Ģ
áĥĶáĥ ¬
áĥ¢ áĥĿáĥĽ
c ÉĻ
ïº İ
à°¿à°¨ à±į
l ov
h d
ĠÛ ¶
áĥ£áĥ¡ áĥ¢
Ø¹ ÙĬ
x ico
Ġcon fer
èģ ļ
Ġà®® à®¾à®£
Ġáĥ¡áĥĲáĥ¡ áĥĲáĥĽáĥĲáĥłáĥĹáĥļ
Ġà¤Ĺ à¥ĭ
Ġ×Ĳ ×Ļ
Ġt udo
port un
ĠÏĢÎµÏģÎ¹ÏĥÏĥÏĮÏĦÎµ ÏģÎ±
Ġth ay
Ġ×¨ ×Ľ
Ġ×¡ ×¤×¨
Ġseh ingga
Ġelekt ron
Ġæķ °
áĥĶáĥĳ áĥĲáĥĸáĥĶ
Ġà¤® à¤¿à¤
ĠØ§ÙĦØ³ ÙĦØ§Ùħ
ĠØ§ÙĦØª ÙĪ
Ġk re
Ġdec or
çĪ ¶
Ø§Ø¦ ÙĬÙĦ
ier o
´ à¹Īà¸ĩ
Ġáĥ¢áĥĶáĥ¥ áĥľ
Ġà°ªà±įà°° à°¤à±įà°¯
ĠL an
èĭ ¦
áĥĺáĥ ¯
à±Ĩà°Ł à±į
Ġ( +
Ġà°Ĵ à°ķà±įà°ķ
×Ļ×Ĺ ×Ķ
iz in
Ġâ ĳ
à¸Ń à¸Ļà¹Ģà¸
Ø· Ø§Ø±
Ġà¤¸ à¥įà¤ª
Ġc ro
ĠsÃ¼ re
Ġl le
Ġgrup o
×ŀ× §
Ġkom mer
ĠM os
åľ Ī
Î¼ÎŃÎ½ ÏīÎ½
é¡ ¶
Ð°Ð½ Ñģ
ĠÕ ¬
larÄ±n dan
ĠÙĦ ÛĮÙĨÚ©
Û Ĩ
q i
Ġà¦ªà§įà¦°à¦¤ à¦¿à¦·à§įà¦ł
à¸£à¸ ĸ
Ġb á»Łi
Ġ24 0
ëı ħ
äºº äºº
vol v
ĠØ± Ùĩ
ÉĻr k
Ġë ĸ
åŃ© åŃĲ
ĠåĽ ¾
Ġë°© ë²ķ
çĶµ èĦĳ
Ġ Ê
ai ent
ĠÏĢÏģÎ¿ Î²
Ġob at
æĻº èĥ½
á¿ ¦
Î½ Î¬
Ġë¦¬ ë·°
Ġj ou
ĠãĢģ ãĢĮ
Ġà°Ĺà±ģà°° à°¿à°Ĥà°ļà°¿
ÉĻ ng
Ġà§¨à§¦à§§à§ ¯
or io
Ġíĥ Ģ
ler ine
çĭ Ĺ
Ġ×©×ľ ×Ļ
à§ĭ à¦ľà¦¨
×¢ ×¨
ĺ à¸£à¸£à¸¡à¸
Ġáĥ¡áĥĲáĥ Ĺ
Ġg as
ë ģ
ãĤ ¡
ĠS ul
ÏĦÎµ Ïħ
Ġæ° ¸
Ġg row
ĠJ our
ÙĬ ÙĤ
Ġser a
ë§Ľ ìĤ¬ì§Ģ
×ŀ× Ľ
Ġkont rol
ĠdÃ¼ zen
ĠInst agram
Ġà®¨à®¿à®± à¯ģà®µ
ĠH en
ort en
Ġà°¸ à°Ĥà°¦
ĠÐ¸ Ð³
no ut
Ġb iáº¿n
Ġmas y
ëĳ ĳìĿ´
P G
Ġperi od
æĸ ¼
Ġpr act
Ġal ta
j as
ac ute
ĠÐ¿Ð¾Ñģ Ð»Ðµ
å¹´ çļĦ
ãĥ© ãĤ¹
Ġà°¨à°¿à°° à±įà°µ
Ġæ° ĳ
ĠG MT
Þ ¨
Ġtrav ail
ï¿½ï¿½ ï¿½
à¸Ļ à¹Īà¸²à¸
Ġå® Į
ĠØ³ Ø®
Ġaut hor
ĠF ern
Ġç½ĳ ä¸Ĭ
Ġà¦¸ à¦¾à¦¹
Ġà¤¶ à¥įà¤°à¥Ģ
Â ¤
Ġà¹Ģà¸ŀà¸ ·à¹Īà¸Ńà¸
Ġs iden
Ġwh ite
Ġdies er
Ġd w
åľ ³
Ð¾Ñģ Ð¼
rav a
Ġberb agai
Ġáĥĵ áĥĲáĥłáĥ
Ġà®µ à®Ł
on ia
b n
av en
Ġx Ã¼s
åĳ ¼
em s
ĠÂ ¢
Ïģ Ïį
Ġà¦¬ à§Ī
Ġp ict
Ġam or
end ing
å® ¿
3 D
Ġà¤ħ à¤¸à¥ĩ
ĠF irst
Ġsc ript
ĠM inh
Ġal ign
ĠÚ©Ùħ Ú©
Ġse i
à±ģà° ·
çľŁäºº æ¸¸æĪı
Ġà¹Ģà¸ §à¹ĩà¸ļà¸
Ġent ry
Ġc um
íļ į
è§£ æ¢¦
´ à¹Īà¸¡à¹Ģà¸
ia o
ĠC le
åĢ Ĵ
ãģĵãģ¨ ãĤĴ
Ġe asy
Ġéĵ ¶
Ġà¤¦ à¤°
ĠáĥĻáĥķ áĥĺáĥł
as ile
ĠÛ ¹Û
ĠÎ³ ÏģÎ±
Ġagäºļæ´² åĽ½éĻħ
Ġìĸ ¸
Ġëı ħ
ĠâĢ »
å Ĺ
Î´ Î¯
ĠÚ¯ ÙĪ
Ġag èµĮ
ĠØ¯ ÙĦÛĮÙĦ
ĠØ§ÙĦ Ø±ÙĪ
ĠÐ± ÑĢ
ĠÙĪ ÙĦÙĬ
ÉĻl ik
Ġà°®à°¾à°Ł à±įà°²
×ķ×ĵ ×Ļ
ŀà¸±à¸ Ĵ
Ġpr Ã¡v
Ġà¦¤ à¦ĸà¦¨
Î³ Î¼Î±
áĥļ áĥĶáĥ¡
ĠÑĤ ÐµÑĢ
Ġm ik
ĠfÃ¸r ste
Ġà°¹ à±Ģà°°
Ġ×Ķ ×Ļ×ķ
Ġplat form
ers ch
Ġdig ÉĻr
Ġà¤¬ à¤ļà¥įà¤ļ
ĠÐ¿ÑĢ Ð¾ÑĤ
à¹Ĥà¸¥à¸ ģ
Ø¬ Ø²
ĠíĶ Į
æľ «
à§įà¦¤ à¦¾à¦°
Ġz naj
ĠMil li
78 9
Ġ äºİ
Ġencont rar
×Ļ×ł ×ķ×ª
1 50
Ġag æīĭæľº
Ġsin ce
è¿ĩ ç¨ĭ
k es
and ang
Ġtung kol
Ġmat ch
è· ĳ
à±Ĩà°ķ à±įà°Ł
Î¸Î· ÎºÎ±Î½
EN D
Ġà®¨à¯Ģ à®Ļà¯įà®ķà®³à¯į
ek si
ĠÃ§ at
ĠA st
Ïĩ ÎµÎ¯
Ġà¦² à¦¾à¦Ĺ
Ġ ÉĻr
à®µ à®¿à®²à¯į
Ġempl oy
Ġof er
ÑģÑĤ ÑĢÑĥ
à¸Ļà¸ °à¸
Ġa way
ë Ĩ
Ġtá»¥ c
Ġf ix
ut os
Ġarr iv
ĠUp dated
Ġbin nen
Ġh ang
Ġd ÃŃ
æµ ª
ÙĪ Ø³Øª
Ġà¦ª à¦¦
our ces
i Ã§Ã£o
ĠW ie
Ø§Ø¯ ÙĦ
Ġà°ľ à°Ĺ
Ġà¤ħ à¤Ĺ
æħ ĭ
Ġke ine
áĥĶáĥľáĥ¢ áĥĺ
Ġà¤²à¥ĩ à¤ķà¤°
à¹Ģà¸ ŀ
Ġà°ı à°°à±įà°ª
ĠJ ac
ãĥĸ ãĥ©
à¹Ģà¸£à¸µà¸ ¢à¸Ļà¸
ors a
ĠØ§ÙĦ Ø§Ø®
Ġà¹Ģà¸ Ħà¸£à¸·à¹Īà¸Ńà¸ĩà¸
Ġà¸Ķà¸ ¹à¸
ç» ĥ
ĠÐ¿ Ð¾Ð¿
æĿ¥ çļĦ
Ã¡v Ã¡
Î² Îµ
Ġm ant
à±ĥ à°¤
Ġà¤Ĺ à¤¾à¤Ĥ
Ġan other
ë ´
ãĢ ĸ
Ġqu ello
Ġà¦Ľà¦¿à¦² à§ĩà¦¨
Ġà¦¯ à§ĭà¦Ĺ
à®© à®¾à®²à¯į
æĶ¿ æ²»
Î´ Ïİ
ĠåĽł ä¸º
t ak
ĠLond on
ľà¸ ¥
Ġprov ide
ĠáĥĽáĥĵ áĥĴáĥĿáĥĽ
Ġn ah
ĠK em
U G
Ġáĥ¬áĥĲáĥłáĥĽ áĥĿáĥĽ
Ġav er
Ħ à¹Īà¸²à¸
Ġãĥ Ł
Ġà°ĩ à°Ĥà°ķ
ãģ¨ ãģĵãĤį
à¤¿à¤¤ à¥įà¤°
ig u
ĠÎĳ ÎĿ
Ġch er
ÉĻm iyyÉĻt
Ġt ant
ĠC V
ĠØ´ ÛĮØ±
Ġ×ľ ×ļ
Ġà¦¸à¦¾à¦§ à¦¾à¦°à¦£
ĠÑĤ Ð¾Ð¼
ĠåĲĮ æĹ¶
Ġfun k
ag an
Ġmed ic
ĠSch ool
íĻ į
åıĤ èĢĥ
Ġph Ã¢n
ir di
ma inan
st ru
Ø¶ Ø©
Ġg egen
at ta
à°² à°Ĥ
à°¡ à°Ĥà°¤à±ĭ
Ġpre d
à®¿à®° à¯ģà®ªà¯įà®ª
ªà¸´à¸ Ĺà¸ĺà¸
ĠSt reet
Ġå® ĺ
Ġst Ã¸r
Î¼ Î¯
à¸Ńà¸ ·à¹Īà¸Ļ
Ġáĥ¡áĥĲáĥĽ áĥ£áĥ¨áĥĲáĥĿ
±à¸ Ķà¸
Ġ7 20
________ ________
Ġst ran
ĠP ub
F A
ĠØªØ± ÛĮÙĨ
Ð· ÑĭÐ²
Ġv ard
Ġsak it
ä½ľ åĵģ
Ã¼n de
u elle
ëĦ Ī
åı İ
ul ing
T e
à°¤ à±įà°¸
uj ÃŃcÃŃ
Ġkon uÅŁ
æ» ļ
Ĭà¸²à¸ ķà¸´
Ġà®¤ à¯Ģà®°
ĠG T
Õ¡Õ ·
Ä±ÅŁ Ä±
èį £
Ġáĥ¯ áĥĴáĥ£áĥ¤
éĶ ®
OT O
k j
Ġà¤¡ à¥ī
Ġh áº¿t
k ÉĻm
à¤¾à¤¦ à¤¾
12 æľĪ
Ġw ikipedia
Ġlook ing
Ġitem Id
Ġz b
Ġav t
à¹Ģà¸ Ħà¸
à§ ª
Ġè Į
ĠÛ ±
Ġcom unic
ĠK ey
Ġcom er
ĠÃ Į
Ġ×ľ×¢ ×©×ķ×ª
ĠDig ital
×Ĳ ×ķ
art h
Ġg Ã¥r
Ġa st
ĠÙĨ ÙĬ
Ġgod t
Ġé İ
Ġà°¨ à°¿à°²
ĠqÉĻb ul
Ġh old
Ġf ocus
Ġres earch
Ø² ÙĬØ²
Ġà®ħà®²à¯įà®² à®¤à¯ģ
áĥĺáĥĹ áĥĲáĥĵ
Ġä»Ĭ æĹ¥
Ġà¦ªà§įà¦°à¦¤ à¦¿à¦¬
Ġuz un
Ġmen er
ÙĨØ¯ ÙĤ
Ø° ÙĬ
Ġà°¸à°Ĥà° ¬
×Ļ×ľ ×ª
ĠT y
ĠÎº Î¿Î¹Î½ÏīÎ½
ĠÎ£ Î¤
Ġag gi
ĠS L
Ð¾Ð¶ Ð´
ne ws
åĪĨéĴŁ pk10
Ġà®® à®¾à®µ
Ġh ip
çĬ ¯
ri que
Ġph á»¥
Ġim pr
ĵ áŀ
Ġz at
Ġtemp at
uk e
ap h
ĠO F
g y
Ľà¸ ´à¸Ķ
Ġà®µ à®¿à®²
Ġà¦¯ à¦¾à¦ļ
ê² ¬
ĠÐłÐ¾ÑģÑģ Ð¸Ð¸
ĠB oy
ãģ§ãģĻ ãģŃ
ad z
Ġfor sk
×ł ×ĵ
all en
Ġà°®à°¾à°Łà±įà°² à°¾à°¡
Ġà°ª à±Ĥà°°à±įà°¤
Ġê´Ģ ëł¨
ob ili
Ġà¦¶ à¦¹
å°ı è¯´
Ġse par
Ġl ud
aga imana
Ġh r
ĠR u
Ø± Ùī
th ers
Ġq oy
Ġmar ca
Ġk ed
Ġbott om
ĠÐ¸ ÑģÑĤ
ĠÎ¼ÎŃ ÏĩÏģÎ¹
ĠÅ ½
Ġma u
ĠM ain
à¥ĩà¤¶ à¤¨
z cz
àµįà´ ¯
d am
à§ĩà¦Ľà¦¿à¦² à§ĩà¦¨
ĠIs land
ĠArt icle
·à¹Ī à¸Ńà¸Ļ
Ġyap t
Ø§Øµ Ø±
a al
Ġà®Ĩà®ķ à®¿à®¯
ĠÃ¸ n
Ġà¤¸ à¥įà¤ķ
Ġw erd
ĠW in
ĠPre mi
ãĥŃ ãĤ°
ag æĹĹèĪ°åİħ
Ġ×ľ ×ľ×Ĳ
Ġmod er
Ġpl ant
ĠÄĳ Ã¬nh
Ġl áºŃp
Ø¨ Ø§ØŃ
n ut
a o
Ġåı Į
åģ· æĭį
Ġb amb
à¹Ģà¸ģà¸ ´à¸Ķà¸
à¯Ĩà®²à¯įà®² à®¾à®®à¯į
Ġsam en
Ġ4 50
Ġç ¡
Ġcam era
âĺ ħ
ĠÎ¬ Î»
as al
Ġà¦² à§ĩà¦ĸ
à¦¨ à§įà¦¯
į à¸²
ĠV Ã½
ĠC la
é² ģ
Ġåĩ¯ æĹ¶
Ġinform atie
Ġáĥ° áĥ¥áĥĿáĥľ
ĠÙħØ´ Ú©
Ġpo i
ç ŀ
ĠÐ½Ðµ Ð¾Ð±ÑħÐ¾Ð´Ð¸Ð¼
ÎŁÎ ¡
oss o
ĠÙĪ Ø§
à¦ª à¦¾à¦¤
ak ah
ĠáĥĽ áĥł
ĠÐŁ ÐµÑĢ
Ġh iÃ§
ÙĨ Ø¹
am at
ograp h
Ġseb elum
Ġh ÉĻl
ing o
à¦ķà§įà¦· à§ĩ
ĠÙ¾ Ø§Ø±
Ġap enas
Ø§ÙĦ Ùĥ
ŀ à¸£à¸°à¸
ĠCol or
r l
Ġ03 944
ĠãĤ Ħ
áĥł áĥĿáĥĳáĥĺáĥ¡
ĠS or
Ġà®ªà¯ĭ à®¤à¯ģ
ĠØ§ÛĮØ±Ø§ÙĨ ÛĮ
Ø¨ÙĦ Øº
Ġáĥ§áĥķáĥĶáĥļáĥĲáĥ¤ áĥĶáĥłáĥĺ
ĠT ru
± à¹īà¸Ļ
Ġà¦Ĩà¦° à¦ĵ
Ġà¤µ à¥Ī
áĥĺáĥļ áĥĶáĥĳáĥĺáĥ¡
Ø§ÙĦ ÙĦÙĩ
à¨ ²
ag ang
_ 0
Äį nÄĽ
æ¤ ľ
Ġà¦ªà§Ĥ à¦°à§įà¦¬
ĠÐµ ÑīÐµ
Ġm áº¹
×ķ×ł ×Ļ×ª
Ġà¸Ķà¸ ¹
ĠB Ã¬nh
Ġ01 2829
æİ ª
à°¿à°Ĥà° Ł
Õ¥Õ ¯
Ġsob ie
_ com
ĠAd d
o ord
Ġed ilm
å¼ µ
Ġà°¦ à±ĩà°µ
ì§Ģ ëĬĶ
áĥĿ áĥĶáĥĳáĥĺáĥ¡
à¸² à¸Ļà¹Ģà¸
Ī à¸Ļà¸
Ġfaz la
æľĭ åıĭ
Ð² ÐµÑģÑĤ
ĠÙħØ± ØŃ
Ġ Æ
×§ ×Ļ×Ŀ
v gr
ĠJe an
ÉĻlÉĻr in
Ġn ever
æĹ© çĤ¹
ĠØ± Ø³Ùħ
Ġpr ior
Ä° K
Ġà°° à±Ĥà°ª
Ġà®®à®© à®¿à®¤
ĠØª ÙĤØ¯
ä¸ Ŀ
om an
Ġà¥§ à¥
Ġà®¤ à®¯
Ġya itu
Ġtr á»£
Ġten er
Ġben ar
áĥĽ áĥĺáĥĹ
Ġ17 0
Ïī Î¼Î±
«à¸ §à¸±à¸
ĠG az
il ai
ĠáĥĽ áĥĲáĥ¢
Ġà¤ķ à¥Į
ĠÙħØ³Ø¦ ÙĪÙĦ
Ġc oc
ÐµÐ½ Ð¸
Ĭà¹Īà¸§à¸ ¢à¸
M B
åħ¨ çĲĥ
ic amente
à¸µ à¸Ļ
à¤¿à¤¯ à¥ĩ
eng e
Ġenc ore
v ez
Ġà°µ à±ĩà°
us ta
Ġf uer
áĥłáĥ ¡
æł ĳ
Ġj ur
Īà¸ ¸à¸
Ġ×Ķ×ª ×§
Ġed ad
ĠE C
Ġà°¨ à°Ł
ÙĤÙĦ Ø§Ø¨
Ġà¤ļà¤¾à¤¹ à¤¿à¤ı
äºĨ è§£
Ð» Ð¾Ð¶
ĠçĽ® åīį
Ġh Ã¶
ĠT oy
is ine
Ġà¦¬à§įà¦¯à¦¬ à¦¹à¦¾à¦°
é Ĳ
áł ¤
Ġf atto
sk o
ĠÙħØ± Ùĥ
ĠRes ort
Ľà¸ ¥à¸
ĠÏĥÏħ Î³
ªà¸¹à¸ ĩà¸
at ies
) ,
ON T
Ġà®ļ à®ķ
Ġinvest ig
Ġd or
ëłĪ ìĿ´
èĩª æĭį
Ġå¼Ģ åħĥæ£ĭçīĮ
Ġm ight
Ġb Ãłn
l uk
ÎŁÎ ĵ
áĥĲáĥ ¯
íķ´ ìķ¼
íı¬ íķŃ
¡à¸ ±à¸Ļ
Ġ×ķ ×§
Ġà¦ķà¦° à§ĭà¦¨
Ġ×ł ×Ĺ
à¯Ĭ à®³à¯įà®³
Ã Ŀ
ĠO L
ãĥ¼ ãģ®
ĠÙħ Ø§ÙĬ
áĥĺáĥļ áĥĽáĥĲ
ic ally
à¦¤ à§įà¦¬
à¤¡à¤¼ à¥ĩ
Ġà®¯ à®¾à®°
ĠØ¹ Ø´
§à¸´à¸ Ĺà¸¢
Ġà¦® à¦¤à§ĭ
ak en
ĠÙħÛĮ Ø§ÙĨ
Ġaqu i
ì½ľê±¸ ë§ĮëĤ¨
áĥĿáĥĵ áĥ£áĥ¥
à¸£à¸²à¸ ĩà¸
Îº Î¿Ïħ
ual es
ë³ ĳ
os se
ler inin
ĠØ¨Ø§ÙĦ Øª
Î½Î¿ Î¹
R I
ĠáĥĹáĥĳáĥĺáĥļáĥĺáĥ¡ áĥĺáĥ¡
å¢ŀ éķ¿
à°¸ à±įà°¥
Õ«Õ ½
ê· ľ
Ġ×Ķ×ŀ× ¦
Ġì§Ģ ìĹŃ
ĠW at
Ñĥ Ð²
ĠÎ» ÎµÎ¹ÏĦÎ¿ÏħÏģÎ³
ĠÂ ¯
ĠEn d
ĠáĥĹáĥĲáĥķáĥĺáĥ¡ áĥ£áĥ¤
ĠØ§ÙĦØ´ Ø±
Ġocc as
Ġsem ana
Ġm ungkin
uj i
ir it
ļà¸ Ĺà¸
à© Ī
n ika
Ġê²ĥ ìĿĢ
ĠÕ ·
Ġyax ÅŁÄ±
Ĥ à¹īà¸Ńà¸
ĠAf ter
Ġ×¤ ×Ļ
ĠÐ° Ðº
Ð°Ð» Ð¾
ĠØ®ÛĮ ÙĦÛĮ
ĠV ia
Ġgj Ã¸r
Ġd ra
Ġess e
Ġout ros
ĠP la
Ġ à¹Ħà¸Ķà¹īà¸
èª Ń
y f
Ġà°¤à±Ĩà°² à±ģà°Ĺà±ģ
enn is
å° į
ĠÎºÏħ Î²
Ġdisc uss
r ado
ol are
d al
ĠìĤ¬ ì§Ħ
Ø³ Ùĥ
or er
Ħà¸£à¸ ·à¹Īà¸Ńà¸ĩ
ĠáĥĲáĥĵáĥĲáĥĽ áĥĺáĥĲáĥľáĥĺ
Ġà¤¬ à¤¢à¤¼
Ġs ag
ĠD in
ìĺĢ ëĭ¤
ãĥ¼ãĥ ĵ
ĠEn ter
åĪ ļ
Ġà®¨ à®¿à®ķà®´
ĠÎ£ Ïį
à¸Ļà¸µ à¹Ī
Ġáĥ¨áĥĶáĥ£áĥ «áĥļ
Ġà®ķà¯ĩ à®Łà¯įà®Ł
åħįè´¹ è§Ĩé¢ĳ
Ø° ÙĥØ±
me ye
lar Ä±mÄ±z
Ġsal estr
Ġà®µ à®¿à®¤
áĥª áĥĺáĥĺáĥ¡
Item Detail
Ġsite No
Ġsalestr No
ĠP es
ì ĵ°
c in
ĠãĢį ãĢĮ
Ġà¸ Ĥà¸Ńà¸ĩà¸
22 2
Ġs Ã¡ch
Ġapr Ã¨s
ãģ© ãģĨ
b est
ĠéĿ ¢
åªĴ ä½ĵ
à© Ĥ
Ħà¸£à¸ ĩà¸
ĠP oz
Ġf lex
ëĿ ½
à°¸ à±įà°¸
ĠØ´ ÙĪÙĨØ¯
ĠK ind
à¦¬ à¦¾à¦¸
ĠCom e
Ġv ista
Ġdis e
Ø§ÙĦ Ø«
Î¼ Î±Î¹
Ġl leg
à¦² à§ĩà¦°
Ĺ à¹Ī
Ġkl ub
Ġà°®à°° à±ĭ
Ñı Ð±
ãĥķ ãĤ£
å¦ Ī
Ġapp art
ë¶ Ī
æķ £
à°ķ à°¾à°¶
ãĤ ²
Ġtoll deklarasjon
Ġch ung
ĠC S
ĠÅŁ ÉĻk
æ³¨ æĦı
Î´ ÎŃ
ĠU RL
g h
Q L
Ġè¯ ´
ch io
ĠØ¨ÛĮ Ø§ÙĨ
ĠÎ¼ Î¬
Ġn Ã¼m
×ķ×ľ ×ķ×ª
Ġà¹Ģà¸¥ à¹Īà¸Ļà¸
à¦¸ à§įà¦Ł
Õ« ÖĢ
Ø· Ø¨
Ġçİ¯äºļ çĶµæ¸¸
ĠØ± Ø¶
Ġt Ã©cn
à°² à±ĩà°¦à±ģ
ķ à¸²
«à¸ įà¸
å® ĩ
ĠÉĻ laq
Ġsta at
Ġh ver
ĠL E
aci as
Ġà®ª à¯ģà®ķ
Ġå ¦
Ġab le
Ã¡ b
Ġch á»©ng
ĠÄį i
Ġein fach
à¤® à¤§à¥įà¤¯à¥ĩ
p ect
k ara
ĠØ£Ø¨ ÙĪ
à¦² à§ĩà¦¨
Ġæ¸ ħ
Ġà¤ķ à¥įà¤¯à¥ĭà¤Ĥ
ĠÐĶ Ð»Ñı
áĥķáĥĲáĥļ áĥĺáĥ¡
à¤¾à¤ı à¤Ĥ
im er
ĠJ ack
ob e
ĠÐ¿Ð¾ Ñĩ
Ġáĥ¡áĥ¬áĥĿáĥł áĥĶáĥĵ
Ġhist or
Ġéļ ı
ĠM T
à¹Ģà¸ Ķà¸
Ġà¤µà¤¿à¤ §
ĠÎ´Î· Î¼Î¹Î¿ÏħÏģÎ³
Ġp um
ĠB ill
Ġà¦ħà¦Ńà¦¿à¦ ¯à§ĭà¦Ĺ
Ġmp 3
Ġin di
Ġbeg in
Ġãĥ ģ
ĠB lan
ì »
Ġá ģ
Ġt witter
iz ia
il ig
à¤ľ à¤°
el ess
ĠØ¨Ùĩ Ø¯
à¹Ģà¸ Ķà¹ĩà¸
ĠÙħÛĮâĢĮ Ú©ÙĨØ¯
ion en
ĠE c
à¦² à§įà¦²
Ġëĭ¤ ìĸĳ
T r
Ġáĥĳ áĥłáĥ«
ĠV illa
u ent
ĠÎĳ Î³
is as
fa at
ah id
Ġà°ļ à±ĩà°°
Ġà®¤ à®Ł
Ġ×Ľ×Ĳ ×©×¨
Ġdon c
Ġb ukan
Ġper chÃ©
Ġ) -
Ġcer ca
ĠT ime
à¦¿à¦¤ à§įà¦¬
ic ato
Ġåİ »
áĥĲáĥķ áĥĺáĥ¡
f il
Ġë ´
Ġáĥ¡áĥĺáĥ¡áĥ¢ áĥĶáĥĽ
ĠØ³ Ø·ØŃ
Ġ×¢ ×ķ×ĳ
ĠÎ³ ÎµÎ½
Ġta on
Ġs j
Ġh it
æĬ Ĺ
à¤Ń à¤¾à¤µ
Ġth ought
Ġé ¾
à®¾à® ´
Ġp ew
ur er
ĠÙħÙĨ Ø¸
á ģ
ar te
ĠáĥĶ áĥĴ
ĠØ¬Ø¯ Ø§
Ł ģ
à³ į
åĩº ä¼ļ
à¯įà®ķà®³ à¯Ī
ey e
Ġà¤¦ à¤¿à¤µ
à®µ à®¿
×ķ×¨ ×ĺ
Ġdi á»ĩn
à¸Ļà¸ ±à¸ģà¸
Â Ń
Ġch iáº¿n
à§ģà¦ £
ĠØ§ÙĦØª Ø³
Ġvá» ±c
Ġm no
Î¸ Î¿
ŀà¸£ à¹īà¸Ńà¸¡à¸
ãĤ¤ ãĤ¯
à¹ĩà¸ ģà¸
Ġc ena
Ġç ¶
ĠÙĪ Ø¸
ĠØ¨Ø±ÙĨ Ø§ÙħØ¬
Ġprop rio
Ãºmer o
åķı é¡Į
Ġà¦¦ à¦¿à¦ķà§ĩ
ĠZ w
äºĮ æīĭ
à°ªà±įà°ªà°Ł à°¿à°ķ
ÎŁÎ ļ
ĠÑĤ Ð¾Ð³Ð¾
Ġt ua
áĥĽ áĥĲáĥł
ĠØ· Ø±ÙĬÙĤ
Ġd á»ħ
ØªØ± Ø©
Ġãĥ Ŀ
ĠiÃ§ inde
ĠÙĬ Ø¬
ich te
Ġê²½ ê¸°
Ġå¤§åıĳ äºĶ
Ġv Ã¥r
ä¹Ł æĺ¯
ĠÏĢ ÏģÎ¬
à°¾à° ĸ
âĢĮ à°¨
à´ ±
Ġáĥľ áĥĲáĥª
Ġdil akukan
à¸µà¸ ¢
Ð¾Ñģ ÑĥÐ´
ĠØ§ÙĦØ±ÙĬ Ø§Ø¶
u ela
Ġser ver
ĠF it
åı ¬
à¹ĥà¸ ģà¸¥
à¦² à¦¾à¦°
omb res
Ġp ack
ian i
abil irsiniz
Ø¹ ÙĦØ§Ùħ
Î» ÏĮÎ³
Ġà®ķà¯Ĭ à®Łà¯ģà®¤à¯įà®¤
Ġfe ira
Ø§Ùĩ Ø±Ø©
ÏģÎ· ÏĤ
Ġp rav
is yon
Ġà¦¦ à¦¿à¦²
Ġm ys
Ġl ater
eb en
Ħà¸ ´à¸Ķà¸
à´ ¨àµįà´¨
6 00
Ġtal aga
áĥĺáĥ¨áĥķ áĥĺáĥļáĥĺ
à¯ĩà®¯ à¯ĩ
ØªØ¯ Ùī
it ure
Ġà¦¬à¦¿à¦ı à¦¨
ª ½
z el
Ġà¤ľ à¤¾à¤¨à¥ĩ
ĠØ´Ø¨ Ú©Ùĩ
ĠÏĮ ÏĩÎ¹
ag li
Ġy g
ĠØ§ÙĦØ¢ ÙĨ
Ġdirect ory
×ª ×Ŀ
Î¿Ïį Î¼Îµ
Ġza Äį
ĠM ol
ãģªãģĮ ãĤī
N E
Ġáĥĺ áĥķ
Ġde ix
ÅĤ aw
Ġtr iá»ĩu
à¯įà®® à¯Ī
à¦¬ à¦¿à¦¦
Ġà¦¸à¦Ĥ à¦¬à¦¾à¦¦
ĠÏĢ ÎŃ
Ġtro u
Ġg Ã¢y
à°ķ à°¾à°²
Ġh lav
Ġè »
Ġuyg ul
ĠÐ¾Ð½ Ð»Ð°Ð¹Ð½
Ġmill ion
áĥĶáĥĳ áĥĺáĥĵáĥĲáĥľ
ĠY ang
à¹Ĥ à¸Ļà¸
à¥Ģ à¤¯
ĠÙĨÛĮ Ø±ÙĪ
ĠCent ro
Ġ×ĳ×ª ×Ĺ
lÉĻn dir
LC J
æ¸¸æĪı å®ĺç½ĳ
æ¡ ¥
Ġpres ente
æİ¨ èįĲ
Ġver k
ç¿ »
ĠÏĨ Ïī
«à¸¡à¸ ·à¸Ńà¸Ļà¸
Ġí ļ
Ġd Å¯
æľĢ é«ĺ
âĢ¦âĢ¦âĢ¦âĢ¦ âĢ¦âĢ¦âĢ¦âĢ¦
F C
Ġnh áºŃp
ãģŁ ãģ¡
æ³ ī
un ch
ond en
ĠV Äĥn
åı «
ĠØ¨ÙĪ Ø§Ø³
Ġtro v
æĭĽ åķĨ
Ġãĥ ī
Ġà°Ł à±įà°°
Ġk ata
ªà¸ ³
Ġn á»¯a
ĠM iss
Ġë³ µ
Ð¾Ñı Ð½
ĠÏĢ Î»Î±
ĠTH E
Ķà¸ §à¸
Ġgam es
å° ½
Ø§Ùĩ Ø§
×Ļ×Ľ ×ķ×ª
à°¦ à±įà°§
ĠáĥĽ áĥĶáĥ¡
up e
Ġà°ªà±ĭà°² à±Ģà°¸
ĠÏĩ ÏİÏģÎ±
Ġà®ĩ à®©à¯įà®±à¯ģ
Þª Þ
cha ft
ĠØ§ÙĦÙĨ Ø§Ø³
ĠpÅ¯jÄį ka
à¯ģà®¤à¯įà®¤ à¯ģà®µ
Ø§Ùģ Ùĩ
Z X
á» ħn
à¥ģ à¤µ
ĠI C
Ġ199 6
ÑĢ ÐµÐ´
±à¸ Ķ
áĥĺáĥľ áĥĵ
t an
æĺ Į
F L
Ġm iesz
à°Łà±įà°Ł à±ģ
à§įà¦¯ à§ģ
Ĺà¸ĩà¸ ļà¸Ńà¸¥
Ġil l
Ġà¦ķà¦°à§įà¦® à¦ķ
é¼ İ
Ġn Ã©
Ġà°¯ à±Ĭà°ķà±įà°ķ
áº£ y
à¯Ģ à®¤
Ġå¾ ®
Ġà¤¨ à¤¿à¤¯
ĠSh ow
áĥĶáĥĳ áĥłáĥĺáĥķáĥĺ
Ġç ĳ
Ġd ont
Ġch ia
ĠOd p
w _
Ġç¥ŀ å½©äºīéľ¸
ĠÙħ ÙĤØ¯
Ġex tre
Ġà¦¬à¦¿à¦ ¸
ĠØŃ ÙħÙĦ
Ħà¸ ·à¸Ńà¸
Ġà°ļà±Ĩ à°Ĥà°¦
ĠiÅŁtir ak
èĳ ¡
à®µ à®©à¯į
Ġà¦® à¦¤
Ġ×Ķ×ŀ× Ĳ
Ġv iáº¿t
ãģĵãģ¨ ãģ¯
Ã¡ Å¾
Ġà°¦à±įà°µ à°¾à°°à°¾
å¾® ä¿¡
ict ion
Ġ.. !
Ġje Å¡tÄĽ
è¿Ľ åħ¥
áĥĶ áĥĶáĥĳáĥĺ
av ir
Ġhe el
Ġf ur
Ġh Ã¼
ÅĽ nie
= >
ĠÚ¯ÙĪØ´ ÛĮ
èĪ ĩ
Ġ( $(
Ø¯ Ø§Ø¯
Ø¨ ÙĬØ©
ĠØ§ Ú©
Ġk Ä±s
Ġáĥ¡ áĥĶáĥ¥áĥ¢
Ġà¦¤ à¦¾à¦ķà§ĩ
Ġáĥ¡áĥĲáĥĳ áĥŃ
Ġwy m
Ġst o
Ġr us
èĪ ¹
áĥĿáĥ ®
Ġì ·¨
Ġà¤ī à¤®
Ġà¦ļ à¦¾à¦°
áĥł áĥĿáĥķ
Ġì »¤
Ġà¸ª à¹Īà¸§
ĠØ³Ø§Ø² ÛĮ
ãģĺ ãĤĥ
ªà¸ ļà¸
ĠØ§Ø± Ø³Ø§ÙĦ
à¹Īà¸²à¸ ªà¸¸à¸Ķ
ĠL ou
ĠE R
Ġà¦ħ à¦Ĥà¦¶
ĠÙĬ Ø¬Ø¨
Ġ×Ĳ×ĳ ×Ļ×ĳ
ãĥ³ãĤ ¸
Ġà¦¦ à¦¾à¦¬
Ġdetail s
Ġà®ĩ à®³
Ġpla ats
ê±° ëĤĺ
ãĤ ©
Ġà¦¹ à¦²à§ĩ
éł Ń
áĥ£áĥľ áĥ¥
ŀà¸ ±à¸ģ
Ġk urs
çĶ³ è¯·
Ġãĥ Ļ
ĠáĥĶáĥłáĥĿáĥķáĥľ áĥ£áĥļáĥĺ
Ġqiy mÉĻt
Ġ10 4
Ġà¤¦à¤¿à¤² à¥įà¤²à¥Ģ
ĠØªÙĪØ³ Ø¹Ùĩ
æı Ľ
Ġb ug
r Ã³d
Ġáĥ® áĥ¨áĥĺáĥł
ãĤ· ãĥ£
ing ton
ĠáĥĽáĥĺáĥĽ áĥĵáĥĺáĥľ
ĠáĥłáĥĿáĥĽ áĥļáĥĺáĥ¡
Ġà¦Ĩ à§Ł
ĠØº Ø°
ÙĨ Ø´
Ġe erste
âĢľ ãĢĳãĢĲ
áĥĺáĥ¡ áĥĽ
ind eki
æĽ´ å¤ļ
qt is
ot te
ĠvÃŃ ce
ÐµÐ½ Ð½ÑĭÐµ
ĠìĦ¸ ê³Ħ
ĠS ign
å¦ ĩ
ä¸» ä¹ī
ĠN acional
Ġ×Ľ ×ĳ
Ġcour se
Ġ" ØĮ
Ġpre vent
Ġcuk up
Ġcre ate
ĠN áº¿u
Ġáĥŀ áĥĲáĥłáĥļáĥĲáĥĽáĥĶáĥľáĥ¢
Ġc ultur
à®¿à® ¨
è¿Ļ äºĽ
h in
EC T
Ġà°ħ à°¦à°¿
Ġs Ä©
ĠEst ado
åī ²
Ĺà¸ ¢à¸
Ġtrans fer
Ġmot iv
éĻ Ħ
ĠëĺĲ ëĬĶ
ĠÑĤ Ñĭ
Ġå® ļ
Ġà¦Ĺ à¦£
ë¡ Ģ
P A
ĠÙĨØ³ Ø®
Ġà¤® à¥Ģ
Ġà¸ Ķ
Ġdi á»ħn
ĠM á»Ļt
ĠÙģ Ø§ÛĮÙĦ
Ġ" "
ĠÏĢ Î¯
éĬ Ģ
Ã Ļ
Ġp ÅĤ
à°Łà±įà°Ł à°¿
ent ion
Ġcount ry
à®¤ à®¾à®²à¯į
Øº Ø§Ø²
ĠØªØµ Ùħ
çģ µ
ĠE V
à±ģà°¤ à±ĭ
à§Ģ à¦¤à§ĩ
à¤¾à¤ĩ à¤¨
Î´ ÏģÎ¿
Ġí Ĵ
ĠØªØ¬ Ø±Ø¨
Ġ×ŀ ×Ļ×ĵ
Ġstr ing
á½ ¶
P ro
Ġo vers
Ġg dy
ĠFore x
ĠåŁ º
Õ¡Õ ¤
áĥ¨ áĥłáĥĿáĥĽ
ĠØ¢ ÙĤ
ĠV ar
ç į
ÐµÐ½ Ð¸ÐµÐ¼
ĠáĥĽáĥĵáĥĴáĥĿáĥĽ áĥĲáĥłáĥĶáĥĿáĥĳ
Ġà®¨ à®¾à®®à¯į
Ġk Ã½
çĽ´ æİ¥
iv ing
ĠÐĲ Ð»
Øª ÙĪÙĨ
B R
ĠÙģ ÙĪÙĤ
ĠÐ¿ÐµÑĢ ÐµÐ´
Ġr ÉĻh
Ġr ub
è´£ ä»»
Ġ×Ĳ×ł ×Ĺ×ł×ķ
ĠÄĳ Æ°a
Ġi bang
el de
Ġà®¤ à®¿à®Łà¯įà®Ł
Ġà¤¨à¤¿ à¤°à¥įà¤®
Ġ10 9
ëĲĺ ìĸ´
×ķ×© ×Ĳ
ĠÙħØ· Ø§ÙĦ
áĥĲáĥĻáĥ£áĥĹ áĥł
x alq
AT A
Ġà¦¦ à¦¿à¦¤à§ĩ
ĠåĲ ī
ĠØ¨Ø§ÙĦ Ø§
à´ ª
ĠæĿ¥ æºĲ
Ġà®ī à®Ļà¯įà®ķà®³à¯į
Ġresp ect
ĠJ ika
à¤¸ à¥įà¤ķ
ĠÃ§ ek
ĠP il
ĠF u
Ġà¦ªà§įà¦°à¦§à¦¾à¦¨ à¦®
ĠR ic
Ð¾ Ñħ
ĠØ§ÙĦØ¨ ØŃ
ĠPr ess
ä» į
áĥĲáĥª áĥĺáĥĿ
à¹ģà¸ ªà¸Ķà¸
a ari
Ġotr os
à¹Ģ à¸Ńà¸
à®Ļà¯įà®ķ à¯ĩ
Ä±nd aki
ìķ¼ ê¸°
ĠÑĥÑĩ Ð°ÑģÑĤ
Ć ãĢĤ
ĠJ ahr
åº Ĭ
ìĸ´ë Ĥ
çļĦ ãģ«
à°² à°¿
Õ¶ Õ¥ÖĢÕ¨
oll ow
laÅŁ dÄ±r
à¤¾à¤¤ à¥Ģà¤²
ĠT il
ĠÐľÐ¾ÑģÐº Ð²
íķĺ ë©´
à°ķ à°Ĥ
ØŁ ØŁ
Ġ5 åĪĨå¿«3
Ġjej ich
Ġmen ing
Ä© nh
áĥķ áĥĶáĥĹ
Ġëħ ¼
ĠÐ¼ Ð¾Ð´
åį ±
Ġ7 50
ìĿ´ ì§Ģ
et z
row ser
h us
ak ar
ĠØ¨Ø§Ø¹ Ø«
Ġcons egu
èģĶ ç½ĳ
Ġà¦¶ à¦¤
ĠÙĦ Ø¯
±à¸ ĩà¹Ģà¸
ne a
ĠÙħÙĨ Ùĩ
Ġj eszcze
Ġapplic ation
ĠØª ÙĪØ±
d iy
Ġà®® à¯ģà®ķà¯įà®ķ
áĥĶáĥł áĥĲáĥ¢
ĠáĥŀáĥłáĥĿáĥª áĥĶáĥ¡
Ġà¤īà¤¨à¥įà¤¹ à¥ĩà¤Ĥ
ĠØªØ± Ú©ÛĮ
áĥł áĥĲáĥļ
Ġ×¢ ×ĳ×ķ×ĵ×Ķ
ĠmÅ¯ Å¾
ĠáĥĵáĥĲáĥ ¤
Ġt Æ°á»£ng
s ul
Ġà¤® à¥ĩà¤°
Ġc res
ĠU k
éĽ ¶
ĠSp a
ac es
ĠL ie
Ġm Ã¸
ur al
ib at
ĠMus ic
or ni
im as
ãģª ãģĭãģ£ãģŁ
ĠÄĳ á»§
ÙĪ Ø«
ķ à¹īà¸Ļ
Ġw en
Ġkat awan
à¸£à¸±à¸ Ĳà¸
Ø· ÙĦØ¨
k ek
Ġà°ĩ à°ķ
F or
×ª ×ķ
ĠÑģÑĤ Ð¾
Ġh en
Ġbar n
ug o
Ġà®® à®¾à®¨
ÏĢ ÏĦÏħ
æĹ §
Ġà¦®à¦¾à¦§à§įà¦¯à¦® à§ĩ
Ġl ung
ëĮĢ ë¡ľ
ĠÃ¶nem li
ĠAn a
ãĥ³ãĥ Ģ
áĥĺáĥľ áĥĵáĥĲ
Ġáĥĺ áĥĲáĥľ
ĠRob ert
áĥ£áĥļáĥĺ áĥĲ
Ġb Ã¥de
æĮ ¯
à®¿à®° à®¿à®¯
Ġà¤ªà¥įà¤°à¤¦ à¥ĩà¤¶
Ġvá» ĩ
ĠÎ¿Î¹ÎºÎ¿ Î½Î¿Î¼
ê¸ ¸
æ ¾
Ġk iáº¿n
ë¥´ ëĬĶ
Ġo Ã¹
æ¼ı æ´ŀ
Ġà¤¨ à¤¿à¤µ
Ġcos Ã¬
Ġçģ «
Ġbag ian
n os
ĠÙĪ Ø°ÙĦÙĥ
Ġà¤µà¤¿à¤¶ à¥įà¤µ
Ùĩ Ø§Ø±
ĠáĥĴáĥĲáĥĽ áĥĿáĥĽ
M C
Ġà¤ķ à¤Ĥà¤ª
ĠÐº Ð°ÑĢÑĤ
ĠpÅĻ ip
ĠM eh
à¸£à¸¹à¸ Ľ
à¬ ¾
Ø® Ø´
Ġm ess
ĠMich ael
ĠBer lin
áĥĲáĥªáĥĺ áĥĲáĥ¡
ut es
æĪĲ åĬŁ
Ġnghiá»ĩ m
ĠÐ±ÐµÑģ Ð¿Ð»Ð°ÑĤ
Ġda w
ÙĪ Ù¾
ĠáĥĲáĥł áĥĲáĥ¤
à±Ģ à°®
ÙĤ ÙĪÙĦ
Ġà®¨ à®®à¯įà®ª
Ġ×¤ ×ľ
Ġæĸ ¹
Ġáĥ¡áĥĲáĥ£áĥ ĳ
ĠÐ¾Ñģ Ð½Ð¾Ð²
ĠÉĻm ÉĻk
ĠÐŃ ÑĤÐ¾
«à¸Ļà¸ ¶à¹Īà¸ĩà¸
Ġsp os
Ġà°® à°¾
åŁº ç¡Ģ
1 000
í į¼
ģà¹Ī à¸Ńà¸Ļ
Ġà°Ĺà±ģà°° à±įà°¤
Ġro k
Ġcom fort
à° İ
Ġà°İ à°ķà±įà°ķà±ģà°µ
Ġpin akam
Ð½Ð¸Ðº Ð°
Ġset iap
ĠE duc
ä½ľ ä¸º
à°¸ à±įà°¯
s che
Ġà¦ľ à§ĩà¦²à¦¾
ĠJak arta
à°¾à°ķ à±į
m ur
Ø§Ø¦ ÙĤ
Ð°Ð» Ð¾Ð³
à®©à¯įà®© à¯Ī
Ġpr int
Ġ7 77
Ð¾Ð» Ñı
as es
Ġç² ¾
å£ ģ
ģà¸²à¸ ¨
ĠØª Ø¨Ø¯
Ġfo is
led i
Ġ00 Z
ac to
Ġprofess ional
Ġà°ħ à°°
ĠmÉĻ kt
Ġconta iner
Ġapp ro
ik er
ĠÄĳá» ©
ĠD iy
à¯ĭ à®Ł
Ø· ÙĤØ©
Ġáĥ¡ áĥĿáĥªáĥĺ
Ġà¦¬ à¦°
Ġ19 0
Ġà¦ķ à§ĩà¦
Ġt iÃªn
Î¶ ÏĮ
i amo
Ġpre c
à¹Ī à¸Ńà¸¢
à§ĥ à¦·à§įà¦Ł
×Ļ×ĺ ×Ķ
Ġmel alui
M AN
ĠØ® Ø±Ø¯
áĥĿáĥł áĥĺáĥĲ
y or
Ġess a
Ġæ¹ ĸ
ĠSec ret
ĠØ¯ ÙĨÛĮ
Ġng uyÃªn
ĠF o
Ġà¦¬ à¦¾à¦¬
ĠãĤ °
iz en
ĠÃ§ a
Ġà¦¸ à§ĩà¦Ł
Ġà°ªà±įà°° à°®
Ġ à¸£à¸²à¸Ħà¸²
áł ¡
Ġãĥ Ĩ
ĠÙĥ ÙĨ
Ġ×ľ×Ķ ×©
Ġr adi
ĠÙ¾ Úĺ
ĠÎĶ Î¹
ĠE ver
ĠCh amp
Ġin ner
Ġ199 5
ç± į
ĠÐ² Ð¾Ð¿ÑĢÐ¾Ñģ
Ġbe au
à¦¸à§įà¦¥ à¦¾
ĠØ¬Ø¯ ÙĬØ¯Ø©
Ġer g
åŃĹ å¹ķ
áĥĲáĥķ áĥĲáĥļáĥĺ
Ġzo als
Ġr ate
Ġcont rat
ĠM ujeres
land Ä±r
ãĥ¡ ãĥ³ãĥĪ
ut to
ul le
ag awa
Ġhas il
ĠÐ½Ð° ÑģÑĤ
Ġh elt
Äį as
ĠÐ»Ñİ Ð´
ol it
Ġdav am
æ® ĭ
Ġag äºļ
åħ¨ éĥ¨
ied en
Ġw eg
ĠJ apan
ak ter
éĿ Ļ
Ġr ing
Û ¸
Ġà¦ªà¦¾à¦° à§ĩà¦¨
Ġj ual
ĠC AR
ą Ćą
ĠÙħÙĪØ¬ ÙĪØ¯
ĠØ§ÙĦØ® Ø·
ĠØ±Ø§ÛĮ Ú¯Ø§ÙĨ
Ġ×Ķ×¨ ×ĳ×Ķ
ĠÑģ Ð¾ÑģÑĤÐ°Ð²
Ġt ÃŃm
ĠFr om
Ġà¸ ¡à¸²
ĠÑģÐ¿ Ðµ
ĠÐ° Ð´
ļà¸£à¸´à¸ ģà¸²à¸£
Ġå Īĺ
å¥³ æĢ§
yt u
iniz i
Ġ×Ľ×Ĳ ×Ł
Ġmu cho
ìĿ į
éĩį åºĨ
it ung
Ġåº Ķ
Ġ×Ĳ×Ĺ ×ª
Ġh ide
Ġg eme
Ġì ¡
×¡ ×Ļ×Ŀ
Ġmar s
Ġk iá»ĩn
Ġfor n
ĠDet al
Ä±lÄ± k
ĠØ§ÙĦÙħ Ø®
Ġlá» £i
à°ķ à±ģà°Ĥà°¡à°¾
Ġbuh ay
ĠáĥĴáĥĲáĥĽ áĥĿáĥ¡
ĠØ´Ùĩ Ø±ÛĮ
ĠØ³ Ø¹
Ġb ast
Ġà°ĩ à°ªà±įà°ªà±ģà°¡à±ģ
Ġl Ã²ng
Ġall ow
Îº Î·ÏĤ
iyy at
Ġà®ķ à¯ģà®°
b ev
ĠØ§ÙĦØ¹Ø§Ùħ Ø©
Ġro t
ĠS av
çĸ «
Ġà¦ķ à§Ģ
ä¼ ´
àµįà´ ª
×ľ ×Ŀ
Ġph im
Ġd ove
Ġ10 2
Ġrel ig
Ġag en
ç¬ Ķ
Ġo y
ÄĽ nÃŃ
ĠH ard
ĠCon f
å¡ Ķ
à¤§ à¥Ģ
ĠAGçİ¯äºļ éĽĨåĽ¢
Ġä»ĸ ä»¬
y j
Ķà¸²à¸ §
Ġáĥŀ áĥĶáĥłáĥĺáĥĿ
ä¹ İ
n in
ĠC E
à¤¾à¤ª à¥įà¤¤
Ø§Ùģ ÛĮ
ik at
Ġnu ovo
icht ig
on as
æ¶Ī è´¹
Ġvers ion
ill age
Ø¨ ÙĬØ±Ø©
Ġèµ Į
Ġtemp or
Ġm udah
ĠL td
Ð½ ÐµÐµ
K S
Ġá Ĭ
ĠÃ© gal
Ø§Ø® ØªÙĩ
Ġà¦ıà¦ķ à¦ľà¦¨
à¤° à¥ĭ
Ùĩ Ø§ÙĬ
åĵ Ī
ÙĪØ¹ Ø©
Ġë¸ Į
Ġu ur
áĥķ áĥĲáĥłáĥĺ
Ġbiz im
à¤¶ à¥įà¤¯
Ġv ier
Ġol sun
à¤¾à¤ ¢
Ġè¯ ·
è© ķ
ĠØ£ ÙģØ¶ÙĦ
te ch
l ÉĻy
Ġãģ Ķ
ĠÐº Ð¾Ð³Ð´Ð°
à¸£à¸²à¸ ¢
ĠÐ¸Ð½ ÑĦÐ¾ÑĢÐ¼
Ġdok ument
ç¬¬ äºĮ
j ell
è®¤ ä¸º
ĠáĥĹáĥĲáĥķáĥĺáĥ¡ áĥĺ
ĠÐ±Ñĭ Ð»
Ġs uk
Ġr ett
ÉĻl xalq
Ġr encont
Ġw 66
Ġmic ro
Ġinter pr
Â ¾
ç´ į
ĠáĥĴáĥĲáĥľáĥ¡ áĥĲáĥĻáĥ£áĥĹáĥł
Ġà¦¸à¦®à§įà¦ª à¦°à§įà¦ķ
Ġ×¦×¨ ×Ļ×ļ
war z
Ġass im
ĠG ol
Ġà®¤à¯Ĩà®°à®¿à®µ à®¿à®¤à¯įà®¤
Ġ×¨ ×Ĵ
Ġà¤ľ à¤®
ĠØ¬ ÙĦØ³
à§Ĥ à¦°à§įà¦£
Ġà¤¦ à¥Ĥà¤¸
Ġn ome
çĶµ è§Ĩ
ä¼ Ł
lÉĻÅŁ dir
Ġà¤ķ à¤ª
×Ļ×Ĳ ×ľ
s in
aw y
Ľ áĢ
Ġà®µ à®ļ
ĠÙĨÙħÛĮ âĢĮ
ĠØ§ÙĦØ¯ Ø±
à« į
Ġd nia
ÉĻt in
Ġáĥ¬áĥĲáĥłáĥĽáĥĿáĥĽ áĥĲáĥĵáĥĴáĥĶáĥľ
Ġà¦¤à¦¾à¦ģ à¦°
Ġä¸ ĵ
ĠÙģ ÙĤØ¯
ĠÕ¡Õ ¼
ĠÐ´ ÐµÐ¹ÑģÑĤÐ²
åĪ¶ åº¦
Ø§ÙĦ Ø¹
Ġt Ãªn
reb be
I H
Ġpr on
Ġb á»ı
åľ¨çº¿ æĴŃæĶ¾
ä¸Ģ å®ļ
ĠëĪ Ħ
ÏĢ ÏĦ
äº¿ åħĥ
ãģ¨ ãĤĤ
Ġs qu
Ġc lar
Ġbel ang
Ġ à¸£à¸²à¸Ħà¸²à¸
iy asÄ±
ä¿Ŀ æĬ¤
em Ã¡s
ĠÙĥ Ø¨ÙĬØ±
Ġmerc ado
ĠN ik
ĠB ab
æ¦ ľ
à¦¾à§Ł à§Ģ
ĠëĦ Ī
Ġaut re
Ġà¦ī à¦¨à§įà¦¨
ĠìĹ¬ íĸī
ĠáĥĴ áĥ£áĥļ
Ġà¤¦ à¥Įà¤°
ĠÎ² ÏģÎ¯
ĠÃ§ ocuk
à¹ģà¸£à¸ ĩà¸
Ġà¤¸ à¥ĩà¤µ
Ġ×Ĺ ×ľ
Ġà°ķ à°¾à°Ĥà°Ĺ
ĠNh á»¯ng
åĵª éĩĮ
Ġs ource
ç´ ¹
Î» Î¹Îº
ª à¸Ńà¸ļà¸
ick Ã¡
ĠÏĥ Î®Î¼ÎµÏģÎ±
æĺ¾ ç¤º
ãĥ¥ ãĥ¼
Ø³Ø¨ Ø©
ĥ à®ª
Ġindivid ual
Û ´
Ġà°ªà±įà°° à°§
ĠØ§ÙĦØµ Ùģ
aj Äħc
à¯ĭ à®©
be eld
S L
Ġ×ķ ×ŀ
Ġst ock
ÙĦÙĬ ÙĤ
Ø±ÛĮ Ùħ
Ġhand lers
Äį i
ĠáĥĽ áĥĶáĥĵ
ãģ¾ ãĤĬ
Ð° Ñİ
aj es
ĠáĥĲáĥ®áĥĲáĥļ áĥĴ
áĥĲáĥĹ áĥĺ
ĠØ® ÙĪØ´
ĠØ§ÙĦ ÙĦÙĬ
×Ļ×ŀ ×ķ×©
ĠÅ ģ
×Ļ ×Ļ×Ķ
Ġpar am
Ġb od
· à¸Ļ
Ġà®ªà¯ĭ à®ķ
Ġà¦¸ à¦¾à¦Ĥ
Ġa ku
Ġ à¹ĥà¸«à¹īà¸
Ġpr ij
Ġho a
ëĬ ĺ
ÄĻ Å¼
Ġà¤ľ à¤Ĺ
áĥĶáĥĳáĥĺ áĥĲ
Ġà°µ à°¾à°°à±ģ
Ġà¤īà¤¤à¥įà¤¤ à¤°
ķà¸ ģà¸
Ġáĥ¥áĥķáĥĶáĥ§ áĥľáĥĺáĥ¡
is l
iv amente
Ġæ³ ¨
Ġ×©×ľ ×ł×ķ
Ġt elef
Ġn ight
Ø§Ø¯ Ø«
ĠíĻ į
ĠáĥĹáĥĲáĥĽ áĥĲáĥ¨
æ° ı
Ġby ÅĤ
Ġempres as
æĬ ĺ
±à¸ĩà¸ ģà¸¤à¸
Ġr Ã³Å¼
ë³´ ëĭ¤
ÙĦ Ø¹
³ ´
ĠÙĦ Ø§Ø²Ùħ
ĠáĥŀáĥłáĥĿáĥĳáĥļ áĥĶáĥĽ
Ãª ng
ĠÑįÑĤ Ð¾Ð³Ð¾
à¤Ń à¤¾
Ġà¦ķ à§ĩ
Ġwork ing
Ø§Ùĩ ÛĮ
ĠáĥĳáĥĶáĥķ áĥłáĥĺ
Ġf iyat
Ġalle en
ĠL av
çĨ Ł
Y A
Ġà¦® à¦¿à¦²
æ ¦Ĥ
ĠéĿ ŀ
ãģĦ ãģĨ
Ġë ŀ
ĠØ§ÙĦØ¯ÙĪÙĦ Ø©
ĠÎ¼ ÏĢ
å¯¼ èĪª
ĠÚ©Ùħ ÛĮ
áĥķ áĥĺ
Ġà®ķ à¯Ĩ
Ġë² Ħ
Ġà¦² à§Ģà¦Ĺ
Ġs ayÄ±
Ġcl os
Ġfinan ci
ĠS Ã¼
Ø§Øª Ø¨
ĠØ§ÙĦÙĪÙĤ Øª
ĠØ£ Øº
ÙĲ ÙĦ
Ð¼ Ñĥ
Îķ Î¤
ĠØ¨ÙĪØ§Ø³ Ø·Ø©
Ġr ab
un st
Ġà°ļ à°¿à°¨à±įà°¨
ĠÃº Äį
àµ Ģ
à¥ Ŀ
Ġëı Į
ĠÚ¯ Ø±
Ġses u
ĠPro te
ì Łģ
ĠÙĦÙĪ Ø§Ø²Ùħ
z iel
\\\\ \\\\
h ang
Ø± Ø±
un os
Ġà¤ª à¤¦
ĠÙĤ Øµ
åħįè´¹ è§Ĥçľĭ
ĠÙĪØ§ÙĦ Ø¯
Ġfam ili
Ð¾Ð²Ð°Ð½ Ð¸Ðµ
å¸Į æľĽ
ÙĪ ØŃ
ÙĦ Ø§ÛĮÙĨ
35 6
Ġper lu
æ¶ ¨
ĠW ater
ĠMa ar
ĠáĥĲáĥł áĥĲáĥĽ
×Ļ×¨ ×ķ×¢
Ġda i
ĠR ock
åĪĨ å¿«ä¹Ĳ
Ġgen iÅŁ
ĠC er
ìķĺ ëĭ¤
à¥Ģ à¤¸
Ø¹ ÙĬØ©
à¤¿à¤Ĥ à¤¦
Ġà°° à±Ĥ
íĿ ¬
Ġest Ã£o
Äį it
«à¸¥à¸²à¸ ¢
Ġáĥĺ áĥł
ĠØ±Ø³ ÛĮØ¯
ĠÎ² Î¿
çİ° åľ¨
×ł×Ļ ×ķ×ª
à«į àª
g s
ĠØ§ÙĦØª ÙĤ
Ġáĥ¥ áĥ£áĥ©
ĠÚ¯Ø±Ùģ Øª
ÚĨ Ø³Ø¨
æľĢ å¤§
ia h
em on
ĠØ§ÙĦÙĤ Ø¯
Ġwszyst k
ĠØŃØ¯ ÙĪØ¯
æ¬¢ ä¹Ĳ
Ġest Ã¡n
ĠìĹ ´
à¹Ī à¸Ńà¸ĩ
um lah
áĥĺáĥķ áĥĶáĥłáĥ¡
à¯ģà®¤ à¯ģ
ĠáĥĽ áĥĶáĥĹ
ĠáĥĲáĥĽ áĥĶáĥł
Ġ11 8
à¤°à¥įà¤ ¡
u age
ĠØ§Ø¨ ÙĨ
ĠV it
Ġà°ļ à°¦
Ïĩ Ïī
m ing
ĠÐº Ð°Ð¶Ð´
ĠS B
r Ãł
oc e
ĠØ§ÙĦØ¹ ÙĦÙħ
ia is
ĠBel ed
èī¯ ãģĦ
ĠÐ¿ÑĢ Ð¾Ð±
ĠáĥĻáĥĲáĥłáĥĴ áĥĺ
Ġà°¬ à°¯
Ġwe iter
Ġà°µà±Ĩ à°³à±įà°²
Ġà®¨ à®¾à®³
Ġà¦¤à¦¥ à§įà¦¯
ĠÃ ĳ
æ¢ °
ĠãĢĳãĢĲ ï¼ļ
èīº æľ¯
à¹ģà¸ ģà¸£à¸
éģĹ æ¼ı
ÐµÑģÑĤÐ² Ð¾
Ġs ino
à¦¿à¦¸ à§įà¦¤
Ġpod ob
Ġle ad
Ġdec is
à§ĩà¦® à¦¨
à¹Ī à¸Ńà¸ĩà¸
ĠS ony
ist ik
ĠProf ess
ĠF C
od er
ĠNEWPart 9
b ur
çĥ Ī
Ġà° Ĭ
ĠØ¬ÙĨ ÙĪØ¨
Ġcateg ory
å¨±ä¹Ĳ åŁİ
Ġg usto
ĠDan iel
Ġbe w
Ġ11 2
à®¿à®ķ à®³à¯Ī
ĠF otos
Ħ à¹Īà¸²
ĠÛ ¸
Ġag osto
à¹īà¸ ³
Ġm ondo
Ġg raf
×¦ ×Ļ×Ķ
áĥļ áĥĶ
Ġê²ĥ ìĿĦ
ĠÙ¾ÛĮ Ø§Ùħ
ĠØ¨Ø§Ø´ ÙĨØ¯
Ġdi per
ÙĪÛĮ Øª
Ġà¤Ĩ à¤¤
ĠÎºÎ±Î» ÏįÏĦÎµ
Ã¼ h
eg i
Ġc á»Ńa
æĸ¹ æ¡Ī
Ġà®ļà¯Ĩ à®©à¯įà®±
Õ¾ Õ¡Õ®
em ek
aw at
ÏĢÎ¿Î¹ Î®
ŀà¸ ¢à¸²à¸
è¼ ĥ
Ġà®ªà®¯ à®©à¯įà®ª
Ã´ t
Ġà®ļ à®¾à®¤
Ġsar Ãł
¡ áĢ
æļ ´
ang s
Ġt api
Ú¯ ÙĪÙĨÙĩ
ĠÙħØ§Ø´ ÛĮÙĨ
Ġgel en
ĠwiÄĻ cej
ĠÙ¾ ÙĨØ¬
ĠÐ· Ð°ÑĢ
Ġkh iáº¿n
ĠF ilip
à¤¿à¤ ļ
Ġà¸ ¡à¸²à¸
Ġà¦¬à§įà¦¯ à¦ķà§įà¦¤
ìķ ħ
è± ª
à¶ ½
m aktadÄ±r
ĠP ul
Ä± lar
Ġtá»« ng
Ġat ing
èĥ½ å¤Ł
áĥ¬ áĥĺáĥľ
Ġic on
à®¿à® Ļà¯įà®ķ
W h
ĠØ¢ Ø´
à±ĭ à°²
ĠU TC
ĠT uy
Ġg Ã©nÃ©
à°¿à°¸ à±įà°¥
à¤¿à¤¯ à¥ĭ
Ñĥ ÑģÐº
v y
ĠÑħ Ð¾ÑĢÐ¾ÑĪ
om in
ļ à¸£
Ġs ana
Ġre ci
Ġkun ne
ĠF ab
ìķł ìĿ¸
over no
ĠgÃ¼z el
ka ch
Ġà°¬ à°¾à°²
Ġà®° à®¾à®ľ
ĠØ¹ Ø¯
Ġch em
ĠØ®Ø§ÙĨ ÙĪ
ĠTr ab
à§ĩà¦¤ à§įà¦°
// //
Ġlaz Ä±m
eb y
Ġfig ure
æĽ´ æĸ°
ĠÏĢ Î±Î½
uc u
get to
Ġstud y
uj Äħc
ĠÄĳ a
ĠIs ra
à§ĭà¦°à§įà¦ Ł
ĠáĥłáĥĲáĥ¢ áĥĿáĥĽ
Ġà°® à°Ĥà°¦à°¿
Ġà¤ħà¤¨ à¥įà¤¯
l ayan
ÙĦÙĬ Ø§Øª
Ġáĥł áĥĲáĥĺ
èĭ ¥
ãģ£ãģ¦ ãĤĤ
à¥ģ à¤Ł
Ùİ ÙĪ
ud d
ica Ã§Ã£o
ľà¸ ¡à¸
Ġenvir on
Ø±ÙĬ Ùģ
Ġä¸ĸ çķĮ
Ġà¦Ĩ à¦¬à¦¾à¦°
ĠÄĳ Äĥng
ĠL ine
Ïĥ Îº
Ġà¸ Īà¸²à¸ģà¸
ĠKh Ã´ng
Ð¾Ñģ Ð¿
Â ¢
ah on
Ķà¸µà¸¢à¸ §à¸
áĥ® áĥĶáĥļ
ĠØ§ÙĦØ« ÙĦØ§Ø«
qu ier
ĠSh are
Ġ ia
à°¾à°¯ à°ķ
ÃŃ p
Ġpro j
è®¡åĪĴ _
r ast
Ġdi ÄŁer
ä¸Ģ çº§
Ġà¦¸ à§Ĥ
áĥĺáĥłáĥĵ áĥĶáĥĳáĥĲ
ĠØª ÙĦÙģ
·à¹Ī à¸Ļà¸
v et
ĠP ang
Ðº Ð¾Ð¼
Ðµ ÑģÑı
ob et
ĠÙħØŃØµÙĪÙĦ Ø§Øª
à¦¾à¦¡ à¦¼
m ÉĻd
à±Ģà°ª à±Ģ
lan an
ĠÎŃ Î½
æ¨¡ å¼ı
ĠØµÙĨ Ø¹
ĠØ±ÙĪ ØŃ
ĠÐ¼Ð°Ð³ Ð°Ð·
Ġcon ven
à¤ķà¥įà¤ ķ
ÙĬØ± ÙĬ
ĠÏĢÎ± ÏģÎ¿Ïħ
Ġdo ch
áĥĶáĥ ¯
Î³Î³ ÎµÎ»
Ġà¦¹à§ĭà¦¸ à§ĩà¦¨
è ľ
Ð½ Ð¸Ð¼
g ot
ĠÐ» ÑĥÑĩÑĪ
Ġmil li
ĠF ire
Ġà¤® à¤¤
ÑĢÐ° Ñī
is z
Ġà®ļ à®¾à®°
iz ioni
Ġà°ķà°¾à°Ĥà°Ĺ à±įà°°à±Ĩ
à¤¾à¤¤ à¥ĩ
Ġà®¨ à®¾à®Łà¯įà®Ł
Ġin sc
ãĤģ ãĤĭ
ab ol
ĠÎł ÏģÏĮ
cy j
Ġf ield
ĠN orm
ĠAN D
¬ ¼
Ġëĵ¤ ìĸ´
à§ĩà¦ĸ à¦¾à¦¨à§ĩ
Ġä¼ Ĭ
ĠÎ¤ Î¹
Ġnam in
Ġ199 2
ãģª ãģ®ãģ§
éľ ĩ
ä¸ļ åĬ¡
N H
Ġ13 5
Ġà¦ħ à¦«
Ġà¦¬à¦¿à¦° à§ģà¦¦à§įà¦§à§ĩ
Ġu003 e
n der
Ġt av
Ġor ient
å·ŀ å¸Ĥ
à°ªà±įà°ª à±ģà°¡
ĠÙĩ ÙģØªÙĩ
Ġfant ast
ĠL ar
ãĥ³ãĤ ·
à§ Ń
ĠÛ° Û°Û°
äºº ãģ®
Î¼Î² ÏģÎ¯Î¿Ïħ
ĠØ§Øª ÙģØ§ÙĤ
Ġand eren
ĠC zy
ĠìŀĪ ìĸ´
Ġì ĻĢ
Ġph ong
Ġtr an
ĠPra ha
ĠÏħ ÏĢÎµ
Ġca us
ª à¸²à¸£à¸
Ġk de
Ġ11 1
ãģ§ ãģ®
ro j
Ġel a
ĠF un
äº ¡
u ff
ah al
Ġà¦¬à¦¿à¦Ń à¦¾à¦Ĺ
ĠÎ³Î¹Î± ÏĦÎ¯
Ù ł
ĠÙĦÙĦ ØŃ
ĠØ§ÙĤØªØµ Ø§Ø¯ÛĮ
à¸Ńà¸²à¸« à¸²à¸£à¸
ĠìĿ µ
Ġk ut
en h
åĪĨ é£ŀèīĩ
Å ł
Ġv n
Ġpr imo
Ø§Ùĩ Ø±
×ķ×¡ ×£
ĠÐ´ Ð¾Ðº
à±ģà° Ń
Ġà¤¹ à¤¾à¤²
Ġ×ĳ ×ŀ×Ķ
ĠB Ã¶l
Ġáĥŀáĥł áĥĿáĥĵáĥ£áĥ¥
Ã¼n Ã¼n
Ġà§§à§ §
Ġë¶ ģ
Î¹ ÏİÎ½
Ġk li
im enti
Ġ×Ĳ×Ĺ×¨ ×Ļ
ĠgÃ¼ ven
à®¿à®°à¯ģà®ķà¯įà®ķ à¯ģà®®à¯į
Ú© Ø§Ø±ÛĮ
éĮ ²
ĠáĥĽáĥĶáĥĴ áĥĿáĥĳ
ĠØ¨ Ø§Ø¨
ĠØ§ÙĦØ¥ Ùħ
Ġ×ł ×Ĵ×ĵ
ĠC ard
à´ ķ
Ïģ Î¿ÏħÏĤ
¨à¸²à¸ ªà¸
akt Ä±r
F l
Ġåħ ¥
ĠÐ½ ÐµÑĤ
ÏĨ Î¬Î»
à¸£à¸¹ à¹ī
· à¸Ļà¸
eri or
Ġà¹ģà¸ ¡
ĠÐ²Ð¸Ð´ Ðµ
Ġdu a
à¦¹ à¦£
Ġcr Ã©
¢ à¸µà¹Īà¸
ĠÎ±Ïħ ÏĦÎ¬
å² ¸
à¤¾à¤ķ à¤°
Ø¬ ÛĮ
çĭ ł
ÄĽ st
Ġà°¸à°Ĥà°¬ à°Ĥà°§
à°° à±Ģ
Ġop portun
ĠæĬ Ĭ
Ġz Ã¡v
N C
Ġà¦ªà¦° à§ĩ
Ġ×Ķ×Ĺ ×ľ
Ġé» ĳ
Ġáĥĳ áĥĺáĥĸ
Ø§ÙĪ Øª
Ġà°īà°Ĥà°Ł à±ģà°Ĥà°¦à°¿
çľŁ å®ŀ
à· Ļ
×§ ×Ķ
Ġà¸ Ĥà¸Ńà¸ĩ
Ġmod al
Ġj udi
Ġch uyá»ĩn
Ġbut ton
Ġà°¬ à±įà°¯
ĠgiÃ¡ o
ar ik
ŀ ĭ
Ġà°īà°¦ à±įà°¯
Ġà¤ľ à¤²
ayan an
´ë ĵľ
ĠÐĲ Ð²
Ġt amp
ĠÎµÎº ÏĢ
æ§ ĭ
¥à¸ ¢
à¥Ģ à¤ľ
Ġsec ret
ĠÐ² Ðº
æĿĲ æĸĻ
±à¸ĩà¸ «à¸§à¸±à¸
Ġä»Ĭ å¹´
Ġsp ace
Ġein es
ãĥķ ãĥĪ
ĠçŁ ³
Ġåħ¶ ä¸Ń
à¯ģà®± à¯įà®±
Ñĭ Ð»
åħĪ çĶŁ
¡ ng
AS S
ĠãĢĳãĢĲï¼ļ ãĢĳãĢĲ
Ġà¦¶ à§ĩà¦ĸ
Ġbe im
A r
Ġw ÅĤa
å¼ Ĥ
em an
Ġ×ľ ×ł×ķ
Ġ×¨ ×¦
æŃ ©
ãģĤ ãģ£ãģŁ
Ø¸ ÙĩØ±
ul at
or de
ĠÎł Î±Î½
Ġn Ã¶v
ow Äħ
å¨±ä¹Ĳ åľº
Î¼Î± ÏĥÏĦÎµ
Ġà®īà®³à¯įà®³ à®¤à¯ģ
ĠëķĮë¬¸ ìĹĲ
ĠÙģØ± Ùħ
Ġgj Ã¸re
ĠT ah
ĠGen er
Ġter rit
è§£ åĨ³
ãģ« åħ¥
b ec
ĠN ad
Ġq ÉĻr
ĠRo ad
çĮ ®
ķ à¹īà¸Ļà¸
ĠÏĦÎµ Î»ÎµÏħÏĦÎ±
ĠsÉĻb ÉĻb
ĠF Ã¼r
áĥĴ áĥĶáĥľ
à¤ķ à¥įà¤°à¤®
Ñį ÑĤ
Ġåį ĥ
áĥĶáĥĴ áĥĽ
Ġåħ Ń
ĠÕ« Õ¶
æ³ °
Ġist ÉĻy
áĥĶáĥĳ áĥĲáĥĵ
ag ing
ł ¤
Ġs f
ĠmÅ¯ Å¾e
Ġkit ab
ĠAr m
áĥĺáĥł áĥĶáĥĳáĥĺáĥ¡
Ġà¹Ģà¸ ª
Ø§Ø° Ø§
ÙĪ Ø§Ø±Ùĩ
Ġà¤« à¥Ī
Ġcolle ct
ĠN H
ĠâĹ Ĩ
k Ã¼
Ġáĥ¥áĥķáĥĶáĥ§ áĥĲáĥľ
ĠÐĲ ÑĢ
ĠArt ikel
Ġà®ļ à®®à¯įà®ª
Î» Î¹Ïĥ
B L
æĮ ĳ
à±ģà°Ĥà° ¬
ĠÐº ÑĥÐ¿Ð¸ÑĤÑĮ
ĠY az
Ġpr acy
ĠáĥĴáĥĲáĥł áĥĶáĥĽ
ë¡ľ ìļ´
á½ °
ĭà¸ ·à¹īà¸Ń
Ġà¦² à¦ķà§įà¦·
Ġk ultur
ĠìĿ´ë ¯¸
Ġà®µà®¨à¯įà®¤ à¯ģ
éĮ ¢
à¥įà¤¯ à¤ķà¥įà¤·
Ġtr uyá»ģn
Ġcon vers
ĠF all
1 10
Ġobs erv
ĠTe ch
Ñı Ñī
eg as
åĽ½ åĨħ
ãĤ¤ ãĥ³ãĥĪ
Ø§Ù ī
Ø§Ø¦ ÙħØ©
Ġmag ing
Ġà¹ģà¸ Īà¸ģ
Ġb unu
Ġç§Ĵ éĢŁ
Ġ×ĳ×Ĳ ×ķ×¤×Ł
áĥĳ áĥ£áĥłáĥĹ
ĠÙģØ¹Ø§ÙĦ ÛĮØª
ĠØ§ÙĦÙħ Ùĩ
Ġ×ŀ×© ×Ķ
Ġà¦ļ à¦¿à¦ķ
Ġs zy
ĠAr ab
ÐµÑĢ ÑĤ
Î²Î¬ ÏĥÏĦÎµ
Ð»ÐµÐºÑĤ ÑĢ
ru it
k Äħ
ĠP K
IN A
Ġin put
Õ ·
ĠJ er
ç½ ²
ĠØ§Ø³ Ø§Ø³
Ġkap ag
ĠCop yright
à¯Ĥ à®Ł
Ġqar ÅŁ
è¯ķ çİ©
ter a
c Ã³w
Ġho e
Ġt as
ĠØ¯Ø±ÛĮ Ø§ÙģØª
à§ ¬
eb e
Ġc ialis
Ġé Ń
Ġdesc ription
Ġ, '
ĠÐµ Ðµ
ara an
ĠØ³ ÙģØ±
Ġan te
Ġ3 20
Ġ ard
ä¿ Ĥ
à°Ĺ à°²
T ube
å½ ¹
Ġà¦¤ à¦¾à¦¹
Ġl ap
U U
in ha
Ġdo is
Ġart ikel
´à¸ ¥à¸
Ġáĥ£áĥĻ áĥĲáĥľ
Ġà¦¶ à¦¿à¦¶
ĠW all
10 æľĪ
Ġáĥĳ áĥĿáĥļáĥĿ
Ġ×ĳ×ĳ ×Ļ×ª
Ġ] ]
Ġd88 å°Ĭé¾Ļ
ĠGer man
ĠáĥĻ áĥĲáĥ¢
Ġà®ªà¯Ĩ à®±
ĠK ami
à· ļ
Ì ĥ
Ñı Ð¼
Ġà¦¯ à¦¾à¦¬à§ĩ
ĠiÃ§ er
Ġcap ital
ãģ» ãģ©
à´¾à´ ¯
Ġä¹ Ŀ
le ur
Ġnas Ä±l
Ġd ark
ĠÙĩ ÙĨØ§
ab ang
Ġc Äĥn
Ã¹ a
Ġà¤īà¤¤ à¥įà¤ª
ĠAmer ika
ä¸Ĭ æµ·
ãĤĬ ãģ®
K A
Ġk ir
æĢ» ä»£
áĥĿáĥĳ áĥĶáĥľ
¨ ìĸ´
ĠÎķ ÎĽ
Ġgam ot
ĠL en
Ġ( ).
âĢĭâĢĭ âĢĭâĢĭ
Ġà°ķ à±ģ
à°¿à°Ĺ à°¿
Ġ10 3
b ÉĻ
ŀ áĢ
ĠÎ¬ ÏģÎ¸
áĥ¢áĥĻ áĥĺáĥª
à¦¿à¦¤ à¦¾
r el
éŃ Ķ
ãĥ¼ãĥ ŀ
ĺà¸¸ à¸£à¸
ë°Ķ ëĳĳìĿ´
ÉĻy y
Ä° M
do or
Ġê· ľ
à® ¹
Ġqu em
à°¤ à±įà°¨
Î½Î¿Î½ ÏĦÎ±Î¹
Ľà¸ ģà¸
ĠIn vest
à§ ®
à¦¨à§įà¦ ®
à¦¸ à¦®
Ĺà¸µà¸ ¡à¸
ÑıÑĤ ÐµÐ»ÑĮ
ãĤī ãĤĮ
Ġìķ ł
Ġà®ħ à®ķ
Ġw ed
áĥľ áĥĶáĥĳáĥĺáĥ¡
Ġáĥ¡áĥĲáĥĽ áĥ¡áĥĲáĥ®
Ġoff ice
ĠD im
çģ ¯
Ġíķ ©
Ġáĥ¡áĥĲáĥĻáĥ£áĥĹ áĥĲáĥłáĥĺ
ÏĥÏĦÎ· Î¼Î±
Ġåĩ¤ åĩ°
Ġáĥķ áĥĺáĥ¡
Û ¶
Ġd Ãłi
áĥĲáĥ¡ áĥĲ
olo ji
ĠâĹ ĭ
Ġà¤ıà¤µ à¤Ĥ
ĠÙĨ Ø§ÙħÙĩ
og n
H D
ĠÎĳ Îł
ĠN aj
Ġ- %
ĠiÅŁ lem
ĠM ond
Ġby ÅĤo
ãĥĨ ãĥ«
Ġpr w_
Ð°Ð»ÑĮ Ð½ÑĭÐ¹
a Ã§
Ġç§ ĳ
Ġu cz
ç© į
Î¼ÎŃÎ½ Î¿Ïħ
ĠØ§ÙĦØ¥ ÙĨØ³
ult ura
à¹ĥà¸«à¸¡ à¹Īà¸
ĠAzÉĻrbayc anda
à¹Ģà¸¥à¸ ¢
à§Ģ à¦²
ĠÎķ Î¯Î½Î±Î¹
ĠÙħ Ø§ÙĦÛĮ
Ġmá» Ĺi
áĥĿáĥ ©
ÙĪ ÙĬØª
ĠÙħØŃ ÙĦ
å¹ ¸è¿Ĳ
ÙĥØª ÙĪØ±
Ġà°ªà±įà°°à°Ńà±ģà°¤à±įà°µ à°Ĥ
ĠB ild
Ġà°ķà±ĭ à°°
Ġà¤¤ à¥Ģà¤¨
Ġ$ .
ģà¸ İ
ĠS ho
ĠE conom
ÏģÎ³ Î±Î½
AT ION
Ġà¸§à¸ ´à¹Ģà¸Ħà¸£à¸²à¸°à¸«
ĠÃ¼ ret
Ä± cÄ±
ĠáĥĴáĥĲáĥľáĥķáĥĺáĥĹ áĥĲáĥłáĥĶáĥĳáĥĺáĥ¡
ĠÙĪ Ø¬Ùĩ
Ġs emb
Å¯s ob
ĠÎ´ Î¿
é« Ķ
ç§ ĭ
æįķ é±¼
à´ ķàµįà´ķ
ro pa
d ÄĽ
ÙĬ Ø§Ùħ
ģ à¸£à¸£à¸¡à¸
èĳ ī
Ġnor sk
Ġà¤®à¥ĭ à¤¦à¥Ģ
Ġla at
ĠG ab
Æı R
ĠæĤ ¨
ĠA ff
à¹Ģà¸ Ĥà¹īà¸²à¸
Ġç¤ ¾
ĠL ife
ÏĦÎ¿ ÏįÎ½
½ ĺ
m sc
ens ioni
Ġr as
Ġpal ing
Ġcomp os
Ġà¦®à¦¾à¦¨à§ģà¦· à§ĩà¦°
ĠView s
à¦¾à¦¸ à§įà¦¥
ĠÙĪÛĮ ÚĺÙĩ
Î»Îµ Îº
aller y
ÏģÎ· ÏĥÎ·
Ġad ik
ç§ĳ åŃ¦
ÙİÙĨ ÙĴ
ĠÎĳ ÏĢÎ¿
«à¸¡à¸²à¸ ¢à¸
Ġolm uÅŁ
ÙĬ Ø§Ø±
ĠÙħ Ú©
Ġ×Ĳ ×ĵ×Ŀ
Ġt ert
ĠLe ague
à¹Ĥà¸ ķ
×¢ ×Ŀ
pos it
Ġà®ħ à®Łà¯ģà®¤à¯įà®¤
ĠÃ© p
Ġh iá»ĥu
Ġe ig
ÐµÑĤ Ðµ
ÎµÎ¹ Î±ÏĤ
Ġin gen
Ġ. Â»
é² ľ
~ ~
ĠÃ¼ m
Øª Ø´
ĠÙħØŃ Ø¯
ï¼ Ķ
ÄĽ r
ĠØ¹ÙĨØ¯ ÙħØ§
àµįà´ ļ
ĠÙĥ Ø±Ø¯
âĢĿ ãĢĳãĢĲ
Ġå¤§åıĳ äºĮ
ĠÙħÙĪ Ø¨
Ġim kan
ĠgerÃ§ek leÅŁ
åĽ½éĻħ åİħ
Ø¤ ÙĪÙĦ
bi amo
ĠÐºÐ¾ÑĤÐ¾ÑĢ ÑĭÐ¹
à¦¾à¦ Ļà§įà¦Ĺ
Ġæ ¼
Ġtrab ajo
Ġnum ero
ÑĥÑĤ ÑĮ
Ġn es
li ÄŁ
ain s
Ġperson a
ĠS ER
ĠD ans
ªà¸ĸ à¸²à¸Ļà¸
áĥª áĥĶáĥĽ
à§ ©
Ġap pe
ĠW H
ĠF ut
Ĺà¸µà¹Īà¸ Ķà¸µà¸
Ġì ±Ħ
×ķ×ŀ ×ķ×ª
b ank
ĠØ¹ ÙħØ±
ĠK ay
ĠBaÅŁkan Ä±
Ġdi ye
t al
ĠÙħÙĤ Ø§Ø¨ÙĦ
Ġf iz
ĠC M
åĩ ¯
à§ĥ à¦·
Î¼ÏĨÏīÎ½ Î±
Ġáĥ¤ áĥĿáĥ¢
Ġp and
Ġ2017 å¹´
Ø§ÙĦ Ùģ
Ġà¦ªà§įà¦° à¦ļ
ĠFran cis
Ġmult ip
Ġà®ķà®Ł à®¨à¯įà®¤
Ġdig it
Ø¶ Ø§Ùģ
S C
ĠáĥĹáĥĲáĥľáĥĲáĥĽ áĥ¨áĥłáĥĿáĥĽ
Ġà¦¬à¦¾à¦Ĥà¦²à¦¾à¦¦à§ĩà¦¶ à§ĩà¦°
ĠÎľ Î±Ïģ
Ġqu áº£n
Ġd ak
áĥĲáĥļ áĥ£áĥłáĥĲáĥĵ
¯ u
ĠY a
à¹ī à¸Ńà¸Ļà¸
ĠAn ti
Z H
ĠØ¹ ÙĤ
ä»ĺ ãģį
Ä± p
aln Ä±z
Ġpant ip
Ġer f
ĠCom mun
ĠC os
ÃŃ cio
ar rol
Ġmak ing
ĠB ra
æ¯Ķ åĪĨ
eg os
Ĭà¹Īà¸§à¸ ¢
Ġà¤ķ à¤²
Ġ×Ľ ×ĵ
à°¿à°Ł à±Ģ
c ja
ĠK ong
is is
Ã´ m
had ap
ĠCent ral
Ġ×ľ ×ľ
77 9
Ġçļ ĩ
Ġà¦ªà¦° à§Ģà¦ķà§įà¦·
ĠÐļ Ð¾Ð¼
ĠTe x
åĵª ä¸ª
ĠNh Ãł
ä¸į ä¼ļ
áĥĿáĥ¥ áĥĽáĥĶáĥĵ
áĥĶáĥķ áĥĺáĥ¡
Õ¡ ÖĦ
Ð¾ÑĢ Ð¾Ð²
ĠáĥĻ áĥĲáĥļ
Ġsi empre
it ect
Ġ×© ×ł×Ļ×Ŀ
Ġ×ľ ×ŀ×Ķ
Ġag å®ĺæĸ¹
çľĭ åĪ°
ÄĽ Å¾
Ġà¦² à§ĭà¦ķ
à¯ģà® ·
d aki
an as
ĠÙĩØ§ÛĮ ÛĮ
ĠÙĪØ§ÙĦ ØªÙĬ
ĠØ³ ÛĮÙĨ
Ġpriv ate
Ġf lu
æĺ¯ çľŁçļĦ
Ġäºļæ¸¸ app
Ġet miÅŁ
Ġåģ ļ
Ġà°¨ à°¿à°ľ
Ġà¤µ à¤¿à¤°
Ġn iv
Ø³ Ø§Ø²ÛĮ
Ġà¸ Łà¸¸à¸ķà¸ļà¸Ńà¸¥
Ġs ito
Ġmon itor
àŃ į
à¹ģà¸« à¹Īà¸ĩà¸
ig lia
ĠP om
ĠÎŃ ÏģÎ³
ãĤı ãģĽ
Ġà¦ª à¦¾à¦ł
Ġh ingga
ÏĪ Îµ
ÄĻd zy
ĠçľŁ éĴ±
AR T
Ġà°ħ à°Ĥà°Łà±ĩ
ĠCont rol
à¬ ¿
Ġh jel
à°¦ à°°
O F
Ġà¤ªà¥įà¤° à¤®
à°¾à° «
Ġà¦¸ à§įà¦ª
neh men
Ġà¤Ń à¤¾à¤Ĺ
Ġav is
à°¡ à°¿
à®Łà¯įà®Ł à®¿
Ġd ni
æĽ ¿
Ġëĭ¤ ìĿĮ
Ġtut te
Ġsitem ap
ifik asi
Ġà¦ķà¦¾à¦°à¦£ à§ĩ
Ġà°ªà±įà°° à°¾à°°
Ġà®ª à®¾à®²
ĠH on
áĥĶáĥļ áĥĺáĥĲ
×ĳ ×Ļ×¨
Ġà®ªà¯ģà®¤ à®¿à®¯
ä¸Ģ æ¬¡
Ġà®İà®© à®ķà¯įà®ķà¯ģ
ĠÄĳá»Ļ i
Ġnat in
Ġwe it
Ġáĥ¬ áĥĺáĥĴ
ar ning
Ġáĥ¢áĥĶáĥł áĥĺáĥ¢
ĠÃ© quip
Ġcáº£ nh
áĥĺáĥłáĥ ¡
Ġsab er
ĠP red
à¥įà¤¯ à¤¾à¤¨
Ġà®¨à®Ł à®¤à¯įà®¤
ĠC up
æ¤ į
Ġm Ã©t
Î³ ÎµÎ¹
ĠìĿ¼ ë³¸
Ġà¦¬à¦¿à¦ ļ
ĠC z
Ġà¦Ĩ à¦Ł
Ġfor am
Ġê²ĥ ìľ¼ë¡ľ
ĠØ§ÙĦØ®Ø§Øµ Ø©
à§įà¦¯ à§ĩà¦°
Ħ à¸²à¸
ĠØ´ÙĪØ± Ø§ÛĮ
ãģ¡ãĤĥ ãĤĵ
Ø« Ø§Ø±
ĠÛ ·
ĠØ´ ÙħØ§ÙĦ
è« ĸ
¶à¸ ģ
ĠS us
sp ÄĽ
ĠØ¹Ùħ ÙĪÙħÛĮ
Ġà°Ń à°¾à°µ
ĠáĥĲáĥ®áĥĲáĥļáĥĴ áĥĲáĥĸáĥłáĥĵ
Ġinf lu
å® Ĺ
il iz
Ġstud ent
åĢ ¤
à®® à¯ĩ
ãĥ© ãĥ¼
ien st
am men
ĠáĥĽáĥĹ áĥĶáĥļáĥĺ
Ġalt ro
à°¾à° Ń
Î½ Îµ
ä¿ ĥ
Ø¯ Ø§Ø±
Ġrad io
Ġp p
áĥĿáĥ ¨
Õ ²
ĭà¸ ·à¹īà¸Ńà¸
Ġà¤¸à¥įà¤¥ à¤¿à¤¤
ĠÄ° Ã§
à¤¤ à¤¾à¤¤
Ġà¦ķà¦° à§ģà¦¨
Ġv ag
Ð½Ð¾Ð¼ Ñĥ
ë² Į
Ġà¦® à¦¾à¦²
ĠÙħØ¯ ÙĬÙĨØ©
Ġkar ÅŁ
ä¹ĭ åĲİ
ĠÎ¿ÏĢÎ¿ Î¯Î¿
Ġkj Ã¸
à¦¾ à§°
ç» ©
ë°Ķ ì¹´ëĿ¼
å¹ ¸
×ľ ×ļ
Ġï¼ī ï¼Į
Ġæ ĳ
Ġáĥł áĥĶáĥ¡
ĠC ond
×ķ×ĵ ×ķ×ª
ĠØ§ÙĦØ§Ø¬ ØªÙħØ§Ø¹
Ġspec ific
Ľà¸¥ à¸²
Ġà°¨ à±Ĩà°²
Ġtr á»±c
Ð» Ð¾Ð²
Ã¼m Ã¼
Ġï¼ī ãĢĤ
Ġë¶Ģ ìĤ°
Ġadmin istr
çĦ ¯
Ġdefin it
Ġáĥ¬ áĥĶáĥ¡
Ġà¦Ĩ à¦ĵà§Ł
ì° °
çĹ Ľ
Î¸ ÏģÏİ
ĠáĥĽ áĥĺáĥļ
ĠÙħ Ø²
Øª ÙĪÙħØ§ÙĨ
es is
Ġ×ª ×ŀ
Ġà®®à¯Ĥ à®²à®®à¯į
ĠÏĦ ÎµÎ»
ĠâĿ ¤
ĠØ´ Ø§Ø±
Ġter b
ĠY ap
ĠP orn
Þ¬ Þ
Ùħ ÙĨØ¯
ÏĢÎ¿ Ïį
c n
Ġv Ã¥
å¤§ å¸Ī
arak at
è§ ¦
ÙĩâĢĮ ÙĩØ§
è®° å½ķ
åİŁ åĽł
Ġï¼ģ âĢĿ
Ġéķ ·
à±ĥà°· à±įà°£
áĥĲáĥł áĥĲáĥĻ
Ġng u
amp u
z na
Ġà¦¸à¦®à§įà¦ª à¦¾à¦¦à¦ķ
Ġd ung
ĠK et
and an
Ġcommun ic
ĠÐ² Ð°ÑĪ
Ġp ied
Ġindivid u
Ġag æ³¨åĨĮ
ĠO h
ĠCan ada
áĥĲáĥ £áĥļ
ç© ¿
le k
ĠáĥĽ áĥĲáĥĵ
Ġlang _
Ġm ÉĻÅŁ
ĠEst a
Ġà®ĩà®¯ à®ķà¯įà®ķ
Ġà¤¶à¤¿à¤ķ à¥įà¤·
ĠÑĤ Ð¾Ð²Ð°ÑĢ
è» ¢
ĠÑĢ ÐµÐº
ĠW el
×Ľ ×©
20 15
m r
ĠæĢ »
Ġ×Ķ×ŀ× ĳ
Ġter baik
æĭ ¾
è§Ħ åĪĻ
Ġà°ļà±ĩà°¸ à°¿
Ġn od
ĠÏĢ ÏģÎ¹Î½
ª à¹Īà¸ĩ
Ġà®ļà¯Ĩ à®²à¯įà®²
ĠÙħÙĤ Ø§ÙĦÙĩ
Ġch icas
ãĤĤ ãģĹ
Ġy Ã¶net
å®īåįĵ çīĪ
T h
ĩ à¹Īà¸²à¸¢
à®£ à¯įà®ª
Ġà¤ķ à¤¾à¤¹à¥Ģ
Ġup date
å® ľ
×Ļ×¤ ×ķ×¨
Ľà¸ ıà¸
ĠÑģ Ð¾Ð·Ð´
ä¸Ń å½©ç¥¨
«à¸ķà¸ ¸à¸
j an
Ġsv Ã©
ä¸ĩ åħĥ
ĠÐ· Ð°Ð±
ĠÎµ ÏĨ
Ġn Ã¡m
« à¹īà¸Ńà¸ĩà¸
st re
h alt
Ġest ud
æŃ£ åľ¨
Î´ Î¬
uj emy
ĠÃ© l
Ġin a
Ġ×ĳ×ŀ× ¡
ri f
iet en
ħ ÖĢ
ĠèĬ ±
ĠâĪ Ĵ
è« ĩ
à¦ķà¦¾à¦° à§Ģ
Ġà°İ à°¦
Ġa ument
íĬ Ģ
ìŀĲ ê°Ģ
à¸£à¸°à¸ļà¸ ļà¸
ĠÙĨ Ú¯
ĠÙħØ§ÙĨ ÙĨØ¯
è¾ ĳ
ĠÙĪØ£ ÙĨ
Ġdep uis
Ġs int
Ġl ors
Ġad apt
Ġacc ord
ĠÎ± ÏĢÎ±
ĠMin ister
li que
à±Ī à°Ł
S D
Ġv iene
Ġ10 6
Ġáĥ¡áĥĲáĥĽ áĥĲáĥłáĥĹ
Ġn ice
itt i
ĠØ¨Ø§ÙĦ Ø¥
Ġcu enta
à°°à±įà° ·
Ġæ ļ
Ġsu is
Ġst ad
ĠThe o
¶ à¹Īà¸ĩà¹Ģà¸
Ġà¦¸à§įà¦¥ à¦¾à¦¨
ä¸ī çº§
Ø± Ø§Ø¡
Ġáĥł áĥĲáĥ¦
Ġlang sung
à¤°à¥įà¤ ķ
T ime
ĠÙħ Ø§Ø±
ÙĦÙħ Ø§Øª
Ġà¤µ à¥ĭ
ous el
Ø¯Ùĩ Ùħ
P T
ĠæĲ ı
Ġà°µà°¿à°ľ à°¯
ny mi
ie c
P N
Ġà¦ķ à§įà¦²
Ġà¤ªà¥Ĥ à¤°à¥įà¤µ
ĠÎķ Îł
Ġà¦ªà§įà¦° à¦¦
ĠmÃ¼ m
im ate
ĠÚĨ Ø±Ø§
ĠØ§ÙĦØ« Ø§ÙĨÙĬ
ĠÃ©gal ement
d h
ĠSer ver
oh l
éº »
×ł ×ķ×¢
Ġ×ª ×ķ×Ľ
ðŁ ĺ
à¹īà¸²à¸ ĩà¸
ing u
it ter
pl ac
ĠìĹĨ ëĬĶ
Ġáĥ® áĥĵáĥĶáĥĳáĥĲ
ĠTrav el
ÏīÎ½ Î¹Ïĥ
Ġg h
Ġpost ed
åĨ °
ĠM O
ãģĤãĤĬ ãģ¾ãģĽãĤĵ
à¹Ĥà¸ Ķ
Ġà¤ħ à¤Ĺà¤°
Ġstud ents
ov ers
ĠáĥĻáĥĲáĥľ áĥĿáĥľ
Ġ ãģ§
r ale
id el
Ġà¤¬ à¤¸
ĠH az
8 00
à§įà¦¯ à¦ķ
Ġbirlik te
ess er
Ġes o
å½ Ĵ
ĠFest ival
åħ¨ éĿ¢
Ġè ±
ÑĨ Ñĭ
ÃŃ an
Ġì§Ģ ìĽĲ
Ġà§§à§ «
ĠÑĦ Ð¾ÑĤ
à¤°à¥įà¤ ·
Ø§Ùģ Ø±
ÎŃÏģ Î½Î·
em u
ekt iv
Ġìłľ íĴĪ
Ġkon k
Ø§Ø¹ Ø¨
n oc
ĠáĥĴáĥĲáĥĵ áĥĲáĥ¡
Ġa insi
us unda
Ġk eb
ĠB ox
Ġ199 4
åį ĺ
ä¸¾ è¡Į
Ġd og
Ð¾Ð» Ð¾Ð´
ed et
Ġvi agra
ĠTr ump
Ġprz ep
Ġme j
ãģį ãģŁ
hal ten
ĠD aar
ì¡ Į
ÏģÏī ÏĥÎ·
ĠáĥĿ áĥ¤
Ġà¦ķ à§Ł
ĠØ²Ùħ ÛĮÙĨÙĩ
æĬ¥ åĳĬ
ĠD op
¹ à¸Ļà¸
Ġme ille
áĥ¢ áĥĺáĥ¡
ays a
ĠÙĥ ÙĨØª
ĠÐĿ Ðµ
Ġunder stand
ĠtÉĻd bir
Ġk ob
æ½ ®
nÃ½ m
Ġæµ ľ
ĠÙħØ· ÙĦØ¨
à¸£à¸´à¸ ¡à¸
Ġà¤ķà¥ĩ à¤²à¥ĩ
Ġëª¨ ëĳĲ
Ġin ne
à¤ª à¤°
è´ ´
à¸Ńà¸ĩà¹Ģà¸ Ĺà¸µà¹Īà¸
Ġê·¸ ëŁ°
Ġting gi
Ġ^ ^
ĠÏĥÎ· Î¼Îµ
jer om
ho use
Ġal isin
èª ¬
ÐµÑĢ Ñĭ
Å¡ en
Ġ×ľ×¤ ×Ļ
Ġg eld
Ġbeaut iful
or z
arak ter
à¥ģà¤ Ń
ë² ł
ĠáĥĻáĥĲáĥłáĥĴ áĥĲáĥĵ
ãĥ¼ãĥ Ĩ
ab ar
ãĤ¯ ãĥª
ÎĻÎ Ķ
M I
Īà¸ ģà¹Ģà¸
Ġmur ah
ĠÙħØ´Ø§Ùĩ Ø¯Ùĩ
Ġon larÄ±n
ĠT in
ĠØª Ø¬Ùĩ
mo us
Ġï ½ľ
ë¥ ł
ĠR ot
Å¡ÃŃ m
l Ã¡d
ab as
Ġh Ã¥
é¢Ĩ åŁŁ
áĥĿáĥľ áĥĲ
Ð³ Ð¾ÑĤÐ¾Ð²
Ãº de
Ġâĸ ²
Ġáĥª áĥķáĥļ
Î¼ Î¯Î±
ĠáĥĽáĥĿáĥ £áĥ
Ġà¤¶à¥ģà¤° à¥Ĥ
Ġà¤¬ à¤¾à¤°à¥ĩ
Ġn ouve
à¯Ģ à®°à¯į
lar e
Ġg uer
Ġsv ÄĽt
Ġmo ins
ĠB und
Ã¤ lt
ÙĴ ÙĨ
Ġà°ļà°Ĥà°¦à±įà°° à°¬
st erd
l ub
ĠáĥĺáĥĽ áĥĺáĥ¡
ĠØ§ÙĦØ£ ÙħØ±
Ùİ Ø§ÙĦ
ib ili
áĥĺáĥĹ áĥĺ
áĥĲáĥĽ áĥĲáĥ¨
Ġdat i
áĥĶáĥłáĥ ®
ed ere
Ġad ol
r oss
ev ens
Ġáĥ¡áĥĲáĥ® áĥļ
Ġà°¸ à±Ĩ
Ġà¤¦ à¤¿à¤ĸ
ĠÏĥÏħ Î³Îº
áº¿ p
æĵį ä½ľ
ar si
Ġz us
yn am
p in
Ġer ot
à¸Ńà¸µà¸ ¢à¸
à¹Ģà¸¥à¸ ¢à¸
imiz in
Ġz iy
Ġl alu
ĠJ ames
Øµ Ùģ
Ġinc re
áĥļ áĥĿ
Ġáĥ£áĥľ áĥĺáĥķáĥĶáĥłáĥ¡
ĠMan ager
c d
R C
íĶ¼ ê±¸
ÙĨØ¯ Ú¯Ø§ÙĨ
Ġfark lÄ±
æ¯Ķ èµĽ
à¹ ĭà¸
Ġcá»© u
ĠL ist
«à¸¥à¸ ±à¸ĩ
Ġnu evo
Ġenc uent
z b
Ġ5 30
å¤ļ ãģĦ
ä½ĵ éªĮ
ĠåĽ½ å®¶
Ġnor ske
Ġal ert
ĠáĥĽ áĥ£áĥľ
ĠÄį Ã¡st
Ġqu Ã©
Ġman agement
ÙĦØ³ ÙĦ
Ð¸ÑĩÐµÑģÐº Ð¸Ñħ
usaha an
ìł ĳ
Ġà¤µà¤¿à¤ µ
åı ¥
¸ à¹Īà¸Ļà¸
ĠØ§ÙĦØ±Ø¦ÙĬØ³ ÙĬØ©
éħ ¸
Ġ×¤ ×©
ĠØ· ÙĦØ¨
ĠØŃ ØªÛĮ
Ġor a
ĠÙħØ¹Ø±Ùģ ÛĮ
ĠØ§ÙĦØªØ¹ ÙĦÙĬÙħ
Ġul aÅŁ
ĠÛ±Û ²
Ġå· ´
Ġà°ķà±Ĭ à°¨
ane iro
Ġæľ ¨
iel en
áĥ¡áĥ¢ áĥĺáĥ¢
à®¤à¯įà®¤ à®¿à®°
Ġdzie ci
ĠÎ£ ÏĦÎ¿
à¹ģà¸ Ķà¸
Ġà¦« à¦¿à¦°
Ġse ja
Ġbe y
ĠáĥĽ áĥ£áĥ®
Ġà°¦ à±Ĥà°°
Ġà®ħà®® à¯įà®®
ĠØ§ÙĦØŃ Ø±
ĠáĥĴáĥĲáĥĽáĥĿ áĥĺáĥ§
Ġèĩ ³
ĠáĥĶ áĥ¢
à¹Ĥà¸£à¸ Ħà¸
Ġper mainan
Ġb all
ãĤĵ ãģ§ãģĻ
Ġà¤ĺ à¤Ł
ìľ ¨
æĬ ĵ
Ġ×ķ×¢ ×ķ×ĵ
ĠMil ano
ãĤĬ ãģ¾ãģĹãģŁ
Ġ×ĵ ×¨
ĠÔ µ
ĠB ot
Ġà¨ ®
ĠÎº Î¿Ïħ
Ġm ÃŃ
AL E
Ġà®Ĩ à®£
and s
Ġfor ex
Ġ. âĢľ
ug al
Ġà®ħ à®ª
p ak
Ġê°ķ ìĽĲ
Ġáĥ¨áĥĶáĥ ª
ĠmÃ¼ s
ĠáĥĲáĥłáĥ¡áĥĶáĥĳ áĥĿáĥĳáĥ¡
Ġex clus
ĠV ert
ë¦¬ ë¥¼
à°¾à°¯ à°Ĥ
Ñı Ð½
Ġap art
ĠAp art
Î»Î± Î¼Î²
ob s
ìĹĪ ìĬµëĭĪëĭ¤
Ġë° Ŀ
Ġm idd
ĠT elefon
æ¶ ī
ķà¹Īà¸²à¸ĩ à¹Ĩ
Ġà°ªà±Ĩ à°°
ãģ® ãģ§ãģĻ
h es
P K
Ġå¤§åıĳ ä¸ī
ĠØ¯ ÙĪØ¨
áĥĲáĥ¤ áĥłáĥĹáĥ®
ug an
it ud
Ġíķĺ ê³ł
Ġk si
ĠÙĥ Ø§Ø±
Ġz ob
ĠF A
â Ī
à°¨ à±Ĥ
Ġà°ķà±Ĭ à°¨à±įà°¨à°¿
Ġà¤ĸ à¤¿à¤²
à¤°à¥įà¤ Ĺ
à¦¬ à¦¾
Ġme e
Õ¸ÖĤÕ µ
Ġà®µà®° à¯Ī
an ita
à¶ §
à¤¿à¤¯ à¤¾à¤Ĥ
u est
istr ict
d el
Ġà¤ªà¤¹ à¥ģ
ì ³
j Ã¸r
Ġáĥ ĸáĥĶ
Ġh Ã¸y
Q uer
Ġsit us
ĠS os
p la
ĠÙĦÙĦ Ø¹
Ġ×¨ ×Ĺ
ÑĦ ÑĦ
Ġà®¤à®®à®¿à®´ à®ķ
ĠÚ©ÙĪØ¯ Ú©
Ġkh ai
ĠáĥĽ áĥĴ
ĠÄĲ áº¡i
ĠD ES
Ġthu á»Ļc
ĠD ek
Ùİ Ùĳ
Ġà°ķà°¾à°° à°£
à¥įà¤¯ à¤¾à¤¯
ÙĬ ÙĬ
Ġà¤¶ à¤¿à¤µ
ĠÎ¶ Î·
Ġblog spot
Ġ15 00
Ġ10 7
áĥļ áĥĲáĥĵ
Ġå® Ł
Ġs Ã¡t
Ġph ot
Ġd Ã¼z
á ¼
Ġà¦¬à§įà¦¯ à¦¾à¦ª
è¿Ļ éĩĮ
Ġà°ħ à°ķà±įà°ķà°¡
ĠK en
44 4
Î¿ Î³
Ġn ouv
áĢŃ áĢ¯áĢ
Ø§Ø¦ Ø¨
Ġ×ĸ ×Ľ
ĠmÃ¼m kÃ¼n
Ġed en
B tn
ĠÙĪØ²Ø§Ø± Øª
Ġibex_room_grid _
ĠSt ore
à§įà¦° à¦¾à¦¨à§įà¦¤
à¤¾à¤® à¥ģà¤³à¥ĩ
ĠÙħØ¹ Ø¯
Ġl ado
ĠK B
ĠIS BN
Ø° Ø¨
ass o
ĠØ´ÙĨ Ø¨Ùĩ
Ġh os
éĿł è°±
å¸ Ŀ
ov ou
Ġà¦¹ à¦¾à¦¤
Ġ2 C
ìĽ Ģ
à¦¾à¦® à§įà¦ª
ĠÐ¾ÑĤ Ð½Ð¾
Ã¢ ng
ĠëĮĢ íĳľ
Ġæ ¾
Ġà¤®à¤¿à¤ ³
Ġkah it
ĠT wo
on u
ĠáĥĻ áĥ£áĥļáĥ¢
ĠØ¨Ø± ÚĨØ³Ø¨
ĠÎµÏħ ÏģÏİ
Ġprote ct
à°ķ à±Ģà°¯
à¤¾à¤ľ à¤ª
ÏģÎ± Î½
Ġì§ Ī
ĠGr ande
ell t
Ġå¤§åıĳ å½©ç¥¨
Ġch Ã¢n
Ġagäºļæ´² æ¸¸æĪı
ze ch
Ġ×ŀ ×Ļ×ľ
à±ģà°ķ à±ģà°¨
ĠÐ³ Ð¾ÑĢ
Ð¸ÑĤ ÐµÐ»Ñı
Ġà¦¸à¦® à§įà¦®
ĠØ§ÙĦØ§ÙĨ Øª
m 2
ĠØŃ ÙĪØ²Ùĩ
Î¼Î¿ Î½
Ġm á»¥c
Ð°ÑĤ Ð¸Ð²
ÏĦÎ¹Îº Î¿
ĠD alam
áĥķ áĥĲáĥł
Ð¸ÑĩÐµÑģÐº Ð¸Ðµ
Ġáĥ®áĥĶáĥļ áĥĽ
ĠÕ« ÖĢ
Ġvir us
oles c
Ġv rij
à°¿à°¯ à±ĭ
ĠÖ ĥ
ĠçĶ ³
ĠØ¨ ÙħØ§
Ġma jor
ĠO x
ãģĮ ãģĤãĤĬãģ¾ãģĻ
ÅĤ od
łà¸²à¸© à¸²
Ġà°¬ à°¾à°§
å°±æĺ¯ åįļ
re cht
ĠØ¹ÙĦ ÙĪÙħ
ĠØ§ÙĨ ÙĤÙĦØ§Ø¨
Ġ×ł ×Ķ
ĠÏĦ ÏģÎ¿
ÙĪØ± Ø´
à¹Ģà¸ Ľ
à¤² à¤¬
ĠØ§ÙĦØ¬ Ùĩ
ìĤ¬ ë¥¼
Ġà¨ ¤
N O
16 8
Ġ×ľ×Ľ ×Ŀ
Ġáĥĵ áĥĶáĥŀ
ĠJes us
ãĤ¿ ãĥ¼
Ø§Ø¯ Øª
ÐµÐ½ÑĤ Ð¾Ð²
ar da
Ġæĥ ³
ĠØ¬Ø§Ùħ Ø¹Ùĩ
Ġ6 50
áĥĽ áĥĲáĥª
à¸£à¸±à¸ ģ
Ġà¸Ħ à¸²à¸ªà¸´à¹Ĥà¸Ļ
à§ģ à¦ª
li wo
Ġu Ã§
à±ĥ à°·à±įà°Ł
Ð Ļ
Ġà¤® à¤¦
ĠÙ¾ ÙĨ
ĠÐ¼ÐµÐ½ Ñı
u Ã§
A v
Ġhot ell
b ut
Ġmach ine
raz ione
Ġï¼ į
ĠaÃ§ Ä±q
Ġre cher
Ġh ÉĻ
Ġ199 3
ro z
Ġà®®à®¾à®µ à®Łà¯įà®Ł
Ġãĥ ¢
¨à¸²à¸ªà¸ ķà¸£
Ġ×Ľ ×¡
æ¯Ľ çīĩ
ĠáĥĹáĥĲáĥķ áĥ¡
Ġà¤¹ à¤¾
ĠAzÉĻrbaycan Ä±n
à®¾à®° à®®à¯į
6 åĲĪ
Ġéİ ı
Ġr os
Ġ% -
à· Ħ
à¤ ĩ
Ø±Ùĥ Ø²
ĠUn der
ĠØ´ Ú©ÙĨ
Ġt ir
áĥĶáĥĳáĥĺáĥĹ áĥĺ
Ġg anz
å¿ ĺ
ĠÎĶÎ¹Î± Î²Î¬ÏĥÏĦÎµ
Ð¸ÑĤÐµÐ»ÑĮ Ð½Ð¾
ÐµÐ½ Ð½ÑĭÐ¹
Ïĥ Î¹Î¬
alar Ä±n
Ġwh y
Ġ] ;
ĠW enn
áĥĺáĥł áĥĶáĥĳáĥ£áĥļ
ÎŁÎ ¤
éĽ ħ
à¦£ à¦¾
iler in
Ġíĺ ķ
ĠáĥĽáĥĶáĥł áĥĶ
ĠS ite
ĠR ub
Ġ5 000
Ġ×Ĳ ×©
Ġn oc
ãĤī ãĤĮãĤĭ
ĠÐ° ÐºÑĤ
Ġsc reen
Ġm á»©c
Ġà®ķ à®¾à®¤
à¤§ à¤¾à¤¨
Øµ Ø§ÙĦ
ÎĻÎ ¤
ÎĳÎ ľ
ĠTh anh
Ġéİı çĦ¯
ĠL is
à±įà° ŀ
Ġëĭ¤ìĸĳ íķľ
ĠÙħÛĮÙĦÛĮ ÙĪÙĨ
Ġpar k
Ħ áŀ
Ġà¤ľ à¤¿à¤¨
Ġ×ķ ×¨
ÙĬ Ø§Ø±Ø§Øª
ren ce
Quer y
ļ à¸Ļ
Ġà¦ªà§įà¦°à¦¤ à¦¿
Ĺà¸ ±à¹īà¸ĩ
ĠæĶ ¿
Ġà°ļà±Ĥà° ¡
Ġà°¨ à°¾à°ķà±ģ
ÉĻy in
f ast
áĥĲáĥ¨áĥķ áĥĺáĥļáĥĺáĥ¡
und s
ÙĪØ± ÙĬØ©
Ø§Ùħ Øª
Ġç ³
ĠØ§Ø ¸
ĠB áº¡n
or gan
ier te
c os
Ĺ à¹Įà¸
Ġà°Ĺ à±Ĭ
ĠØ§ÙĦØ¬ ÙĨ
à§ģà¦ ¶
Ġà¤µà¤¿à¤ ļ
Ġin gr
ÛĮØ¯ Ø§
Ġkol ej
ÙĪÙĨ Ø©
ĠP Ã¥
ĠF el
ĠáĥĹáĥĺáĥĹ áĥ¥
Ġà°° à°Ĥà°Ĺ
å½© éĩĳ
Ùĳ Ùı
Ãª te
à¦¾à§Ł à§ĩà¦°
à§ģ à¦Ĺ
ĠM E
à°Ł à°¨
à§ĭ à§Ł
ÄŁ ul
ĠÎĶ Î®
Ġc á»ķ
à°¤ à±įà°µ
ĠØ§ÙĦØ³ Ø§Ø¹Ø©
Ġay nÄ±
ĠG Ã¶r
è£ ¡
Ð½ Ð¸Ð¹
Ġà¤¸ à¥įà¤¤
ĠÏĦ Î¯
Ġp t
à±ģà°° à±ģ
à®¯ à®®à¯į
er ia
ate urs
Ġà®¨ à®¾à®©
Ġeng ine
Ġagain st
×ŀ ×ķ×¨
ÎĹ Î¤
Ġyap Ä±l
Ġs ÃŃ
Ġn ÃŃ
Ġl ett
Ġhv ordan
Î³ÏģÎ± Î¼Î¼Î±
n n
ĠEn tre
s ide
if s
Ĳ ëĭ¤
Ġáĥ« áĥĺáĥł
à®£ à®¿
b ere
Ġhá» ıi
Ġs ant
Ġkl as
ĠTh an
Ġ9 78
ive au
Ġà°Ń à°¾à°Ĺ
Ġu v
Ġst ars
ĠW er
æĹ©é¤Ĳ åĬłçĽŁ
à¤¤ à¥įà¤¯
Ġéĺ ²
Ġà¸Ħà¸ ·à¸Ń
Ġà°¦ à°°à±įà°¶
ĠÙĪ Ø§Ø³Øª
ëŀ µ
é ĳ
Ġà°Ĩ à°¸
Ġr ele
à¦¬à¦¿à¦¦ à§įà¦¯à¦¾à¦²
×ķ×Ĺ ×ĵ
Ġà°ķà°¨ à°¿à°ª
ĠÑĢÐ°Ð±Ð¾ÑĤ Ñĭ
áĥķáĥĲáĥļáĥĺáĥ¡ áĥ¬áĥĺáĥľ
ati que
Ġæ ĵ
ĠÙ¾Ø±Ø¯ Ø§Ø®Øª
Û ·
è¨ ¼
ãĥĲ ãĥ¼
Ġe cht
Ġet t
Ø§ÙĬ Ø¯
Å ģ
Ġm ud
Ġ11 4
ŀà¸ ±à¸ģà¸
Ġchiáº¿ c
ĠBe aut
T P
æĬ¥ éģĵ
Ġ Ø§Ù¾
ä¸Ģ æľ¬éģĵ
Ġèĭ ¥
Ġåĩ¯åıĳ ä½ĵèĤ²
Ġà®ļ à®¿à®µ
ĠÏĢÏģÏĮ Ïĥ
Ġag ç½ĳæĬķ
áĥł áĥĶáĥĹ
×¦ ×¢
Ľà¸£à¸°à¹Ģà¸Ĺà¸ ¨à¸
ĠÚ¯ Ø±Ùħ
unicip al
Ġæ¬ ¡
Ġprz ec
×§ ×ķ×ª
ģà¸¥à¸ ±à¸ļà¸
Ġà¦ķà§ĩà¦ ī
Ã ¾
Ġpujc ka
çļĦ æĹ¶åĢĻ
ant ie
Ġfr am
Ġãĥ ¯
Ġáĥŀáĥł áĥĶáĥĽ
Ġà¤Ń à¤°
ÙĦ ÙĪØ¨
Ġåĵ ģ
ĠÄĳá» Ŀi
Ø² ÙĨ
Ġd ub
Ġ600 5
ĠT amb
ÙĦÙħ Ø©
Ġà®¤ à®¿à®©
ĠáĥĹ áĥĶáĥĽ
Ġáĥ¡áĥĲáĥĻ áĥĽ
ro g
pres enta
Ġpar e
Ġ( -
Ø¬ ÙĨØ©
Ġà®ķ à®´
Ġsp ille
áĥķ áĥĲáĥ¡
Ġel ev
Ġan lam
ag u
ĠìĹ¬ ê´Ģ
Ġk rit
Ġf ino
Ġå¨ ģ
Ġmon de
ë¦¬ ëĬĶ
å¹² éĥ¨
Ð¾Ð» Ð¾Ð²
zy ch
Ġà°ªà±įà°° à°¾à°Ĥà°¤
Ġdol lar
h ib
ab ei
Ġà¤° à¥ĭ
ĠÐ½ ÐµÐ¿
à¦² à§ĭ
à¯ĭ à®°à¯į
×ķ×¢ ×ĵ
Ð¾ Ð½Ñĭ
Ġï¼ģ ï¼ģ
Ġà¤¹ à¥Ĥ
ĠØ¨Ø±Ú¯ Ø²Ø§Ø±
ĠÎºÎ¬Î½ ÎµÎ¹
Ġ199 1
Ġà°Ĩ à°«
ÐµÑĢ Ð³
ç» ¿
l eme
Ġform at
ãģĻ ãģĻ
ÅĽ l
¸ à¹Īà¸¡
az i
Ġlig ne
Ġg Ã¥
Ġek onom
áĥł áĥĺáĥĴ
Î¼ Î¼
od i
S p
Ġm est
ãģĦãģŁ ãģł
à¤ľ à¥ĩ
Ľà¸ ¥à¸²à¸
ãģ§ãģį ãģ¾ãģĻ
ony mous
ok ol
Ġf inden
ĠDes c
Ã½ mi
Ġ×Ķ×Ĵ ×ĵ
ê¸° ìĹĲ
· à¸Ńà¸ĩà¸
Ġhe art
ĠD ir
ĠÏĮ ÏĢÎ¿Ïħ
Ġara ÅŁ
ØªØ± ÙĪÙĨ
Î¾ Ïį
e o
Ġáĥł áĥĲáĥĿ
sk Ã©ho
Ġe ing
íĺ ĳ
Ġà¤¬ à¤²
à®¿à®® à¯ģà®ķ
Ġà°ļà±ĩà°¸à±įà°¤ à±ģà°¨à±įà°¨
ĵ ¤
ÉĻyy ÉĻn
Ã¸ m
ĠÙħØ±Ú© Ø²
ĠÑĢ ÑĥÐº
ĠáĥĲáĥ¦ áĥĲáĥł
ĠP V
b d
Ġà¸£à¸ ¸à¹Īà¸Ļ
ĠÖ ¾
ä¸Ģ çĤ¹
ØŃ Øª
Ġkom en
ë¥ ´ë
ÐµÐ³ Ð¾Ð´
f re
ÄĽ ÅĻ
ag in
±à¸Ļà¸ ĺ
Ġáĥ¥áĥĲáĥłáĥĹ áĥ£áĥļáĥĲáĥĵ
cess o
ĠëĬ Ĳ
à¹Ģà¸ŀà¸ ·à¹Īà¸Ńà¸
¡à¸µà¸ Ħà¸§à¸²à¸¡à¸
s al
Ġą ć
ĠØµ ÙĦÙī
Ġnat ure
Ġk ry
ĠÏĥÏĩ Î¿Î»
ĠJ i
à®¿à®¯ à®¾à®©
z ak
ĠC F
Î³Ïī Î³
ett y
Ġà¦ī à¦¦à§įà¦¦
Ġlok al
Ġê°Ģ ì§Ģ
ĠÚĨ Ø´Ùħ
Ġf ÉĻr
ien ce
iel le
èģĶ ç³»
Ø§Ø¶ Ø±
ier on
Ġê°ľ ìĿ¸
â ŀ
ÙĩÙĩ ÙĩÙĩ
Ġáĥ¡áĥĻ áĥĿáĥļ
Ð¾ÑģÑĥÐ´ Ð°ÑĢ
ĠL ok
çī¹ èī²
¢à¸ ¸
ĠpÅĻÃŃ pad
Ġadd ress
łà¸ ¹à¸
ĠN y
éģ ©
Ø³ Ø·
Ġtr i
it ing
ĠåĲį çĦ¡ãģĹ
Ġáĥ£áĥ¤ áĥļáĥĶáĥĳ
Î¼Î¿ Ïģ
ĠéĻ Ī
Ġ×Ĳ ×¤
ĠE P
çĹ ĩ
ĠØ§ØŃ ÙħØ¯
Ġmem ang
ĠÏħÏĢÎ¬ÏģÏĩ ÎµÎ¹
ĠW il
áĥĿáĥĳ áĥĺáĥļ
áĥĲáĥ« áĥĺáĥ¡
à¯ģà®¤ à®²à¯į
Ġà¦Ĺ à§ĩà¦²
à®¾à®° à®£
Ġà¹Ģà¸¡à¸ ·à¹Īà¸Ńà¸
Î»Î· Î¼Î±
Ã« n
in et
Ġcont re
æ¯Ķ è¾ĥ
â ĩ
ĠÐ¶ ÐµÐ»
ÙĴ Øª
ÐµÐ½ÑĤ ÑĢ
Ġà¦¦à§ģ à¦°à§įà¦
àµģà´ ¨àµįà´¨
ÏģÎ¹ Î¸
Ġà®µà¯ĩ à®²
«à¸¥à¸ ±à¸ģà¸
Ġï¼ Ĵ
Ġèģ Ķ
Ġà¤ªà¤¹à¥ģ à¤Ĥà¤ļ
Ġcamp o
à¥ĩà¤Ĥ à¤Ł
Ä° D
Ġáĥ¬ áĥĽ
Ġà¦ķà¦° à¦Ľà§ĩ
Ġà¦¶ à§ģà¦§
ĠØ¬ ÙĨÚ¯
Ġo w
ìķ Ļ
Ġvo y
ä½ĵèĤ² åľ¨çº¿
Ġà¤ļà¥ģà¤¨ à¤¾à¤µ
Ġal iment
èĦ ļ
Ġà¤ī à¤¸à¥ĩ
ĠÎĿ ÎŃ
Ġdam it
Ġconc ern
æ°´ å¹³
lij ke
Ġc id
ĠM Ã©
Ġà¤īà¤¸ à¤ķà¥ĩ
Ġd one
ĠL ux
ĠÐ» Ð¸ÑĨ
Ġáĥĳ áĥĲáĥĸ
å¢ Ĺ
Î´ Î¿ÏĤ
ud ian
ĠØ§ÙģØ² ÙĪØ¯
Ġà®µà®³ à®°
Ġte ach
Ġmais on
ĠI g
Ġà¦ķà¦°à§įà¦®à¦ķ à¦°à§įà¦¤
Ġt ez
Ġçİ¯äºļ å¨±ä¹Ĳ
Ġà¦¸ à¦¾à¦²à§ĩ
ĠÙħÙĩ ÙĨØ¯
Ġinform aciÃ³n
ĠP O
ĠÐ¿ÑĢÐ¾Ð³ ÑĢÐ°Ð¼
à¤¿à¤ ¡
d ig
angg ang
Ġ+ +
åħ¬ å¼ı
×¤ ×ķ×Ł
ÏĨ Î¹
ãģ¨ ãģ®
Ġà¦ĩ à¦¤
ap er
ĠÙĨÙĪØ´ ØªÙĩ
Ġgiá»¯ a
à¹Ģ à¸Ńà¸µà¸¢à¸
ÏĢÎ¿Î¯ Î·ÏĥÎ·
iáº¿ m
áĥĶáĥĳ áĥĿ
Ø³Ø± Ø§Ø¦ÙĬÙĦ
ĺà¸¸à¸£à¸ ģà¸´à¸
Ġà¦¬à¦¿à¦¶à§įà¦¬ à¦¬à¦¿à¦¦à§įà¦¯à¦¾à¦²
Ġfab ric
Ġì§Ģ ê¸Ī
Ġáĥľ áĥĺáĥ¨áĥľ
ä¸Ģ èµ·
pl at
it ude
ĠØŃØ³ ÙĨ
ĠØ® ÙĪØ§ÙĨ
Ġst abil
Ġà§§à§ ª
à« Ģ
Ĥà¸Ńà¸ĩà¸ Ħà¸¸à¸ĵ
é» ŀ
ÑĨ ÐµÐ½
ì¡° ê±´
æĮģ ãģ¡
Ġcor res
áĥĲáĥķ áĥĲ
è£ ģ
Ġà¤®à¥ģà¤ Ŀ
ĠØŃ Ø¬Ùħ
ĠÎļ Î¿
ãģĹãģŁ ãģĦ
à³į à²
ÑĪ Ðµ
Ġdun ia
áĥķ áĥĵ
Ġìĭ ¶
ĠÎ´ Î¹Î¿
è¾ Ĩ
áĥĿáĥĳ áĥĵáĥĲ
Îķ Î¥
áĥķáĥĶáĥ £áĥļ
ger y
Ġà°µà°¾à°° à°¿
la ub
Ġà¦īà¦ªà¦ľ à§ĩà¦²à¦¾
Ġrel ated
æº ĸ
ier no
en os
b es
Ġà¤¬à¤¤ à¤¾à¤¯à¤¾
Ġ3 åĪĨå¿«3
à§Ģ à¦¯à¦¼
Î¶ Î·
Î¯Îº Î·
st ad
ire d
ãģ® ãģ«
ÏĢÎ¿Î¹ Î·
Ġà¤ļ à¤¾à¤°
ĠÎļ ÎĳÎĻ
Ġì§Ħ íĸī
Ġæł ¹
Ġst ata
ĠMan agement
ĠK ir
à¤ľ à¤¾à¤°
et her
Ġpara an
ìłķ ë¶Ģ
èĴ Ļ
Ġleg al
×§ ×¡
ĠæĦ Ł
Ġà°¨à°¿à°°à±įà°µ à°¹
Ġh jem
Ġ à¸£à¸±à¸ļà¸
Ġ×ķ ×¡
ĠÏĢ Î¹
Ð°Ð»ÑĮ Ð½Ð¾Ð¹
ian e
UN G
ĠÐ³ Ð´Ðµ
Ġsu ite
Ġ ä¸ĭè½½
l agen
iel t
ck les
ĠdoÄŁ ru
ĠC av
à¯įà®ļ à¯įà®ļà®¿
g ew
Ġ×§ ×ľ
Ġprincip al
æľĢ ä½³
å®ŀ æĸ½
ĠM is
à¦ķ à¦¾à¦²
à¤² à¤Ĥ
Ã§ os
ĠáĥĹáĥĲáĥķ áĥĺ
à¤ª à¥Ĥ
Ġè®° èĢħ
ĠÐŀ Ð´
×Ĺ ×ķ×Ł
å¯¾ å¿ľ
Ġà¦Ĩà¦ĵà§Ł à¦¾à¦®à§Ģ
ÏģÏī ÏĢÎ±
Ġà°¸ à°Ń
ĠØ¨Ø§ÙĦ ÙĨ
ĠO ok
ĠB os
Ġà®® à®¾à®±
p as
Ġ×ķ×Ĵ ×Ŀ
Ġest o
ĠSt ate
k al
ail s
æİ¨ è¿Ľ
Ġà®¤ à¯ĩà®ļ
Ø§Ùħ ÛĮÙĨ
Ġå¿« 3
Ġìķ ¼
Ġáĥ¡áĥĲáĥ¥áĥĲáĥłáĥĹáĥķáĥĶáĥļ áĥĿ
Ġy aÄŁ
ãģĦ ãģı
×ª ×ĳ
Ħ à¸Ļà¹Ģà¸
ĠáĥĴ áĥĲáĥłáĥĵ
Ġquest ions
ff ee
áĥłáĥ£áĥ ¥
ģà¸²à¸ ¨à¸
Ġà¤¬ à¥ĭ
ĠY an
Î¸ ÎµÎ¹Î±
Ġter r
Ġk ok
áĥ Ł
ĠÏĥÏĦÎ¿ Î¹
Ġex tr
à®° à®¾à®ķ
er ve
ari an
S M
Ġre j
ĠR um
Ùİ Ùī
ÃŃc ulo
[...]
