#version: 0.2
à ®
á ĥ
à ¸
à °
à ¤
à ¦
à ¯
Ġ Î
à¯ į
Î ±
à ±
áĥ Ĳ
à ¹
à ¥
Ġ Ð
Ġ à®
Ï Ħ
à §
Ġ áĥ
Î ¿
Ð ¾
à¯į à®
Ġ à°
à¸ ²
Î ¹
Ġ à¤
Ð µ
Ġ à¦
áĥĲ áĥ
à¸ Ļ
Î ½
à¯ ģ
Ð °
à± į
à¸ £
Î µ
Ġ Ø
à® ¿
Ġ .
ä ¸
à¤ ¾
áĥ ĺ
à¸ Ń
Ð ¸
à¦ ¾
Ï ģ
à±į à°
à¹ Ģ
à®¿ à®
Ï ĥ
Ñ Ĥ
à¹ Ī
ã Ģ
ä º
Ġ å
ï ¼
Ġ ï¼
à¤¾ à¤
Ø §
à° ¿
áĥ Ķ
à§ ĩ
Ï Ģ
à¯ģ à®
Ġ à¸
Ð ½
à¸² à¸
Ï Ĥ
Ġ ãĢ
å ı
Ġ c
à¥ į
à° ¾
à¦¾ à¦
à® ¾
Û Į
à¹Ģ à¸
áĥĶ áĥ
Ñ Ģ
Î ·
à®¾ à®
à¸£ à¸
Ï ħ
à± ģ
à§ į
Ñ ģ
à¥į à¤
à¹ ī
à¯įà® ķ
Î »
Ø ±
áĥĺ áĥ
à¸Ļ à¸
Ġ ÏĦ
à°¾ à°
à¥ ĩ
à® °
Ð¾ Ð
à§į à¦
Ù Ħ
Î º
Ġ ×
à¯ Ī
à¸Ń à¸
à°¿ à°
áĥ Ŀ
Î ¯
Ð »
Ġ Ù
à® ¤
á »
Ġà¤ ķ
ģ à¸
à¦ ¿
Î ¼
à¯įà® ¤
Ð º
Ġï¼ Į
o m
å ®
æ ľ
w w
Ġc om
ç ļ
çļ Ħ
å Ī
Ġ æ
ç ½
äº ļ
a g
Ħ à¸
ĩ à¸
å ¤
å Ľ
ç½ ĳ
à¥ Ģ
Ĥ à°
áĥĿ áĥ
Ï Į
Ñ ĥ
à® ©
Ù Ĩ
® à¯į
Î ¬
à¤ ¿
Ñ ı
à¦ °
à±ģ à°
£ áĥ
á º
à® Ł
Î¿ Ïħ
à¸ µ
Ñ ĭ
Ù ĩ
å ħ
Ġ ç
± à¸
à ¨
å ½
ä »
æ Ĺ
à¹Ī à¸
Ġ ag
æ Ī
æ ¸
ä ¹
à¤ °
Ġà® ª
áĥĺáĥ ¡
Ġ ÏĢ
à° ¨
Ð° Ð
É Ļ
× Ļ
à¦¿ à¦
à® ³
Ï ī
n g
Ðµ Ð
à° Ĥà°
Ġ 2
â Ģ
æ ĸ
Ĥ à¤
áĥĶáĥ ĳ
ĠÎ º
Ġà® ķ
Ñ Į
Ù Ĭ
Ġ d
Ġ Ïĥ
à§ĩ à¦
à¸ ´
à± ĩ
à¤¿ à¤
Ø ¯
à¯įà® ª
ã ģ
ł áĥ
ĠÐ ¿
¡ à¸
Î Ń
Ġ t
à° °
ķ à¯įà®ķ
Ġ ì
à¦ ¨
Ñģ ÑĤ
¥ à¸
å ľ
è ½
ww w
æ¸ ¸
Ġ www
ĠãĢ Ĥ
Ġ è
å ¹
à¥įà¤ ¯
Ġáĥ Ľ
ĠÎ ±
e s
× ķ
à® ²
à¥ ĭ
à¹ Ħà¸
Ġ ,
Ù Ī
à¹ ģà¸
à± ĭ
à¦¾à¦ °
Î ®
Ð ²
áĥ ķ
à¯Ī à®
ª à¸
Ġ Ä
Î ³
à§ ģ
à° ²
ĠÐ ²
Ã ©
à¥ĩ à¤
à¹ī à¸
áĥ £áĥ
Î± Î¹
à¯įà® Ł
Ø ª
à§ Ł
à± Ģ
Ä ±
Ñ ĩ
¢ à¸
n h
Ġ ë
Ï ĩ
Ġáĥ ¡
Ġà® µ
à ´
à¤ ¨
e n
Ġà¦ ķ
à° ķ
Ðµ Ð½
§ à¸
ĠÎ µ
áĥĲáĥ ľ
Ġà® ®
ĠÄ ĳ
Ġà° ª
Ġà¦ ¸
Ġ Ñģ
Ġà¤ ¸
à¹ Į
Ù ħ
×ķ ×
Î¹ Îº
o n
Ġáĥ ĵ
à¯ ĩ
à± Ĩ
à¸´ à¸
Ð ¼
ì Ŀ
i n
Ġà¦ ¬
ãĢ Ĳ
Ġ 1
ä ½
ĳ ãĢĲ
åı ĳ
å Ĭ
åĪ Ĩ
ç Ķ
æ ī
å Ĳ
å½ ©
Ġ -
å® ĺ
å į
ĠãĢ ĳãĢĲ
è µ
è ¿
Ġ âĢ
á Ģ
æ ĺ
Ġ :
ĠÎ ¼
İ ¯
ä¸ ĭ
è ®
à¹ ĥ
ç «
å ¿
æĹ ¶
äº º
İ¯ äºļ
Ġ é
ä¸ Ģ
Ġå ¤
ç »
åĽ ½
ç ī
Ķ à¸
ļ à¸
å ¼
ä ¼
ĠãĢ ģ
é Ļ
å °
Ĺ à¸µ
° à¸
à¤ ¤
Ġà® ħ
Ġà° ķ
Ã ł
ĠØ §
áĥ ¡
ĠÐ ½
Ï į
à¦ ²
Ġà® ¤
à±įà° °
Ã ¼
æľ º
é Ģ
à¤ ²
Ġd e
Ð¾Ð ²
áĥ ł
Î ´
à¦ ķ
Ġà® ļ
Ã ¡
Ġ ê
à°¾à° °
Ġà¤ ¹
ĠÐ ¸
Îµ Î¹
i e
ĠØ ¨
Ġ áĥĲáĥ
à® µ
ÉĻ r
Æ °
Ġà¦ ª
Ġà° µ
§ åıĳ
è½ ½
è ¯
äºļ æ¸¸
Ġ 0
ä¸ĭ è½½
è §
å İ
á ŀ
ä¸ Ń
å®ĺ ç½ĳ
å Ĩ
æī ĭ
å º
æĺ ¯
Ī à¸
åľ ¨
à¤ ķ
Î¹ Î±
Ð ´
e r
í ķ
à¯ģà® ®à¯į
áĥ ļ
à±ĩ à°
×Ļ ×
Ï Ĩ
ĠÐ ¾
à§ĩ à¦°
Ġ l
ç ľ
ç ¥
Ġå¤ §åıĳ
Ĺ à¸
å¿ «
é ĩ
æ Ŀ
å ·
å ¸
à¹ĥ à¸
W W
å¹ ³
Ĥ à¸
å¤ §
æ Ĭ
å Ń
æ ³
8 8
à¥ ģ
Î ¸
Ú ©
Ġáĥ Ĵ
Ġà° ®
a r
à®¿à® ²
Ñ ħ
« à¸
ç º
æľ ī
¸ à¸
åı °
Ġ 3
Ġà¤ Ĩ
à§ ĭ
ë ĭ
Ġ p
ĠÏĦ Î·
áĥĶáĥ ļ
ĠÐ º
Ġt h
Ġà° ħ
à®¿à® ¯
Ï İ
à¦ ¤
à¸µ à¸
Ġ à¨
é Ľ
æĸ ¹
å ¥
Ġà¤ ª
áĥĲáĥ Ľ
Õ ¡
a n
Ðµ ÑĢ
Ġà° ¸
ÏĦ Î±
ì ŀ
Ø ³
Ġà® ĩ
Ð° Ð½
áĥ ĵ
à¥įà¤¯ à¤¾à¤
Ġ v
à¦ ¬
ì Ĺ
Ġ w
Ġà¤ ®
Ïģ Î¿
à° Ĥ
à¯ Ĩ
Ðµ ÑĤ
áĥ Ľ
ÏĦ Î¿
Å Ł
ĠØ§ ÙĦ
à§įà¦ °
Ġ í
à±įà° ¨
ĠÐ ´
× Ķ
Ġ h
¨ à¯įà®¤
à¥ Ī
ĠÙ ħ
áĥ ľ
Å Ĥ
ĠÎ ´
Ð ¿
à° ®
Ġ à¹Ģà¸
æīĭ æľº
à¤ £
ìĿ ´
ã Ĥ
Ġà® ¨
ģ à¸²
à¦ ®
áĥĲáĥ ĵ
ĠÎº Î±Î¹
Ġ s
Ð¾ ÑĢ
Ġà° ļ
Ïģ Î±
ìŀ ¥
à¥ĭ à¤
ëĭ ¤
à¸£à¸ µ
Ð° ÑĤ
ª à¯įà®ª
áĥ ¢
à¥ ¤
ŀ à¸
à° ¤
Ġ m
ĠØ ¯
ÏĦ Î·
× ¨
Ð¾Ð »
à¹ Ĥà¸
áĥĲáĥ łáĥ
å ĩ
0 1
a p
ä¸ į
Ġï¼ ļ
è ¡
å Į
å ¾
Ġ äºļæ¸¸
Ġ 5
å¹³ åı°
à ©
ç Ľ
ap p
Ġç İ¯äºļ
äº Ĩ
à¹Ī à¸²à¸
å Ŀ
à¤ ¸
à°¾à° ²
à® £
ÏĦ Îµ
ì §
Ġ à¥¤
Ġc h
ĠÐ¿ ÑĢ
Õ¡ Õ
Ġ Õ
i l
Ġáĥ ł
ê ³
Ġà° ¨
à® ®
o w
Ø ²
¿ ½
ï ¿½
ÏĢ Î¿
è ´
à¥įà¤ °
Ñ İ
ķ à¸
à§įà¦ ¯
Ġ b
áĥĶáĥ ľ
ë Ĭ
âĢ Į
à® ±
Ïĥ Î·
à¸Ńà¸ ĩà¸
à±įà° ¯
Ð¾Ð ¼
c h
æ Ģ
ç« Ļ
Ġ C
Ā Ā
à¤¾à¤ °
áĥĲáĥ ķ
Ïī Î½
Ġ× Ķ
Ġà¦ Ĩ
à¹ ĩ
o u
Ð¸ ÑĤ
ì Ħ
à°¿à° Ĥà°
o s
ĠÏĦ Î¿
áĥĲáĥ ¡
ä¸ ī
ä¸ Ĭ
á ł
0 0
å ±
éĽ Ĩ
ç İ
ä¹ Ĳ
à¤ Ĥà¤
à¯įà® ±
à¸Ńà¸ ĩ
i á»
Ð¾Ð ´
à§ Ģ
i r
Ø ©
ëĬ Ķ
ĠÏĦ Î¿Ïħ
à° µ
Ĺà¸µ à¹Īà¸
t o
Ð½ Ñĭ
ļ áĥĺ
ç Ļ
Ġà¤ ¤
Î¯ Î±
à¦¾à¦ ¨
Ġ Ã
Ġà® İ
Ġ z
Ø§ ÙĨ
Ġ k
à¹Į à¸
à° ¸
ê °
ĠÐ ¼
Ġáĥ ĺ
Î¼ Î±
à¹ ĩà¸
à¤ ¹
à¯ ĭ
Ġ a
ì ł
à° ¦
Ġà¦ ®
Ðµ Ð»
à¸£ à¸²à¸
ĠÎ ½
× ľ
Ġáĥ ¨
Ł à¸£à¸µ
Ġ à¹ģà¸
Ġt r
¶ ľ
Ð ±
ì ķ
Ġc n
åĽ ¢
è Ģ
ç½ĳ ç«Ļ
å¼ Ģ
ï¼ Į
éĻ ħ
é Ĺ
ĥ ½
æ ´
æ ķ
æ ŀ
å Ĵ
å ¯
æĪ ·
æĪ ı
Ġà¤ µ
à° Ł
à¯įà®ķ à®³
Ġà¦ ı
Ø ´
ģà¸² à¸£à¸
Î½ Î±
Ġì Ŀ
áĥĲáĥ ł
Ð° Ð»
Ä± n
¹ à¸
ĠÎ ¿
i s
à±įà° ²
Ġ Â
Ġ nh
Ġà¤ ¬
Ġ ÑĤ
áĥ ®
´ à¸
à®¤ à¯įà®¤
Ġ n
¶ľ ìŀ¥
ë §
ã ĥ
à±įà° ¤
ç §
éĽĨ åĽ¢
ç İ¯äºļ
æ Ķ
à¤ µ
Ġà¦ ¨
Ïģ Î¹
Ġ â
ì§ Ģ
Ľ à¸
Ñ Ī
Ø ¹
áĥĿáĥ Ľ
à®¿à® °
ìĹ Ĳ
à° ª
± à¸Ļà¸
à¦ ¸
ĠÎ ³
ŀ ×
a s
Ñ Ĩ
Ġà¤¹ à¥Ī
æ¸¸ æĪı
Ġà¤ ħ
Ĭ à¸
Ġáĥĵ áĥĲ
Ø ¨
· à¹Ī
ï¿½ ï¿½
Î ²
à® ®à¯į
Ä Ļ
Ġà° ¤
r e
Ġà¦ ¹
Ġ ÑĢ
Æ° á»
íķ ĺ
Î ĳ
ĠÎ ĳ
à®¿à®² à¯į
Ġáĥ¡ áĥĲáĥ
à¸£à¸ ±à¸
ÉĻ n
à° ¡
ĠÎ¼ Îµ
Ð ·
ä ¿
å¹ ´
à¥įà¤¯ à¤¾
³ à¸
áĥĺáĥ Ĺ
Ġà¦ ¦
Ġ S
Ĥ ¬
Î½ Î¿
ĠÙ Ī
t i
à® ķ
à¸£à¸ °à¸
Ð½ Ð¾
à°¾à° ¨
ÏĦ Î¹Îº
áĥĿáĥ ĳ
ë ¡
Ġ à§
áº ¡
à µ
Ġà¤ķ à¥ĩ
Ä ħ
à§įà¦ ¤
à¹ī à¸²à¸
ĠÎ½ Î±
æ µ
åĴ Į
æ İ
Ġ 4
é Ŀ
ä¸ º
åĽ½ éĻħ
à ª
çī Ī
æ °
çľ Ł
æ ł
à¤ ®
Ð¾Ð ³
× ª
à¯ Ĭ
q u
Ġáĥ Ļ
à¹Ī à¸²
Ø§ ÛĮ
ìĿ ĺ
u n
à°¿à° ¨
Ġà¦ķ à¦°
ĠÎ ķ
Ð ¹
ĠÎ ł
à¹Ħà¸ Ķ
áĥĲáĥ ļ
Î ¾
à®¤ à¯ģ
é ¢
ç Ĳ
æ Ń
å®ĺ æĸ¹
æ ĭ
å ĳ
è Ī
åĿ Ģ
ä¼ ļ
åİ ħ
Ġ |
à¤¾à¤ Ĥà¤
à° ¯
Ö Ģ
i y
áº ¿
Ñģ Ðº
ì ĭ
à¹ī à¸²
i ch
Î¼ Îµ
áĥ Ĺ
Ġà¦ ¤
c z
Ħ à¸£à¸
Ġì ŀ
Î Ł
Î Ļ
ĠÎ Ń
à°¿à° ķ
Ĺà¸µ à¹Ī
Ð ³
æĸ °
ĠâĢ Ŀ
å½© ç¥
çĶ ¨
O M
Ġ (
ä¸ ª
å ¨
åħ ¬
äº ¬
Ġ )
å¤ ©
çº ¿
è½ ¦
ĠC OM
æĹ¶ å½©
Ġ A
2 0
Ġà¤ ¨
Ġ×Ķ ×
Ø§ Ø±
Ġáĥ Ĺ
à®¾à® °
l ar
ÏĢ ÏĮ
à¦ ¦
t a
à¸Ń à¸Ļ
Ð¾ ÑĤ
åľ °
çĻ »
æĹ¶ æĹ¶å½©
à¤¾à¤ ¤
Ġ T
ľ à¸
áĥ łáĥ
à±įà° Ł
ê ¸
Î¿ Ïį
Ġà¦ ħ
ģà¸² à¸£
à®¿à® ©
Ã ´
Ù Ĥ
Ð¸ Ñı
e t
à± Ĥà°
ìĿ Ħ
áĥĶáĥ ¡
ÏĦ Î¹
± à¸Ļ
9 9
Ġ2 01
ĠâĢ ľ
ä» ¥
çĶ µ
Ġ WW
å ĵ
ĠWW W
è¡ Į
ä¸ ļ
¦ ģ
å® ¢
à¤ ļ
Ã ³
ĠÐ ±
ļ à¸Ńà¸
° à¹Ģà¸
à±ģà° ²
à¥ĩà¤ Ĥ
à§ĩà¦ ¨
ĠÎº Î±
l ÉĻr
à¯Īà® ¯
l l
¨ áĥĺ
´ ë
6 6
è Ĥ
¡ à¸²à¸
± ä¹Ĳ
à¥ Ĥà¤
Ġ Ú©
Ð¾Ð ¹
Ġ× ľ
Ġà° °
en t
ĠÏĦÎ· ÏĤ
à¦ Ł
ĸ à¸
ãģ ®
ì Ĭ
áĥĺáĥ ľ
Ġ g
å® ¶
é Ĵ
æ³ ¨
çĶ Ł
Ġ ;
æĿ ¥
èµ Ľ
Ġà¤ ¯
à® ¯
Îµ Î¯
à± Ī
Ù ĥ
ÐµÐ ¼
à¹Ħà¸ ¡
Ġà¸ ªà¸
Îµ ÏĤ
åĽ ¾
1 0
å½ ķ
ç ¾
Ľ à¹ĩ
å¿« ä¸ī
å¨ ±ä¹Ĳ
è ĩ
Ġå °
Ġ /
à¤° à¥įà¤
Å ¼
Ġáĥ Ķ
à¦ ª
i t
ĠÐ½ Ð°
ì ¶ľìŀ¥
Ġì ł
à¯ģà® ķà¯įà®ķ
à°Ĥà° ¦
Ã ª
d ÉĻ
Î» Î»
Ã Ń
§ à¸²à¸
áĥĶáĥ ł
Ú ¯
Ð° Ðº
à±į âĢĮ
íķ ľ
Ġà¦ ľ
Ġ× ĳ
ĠÎ ļ
Ġå ½
é ģ
å Ł
à¤ ª
à¸Ļà¸ µ
à¯ģà® ¤
ĠÎ £
Ġà° Ĩ
t e
áĥĶáĥĳ áĥĺáĥ¡
ĠÏĦÎ· Î½
Ð¾ Ð½
à¹ĥà¸ «
ì ļ
Ù ģ
æ ²
åį ķ
è ĥ½
éĢ Ł
è ¾
Ġà¤ ¦
i a
à¦¿à¦ ķ
à± Ĭ
Õ ¸
d a
Î ¶
à¸Ļ à¹Ģà¸
à®¾à® ©
Ġk h
Ġáĥ ŀ
ë ı
Ð¸ Ð½
Ïİ Î½
ĩ à¹Ģà¸
å¿« 3
ãĢ Ĥ
ä½ ľ
åĩ º
çľŁ äºº
é ¡
åĪ °
åĪĨ å½©
èµ °
ç« ¯
æľ Ģ
Ĺ äº¬
ä½ ĵ
è ¦ģ
Ġag çİ¯äºļ
ç½ĳ åĿĢ
åĬ ¿
è ī
å½©ç¥ ¨
Ġå ħ
çĲ Ĩ
æĹ ¥
ç Ń
çĻ» å½ķ
æ Į
æ ¬
5 5
æ ĥ
è® ¡
ä ¾
æĪ Ĳ
æ´ ²
7 7
å®¢ æĪ·
Ġå ı
Ġ 9
ĀĀ ĀĀ
« ĺ
ç ł
å ī
ç¥ ŀ
æĹ Ĺ
Ġ 6
Ġè ¿
Ġà¤ ľ
e in
à¦¾à¦ ²
à±ģà° ¨
ë¡ ľ
áĥĲáĥ ª
ÉĻ s
ÐµÐ ´
à¹ Ĥ
Î £
Î± Î½
u r
à®Ł à¯įà®Ł
à±ģà° Ĥà°
Ġà¸ ª
Ġà¦ª à§įà¦°
ģ à¸£à¸
r z
Ġ× Ĳ
áº £
áĥĺáĥ ļ
ĠÐ ·
Ħà¸ §à¸²à¸
Ø Ń
æ ±
å®¢æĪ· ç«¯
èĪ °
& #
å¸ Ĥ
åĲ Ī
é ĺ
Ġå Į
å Ģ
æ³ ķ
æĹĹ èĪ°
2 2
é ĥ
é ¾
Ġ 8
à¥ĩà¤ ²
ĠÎ ¤
ê³ ł
Ġ '
à±ģà° ķ
à¹Ħà¸Ķ à¹ī
Î¯ Î½
à¦¿à¦ ¨
Ġ o
áĥĶáĥĳ áĥĲ
à® Ļ
Ð° ÑĢ
ĠØ ª
ĩà¸ ´
Ġà°ª à±įà°°
à¹ĥ à¸Ļà¸
ê° Ģ
Ġ ng
Ġå Ī
èµ° åĬ¿
æ ¯
åľ º
à¤ ¦
à¦ Ĺ
Î ķ
Ġ ÏĮ
Ġ Ñĥ
áĥ Ĵ
un d
ë ¦
ãģ Ħ
à¹Ī à¸Ļ
a y
åĬ ¨
à¤¾à¤ ²
ĠÎ³ Î¹Î±
à® ¨à¯įà®¤
Ĺ à°¾
Ñ ī
Ġà¦ °
Ķ à¸´à¸
¡ à¸µà¸
Ġd i
Ø³ Øª
ĠÎ ľ
áĥĶáĥ Ľ
ê ²
× ĳ
ĠÎ± ÏĢÏĮ
åŃ Ĳ
åħ ¨
å¤ ļ
äºļ æ´²
è ģ
ç ®
çİ °
Ġå½ ©
Ġï¼ ī
èµĽ è½¦
å® ī
Ġæ Ī
. .
å· ¥
é ľ
é¾ Ļ
è§ Ĩ
ç ¨
ç Ĥ
1 1
åĨ Į
äº İ
Ġ; &#
åľ¨ çº¿
æľ ¬
é «ĺ
à¤ ¯
Å Ľ
à®¾à® ķ
Ñ Ħ
à¦¾à¦ ®
l e
á» Ļ
Ġ à¹Ĥà¸
Ġ y
Ġáĥ ¬
· à¸Ńà¸
à°¿à°Ĥà° ļ
à¦° à§įà¦
Ġê °
à¨ ¾
æīĭæľº çīĪ
ä¹ Ī
åı ¯
Ġå ĩ
Ġ 7
à¸Ńà¸ ¢
á Ł
å ģ
Ġï¼ Ī
è ·
åŃ ¦
åı Į
éĥ ¨
ä¹ ĭ
æ³¨ åĨĮ
à¤¾à¤ ¨
Ð°Ð ²
Î» Î¿
Ġ D
áĥĶáĥĳ áĥĺ
ĠÎ ¸
à¯ Ģ
Ġ f
ļ à¸²à¸
ì ĥ
Ð°Ð ¼
à°¾à°° à±ģ
à¹ Ĩ
à¹Īà¸ ĩà¸
æľ Ī
èµ°åĬ¿ åĽ¾
å° ı
à¤¾à¤ ¹
Ġà¦ ¶
ĠÙ Ĩ
Ī ëĭ¤
Ġ Ïĩ
áĥĿáĥ ¡
áº ¥
Ð¸ Ðµ
à°¨ à°¿
à¦¾ à§Ł
Ø§ ÙĦ
ti on
æ Ļ
æ Ħ
Ġ2 0
à¤¾à¤ ļ
à®¿à® ±
× Ĳ
Õ ¥
Ã ¶
ĠÎ ·
Ġáĥ £áĥ
r a
ļà¸Ńà¸ ¥
¥à¸ °à¸
Ġà¦ ¯
à°° à±įà°
Ð°Ð ·
ãĥ ¼
ä¸ »
à¤¾à¤ µ
ÏĦ Î¬
ĭ à¸
áĥĿáĥ ľ
Ñģ Ñı
à®° à¯į
ë ¥
Ġp h
Ġà° ¬
å¯ ¹
Ġ ä»
Ġà¤ °
Ïģ Î¬
d z
o r
Ī à¸²à¸
ĠØ ±
áĥ£áĥ ł
à¦¿ à§Ł
ĠÏĥ Ïħ
Ġà° ¦
Ä Ľ
à¯įà® ļ
3 3
Ġà¤Ĩ à¤¹
Õ ¶
ÉĻ t
Ð ¶
±à¸ ĩà¸
ãģ §
ĠØ§ÙĦ Ø
à¦ ¼
Ġ B
ì ľ
Ġà¤ ²
ĠÏĢ Î¿Ïħ
×ķ× ª
Ġl a
à¸£à¸ ´à¸
áĥ §
ĠÐ ³
à® ªà¯įà®ª
Ã ¢
Ġà° ĩ
à¹ī à¸Ńà¸
u ng
Î¹ Ïĥ
Ġ "
Ġn a
áĥĺáĥ ĵ
ÛĮ ÙĨ
¥ à¸²à¸
Ġë °
ÎŃ ÏĤ
ä¹ Ł
¶ à¸
åĪ Ĵ
ģà¸ ±à¸
ç¾ İ
ĠåĮ Ĺäº¬
é ķ
ç ¤
Ġå ľ
éĩ ĳ
Ġag åĽ½éĻħ
à¥Ĥà¤ ¨
Ġà¤® à¥ĩà¤Ĥ
Ġáĥ ķ
Ð» Ð¸
á» ĳ
Ġà° ī
ou r
Ã §
à® ļ
Ïģ Î¯
Ġáĥ ĳ
Ã ¤
é ¦
äº §
é £
à¤¿à¤ ķ
ê¸ °
Ġ j
ãģ Ĺ
Ľ à¸£à¸°à¸
Ð¾ Ñģ
ĠÎ Ķ
Ġ e
à¦¿à¦ ¤
ĠáĥĲáĥ ł
ĠØ¯ Ø±
Ġà®İ à®©
ÏĦ Î±Î¹
Ġì ķ
Ø§ Ø
· à¸Ń
Ġà° Ĺ
iá» ĩ
æĹĹèĪ° åİħ
¡ à¸²
Ġäºļæ¸¸ éĽĨåĽ¢
è¿ Ľ
à¹Ģà¸ Ľà¹ĩ
Ġ ï¿½
Ġå½© ç¥ŀ
éĿ ¢
åĲ İ
Ġ %
è °
å¥ ½
å° ±
Ġà¤ ¶
áĥĶáĥ ķ
r o
Ġ Ñĩ
à¯ģà® ķ
Î¹ Î¿
à¦ ¹
² à±ĭ
ìĿ ¼
×Ļ× Ŀ
áĥĶáĥ Ĺ
Ġ ä½
à¤ ¡
Ã ¬
ìĦ ľ
ĠÏĢ ÏģÎ¿
Ġ M
à¦¾à¦ ķ
Ð¸ Ðº
Ġ i
§ à¸´à¸
à±įà° ª
áĥĺ áĥĲ
ÎŁ Î
ĠÎµ ÏĢ
Ġ et
ç» ı
æ ı
åįķ åıĮ
å® ŀ
åĬ Ľ
Ġå Ľ
è ¶
ä» ¶
à¹ī à¸Ļà¸
åº ¦
æĬ Ģ
ä» £
¦ Ĥ
à¹īà¸ §à¸
äº ĭ
æŀ ľ
åĮ ĸ
Ġå ®
å §
à¥įà¤ ¤
Ġà® ī
Ð¸ Ð¼
Ġ ÙĦ
ì Ľ
Ġà¦ Ĺ
áĥĲáĥ ®
Ãª n
à°¨ à±įà°¨
Îµ Î½
i ÄĻ
Į Ģ
ĠA G
å® ļ
ģ éĢŁ
è Ĳ
åħ ¥
å »
èĩ ª
ä¸Ń åĽ½
æ į
à¥ģ à¤
Ġ und
ĠÐ Ł
Ġ un
áĥ£áĥ ļ
Ľ à§ĩ
à¸£à¸µ à¸
Î® ÏĤ
ĠØ ³
ÑģÑĤ Ð²
Ä Ł
à° Ĺ
à¯ Ĥ
ì ĸ
æ Ľ
ä¿ ¡
è®¡ åĪĴ
è¿ ĩ
à¥įà¤ ¹
± à¹īà¸
Ïģ ÏĮ
à§ģ à¦
Ã´ ng
Ġáĥł áĥĿáĥĽ
ĵ à¸
Ð¾Ð ±
Ġà° İ
ĠÏĥ ÏĦÎ¿
Ġ P
ãģ «
Ġà¦ ļ
ê µ
p k
Ġå į
Ġà¤ Ĺ
à¹ĥà¸ Ĭ
à®¿à® Ł
k a
à°ķ à±įà°
áĥĲáĥ ¢
Î¿Ïħ Î½
ĠâĢ Ļ
à¸Ń à¸²à¸
ĠÙ ĩ
à¦¾à¦ ¦
Ġ N
ë Ĥ
ĠÐ ¡
Ġ q
Ġ× ©
å®ĺæĸ¹ ç½ĳç«Ļ
Ĥ à¸Ńà¸ĩà¸
è§ Ħ
¬ ¬
ç ķ
ä» ¬
æĸ ĩ
å¿ ĥ
æĪ ĳ
Ġà¤ª à¥įà¤°
áĥĲáĥ Ĺ
à§įà¦ Ł
à®¾à® ²
Ġ in
Ð¾Ð³ Ð¾
ì Ĥ¬
Æ ¡
à°¾à° ¯
Î Ĺ
Ïģ Î³
ĠÙ ģ
ì ²
Ïĥ ÎµÎ¹
ł à¸²à¸
áĥ£áĥ ļáĥĺ
Ġp o
ä¸ İ
è¿ Ĳ
Ġå ¹
åĵ ģ
è £
éĩ į
à¹ī à¸Ļ
æĬ ķ
åı ¸
å¥ ĸ
Ġ1 0
à¥ĩà¤ ¤
ĠÐ Ĵ
¯ à¦¼
ë ĵ
Ġ Ãł
à¤ Ĥ
Î¼ Î¿
c i
u s
¦ à°¿
á» §
à®© à¯į
Ð» Ñı
ĠØ ´
áĥ ĳ
Ł ¥
Ġå Ĳ
åī į
Ġà¤ħ à¤¸
ĠÏĦ Î±
à¸Ń à¸£
a l
ÐµÐ ¹
à¯įà® ²
à¸² à¸Ļà¸
áĥĲáĥłáĥ Ĺ
ìĿ Ģ
Ġà° ľ
Îĳ Î
ĠÎ ²
áĥĶáĥ łáĥ
çľ ĭ
åħ ³
Ĭ é¾Ļ
åĬ ¡
è¿ Ļ
åĮ º
à¤¿à¤ ¤
¨ à¸
Ð° Ñı
áº Ń
t en
à°Ĥà° Ł
ĠÏĥ ÏĦÎ·
ĠØ £
× ©
ĠÐ °
ãģ ¦
áĥĶáĥ ĵ
Ġà¸ Ħ
Õ «
ÉĻ l
à® ´
ĩà¸´ à¸Ļà¸
ÙĨ Ø¯
à¸Ļ à¹Į
Ħà¸ ¸à¸
è® ¯
åĬ ł
Ġ ä¸Ģ
à¨¾ à¨
Ġç Ķ
ç ³
èĢ ħ
åĲ Į
è ĭ
Ġåľ ¨
Ġà¤Ĩà¤¹ à¥ĩ
Ġà¤ķ à¥Ģ
Ġà¦¬ à¦¿à¦
ĠÄĳ á»
£ ¼
Ġ ÏĨ
Ä ĩ
Ñ į
Ġà¸ ŀ
Ł à¸
Ġà°ļ à±ĩà°
ĸ áĥĶ
Å Ļ
Ġà¸ Ĺà¸
Ġl e
ìĬ ¤
à¹Ħà¸ ¥
à¹ī à¸Ńà¸ĩà¸
à®¿à® ķ
Î» Î·
à§įà¦ ¬
Ġ ein
çŃ ī
à¤ §
Ð¸ Ð¸
« à¸Ļ
Ö Ĥ
Ã¼ n
à±ģà°¨ à±įà°¨
Î± ÏĤ
Ġv á»
áĥ ª
Ĺà¸ ¢
Ġì Ĺ
i on
à¸Ļ à¸²à¸
à°¿à° ¤
ĠÎ Ł
Ðµ Ðº
àµ į
à¥ĭà¤ Ĥ
à¦¾à¦ ¤
Ġà¸ ķ
Ġ en
ģ à¹Ģà¸
Ġáĥ ľ
a k
ĠØ¨ Ùĩ
à±įà° µ
Ġ ãĥ
à¯ģà® µ
Ġê ²
ĠÏĢ Î±
Ð¾ ÑģÑĤ
à¹ĥà¸« à¹īà¸
Ġv Ãł
æ° ĳ
Ġ Ĉ
2 01
è§ £
äº Į
èĤ ²
å± ķ
Ġà¤ķ à¤°
à¦¿ à¦°
× ł
áĥĿáĥ ķ
g o
Ġv ÉĻ
±à¸ ģà¸
ĠØ ¹
¸ à±įà°¤
Î¼ ÎŃ
Ð°ÑĤ ÑĮ
e l
ë§ Ī
à¸Ń à¸Ńà¸Ļ
à¸Ńà¸Ńà¸Ļ à¹Ħà¸¥
ªà¸ ¸à¸
ìĿ ¸
áĥ Ļ
à¯įà®ķà®³ à¯į
à¦ ľ
ĠÏĥ Îµ
å ķ
Īà¸ °à¸
éĴ Ł
éĢ ļ
ãĢ ĳãĢĲ
çĤ ¹
éĹ ¨
æľ Ł
app ä¸ĭè½½
éķ ¿
¯ åıĳ
à¤¾à¤ ¸
¡ à±ģ
r i
Ð° Ñģ
áĥĺáĥ ł
Ŀ ¼
à¸£à¸±à¸ ļà¸
z y
à¦ ĩ
à°Ĥà° ¤
ãģ ¨
Î½ Î·
áº §
Ġde r
ĠÐ ļ
ĠØ ¢
à¹ĩ à¸Ńà¸
ľà¸ ¹
1 8
ĠæĪ ĳ
äº Ķ
Ġæ ī
Ġæ ĸ
å¾ Ĺ
« à¸Ļà¸
èī ²
pk 10
à¹Ħà¸Ķ à¹īà¸
æĢ §
éģ ĵ
åĳ ĺ
éĩ ı
æ £
æ ¶
å¤ ĸ
ĠåĮĹäº¬ èµĽè½¦
äº ī
§ à¹Īà¸²
æķ °
å ¢
4 4
ä¿ Ŀ
å¼ ı
Ġçİ¯äºļ ag
Ġæ ŀ
Ġ à¥
Î¿ Î»
Ð¾Ð º
ÉĻ k
Ī ĺ
Ġà°µ à°¿à°
Ġ L
à® ķà¯įà®ķ
Ġ ä¸
åĪ ¶
§ à¹Īà¸²à¸
Ġag äºļæ´²
Ġ çļĦ
Ġag çľŁäºº
ç³ »
åĪĨ éĴŁ
Ġà¤¤ à¥įà¤¯à¤¾à¤
áĥ ¥
à¦¾à¦ ¬
Ù ī
Ð¾Ð ¶
Ġ Ïħ
Ã³ w
à¤¿à¤ ¯
Å ¾
à° ļ
l i
Ġ qu
ĠÎ »
Ġì ĺ
Ġà® Ĩ
Ġ× ŀ×
áĥĿáĥ ĵ
à¦¾à¦ ¸
Ð¸ Ð»
ĠØ Į
à¹Ħà¸¡ à¹Īà¸
èµ Ħ
Ġ á
å» º
Ġåĩ ¯åıĳ
ĠãĢ ĭ
ç ©
åĪ ©
Ġæ ĺ
Ĥ à¸Ńà¸ĩ
ķà¸ ±à¸
Ġé ĩ
èµ Į
æŃ £
è® ¾
Ġà¤ ļ
à±ģà° ¤
ĠÎ± Î½
ë¦ ¬
Ġáĥ ®
à¦¾à¦ ĩ
ĠÐ »
Ġ E
à¥Ģ à¤²
Ġà° ²
Ïī ÏĤ
Ġ x
à®£ à¯įà®Ł
à¦ Ĥ
áĥ ¨áĥĺ
ëı Ħ
n i
ĠÐ¾ ÑĤ
ÏĦ Î®
ģ à¹ĩà¸
æ ģ
éĹ ´
à¤¾à¤ ¯
Ġl Ãł
à°¨ à±ģ
Õ¸ ÖĤ
a q
Ġ F
Î¿ Î½
áĥķ áĥĶáĥļ
ì ĺ
ÑĤ Ð¾
ãģ ª
z ion
à®¿à® ¤
Ġà¤ ī
ĠØ ®
Ġáĥ ¤
rz e
Ġë §
m ent
Î¬ Î½
× ĵ
à¹Ī à¸Ļà¸
à°ķ à±ģ
Ġd ie
à®¿à®© à¯į
æĬ ¥
è¡ ¨
é Ĥ
Ġè¿ Ļ
åħ¬ åı¸
é ĥ½
à¤ Ĺ
Ġà¦ ī
i áº¿
ĠÐ½ Ðµ
Ħà¸§à¸²à¸ ¡à¸
áĥĺáĥ ª
Ïģ Îµ
d Ä±
ë ħ
à¤ ľ
n ÃŃ
ÙĪ Ø¯
Ġd o
à¸² à¸£
à±Ĩ à°²
Ġ r
Ð¸ Ð¹
ê ±
ÏĦ ÏĮ
à¸Ļà¸µ à¹ī
Ġà¦ ĵ
Ġáĥ ¥
à±įà° ļ
ìĭ ľ
ãģ Ł
Ľ à¸£à¸
à¤ ¶
Ø ¬
Ġà¦ Ń
à®¿à® ķà¯įà®ķ
ÑĢ Ñĥ
ĠÏĦ ÏīÎ½
áĥĿáĥ ļ
Ġì ĭ
à°² à±ģ
à¹Īà¸ §à¸
Õ¡Õ ¶
a t
æĥ ħ
æı Ĳ
ç Ħ
Ġå° Ĭé¾Ļ
ä½ į
Ġ201 9
é Ķ
åĨ ħ
æ° ´
à¥ Ĥ
Ã¡ c
Ïĥ Îµ
Ã ¨
Ð¸ Ð²
ª à¸´
à¦ £
o l
à°ª à±įà°ª
Ġáĥ ©
ë °
à¯įà® ³
à¹Īà¸ ĩ
× ¢
k i
áĥĿáĥ ł
Ġ Ñį
Î» Îµ
à¹Ħà¸¡ à¹Ī
åŁ İ
è¯ ´
ĀĀĀĀ ĀĀĀĀ
Ġà¤ Ń
à°² à±ĭ
í Ĭ
d o
Ġ K
à§ĩà¦ ķ
áĥ ¬
Î¯Î½ Î±Î¹
Ġì Ħ
à¸µà¸ ¢
Ø§ Øª
å¼Ģ æĪ·
ç¨ ĭ
ç Ŀ
è Ĭ
å¤ §åıĳ
à© Ģ
à¸µà¸ ¢à¸
å° Ĩ
æīĭæľº å®¢æĪ·ç«¯
çł ģ
å½ ±
é ļ
ç® ¡
åı ·
Ġ ć
à «
Ġ1 2
åį ļ
âĢ ľ
åı £
ä¸ ĩ
çĽ ´
à¸Ńà¸ ¢à¸
ãĢ ģ
åı Ĭ
Ġ1 1
åħ ĥ
Ġå¤§åıĳ å¿«ä¸ī
Ġ ä¸į
é ª
æ ¡
åĪĨ å¿«3
Ġæ Ĺ
é ĵ
2 8
è ¢
ç ±
çī Į
å· ŀ
ç Ī
å Ļ
æĶ ¿
à¸Ń à¸Ļà¸
à© ĩ
æ¬ ¡
à¹Ģà¸ Ĥ
ç ´
å¤ ĩ
à¤ Ł
ĠÐ¾ Ð±
Ġo l
à®¾à® ¤
à°¿à°ķ à°¿
Ġd es
n e
áĥĶáĥĳ áĥ¡
Ġ H
Î» Î±
à§ ľ
ìķ Ī
ÐµÐ» ÑĮ
à¸Ńà¸¢ à¹Īà¸²à¸
à¸£à¸±à¸ ļ
æĺ İ
éĩ Į
åĲ Ĺ
åĲ į
à¤¿à¤ ²
ì ¹
à¯įà® µ
Æ°á» Ŀ
à¦¿à¦ ²
ÎĻ Î
Îº Îµ
Ø§ Ùħ
à¸Ļà¸ ±
Ġæŀ ģéĢŁ
åħ ĭ
Ġ áł
¡ à¸µ
æľ į
±à¸ ĩ
à¥įà¤ Ł
à°¿à° ¯
ĠáĥĲáĥ Ľ
ë¥ ¼
Ðµ Ñģ
Ġp er
× Ĺ
y ch
ĠÎµ Î¯Î½Î±Î¹
áĥĿáĥ Ĵ
Ġà®ļ à¯Ĩ
Ġ ÑģÑĤ
Ġ G
ÉĻ m
¥à¸ °
Ġà¤¹ à¥ĭ
à§ģ à¦²
ÙĪ Ø±
Ġáĥĵ áĥĲáĥ
ĠÏĢ Îµ
íķ ´
Ġ es
Ð¸ Ñĩ
Ġth á»
d i
à®² à¯į
å¼Ģ å¥ĸ
äº ¤
çİ ©
¥ ¿
é ©
é¢ ĺ
ĠAG çİ¯äºļ
éľ ¸
æ º
æ Ĵ
ª à¸²à¸
é¡ µ
à¹Ģ à¸£à¸
Ġï¼ Ł
à¹Ģà¸Ľà¹ĩ à¸Ļà¸
æĢ İ
åº Ķ
à¤¾à¤ Ĺ
à°Ĥà° ¡
ãģ Ļ
áĥĺáĥ ¢
Ð°Ð ´
a m
Î ¡
Î¯Î± ÏĤ
Ġê ³
à¤¾à¤ ®
à§ĩà¦ ²
à°¿à° ª
áĥĿáĥ łáĥ
Ï Ī
à® ª
ÐµÐ ²
Ġ W
ĠØ§ÙĦ Ùħ
Ã ½
ĠØ¨ Ø§
à§ĩà¦ ¶
à±įà° ¸
ë ³
Î¿Ïħ ÏĤ
Ġ× ķ
à¨ ¿
èĢ ĥ
à¤¾à¤ ľ
Ð¾Ð» ÑĮ
áĥĵ áĥĲ
u y
ë ¶
y m
è· ¯
çī ©
ç ²
è´ ¹
å £
æ¯ Ķ
é »
à¤ ³
Ġà¤ķ à¥ĭ
ĠÎ ĵ
§ à§
à¯ģà® ®
à±įà° ®
d er
ÏĥÎ· ÏĤ
d ir
ĠáĥĴ áĥĲáĥĽ
à§ģ à¦°
c e
ĠÐ¿ Ð¾
à± Ĥ
ì £¼
à¦¾à¦ ľ
ĠÎ± Ïħ
åĻ ¨
à¥įà¤ µ
à° ¹
ĠÙ ¾
íĬ ¸
Ġt á»
áĥĺáĥ Ļ
Ġl es
à®¾à® Ł
ĠÐ Ŀ
ï¿½ï¿½ ï¿½ï¿½
Ïģ Î·
à¦ ¶
Ġc on
à° ľ
í Ļ
l Ä±
«à¸ ¥à¸
Ð¸ ÑĢ
× §
h r
Ġáĥ Ŀ
éĴ ±
æİ ¥
è¯ ķ
Ġà¤Ĩ à¤£
ÙĬ Ø©
c j
ë ł
Ïģ Ïī
à±ģà°² à±ģ
à¸² à¸Ļ
à ¶
Ġà¤¸ à¥ĩ
à§įà¦ ·
Ľ i
i z
ÐµÐ ³
ãģ Į
à¯ģà®¤ à¯įà®¤
à¸£ à¸£à¸
ĠÎ ¬
áĥĺáĥ ķ
à°¾à° Ĥà°
Ø§ Ø¯
Ġì §
¥ à¹ĩà¸Ńà¸
à¹ ģ
ĠÐ ł
n ie
ll a
Ġà¦ª à¦°
Î ¤
ĠÏĦ Î¹
áĥłáĥ Ĺ
ĠÐ ľ
à¯įà® ©
t er
Ķ à¹Ģà¸
Æ°á» £
Ġ. ..
è£ ħ
æµ ·
çī ¹
ç» ĵ
à¥įà¤ ·
à°¾à° ¤
ÉĻ y
ÐµÐ½ Ð¸Ñı
Î Ŀ
ĠÎ¸ Î±
ĠìĿ ´
ķ à¸´à¸
à¯ģà® Ł
áĥĶáĥ ¢
Î¹ Î¬
Ġà¦ı à¦ķ
an t
à¹ĥ à¸Ļ
Ð¸ÑĤ ÑĮ
à°¿à° ²
åĪĨ åĪĨå½©
à¹ģà¸ ¥
å ł
Ġ ?
æĪ ĺ
ķ à¹Ī
à¹Ħà¸ Ľà¸
à¤¾à¤Ĥà¤ ļ
ÛĮ Ø¯
u f
Ġà¤ ĩ
× ¤
Ġn ie
ĠÏĥÏĦÎ· Î½
Ä į
áĥĺáĥ Ľ
Ð¸ Ð·
Ġë Ĥ
à®² à¯įà®²
i m
à°¿à° °
áº¥ t
ĠÏĦÎ¿ Î½
Ġqu e
à¦¤ à§ĩ
ĠÐ ŀ
áĥĶáĥ Ĵ
ëĭ Īëĭ¤
Ø ·
d ÉĻn
à° ¬
åº Ĩ
æī Ģ
Ġ àª
æĦ ı
éĢ ī
çĽ ¸
à¤Ĥà¤ ¤
Ġw y
ĠÎ Ĺ
Ð¾Ð ·
c a
Ġà®ĩ à®°
e it
Ĺ à¸²à¸
Ġáĥ ¢
à¤¨ à¥ĩ
áº¡ i
Ġà¦ ²
Ð°Ð» ÑĮ
ãĥ ³
Î± Ïĥ
à°Ł à±įà°Ł
èµ ·
äºī éľ¸
åķ Ĩ
à¤² à¤¾
v e
ĠÐ² Ñĭ
Î¸ Î·
à¸Ńà¸Ńà¸Ļà¹Ħà¸¥ à¸Ļà¹Į
à¹Ħà¸ Ĺà¸¢
·à¹Ī à¸Ńà¸
Ġà¦ ¥
à°Ĥà° ²à±ĭ
áĥķ áĥĺáĥ¡
à®Ļ à¯įà®ķ
Ø ®
Õ¥ Õ
a ÅŁ
ÅĤ a
s ch
Å ¡
ç ĥ
ç» Ł
Ķ à¹īà¸§à¸
à¹Ħà¸ Ľ
Ġè Ģ
Ġà¤ ı
× ŀ×
Ä ĥ
ĠÎ´ Î¹Î±
Ðº Ð°
áĥĶáĥļ áĥĺ
i o
à°¾à° ®
Ġ Ã©
ìŀ Ĳ
Ðº Ð¸
à°¾à° Ł
à¦ Ń
à®± à¯įà®±
áĥ ¨
ÖĢ Õ
Ġ il
Ð°Ð ±
n a
Ġå ¾
ç ¼
à¨ °
à¤¾à¤¹ à¥Ģ
ĠÂ »
ìľ ¼
à¹ģà¸ ¥à¸°à¸
Ġ I
Ġà° Ī
ĠÏĦÎ¿Ïħ ÏĤ
Ð½Ñĭ Ðµ
Ġg i
ĠáĥĴ áĥĲáĥľ
ãĤ ĭ
à¦ ļ
ģà¸±à¸ ļà¸
é ħ
Ġå ¥
æ ¼
ä¼ ł
ä» ĸ
áĢ ¹
Ġï¼ ģ
æĢ »
Ć Ĉ
çĲ ĥ
µ à¸
éĿ ŀ
è į
é¦ ĸ
çĽ ®
Ġà¤ ĺ
à° £
ĠÂ «
ĠÐ µ
Õ¸ÖĤ Õ
ĠÃ §
t y
áĥĲáĥ Ĵ
Î¹Îº ÏĮ
Ġ R
Ø µ
ë Ŀ¼
æľĢ æĸ°
Ġå Ĭ
1 2
Ġà¤µ à¤¿à¤
à¦¨ à§įà¦
Ġc á»§
Î¿ ÏĤ
áĥĺ áĥĲáĥľ
Ð½Ñĭ Ñħ
à°¾à° ķ
Ĭà¸ ±
Ġ× ¢
ģ à¸²à¸
Ġà® Ĵ
à¦ §
ìĽ Ĳ
Î¿ Î¹
ä½ĵ èĤ²
åį ģ
ç ¬¬
ĠåĪ Ĩ
è ĥ
ä¸Ģ ä¸ª
Ġà¤Ĩà¤£ à¤¿
b er
à ·
àµį à´
Ġ à´
Ġà¤ Ķ
à°ķà±įà° ķ
Ġë ĭ
áĥĺáĥ Ŀ
Ð¸ Ñħ
Ġs iÄĻ
ÏģÎ¹ Ïĥ
à¹ĥà¸Ĭ à¹īà¸
Ġm Ã¼
ĠØ§ Ø²
o v
¡ à¹Ģà¸
Ġe l
Ġà¦¸ à¦®
Î¸ Îµ
áĥ ŀ
Ġc Ã³
ĠÙ Ĭ
¡à¸ ŀà¸
ÐµÐ ·
à¸£à¸²à¸ Ħ
Ġê ·
Ġ V
© à¸
Ġà° Ń
ĠÎ Ŀ
ou s
à®³ à¯į
ÏĥÎµÎ¹ ÏĤ
áĥ ¦
o ÅĽ
ÉĻ h
3 6
Ġæĸ °
t t
Ġè ¯
å ŀ
á Ī
å± Ģ
à¤¾à¤Ĥà¤ ¨
Ð¾Ð ¿
Ġà¦¹ à§Ł
Ġà¸ ģà¸
Ġà° ¶
Ġà¤Ķ à¤°
Îº Î±
Ħà¸£à¸ Ķà¸´à¸
à¹Ģà¸ ¥
× ŀ
u m
áĥ £
Ġì Ĥ¬
à±ģà° °
Ġà¸ Ħà¸
è¢ «
Ġ20 20
æµ ģ
æ ·
æ ¢
âĢ Ŀ
æİ Ĵ
äº Ľ
è Ļ
æµ ĭ
Ġç »
å ¦Ĥ
à¥įà¤¯à¤¾à¤ ļ
Ð°Ð ¹
ĠÎ± ÏĢÎ¿
Ġa u
Ġà¦ ĩ
Ħ à¸£
à®¿à® µ
áĥĺáĥ ļáĥĺ
Ð½Ñĭ Ð¹
Ġ à¸Ńà¸
Ġà° ¹
ÉĻ b
e m
à¹Ĥ à¸£à¸
ãģ ¯
ĠØ¨ Ø±
Î¹Îº Î®
Ġcá»§ a
à¦¾à¦ ¹
ĠâĢ ķ
ç ģ
Ġà¤¹à¥ĭ à¤¤
¥à¸ ĩà¸
Ð¸ Ñģ
à°° à±į
áĥĲáĥ ĺ
ì Ĩ
à¹ĥà¸« à¹ī
à¯ģà® ±
Ïģ Ïĩ
ar e
j Äħ
à§ĩà¦ Ľà§ĩ
ĠÙģ ÙĬ
ÑĢ Ð°
Īà¸ ±à¸
Ġáĥ ª
Ĥ °
lÉĻr in
à°¾à°² à±ģ
ç¤ º
éĻ ¢
çĿ Ģ
åħ ¶
ä¸ ľ
æĢİ ä¹Ī
ķ à¹Īà¸
ç§ į
Ġ2 5
æł ·
åĪ Ĺ
åľ° åĿĢ
é¢ ĳ
æĽ ´
èģ Ķ
è ¥¿
ĠagåĽ½éĻħ äºļæ¸¸
Ġ0 2
ç§ ĳ
ĠãĢ Ĭ
à¹Ģ à¸£
åĽ ŀ
à¤¾à¤ ł
ÏĢ Î±
Ġë ª
Ã³ n
ĠÐ Ĳ
an s
Ġà¦ «
ĠÎ ®
Ġà¤ķ à¤¾
áĥĲáĥ ¨áĥĺ
à°Ĥà° Ĺà°¾
Ð½ Ð¾Ð¹
e i
Ã º
à®¾à®° à¯į
ì² ľ
ĠÙħ ÛĮ
Ĭ à¸²à¸
ë ŀ
× Ľ
à¤¾à¤ £
à§ ¦
ÏĢ Îµ
Ġz a
c o
ĠÐ Ķ
Ġ Ã¼
Ġà§ ¨
ĠÂ Ń
áĥĺáĥ £áĥ
¥à¹ĩà¸Ńà¸ ķ
ļà¸²à¸ Ĺ
¢ à¸²à¸
à§ ĥ
Î¼ ÏĮ
Ġà®ª à¯ĭ
Ġ ÑĦ
ĠÄ Ĳ
Ġp our
Ġà¤ª à¤°
Ġ. .
à°ļ à±įà°ļ
ë ©
Ġà¸ Łà¸£à¸µ
à¹Īà¸ ĩà¹Ģà¸
rz y
ĠÎ´ ÎµÎ½
Ġáĥ §
d en
Ð° ÐµÑĤ
§à¸ ±à¸
Ġà¦ ĸ
Ġh á»
à®© à¯įà®±
åİ »
å¾ Ī
è§Ĩ è®¯
Ġ2 2
Ġ1 9
à¸Ńà¸ ļà¸
Ł ³
åı ª
Īà¸²à¸ ģà¸
ç¾ ¤
æ ¨
« à¸£à¸
çī ĩ
« à¸²à¸
à¸Ńà¸¢à¸ ¹
èĢ ģ
éĹ ®
7 8
Ġæ Ŀ
Ġè ®
æº Ĳ
88 8
à¹īà¸ §
å¸ ¸
Ġéĩ į
çº §
ä» »
«à¸ ¡à¸
æĹ ł
è Ħ
æľ ¯
è½ ¯
æķ Ļ
æĮ ģ
æ´ »
Ĵ áŀ
Ġä½ Ĩ
ĠãĢ ĳ
çľ ģ
à¥Ģ à¤ļ
Ġch e
Å ¯
a z
ĠÎµ Î½
à°¾à° µ
ĠÙħ ÙĨ
áĥļ áĥĺáĥ¡
Ð½Ð¾ ÑģÑĤ
a u
à§ Ĥ
Ġê ¸
à¹Ģà¸ ¥à¸
¾ ³
Ķ à¸µ
ä» ·
Ġå¤ §
ç ¡
å½©ç¥ ŀ
å¯ ¼
å ĸ
Ġag æĹĹèĪ°åİħ
å¼ º
Ġ1 3
åŁ º
æ »
Ġh g
çĦ ¶
è® º
æĶ ¶
Ġag èµĮ
å¾ ĭ
Ġé Ģ
Īà¸ °
å§ Ķ
ä¼ ģ
5 0
åĢ ¼
è¿ ĺ
æĴ Ń
æł ĩ
æ Ĳ
Ġ !
å ²
áŁ Ĵáŀ
º «
ģ à¹ĩ
Ġ ä¸Ń
ä½ ¿
æį ®
Ġï¼ Ľ
è® °
åį Ĺ
201 9
ç ¦
å° ĳ
Ġà¤ ĸ
à®¿à®¤ à¯įà®¤
à±ģà° µ
Î´ Î¿
Ġb ir
Ġ u
ĠÐ¸ Ð·
Ġáĥŀ áĥł
Ïĥ Î±
× Ŀ
Ġà®ħ à®µ
Ġì ¹
Ġç ľ
ç» Ħ
å· §
åĪĨ æĹ¶æĹ¶å½©
áĢ¹ áĢ
à¥įà¤¯à¤¾à¤ ¤
áĥĲáĥ Ļ
ÛĮ Ø±
à¦Ł à¦¿
Ġp ar
Ã £
ĠÎ¿ Î¹
Ġë ³
c k
à° ³
à¤ ¬
ÐµÐ½ ÑĤ
Ġáĥĺ áĥ¡
à®¾à®© à¯į
Å¼ e
ĠÎµ Îº
à¯ģà® ³
Ð½ Ð¾Ð³Ð¾
à±Ī à°¨
Ġà¤¸ à¤Ĥà¤
s t
zion e
Ġì Īĺ
ĠÏĦÎ¹ ÏĤ
qu e
Ġ Ú¯
ÐµÐ½ Ð¸Ðµ
áĥ£áĥł áĥĺ
ÙĬ ÙĨ
o ng
åĲ ĳ
ä½ ł
å¥ ³
à¤¿à¤ µ
ĠÏĥÏħ Î½
à®¾à®² à¯į
à§ĩà¦ ĩ
Ñĥ ÑĤ
Ã¼ r
ĠáĥĽ áĥĿáĥ
Ġs e
à° §
à¤² à¥ĩ
Î¼ Î¬
Ġà¦Ĩ à¦®
ë ¬
Ġp rze
ĠÎ Ĵ
Ġáĥ ļ
Ġ ãĤ
à¦¾à¦ ª
ĠÐ´ Ð»Ñı
ĠT h
à°¿à°Ĥà° ¦à°¿
Ġà®ķ à¯Ĭ
Ġ× Ľ
Æ ı
Ø§ Ùĩ
Ġd a
Ïģ ÎŃ
å¸ ĥ
Ġå ¯
Ġà¤ķ à¥ĩà¤²
áĥĲáĥ ļáĥĺ
Ð°Ð ¶
à¤ ¼
Ľ à¸£
Ġê µ
l ich
§ à¹ĩà¸
t re
á» ĭ
à¹Ģà¸ ģà¸
Ġà¦ Ľ
Ïģ Ïİ
à±ģà° Ĺ
s z
áĥĶáĥ ¥
Ñİ ÑĤ
à¯ģà® ¨à¯įà®¤
ĠÎŃ Ïĩ
éĻ Ĳ
à¤² à¥Ģ
à° Ń
à¸£à¸ §à¸
áĥĽ áĥĲ
Ø ¶
ì Ĥ°
à§įà¦ ª
ìĸ ´
åŀ ĭ
å¸ Ī
å ¦
à¸µ à¹Īà¸
ģà¸ ±à¸Ļ
6 8
ä» Ģ
æł ¼
ķ à¸²à¸
å·¥ ä½ľ
ç ĸ
Ġå¤ ©
Ġå ¿
å½ ĵ
à¹Īà¸ §
à¸Ń à¸Ńà¸
Ġ1 8
Ġes t
ç¤ ¾
ä½ ķ
Ġag è§Ĩè®¯
æİ ¨
Ġ áĢ
à¹ĥà¸ «à¸
Ġå ¼
å¤ Ħ
è¯ ·
à¹ģà¸ ļà¸
è ¨
åı¯ ä»¥
Ġà¤¯ à¤¾
à°¾à° ¦
ĠÎ± Î½Î±
e y
es t
Ã¬ nh
Ġà¤ Ŀ
Ġs u
ĠÎ¼ ÎŃ
Ñĥ Ð´
à°¿à° Ĺ
áĥĺáĥ łáĥ
à¯Īà® ķ
ĠØ ¬
d e
à§įà¦ ¥
iy y
Ġì ¶ľìŀ¥
í Ķ
Ġag å¹³åı°
æĬĢ å·§
áŀ ¶
ķà¸±à¸ §
4 5
7 0
åºĨ æĹ¶æĹ¶å½©
æĥ ³
è½¯ ä»¶
Ļ Ģ
çķ Į
åĮ Ĺäº¬
ĸà¸ ¶à¸
Ġ æľī
ä¸ ĸ
æĶ ¾
ä¸ ¤
à¹ī à¸Ńà¸ĩ
å· ²
±à¹īà¸ ĩà¸
Ġ ą
ĠåĽ ½
Ġ0 1
ç« ĭ
æ Ł¥
Ĥà¸ ¶
å± ±
æĪ ĸ
à¥ĩà¤ µ
ĠÐ ¢
ÏĦ Î¯
áº ¯
×ķ× ¨
Å Ħ
áĥĶáĥĳ áĥ£áĥļáĥĺ
à°¨ à±į
ÑĨ Ð¸
á ½
Ïĥ Î¹
à¤¾à¤ł à¥Ģ
à¦¿à§Ł à§ĩ
lar Ä±n
à¯ģà®ķà¯įà®ķ à¯ģ
Ð° ÑģÑĤ
ÏĦÎ± Î½
ow an
áĥĶáĥĳ áĥĺáĥĹ
ie r
¹ Ħ
Ġà¦ Ł
Ã¢ n
z a
ĠØ§ Ø³Øª
Ġj e
Ġà° ı
Ð¾ Ñĩ
Ġà®İà®© à¯įà®±
ë§ Į
Ġà¦¬ à¦²
Ġ ]
à¸Ļà¸µ à¹īà¸
æģ ¯
å ĭ
à¤° à¥Ģ
ÏĨ Î¿
ÙĦ Ùī
áĥĲáĥ ĸ
Ġd u
Ġà° Ł
ĠÐ ¶
Ġà¦ħ à¦¨
ĠÄ °
ĠÎ Ļ
g en
iá» ģ
Ġìŀ Ī
ãģ ¾
à®¾à® µ
es s
áĥ£áĥ łáĥ
Ġç İ
Ġ2 3
±à¹īà¸ ĩ
è ±
æī ĵ
åĳ Ĭ
Ġ1 5
à¸² à¸£à¸
è´ ¨
è º«
Ġ2 1
Ġ0 0
Ġæ Ń
æ± Ĥ
åĨ Ľ
æ° Ķ
Ġç §
à¤¾à¤ ª
Ð¸ Ð´
Î Ľ
ĠÎ ¹
à°¿à° µ
Ġg Ã¶
áĥĲáĥ ¨
Ðµ ÑģÑĤ
ci Ã³n
Î ł
ĠÎµÏĢ Î¹
á» ¯
Ġà§ §à§
Ġà° Ĵ
× ĺ
Ġà®ħ à®¤
Ġáĥ¡ áĥĲáĥĽ
k u
åģ ļ
æ² ¡
Ĺà¸ ³
ä¾ Ľ
è° ĥ
Ġå Ĩ
Ħà¸¸à¸ ĵà¸
Ĥ à¸²à¸
ç² ¾
Ġ >
åıĳ å±ķ
à¨¿ à¨
Ġ +
Ġà¤ «
à¦¿à¦ ¬
Ġa l
Ã© s
Ġ Û
Ø± Ø¯
Î´ Î±
áĥĶáĥľ áĥ¢
Ð¸ ÑģÑĤ
í ĸ
à¦ ¯à¦¼
èĢ Į
ç ĭ
çĻ ¾
Ġç Ľ
ç Ł¥
åį İ
Ć ć
Ġ à¸Ļ
į à¸
é¡ ¹
æŃ ¤
P P
Ľà¹ĩ à¸Ļà¸
é£ ŀ
ä»Ģ ä¹Ī
æ Ĥ
æĺ Ł
æ£ ĭ
20 20
åł Ĥ
åİ ¿
åĪ Ľ
å¤ ´
åħ ī
å Ķ
·à¹Ī à¸Ń
é¢ Ħ
è½ ¬
·à¹Ī à¸Ńà¸ĩà¸
Ġà¤ı à¤ķ
Ïĥ ÏĦÎµ
Ġà®ļà¯Ĩ à®¯
i b
áĥ® áĥķ
Ġà°ļ à±Ĩ
ĠÐ ĺ
Ù İ
Î· ÏĤ
h o
ĠÙ ĥ
Ġà°¸ à°Ĥà°
ĠÑĩ ÑĤÐ¾
is t
Î»Î» Î¬
à¥ĩà¤ ļ
j e
á» ±
ÏĦ ÎŃ
à¯įà® ®
áĥĲáĥ ¥
Ġ ÅŁ
ÏĢ Î¿Ïħ
¯ ¸
à°¾à° Ĺ
Ġ0 4
Ġ ä¸ŃåĽ½
Ġ U
Ġå½©ç¥ŀ äºīéľ¸
±à¸ ļà¸
åĬ ŀ
é£ İ
è¿ ĳ
à¤ Ń
Ú Ĩ
Ðµ ÑģÐº
Î»Î¿ Î³
áĥ ĸáĥĶ
à®¾à® ¯
Ķà¸ ¢
à¤¾à¤ ¦
m e
Îµ ÏĦÎ±Î¹
à°¿à° ¸à±įà°¤
Ġë ĮĢ
w a
Ġde l
Ñĥ Ñİ
à®¾à® ³
Ã ²
Ġ× Ļ
Ġå¤§åıĳ æĹ¶æĹ¶å½©
æĸ ¯
æĮ ĩ
ç ı
èĤ ¡
à¤¿à¤ Ĥà¤
ÏĦÎ¹Îº ÏĮ
ĠÃ ¶
áĥĺáĥ ĸ
¡ à°¾
ĠØ ¥
à¦ ¥
à®Ļ à¯įà®ķà®³
Ġì ĥ
ĠÐ¿ Ð¾Ð´
Î¼Î± ÏĦÎ±
Æ°á»£ c
à±įà° ¦
ir e
ĠØ Ń
a ng
áĥĶáĥ Ŀ
k o
Î ľ
ĠÎŃ Î½Î±
Ñı ÑĤ
ë ª
à§ĩà¦ Ľ
i ÅŁ
ä¸ ĵ
éĢ ł
Ġ2 4
3 0
è§ Ĥ
à¹Ģ à¸£à¸²à¸
èĲ ¥
Ġæĺ ¯
åı ĺ
1 5
ģà¸±à¸ ļ
i ng
Ġà¹ģà¸ ¥à¸°à¸
çĶµ æ¸¸
à¥ģ à¤°
à±ĩà° ¦
Ġà® °
Ñĥ ÑĢ
ÏĦÎ¹Îº Î®
Ġáĥ¡áĥĲáĥ ¥
áĥĺáĥ ¨
ë ĮĢ
c y
ich t
Ġà¤¹à¥Ī à¤Ĥ
ĠÃ ¨
/ /
ĠèĢ Į
èģ Į
Ġ1 6
åħ ±
æĶ ¹
è§ ģ
Ķ à¸µà¸
éľ Ģ
3 8
åı Ĺ
è§Ĩ é¢ĳ
å¢ ŀ
à¥ ī
Îº ÏĮ
Ġà®ª à¯Ĩ
Ġun e
Ä± r
Ð°Ð ¿
Ġp ÅĻ
à°¾à° ľ
í ĺ
ĠØ§ ÛĮÙĨ
áĥĿáĥ ¤
× ¡
ÏĦÎ¿ ÏĤ
Ġà¦ķà¦° à§ĩ
d y
à°¿à° ®
ĠÑĢ Ð°Ð·
ãĤ Ĵ
g e
Î» ÎŃ
ê³ ¼
à®¿à®Ł à¯įà®Ł
d an
áĥķ áĥĶáĥľ
à°Ĥà°¦ à°¿
á» ¥
Ġç ¬¬
åħ į
ä¼ ĺ
áŀ¶ áŀ
Ħà¸§à¸²à¸ ¡
Ġ1 7
æ£ĭ çīĮ
å¾ ·
åħ Ī
9 8
ľà¸¹ à¹īà¸
èĩ ³
åĲ Ħ
æ¡ Ī
åĬ ©
åİ Ł
à¤ķ à¥įà¤·
Ġp or
ĠÏĮ ÏĦÎ¹
Ðµ Ñĩ
áĥ ĸ
Ġà®µ à®°
à¦¬ à§ĩ
Ġà°¤ à±Ĩà°²
Ġ ä»¥
¾³ éĹ¨
è İ
ç© º
æ Ł
Ġç º
æ ®
Ġå ¦Ĥ
à¥ĩà¤ ķ
ê² Į
Ð¾Ð² Ð°Ð½
Ġ an
Î¹Îº Î¬
à±Ĥà° °
ow a
á» ©
ĠÙ Ĥ
Ġà®Ĵ à®°
à¦¿à¦ ¸
z ÉĻr
Î¼ Î²
Ġáĥ¨ áĥĶáĥĽ
Ġà°ķ à±Ĭ
ĠÐ ĳ
Ġ re
Ġë ¶
in in
Ġ ï¿½ï¿½ï¿½ï¿½
Î· Î½
Ñĥ Ñĩ
è¾ ¾
à¥ĩà¤ ¶
Î ¥
Îº Î¿
á»Ļ t
ĠáĥĶ áĥłáĥĹ
à±įà°² à±ĭ
à¦ķ à§ĩ
ow e
Ġ× ŀ
Ġp l
Ġd as
Ð½ Ð¸Ðº
Î» Î¬
í Ĩ
Ġk i
ll e
Ġà°ħ à°¨
ĠÚ© Ùĩ
à¦ ĸ
ĻĢ â
A PP
Ġ1 4
çİ ĩ
è® ®
éĢ ģ
è¯ ģ
ģà¸ ¥à¸
ç ħ
è Į
ç Į
à¥ ĥ
à®¾à® ®
ÏĦÎ± ÏĤ
ÙĬ Ø±
ĠÑģ Ð²
áĥĲáĥł áĥĺ
ê± ¸
ìł ķ
Î ©
Î» Î®
u l
à®³ à¯įà®³
áĥ ¤
Ġo d
ìķĪ ë§Ī
ìĦ ±
ĠÐ± Ñĭ
à° ·
ĺ à¸
Ļ à§įà¦
ĠÎ §
æ² »
é¢ Ĩ
ä¼ģ ä¸ļ
Ġ0 8
ç« ŀ
00 0
à¤§ à¥įà¤¯
à¹ ģà¸£à¸
£áĥ ļ
in dÉĻ
ĠÎº Î¬
à°¾à°¨ à°¿à°ķà°¿
à¦ ĵ
m a
Ġê· ¸
Ķà¸´à¸ ¡à¸ŀà¸
ł à¸
Ġc Ã¡c
áĥĺ áĥĺáĥ¡
Ïĩ Îµ
à¤¿à¤ ı
Ġn e
à®¿à® ªà¯įà®ª
§à¸ ±à¸Ļ
Ð°Ð ³
× Ĵ
Ķà¸ ¥
ĠØ§ÙĦ Øª
Īà¸²à¸ ģ
c ie
ĠÎµ Î¾
Ġm it
« áĥļ
à§ĩà¦ ĸ
ĠÐ¿ÑĢ Ð¾
à¸Ńà¸£ à¹Į
à°¾à° ¸
æĦ Ł
ĀĀĀĀĀĀĀĀ ĀĀĀĀĀĀĀĀ
áĢ ¬
åĩ Ĩ
ä» İ
æĭ ¿
åħ ļ
Ġä» ĸ
ī à¸
ĳ åħĭ
à¸´ à¸Ļà¸
ç½ĳ ä¸Ĭ
Ġ =
ä¹ ¦
b et
åı Ĥ
tt p
Ġå ·
à¥įà¤ ¥
Ġl os
Ġ íķ
ÛĮ Ùħ
Ïĥ Î¿
Ġà®µ à¯ĩ
Ġkh Ã´ng
l ÉĻ
ÐµÐ ±
à±Ģ à°¸
Ġ O
à¦¨ à§įà¦¤
ãģ ĭ
ÎŁÎ ¥
Î¿Ïħ Î¼Îµ
áĥĲáĥłáĥĹ áĥķáĥĶáĥļ
Ïģ Î®
Ġáĥ ĸ
Ø§ Ø¨
on t
à¯ģà® ªà¯įà®ª
åĵ ª
Ġäºļæ¸¸ å®ĺç½ĳ
à¹īà¸² à¸Ļà¸
ï¼Į ãĢĳãĢĲ
æĭ Ľ
¥ à¸´à¸
Ġ #
æŃ ¥
æĪ ¿
Ħ à¸Ļà¸
Ġà¨ ¦
±à¸ ļ
¡à¸²à¸ ģà¸
à¹Īà¸ ¡à¸
Ġà¤Ŀ à¤¾à¤²
Ġà¦ľ à¦¨
Ð½ Ð°Ñı
à°¾à°¯ à°¿
Îµ Ïħ
Ġt o
Ġp ro
Ġ Ñħ
Ïĥ ÏĦ
ìĹĲ ìĦľ
Ġà¤ĩ à¤¸
¹à¸ ģà¸
ç± »
á ī
Ġæ Ĭ
¢ à¸Ļ
Ġ [
æķ Ī
à¹ĥà¸ Ī
à¸£à¸ ¹
ķ à¹īà¸Ńà¸ĩà¸
Ĺà¸ ³à¸
Ġå ¸
Ġ: //
à¹Ģà¸ Ķ
à¸Ńà¸ µà¸
Ġà¤® à¤¹
Ġz u
Ġch o
ĠáĥĶ áĥ¡
Ġà®ĩ à®¨à¯įà®¤
Ġ 99
å¹ ¿
æ ¹
à¹Ģ à¸£à¸µà¸
¥ à¸²
å® ¹
ç½ ®
à¤¤ à¤¾
ĠÐ² Ñģ
ÎµÎ¹ Î±
ÙĪ ÙĨ
Ö ģ
Õ¸ Õ
dÄ± r
áĥĺáĥ¡ áĥ¢
à§ĭ à¦¨
n o
ÎŃ Ïģ
à°¾à° ¡à±ģ
ĠÐ¿ ÐµÑĢ
ª à¯į
Ãł y
ĠãĢĳãĢĲ ï¼ĮãĢĳãĢĲ
åĪ «
Ġæ ¯
à¤¿à¤ ¸
×Ļ× ª
áĥĲáĥ ¤
ĠÎ Ľ
Ġà° «
Ġs p
ĠÏĢ Î¿Î»
i k
Ġà¦¬ à§įà¦¯
ëĵ ¤
Ð¸Ñĩ ÐµÑģÐº
áĥĿáĥ ª
ãģ £
6 0
Ġn et
Ġéĩį åºĨæĹ¶æĹ¶å½©
æľį åĬ¡
ĠåĬ ł
çł Ķ
ĠãĢĤ ãĢĤ
¡à¸² à¸£à¸
æ¸¸æĪı å¹³åı°
é© ¬
å¸ ¦
e d
Ġ3 0
Ĭ à¹Īà¸§à¸
Ġåı ¯
à¤¾à¤ ³
ÏĦÎ¹Îº Î¬
ĠØ± Ø§
à¯Īà® ķà¯įà®ķ
Ġà° ¯
áĥĲáĥ ĳ
ĠÐŁ ÑĢ
a is
ĠÎ ¦
ä»£ çĲĨ
Ġà¤ Ł
áĥĹ áĥĲáĥľ
Ð½ Ð°
Ġv on
à§ģ à¦¨
á» Ł
Î» Î¯
Ä± ÅŁ
Ġ Z
an o
Î± Ïģ
à¯ĩ à®°
Ġà¦¨ à¦¾
áĥĲáĥ ĸáĥĶ
Ġà¤ķà¤° à¤£
Ð½Ñĭ Ð¼
Î¼ Î·
Ġpar a
à±ĩà° ¶
Ġs ur
ìľ¼ ë¡ľ
Ġ ro
ãĥ¼ ãĥ
Ġà¦¬ à¦¾à¦
a b
ĠÎµ Î¯
Ø °
à§Ģ à¦°
Ġáĥ «
à®¿à® ´
×ķ× ľ
Ð ŀ
ÑĢ Ð°Ð½
à±įà°² à±ģ
à¯ģà®³ à¯įà®³
a x
åħ ·
æĸ Ļ
æķ ´
5 8
åį ĩ
åĽ Ľ
Ġ0 9
Ġ0 7
à¹ģà¸¥ à¹īà¸§
à¹Ģà¸ ª
åı ĸ
³à¸ «
§à¸ ±à¸Ļà¸
æ¸ ħ
¸ è¿Ĳ
ç® Ĺ
å¥ ĩ
æŀ ģéĢŁ
¸à¸ ģà¸
à¹Ģà¸Ľà¹ĩ à¸Ļ
ä¹ °
éĽĨåĽ¢ å®ĺç½ĳ
éĻ Ĩ
å® Į
Ġ äºļæ´²
Ġ ä¸º
æĺ ĵ
éĺ Ł
æ± Ł
åĽ ł
æ¨ ¡
ĠãĢ Ĳ
Ġ äºļ
äºº æ°ĳ
Ġ201 8
ç» Ļ
èĬ Ĥ
à¥įà¤¯à¤¾à¤ Ĥà¤
à§įà¦ ²
ĠÎ ĺ
Ġáĥ¨ áĥĶáĥ
on o
ĠÏĢ Î¿
iá»ĩ n
a h
k ie
ìķ Ħ
Ġà°ª à±Ĩ
àª ¾
Ń ¦
ĠagåĽ½éĻħ åİħ
çĪ ±
åĮ ħ
æľ ª
åŃ ĺ
Ġà¤® à¥įà¤¹
ĠáĥĲáĥ ĵ
ĠÑĤ Ð°Ðº
Ġà¦ ¡
à®ªà¯įà®ª à®Ł
Ġd Ã©
Î¹ Î½
ÙĦ ÛĮ
à°ķà±įà° ·
à¤¿à¤¯ à¤¾
à§ĩà¦ķ à§ĩ
Ġm o
ĠÄĳ Æ°á»£c
ĠÏĢÏģÎ¿ Ïĥ
Ø £
Ġì ľ
à± ĥ
Ðµ ÑģÑĤÐ²
áĥ£áĥ ľ
à®¤à¯įà®¤ à®¿à®²à¯į
ç ª
1 6
à¤¿à¤ ¨
Î¼ ÏĢ
Ġd en
da d
Ġ Q
à±ģà° ¡à±ģ
Ġà¦¤ à¦¾à¦°
ÅĤ o
Ġá ¼
ĠÏĥ ÏĦÎ±
áĥĿáĥĳ áĥĺáĥ¡
Ġà¸ ĭà¸
Ġå¯ ¹
Ġà¨ ķ
è¯ Ŀ
æ¬ ¾
ĩ à¸²à¸Ļà¸
éª Į
Ġå ĳ
à¤¤ à¥Ģ
Ð¿ ÑĢ
ãĤ Ĭ
à®° à¯įà®ķà®³
i j
Ã© e
Ġ Ô
Ġd ÉĻ
Ġ ÛĮ
Ïį Î½
Ġ×© ×ľ
à°Ĥà° Ĺ
ĠÐ¿ Ð¾Ð»
ĠáĥĹ áĥĲáĥķ
Ļà§įà¦ Ĺ
Ġê° Ģ
à¤¾à¤ ķ
à°¤ à±įà°¤
Ġs i
ÙĪ ÙĦ
u t
à¦ķ à§įà¦·
ĠÎ¤ Î¿
à®® à¯įà®ª
Ġáĥĺ áĥľ
ĠÐ ĵ
ģà¸ ¥
à¹īà¸Ńà¸ ¡à¸
å°± æĺ¯
Ľà¸ ¥
æµ İ
çł ´
æ ĵ
Ġ J
· à¥įà¤Ł
à°¿à° ¸
Ã ¹
ĠáĥĴ áĥĲáĥĵ
ÏĦÎµ ÏĤ
ÐµÐ ¿
à®° à¯įà®ķà®³à¯į
à§įà¦ ®
as Ä±n
Ġæ ²
1 9
åį ĵ
ä¹ ł
æ¶ Ī
åĬ Ł
è¶ ħ
Ġà¤¨ à¤¾à¤¹à¥Ģ
l a
íĻ Ķ
Ð½ Ð¸
ĠÎ¼ Î±ÏĤ
Ġà°ļà±ĩà° ¸
ĠÎ ¾
Ġáĥĺ áĥĽ
à¦ Ľ
2 3
Ġæ ¾³éĹ¨
Ġ0 6
à¸Ńà¸ ļ
Ġ ä¹Ł
Ġ0 5
Ġç ¾
æ ¥
å· ±
éĹ® é¢ĺ
è¿Ľ è¡Į
å Ħ
çĥ Ń
Ġ áŀ
è¶ ³
1 3
æİ §
ç Ĺ
ļ à¸£à¸´à¸
æĶ ¯
á ĭ
åĪĨéĴŁ å¿«ä¸ī
ć Ĉ
Ġà¨ ¸
Ġäºļæ¸¸ åĽ½éĻħ
à© °
à¤¾à¤Ĥà¤¨ à¥Ģ
à®¾à® ®à¯į
w o
ì ½
ÎĻÎ ļ
ĠÏĥ ÏĦÎ¹
Ñĭ Ðµ
áº ·
ë ²
Ġà° ¡
Ġà¦ı à¦¬
Ġh ttp
ç ¬
¶ à¹Īà¸ĩà¸
Ġ ä¸Ĭ
Ķà¹īà¸§à¸ ¢à¸
Ħ à¸£à¸±à¸ļ
4 0
Ġå İ
åĨ ³
Ġ 88
Ġäºļæ¸¸ ag
è ı
æĿ ¡
à¹ĥà¸ Īà¸
å½ ¢
Ġæ µ
æĿ ĥ
åĳ ¨
Ġæ ķ
Ġ0 3
à¤§à¥įà¤¯ à¥ĩ
à´ ¿
à¤¹ à¥Ģ
ĠÎļ Î±
u e
ĠÙĪ Ø§ÙĦ
à¯ģà® °
áĥĶáĥł áĥĺ
an d
Î³ Îº
ÑĨ Ð¸Ð¸
à±ģà°Ĥà° ¦à°¿
ìĥ µ
Ġ" :
ë¶ Ģ
áĥĿáĥĳ áĥĲ
dz ie
Ġà® ı
× ¦
ĠÐº Ð°Ðº
ÉĻ d
Ġà¤¨ à¥ĩ
Ġ áĥĲáĥľ
n ÄĽ
ÎµÎ¹ ÏĤ
ĠÎ ¶
Ø± ÛĮ
ìł ľ
cz y
à®¾à®Ł à¯įà®Ł
Ġ er
Ùĩ Ø§
ĠÏĢÎ± ÏģÎ±
Ġà°® à°°
Ð¾ÑĤ Ð¾ÑĢ
i Ãªn
Ġd ans
áĥĲáĥ ¦
ìĥ ģ
Ã ±
ĠÏĢÎµ ÏģÎ¹
Ġ ri
lÉĻr i
à¤¨ à¤¾
à®Ł à¯ģà®¤à¯įà®¤
ãĤ Ĥ
w i
à§ĩà¦ Ł
à¥įà¤¯à¤¾à¤ ¸
ĠáĥĲáĥ ¡
Î³ ÏģÎ±
ìł Ħ
k y
Æ° Æ¡
Ġ× ł
Ġde lla
ĠÑį ÑĤ
r y
Ġà¦¨ à¦¿à¦
ĠÎºÎ± ÏĦÎ±
Ġà®¤ à¯Ĭ
Ġp r
ĠâĢ ŀ
c an
as Ä±
Ø «
ëħ ¸
ë į
Ñĭ Ð²
Ïģ Î¹Î±
Ġà¤ ¥
ch en
Ġáĥ¨ áĥĶáĥ¡
à¦ķ à§įà¦¤
áº§ n
à±Ģ à°°
Õ µ
b ay
lar Ä±
Ġà®Ĵà®° à¯ģ
ģ à¹Ī
ä¹ ħ
æ¢ ¦
à¤°à¥įà¤ µ
ĠÎ¼ Î¹Î±
ëĤ ĺ
ĠÐ¸ Ð½
i en
ãĤ ¹
k an
áĥĲáĥ ¬
Ð°Ð¼ Ð¸
à±įà° ķ
à¦¾à¦ Ĺ
ÏĦ Ïħ
ag e
Ġà¸ ļà¸Ńà¸¥
ªà¸¸à¸ Ķ
Æ°á» Ľ
ĠáĥĲáĥ ¦
Ïģ Î¿Ïħ
Ö Ħ
bay can
èī ĩ
Ġåħ ¶
æł ¡
à¹ī à¸Ń
ãĢ Ĭ
çĶ ±
æĹ¶ éĹ´
à© ĭ
å ĥ
ģ à¸£à¸°à¸
Ġà¤¤à¥įà¤¯à¤¾à¤ Ĥà¤
Õ¥ ÖĢ
a ÄŁ
ÐµÐ ¶
í ĥ
en ÃŃ
ĠÎ´ Î·
s e
n y
à§ĭ à¦Ĺ
ĠÑģ Ð»
Ġà®µ à¯Ĩ
Ġ× Ĺ
Ġà°ķ à±ĭ
ĠØ§ÙĦØ £
Õ¡Õ ¯
ÉĻs i
ÎĹ Î£
Î¬ Î»
à´¿ à´
Ġà¤Ń à¥Ģ
Ķà¸´à¸¡à¸ŀà¸ ±à¸Ļà¸
ŀ à¸Ļà¸
à¹Ĥà¸ ¡à¸
ĠØ ²
áĥł áĥĿ
à¸Ńà¸£ à¹Įà¸
å¤© åłĤ
à¥įà¤ ķ
t Ã©
ÏĢÎ¿ Î¹
Ġj est
Ġë ı
Ġ ist
en to
Ġtr ong
Ñħ Ð¾Ð´
à°¾à° ¡
¸à¸ ķà¸
ķ à¸£
à¦¦ à§ĩà¦°
c ia
à®¿à® ļ
ÏĦ ÏģÎ¿
Ġáĥ ¯
à±įà°¨ à°¿
zÉĻr baycan
Ġ Ñı
Ġ Æı
ĠÎł Î±
Ġæ ±
ĠâĢ ¦
á Ĭ
à¹Ģà¸£ à¸²
à¨ ¤
´à¸ Ķà¸
áĢ¬ áĢ
¢ à¸Ļà¸
ç İ¯
è ª
9 6
åİ Ĩ
Ć ą
à¤¾à¤° à¥Ģ
Ġà¦¸ à¦Ĥ
ĠÎ¿ ÏĢÎ¿
áĥķ áĥļ
Ġb u
Ġ ï
5 6
ł áł
ĠagèµĮ åľº
åĮ Ĺ
ŀ à¸´
çº ¢
æŀ Ħ
æĸ ½
è´ Ń
Ġè ´
æĢ ģ
ç» ľ
æŀ Ĳ
à¸Ńà¸¢à¹Īà¸²à¸ ĩà¸
ä¼ Ĺ
é» ĳ
Ġå¹ ¶
è ħ
åĪĨ pk10
Ġè ĩ
·à¹Ī à¸Ńà¸ĩ
å®ī è£ħ
çĶµ åŃĲ
åİ ĭ
åŃ Ĺ
ŀ à¸£à¸²à¸
æ ĳ
à© ±
Ġ2 8
Īà¸ °à¹Ģà¸
åĩ ¡
à¥įà¤ ª
à¯Īà®¯ à®¿à®²à¯į
m o
Ġì¹ ´
í ı
Ø§ Ø²
Ð ł
Ð´ Ð°
à±įà° ¥
Ġf Ã¼r
Ġp as
ĠáĥĲáĥ łáĥ
×Ļ× ¨
Ïħ Î½
Å¼ y
ĠÄ į
Ġà¦¥ à§ĩà¦ķà§ĩ
Ġìķ Ħ
Ġv an
Ġà®¨ à®Ł
Æ°á»Ŀ i
Ġé Ļ
à¹Ģ à¸Ļà¸
Ĥ à¹īà¸²à¸
å¹ ²
Ġé Ĥ
Ġà¹ģà¸ ¥à¸°
Ġè µ
- -
æĭ¿ å¤§
è ĳ
Ġà¸ Ĺà¸µà¹Īà¸
æ· ±
ä¹ ī
Ġà¤®à¥įà¤¹ à¤£
Î´ Î¹Î±
il m
Ġun a
ĠâĢ ĵ
áĥĹ áĥķáĥĺáĥ¡
Ñĥ Ð¿
ÏĢ Î¬
à¯Ī à®¤à¯įà®¤
u x
Ġà°¸ à°®
Ġà¤ķ à¤¿
Ġa uf
Ð ¡
åĽ½ å®¶
à¥ģ à¤ķ
Ð Ĳ
Ġà¦ı à¦ĩ
Ø± ÙĪ
ĠÐ· Ð°
ÏĮ ÏĦÎµ
Ġáĥ¡áĥĲáĥ¥ áĥĲáĥłáĥĹáĥķáĥĶáĥļ
Ġáĥ£áĥ ľ
Ġê¸ °
à®ªà¯įà®ª à®Łà¯įà®Ł
iy a
o b
Ġ ãģ
Ĺ à¹Īà¸²
à¥įà¤° à¥Ģ
ÙĦ ÙĬ
Ñĭ Ð¹
ĠáĥłáĥĿáĥĽ áĥĶáĥļ
Ïĥ ÏĦÎ·
à¦ «
à° ¶
Ġqu i
Ġj ak
v a
Ġm á»Ļt
à¤Ĥà¤ ¦
¡ °
ĠÐ¿ÑĢ ÐµÐ´
à° Ĺà°¾
Î¼ÎŃ Î½
à§ĩ à§Ł
à®© à¯įà®©
Ø´ Øª
× Ł
Ġáĥ¨ áĥĶ
Ã Ł
Ġs t
å¢ ĥ
à¹īà¸² à¸Ļ
åı ²
Ġ ä¸ī
Ġ2 6
è® ¤
áĢ ¯
ģà¸ ±à¸Ļà¸
¸ áĢ
Ġà¤ ¡
à¦¾à¦ ¶
ë Ł
à®Ļ à¯įà®ķà®³à¯į
Ã¶ v
à±įà° ¡
Î ļ
Î³ Î¿
Ð¸ÑĤ ÐµÐ»ÑĮ
èĻ İ
ç»ĵ æŀľ
ç½ĳ ç»ľ
Ġà¹ģà¸ ķà¹Īà¸
é¦ĸ é¡µ
Ġç¾ İ
æľī éĻĲ
Ġ 66
áĢ Ń
åı ĭ
æĬĢ æľ¯
Ġà¤Ĩ à¤ª
Ġà¦Ĩ à¦°
Ġáĥ¡áĥĲáĥ ®
Ø§Ø ¡
ãģ Ĩ
Îµ Ïģ
Ġà°ª à°°
Ġil ÉĻ
Ġ ÑĨ
oÅĽ ci
ìĨ Į
à¥ ¦
er e
ĠáĥĽ áĥĺáĥ¡
à¦¾à¦¦ à§ĩà¦°
f f
ĠÎ± ÏĢ
Ġl as
Ñĥ Ð±
ç» Ń
Ġå¿ «
Ī à¸£à¸´à¸
± áĢ
äº ¿
æ²¡ æľī
1 4
Ġæ ³
ç®¡ çĲĨ
ĠâĢ ĺ
Ùĩ Ø§ÛĮ
¹ æŀľ
Ġå¤§åıĳ å½©ç¥ŀ
¶à¸ ģà¸
§à¸ ¥à¸²
åħį è´¹
à¥įà¤ ¸
à® ¸
ë Ĳ
Ġà°ķ à±Ĥà°
ÐµÐº ÑĤ
Ïģ ÎµÎ¯
Ġáĥĺ áĥ§
áº¡ n
Õ¡Õ µ
u b
à¦² à§ĩ
ĠÐº Ð¾ÑĤÐ¾ÑĢ
×ķ× ĵ
Ġà° ²à±ĭ
ĠÎ¼ Î±
Ľà¸£à¸ °à¹Ģà¸
Ġv er
Ġà®ķ à¯Ĥ
ĠØ§ÙĦ Ø¹
Ġà¦ªà§įà¦° à¦¤
áĥł áĥĺ
ÎŁ Î£
Î¸ ÎµÎ¯
Ġ ou
cz e
à±ĩà° ¸
Ġ3 6
Ĺà¸µ à¸
ĩ à¸²à¸Ļ
èĩª å·±
åº Ĺ
ªà¸²à¸ ¡à¸²à¸£à¸
Ķà¹īà¸§à¸ ¢
à¸Ńà¸¢à¹Īà¸²à¸ ĩ
è§Ħ å¾ĭ
Ķà¸ ¹à¸
o o
å¹ ¶
à¤¿ à¤°
ĠA zÉĻrbaycan
os t
in i
áĥĲáĥ Ŀ
Ðº Ð¾
ãĤ Į
Îĳ Î£
Î¿Ïį Î½
à°Ĥà° ļ
à§ĩà¦ ¤
à®¿à® ®
í ħ
Ġvá» Ľi
«à¸ ¥
à¥ ħ
Ġìł Ħ
ci on
Ð½Ð¾ Ðµ
ĠáĥĲáĥ ®
Ġ× ª
r es
Î¹Îº Î¿
Ø± ÙĬ
Ġà¦ ĺ
Ġy ang
Ġà®ħ à®°
Õ ¿
ĠÕ °
Õ¡ ÖĢ
Ġ Y
à°¾à° ª
Ðµ Ðµ
áĥĲáĥ £áĥ
Ġg e
Îµ Î»
w ie
Ġng h
à®± à¯įà®ķ
Î´ Î·
Ġ íķĺ
Å¾ e
Ù ¾
à°¾à° ¬
u re
à¦¿à¦ ¶
in ÉĻ
áĥĺáĥĵ áĥĲáĥľ
ÎŃ Î½
à¥ Į
ĠÐº Ð¾Ð¼
Ġà°ī à°¨à±įà°¨
t Ã³
ĠÎµ Ïħ
iá» ĥ
Ð» ÐµÐ½
ä½ İ
ç§ °
æī ĳåħĭ
å¿ ħ
à¨ ¨
çİ ĭ
9 0
Ħ à¸Ļ
æİĴ åĪĹ
ç½ĳ æĬķ
Ġå¤© å¤©
åı į
äº ĳ
2 4
æīĭæľºå®¢æĪ·ç«¯ ä¸ĭè½½
Ġæ İ
±à¸ įà¸
Ġåħ ¨
æī į
ç Ĭ
Ġç ī
æĢ Ŀ
éĤ £
å¤ į
t h
±à¸ ģ
å®ī åįĵ
Ġå° ±
ķ à¸´
à¸Ļ à¹īà¸
å£ «
à¹Ģà¸ ŀà¸
áł łáł
å®¢æĪ·ç«¯ ä¸ĭè½½
åĵ į
æĬ ¤
ķ à¸£à¸
é Ł³
ä¸Ń å¿ĥ
è¿ ŀ
a o
łà¸²à¸ ŀà¸
èĬ ±
åĪ Ļ
çĽ´ æĴŃ
«à¸ ¥à¸²à¸
åĨ į
à¸Ļà¸± à¹īà¸Ļ
à¸Ńà¸¢à¸¹ à¹Ī
à¤ļ à¥įà¤¯à¤¾
Ġà¦ §
Ġn on
ÉĻ z
Ïī ÏĥÎ·
ĠØ¹ ÙĦÙī
êµ ¬
Ġà®® à¯ģà®
a d
Ġáĥ§ áĥķáĥĶáĥļ
×ķ× Ł
ĠÐ¿ÑĢ Ð¸
Î¾ Î·
Ġà¤² à¤¿à¤ı
ĠS ch
it e
ÏĮ Î½
Ġë ¬
Ġà¦ıà¦¬ à¦Ĥ
Ġà°µ à±Ĩ
à¤¾à¤ Ł
áĥĿáĥ Ĺ
Ùģ Øª
Ð° Ñħ
à¯Īà® µ
æ ļ
1 7
ªà¸ ¡à¸
Ħà¸¸à¸ ĵ
à¥įà¤ ²
Ġn o
áĥļ áĥĶáĥĳ
Ïħ Ïĥ
Ġf a
à°¤ à±ĭ
ÐµÐ½ ÑĮ
Ġ is
ìł ģ
ĠÎ¼ ÏĢÎ¿
à¯įà® £
Ġi m
ç¥ ¨
è¶ Ĭ
¡à¸²à¸ ģ
éħ į
ä¿¡ æģ¯
Ġc c
Ġà¸ Ĥ
ĻĢâ ĻĢâ
Ĉ Ĉ
Ġà¨ ¹
«à¸£à¸ ·à¸Ń
à¤² à¥ĩà¤²
áĥĶáĥĳ áĥ£áĥļ
n Ã©
Ġà°Ĵ à°ķ
ÐµÐ³ Ð¾
Ļ à¯įà®ķ
×ķ× ĳ
iá»ģ u
Ø§ Ø³
Ġp rzy
Ïİ ÏĤ
áĥ£áĥ Ľ
Ð°Ð± Ð¾ÑĤ
à¯įà®¤ à¯įà®¤
e Ã§
à ¬
à¥ĭà¤ Ĺ
a le
Ñĭ Ñħ
à®¾à® £
ĠÏĢ ÏģÏĮ
i g
ĠáĥĲáĥ ¥
ç¡ ®
ç»ı æµİ
Ġà¸ ¡à¸
Ġk 8
ä¸ ¾
Ġà¤ ł
êµ Ń
ÏĮ ÏĤ
Æ°á»Ŀ ng
Ø¯ Ùĩ
il ÉĻr
Ġà°µ à±įà°¯
Ñ ĳ
Ġv y
Ġc z
áĥĺáĥ Ĵ
ÃŃ a
à¦¦ à§įà¦
æ ħ
æĪĳ ä»¬
Ġå¥ ½
ç± ³
à¤¾à¤ ¬
à¯Ĩ à®°
Ø§Ø ¦
ĠÏĥÏĦÎ¹ ÏĤ
éĤ Ģ
å¼ ķ
à¤¾à¤ļ à¥įà¤¯à¤¾
ľ ê±¸
Ġì ļ
Ġà°ª à±ĭ
áĥĺáĥļ áĥĺáĥ¡
ĠÎ ¥
Ġ× ¨
an n
ĠÎ Ī
áĥĲáĥľ áĥĺ
u k
ãĥ ĥ
à¦ķ à¦¾à¦°
à°¦ à±įà°¦
i c
Ġà®ª à®Ł
à¤¹à¥Ģ à¤Ĥ
Ï Ĭ
ĠÐ £
£áĥ ļáĥĺ
çħ §
ç³» ç»Ł
d 88
æĬķ æ³¨
A G
Ġé ĺ
ä¸ĸ çķĮ
à¹ĥà¸«à¸ ¡
à¥ģà¤ ³
, "
ļ Į
Ñĥ Ð»
Ġt e
ĠÎºÎ± ÏĦÎ¬
áº£ i
à±ĩ à°ķ
· à§įà¦Ł
Ø º
Ġà® Ł
Ġr Ã©
a ch
o x
Ġì ĸ
áĥķ áĥĶáĥ
å®ĺç½ĳ ä¸ĭè½½
Ġ5 5
Ġæ Ģ
Ġà¤ §
Ñģ Ð¿
it Ãł
Â µ
Î¼ Î®
o d
à±ĩ à°°
à¦ ¡
Î¹Îº Î®ÏĤ
à¤¤ à¥ĩ
à¯įà® ¯
in e
ãĤ ī
á» į
Ñĥ Ð¶
ÏĨ Î±
Ã¡ s
áĥĲáĥĵ áĥĴ
×Ļ× ł
´ Ģ
à°¿à° Ł
Ġ ÚĨ
ĠV er
ĠÏħ ÏĢÎ¿
ĠÑģ Ð¿
Õ¸ÖĤÕ ´
ĠÃ¼ Ã§
Ġa ve
Ġà®İà®©à¯įà®± à¯ģ
à¦¨ à§ĩ
æ¸ ¯
æĭ ī
Ħ à¹Īà¸
éĺ ²
à¤ ĸ
ÏĦ ÏīÎ½
Ġà°® à±Ģ
áĥĲáĥłáĥ ĵ
ĠâĢ Ķ
Æ°Æ¡ ng
ë³ ´
ol o
ĠÙĦ ÙĦ
ĠÎ¸ ÎŃ
à¦¾à¦ Ł
Ġs ch
à®¤ à¯į
it Ã©
Î¯ Îº
ìļ Ķ
ÅĤ y
ĠØ± ÙĪ
áĥĶáĥ¥ áĥ¢
Ġé Ŀ
å¤§åıĳ å¿«ä¸ī
Ĺà¸²à¸ ĩà¸
Ġà¨ ¨
àª¾ àª
Ġå° ı
« à¹ĩ
ç§ Ĵ
i p
éĺ ³
Ġag åľ¨çº¿
è¾ ĵ
à¹ Ĭà¸
æķ° æį®
çĻ» éĻĨ
à¥Ģ à¤¤
Ñĥ Ð¼
à°¾à°¨ à±įà°¨à°¿
Ïĥ ÏĦÎ¿
Ġà§¨ à§¦
áĥĲáĥłáĥ Ľ
à¦¿à¦ Ł
j ÃŃ
ĠÐ Ĺ
Ġæ Ķ
åģ ĩ
åħ Ń
åº ľ
¢ à¸Ńà¸
åĽ Ń
å° Ķ
s c
2 5
ä» ½
èĪ ª
é£ŀ èīĩ
Ķà¸ ¹
Ġà¤¤ à¤°
Ġb e
Ãł ng
Ġìĭ ľ
Î¯ Î¶
Ġ on
å®ī åħ¨
Ġ2 00
æĿ ¿
ç© ¶
å¸Ĥ åľº
Ġæ °
ç Ł
æĬ Ĭ
Ġà¤¹ à¥ĩ
ĠÐ¼ Ð¾Ð¶
à®¾à® ±
ÏĦÎ· ÏĦÎ±
ch e
áĥ£áĥ Ĺ
à°¦ à°¿
d os
à¦¨ à§ĩà¦°
àµ ģ
Ġà¤° à¤¹
ĠC h
ĠÙĩ Ùħ
Ġ ÑĪ
Ø§ Ø¹
ĠÎ´ Î¹
×ķ× ł
ĠáĥĽ áĥĲáĥĴ
e ng
i d
Ġì§ Ģ
Ġà®ķ à®Ł
à¦¾à¦ ļ
Ð¾ Ðµ
èĭ ¹æŀľ
ĠåĽ ł
å¤ĩ çĶ¨
à©± à¨
äº§ åĵģ
Ġä½ ł
å§ ĭ
è® ©
æĺ ¾
å® Ŀ
ç ¢
Ġà¤¸ à¤®
Ġáĥł áĥĿáĥĴ
Î¼ Î¹
Ķà¸¥ à¸Ńà¸ĩ
Ġà¹Ĥà¸ Ľà¸£
Ġà¸ ģà¸²à¸£à¸
á» ĩ
ment e
Ä± l
à¦¾ à§ľ
cj i
à°¸ à±įà°¤
Ġv ous
ãĤ ¤
Ð¾ÑĢ Ð¼
áĥĶáĥ ª
Î³ Î³
Ġà¹Ģà¸ Ķà¸´à¸¡à¸ŀà¸±à¸Ļà¸
à¹Ĥ à¸Ļ
Ġà¦ª à¦¾à¦°
Ġà®ļ à¯Ĭ
¥à¸ĩà¸ Ĺà¸
Łà¸ ¸à¸ķà¸
°à¹Ģà¸ ļ
à±ģà° ª
Ù Ģ
Ðµ ÑĪ
à¥ĭ à¤ķ
Ġà¹Ģà¸ ¥
à¸µà¸¢ à¸Ļà¸
ĠØ§ÙĦ Ø³
à¯Īà®¯ à¯ģà®®à¯į
áº£ n
Ïĥ Ïī
áĥł áĥĲáĥĽ
Ħà¸£à¸Ķà¸´à¸ ķ
Ġà¸Ĺà¸ Ķà¸¥à¸Ńà¸ĩ
Ĭà¸± à¹Īà¸Ļ
Ġà¸ Ľ
Õ« Õ¶
ĠgÃ¶ r
Ġk tÃ³
ì§Ģ ëħ¸
Ġáĥ ¦
ìĹ ħ
à°® à±įà°®
Ø§Ø± ÛĮ
g i
ļà¸Ńà¸ ¥à¸
ĩà¸´ à¸Ļ
ĠÎ±Ïħ ÏĦÏĮ
Ġth e
Ġ à¸£
Ġí ĺ
à±ĩà° µ
Ðµ Ñħ
Ġà¹Ģà¸Ķà¸´à¸¡à¸ŀà¸±à¸Ļà¸ Łà¸£à¸µ
§à¹ĩà¸ ļ
a tion
ģà¸ ¡à¸
Ïģ ÎµÏĤ
áĥĶáĥĳ áĥĲáĥ¡
Ġà®ĩ à®¤
à¹Īà¸ĩà¹Ģà¸ ĩà¸´à¸Ļà¸
Ġan d
ļà¸²à¸Ĺ à¹Ħà¸Ĺà¸¢
Ġà¸ª à¹Īà¸ĩà¹Ģà¸ĩà¸´à¸Ļà¸
¥à¸ĩà¸Ĺà¸ °à¹Ģà¸ļ
Ġæī ĭ
à¨ Ĥ
Ġå°Ĭé¾Ļ d88
à¤¾à¤² à¤¾
Ġà¸ Īà¸
Ð° ÑİÑĤ
à§įà¦ ¨
Ġi ÅŁ
Ġà¸ ŀà¸
à±ģà° ¡
Ġà¤ħ à¤ª
à¯Īà® ªà¯įà®ª
Å¡ ÃŃ
Ġm e
Ġà¸ ļ
á ¿
Î¯ ÎµÏĤ
áĥĶáĥĳ áĥļ
Ġv o
Ħà¸£à¸ ·à¹Īà¸Ńà¸ĩà¸
Ãł nh
Ġ": "
ìļ ©
à±ģà°Ĥà° Ł
ãĥ Ī
Ġ à¸Ļà¸
ĠÙĩ Ø§ÛĮ
×Ļ× Ķ
æľīéĻĲ åħ¬åı¸
ä¾ ¿
ä» Ĭ
Ĥà¸¶ à¹īà¸Ļ
Ġ5 0
åŁ Ł
à¸£ à¹īà¸²à¸
å¤ ª
æ¼ ı
Ġçľ Ł
å¾ ®
åĮĹäº¬ èµĽè½¦
ç¨ ³
¢à¸ §à¸
åĮ »
éĤĢ è¯·
Ġæ Ľ
Ġ 77
à¤¤ à¥įà¤¤
Ġl o
à¦¿à¦¤ à§ĩ
ÙĬ Ø¯
ÛĮ Øª
Î´ Î¹
Ġà°ķà±Ĥà° ¡à°¾
Õ« Õ
Õ¥Õ ¬
iyy ÉĻt
ĠÐ Ľ
Ġáĥ¡áĥĲáĥ Ļ
Ġà®ħ à®®
Ġn icht
Ġà°¨ à°¿à°°
åĩ ł
Ġä» İ
åĦ ¿
çİ° éĩĳ
ć ï¼Į
Ġ2 9
à¸´à¸ Ķà¸
à¤ķ à¤¾à¤°
Ïĥ ÏĦÎ±
¤ ĳ
ĠÐº ÑĢ
Ġà¦ī à¦ª
il e
áĥĶáĥĿ áĥĳ
Ñĥ Ñģ
à®® à®¾à®ķ
ÉĻ c
ĠÏĥÏĦÎ¿ Î½
i dad
¾ è®¯
ä¾ ĭ
ĠçĶ µ
Ġà¹Ĥà¸ Ķà¸¢
ĸà¸¶à¸ ĩà¸
à¤¦ à¥įà¤
à°¡ à°Ĥ
n en
ur s
ĠÑģ Ð¾
en ia
ĠØ§ ÙĨ
ĠÎ± Î»Î»Î¬
s o
ĠáĥĹ áĥ£
ëı Ļ
ĠÎŃÏĩ ÎµÎ¹
à¦¿à¦ ®
Ġng Æ°á»Ŀi
à¤ Ī
Ð¸ ÑĨ
Ġd an
ĠØ£ ÙĨ
áĥ ¯
Ġ2 7
åĳ ½
à¹Ģ à¸Ń
çĽ ĳ
à¥įà¤ ¨
ì Īĺ
Ã½ ch
ÏĢ Î·
Ġh a
Ġpl us
Ġà®ª à®¿à®°
à¦¾à¦ §
Ġd z
Î² Î¬
Ã¼ k
ĠØ µ
à°ķ à°¿
ĠÐº Ð¾Ð½
áĥĲáĥĽ áĥĵ
è¾ ĥ
ĠãĢĤ ï¼Į
Ġè §
à¸£à¸¹ à¹īà¸
çº ¦
à¥ĩà¤ £
b en
Ġë ĵ
Î¯ Î¿Ïħ
ãĤ ĵ
Ġ× ¤
Ġà°ħ à°µ
ĠÎľ Îµ
à´ ¾
à¤ķ à¥ĩ
Ġ Å¼e
ÑĤ ÐµÑĢ
Î³ Î±
Ġí Ļ
à®¿à®± à®¤à¯ģ
c t
Ùħ Ø§ÙĨ
Ġ ar
Ġáĥ łáĥ
Ġà¦ľ à¦¾à¦¨
Ð½Ð¾ÑģÑĤ ÑĮ
ÏĪ Î·
à¹Ģà¸ ķ
«à¸Ļ à¹īà¸²à¸
Ĺà¸ ±à¹īà¸ĩà¸
èĲ ½
2 6
Ġå¾ ·
Ġ äºº
åĪĨ æŀĲ
åħ «
à¹Īà¸²à¸ ¢
éĿ Ĵ
å¤ ±
è¯ »
à¤Ĥà¤ Ĺ
in d
áĥĺ áĥĶáĥł
Ġìł ľ
à¦ Ļà§įà¦Ĺ
Ã¡ ch
à°² à±įà°²
Ð½Ð¾ÑģÑĤ Ð¸
Î» Î¹
Ġà¤® à¥ģ
Ġà¦ķà¦° à¦¾
Ä± z
en ti
à±ģà°ķ à±ĭ
áĥĲáĥķ áĥļ
Î¸Î· ÎºÎµ
ent e
Øª Ø±
Ð° ÑĪ
è¯ Ħ
Ġç Ļ
Ġ3 3
åĨ µ
ä½¿ çĶ¨
åį ı
à¹Ħà¸ §
è ŀ
Ķà¸ ¢à¸
ķ à¹Īà¸²à¸
ç¦ ı
2 7
å ¡
Ġ9 18
çĻ ½
Ġå¹ ¸è¿Ĳ
à¹Ģà¸ ¡à¸
Ġå½ ĵ
à¹ģà¸¥ à¹īà¸§à¸
è´ £
èĭ ±
ĠåĪ ©
Ġag äºļæ¸¸
Ġà¥ §
n ych
à®ª à¯į
à¤¸ à¥ĩ
Ġ íķľ
Ð½ Ð¾Ð¼
s k
Î¼ ÏĨ
«à¸ ¡à¸²à¸
ç ¯
à¥ĩà¤ Ĥà¤
Ġ×Ĳ ×ª
Ġà°¨ à±ģà°Ĥà°
Ġs ich
áĥĲáĥķ áĥ¡
ãģ ı
á»¯ ng
ĠÃ¼Ã§ Ã¼n
Ġc u
Ġà® ľ
ÏģÎ¿ ÏĤ
ë© ´
Ġc e
à§ĩà¦ ĵ
Ð°ÑĢ ÑĤ
ģà¸ §à¹Īà¸²
çģ «
ļ áŀ
Ġà¤ħ à¤¨
ÏĢ ÎµÎ¹
Ð ĺ
Ð¸Ð» ÑĮ
Ġáĥĵ áĥĲáĥĽ
à¦¾à¦ ģ
ĠØª ÙĪ
à°¾à° §
Ġave c
en ie
Ġà®ª à®¾à®°
í Ħ
Î² Î±
ĠÐ¿ Ð»
ĠáĥĲáĥł áĥĺáĥ¡
ie l
Ù ĳ
à§ĩà¦ ®
ÅĻ e
a to
ÏĦ ÏİÎ½
à¥įà¤ ®
ÑĢ ÐµÐ¼
ĠD e
Ġà®µ à®¾à®
ĠØ§ Ùħ
a do
ĠÎ¼ Î¿Ïħ
à°¿à°¨ à°¿
ĠÎ¬ Î»Î»
Ġm en
ĠìĿ ´ë
Õ¡ ÖĢÕ
ÉĻ f
áĥĺáĥ£áĥ ł
à§ °
à¦¾à¦ ĵ
èĲ Ħ
ĠåĲ Į
à¸Ńà¸¢à¸¹ à¹Īà¸
à¥įà¤¯à¤¾à¤ ¨
Ġà®ĩà®° à¯ģà®ķà¯įà®ķ
Ġe x
× ĸ
ãĥ «
s zy
s te
Î¿Î¹ Î½
ĠÐ ķ
Ġáĥ£áĥľ áĥĵáĥĲ
à±ģà°Ĥà° ¦
ÉĻ ti
Ïį ÏĦÎµ
èµ ¢
à¤¾à¤µ à¤°
Ø³ ÛĮ
Ãł n
à¦¿à¦ ¦
ÑĢ Ð¾Ð²
Ġà®ª à¯Ĭ
i ca
áĥĲáĥłáĥ Ĵ
à°¾à° £
¶ Ķ
Ïģ Î¯Î±
à§įà¦ ķ
v er
Ðº Ñĥ
ĠáĥĹ áĥ¥
å¿« ä¹Ĳ
èī º
Ġà¤ķ à¤¾à¤°
ìĺ ¤
Î¼ Î¿Ïį
ĠØ§ÙĦ ØŃ
Ð¶ Ðµ
ow ie
Ãł i
à®ļ à¯įà®ļ
l iy
à±ģà°ķ à±ģ
Ġw ir
ìĿ´ íĬ¸
ÏĦ Î¿Ïħ
ĠáĥĽ áĥ®
ÅĻ ÃŃ
ëĭ Ī
à±Ģ à°µ
il l
ä½ ı
à¹ģ à¸Ļà¸
Ġé ¦
æ¯ ı
8 0
à¨ ¹
µ à¤°
an Ä±n
Î¹Îº Î¿Ïį
ÑĢ Ð¾
ĠØ¢ ÙĨ
Ġb y
Ġà®¨ à¯Ģ
à¤ ı
à§ĩà¦ ¬
à±įà°¸ à±į
×Ļ× ľ
Ġáĥĵ áĥ¦
ÏĮ Î³
ĠÐ¿ Ð¾Ñģ
Ġìĺ ¤
v o
áº§ u
Ħà¸ ¡
à¤¾à¤Ĥà¤¨ à¤¾
Ġa us
áĥ® áĥĿáĥķ
ãģ į
ÏĢ Î¹
ÙĬ ÙĦ
à§įà¦ ļ
ĠÎĳ Î½
Ġà¤¨ à¤¹à¥Ģà¤Ĥ
Å ŀ
ĠÐ ¤
Î»Îµ Ïħ
es z
Ġà°ħ à°Ĥà°¦
ë ¹Ħ
æ£ Ģ
à¹Ĩ à¸
Ġæ ¬
æĲ ı
ªà¸ ¹à¸
ĠãĢĤ âĢĿ
Ġ201 7
ªà¸ ³à¸«
Ġåĳ ¨
à© ģ
ķà¸±à¸ §à¸
éļ ¾
ä¿ ®
å ©
é ¥
çĶµ å½±
à¹ģà¸ļà¸ ļ
Ġè ĭ
· à¹īà¸Ńà¸
ç½ĳ é¡µ
ç¤¾ ä¼ļ
é ĸ
Ł ©
ĠãĢ į
Ġå Ń
ç» ´
âĢ ¦
èĭ ı
2 1
èĮ ĥ
Ġà¨ µ
à¹ģà¸ ¥à¸°
éĤĢè¯· çłģ
Ġà¤Ĩà¤¹ à¥ĩà¤¤
p o
Îµ Ïĩ
ĠáĥĽ áĥĺáĥ
Ġà®ķ à¯ģà®±
ĠÐ¸ Ð»Ð¸
d u
à±ģà° ¦
Îµ Îº
Ġëª ¨
à§ĩà¦Ľ à§ĩà¦¨
ĠI n
Ġáĥ °
Ġà¤ī à¤¨
ĠÏĥ Î·
à¦°à§įà¦ ¬
ĠåĪĨ åĪĨå½©
«à¸£à¸ ·à¸Ńà¸
äº Ĵ
é¦ Ĩ
å Ĥ
ĠæĪĳ ä»¬
èĩ ´
Ġà¸ Ĺà¸µà¹Ī
ç§ ¯
æŃ£ è§Ħ
ª à¹Īà¸§
à¤¾à¤ Ī
à°Ĥà°¤ à±ĭ
Ġnh Æ°
Ù ĭ
il le
Ð½ Ñı
Ġìł ķ
Ġb er
à°¨ à±ĩ
ÎĻ Îĳ
ĠÎºÎ± Î¸
áĥĲáĥłáĥ ¢
Ġà¦¤ à¦¿à¦¨
Ġ æľ¬
ĠâĢĿ ï¼Į
à¥ĩà¤ ¸
à®¿à®° à¯ģà®¨à¯įà®¤
Ġà°ļ à±Ĥà°
ĠÑį ÑĤÐ¾
Ġb aÅŁ
Ġ× §
ĠL e
Ġáĥ© áĥķáĥĶáĥľ
à¦° à¦¾
ì °
Î ĵ
Î»Î¿ ÏĤ
áĥķ áĥĲ
éĻ ©
Ġ2 55
æĻ ¯
à¥ģ à¤¨
Ġà°ħ à°¯
Ġs z
ĠØ¨Ø± Ø§ÛĮ
Î¼ÎŃ Î½Î¿
m en
Ð Ŀ
á» ĵ
Ñİ Ñī
Ġà¦ľà¦¨ à§įà¦¯
áĥ «
ll o
à¯įà® ¨à¯įà®¤
Ïĥ Î¯Î±
Ġe d
à¸Ńà¸²à¸ «
å»º è®¾
é¦ Ļ
Ġ äºĶ
Ġæ ł
æľ Ľ
éĩ ĩ
Ġç ¥
éĹ »
å®ĺç½ĳ çĻ»å½ķ
åĩ »
å®ĺæĸ¹ ä¸ĭè½½
Ġagçİ¯äºļ éĽĨåĽ¢
Ġè ħ
Ġå¤§åıĳ æŀģéĢŁ
ģà¸ ³à¸
çŃ ĸ
Ġé «ĺ
ĠAG äºļæ¸¸
áĢ º
æ¬ ¢
åı Ī
æĸ Ń
Ġä» Ĭ
¢à¸ ±à¸ĩà¸
Ġ æľĢ
4 8
è¯ ¥
Ć ï¼Į
åĥ ı
à¥ĩà¤ ¨
ìĬ µ
à°¿à°Ĥà° Ĺ
ĠE n
ÐµÑĤ ÑģÑı
t u
Æ°á»Ľ c
ÏĦ ÎŃÏĤ
áĥĲáĥķ áĥ¨
Ġà®¤ à®®
à®¿à®² à¯įà®²
à¹ĥà¸Ĭ à¹ī
à¥ĭ à¤²
ĠÐ¾ Ñģ
n ia
ÏģÎ¯ Î¿Ïħ
à°² à±į
s en
an do
Ġáĥ® áĥĶáĥļ
ĠÎ¼Îµ ÏĦÎ±
à§ Ī
Ùĩ âĢĮ
ou t
Ä °
li k
à®£ à¯įà®£
Ð» Ñİ
b y
Ġ× Ĵ
Ĭ à¸µà¸
åıª ä¸º
çĽ ĺ
è Ń¦
Ġå º
à¤¾à¤¨ à¥ĩ
áĥĿáĥłáĥ ª
ĠÏĥ ÏĦ
à±ģà°¨à±įà°¨ à°¾à°°à±ģ
Ġà®¤ à®¿à®°
Ã¢ y
Ġà°ķ à°²
cion es
Ð°Ð½ Ð¸Ñı
c tion
f t
áĥľ áĥĺáĥ¡
Î½ Ïī
à¦¬ à¦¾à¦°
æ² ¹
è± ¡
Ġà¤° à¤¾à¤ľ
ÉĻ q
à¯ĩ à®©à¯į
c c
à®¿à®© à¯įà®±
ĠÐ³ Ð¾Ð´
à¨ ¦
èİ ·
æīĭæľºçīĪ ä¸ĭè½½
æŀ Ĺ
æĻ ®
Ġ à¹Ĩ
Ġå Ĵ
2 9
æ® µ
Ġ &
à¸Ļà¸± à¹īà¸Ļà¸
à¹Ģà¸ Ī
à¥ģà¤³ à¥ĩ
à¦¸ à§įà¦¥
ÏģÎ¿ Ïį
Ġáĥ£áĥ ¤
à± Į
ra z
ĠÄĳ á»Ļ
Î¬ Ïģ
ĠE l
ÙĪ Ùħ
m ÉĻk
Ġp e
Ġê² ĥ
ĠS ie
ãĤ ¯
è¯ Ĩ
à¨ ¸
ªà¸ ±à¸
Ġ à¸£à¸
à¹ģà¸ ¡
çı Ń
æĹ ħ
à¹Īà¸ ¡
áł ¢
Ġ2 22
å£ °
æ¸ ©
è¾ ¹
à¹ Ħà¸£
è¨ Ģ
æŀ ģ
çĽ Ĭ
æ² ³
à¸£à¸£à¸ ¡à¸
Ġå ±
æķĻ èĤ²
à¹Ģà¸ Ĭ
é¢Ħ æµĭ
åĽ ´
36 5
é£ Ł
å¼ ł
Ĺà¸ ¸à¸ģà¸
à¤¾à¤ļ à¥Ģ
zion i
Ð¸ Ñİ
Ġà®® à¯ĩ
ÏĢ ÏīÏĤ
Ġáĥ¡ áĥ¢
Ġ ÅĽ
à¦¨ à¦¾
à¸Ļà¸ ´à¸
à¤¾à¤ļ à¤¾
à±įà° ³
ÏģÎ± Î³
Ġ×ľ ×Ķ
à´¾ à´
àµģ à´
âĢ į
å°ı æ¸¸æĪı
à¤¡ à¤¼
Ġt er
l o
Ð² ÐµÑĤ
áĥł áĥĺáĥ¡
Î¸ Î®
à§ĩà¦ ¸
ĠÐ¾ Ð´
à°Ĥà° ª
Î Ķ
ÏĦÎ¹Îº ÎŃÏĤ
Ġà®ĩà®° à¯ģà®¨à¯įà®¤
ĠÎ ¡
áĥĿáĥ Ļ
Ø§ Ùģ
à§Ģ à§Ł
à°¾à°° à°Ĥ
à¥ĩà¤ Ł
áºŃ n
ĠÕ §
Õ ¨
ÉĻ dÉĻ
Ñĥ Ðº
Ġp i
ĠáĥĽ áĥĹ
ung en
Î¿ Ïģ
Ð° Ñĩ
à±ģà°² à±ĭ
ëĤ ¨
» ¿
Ġì Ĩ
à¦¾à¦¬ à§ĩ
Ġà®ķà¯Ĭ à®£à¯įà®Ł
à±įà° Ĺ
Ã¨ s
ĠÑĢ Ð°Ñģ
an ie
c ÃŃ
e v
áĥĲáĥ ŀ
ĠÏĥ Î±ÏĤ
ÉĻ ÅŁ
c u
Ã´ i
ĠéĤ £
à¹ģà¸ ķà¹Īà¸
å ª
éĻ į
å± ŀ
Ġå¤§åıĳ å¿«3
à¤¾à¤ §
à±įà°° à±Ģ
ëĵ ľ
h l
Ð ļ
ĠÑĤ Ð¾
Ġ× ĵ
± Û
Ø§ÙĨ ÛĮ
èĲĦ äº¬
à¤Ĥà¤ ¡
áĥĿáĥłáĥ Ľ
à®³ à¯Ī
dz i
Ø ¸
Î¼Î± ÏĦÎ¿ÏĤ
à¦¤ à¦¿
Ġà°ļà±ĩà° ¯
Ġh o
Ð¸ Ð»Ð¸
ãĥ ©
ĠÎº Ïħ
Ã© r
ĠÕ ´
Õ¸ÖĤÕ ©
i q
ĠáĥĻ áĥĿáĥĽ
¤ à¸
Ġà¹Ģà¸ ¡à¸
æĶ¿ åºľ
ĠæĹ ¥
99 9
Ġè ¡
Ġç§ Ĵ
æĿ ĳ
ĠåĬł æĭ¿å¤§
éĵ ¶
è ²
â ĸ
æıĲ ä¾Ľ
Ġå½©ç¥ŀäºīéľ¸ 8
å® ¤
à¨ ķ
Ġæī Ģ
æ¼ Ķ
Ġï¼ļ âĢľ
à¹Ĥà¸ ¥à¸
Ġà¤¤ à¥ĩ
s i
íĦ °
à¦ Ľà§ĩ
Ïħ Î½Î±
Ð°ÑĤ ÐµÐ»ÑĮ
ĠáĥĽ áĥĲáĥĹ
Ġein e
Ġà® ¯
Ġà¤¯ à¤¹
Ïĥ ÎºÎµ
à§ĭ à¦°
Ã ¥
ÅĤ u
Ð ¢
Ð ķ
Ġà®µ à®¿à®
ĠÑĤ ÑĢ
Ġà°ķ à°¾à°°
ì½ ľê±¸
ë ¯¸
èŀ į
Ġè¿ ĺ
ç¬¬ ä¸Ģ
ª à¸´à¸
à¸Ńà¸ ģà¸
à¤¾à¤ ¡
Ä±n da
Ùħ Ø§
Ġv i
ĠÏĥ Ïĩ
Ġáĥ¡áĥĲáĥ¥áĥĲáĥłáĥĹáĥķáĥĶáĥļ áĥĿáĥ¡
áĥĵ áĥĶáĥĴ
Ã¡ l
Ġ×Ķ× ŀ×
or t
æĭ į
à¥ĩà¤ ³
Ġëĭ ¤
ĠÎµÏĢ Î¯
à±ģà° ®
Ñģ Ð»
à§įà¦ ¡
à¯ģà® ª
áº¿ n
áĥĵ áĥĶáĥĳáĥĲ
Ġcom o
à°¿à° ļ
m i
à¹Ģà¸ Ħà¸
Ġåħ ¬
± ¼
çķ ¥
æĻ º
w s
è Ľ
à¤¾à¤Ĥà¤ļ à¥įà¤¯à¤¾
ÏĦ Ïī
ĠÚ© ÙĨ
Ð°Ð» Ð¸
à¤¾à¤ ¥
áĥĶáĥ Ļ
Î³ÏģÎ± ÏĨ
Õ¡Õ ´
Ä± q
on s
à°¿à° ²à±ĭ
Ġ ï¿½ï¿½
Î´ Î®
Ġà®® à¯ģà®Ł
ĠÐ §
ĠD ie
Ġà¦ı à¦°
ê ·
è ³
åĢ Ļ
¶ à¹Īà¸ĩ
à¸Ńà¸ °
åį ¡
è ¦
à¤¸ à¥įà¤¤
áĥĺáĥľ áĥĲ
Ġm em
Ù Ĳ
ĠÐ¸ Ð¼
Î¹Îº ÎŃÏĤ
Ã¨ re
à±Ģ à°
ĠØ¨ Ø§ÙĦ
ä¾ Ŀ
çī Ľ
·à¸Ń à¸Ļà¸
ŀ à¸£
66 6
à¥ģ à¤®
áĥķ áĥĺáĥĹ
z e
Ġà®µà¯ĩ à®£à¯įà®Ł
Ä± m
à°¡ à±įà°¡
ĠL a
í ļĮ
Î½Î¿ Î¼
ĠáĥĽ áĥĲáĥ¡
Ġnh á»¯ng
ÑĢÑĥ Ð³
Ġì Ĭ
à¦¾à¦ķ à§ĩ
Ġà°ļà±Ĩ à°ªà±įà°ª
Ġà®ī à®³à¯įà®³
Ġk eÃ§
ÙĨ Ú¯
ÏģÎ¹ Î½
Ġt ak
à±ĭ à°ľ
Ġ×ľ ×Ĳ
Ġáĥ¡ áĥĲáĥ¡
Ġ à¶
à¤¾à¤ ĩ
Ġm Ã¡s
Ïİ ÏģÎ±
Ð¿ Ð»
in a
Ġà°° à±Ĩ
ĠÑĢ Ð°Ð±Ð¾ÑĤ
ĠáĥĽ áĥĿáĥĽ
Ġà¦ķ à¦¾à¦°
ĠìĿ ¸
Ã¼ ÅŁ
Ø¨ ÙĬ
ĠÐ² Ð¾Ð·
Ġpo d
ÙĪ ÛĮ
an ce
Ġà¤¦ à¤¿à¤²
Î¯ Î¿
Ġau ch
ĠáĥĻ áĥĺ
ãģ ĵ
Ġà°® à±Ĭ
Ġà®¤à®® à®¿à®´
à®± à¯įà®ª
à¨¾à¨ Ĥ
à¥ĭ à¤¨
ur a
ĠÏĥ Ïį
Ð°ÐµÑĤ ÑģÑı
áĥłáĥ «
à¦Ł à¦¾
ìĽ Ķ
qu es
Ġs o
Ù ı
Ġà°µ à°¾à°°
Ïĩ Î±
à§ģà¦ ·
çĶ ³
éª Ĺ
Ġà¸ ĸ
Ġè ¦ģ
à¤£ à¤¾à¤°
Ð¾Ð»ÑĮ ÐºÐ¾
Ġ X
ÏĦÎ¿ Ïį
×Ļ× Ł
ìĹ ¬
áĥĺáĥ¨ áĥķ
á» ķ
Øª ÛĮ
Ġà¤¹ à¥Ģ
l an
à¯ĩ à®ļ
áĥĲáĥª áĥĺ
Î¹Îº ÏİÎ½
Ĥ à¦²
Ġà§¨à§¦ à§
ar i
Ġà°¸ à°¿à°¨
Ġà¦Ĩ à¦²
à±ĭ à°Ĺ
ÑĨ Ð¸Ñı
ìĤ¬ ì§Ģ
íħ Ķ
Î» ÎµÎ¹
áĥĺáĥ ¥
à¸£à¸²à¸Ħ à¸²
Ġo b
Ġà¸ ¥
ĠÎŁ Î¹
à®ķ à¯į
ĠÐ Ń
í Į
à¤¯ à¤¾
ĠA n
Ġà¹Ĥà¸Ľà¸£ à¹Ĥà¸¡à¸
¥à¸ĩà¸Ĺà¸°à¹Ģà¸ļ à¸µà¸¢à¸Ļà¸
Ġà¸ ľà¸
à¦¦à§įà¦ §
à¸£à¸²à¸Ħ à¸²à¸
áĥĲáĥļ áĥ£áĥłáĥĺ
Ø§ ÙĤ
ķ à¹Į
Ġæ ĭ
éľĢ è¦ģ
éĿŀ åĩ¡
à¸Ńà¸Ńà¸ ģà¸
æ ©
Ġà¨ ª
æł ¸
Ġçİ¯äºļ æ¸¸æĪı
å¿ Ĺ
Ġ à¹ĥà¸Ļà¸
é º
à¥Ģ à¤¨
Å ©
à°° à±įâĢĮ
íķĺ ëĬĶ
¬ áĥ§
Ġ Ö
ĠÕ ¯
Ä± b
Ġà°® à°¾à°°
u ch
ÏģÎ¹ Î¿
ÑĤ Ð¾ÑĢ
Ġà®ļà¯Ĩà®¯ à¯įà®¤
ĠÕ ¸
Õ¸ÖĤÕ© Õµ
Õ ¾
ĠB u
à§ Į
åº ķ
à« ĩ
à¹Ģà¸£à¸ ·à¹Īà¸Ńà¸ĩ
éĩį è¦ģ
é¡¹ çĽ®
à¸´ à¸Ļ
Ġé »
Ġà¤® à¥ĭà¤
Ġ× ¡
áĥĲáĥ «
Ð¸Ð½ Ð°
Î¿Î½ ÏĦÎ±Î¹
ĠáĥĽ áĥĿ
in o
Ð¸ Ð±
à¯ģà®® à¯įà®ª
m er
åİĨ åı²
4 9
à¤¾à¤Ĥà¤ Ĺ
ãģ¾ ãģĻ
a nh
Ġà¦¬à¦¾à¦ Ĥà¦²
Ġà¦¬à¦¿à¦ ¶
Ġà°ħ à°¨à±įà°¨
Ùĩ Ùħ
Ð³ ÑĢ
w ia
ĠÕ ¥
Ã¼ m
Ġáĥ¡ áĥ®áĥķ
p r
Î³ Î¬
à±ĭ à°¯
ķ à¹īà¸Ńà¸ĩ
Ġ3 8
à¤² à¥įà¤¯à¤¾
à¤ «
Ġ" ,"
Ġê² ½
ĠÙħ ÙĪ
iáº¿ t
ĠÑģ Ð¼
Ïģ Îº
à±ĩà° Ł
k t
à§įà¦ ¸
a in
áĥ£áĥ ¡
Ð½ Ð¾Ð²
al i
à¯įà® °
ĠÎ¸ Îµ
a c
Ġà¤ķ à¤¹
ļ à¥įà¤¯à¤¾
ĠÐ° Ð²
ĠØ ·
×ł ×Ļ
à°¿à°Ĥà°ļ à°¿
Ġìŀ Ĳ
Ġde m
ĠáĥĲáĥ ķ
Ġà¸ªà¹Īà¸ĩà¹Ģà¸ĩà¸´à¸Ļà¸ ļà¸²à¸Ĺà¹Ħà¸Ĺà¸¢
Ġ $
à¹Ĥà¸£à¸ ĩ
à¦ĸ à¦¨
ĠÎ´ Îµ
á» Ń
Ġà¸ ¥à¸ĩà¸Ĺà¸°à¹Ģà¸ļà¸µà¸¢à¸Ļà¸
Ġà¸¥à¸ĩà¸Ĺà¸°à¹Ģà¸ļà¸µà¸¢à¸Ļà¸ Łà¸£à¸µ
à¸²à¸ ģ
Ð³ Ð¾
ŀà¸Ļà¸ ±à¸Ļà¸
à¹ĥà¸Ĭà¹īà¸ Łà¸£à¸µ
Ġà¸Ĺà¸Ķà¸¥à¸Ńà¸ĩ à¹ĥà¸Ĭà¹īà¸Łà¸£à¸µ
à¸²à¸ ªà¸´
Ġà¹Ĥà¸Ľà¸£à¹Ĥà¸¡à¸ Ĭà¸±à¹Īà¸Ļ
Ġà¸ªà¸ ¥à¹ĩà¸Ńà¸ķ
Ġ à¸Ń
a v
Łà¸¸à¸ķà¸ ļà¸Ńà¸¥
© à¸²
áĥĶáĥ ĸ
Ġà¤¤ à¥ĭ
Ġà°® à°¨
à®¤à¯įà®¤ à¯Ī
ĠÎľ Î±
p e
¡à¸ ±à¸
Îº Î±Î½
Ġa z
à°Ĥà°Ł à±ĩ
áĥ£áĥ ¨
ªà¸ Ķà¸
ĠÑģ ÑĢ
Ġí ı
Ġà¤¹ à¥ģà¤
ow y
Ġà¦¨ à¦¿
Ľà¸£à¸°à¹Ģà¸ Ĺà¸
éĶ Ģ
Ġèĩ ª
Īà¸£à¸´à¸ ĩ
ç« ł
æį ¢
§à¸±à¸Ļà¸ Ĺà¸µà¹Ī
Ġ äºĮ
à¹Ģà¸ Ľ
E T
çłĶ ç©¶
Ġà¤¸ à¥įà¤µ
ĠÛ ±Û
ĠØ¯ Ø§ÙĨ
ĠáĥĹ áĥĲáĥľ
lÄ± q
ĠÐ½ Ð¾
ĠØ§ÙĦØ ¬
áºŃ t
Ã¡ v
l es
ÎĳÎ ¤
ÎĻ Î£
Ïĥ Î¿ÏħÎ½
à®¿à®° à¯ģà®ķà¯įà®ķ
ĠS t
Ġà¦® à¦¾à¦¨
áĥł áĥĿáĥ¡
à±ĩà° ·
Ġde i
ĠÚ© Ø±Ø¯
Ġë° Ķ
Ð°Ð¹ ÑĤ
×ĳ ×¨
åı¯ èĥ½
âĢ ĭ
å± Ĥ
å¤§ å°ı
ľà¸¹ à¹ī
ľ à¹Īà¸²
åĨ ľ
å ³
Ġæ ¸
é ±¼
åĶ ®
è§£ æ¢¦
à¹Īà¸²à¸ ¢à¸
à¤Ĥà¤ ¬
im i
à®©à¯įà®± à¯ģ
Î´ Î¹Î¿
an ia
Ð¾ÑĢ ÑĤ
Ïĥ Î±Î½
à¦¨à§įà¦ ¦
tion s
Ġáĥ£áĥ Ļ
à°¿à°Ĥà° ¦
ç ¿
à¹ĥà¸«à¸ į
æĿ Ĳ
Ġæīĭ æľº
Ġå¤§åıĳ ä¸Ģ
7 6
à¤¾à¤ļ à¥ĩ
Ġ ich
Ġb ei
Ġì ²
Ñĭ Ð¼
à°¤ à°¿
áĥĿáĥ ¢
à¯įà®ķ à¯įà®ķ
Ã¡ n
Î· ÏĥÎ·
Ġde y
Ġà§¨ à§
m y
éĿ ł
Ġ4 0
Ġ3 5
à¤ ¥
Ġà¦¹ à¦¬à§ĩ
en d
Î¸ ÎŃ
ĠØ§ÙĦ ÙĤ
à°® à±Ĩ
ĠÑģ Ð°Ð¼
p er
ĠÄĳ Ã£
Ġà®ħ à®©
Ġì °
Õ¸ÖĤ Õ¶
Ġol un
à°¿à°Ĥà°ļ à°¿à°¨
Ġà¤ķ à¤¿à¤¯à¤¾
áĥĺáĥ ¤
à§įà¦¯ à¦¾à¦¨
Ð´ ÐµÐ»
Ġp ra
Ġ×¢ ×ľ
ãĥ ª
Ø² ÛĮ
ĠÏĢ Î±Î¹
Ġæ į
Ġà¤¸ à¤°à¥įà¤µ
ĠÐ± ÑĥÐ´
ĠáĥĴ áĥķ
à°¾à°¤ à±įà°°
ion e
Î³ Î®
Ġáĥĺáĥ§ áĥĿ
à®¾à® ķà¯įà®ķ
ÉĻ lÉĻr
ìĸ ĳ
ĠÐ» Ñİ
Î© ÎĿ
ĠÎł ÏģÎ¿
et te
et z
Ïĩ ÎµÎ¹
Ġd la
à°Ĥà°¦ à±įà°°
à¤¨ à¥Ģ
ÏĦÎ· ÏĤ
ìĭ ł
ÙĨ Ø§
à°Ĥà° ķ
Ġà¦Ĩ à¦ª
r Ã©
ĠáĥĻ áĥĿáĥľ
ĠÑģÐ² Ð¾
Ġm a
ĠÛĮ Ú©
ĠÎ Į
m aq
§ à¸´
Ľ Ħ
áł ¤
s h
c om
Ľà¹ĩ à¸Ļ
Ķ à¸²à¸
ĵ áŀ
¢à¸ ±à¸ĩ
ŀ à¸´à¸
èģĮ ä¸ļ
âĢ Ķ
Ġèħ ¾è®¯
à¨ ²
è´ ¢
Ġæ ı
å¤ ľ
Ġs h
¸à¸ Ķà¸
åŃ £
åħ »
çº¿ ä¸Ĭ
ĀĀĀĀĀĀĀĀĀĀĀĀĀĀĀĀ ĀĀĀĀĀĀĀĀĀĀĀĀĀĀĀĀ
Ĺà¸²à¸ ĩ
Ġæ Į
áĢ¯ áĢ
å¼Ģå¥ĸ ç»ĵæŀľ
æ¬ §
à© Ī
äº ²
à© Ĥ
Ġà¤® à¤¿à¤
Îµ Ïį
áĥł áĥĺáĥķ
à®¿à® ¨à¯įà®¤
w e
Ø§ ØŃ
Ã¡ nÃŃ
Äĥ ng
ĠÑģ Ðº
ny a
Î½Î¿ Î½
Ġà°¤ à°¨
is s
ĠS e
«à¸Ļ à¹īà¸²
å¦Ĥ ä½ķ
Ġ4 4
à¹ģà¸ļà¸ ļà¸
æīĭæľº app
æ´» åĬ¨
«à¸ ±à¸
æīĭæľº çĻ»å½ķ
å®¶ ä¹Ĳ
łà¸²à¸ ŀ
æ ¿
à¤¾à¤¤ à¥Ģà¤²
à¥ģ à¤²
ìĬµ ëĭĪëĭ¤
áĥķ áĥĲáĥļ
Ġà¦Ĩ à¦¸
à°¿à° ·
à¯Īà® ªà¯į
× ļ
Ġro z
ÏĦÎ¹Îº Î®ÏĤ
ĠÑĥ Ñĩ
l er
áĥĲáĥľ áĥ¡
ĠE s
Ġà¤¸ à¤¾à¤¥
à¦° à§ĩ
Î¼Îµ Î½Î¿
ÃŃ nh
ãģĹ ãģ¦
Ġ Åŀ
Ġqu es
ĠÎ±Î½ Î¬
Ð» Ð¾
cz ne
· à¹īà¸Ń
Ġagäºļæ´² åĽ½éĻħ
éĿ ©
Ġà¹Ģà¸ ŀà¸
æ» ¡
ĠæĪ Ĳ
Ġæ Ĳ
Ġà¥ ¨
ĠÙħ Ø¹
à±ģà° Ĺà°¾
ĠáĥłáĥĿáĥĽáĥĶáĥļ áĥĺáĥª
is e
Ġç¥ ŀ
Ġåı ĳ
Ġæ ·
ä» ĭ
å¤§ åŃ¦
Ġ4 8
55 5
ģà¸ ´à¸
æĸ¹ éĿ¢
ç¦ »
è¡¨ ç¤º
Īà¸±à¸ Ķà¸
ä¸ Ķ
çĹ ħ
çļĦ ä¸Ģ
å¥ Ĺ
Ġà¹Ģà¸ ŀà¸£à¸²à¸
çº ª
¥à¸ °à¹Ģà¸
à¤ķ à¤°
Ġy ar
ĠÎ± Ïĥ
à®¿à®¯ à®¿à®²à¯į
a j
3 5
à¹Ģ à¸Ńà¸ĩ
Ġäºļæ¸¸éĽĨåĽ¢ å®ĺç½ĳ
è¡ Ģ
äº «
çĶ ·
Ġ à¹Ħà¸¡à¹Īà¸
ĠåĪ© æĿ¥
áł ¡
åĲ §
Ġà¹Ģà¸ §à¸¥à¸²
Ħà¹Īà¸ °
ãĢ Į
éĵ ¾
¸ à¹Īà¸Ļ
âĢĭ âĢĭ
åħ¥ åı£
7 9
à¸£à¸±à¸ ģà¸
æŃ »
å¤ ®
ç µ
ç§ĳ æĬĢ
åĲĪ ä½ľ
ĠæĹ ¶
ķà¹Ī à¸Ńà¸
Ġçİ¯äºļ éĽĨåĽ¢
æľ ĥ
åħ ´
å° ¼
ä¸į æĺ¯
æĥħ åĨµ
ç´ ł
ç» ĩ
à¹ģà¸ ģ
ä¹ Ŀ
Ġå ī
åľ ĭ
çĽ Ł
à¹Ģà¸£à¸ ·à¹Īà¸Ńà¸ĩà¸
ç» Ĩ
èµ ļ
ç ¶
§ à¸Ļà¸
à¹ģ à¸Ļ
ä¼ł å¥ĩ
Ĳ áĢ
å¯ Ĩ
å¯ Ł
à¸Ńà¸ Ķà¸
à¤£ à¥Ģ
Ġa v
Ñĥ Ñī
à¦§ à§įà¦¯
ÏģÎ¿ Î½
èĦ ĳ
åı ¤
à¤¾à¤ ĸ
Ġï¿½ï¿½ï¿½ï¿½ ï¿½ï¿½
ÏĥÎµ ÏīÎ½
áĥ® áĥĲáĥĵ
ĠÄĳá» ĥ
à¤µ à¤°
b re
Ġà®¤ à¯Ĩà®°
à±įà° §
ĠÎ´ Î¹Î¬
Ñĭ ÑĤ
Ġc zy
Ġj s
ĠÃ§ ox
áĥĿáĥł áĥĺáĥ¡
a hr
Ġà¤ķà¤° à¤¨à¥ĩ
Ġes ta
Ġà®ķ à¯ĩ
Ġ× ĸ
Ø¨ Ø±
n ym
ĠÎĳ Ïħ
Ġà¦¸ à§įà¦¬
Ġà®ķ à¯ĭ
ĠÐ¾ Ð½
£áĥ ¡
³ à¸Ļà¸
å·ŀ æīĳåħĭ
Ġå ģ
é ¤
ä¸Ń çļĦ
à¥ĭà¤ ¡
Ġs ono
Ġs a
áĥĶáĥĳ áĥ¨áĥĺ
à°¿à° ¦
Îº Î¹
v ÄĽ
à¦° à§įà¦¤
ĠÙħÛĮ âĢĮ
Ġs er
Ð¾ÑģÑĤ Ð°Ð²
ÎĳÎ Ŀ
Ïĩ Î½
Ġà¸ ¡à¸µà¸
éĻ ¤
Ġà¤¹à¥ĭà¤¤ à¥ĩ
ëħ Ħ
Ŀ i
Ġà®İà®© à¯įà®©
à°® à±Īà°¨
ĠB e
à®µ à¯ģà®®à¯į
ĠÐ´ Ð¾
oÅĽ Äĩ
Ġáĥĺ áĥ¥
à¦ ł
t s
ÙĦ Ùĥ
ĠÏĩ Î±
åº ı
æī ¹
èį ¯
Ġag æīĭæľº
é ł
łà¸ ±à¸
à¹ĩà¸ ģ
åģ ¥
Ġå® ī
Ġå° Ĩ
à¹ī à¸Ļà¹Ģà¸
éħ Ĵ
æĸ¹ æ³ķ
Ġè ģ
å¯ Į
äºº åĳĺ
Ġåı ª
à¤¤ à¤¾à¤¤
Ñģ Ð»Ð¸
ÉĻl i
áĥĹ áĥĲ
ÏģÎ¹Ïĥ Ïĥ
p a
Ġï »¿
Ġì £¼
à¦¨à§įà¦¤ à§įà¦°
×ķ× Ŀ
áĥ£áĥ ¤
Ġà®µ à®¨à¯įà®¤
Ġà¤ª à¤¹
Ð° ÑĨÐ¸Ð¸
ĠP h
Ġv Ã½
Ġà¦® à§ĭ
Ġ ent
Ïĩ Î®
Ġe en
Ġà¦Ĩ à¦Ĺ
Ġà°¸à°¿à°¨ à°¿à°®
ĠáĥĽ áĥĺáĥĽ
à°µ à°°
à¯Īà® ļ
Ð¾ÑĤ ÑĢ
os ta
à°¿à°² à±įà°²
Ġthá» ĥ
Î¾ Îµ
ì ĻĢ
Ġáĥĵ áĥĲáĥ¡
Ð°Ð½ Ð¸Ðµ
Ġà¦¦ à§ĩà¦ĸ
Õ¡Õ ¿
ĠÃ¶ z
Ġà°µ à°ļà±įà°ļ
Ġp re
Ġà®µ à®´
ĠR e
Î¼Î± Î½
ĠØ§ÙĦ Ø´
Ð°Ð» Ð°
à¤¾à¤ ı
à°¨ à±įâĢĮ
Îķ Î£
ĠÎ® ÏĦÎ±Î½
à§ĥ à¦¤
Ġg r
Ġol an
Ġáĥ¬ áĥĲáĥłáĥĽ
Ð°Ð½ Ð¾Ð²
Ġk ter
à°¸ à±į
à« į
è§ ī
éĢļ è¿ĩ
è® ¸
åº ĵ
å· ´
è® ²
à¹ĥà¸«à¸¡ à¹Ī
æī ¿
à¤£ à¥ĩ
Ġt y
ĠÎ½ ÎŃ
×ķ× Ĳ
Ð¾Ñģ Ñģ
ÏģÎ¹ÏĥÏĥ ÏĮÏĦÎµ
à®¿à®ķ à®³à¯į
Ġà¤¸ à¤ķ
ĠØ§ÙĦ ÙĨ
Ñ Ĭ
Ġs ont
et to
à§įà¦ ¦
Ġë³ ´
à°² à°¾
Ġáĥ¬ áĥļáĥĺáĥ¡
cj a
in dÉĻn
b e
Ġà°ļà±ĩà° ¸à±įà°¤
ĠÎ Ĩ
Ðº ÑĤ
.. ..
ķà¸²à¸ ¡à¸
çľŁ éĴ±
4 6
ķ áĢ
«à¸ §à¸
à¤Ĥà¤¤ à¤°
Ïģ Î¸
à¦¾à¦ ĸ
áĥĶáĥłáĥ ¡
al es
Î»Î» Î·Î½
Ġk e
áº¿ t
Îµ ÏĢ
s kie
à°¾à°¨ à±ģ
Ðº Ðµ
Ġdi es
Ġs ta
áĥĺáĥĲáĥľ áĥĺ
à®µ à¯ĩ
ĠÎĶ Î¹Î±
à§ĩà¦ ·
ĠÎ¤ Î±
Ġà°ľ à°°
Ġ ÉĻl
Ð¾Ð»ÑĮ ÑĪ
Ġê³ ł
Ø§Ø ¬
áĥĿáĥĳ áĥ¡
ãģ ķ
ĸà¸¶à¸ ĩ
Ġ4 9
è®¾ è®¡
à¸£à¸ ¹à¸
é ²
ĠåĴ Į
b o
æł ¹
à«į àª
ªà¸¸à¸ Ķà¸
77 7
çİ© æ³ķ
Ġå ĵ
à¤¾à¤ ¶
Ġà®ħ à®±
d as
à°¾à° ·
ĠL es
à¦® à¦¾à¦¨
áĥĲáĥľ áĥĵ
Ú¯ Ø±
ĠÎº Î¹
Ġv e
Ġà¤¹ à¤®
×Ļ ×ķ×ª
Ġá Ĭ
Ġäºļ ç¾İ
¢ à¹Į
åħ ħ
æĸĩ åĮĸ
¡à¸ ±à¸Ļà¸
åª Ĵ
ª à¸£à¹īà¸²à¸
å¤§ çļĦ
à¥į âĢį
Î» Î¿Ïħ
ì¹ ´
à°¾à° ³
ĠT r
ĠÎº ÏĮ
ÑģÑĤÐ² ÐµÐ½
à¦¾à¦ ¯à¦¼
ĠØ§ÙĦØ ¥
Ġà¤ħ à¤¶
ì¶ľìŀ¥ ìĥµ
µ ľ
Ġ ÏīÏĤ
à°¿à°Ĥà°ļ à°¾à°°à±ģ
Ġw er
Ġáĥ© áĥĶáĥĽ
Ġà®ª à®²
w y
áĥĿáĥł áĥĺ
Ġà¤¥ à¤¾
Ġb il
ĠÐ¾ Ð¿
ķà¹Ī à¸Ń
¥à¸ ĩ
Ġ ĆĈ
åĪĨéĴŁ pk10
Ġà¤µ à¤°à¥įà¤
ĠN g
Î» Ïħ
áĥĺáĥ §
Ġà°° à°¾à°ľ
ë¬ ¸
Ġde ll
ÐµÐ» Ñı
c to
Î» ÎµÎ¯
Ġà°ħ à°¨à°¿
áĥķ áĥ¡
Ð½ ÑĥÑİ
Ġ app
á»ĳ i
Ø² Ø§Ø±
Ġm i
Ġæ± Ł
ç¾İ åĽ½
åį °
Ġà¤ķ à¤¾à¤¹à¥Ģ
Ġà®® à®±à¯įà®±
áĥłáĥ £áĥļ
ÄŁ Ä±
Î½Î· ÏĤ
ĠØ§ÙĦ Ø¯
Ð¾Ð»ÑĮ Ð·
Ġw ie
Ġà°Ĺ à±ģà°°
a da
ì§ Ħ
ĠÎĶ Î·
Ġáĥ¡ áĥĲ
ĠÎ¼ ÏĮ
ĠÚ© Ø§Ø±
áĥĺáĥ ŀ
c es
Ġà¦ħ à¦¬
ĠÎ±Î½ ÏĦÎ¹
Ð¾Ð¼ Ñĥ
è´ Ł
åĿ Ľ
ç¼ ĸ
çľ ¼
ļà¸ ±à¸
çĤ º
ä½ ³
Ġà¸ ķà¸
Ġ ä¸ĭ
à¥ĭ à¤°
Ġà° ĵ
Ïĥ Î¹Î±
ãģ£ ãģ¦
ti g
Ù Ĵ
Ú¯ Ø§Ùĩ
ĠìĹ ¬
Ø± Ø¨
ĠáĥĽáĥĲáĥĴ áĥłáĥĲáĥĽ
Ġs on
ÐµÐ» Ð¸
×Ļ× §
Î¯Î½ ÎµÎ¹
Ġpi Ã¹
æĿ Ģ
Ġ5 6
åį Ĭ
Ġà¤² à¤¾à¤Ĺ
à±ģà° Ł
ĠáĥĽ áĥĶ
ia ÅĤ
áº ©
t ÄĽ
è§Ĥ çľĭ
Ġ \
à¤¿à¤¯ à¥ĭà¤Ĥ
Ġáĥł áĥĲ
à¦¿à¦ Ĥ
æľĢæĸ° çĻ»å½ķ
ä¾ Ĩ
à¥ĭà¤ Ł
Ã ¸
ĠÐ· Ð°Ðº
Î¼ÏĮ ÏĤ
Ġáĥŀ áĥĺáĥłáĥ
à°¤ à±įà°¯
ou ve
es ch
Ġk o
Õ ½
ĠÃ¶ l
ÑĢ Ð°Ð·
Ã¹ ng
Îº Î®
i v
íı ¬
à§ İ
åĢ ĭ
à¹Ģà¸£ à¹ĩà¸
çł´ è§£
ĠæŃ ¤
ç½ Ĺ
Ġag äºļ
å¤ Ł
Ġç Ī
å± ħ
33 3
Ġ5 8
è¿Ļ ä¸ª
Ġæ Ļ
à¤¿à¤ ®
ĠáĥĴáĥĲáĥĽ áĥĿáĥ
ÙĬ Ùħ
à°¸ à±įà°Ł
ĠÐ²Ñģ Ðµ
ĠÎµ ÏģÎ³
ĠP o
ĠØ¯ Ø§Ø±
Ġm ais
ĠÎ± Îº
ĠëĤ ĺ
ÐµÑģ Ñģ
à§Ł à¦¾à¦°
Å º
ll en
áĥł áĥĶ
b i
¡ à¸´à¸
å¥ ¹
à¸Ńà¸Ńà¸ ģ
Ġé Ľ
ç Ł³
à¥įà¤¯ à¤ķ
Æ¡ n
ÑģÐº Ð¾Ð¹
à±Ģ à°¯
ĠÎ ¯
Ġg Ã¼n
×Ļ× ĳ
p os
Ð¾ÑģÑĤ Ð¾
Ġà¦¤à¦¿à¦¨ à¦¿
Ø ¦
ìķ ¼
ĠÎº Î¬Î½
áĥĶáĥ ®
ãģ Ĥ
à±ĩà° ®
Ġà®İà®© à¯įà®ª
Îķ Î¡
ÏĦÎ· ÏĥÎ·
à§įà¦ ľ
ÑģÐº Ð¸Ð¹
áĥĿáĥĵ áĥĲ
à°¯ à±įà°¯
ÉĻ v
t es
ĠÏĢ ÏģÏİ
ie j
à°¾à° ¹
ĠÃ º
Ġçº ¿
åĢ į
å¤§ åİħ
å¾ Ģ
é» Ħ
à¹ Ħà¸£à¸
åº ·
éģ Ĺ
ĠãĢĳãĢĲ ãĢĤ
åĿ ĩ
Ĭ à¸´à¸
à¤¾à¤ ¢
Ð Ĵ
Ġs c
ung s
Ñĥ Ð½
áĥľ áĥĶáĥľ
Ġå¦Ĥ æŀľ
ä¸» è¦ģ
à¸£ à¹Įà¸
2 00
ć ć
Ġà¤®à¤¿à¤ ³
ĠN h
ĠÏĩ ÏģÏĮ
Ġë ²
à§ĩà¦ ¦
ĠØ§ÙĦ ÙĦ
te ur
à°ķ à±įà°¤
r os
à§ģ à¦®
Ð Ł
m asÄ±
à®¾à® ļ
ĠÐ´ Ð²
Ïģ Ïħ
Ġo der
Ġc o
ÏĢ Î¯
à¸µà¸¢à¸ ĩ
Ĥà¸¶ à¹īà¸Ļà¸
è¯ Ń
æĵ į
å·² ç»ı
Ħ à¹īà¸²
¥à¸ ¹à¸ģà¸
Ġà¤ī à¤ª
ĠáĥĴáĥĲáĥĽ áĥĿ
Ùħ ÙĦ
ĠÏĢÎ± ÏģÎ¬
m es
Ġà°µ à±Ī
Ġà®ħ à®Ł
ÐµÑĢ Ð¶
« à¸²
Ġà¨ ®
åĨ ł
ĠAGçİ¯äºļ éĽĨåĽ¢
Ġà¹Ģà¸ Ľà¹ĩà¸Ļà¸
à¸²à¸ ģà¸
Ġæ ĥ
à¸£à¸²à¸ ¢à¸
æ ½
ĠéĢ ļ
0 8
ĠÂ ·
à¥Ĥ à¤°
Õ¡Õ ½
Õ¶ Õ¥ÖĢ
ÅŁ Ä±
×Ļ× ©
ÏĦÎ¹ Ïĥ
c er
ĠáĥĲáĥĵ áĥĲáĥĽ
à§įà¦ ł
Ġc Ã´ng
à±Ĩ à°Ł
ĠÐ¿ Ð¾Ðº
Ġè ¶
è Ĺ
ĠE 0
Ġà¨ ¤
Ġ äºĨ
Ġ3 1
Ħ à¹īà¸²à¸
Ġà¤¸ à¥ģà¤°
t ti
sz e
Ġì ¤ĳ
ÙĪ Ø§ÙĨ
ĠÎ± ÏģÏĩ
Ġ Å¾e
Ð¸ Ð³
Ġà¦¹à§Ł à§ĩà¦Ľà§ĩ
ir es
ĠáĥĽ áĥĺ
à®¿à®ķ à®³
ĠS p
ĠÏĮ ÏĢÏīÏĤ
Ġå »
æŃ ¢
à¤°à¥įà¤ ®
Ġ ÉĻs
Ġà§¨à§¦à§ §à§
Ġà¦ķ à§ĭà¦¨
an te
ÑĨÐ¸ Ð¾Ð½
iá»ĩ t
à°¿à° ľ
ĠØ¹ ÙĨ
ni k
Îº Î¬
Ġáĥ¨áĥĶáĥĽ áĥĵáĥĶáĥĴ
y a
ê³ Ħ
Ð» Ðµ
ĠÎ´ Ïį
à¯Ģ à®°
ä¸Ń å½©ç¥¨
è¦ģ æ±Ĥ
è¿ İ
Ħ áŀ
Ġéĩ ĳ
Ġå¤§åıĳ äºĶ
Ġd 88
åŃ ©
Ġb et
à¤¿à¤¤ à¥Ģ
r on
à°¿à° Ĺà°¾
Ġb áº¡n
×Ļ× ĵ
Ġà¦ķà¦° à¦¤à§ĩ
b le
áĥłáĥ ĵ
ĠÎ¼ÏĢÎ¿ ÏģÎµÎ¯
ÑģÑĤÐ² Ð°
Ġé ģ
Ġæ ¢
åģ ľ
Ĺ à¸£à¸
èĢĥ è¯ķ
¹à¸ ģ
å° Ĭé¾Ļ
ĸà¸ ¹à¸ģà¸
Ġag å®ĺæĸ¹
æ³ ¢
Ġà¥§ à¥
Ġê ±
à®¿à®± à¯įà®ķ
Ġ um
ĠØ§ÙĦ Ùģ
Ġt out
à°¾à°² à°¿
t to
áĥłáĥ £áĥ
Ðº Ð¾Ð²
¥à¸ ±à¸ĩà¸
à¸Ńà¸µà¸ ģà¸
ĠåĽ½ éĻħ
à¤ļ à¥ĩ
ÙĪ Ø²
ĠÎ± Î³
Ġà¤² à¤Ĺ
c ÉĻ
s ta
Ð¸ÑĢ Ð¾Ð²
à±ĩà°¦ à±ģ
ÏģÎŃ ÏĢÎµÎ¹
Ġvo tre
áĥĺáĥ¨ áĥľ
Ġà¦ıà¦ķ à¦Łà¦¿
or es
g li
æĻ Ĥ
x x
ľà¸ ¥à¸
9 18
¼ åĲĪ
å® ĥ
è´ §
© à¸²à¸
Ġè °
ĠæĹ ł
1 00
à¤¾à¤ ·à¥įà¤Ł
à°¿à°¤ à±įà°°
Î´ ÎµÏĤ
a ÅĤ
à®² à¯Ī
ĠÐµ Ð³Ð¾
Ġs á»ĳ
Ú ĺ
in s
Ġë¶ Ģ
ą Ĉ
Ġå¹ ¿
3 d
âĸ ¡
Ġç Ħ
äºº çļĦ
å¿ µ
ĠæĿ ¥
äºĨ ä¸Ģ
åį ³
à¤¾à¤Ĥà¤ ¤
ļ à°¿
ra t
a ciÃ³n
Î´ Îµ
Ġm ÉĻn
Ø¹ Ø¯
Ã¡ m
ÑģÑĤ Ð°Ð²
Ġ×Ķ× Ĳ
áĥ§ áĥķ
à°³ à±įà°²
ĠÏĢÎµ ÏģÎ¯
è½ »
æķ ħ
p p
éĥ¨ åĪĨ
à¹Ģà¸Ĥ à¹īà¸²à¸
à¨ ®
¨ à¥Ģ
à®¾à®° à¯įà®ķà®³à¯į
ê° Ħ
Õ ´
d iy
n Äħ
Ġà¤Ĺ à¤¯à¤¾
ĠáĥĽ áĥĿáĥ¡
à° «
l ia
Ð» Ð°
ĠçĶ ¨
è¿ ľ
3 7
åĲ ĥ
¨ à¤¾
ãģ§ ãģĻ
ĠÃ¼ ber
ĠÏĢÎ¿Î» Ïį
áĥĶáĥĹ áĥĺáĥ¡
Ġh et
j er
our s
Ġà®ħà®° à®ļ
Ð» Ð°Ð´
ĠpÅĻ ÃŃ
g io
ÛĮ ÙĦ
Ġà°Ĩ à°¯
ê ¹
ĠÏĢÎµ ÏģÎ¹ÏĥÏĥÏĮÏĦÎµ
ng an
Ð¸ ÐµÐ¼
à¥įà¤¯à¤¾à¤ļ à¥Ģ
Ġà° §
Ġr es
Ġà®¤à¯Ĭ à®Ł
áº ½
Ġn as
áĥ Ń
m ÉĻ
ÙĢ ÙĢ
Ø° Ø§
Ġà¤ķ à¤¿à¤¸
Ġà§ ©
à±Ģ à°²
à¦¾à¦¦ à§ĩà¦¶
j a
à¦¿à¦ ľ
au x
ĠÎŃÏĩ Î¿ÏħÎ½
ÑĥÐ» ÑĮ
ĠìĿ ¼
ç Ĩ
Ľ à¸µ
ª à¸Ļ
Ġà¤¯ à¤¾à¤Ĥà¤¨à¥Ģ
áĥĶáĥłáĥ Ĺ
ÉĻ x
r Ã³
¡ à°¿
Ġà¤ī à¤¸
h en
Ġt ut
ÏĦ Ïİ
à®© à®°à¯į
m sc
äºº çĶŁ
ĠĈ Ĉ
ĠâĢĿ ãĢĤ
Ġag æ³¨åĨĮ
ªà¸²à¸¡à¸²à¸£à¸ ĸà¸
ŀà¸ §à¸
è§ Ĵ
Ġà¸ Ī
æĺ ¥
Ġå Ł
åī ¯
åĪĨ æİĴåĪĹ
3 4
åĪ Ŀ
Ġçİ °
à¸Ļà¸ °à¸
æĸ° éĹ»
à¸£à¸°à¸ ļà¸
à¹Ģà¸Ĥ à¹īà¸²
çķ Ļ
Ġ <
Ġà¤¹ à¤¾
ĠÐ¿ Ð¾Ð¼
ĠØ® ÙĪØ¯
à§Ł à¦¾
l Ã©
ĠÎĳ Î½Î±
áĥĺáĥĿ áĥľ
ÙĬ Ø§
ĠÎºÎ± Î»
Ð¾ÑĢ Ð¾Ð´
m p
×ķ× ¤
à¦¾à¦ķ à¦¾
Ġth u
àµ Ĩ
à¤ķ à¥Ģ
ov Ã©
Ġà®® à®©
ÏģÎ¯ Î¶
Ð¾ ÑĪ
ĠáĥĽ áĥ¡
ĠI l
à¦ľ à¦¨
Ġ ap
Ġà®® à¯ģà®¤
ë £
ÏĦÎ¹Îº ÏİÎ½
à±Ģ à°ª
\ \
i Äħ
is ch
Ġà¤ Ľ
Ð¸ÑĤ Ðµ
Ġe dir
ÏĦÎ¹Îº Î¿Ïį
à° ¥
Ø§Ø¯ Ùĩ
ĠÐ± ÐµÐ·
áĥĿáĥ ŀ
en ta
ì¹ ĺ
à°· à±įà°Ł
v ÃŃ
ÏĦÎµ Î¯
á»Ļ i
ãģ ł
à¯ģà®ķ à¯į
äº§ ä¸ļ
Ġæı Ĳ
«à¸¥à¸ ±à¸ĩà¸
Ġçİ¯äºļ å¨±ä¹Ĳ
Ġå¼ Ģ
Ġà¤ª à¤£
à§ģ à¦ķà§įà¦¤
ĠØ§ÙĦ Ø¨
ĠÐ¿ÑĢ Ð°Ð²
Ġi Ã§
çīĪ ä¸ĭè½½
Ġæ¯ ı
à¥ĭà¤ ľ
ĠE r
Ġà°¤ à±Ģà°¸
s ki
ÏĦ Ïģ
rat is
t os
á» ī
à¯ģà®Ł à®©à¯į
áĥĺáĥ ¦
ĠÐ¿ÑĢ Ð¾Ð´
Î¹Î¿ ÏĤ
åĪ ĩ
åľ Ł
åŁİ å¸Ĥ
à¥įà¤¯à¤¾à¤¸ à¤¾à¤łà¥Ģ
Ã§ Ä±
Ġprze z
Ġà°ª à°¾à°°
Ð¸ÑĢ Ð¾Ð²Ð°Ð½
Î³ Îµ
ĠÙħ ØŃ
Ġë§ Ī
à¦¾à¦¨ à§ĩ
áĥłáĥ Ĵ
r as
à°°à±įà° µ
Î»Î» Î±
n Ã½
ãģĹ ãģŁ
Ġn ous
áĥ£áĥ ®
Ġh ab
Ð¾Ð» Ð½
à· Ĭ
à¥ ľ
Îµ ÏģÎ³
áĥĺáĥ «
Ġh ÉĻr
ĠÎ±Ïħ ÏĦÎ®
v i
áĥĿáĥ ¨áĥĺ
×ķ× ©
Ġu 0
à¤ļ à¥įà¤
Ġà°ī à°Ĥà°¡
ow ych
ÏĨ Î®
Ġ ra
Ġà®ķ à®°
ÑģÑĤ ÑĢ
Ġê³ µ
ĠÙģ Ø±
ĠáĥĵáĥĲáĥ ĺ
Î¿Î¹Î½ ÏīÎ½
à¦¾à¦ ¥
ĠU n
ĠÏĢÎ¿Î» Î¹
Ñĥ ÑĪ
Ġo g
Ġà®ª à®¤
ĠÐ½ Ð¾Ð²
n Ã¡
ĠÏĢ ÏģÏī
ĠáĥĹáĥ¥ áĥķáĥĶáĥľ
à¤¾à¤¯ à¤¾
Ħà¸£à¸ ±à¹īà¸ĩ
æĬķ èµĦ
Ġäºļæ¸¸ app
æĸ¹ å¼ı
à¤°à¥įà¤ £
en n
Ø± Ø©
ĠÐ² ÑĢÐµÐ¼
ĠÎ£ Ïħ
Ġâ ĺ
Ġìĥ ģ
à°ªà±įà°ª à±ģà°¡à±ģ
ŀ à¯įà®ļ
ĠÕ ¶
Ä±n Ä±n
ĠÏĢ ÏĮ
ĠÙĨ Ùħ
Ġn Ãły
Ġáĥĵ áĥĺáĥĵ
à¤ ł
en s
à¦ª à¦°
à¯ģà® £
ĠÎĵ Î¹Î±
Ġo p
×Ļ× Ĳ
Ġq ar
ĠÎķ Ïħ
íĶ Ħ
áĥĿáĥķ áĥľ
Ġé ļ
å¨ ģ
à¥įà¤° à¤®
r u
ĠÐ² Ð¸Ð´
à°¿à°¤ à±ĩ
ĠÏĦ Îµ
à¦¾à¦¤ à§ĩ
à®¿à®²à¯įà®² à¯Ī
Ùĩ Ø±
Î¼ Î¼Î±
áĥĶáĥĹ áĥĺ
Ð» ÐµÐ½Ð¸Ñı
ë§Ī ìĤ¬ì§Ģ
ì¶ľìŀ¥ ìķĪë§Ī
ìŀ Ħ
ªà¸ ¥à¹ĩà¸Ńà¸ķ
Ġà¹Ģà¸ ĩà¸´à¸Ļà¸
Ġà¸ŀ à¸Ļà¸
Ġà¸ ģà¸²à¸£
áĢ Ģ
çĬ ¶
çĶŁ æ´»
åį «
¡à¸ ±à¸Ļ
Ġ3 2
åħ µ
ç» Ī
á Ĥ
å¸ ģ
Ġà¹ģà¸ ¥
ç ĵ
æī ¾
áł¢ áł
åħ °
éĵ ģ
à¸Ńà¸ Ķ
æ± ½
æ´ ŀ
Ġag ç½ĳæĬķ
· à¸Ńà¸Ļ
Ġà¨ ľ
Ĺà¸µà¹Īà¸ ªà¸¸à¸Ķ
´ à¸Ļà¸
æĭ ©
é ¸
æĮ Ĥ
ä¸ ¥
¥à¸ ·à¸Ńà¸
Ġagäºļæ´² æ¸¸æĪı
è¡Į ä¸ļ
çİ° åľº
äº¤ æµģ
åĴĮ åĢ¼
à¹ģà¸ Ĥ
æĤ ¨
èĽ ĭ
9 5
à¹ģà¸ «
ä½ľ ä¸º
áł¡ áł
ģà¸ ¥à¸²à¸
åº §
ä¸į åĲĮ
Ġè® ©
Ġà¤¯ à¥ĩà¤
ÏģÎ± Îº
Ġn el
Ġà°ħ à°§
à¦¿à¦ ¯à¦¼
t uk
Ġna j
à¯Īà®ķ à¯į
Ġ }
ìļ °
ĠÙĩ Ø§
à´ ¤
¨ àµįà´
Ġà¤ľ à¤¾à¤¤
ĠÎł Îµ
áĥĺáĥĹ áĥ®
Ġz Ã¡
ĠÏĩ Ïī
áĥĶáĥļ áĥ¡
Ñı Ð·
ĠP ro
Ø§ÙĨ Ùĩ
on n
l ÉĻn
à°Ł à°¿
ÏĦ Î®ÏĤ
ĠÐ¾ ÑĢ
ĠØ¥ ÙĦÙī
ci o
e k
ÏĢÎ¬ ÏģÏĩ
Ġm á»
áĥĺáĥ¡ áĥĲ
Ð¾Ð¿ ÑĢ
Ø± Ú©
Ġâ Ļ
ĠìĿ ĺ
×¨ ×Ĳ
Ġà®® à¯Ĥ
Ġf or
ĠÏĦ ÎŃ
à°¾à° ¶
Ġs ind
Ġå® ŀ
á Į
à¹Ģà¸£à¸µà¸ ¢à¸
à¸Ńà¸ĩ à¹Ģà¸
à¤¤ à¥ĭ
Ñĭ ÑĪ
ä¹ħ ä¹ħ
Ġà¤¬ à¤¨
áĥķ áĥł
Ã¡ i
Ïĥ Ïĩ
Ð°Ñģ Ñģ
à°¯ à°Ĥ
u i
Õ¡Õ ¾
Ġt ÉĻr
ĠÎĺ Îµ
Ð¾ÑģÑĤ Ð¸
ÎĳÎ ¡
ÏĦÎ¿ Î½
Ġáĥĵ áĥĲáĥķ
Ġ Å
ĠáĥłáĥĿáĥĴ áĥĿáĥłáĥª
Ġà®ħ à®¨à¯įà®¤
Ġìľ Ħ
à±įà° ·
ĠÐ¸ ÑģÐ¿
jÄħ c
Ø§ÛĮ ÛĮ
Ġà¤® à¥Ī
ti que
d ÄĽ
à¦ ·
Ġ ÏĪ
de os
ĠP or
Ġtá» «
ÎµÎ¯ Î¿
áĥĲáĥłáĥ ¡
Ġà¤² à¥ĩà¤ķ
Ġwer den
in de
Ġy er
Ġà®İ à®¤
Ïĥ ÏĦÎ¬
Ġà°ªà±įà°° à°Ń
×ķ× §
ien to
Ġp os
ÏĦ ÏģÎ±
ĠáĥĽ áĥĶáĥ¢
ĠÐ¼Ð¾Ð¶ ÐµÑĤ
åħ¬ è§£æ¢¦
è´ µ
ç® Ģ
æĮ ī
à¤¾à¤Ĥà¤ļ à¥Ģ
Øª Ùħ
Ġà¦Ĺ à§įà¦°
à°¿à°¯ à±ģ
çļĦ æĺ¯
? ?
µ à¹Īà¸
à¨¾à¨ °
A N
Ġà¸ §à¸±à¸Ļà¸Ĺà¸µà¹Ī
Ġçº¿ ä¸Ĭ
çľŁäºº æ¸¸æĪı
ģ à¸£
Ġ1 åĪĨå¿«3
Ġåĳ¨ åħ¬è§£æ¢¦
m l
Ġä¸ ľ
ĠagåĽ½éĻħäºļæ¸¸ å®ĺç½ĳ
çļĦ åĲĹ
Ġà¤¨ à¤µ
Ïĩ Î±Î½
Ġcom p
Ġà® ²
Ġãĥ »
à¥ĩà¤ ĸ
ĠÐ¼Ð¾Ð¶ Ð½Ð¾
i u
ĠÎķ Î»Î»Î¬
Î½Î¿ ÏĤ
ĠáĥĹáĥĲáĥķ áĥĺáĥ¡
ìĦ ¸
ĠÐ´ ÑĢÑĥÐ³
g a
Ġà¦ķ à¦®
ĠÎµ Î¹
à¤¾à¤ Ĥ
Ø± Ùĥ
Ã© ho
áĥķáĥĶáĥ §
Ġau x
Îº Î·
Ġà®®à¯ģà® ©
er n
à¤¿à¤ ¶
Ġl á»
Î¸ Î½
Õ¥ ÖĢÕ
Ã¶ y
Ġà¦¬à¦¾à¦Ĥà¦² à¦¾à¦¦à§ĩà¦¶
à¦¨ à¦¿
Ġí Į
ĠÎ¿ Î¹ÎºÎ¿
ĠÐ ¥
ÛĮ Ø´
áĥĺáĥ «áĥļ
×ķ× ¢
o is
è¯ ¾
ª à¸Ļà¸
ªà¹Īà¸§ à¸Ļà¸
è®¾ å¤ĩ
Ĺà¸ ĺ
èģ ĺ
åĩ °
«à¹ĩ à¸Ļà¸
à¤¡ à¥ĩ
Ġs k
ĠÃ¼ z
Ġà®¤ à¯ĩ
Ġà¤ħà¤ª à¤¨à¥ĩ
ĠÏĥ Î¿Ïħ
ĠÏĢ ÏģÎŃÏĢÎµÎ¹
Ġh at
Ñĥ Ñħ
ãģ ĳ
ĠØ§ÙĦØ ®
Ġà¦ħ à¦Ń
íķĺ ê³ł
Î¼ÎŃ Î½Î·
Ä±n Ä±
Ġa lla
nie j
Äį nÃŃ
áĥĲ áĥĲ
Ġhá» į
ĠÐ´ Ð¾Ð»
¹ à¹Īà¸
à« Ģ
ŀ à¸²à¸
Ġçİ¯äºļ çĶµæ¸¸
88 çİ¯äºļ
à¸µà¹Īà¸ ¢à¸
à¸£à¸µà¸ §à¸´à¸
Ġ Ć
èĳ Ĺ
¢ à¹Ģà¸
å® £
æ² Ļ
çĶ¨ æĪ·
à¸Ļà¹īà¸ ³à¸
è· Ł
¤ åĩ°
åĸ Ħ
Ġ4 7
åĩ ı
te d
Ġè ¾
Ġà¤¶ à¤ķ
ti f
ĠÎ¼Îµ ÏĦÎ¬
à®© à¯Ī
ĠØ§ Ø³
Ġ) ,
Ġu0 9
à¥ĭà¤ Ĥà¤
Ġà¦¸ à¦¬
ĠÎº Î¿
Ġáĥł áĥĲáĥª
Ġà®ļ à®¿à®±
Îº Î»Î·
a us
Ġm eng
Ð» Ð°Ð²
ìľ Ħ
Ġ Å¡
Î §
Ġ) .
Ġà¦¯ à§ĩ
ĠØ¢ Ùħ
ant s
ĠÏĥ ÏĩÎµ
x o
ar a
à±įà° ¬
ÙĬ Ø³
Ġà¤Ń à¤¾à¤°
Ñı Ð½
áĥķ áĥĶ
Ġà¤ľ à¥ĭ
ê³ µ
Ġal s
ĠÔ ±
l u
ĠáĥĽáĥĺáĥ¡ áĥĺ
à®¿à® ª
Î¼ Î¿Ïħ
ĠÙħ Ø¯
ĸ à±įà°¯
×ķ× Ĺ
Î¼Îµ Î½
u er
ÑģÐº Ð¾Ð³Ð¾
Ã¡ ng
ãĥ³ ãĥ
ĠkeÃ§ ir
n oÅĽci
Ġde lle
áĥĶáĥĳ áĥĶáĥļáĥĺ
Î» Ïī
Ð°Ð½ ÑĤ
à°Ĥà° §
ĠÙĨ ÛĮ
í Ĵ
à®£à¯įà®Ł à¯ģ
à¦¤ à¦¾
Ġg ÉĻl
ĠÃ ª
ov Ã¡
å¸ Ń
å® ģ
* *
ªà¸³à¸« à¸£à¸±à¸ļà¸
åıĳ å¸ĥ
·à¹Ī à¸Ļ
æĹ ©
çİ¯ å¢ĥ
ĠãĢĳãĢĲãĢĤ ãĢĳãĢĲ
Ġå¤§åıĳ äºĮ
Ġà¤² à¥ĭà¤ķ
ÅĽ ci
ĠÐ¾ Ñĩ
áĥĺáĥ ĳ
ÙĦ Ùħ
Î³ ÏģÎ¬
ent es
ìķ ½
à¥ĩ à¤°
à±ĭ à°¤
Î¼Î¬ ÏĦÏīÎ½
à®® à®¾à®©
Ã¡ t
Ð´ Ðµ
Ġáĥ¨ áĥĶáĥľ
ê ´Ģ
Ġà°Ń à°¾à°°
Ä±n a
áĥĲáĥ¨ áĥķ
¯ à§ĭà¦Ĺ
Î¹ Î»
áĥķ áĥĲáĥľ
Ġcom e
Ġà°®à°° à°¿à°¯à±ģ
Ġ os
à¥įà¤ ¦
áĥĲáĥ Ķ
er o
Ġì¹´ ì§Ģëħ¸
ĠìĦ ľ
Ø ¥
Ä± x
Ð½ÑĭÐ¼ Ð¸
×ķ× ¡
Ã¶ n
Ġm ar
Ú© ÙĨ
Ġà¦¸ à¦°
áĥ£áĥ ĵ
Ġà¤® à¤¿à¤²
Î»Î» Î·
Î¬ Î¶
Ġê ¹
Ã± o
os ti
Ð°Ðº ÑĤ
à¤¿à¤Ĥà¤ Ĺ
áĥĺáĥ£áĥł áĥĺ
Ġà¦¸à¦® à§įà¦ª
Äĥ m
Ġë į
ar d
ãĤ ¢
Ð¾ ÑģÐº
ĠÏĢ Î»Î·
Ð°ÑĤÑĮ ÑģÑı
ĠØ§ÙĦ Ùĥ
Ġà®ĩ à®Ł
Ġo raz
al Ä±
Îº ÏģÎ¹
Ġáĥŀ áĥĺáĥł
u jer
ĠC on
Ġa s
ÏĮ ÏĦÎ·
à§ģ à¦¬
w er
Ð Ķ
Ð¾Ð³ Ð´Ð°
Ġà¤ķ à¥ĭà¤
Ġáĥ¡áĥĲáĥ® áĥĶáĥļ
ne j
ĠJ e
Î³ Ïī
Ġa i
ĠáĥĶáĥłáĥĹ áĥĺ
Ùħ ÙĨ
ĠG e
Î½ Î¹Î±
m os
ê¸ Ī
à®° à®¿à®¯
Ġf r
Ġà¹Ģà¸ Ħà¸£à¸Ķà¸´à¸ķ
Ġà¹ģà¸ Īà¸
Ġà¸ §à¸´à¸
æ¹ ¾
âĸ¡ âĸ¡
à¹ĩà¸ ģà¸
ä¸Ĭ çļĦ
è®º åĿĽ
çĶ »
it y
çļ ĩ
à¥ģ à¤¸
à¦¿à¦ ª
Î´ Î¹Î¬
ÐµÐ½ Ð°
Ġ× ¦
i que
Ø§Ø ®
ì ¡°
Å¡ e
áĥĶáĥ¡ áĥĺ
un un
u est
Ġà¤ķà¤¹ à¤¾
á»ĳ c
ĠÏĢ Î¬Î½
Ġì Ľ
Ð¾Ð± Ñĭ
Ġà¹Ģà¸ĩà¸´à¸Ļà¸ Łà¸£à¸µ
Ħ à¸²à¸£
Ã© es
«à¸Ļà¸ ±à¸ĩ
à¥ģà¤ ĸ
Ġs us
à¦¨à§įà¦ §
ª à¹Į
Ġà®® à¯Ģ
áĥĲáĥł áĥĶ
ne go
Ġà°ķ à°¾à°¨
ĠÎ¼ Î·
Ġm ÄĽ
ÙĦ Ø§
Ħà¸£à¸Ķà¸´à¸ ķà¸
Ħ à¸£à¸²à¸
Õ ¯
l ÉĻt
Ġy ap
Ġà¦¦ à§ĩà¦¶
h e
Ġá ĭ
æŁ Ĳ
å· ®
Ġà¤® à¥Ģ
ÎŁÎ Ŀ
Î¼ÎŃ Î½Î±
ĵ à¹Įà¸
ĠçĶ ±
Ġ à¹Ħà¸¡à¹Ī
Ħ à¹Ī
ä» ħ
à¹Ħà¸Ķà¹ī à¸£à¸±à¸ļà¸
è¿ °
Ġå¥½ è¿Ĳ
Ġà¤ªà¥įà¤° à¤¤
ÉĻs indÉĻ
c as
Ðµ Ñī
Ġìķ Ī
Ġà®Ĩ à®©
à±ģà°¤ à±ģà°¨à±įà°¨
Ġ×Ķ× ©
c on
ĠÏĨ Î¿
Ġna ch
áĥĲáĥ® áĥļ
ãĥ³ ãĤ
Î ĺ
ĠÏĢ Î¹Î¿
à°° à±ģ
ĠW y
à¦¿à¦ Ľ
Ġ5 4
ªà¸ §à¸
0 6
å½± åĵį
Ġï¼Į âĢľ
åĽ½éĻħ åİħ
çĶŁ äº§
Ġå¤§åıĳ ä¸ī
Ġć Ĉ
çĽ¸ åħ³
Ġ ä¼
Ġç Ń
ç´ ¢
å ĺ
æī §
Ġé ĵ
ĠæĽ ´
à¹ģà¸ Ĺ
Ġåħ ³
å¤ļ å°ĳ
å¥½ çļĦ
å¼Ģ å§ĭ
ĵ à¹Į
çª ģ
k er
Ġç» ı
ç ĩ
Ŀ à¸
ªà¸ ĸ
è Ĵ
¶à¸ ĩà¸
æĻ ļ
å·¥ ç¨ĭ
Ġà¹ģà¸ ķà¹Ī
¢ à¸´
3 9
à¤ ĥ
íĸ ī
ĠØ´ Ø¯
Ð»Ñİ Ñĩ
Ġm on
Ġkh i
Ġa y
à±ĩà° ¤
b a
ĠØ§ÙĦØ µ
è® ¿
å¹ ķ
Ĭà¸ ·à¹Īà¸Ńà¸
æĶ »
Ġà¨ ħ
æŃ ¦
Ĭà¸µà¸ §à¸´à¸
èµĦ æºĲ
Ġ201 6
æĹ ı
à¤Ĥà¤ ļ
ĠáĥĽ áĥĿáĥľ
à®¿à®¤à¯įà®¤ à¯ģ
à¤¾à¤¨ à¥Ģ
ĠÑį Ðº
à±ģà°ķ à±ģà°Ĥà°Ł
ĠÎ½ Î¿
ow o
ĠÄ Į
à¯ģà® ²
áĥĲáĥł áĥĺáĥ¡
à¹Ģà¸£à¸ ´
Ġä½ ¿
åĸ ľ
Ġà¸ ¡à¸µ
æĸ Ĺ
å¤Ħ çĲĨ
åĨħ å®¹
è® Ń
å¤© å¤©
æĹ¶ åĢĻ
à¤ļ à¥Ģ
à±įà°¯ à°Ĥ
ĠÏĢ ÏīÏĤ
Õ¡Õ¯ Õ¡Õ¶
asÄ±n da
ment s
Ð ľ
Ġn ÄĽ
ÑĦ Ð¾ÑĢÐ¼
Ġk on
à¦¾à¦¨ à§įà¦¤
ĠÎ´Î· Î¼Î¿
ÙĤ Ø¯
Ġp ue
Ġí Ķ
Ñī Ðµ
à¹Ģà¸¥à¸ ·à¸Ńà¸
åŁ ¹
Ļ áĢ
åİ Ĥ
Ġåį ģ
ĠagçľŁäºº æ¸¸æĪı
åıªä¸º éĿŀåĩ¡
Ġ4 5
é Ń
éĢ Ĥ
ç» ¼åĲĪ
à¥Ģà¤ļ à¥įà¤¯à¤¾
Ġv or
Ġà®¨ à®¿à®²
ÏĢÎ¿ Î¯
áĥĲáĥ¥ áĥ¢
à±ģà°ķà±ĭ à°µ
ĠÑģ Ð¾Ð±
×Ļ ×Ļ×Ŀ
ess o
f or
à¤Ń à¥Ģ
ÎĹ Îľ
ĠÏĥÏħ Î¼
Ġk imi
à¦¾à¦ Ĥ
áĥĲáĥ §
ÎŁÎ Ľ
ÏĨ ÎŃÏģ
Ġg iá»
ll es
ĠÐ½ Ð°Ð¿
Ġà¤ħà¤¸ à¥ĩ
Ġí Ĩ
áĥĽ áĥĺáĥ¡
j ÄĻ
ÏĢÎ¿Ïħ ÏģÎ³
à°¾à°Ĥà° ¤
à¯ģà®ķ à®³
ĠÎ´ Î¹Îº
ĠØ´ Ø¯Ùĩ
Ġà¦® à¦§à§įà¦¯
à¤ķ à¤¾
Ġá ½
Ïĩ Î¿
Ð¸ Ð¿
or s
ĠÕ «
ÉĻy ÉĻ
am i
Ø¹ Ø©
áĥĺáĥľ áĥĺáĥ¡áĥ¢
ÏĨÎ¿ ÏģÎ¬
ì ¶Ķ
Ġvo or
ç»Ħ ç»ĩ
åĪĨéĴŁ æĹ¶æĹ¶å½©
7 5
à¤¤ à¥įà¤°
ĠáĥĴ áĥĲ
íĶ ¼
Ð° ÑİÑī
ãĤ Ī
ĠÎ± ÎºÏĮ
u g
à±ģà°ķ à±ģà°¨à±įà°¨
ëª ħ
Ġáĥ¥ áĥĲáĥłáĥĹ
áĥĲáĥª áĥĺáĥĲ
Ġà¤Ĩ à¤®
Ġà°¨ à±ĩ
Ġçİ ĭ
åį Ī
ĠåĬłæĭ¿å¤§ 28
Ħ áĢ¹áĢ
à¹ĥà¸Ļà¸ ģà¸²à¸£à¸
Ġa m
Ġä¸ ¤
åįķ ä½į
Ġà¤¸ à¤°
Î¯ Ïĥ
à§ĩà¦ ľ
to v
áĥĲáĥķ áĥĺ
ÐµÐ½ Ð¸Ð¸
à°Ĥà°¤ à±įà°°
Ġåİ Ł
å² ģ
à¤ļ à¤¾
ÏĦ Î¹Î±
Ġan che
Û °
ĠØ¨ ÙĪØ¯
×Ļ× ¢
ĠÄĳ áº¿n
ĠgÃ¶r ÉĻ
Ġje d
à¯ģà®µ à®¤
áĥĶáĥ ¤
à±įà° £
Ġc as
ĠØ§ÙĦ Ø±
à§ģ à¦ķ
ler i
ĠÏĦ ÏĮ
Ð¿ÑĢ Ð°Ð²
Ġà°Ĺ à±įà°°
ê² ½
te l
ĠÂ» .
à¹ĥ à¸Ļà¹Ģà¸
® à¥ģà¤³à¥ĩ
Ð¸ÑĤ ÑģÑı
à¦¾à¦¤ à§įà¦°
à· Ĵ
ķ àµįà´
Ġà¤¬ à¤¾à¤¦
áĥĺáĥ£áĥ ļáĥĺ
Ã³ ÅĤ
à°¾à°° à°¿
ëŁ ¬
an Ä±
Ð°Ð¶ Ð´
Î»Î¿ Î¹
áĥĲáĥĿ áĥĳ
as i
ein e
æ¿ Ģ
åį ĥ
Ġç «
à¸£ à¹Į
Ġå¤§åıĳ åĪĨåĪĨå½©
è¯ Ģ
åĿ ļ
Ġd88 å°Ĭé¾Ļ
é¤ Ĳ
æ ĩ
æ¹ ĸ
å® ³
å¾ ħ
çĮ ľ
à¤¦à¥įà¤ §
Ġent re
à°® à±ĩ
Î¼ ÏīÏĤ
ÑĤ ÑĮ
ÙĤ Ø©
Ġà¦¨ à¦¿à§Łà§ĩ
an e
à®Ł à®¿
áĥĲáĥ ©
Õ¥ Õ¶
Ã¼ s
à¦¸ à§įà¦¤
à±ģà° ¸
£ Â
Ġvá» ģ
Î´ Î¹Îº
Ġà¸ĭà¸ ¶à¹Īà¸ĩà¸
¢ à¹Įà¸
åıĤ èĢĥ
æĭ ¬
è ©
ç§ »
åĪ° äºĨ
Ġçľ ĭ
Ġæĸ ĩ
Ġagäºļæ´²åĽ½éĻħ æ¸¸æĪı
áĢº áĢ
æ¯ į
çļĦ äºº
æĪĲ ä¸º
áŀ Ģ
ħ è¯»
ĠâĢĶ âĢĶ
Ġé¦ ĸ
åĳ ³
à¹ĥà¸ ª
å® ¡
æİ§ åĪ¶
à¥įà¤¹ à¤¾
Ġ× ĺ
vo ir
Ġáĥ¥ áĥĲáĥļ
Ġà¤µ à¤¾à¤²
íķ Ļ
à¯ģà®ķ à®³à¯į
Ð¼ Ð¸
Ġs ie
ĠØ§ Ø±
Ïĩ Î¹
en za
à°°à±įà° ¶
ĠÎµÏĢ Î¹Ïĥ
s p
ĠáĥĴ áĥĲáĥĺ
c ar
íķ ł
ØŃ Ø¯
Ð½Ð° Ñĩ
un u
Ġà¦Ľ à¦¿à¦²
on ne
ĠçĶ Ł
Ġ5 1
å¤§ æĪĺ
Ĺà¸µà¹Īà¸ ¡à¸µà¸
Ġh t
à¸Ļà¸ ³
· à¹īà¸Ļà¸
Ġag æīĭæľºå®¢æĪ·ç«¯
ç§ ģ
à¸Ńà¸²à¸« à¸²à¸£
Ħà¸ §
à¹Ģà¸ ĭ
Ġæµ ·
Ġ1 00
Ġ5 åĪĨå¿«3
· à¸
h i
é¢ Ŀ
ä» ¤
Ġ3 4
åħ³ ç³»
æ¸¸æĪı å®ĺç½ĳ
à¥įà¤¯à¤¾à¤ļ à¥ĩ
ÃŃ m
ÏĥÎºÎµ Ïħ
Ġáĥķ áĥĶáĥł
à°ķà±įà°ķ à°¡
t ra
áĥľ áĥĶáĥļ
Ġà®ª à®¯
Î½Î± Î½
ÑĢ Ð°ÑĤ
Ġé ķ
å½© äºīéľ¸
áŁ ĭ
à¹Īà¸²à¸ ĩà¸
ªà¸´ à¸Ļà¸
à¥ĩà¤ ¹
à°¿à°Ĥà°Ĺ à±į
ĠØª Ø§
u je
Ġ×Ķ ×ª
ĠÑģ Ð¾Ð²
áĥľ áĥĿáĥĳ
h a
ĠÏħ ÏĢÎ¬ÏģÏĩ
à¤ ĺ
à¦¿à¦ķ à§įà¦·
ĠÐºÐ¾Ð¼ Ð¿
Å© ng
z o
Ġà¤² à¥ĭà¤Ĺ
ĠP ar
Ø ¤
Î½Î± ÏĤ
äº ®
Ġå¥ ¹
Ġà¸ª à¸²à¸
Ġag æĹĹèĪ°
Ħà¸ ·à¸Ń
èı ľ
Ġà¸ ¥à¸
à¸£ à¹Īà¸§à¸
ķà¹Īà¸²à¸ ĩ
à¥įà¤¹ à¥Ģ
Ġpr Ã©
ÑģÑĤÐ² Ð¾
ĠáĥĽ áĥĵ
à¦¨ à¦¾à¦°
Î¯ Î´
Ġes te
Ġa d
ĠØ® ÙĪ
à±įà°Ł à±įà°°
ìŀ ħ
ãĥ¼ ãĤ
ĠÎºÎ¬ Î¸Îµ
Ġà°ī à°Ĥà°Ł
Ġt il
ĠÑģ ÐµÑĢ
Ġs Äħ
Ġun tuk
ĠÏĢÎµÏģÎ¹ Î¿
Ġun s
ÐµÑĤ ÑĮ
Ùħ Ø©
Ġáĥŀáĥĺáĥłáĥ ķ
Ġm et
i nh
à¥ĩà¤ ľ
Ġà®ķ à®²
ĠA r
×ķ× ŀ
à§įà¦ Ľà§ĩ
Ð² Ð¾Ð´
Ø´ Ø¯
Ġb ien
ÏĦÎµ Ïģ
on e
Ð¸Ðº Ð°
Ġå¤ ļ
«à¸ ¡
«à¸Ļà¸ ±à¸ĩà¸
à¥ĭà¤ ª
Ġà¦¬à§įà¦¯ à¦¬
Ġáĥ¡áĥĲáĥ ĳ
à¯Īà®ķ à®³à¯į
ĠÐ¾ Ðº
iáº¿ n
Ã¤ n
ÏĦÏĮ ÏĤ
áĥĲáĥª áĥĺáĥĺáĥ¡
l Ã¡
s on
Ġn ÉĻ
ìĹ Ń
Ġtr a
à¸Ńà¸ ±à¸
ĠçĦ ¶
ĠB 8
ŀ à¸£à¸
é¾Ļ èĻİ
§ à¸Ļ
à¹Ģà¸¥à¸ ¢
Ġæ Ħ
ä» ĺ
à¤¦ à¤¾à¤°
ÙĦ Ø©
Ġáĥŀ áĥĿáĥļ
ĠÎ£ Îµ
Ð½ Ðµ
Ġag 88çİ¯äºļ
ĠâĢ¦ âĢ¦
åºĶ çĶ¨
Ħà¸ ¥
ģà¸ §à¹Īà¸²à¸
Ġà¸ «à¸£à¸·à¸Ń
´ à¸Ļ
Ġà¤ķ à¤¾à¤¯
à°³ à±įà°³
ĠÐ ¯
à§ĭ à¦²
ĠØ§ Ùģ
l am
Î¼Î± ÏĦÎ¿
Ġà¤¤ à¤ķ
Ġà®ĩ à®²à¯įà®²
áĥľ áĥĲ
ĠÐ± Ð¾Ð»ÑĮÑĪ
ãĥ ¬
u is
ÎĻÎ Ŀ
Îµ ÏĦÎµ
à¸Ńà¸ ģ
à¹Ģà¸¥à¸ ¢à¸
à¥ģ à¤ª
à°¸ à°Ĥ
Ġë Ĳ
© áĥĶáĥķ
Ġz ap
à¦ ŀ
Ġà®ļà¯Ĩà®¯ à¯įà®¯
Ġà¤ķà¥ĩà¤² à¥Ģ
ĠØ§ ÛĮ
an a
Ø§Ø µ
em p
Ġ×ŀ× ©
ĠáĥĴ áĥĲáĥķ
á»© c
Ġà°® à°¹
ĠÐ· Ð°Ð¿
Ġà° ·
áĥľ áĥĶáĥĳáĥĲ
Å Ī
à¦¾à¦ľ à¦¾à¦°
éĵ¶ è¡Į
ķà¸ ±à¹īà¸ĩ
ï¼ Ī
åħ¨ åĽ½
¡ à¸Ļà¸
éªĹ å±Ģ
æīĢ æľī
å® ¾
à¤¿à¤ ·
Î¼ÏĨ ÏīÎ½
ĠE in
Ã¼ t
u al
à±įà°° à°®
áĥĿáĥłáĥ ¢
en ce
Ġà¤ķ à¤®
Ġì ¡°
Ġà¦¥ à¦¾à¦ķ
à¯ģà® ļ
Ġ us
ÏģÎ± ÏĤ
ÑģÐº Ð°Ñı
ur es
ãģ Ĭ
Î½ Î®
à°ª à±Ī
Ð¾ Ñī
Ġáĥłáĥ £áĥ¡
ÉĻ lÉĻrin
ĠáĥĹ áĥĳ
áĥĶáĥĳ áĥĸáĥĶ
ĠÐł Ð¾ÑģÑģ
Ġà®ĩ à®µ
ĠÑĤ Ð¾Ð»ÑĮÐºÐ¾
Ø§ Ùĭ
Ġ×ŀ ×Ķ
ĠÎ¿ÏĢÎ¿ Î¯Î±
Ġà®µà¯Ĩ à®³
ou v
Ġà°µà°¿à° ·
s ka
ĠU U
éĿŀ å¸¸
ç ĳ
ĠâĢ ĭ
ä¹ ¡
Ġäºļ æĲı
Ġà¤¨ à¤¿
Ġêµ ¬
à§ĭ à¦®
ij n
ur ch
ÑĢ Ñı
áºŃ p
ĠiÃ§ in
Ġv ar
Î¼Î¿ ÏĤ
Ã© m
áĥĿáĥļ áĥĿ
ãģª ãģĦ
Ð¾Ð» Ð¾Ð³
a Å¼
ç»ı å½©ç¥¨
Ġ3 7
èµĮ åľº
¸à¸ Ķ
Ġå¿« 3
ĠèĢ ģ
Ġçİ¯äºļag 88
Ġ ä¸İ
Ġæį ®
Ġçİ¯äºļ AG
å± Ĭ
è¯ķ çİ©
à¹ī à¸Ńà¸¢
Ġåĩ ¤åĩ°
èĥ ľ
ç´ §
ç¨ İ
22 2
ĠåĪ °
à¹Ģà¸Ĥ à¸²à¸
ç £
à¹Ī à¸Ńà¸
áł¤ áł
åĬŁ èĥ½
Ġ3 9
Ġæ ¶
ç¯ ĩ
¸à¸ ģ
ķà¸´à¸ Ķà¸
Ġ4 6
åħ³ æ³¨
Ġà¤Ĺ à¥ĩà¤²
Î½Î¿ Ïį
à±ģà°¨ à°¿
ĠÐ¸Ð½ ÑĤÐµÑĢ
Ã© n
à¦ ī
Ġà®®à®±à¯įà®± à¯ģà®®à¯į
il i
ĵ à¤Ĥ
áĥĿáĥ ĸ
Îĳ ÎĻ
ĠÏĥÏĦ Î¿ÏħÏĤ
ĠÐ¿Ð¾Ð» ÑĥÑĩ
Ġà°ķ à°¨
Ġáĥ¬ áĥĺáĥľ
Ġì¶ľìŀ¥ ìķĪë§Ī
ê² ©
Ġdas s
ÙĦ ÙĪØ¯
ÙĨ ÛĮ
Îº Î¿Î»
Ġc i
«à¸ ķà¸
ĠN e
à¹Ģà¸Ĥ à¸²
à¤¾à¤ ±
à¦¿à¦ķ à§ĩ
Ġáĥ¥ áĥķáĥĶáĥ§
ĠÐ´ ÐµÐ»
ì ¦
ÄĻ p
ĠÃª tre
Ġ×Ķ× Ĺ
ÏĨ Î·
à±Ģ à°¨
ÑģÑĤ ÑĮ
ãģ£ ãģŁ
à ²
ĠlÃł m
c os
Ġà¤¸ à¥Ģ
ÏĮ ÏĦÎ·ÏĦÎ±
áĥ® áĥĽ
Ð¸Ðº Ð¸
u ÅŁ
Ġà°ħ à°Ĥà°¤
f er
Ġëĵ ±
Ð° ÐµÐ¼
Ø± Ùħ
Ġà¦ķ à¦¿à¦¨
Ġ á»Ł
Ġn Ã¡
Î¸ Î¿ÏįÎ½
Ġde ngan
åħ¶ ä»ĸ
éĥ¨ éĹ¨
à©Ģ à¨
å¨±ä¹Ĳ å¹³åı°
á ģ
åĲ ¦
åĪĽ æĸ°
æľº æŀĦ
ą ï¼Į
ªà¸²à¸¡à¸²à¸£à¸ ĸ
å®ŀ çİ°
éĢ Ģ
ĠçĻ ¾
Ġå¤©å¤© ä¸Ńå½©ç¥¨
Ġà¸ Ĭ
Ġå¤§åıĳ å½©ç¥¨
Ġà¤ħ à¤§
ĠáĥĶ áĥĻ
íĴ Ī
ÐµÑĢ Ð°
Ġt ym
Ã¼ l
o p
Î¯ ÏīÎ½
ĠØ¨ ÛĮ
à°Ł à±įà°²
ĠáĥĲáĥł áĥĲ
Ġà¦¬à¦² à§ĩà¦¨
Ġï¿½ï¿½ ï¿½
ĠÎ¼ÏĮ Î½Î¿
ÐµÐ½ Ð½Ð¾
í ģ
Ġà¦ı à¦¸
Ġáĥ¡ áĥ¬
Ġin ter
×Ĺ ×¨
ãģĻ ãĤĭ
Ġà°Ĩà°¯ à°¨
Ġà¦ķà¦° à§ĩà¦¨
ĠÎ±ÏĢÎ¿ ÏĦÎµ
ÑĤ Ð¾Ð¼
à±Ĥà° ª
Ġd is
à¹Ĥà¸ Ķà¸¢
à¸£à¸§à¸ ¡à¸
àª ¨
çĭ ¬
Ġà¤ķ à¤¾à¤®
áĥ¡ áĥĲáĥ®
Ġol du
à°ķ à°°
Ġà¦¦ à§ģ
k on
Ð³ Ð°Ð½
áĥĲáĥ® áĥĶáĥĳ
ìĺ ģ
Ġau t
ĠãĢ Į
à¸²à¸ ¡à¸
æłĩ åĩĨ
è¯ ¢
Ġæĸ° èĲĦäº¬
å¾ ģ
à¨ £
¸à¸ ¡à¸
Ġçī ¹
Ġà¤ĺ à¥ĩà¤¤
ĠÙħ Ø§
Ïĥ ÏĦÎ®
ë° Ķ
is chen
ĠÐ¿ÑĢ Ð¾Ð²
àµį âĢį
à¥Ĥà¤ ª
ĠáĥĲáĥĵáĥĲáĥĽ áĥĺáĥĲáĥľ
Ġà°¨à±ģà°Ĥà° ļà°¿
Ġà¦¸à¦® à§Ł
Ġa le
ÙĪØ± Ø¯
ÎµÎ¯ ÏĤ
Ġr is
Ġì ½
ti v
ÑĢ Ð°Ð²
à°¾à°² à°¨à±ģ
Ġé Ĺ
Ġ5 9
à¹ģà¸ ķ
ĠæīĢ ä»¥
Ĥ à¹īà¸²
åľ° åĮº
é Ł©
ľ à¸´à¸
ä¼ļ è®®
à©° à¨
áŀ ĺ
Ħà¸ ³à¸
à¹Ģà¸ §à¸
åĨ Ļ
Ġ ā
² à¤¾
ÏĨ Îµ
áĥª áĥĲ
Ġà¦° à¦¾à¦ľ
ĠìĬ ¤
Ð¾Ð² Ð¾ÑĢ
owan ie
à® ¨
ĠÎ» Î±
Ġg ia
c ul
à¦¿à¦ ·
ĠÎ± Ïģ
Ġ×ĳ ×Ĳ
Ġp ow
à¤¾à¤·à¥įà¤Ł à¥įà¤°
Ð¸Ð¼ Ð¸
Ġà®¤ à®²
Ø§ Ø´Øª
ĠæĿ İ
åħŃ åĲĪ
¨ å¤©
3 2
h u
Ħà¸ °
3 1
ĠåĽ Ľ
éļ ľ
Ġäºļæ¸¸ å®ĺæĸ¹
à¥įà¤¯à¤¾à¤ µà¤°
an no
áĥĲáĥłáĥĹ áĥļ
ĠF r
ÙĬ Ùģ
à¤¸ à¥Ģ
à°¾à°² à°¨à°¿
Ġa cc
Ïģ ÏİÎ½
à¯įà®ļ à®¿
áĥ¡ áĥ¢
Ġà¦ªà§įà¦° à¦ķ
Ã¶v lÉĻt
ĠÐ¶ Ðµ
çº ³
Ġé ¢
à¤® à¤§à¥įà¤¯à¥ĩ
Ġâ Ķ
Ġâ ĸ
Ġìŀ Īëĭ¤
Ã± os
à±ĩà° ª
a ar
Ġb aÄŁ
ÏĦ ÏĥÎ¹
à´ °
Ġà¤īà¤¨ à¥įà¤¹
Ġz e
ĠÎ¶ Ïī
Ġà°ħ à°Ń
áĥĲáĥļáĥĺ áĥĲáĥľ
ĠM ar
à§ĩà¦Ľ à¦¿à¦²
ĠÐ² Ð¾
ĠÃ© ta
à¯ģà® ´
ĠØ§ÙĦ ÙĪ
ÏĢ Î®
Ġol m
áĥ®áĥĿáĥķ áĥł
Ġà°¸ à±įà°µ
ĠÎ ĸ
ĠktÃ³ re
âĢĮ ÙĩØ§ÛĮ
áº¥ y
Ġin i
à¤¾à¤° à¤¾
ĠÑĢ ÑĥÐ±
ĠÂ µ
Î· Î³
ÑĥÐ»ÑĮ ÑĤ
áĥļ áĥĺ
ĠâĢ İ
en i
h n
áĥ£áĥł áĥĲáĥĵ
Ġâ Ĩ
ë Ħ
Ġà®µ à¯Ģ
el ug
à°Ĥà°¡ à°¿
ĠÎ± Î¾
à¤¾à¤¤ à¥įà¤°
Ġc ette
ÑĢ Ð°Ð¼
m ÉĻt
ÏĨ ÎŃ
×ķ× ¦
ĠÙĦ Ø§
ĠÃ ¥
m ento
à¯įà®ª à¯įà®ª
ĠçĽ ®
ä½ Ļ
Ġà¨¦ à©ĩ
æĺ¯ ä»Ģä¹Ī
Ġ5 2
Ġå½©ç¥ŀ 8
à¸Ńà¸²à¸ Īà¸
ĠæŃ £
Ġà¤ĩ à¤¤
Ġpor no
en cia
áĥ£áĥ ĳ
ĠÏĢÏģÎ¿ ÏĤ
n ost
à±ģà°¤ à±įà°µ
Ð» Ð°ÑģÑĤ
ab le
Ġt áº¡i
m Ä±ÅŁ
ĠìĨ Į
Ġà°ļà±ĩà° ¶
ĠÐ»Ñİ Ð±
t ro
áĥĺáĥ ®
à¯Īà®ķ à®³
ch t
Î» ÏĮ
ãģ ©
cy j
Ð°Ð½ Ð´
à±Ĥà° ²
ĠáĥĵáĥĲáĥ Ļ
Ùĥ ÙĨ
ĠC om
æĶ¿ çŃĸ
Ġé ©
Ġç§Ĵ éĢŁ
¹ à¹Ī
å¤ «
åĽ¾ çīĩ
Ġè¯ ¥
Ġäºļæ´² æ¸¸æĪı
è° Ī
à¥įà¤¯à¤¾à¤¨ à¥ĩ
Ġh ÉĻm
it s
Ġmo Å¼
ëĲ ĺ
Ïį ÏĢ
Ġ Å¾
ĠáĥĽ áĥĲáĥľ
Ã© ri
à°¾à°² à±ĭ
éģ ĩ
Ġo f
Ġæ· ±
Ġæ¯ Ķ
± à¹Īà¸ĩà¸
Ġà¸ ģà¹ĩà¸
à¸´à¸ ĩà¸
ä¸ĵ ä¸ļ
à¤¿à¤µ à¤¸
ÎĳÎ Ľ
Ïģ ÎµÎ¹
Ã¡ o
Ã¤ t
Ġà¤¬ à¤¾à¤°
Ð¸ ÑĢÑĥ
Ġ×ķ ×Ķ
Ġp ri
à®¾à®³ à¯į
e b
Ġé İ
¨ à¸²à¸
éĢī æĭ©
è´¨ éĩı
Ĺ à¹īà¸²à¸
APP ä¸ĭè½½
Ķ à¹īà¸²à¸Ļà¸
Ġä½Ĩ æĺ¯
Ġà¹Ĥà¸ Ķà¸¢à¸
è´ ¦
ĠæĲ ı
çĻ¾ å®¶ä¹Ĳ
à¹īà¸Ńà¸¡à¸ ¹à¸
Ġæ±Ł èĭı
å² Ľ
Ġçİ¯äºļ å®ĺç½ĳ
Ġåį ļ
b b
Ľà¸£à¸°à¹Ģà¸Ĺà¸ ¨
å° Ħ
åĪ »
çĦ ¯
Ġ à¹Ħà¸
åº Ħ
áĬ ķ
æĭ ħ
èī ¯
å¤ĩçĶ¨ ç½ĳåĿĢ
Ġå¼ ł
æ¥ Ń
à¤¾à¤¨ à¤¾
à§įà¦¯ à¦¾à¦²
Õ¡ Öģ
ĠÕ ¿
asÄ±n Ä±n
ÎĳÎ ļ
ĠÎµÎ½ Ïİ
ÐµÐ½ Ñĭ
Ġb ÄĻ
à¯Īà®¯ à¯Ī
Ġà°° à±ĭà°ľ
Ġáĥ¨áĥĶáĥ¡ áĥĲáĥ®áĥĶáĥĳ
u j
m iÅŁ
Î¹ Ïİ
Ġà¸Ĺà¸ ³
Ġè ī
ç§Ĵ éĢŁ
à¥ĩà¤ ®
Ð Ľ
Ð¾ÑĤ Ð¾Ð²
Ġà°ļ à°¾à°²
Ġà¦Ĩ à¦¬
Ġdz ie
Ġs v
t il
Ø§Ùħ Ùĩ
ĠáĥĲáĥłáĥ ¡
à¯įà® ¸
ĠÎķ ÏĢÎ¹
Ġwir d
Ð¸ ÑĪ
Î» Î¹Ïĥ
ìĭ ¤
ĠÙĪ Øª
ĠæĪ ĸ
è¯ ī
Ġagçİ¯äºļ çĶµæ¸¸
èĥ½ åĬĽ
I N
Ġæ¢ ¦
æĺ¯ çľŁ
ä»£ è¡¨
¡à¸ ·à¸Ńà¸
ä¹ĭ æĺŁ
ä¼ ¤
Ġà¸ Ľà¸£à¸°à¸
åĢ ĳ
Ġo r
èį ī
Ġ à¹
e e
à¹īà¸²à¸ ĩ
à¸µà¸¢à¸ §à¸
µà¹Īà¸ ¢à¸§à¸
à¤¸ à¥įà¤¥
ÐµÐ½ Ð¸Ð¹
à§ĩà¦² à¦¾
ĠÂ» ,
iá»ĩ u
Ġà§ «
ĠØ³ Ø§ÙĦ
ì Ļ
×ķ× Ĵ
ĠÎĿ Î¿
áĥĵ áĥĺ
ĠÎĶ ÎµÎ½
à¦¤ à§įà¦¤
ãģĭ ãĤī
szy st
Î³ Ïĩ
Ġ ÉĻm
Ð»Ð¸ Ñĩ
u di
æĺ¯ ä¸Ģ
ä»ĸ ä»¬
çĸ Ĺ
ķà¸ ¥
ĠH G
Ġæ³ ķ
Ġà¤¸ à¤¾à¤Ĥà¤Ĺ
ĠáĥĽáĥĹ áĥĲáĥķ
Ġìľ ł
¡ Â
Ġc áº£
Îķ ÎĿ
ĠÏĮ Î»
a dÉĻ
Ø¨ Ø©
ĠD as
Ġa da
Ġáĥ« áĥĲáĥļáĥĺáĥĲáĥľ
Î»Î· ÏĤ
Ġht ml
à¸Ļ à¹Įà¸
éĢī 5
ä» ª
Ġå® ĥ
åī §
å°±æĺ¯ åįļ
Ĺà¸ ĩà¸
åĬ¡ åĳĺ
Ĺà¸µà¹Ī à¹Ģà¸
ªà¸´ à¹Īà¸ĩà¸
æľ Ŀ
æľ ¨
Ġà¸ Ĭà¸
à© į
ą ć
ï¼ ļ
Ġè ¥¿
å¤§ åħ¨
ľà¹Īà¸² à¸Ļà¸
ä»· æł¼
12 3
ı çĦ¯
åĲ ¯
à¤¿à¤ £
ÐµÐ¼ Ñĥ
à¯Īà® ¨à¯įà®¤
cj e
Ġà°ħ à°²
ĠÏĩ ÏģÎ·
Ġáĥĺáĥľ áĥ¤
Å¾ ÃŃ
Ð¼ ÐµÑĢ
Ġà¦¬à¦¿à¦¶ à§įà¦¬
Ġl ub
Ġfa it
ĠáĥĲáĥ ļ
Ø§Ø± Ùĩ
to r
à±ģà°¨ à±ģ
ĠÐĿ Ð°
Ġá ģ
åĨ ·
ä¸Ģ æŃ¥
Ĥ à¸²
è½ ®
æ ¤
«à¸¥à¸²à¸ ¢à¸
Ġà¤Ĩ à¤ľ
Ġï¿½ï¿½ï¿½ï¿½ ï¿½
Î´ Ïħ
×Ļ× ĺ
Ø§Ø ·
Ġáĥ¨ áĥĶáĥĵ
ĠA us
ĠÎ¾ Îµ
ÑıÑĤ ÑĮ
à Ń
à¥ĩà¤ Ĺ
à®¿à®¯ à®¾à®ķ
Ġs áº½
ìĥ Ŀ
Ġà§ ¦
Ġpar t
Ġà¦ķ à¦¥
à°Ĥà° ¬
i Ã³n
ĠÎķ Îº
ĠÐ¡ ÑĤ
l ay
ĠÏĢ ÏģÎ±Î³
h t
Ġà¦ķ à¦¾à¦ľ
Ġà°ī à°Ĥà°¦à°¿
áĥĿáĥļ áĥĿáĥĵ
à¶ ±
Ġà¤°à¤¹ à¥ĩ
Ġne j
Ġc ar
ĠÐ² Ð½
ê° ķ
Î´ ÏĮ
íĨ ¡
íķ ©
Ġà® ĵ
owe j
Ø¹ ÙĦ
à¦¾à¦² à§ĩ
ier t
Ġéİ ıçĦ¯
æĹ¶ ä»£
Ġà¨ ĩ
é ¼
à¥įà¤¯à¤¾à¤ļ à¤¾
ĠÐŀ ÑĤ
ĠÎļ Î±Î¹
Î² Î¿Î»
Ä± lÄ±
Ð¿Ð» Ð°ÑĤ
ãģ Ī
Ġáĥ§áĥķáĥĶáĥļ áĥĲ
ĠÐŀ Ð±
Ġfa ire
Ġà¤¸ à¤¬
ĠÐļ Ð°Ðº
ÏĢ ÎŃ
à°Ĥà°¦ à±ģà°ķà±ģ
ĠÐĴ Ñĭ
Ġà°µ à°°
ĠÃ§ Ä±x
ĠØ¯ Ø³Øª
Ð¾ÑģÑĤ ÑĮ
Ġà®µ à®¿à®Ł
u o
ra w
Ġáĥ¡áĥĲáĥ¥ áĥĽ
×© ×¨
Î» Ïİ
áº ±
Ġm Ã©
áĥĿáĥĳ áĥĲáĥ¡
Ġà§ ª
Ġein en
a i
Ġà¦ı à¦®
ìĦ ł
ĠØ º
Ðµ ÑĨ
ci os
è¡ ¥
à¸Ļ à¹Īà¸²à¸
å¼Ģ å±ķ
Ġè ¢
Ġà¨ ¬
Ġç¥ŀ å½©äºīéľ¸
Ġå Ŀ
Ġ à¹Ģà¸£à¸²à¸
Īà¸ ³à¸
à¤²à¥ĩà¤² à¥įà¤¯à¤¾
ĠáĥĽ áĥĲáĥĺ
ĠN ie
à°Ł à±įà°²à±ģ
Ġà®ī à®Ł
di m
ĠÐ¿ Ð¾Ð²
áĥĶáĥķ áĥĶ
ĠÎ¬ Î½
k ov
Ġà¤µ à¤¹
Ġë ¹Ħ
ÄŁ i
Ġpr es
à¦¿à¦ ļ
a f
elug u
à°¡ à°¾à°¨à°¿à°ķà°¿
ÏĥÎ¹ Î¼Î¿
ĠÐ½Ð° ÑĪ
Ġz ÅĤ
ĠpÅĻ ed
Ð¸ Ð¾Ð½
ãĤ ģ
à¯ĭ à®¤à¯ģ
Ġs am
Ġcom me
Ġà¤¦ à¤¿à¤¯à¤¾
il ÉĻn
ĠáĥĴ áĥĲáĥł
ģà¸²à¸£ à¹Ģà¸
åĩº çİ°
«à¸¡à¸ ·à¸Ńà¸Ļà¸
è »
ļ à¤¾
ĠÐ½Ð° Ñĩ
Ġà¦¤ à¦¾à¦¦à§ĩà¦°
Ã¼ ck
ob re
Î¹ÎºÏĮ ÏĤ
to ri
áĥļ áĥĶáĥĳáĥĺáĥ¡
ĠÑĥ Ð´
ìĿ´ ëĭ¤
ĠÎ´Ïį Î¿
ÙĬ Øª
Ġà®ķ à®¾à®²
§à¸ ĩà¸
Ġà¸ Ľà¸
à¸µà¸¢à¸ ĩà¸
æľ Ĺ
Ġà¤° à¤¾à¤¹
Ãª me
Ġb ar
ĠØ§ ÛĮØ±
áĥĲáĥĵáĥĴ áĥĶáĥľ
×Ļ× ŀ
ĠÑģÑĢ ÐµÐ´
Ø´ ÛĮ
ÎŃ Ïĩ
Ġà¤ķ à¥ģà¤
Ġa b
i f
ĠÐ± Ð¾Ð»
Ġp rz
à§ģà¦° à§ģ
il er
ĠÎł Î¿Î»
ë© °
Ãª u
s an
ĠÙħ Ø´
Ġ Ćć
ä¿ Ħ
æĿ¥ çļĦ
à¸£à¸µà¸§à¸´à¸ §
Ġà¨ ²
è¿ Ŀ
ä¸į èĥ½
44 4
Ġé ĥ½
è¿ ½
ä»¥ åıĬ
Ġ0 00
çĶµ èĦĳ
Ġà¤µà¤°à¥įà¤ ·
Ġáĥĵ áĥĲáĥľ
Ġp om
Î® Î¼Îµ
Ġà®ļ à®®
à°¾à°Ĥà° Ł
ĠÐ±ÑĥÐ´ ÐµÑĤ
Ġw ar
ĠÎ±Ïħ ÏĦÎ¿
Ġà¦ķ à¦¾à¦
áĥĿáĥľ áĥĺ
ĠØ§ÙĦØª ÙĬ
et ti
ou p
Ġè ·
æĿ İ
çŁ¥ éģĵ
6 9
Ġç¾İ åĽ½
éķ ĩ
Ħà¸ ´à¸
åľ Ī
åĲ «
Ġ2019 å¹´
à¹īà¸ ĩ
ªà¸ ¡
åĪĨ å¿«ä¸ī
é¡ »
ä¿Ŀ æĬ¤
åį ĸ
Ġ5 7
-- --
éĵ¾ æİ¥
å¨±ä¹Ĳ å®ĺç½ĳ
ĠagèµĮ åŁİ
æ¼ı æ´ŀ
¥à¸ ±à¸
Ġ5 3
Ġ ~
à¥ĭà¤ ¬
ĠâĢİ #
d ur
ĠÏħ ÏĢÏĮ
Ð°Ð¹ Ð½
Ġà®İ à®´
à¦¾à¦° à¦¾
Ġd á»¥
Ġáĥ¡ áĥĲáĥĵ
ĠØ¯ ÛĮ
os z
à±įâĢĮ à°²à±ĭ
ĠÐº Ð¾Ð»
×Ļ× ¤
ĠÎ£ ÏħÎ½
Ġà®¨ à®¿à®±
Ã½ m
ar io
Ġper s
Ġà¤¥ à¥Ģ
Î´ Î±ÏĤ
ĠÎ¼ÎŃ ÏĥÎ±
à¸µà¸¢à¸ §
çŃ ¾
¢à¸ §
3 D
çļ ®
Ġå°Ĭé¾Ļ äººçĶŁ
Ġà¤® à¤¾à¤
ĠB ak
Õ¸ÖĤÕ©Õµ Õ¸ÖĤÕ¶
Ġo lar
Ġáĥ¡áĥ®áĥķ áĥĲ
ÏģÎ¯ ÏĤ
åħ ¸
0 9
Ġá Ī
à¤¿à¤ Ł
Ġc am
à±ģà°Ĥà° ¡à°¾
ÐµÑģ ÑĮ
Ġk om
´ë Ŀ¼
Ġá¼ Ģ
Î¯Î½ Î·
¯ ¼
à®¸ à¯į
ĠØ§ÙĦØ °
Ġà¦¨ à¦¾à¦®
d ni
ÐµÐº Ñģ
³ Û
ĠØ¯ ÙĪ
Ġm an
Ġnh Ãł
áĥĺáĥª áĥĺ
à°¾à°² à±įà°²à±ĭ
ĠÐ¸ Ñħ
ê± °
ĠÏĩ Ïİ
ti c
æĽ ¾
ģà¹Ī à¸Ńà¸Ļà¸
è¿ĳ å¹³
Ľà¸¥ à¸µà¹Īà¸
Ĭ à¤¨
ãĤ Ħ
lÉĻ ÅŁ
Ġà¦¬à¦¿à¦ Ń
áĥĺáĥĻ áĥ£áĥłáĥĺ
à®¤ à®¿
Ġ×Ķ× ¢
Ġ ont
çĻ ¼
æŀ ¶
ãĢ İ
h h
Ġ à¸Ļà¸²à¸
ç» į
èĪ ¬
Ġåľ °
Ġà¤¤ à¥ģà¤®
Ġà°ª à±Ĭ
Ã£ o
ĠÑĩ Ð°ÑģÑĤ
Îķ ÎĻ
Î¿Î½ ÏĦÎ±ÏĤ
áĥĶáĥ¡ áĥ¢
b ie
ĠÎ» ÏĮÎ³
ant es
à¯ģà® ªà¯į
le d
Ø± Ùģ
Ġà¤ Ĳ
à¦§ à¦¾à¦¨
ak an
ê° ľ
ĠáĥĹáĥĳ áĥĺáĥļáĥĺáĥ¡
áĥ§ áĥĿáĥ¤
ag en
ĠÏĩ ÏģÎ®
Ġbe z
Õ¸ ÖĢ
Ġy ax
Ġa ll
à¦Ļà§įà¦Ĺ à§ĩ
à±Ĩ à°ķ
Î¿ Î³
ĠØ¯Ø§ÙĨ ÙĦÙĪØ¯
ĠáĥĲáĥĵ áĥĴ
Ú¯ ÛĮ
à¦° à§ĩà¦°
ĠÄĳ Ã³
Ġà®ª à®°
ÏĦÎ¿Ïħ ÏģÎ³
à°® à±ģ
Ð» ÐµÐ½Ð¸Ðµ
à±Ĩ à°¨
t k
ĠÎ¼Îµ Î³Î¬
à¤Ĥà¤ ķ
ì¶ľìŀ¥ ë§ĪìĤ¬ì§Ģ
Ġìĭ ł
ÙĬ Ø§Øª
c ciÃ³n
ÑĤ Ð¾Ð±Ñĭ
×ł ×ķ
ra v
Ïĥ Î¯
Ġà®µà¯ĩà®£à¯įà®Ł à¯ģà®®à¯į
Ġk ann
Ġw iÄĻ
Î¿Ïħ ÏģÎ³
Ġà¤¬ à¤¹
à¦¾à¦ £
Ġson ra
or i
ëį °
Ġà°® à°¾à°Ł
Ġáĥ¡áĥĲáĥ £áĥ
Ø¨ ÛĮ
Îº ÎŃ
ta l
Ø§Ø ¶
Ġà®¤ à®©
ĠÎķÎ»Î»Î¬ Î´Î±
ÏĦÎ¿ Î¹
Ġà°ħ à°¦
Ġt ien
Ġëı Ļ
×Ļ× ¡
ag es
m ÄĽ
¨à¸ ¶à¸ģà¸
11 1
åŃ¦ çĶŁ
çĶ³ è¯·
æ© Ł
Ġà¹Ģà¸ŀà¸£à¸²à¸ °à¸
Ĺà¸³ à¹ĥà¸«à¹īà¸
æį ķ
à¹Ī à¸Ļà¹Ģà¸
Ġåı¯ ä»¥
å¢ŀ éķ¿
à¸£à¸£à¸ ¡
ľà¸ ¥à¸´à¸
à¥ĭà¤ §
Î¸Îµ ÏĥÎ·
ĠáĥĻ áĥķ
Ð¾Ð²Ð°Ð½ Ð¸Ñı
à¦ª à§ģà¦°
Ã² ng
à§Ģ à¦¨
ĠÏĢ Î¬
ol a
à¤¾à¤ ĵà¤Ĥ
à±ĭ à°Ĥà°¦à°¿
áĥĴ áĥĲáĥľ
ĠÐ ¨
Ġà°ªà±įà°°à°Ń à±ģà°¤à±įà°µ
Ġcon s
Ġz um
à¹Īà¸²à¸ §à¸
Ġå» º
éĶ Ļ
è¾ ħ
à¸Ļà¸µ à¹Ī
ä¸ª äºº
Ġç Ĥ
à¤¾à¤Ĥà¤ļ à¤¾
à°¿à° ¶
Î¾ Î·ÏĤ
ĠÃ¶l k
à®° à¯ģà®®à¯į
o k
ĠØ£ ÙĪ
Ðº Ð¾Ð¹
ãĥ ķ
ĠÎĳ ÏĢÏĮ
ÑĥÐ¿ Ð¸ÑĤÑĮ
Ø´ ÙĨ
à°¿à°¨ à±įà°¨
Ð £
ĠÐ¿ÑĢÐ¾ Ð¸Ð·
Ġc Å©ng
Ïĩ Î·
Ã¡l nÃŃ
Ġpo z
à¦¾à¦° à§ĩà¦°
ci as
áĥĶáĥĳ áĥĶáĥļ
à®ķà¯įà®ķ à¯ģ
p ar
ìĭ Ŀ
Îº ÎµÎ¹
à¤ ¢
Ñı Ð²
as s
ĠÙħ Ø±
à® ŀà¯įà®ļ
Ð¸ Ð½Ñĭ
us z
ÏĨ Ïħ
à¦°à§įà¦ ¥
11 éĢī5
Ġà¤ħà¤¸ à¤²
Ġ" )
áĥ£áĥ ¥
à°° à°¿à°ķ
Ïĥ Î¯Î±ÏĤ
Ġà¤ĩ à¤¨
Ġ Õ¡Õ
Õ¸Õ ¾
Ġq al
Ġd ari
ÐµÐ» ÐµÐ¹
Ġáĥ¡áĥĲáĥ ¨
Ġm Ãł
owa Äĩ
ĠÏĮ Î¼ÏīÏĤ
à®¿à®ķ à¯į
an de
Ġà°¸ à±įà°¥
¹ Û
ĠÙħ Ø³
Ġìĺ ģ
Ġp Ã¥
Ġper o
b eit
ĠÐ³ ÑĢ
Ġ×© ×Ķ
ãģĵ ãģ¨
Ġà¤ľ à¤¿à¤¸
on d
Ġáĥ¡ áĥŀ
æĹħ æ¸¸
è¿ĩ ç¨ĭ
Ġà¤ª à¤¾à¤¹
à§ĭ à¦ķ
ÏĥÏĦÎ± ÏĥÎ·
la d
_ _
ĠÐº Ð»
es i
is ta
áĥĺáĥľ áĥĺ
Ġr Ã©s
Äĥ n
ĠD er
Ġg o
Õ¸Õ ²
Ã¼ z
ĠÎµÎ¯ ÏĩÎµ
à®¾à®± à¯įà®±
ÐµÐ¶ Ð´
Ġì ¢
â ²
à¹īà¸Ńà¸ ¢à¸
ģà¹Ī à¸Ńà¸Ļ
æľĢæĸ° ç½ĳåĿĢ
Ħ à¸Ńà¸
åĿ Ĺ
Ġè Ĥ
ģ à¸£à¸£à¸¡à¸
à¸µ à¹Ī
çŁ Ń
æ± ī
à¥ĩà¤ ¦
à°¾à°· à±įà°Łà±įà°°
li ca
à¦¸ à¦²
Ġà°ªà±Ĩ à°Łà±įà°Ł
u p
à¦¿à§Ł à¦¾
à°¾à°Ł à±ģ
Îº ÏģÎ±
Ġà¤ķà¥ĩà¤² à¥ĩ
áĥĲáĥ «áĥļ
Ðº ÑĢ
Ø¯ ÛĮØ¯
à¦¤ à§įà¦¯
Õ¥Õ ¿
Ġis ÉĻ
ÏģÎ¿ ÏįÎ½
ĠV i
ut as
cia l
à±ģà°² à°ķà±ģ
à®¾à®¤ à¯ģ
ĠÄĳá» ĭ
owan ia
à§Ģ à¦¬
Ð² ÐµÑĢ
t ure
Ġà¤°à¤¹ à¤¾
Ġne bo
Ġë§ Į
Ã¶ r
Ġà®ħà®¤ à®¿à®ķ
à±Ģ à°¡
Îµ Î´
Ġáĥ¡áĥĲáĥ ĸ
ĠÐ³Ð¾Ð´ Ð°
en er
ĠÙħ Øª
à§ģà¦ ĩ
×ľ ×Ķ
Ġà¤ľ à¥Ģ
ĠÏĥÏħ Î¼Î²
ĠP our
ar z
à±Ĩ à°°
Ġáĥ¡áĥĲáĥ Ķ
Ġà¦¸ à¦¹
ĠÐ° Ð½
Î¸ Ïħ
Ġy aÅŁ
ch er
Ġç ¦
ľà¸ ¡à¸
à¹ģà¸ ķà¹Ī
Ġè ĥ½
201 8
é ¹
Ľ áĢ
ä¹ł è¿ĳå¹³
è´ «
æĭĽ èģĺ
ªà¸£à¹īà¸²à¸ ĩà¸
į à¸²à¸
ĠæĲı å¤©åłĤ
åıĳ çİ°
ļ à¹īà¸²à¸Ļ
èª ī
ä¸ ´
0 5
6 1
æľĢ ä½³
ä¸ ĥ
Ġà¤¤ à¥įà¤¯à¤¾
Ð» ÑĮ
åľ¨çº¿ è§Ĥçľĭ
Ġà¤ķà¥ģà¤ Ľ
áĥĺáĥłáĥ ĵ
Ġê¹ Ģ
ì ħ
is ation
ia mo
ĠÎ² Î±
à°¾à°° à°¾
Ġse g
ĠÐ ¦
Ð¾Ñģ ÑĮ
u d
áĥĲáĥķáĥ¨ áĥĺáĥł
Ġ ä¹Ĳ
Ġ7 8
åĭ ķ
Ġåı °
à¹ĥà¸«à¸į à¹Ī
ä¿ ĥ
Ġà¤¹à¥ĭà¤¤ à¥Ģ
Ġà¦®à¦§à§įà¦¯ à§ĩ
ÙĨ Øª
Î¯Î½ ÎµÏĦÎ±Î¹
Ġë ħ
Ġa an
Ġà®ļà¯Ĭ à®²à¯įà®²
Ġà® ¸
Ã¨ me
á» ģ
Ġprze d
Ð» Ð°Ð³
ĠÎ¼ Î¹Îº
à°°à±įà° ļ
ĠÕ Ģ
ey d
ë¶ Ħ
áĥĶáĥ ŀ
ag æĹĹèĪ°åİħ
éļ ı
æ¥ ¼
Ġi d
³à¸ Ħà¸
åĵ ¥
æī ĺ
p j
à¸Ļà¸ ±à¸
åŃ¦ éĻ¢
Ħà¸ ´à¸Ķà¸
à¹Ģ à¸Ńà¸
Ġ3 åĪĨå¿«3
Ġå½© ç»ıå½©ç¥¨
Ġæĺ ¨å¤©
Ġ à¹Ħà¸Ķà¹ī
à¥ĥ à¤¤
Ġs ein
Ġ×ĳ ×¢
or o
Ġáĥ £
ÙĨØ¯ Ùĩ
ĠÐ¼ ÐµÑģÑĤ
à°Ĺ à±įà°Ĺ
Ġáĥ Ń
Î¸ Î±
Ġs obre
ĠáĥłáĥĿáĥĴ áĥĿáĥł
at y
ÙĬ Ø¹
ĠÃ© tÃ©
à®¾à®¯ à¯į
Ġá ī
åĲ ¬
± à¹īà¸Ļà¸
Ġæ ´
ç» Ŀ
à¹īà¸ ¡à¸
èĥ Į
è° ±
æľĢæĸ°çĻ»å½ķ åľ°åĿĢ
åĪ ·
æĺ¾ ç¤º
Ġà¤¯ à¥ĩà¤¤
Î¹ Î²
à§įà¦ Ľ
lar a
et e
Ġà°¨ à°¾
Ġà°ªà°¾à°° à±įà°Ł
ĠÛ ²
ÛĮ Ú©
Ġà®Ĩ à®ķ
Ïĥ ÏĦÏĮ
áĥĶáĥĳ áĥĶáĥľ
Ġà°¤ à°°
Ġg li
i cz
éĢ ı
Ġp j
à¸Ļà¹īà¸ ³
· à¸Ńà¸ĩ
¡ áĢ
Ġåĩ º
è´ ¸
Ķà¸ ³
Ġà¸ «
à¹Ĥ à¸Ńà¸
Ġ5 åĪĨå½©
æ¶ ¨
æķ ĳ
Ġà¸ŀ à¸£
æĻº èĥ½
åį ´
ç½ĳé¡µ çīĪ
Ġåĩ¤åĩ° å¤§
Ġåĩ¤åĩ°å¤§ åıĤèĢĥ
ĵà¸ ĳ
éģĹ æ¼ı
Ħà¸ ·à¸Ńà¸
Ĺà¸µà¹Īà¸ Īà¸°à¸
Ġé ĥ
æĬ¥ éģĵ
ç¡ Ģ
ĠåĲĮ æĹ¶
s un
éĥ½ æĺ¯
à¹Ħà¸§ à¹ī
ç» §
Ħà¸§à¸²à¸ ¡à¹Ģà¸
à¤² à¤Ĥ
Ġçº ¢
å¤ ı
é Ĩ
Ġag ä½ĵèĤ²
ä¸ °
Ġ9 8
åĲ ¸
åħ¬ åĬ¡åĳĺ
Ġagçİ¯äºļ å®ĺç½ĳ
Ġà¸ «à¸£à¸·à¸Ńà¸
ä¹¦ è®°
à¤¾à¤£ à¥Ģ
Ġìļ °
Ġà¦Ĩà¦® à¦¿
ĠÐ´ ÐµÑĤ
ĠÙĪ Ø£
ÏĢ Î¹Ïĥ
Ġà¦ķ à¦¿à¦Ľ
ãĥ Ń
Ġper son
à¹Ĥà¸ Ķà¸¢à¸
ä¸Ģ äºĽ
s s
å¾Ī å¤ļ
èĹ ı
ĠĈ ć
è ¼
Ġè¿ Ľ
Ġæ¬ §
Ġ ä¸»
ä¸ ½
Ġæ² ¡
Ġé £
è ĵ
éĽ »
Ġå· ¥
4 7
Ġ222 70
æĶ¯ æĮģ
Ġ5 åĪĨ
è¿ ·
ŀ áĢ
äº¿ åħĥ
ļ à¥Ģ
Ġáĥ£áĥ¤ áĥłáĥĿ
Ġh Ãłng
ĠÐ¿ Ð¾Ð·
Îº Î¿Ïį
y o
al am
Õ ¤
ari x
p ie
Å¡ tÄĽ
ĠÎļ Ïħ
ĠìŀĪ ëĬĶ
ÐµÐ» Ð¾Ð²
ÙĤ ÛĮ
ĠÎ¼ Î·Î½
×Ļ× Ľ
ķàµįà´ ķ
à¥ģ à¤¤
Ùħ Ø±
Ġà®ķ à®Łà¯įà®Ł
Ġb es
ÎĹ ÎĿ
ĠÎ³ Îµ
di b
ĠP ol
à±ģà° ļ
Ġw szyst
Ð± Ð¾ÑĢ
Ġf o
ĠáĥĶ áĥ¥
ĠÐ¼ Ñĭ
Îķ ÎĽ
ÏĩÎµ Î¯Î±
ĠvÃł o
åįķ èģĮä¸ļ
Ġï¼ī ï¼Į
æĢ ¥
å³ °
Ķà¸ ±à¸ļà¸
ŀà¸ ±à¸
è ĸ
åıĳ çĶŁ
à¥ģ à¤µ
à±ĩ à°²
à§ĩà¦¨ à§įà¦Ł
Ð¾Ð± ÑĢ
ÉĻl um
Î¶ Î¯
ĠA l
ĠáĥĽáĥ® áĥĿáĥļáĥĿáĥĵ
Î³ Î·
Ġtr Ã¨s
Ġz na
à±ģà°Ĺ à±ģ
Ø¨ Ùĩ
ä¸Ń å¤®
«à¸¡à¸ Ķ
à¹īà¸ ĩà¸
ķ à¹Įà¸
ª à¸µà¸
ç³» åĪĹ
åĪ ¤
Ġ201 5
å¼Ģ åıĳ
Ġà¸ªà¸ ³à¸«
æł· çļĦ
ĠãĢ ı
Ġag ç½ĳç«Ļ
æ ¦
à¹īà¸ ³à¸
à¨ µ
Ġåī į
å· Ŀ
·à¹Ī à¸Ńà¸Ļ
à¤¿à¤¤ à¥įà¤°
à®¿à®¯ à¯ģà®®à¯į
Ġg ratis
pa Ã±
Ð¼ Ð¾Ð¶
ĠÎµ Î³
Å¯ j
à§ĭ à¦Ł
à±ĭ à°Ł
ĠÎºÎ± Î½
ê¹ Į
Õ¸ ÖĢÕ
Ġda ha
E S
Ġà¤¦ à¥ĩà¤ĸ
×Ļ ×ķ
Ġt ou
áĥĶáĥĳ áĥĿáĥĵáĥĲ
Ã¡ z
Ġim p
ÙĨ ÙĬ
ÑĥÑİ Ñī
Ø§ÛĮ Øª
ĠÎ¹ ÏĥÏĦÎ¿
ĠT e
à®¤ à¯Ī
Ġáĥĵáĥĺáĥĵ áĥĺ
Ñı Ñī
Ġâ ĩ
Ġë ¯¸
Ġà¤¸ à¥įà¤¥
ÏĢÎ· ÏģÎµ
ĠÛĮ Ø§
Ġà°Ĩ à°°
an ti
owe go
ĠØ °
Î® Î½
Ġà¦¦ à¦¿à¦¨
áĥł áĥĲ
ut sch
à¯įà® ¨
Äį ÃŃ
ĠÎĶÎ· Î¼Î¿
Î»Î¯ Î¿Ïħ
à°¾à°¨ à°¿
Ġd at
ĠÐº Ð¾ÑĢ
ĠÎ¿ Î¼Î¬
Ġáĥ¡áĥĲáĥ ĺ
ng e
Ġà¦¹ à¦²
à®µ à¯ģ
or d
áĥ£ áĥĲáĥļ
Ïģ ÏīÎ½
k Ã³w
ãģ ¤
Ġê ´Ģ
ĠQ u
ĠÐ´ Ð¾Ð¼
Ġà°¨à±ģà°Ĥà° ¡à°¿
Î» Î¹Î±
å¤§åıĳ å½©ç¥ŀ
àª °
· áŀ
æŃ Į
æīĭæľº appä¸ĭè½½
åŃ¦ ä¹ł
Ġag çİ°éĩĳ
å§ Ĳ
ĠãĢį ãĢĮ
áĢŃ áĢ
Ġ! !
è®° èĢħ
çĽ Ľ
0 7
Ġç ²
n s
à¹ģà¸Ļà¸ °
à¸´à¸ Ķ
Ġà¤® à¤¾à¤°
ĠáĥĻáĥĿáĥĽ áĥŀ
ĠÕ º
Õ¡Õ ®
ĠÕ ¤
ÉĻ ll
ĠÐ¼ ÐµÐ½
ie m
ĠÎºÎ±Î¸ ÏİÏĤ
ĠK Äį
Ġjs em
Ð¸ ÑģÐº
l ÃŃ
×¤ ×¨
Ġáĥ¬ áĥ§
Ġil e
al q
Ġa c
Ġà¤ķ à¥Ī
áº «
Ġà®ī à®£
Ñģ ÑĮ
ĠØ¹ ÙĦÙĬ
Ġà¦¹à§Ł à§ĩ
h al
æĥ ł
éĶ ®
æ± ĩ
ķà¸²à¸ ¡
Ġà¤¹à¥ĭà¤¤ à¤¾
ÉĻc ÉĻk
p owie
Ð³ Ð¸
Ġì¹´ íĨ¡
íĸ Īëĭ¤
Ġs es
Ïĥ Î¿ÏħÎ¼Îµ
áĥĿáĥľ áĥĺáĥ¡
Î ¦
Ġ Ïİ
an y
ÙĤ ÙĬ
ĠÑĤ ÐµÐ¼
à¦ª à§įà¦°
Ð¸Ð· Ð½
ÄĽ t
à¯ģà®ķà¯įà®ķ à¯ģà®®à¯į
t r
Ġà°İ à°¨à±įà°¨
Ġl áº¡i
ĠÏĦ ÏģÏĮ
ĠÚ© Ø´
å¹ ¸è¿Ĳ
éĢ Ļ
ç Ĵ
æĶ¹ éĿ©
ä¸» ä¹ī
Ġag ç½ĳä¸Ĭ
à¥ģ à¤£
il ÉĻ
ÑĤ Ð¸
Ġáĥ¨áĥĶ áĥĺáĥ«áĥļ
à±Ĩ à°Ĥà°Ł
Ġà®µà®¾à® ´
ob ie
Ä± k
à¨¿à¨ Ĩ
Ġà¤Ĩ à¤µ
à¦Ĺ à§įà¦°
ĠÏĮ ÏĦÎ±Î½
Ġm Ãªme
Ġno ch
Ġà®¨ à®¾à®©à¯į
ãģ ¡
Ġcz as
Ø¯ Ø©
×ŀ ×Ķ
à®¿à®² à¯ģà®®à¯į
z za
ìĹ °
Ġà¦¬ à¦Ľ
Ñĥ Ð·
íĨ ł
áĥĵ áĥĶáĥľ
g er
Ð¸ Ð¶
Î®Î¼Îµ ÏģÎ±
Ġt u
à±ĭ à°¦
ĠÃ ĩ
ĠÎ» Î¯
u es
ĠÑĥ ÑģÑĤ
ì Ī
Ġáĥ£áĥ Ľ
æ±½ è½¦
¸ à¸Ļ
j j
è¶³ çĲĥ
ļà¸²à¸ ĩà¸
à¥ §
ĠåĲ İ
åĪ ¸
à¸£à¸µà¸ ¢à¸
ĠçĽ ¸
à¹Ģà¸£à¸µà¸ ¢à¸Ļ
Ĥ à¹īà¸Ńà¸¡à¸¹à¸
à¹Ī à¸Ńà¸¢
å¼ ¹
å¦ Ī
à¤°à¥įà¤ ¥
à§įà¦¤ à§ģ
Ġà°¸ à±įà°Ł
à®¤à¯įà®¤ à®¿à®©à¯į
Ø§Ø± Ø¯
Ġw i
ĠÐ» ÐµÑĤ
ĠÎºÎ¬ ÏĢÎ¿
em os
ier en
z i
ent s
Ġtr Ãªn
ra m
íĺ ¸
à· Ģ
Ġà¤ļ à¤¾à¤¹
Ġà¦¹ à¦¯à¦¼
ĠÙĦ Ùħ
il ib
ç¬ Ķ
à¹Ģ à¸Ļ
åĵģ çīĮ
à¤ ·
×ķ× Ľ
ĠÐ¼ Ð°ÑĤ
ĠÎ¼ Î¬
ul yo
u h
Ġáĥł áĥĶ
Ġvi deos
larÄ±n Ä±n
E R
Ġme j
ìĿ Į
à°¾à° ļ
ÅĤ e
Ð¸Ð» Ð°
ãĤ ·
Ã¡ d
Ø¨ Øª
ti ca
ĠÎ£ Î¥
Î½ Ïİ
áĥĶáĥ £áĥļ
åº Ń
ï¼ ¿
éģ İ
ï º
6 åĲĪ
Ľà¸ ±à¸įà¸
Ġåį ³
Ġp k
é»ĳ å¤§æĪĺ
Ġà¸ ģà¸£à¸
ªà¸ ĩà¸
Ġé Ł©
5 9
Ī à¸´à¸
Ġà¤¨ à¤¿à¤µ
us e
à¯ģà®³à¯įà®³ à®¤à¯ģ
cz Äħ
à±įà°¯ à±Ĥà°
Ð¸ÑĤÑĮ ÑģÑı
å¹ ħ
å§Ķ åĳĺ
Ġéķ ¿
Ġà¤ķà¥ĩà¤² à¤¾
Ġs ah
ĠdÃ© c
Ġà¤¹à¥ģà¤ ı
ĠÎ³ Î½Ïī
áĥĿáĥĳ áĥĺáĥĹ
ĠìĦ ł
iz za
Ġjs ou
Ġein er
ct os
ĠÐ¾Ð± ÑĬ
áº »
Î¶ ÎµÎ¹
u jÄħ
áĥĲáĥĵ áĥĺ
Ġs in
Ø¬ Ùĩ
à±ģà°Ĥà° ¡
à¸Ļà¸µ à¹Īà¸
à¸² à¹Ģà¸
Ġà¤ ĳ
Ïħ Ïĩ
Ġà°ķà±ĭ à°¸à°Ĥ
à®Ł à¯ģ
áĥĶáĥĳ áĥĹ
ÑĥÑī ÐµÑģÑĤÐ²
ÏĦ ÎµÎ¹
Ġà®® à®ķà¯įà®ķ
ujer es
ÃŃ s
u z
à¦¸ à§įà¦¯
êµ Ĳ
m ulyo
Ġng udi
Ġngudi mulyo
ay a
ÙĪ ÙĤ
t Ãł
áĥ ©
Ġâ Ĥ¬
is te
ãĤ ¿
Ġ×ĳ ×ŀ×
à°¿à° ¡
áº· t
ĠÐ¾ÑĢ Ð³Ð°Ð½
Ġé ¡
ç§ ĺ
Ġà¤¹ à¥ĭà¤
à¯Ĩ à®¯
à±ģà°² à°¨à±ģ
ĠÏĩÏģÏĮ Î½Î¹Î±
à¦¾à¦® à§Ģ
áĥĺáĥĵ áĥĲ
Ø³Øª Ø§ÙĨ
Ġà¦¶ à¦¿à¦ķà§įà¦·
¨àµįà´ ¨
à¥Į à¤°
ÅĤa d
v en
ĠÎ¼ Î¯Î±
Ġìĺ Ī
ĠÐµ ÑģÐ»Ð¸
Î´ ÎµÎ¹
áĥĿáĥ ¥
Ġà¦ķà¦° à§įà¦®
us s
ĠØ§ÙĦØ ·
p c
æľ ĭ
ķà¹Īà¸²à¸ ĩà¸
åĨ ²
à¹ģà¸ ľ
Ġç ®
Ġà¤ķà¤°à¤£ à¥įà¤¯à¤¾à¤¤
à®° à¯Ī
ÐµÐ¹ ÑģÑĤÐ²
owan e
Î¾ ÎµÎ¹
à¦¾à¦¨ à§ĩà¦°
Ġáĥ§ áĥĿáĥķ
ĠÎ½ Îµ
da ÅŁ
Ø¹ Ùĩ
à°¾à°Ĥà° Ĺ
p l
Ġnh iá»ģu
ÑĨÐ¸ Ð°Ð»ÑĮ
çŃ Ķ
Ġ4 2
à¹Ģà¸ģà¸ ´à¸Ķà¸
® à¸
ç§ Ģ
æĦ ¿
ä» į
é¢Ĩ å¯¼
ç«ŀ çĮľ
æ¶Ī è´¹
à¤Ĥà¤¤ à¥įà¤°
Ġà®ª à¯ĩ
Ġs ay
ë² ķ
áĥĹ áĥ®áĥķ
Ġà°ļ à°¿à°¤à±įà°°
Ġr en
ĠÐ²ÑĢÐµÐ¼ Ñı
ĠÎŃ Îº
b ÃŃ
à°°à±įà° ª
ãģ Ľ
te m
Ø§ÛĮ Ø¯
Ġà®ħ à®´
¢à¸ ¸à¸
áĢŃ áĢ¯áĢ
à¤¾à¤¸ à¥Ĥà¤¨
à¦°à§įà¦ ®
is se
Î¿Ïį Î¼Îµ
¨ à¥ĩ
×ł ×Ķ
à°° à°¿
ÉĻn in
ĠÎ±Î½ ÏĦÎ¯
end re
ĠáĥĽ áĥĿáĥķ
Ġê° ľ
da k
an z
ÅĽ Äĩ
ĠáĥĻ áĥĲáĥłáĥĴ
à±ģà°ķ à±Ĭ
ĠØª Ø¹
ĠÎµÏĢ Î±
k e
à¥įà¤ ¡
ĠÐ¸ÑģÐ¿ Ð¾Ð»ÑĮÐ·
Ġà¦ķ à§ĭ
l ov
Î½ ÏĮ
Ġà°ī à°¦
ĠP er
à®¿à®¯ à¯Ī
áĥĶáĥ ¨
à¤¢ à¤¼
ier s
l ko
Î¼Î¹ Î¿ÏħÏģÎ³
Ġà¦¸à¦° à¦ķà¦¾à¦°
Ġí ĥ
á»ĳ ng
à±ĩà° ¯
ĠD E
ad os
ÙĪØ± ÛĮ
Ø¨ ÙĦ
áĥĺáĥ¢ áĥĶáĥ¢
ĠÑĤÐ°Ðº Ð¶Ðµ
Ġà¦ķà¦¿à¦¨ à§įà¦¤à§ģ
ĠÎ² Î¬
sk Ã©
O N
ess ion
dz o
Ġà®¤ à®¾à®©à¯į
m an
à¥Ĥà¤ ²
ĠáĥĲáĥ® áĥĲáĥļáĥĺ
à®¿à® ³
ÏĥÎµ ÏĦÎµ
Ġ×Ļ ×©
Ġs wo
ag gio
Ġà°° à°¾à°·à±įà°Łà±įà°°
Ġk Ã¶n
Ġà°ħ à°¤
a ire
Ġà¦ķ à§įà¦·
ãĥ Ĺ
áĥĿáĥĳ áĥļ
ĠÕ £
ĠtÉĻr ÉĻf
ĠN o
Ð½ ÐµÐ¹
à¯ģà®ķ à®¿à®±
à¤¾à¤Ĥà¤ļ à¥ĩ
as z
à¤¿à¤ ĸ
ëª ¨
ĠØ§ÙĦÙĦ Ùĩ
Ùĥ Ø±
ÐµÑĢ Ð¸
áĥĲáĥłáĥ Ļ
Ġê° ķ
ĠÐ¾Ð± ÑĢÐ°Ð·
is mo
Î»Î» Î¿Î½
Ġe lle
Ġà®İà®¤ à®¿à®°
Ì ģ
Ãł o
ÉĻs t
ÅĻ i
ĠÎ´ ÏħÎ½Î±
åħ¨ çĲĥ
à¹ī à¸Ńà¸Ļ
a a
Ġå°Ĭé¾ĻäººçĶŁ å°±æĺ¯åįļ
à¨¾à¨ ²
«à¸Ļà¸ ¶à¹Īà¸ĩ
Ġæİ ¨
èģ ļ
æĭ ¾
ĺ à¸µà¸
Ġè Ī
çĭ Ĥ
ŀà¸ ¹à¸
Ġå ¨
Ġçİ¯äºļ å¹³åı°
Ħ à¹Įà¸
Ġà¸ ¢
åħ¬ åĳĬ
éľ ²
é ½
Ġå¸ Ĥ
å° ģ
Ġå Ģ
Ġà¤Ĩ à¤¯
Ġà¦¬à¦¿à¦ ·
Ġà°ķ à°¾à°²
ĠÙĨ Ø¸
×ľ ×Ĳ
u Å¼
Ġd al
Ġpe ut
ĠÐļ ÑĢ
ìŀ ¬
ÎµÎ¹ ÏĦÎ¿ÏħÏģÎ³
Ð¸Ñģ ÑĮ
Ġb o
Ġà¤ħà¤§ à¤¿à¤ķ
ĠáĥĴ áĥĲáĥ¡
ÏģÎ¯ ÎµÏĤ
ãĤ £
ĠM it
à¯ģà®ķ à®¿à®±à®¤à¯ģ
r ar
Ġà¦ĺ à¦Ł
Ġte go
Ø® Øª
Ð» ÐµÐ´
ĠÎ» ÎŃ
ķ Į
à±ģà° ¸à±įà°¤
áĥĵ áĥĶáĥ¡
Ġar t
Ġz ur
Ð¾Ð½ ÑĤ
ÅĤ Äħ
Ġà¦¨à¦¿à¦ ľ
áº¥ p
ĠÐ¿ÐµÑĢ Ð²
Ïĥ Î¼Î±
Ġm uy
Ġc os
à°¾à° Ĥ
áĥ¬ áĥ§
Ġaus si
Ø° Ùĩ
Ġà°µà°¿à° µ
nÃŃ ch
ĠÎ± ÏĨ
Ġ×Ķ ×¨
ac aq
Ġ 888
Ġè® °
à¸²à¸ ¡
à¹Ħà¸ Łà¸
Ġå¤ ĸ
Ġæī ĵ
à¹Ĥà¸ ¢à¸
ŀà¸£ à¹īà¸Ńà¸¡à¸
Ġå¾ Ī
à¹Ģà¸¥ à¹Īà¸Ļà¸
Ġà¤®à¤¾à¤ Ŀ
Î±Ïĥ Î¯Î±
Ġà¦ ¢
ªà¸ ³à¸Ħà¸
Ġå¹ ´
åŁº ç¡Ģ
à¹ģà¸ ªà¸Ķà¸
à¸Ļà¸ ³à¸
m m
Ġà¤¸ à¤¹
Ġpr Ã©s
áĥĹáĥ®áĥķ áĥĶáĥķ
Ġà°ªà±įà°° à°ķ
w ar
i to
ĠÑĩ ÐµÑĢ
à¦Ĺ à§ģà¦²
ĠØª Ø±
Î» Î¯Î±
Ġà¤ľ à¤¬
Î»ÎµÏħ ÏĦÎ±
Ġà®ķà¯Ĥ à®±
in iz
am os
ce j
ĠÐ³ Ð¾ÑĢÐ¾Ð´
Ġn ouve
ĠÏĥÏĩ ÎŃ
is a
à°° à°Ĥ
ãĤ ı
ĠáĥĶ áĥļ
í ĽĦ
áŀ Ķ
ĠæĹ¥ æľ¬
k k
Ġ4 1
Ġà¨ °
æ¨¡ å¼ı
è Ń
å¸ ®
à¤ª à¥įà¤°
ÎĻÎļ ÎĹ
Î½Î¿ Î´Î¿
u el
Ġein em
ĠØ³ Ø±
Ïĥ Î¹Î¿
ĠáĥĲáĥķ áĥ¢
t rz
iá»ĩ c
ti co
ĠÑĥ ÑģÐ»
v Ã¡
ĠÎºÏĮ Ïĥ
æĿ ¾
åĽ½éĻħ å¨±ä¹Ĳ
Ġà¤µ à¤¾à¤Ł
í İ
Ã ®
à®² à®¾à®®à¯į
Ġáĥ¨áĥĶáĥĺáĥ«áĥļ áĥĶáĥĳáĥĲ
ÐµÑĤ Ð°
ÏĨÎ¿ Ïģ
ÙĪ Ø§
Ġ×Ľ ×ľ
łà¸²à¸ ¢
à¹ ĭ
x t
4 3
à¹Īà¸ ¡à¹Ģà¸
Ġ2 66
Ġè Ĭ
èį Ĳ
å¹´ çļĦ
è¿Ľ åħ¥
à¹Ģà¸£à¸´ à¹Īà¸¡à¸
çĪ Ĩ
Ġ4 3
à¸µ à¹īà¸
Ġà¤¦ à¥ĩà¤£
ll i
à¤ķ à¥ĭ
Ġl le
ess e
à°¾à°ķ à±ģ
ow i
ĠÎ£ ÏĦÎ·
Ð¼ ÐµÐ½
ĠìĹ °
à±ĩà° ľ
ĠÎµÎº ÎµÎ¯
Ġjak o
áĥłáĥ£áĥ ľ
Ġåį İ
ĠãĢĤ âĢľ
éĩį åºĨæĹ¶æĹ¶å½©
Ġå¤§åıĳ pk10
åĵª éĩĮ
à¹Ħà¸¡à¹Ī à¹Ħà¸Ķà¹ī
ª à¹Īà¸ĩà¸
èĤ ĸ
áŀ Ľ
è§Ħ åĪĻ
æĢ» ä»£
à¹Ģà¸ ¢
ģà¸³à¸ ¥à¸±à¸ĩà¸
èµ· æĿ¥
ŀà¸ ·à¹īà¸Ļà¸
äºĶ åĪĨå½©
Ĥ à¸Ļà¸²à¸
Ĭ à¸Ļà¸
ĠåĨ į
Ġà¤®à¥įà¤¹à¤£ à¥Ĥà¤¨
Ġu til
ĠÐ· Ð°Ð²
it u
à¯ģà® ©
à±ĭ à°¡
ĠÎ ŀ
ĠÎµÏĢ Î¹Îº
Ġà¤²à¥ĩà¤ķ à¤¿à¤¨
Ø® Ø±
Ġ om
Ġz am
k eit
áĥĲáĥĽáĥĵ áĥĶ
Ġà°¨ à±Ģ
áº ¹
Ð ĳ
ĠÐ¼ Ð¸Ð½
Ġy a
ĠÏĮ Î»Î±
Ġà® Ĭ
í ŀ
à¤¿à¤ §
à±Ģà°° à±ģ
et ta
Ġsp o
ĠÙħ Ø¬
Ġn Ã³
ĠÎµ Î¹Ïĥ
ĠÑģ Ð°Ð¹ÑĤ
Ġ×Ķ× ŀ
te urs
ĠÐµ ÑģÑĤÑĮ
à®¾à® ľ
áĥķ áĥĶáĥķ
Ġz ak
Ġà® ¹
ĠL os
ãĤ ³
Ġes s
ÏĨ ÏĮ
ï¼ Ľ
å®Į æĪĲ
èĥ½ å¤Ł
Ĺà¸²à¸ ĩà¹Ģà¸
à¹Ģà¸Ľà¹ĩ à¸Ļà¹Ģà¸
Ġå ķ
ģà¸¥à¸ ±à¸ļà¸
Ġ *
åľ° æĸ¹
à¸Ļà¸ ±à¸ģà¸
Ġï¼Į ãĢĬ
çĸ ĳ
å° į
Ġà¤¦ à¥ĭà¤¨
ĠÐŁ Ð¾
n er
áĥĶáĥłáĥ ĵ
ĠÙĨ ÙĪ
cz a
ĠÎł Î¡
Î Ĵ
Î¸ ÏģÏī
Ð ĵ
ĠÑĤ ÐµÑħ
æĿ ¯
å¤§åıĳ å¿«3
à¥įà¤¯à¤¾à¤ ª
ĠÎĳ ÏĢ
ì¹´ ì§Ģëħ¸
ì² ´
à¦¿à¦ ī
Ñĥ ÐµÑĤ
ÏĦ Ïĥ
is che
ĠáĥĴ áĥĲáĥ®
Ġà¤ľ à¤¾
Î¿ Î¯
l ah
Ġà¦®à¦¾à¦¨ à§ģà¦·
g ra
à°° à°£
Ùĥ ÙĦ
à¯ĭ à®®à¯į
ĠÎĳ ÏģÏĩ
Ġd on
ĠÐºÐ¾ÑĤÐ¾ÑĢ ÑĭÐµ
áĥĽ áĥĶáĥĵ
ĠÄĳ áº§u
ÎŁÎ ľ
Î±Î¹ Î¿
Ø§Ø¯ ÛĮ
à®¤ à®¾à®ķ
Î¾ ÎµÎ¹ÏĤ
Ġà¦Ĩà¦® à¦¾à¦°
ì ¡
ÏĦ Î¶
Ġs y
ãģĦ ãĤĭ
à§ģà¦ ĸ
Ġáĥĵáĥ¦ áĥĶáĥ¡
é«ĺ æ¸ħ
à¤¾à¤ ģ
è¿ĺ æĺ¯
å½©ç¥¨ å¹³åı°
æĽ´ å¤ļ
åªĴ ä½ĵ
ĠåĽł ä¸º
à¸£à¸±à¸ Ĳ
Ġ6 8
ä¹ĭ åĲİ
¸ à¹Īà¸¡à¸
áŁ Ĩ
Ġè¢ «
Ġe m
Ġ6 0
Ġå¾· å·ŀæīĳåħĭ
«à¸Ļà¸ ¶à¹Īà¸ĩà¸
èĤ ī
6 5
Ġag æīĭæľºçīĪ
ä½ľ çĶ¨
à¹ģà¸ ¥à¸°à¹Ģà¸
«à¸ į
d d
æĹ¥ æľ¬
ĠåĲ Ħ
à¥Ģ à¤°
Ġ×ŀ× Ĳ
Ġà° ĸ
ĠÑı Ð²
Ġáĥĺáĥľ áĥ¢
sz a
Î¼ ÏİÎ½
à§įà¦ ŀ
ho d
Ġa t
è¡ £
éĴ ¢
é «
áł ¦
ļà¸ ¸à¸
ä»ĭ ç»į
Į æľĽ
Ġà¹Ģà¸ Ĭ
ĠagçľŁäºº åľ¨çº¿
æİ ¢
Ġè Ļ
à¹ģà¸ Ľà¸
è Ĩ
ģà¸´à¸ Īà¸
éĶ ĭ
ä¹Ł æĺ¯
9 7
ä¸¾ è¡Į
à¹Ģà¸ ¨à¸
åŃ© åŃĲ
Ġæĺ İ
ä¼ Ł
ĠæŀģéĢŁ æĹ¶æĹ¶å½©
Ġà¸ Īà¸°à¸
Ġor g
è¡ Ĺ
å¼ Ĥ
áŀ Ł
Ġ2 åĪĨå¿«3
Ī à¹īà¸²à¸
q q
ĠçĪ ±
Ġåħ¶ ä¸Ń
ç§ Ł
à¸Ńà¸µà¸ ģ
éĽ Ħ
ķ à¸Ńà¸Ļ
Ġ9 0
åľ ³
ç¬ ĳ
ç» ĥ
ç²¾ ç¥ŀ
à¤ķ à¥įà¤ķ
Ïĩ ÏģÎ¹
Ġå¹ ³
Ġæī ĳåħĭ
çŃ ĳ
ĠçĽ® åīį
Ġ ç½ĳ
è¿Ļ äºĽ
ç¾İ åħĥ
äºĨ è§£
ªà¸ °à¸
ä¼ ¦
Ĺ à¸´à¸
Ġ ä¹
Ġà¤¯à¥ĩà¤ ¥
g t
ĠáĥĽ áĥĺáĥĸ
ĠØ¨Ø§ Ø²
ĠÎĿ Î±
à±įà°° à±Ĩ
ĠÏĩÏī ÏģÎ¯ÏĤ
el er
ĀĀĀĀĀĀĀĀĀĀĀĀĀĀĀĀĀĀĀĀĀĀĀĀĀĀĀĀĀĀĀĀ ĀĀĀĀĀĀĀĀĀĀĀĀĀĀĀĀĀĀĀĀĀĀĀĀĀĀĀĀĀĀĀĀ
é¡ ¶
æİ ª
åį ł
«à¹ĩ à¸Ļ
Ġç ĸ
Ġæ¾³éĹ¨ ag
åĽ °
Ķà¸ ±à¸ļ
æ´ ¾
à¸Ļà¸µ à¸
Īà¸ ³
Ġ8 0
Ġà¤ħ à¤Ń
Ġc re
´ ĳ
ĠáĥĲáĥ¡ áĥĶáĥķáĥĶ
st ÉĻr
Ġty lko
Ø³ Ùħ
Ġà®ī à®°
Ġá¼ Ĳ
ÏĢÎ¿ ÏĤ
Ð°Ð½ Ð¸Ð¸
à§ĩà¦ ¡
à±ĩ à°Ĥà°¦à±įà°°
ĠG r
å®īåįĵ çīĪ
µ à¤¾
Ġà°® à±ģà°Ĥà°¦
áº£ o
Ġt am
Ġë Ķ
ÑĥÑĩ ÑĪ
ĠÎµ Î»Î»Î·Î½
Î» Î¹Î¿
n ou
ÏĦÎµ Ïį
ĠáĥĽáĥĿáĥ ®
Ġun ter
et s
Ġà®® à®°
ĠÐ½ Ð°Ð´
ÅĽ cie
Ġà¦Ĩ à¦ĩ
Ġà°¸ à°°
Ġ×Ķ× ĳ
á½ ¸
Î¯Î¶ ÎµÎ¹
Ġs ou
ur o
Ø§ÛĮ Ø´
Ġm ÉĻs
Î¾ Î¹
ĠÐ¿ Ð¾ÑĤ
à¯ĭ à®¤
ĠÙĩ Ø°Ø§
áĥĲáĥľ áĥ¢
Ġch á»ī
u ov
Ġà¦ª à§ľ
à°¿à°ª à±ĭà°¯
Ð¼ Ð°
à¤¿à¤ ª
g ÉĻr
Ã© c
Û ķ
ĠØ§ÛĮØ± Ø§ÙĨ
ìļ ´
ãģ ¿
ta do
ĠØ´ ÙĪØ¯
Ġáĥĺ áĥĴ
Ġà¦¸ à¦Ļà§įà¦Ĺà§ĩ
ĠÐ½ Ð°Ð·
Ġques to
Ġà°ªà±įà°° à°ľ
ĠØª ØŃ
Ġz as
f Ã¼
Ġpro du
Ġà¦¬ à§ĩà¦¶
Ġà®ª à®£
Î½ Î¬
l as
Ġà¤¥ à¥ĩ
áĥĲáĥĵ áĥĿ
Ïĥ ÏĥÎ±
à°¬ à±įà°¬
Ġáĥ¨áĥĶáĥĽ áĥĹáĥ®áĥķáĥĶáĥķ
¦ ¬
Ġà®¤à¯Ĭà®Ł à®°
Ġe ff
iy e
ĠÏĢÎµÏģÎ¹ÏĥÏĥÏĮÏĦÎµ ÏģÎ±
ĠÐ¿ÑĢ Ð¸Ð½
à°¿à°¯ à°¾
Ġw sp
il ir
ãĥĥ ãĥĪ
Ä ©
× £
Î¼ÎŃÎ½ ÏīÎ½
Ġs ans
i dak
è´£ ä»»
Ġà¤ķ à¤¿à¤Ĥà¤
ic as
le j
ĠÐ² ÐµÑĢ
ÏĦÎµ Ïħ
ĠáĥĴáĥĲáĥľ áĥ¡
Ġìķ Ĭ
Ġpos s
f e
Ø³ ÙĬ
ĠÎĶ E
Ġm ÉĻlum
à°°à±įà° ®
k Å¯
Ã³ b
ÙĦ Ø§Ùħ
à®¾à®® à®²à¯į
à¤¾à¤ «
Ïģ Ïį
Ð¼ Ð¾ÑĤÑĢ
Ø§Ø® Øª
Ġe dib
Ġm uch
Ġa ber
ver s
à¦° à¦£
Ġãģ Ŀ
Ġà®ķ à®¾à®°
ĠáĥĹ áĥĲáĥĽ
Ġà°¤ à°®
ÑĨ Ð°
ĠÎ³ ÏģÎ±
Ġgi Ã¡
iyy at
Î´ Î¯
ĠáĥĲáĥ¥ áĥķáĥ¡
Äį ka
ĠÐ´ Ð°Ð½
Ġz ijn
Ġm iej
jÃŃ cÃŃ
Ġà¤¦ à¥Ģ
Ġà°ª à°¦
Î¸Î· ÎºÎ±Î½
Ġcom m
el ÉĻ
ĠÐ½ ÐµÐ´
Ø§Ø± Ø©
Ġnh áº¥t
Ġà¤ħ à¤¬
áĥĲáĥ¬ áĥĺáĥļ
Ġ×¢ ×Ŀ
Ġn ur
Ð° ÑĨÐ¸Ñı
Ø ¢
ĠÂ ¿
à´ ¯
Ġà¤° à¤¹à¥Ģ
Ġà¦¬à¦² à§ĩ
à°¾à°¦ à±ģ
ou ver
Ġà®ª à®¾à®¤
Ïĩ ÎµÎ¯
ì¹ ´ëĿ¼
ëł ¥
on a
ĠÐ± ÐµÑģ
áĥĺ áĥĲáĥĹ
Ġà´ ª
Ġà¤Ńà¤¾à¤° à¤¤
Ð°ÑĤ Ð¾ÑĢ
Ġà¤° à¥Ĥà¤ª
Ġà°ļà°¾à°² à°¾
à¦¿à¦ ¡
Î³ Î¼Î±
Ġn ue
ĠÑĩ ÑĤÐ¾Ð±Ñĭ
Ã¼ b
Ġ Å¼y
Î² Îµ
Ġv z
al iz
Ã© nÃ©
ãĥĥ ãĤ¯
Ġse b
a ft
à¦¡ à¦¼
Ġà®µ à®¿à®°
áĥł áĥĿáĥĽ
u u
Ĺà¸ ±à¸
ĠåĽ ¾
à¥ĩà¤Ĥà¤ ¦
ĠØ§ÙĨ Øª
der e
Î´ Ïİ
Ġ íķ´
ĠÕ ¢
Ġb ilÉĻr
á¿ ¦
ĠÎĳ ÎĿ
Î¼ Î¯
Ø´ Ø±
ĠáĥĲáĥ® áĥļ
Ġà¹ģà¸¥ à¹īà¸§à¸
ĺ à¸£à¸£à¸¡à¸
èĩªå·± çļĦ
éĽ ¶
æ¯ Ĵ
é¡ º
æĸ¹ æ¡Ī
å¤§ å®¶
«à¸ ¢à¸
ä¸ļ åĬ¡
à¹ Ĭ
çĶµ ç«ŀ
Ġà¤Ĩ à¤°
Ġmo Å¼e
me k
ĠÏĢÏģÎ¿ Î²
Ġse xo
A R
ari os
a it
áĥĹ áĥĲáĥķ
Ãº ng
ĠÑĢ ÐµÐ³
ĠÎº Î¿Î¹Î½ÏīÎ½
ĠÎ£ Î¤
ĠÎ¼ÎŃ ÏĩÏģÎ¹
ĠØ±ÙĪ Ø²
Ġ×ľ ×ŀ×
à¹īà¸Ńà¸ ¡
Ġà¤¦ à¥ĩà¤¶
ig li
ãĥ Ĩ
ÎŁÎ ¡
Ïī Î¼Î±
Ġà®ĩà®¨à¯įà®¤ à®¿à®¯
ĠáĥĽ áĥĻ
ĠÑĤ ÐµÐ»
g un
n osti
ĳ Ĳ
Ġà° Ĳ
w Ã³
ub li
ĠÙĥ Ø§ÙĨ
Ġà®ĩ à®¯
ĠÏĥÏħ Î³
áĥĲáĥłáĥ ©
b l
to re
Ġà¦ħà¦¨ à§ĩà¦ķ
ĠÐ¸ Ð³ÑĢ
ÎŁÎ ĵ
ĠÎ» ÎµÎ¹ÏĦÎ¿ÏħÏģÎ³
ĠÙĤ Ø±
à°¿à°Ĥà°ļ à±ĩ
ĠBak Ä±
ĠgÃ¶ stÉĻr
à®¿à®Ł à®®à¯į
Î½Î¿ Î¹
Ġhab en
ĠÑĩ ÐµÐ»Ð¾Ð²
wi Äħ
áĥĲáĥ Ń
ĠÎºÏħ Î²
à« ĭ
äºĴ èģĶ
Ġà¸ ¡
Ġ36 5
æĸ ¼
¥à¸ ¢à¸
Ġâ ĻĢâĻĢâ
Ġà¤ķà¤° à¥Ĥà¤¨
Ġne lla
tÃ© r
Ġb á»ĭ
à®¾à® Ļà¯įà®ķ
y or
r Ã¡
ĠÎ£ Ïį
åĳ ¢
Ġà¸ ģ
è§£ åĨ³
à¤¾à¤¸ à¥įà¤¤
ĠÑĥ Ð¶Ðµ
Ġà°® à±ģà°
Ġáĥ¡áĥĲáĥ®áĥĶáĥļ áĥĽ
ĳ ľ
Ġc or
Ġï¿½ï¿½ï¿½ï¿½ï¿½ï¿½ ï¿½
Î´ ÎŃ
à¦ ·à§įà¦Ł
ÑĢÑĥ Ð´
à®² à¯įà®µ
áĥ¬ áĥĺáĥ¤
ÉĻh s
×ª ×Ļ
à°°à±įà° ¥
Ð°Ñģ ÑĮ
\\ \\
cz nie
Ú© Ùĩ
ãĤ «
Ġle ur
ĠÎ´Î· Î¼Î¹Î¿ÏħÏģÎ³
áĥľ áĥĺáĥ¨áĥķ
Ġh aq
Ġd urch
nÃŃ m
Ġà®ª à®¿à®±
lÄ± k
Ġà¤¯ à¥ĩ
ĠÐ½ ÑĥÐ¶
Ġ {
ë° ©
à§Ł à§ĩ
O S
Ġto do
Î¼ Î±Î¹
ĠÎ³ ÎµÎ½
à¦¤ à§ĭ
ow ym
ĠØ¨ ÙĨ
ĠáĥĽáĥĺáĥĽ áĥĲáĥłáĥĹ
éĺ ¿
æ° ¸
áŁ ģ
ĠåĮ ħ
æĭĽ åķĨ
ĠçľŁ éĴ±
à¸² à¸Ļà¹Ģà¸
à¤¿à¤ ¦
ĠÐ¾Ñĩ ÐµÐ½ÑĮ
m in
Ġà°ļà±ĩà°¸ à°¿à°¨
ÎŁÎ ļ
ĠÏĢ ÏģÎ¬
ê± ´
Ġde t
Ġ×ĸ ×Ķ
Ġà®ķà¯Ĥ à®Ł
ion s
Ð¸Ð½ Ð³
Ø¯ ÙĬ
ÏģÎ· ÏĤ
ĠáĥĽ áĥĲáĥĽ
áĥłáĥĺáĥķ áĥĺ
cion al
Ġà°® à±Ĥà°
Ġme hr
ĠÏĮ ÏĩÎ¹
è®¤ ä¸º
Ġåº Ķ
Ġäºļæ¸¸ ä¼ļ
Ġ ä¿Ŀ
Ġäºļæ¸¸éĽĨåĽ¢ ag
ĵà¸ °à¸
Ġåħ ±
æĹĹèĪ°åİħ ä¸ĭè½½
çĿ £
å® Ī
çĶµåŃĲ æ¸¸æĪı
å «
¶à¸ ģ
6 7
çĽ´ èĲ¥
Ħ à¹Į
Ġà¤¤ à¥Ģ
Ġa lle
Ġo k
Ġì Ļ
ĠÄĳá» ĵ
ĠÏĢ ÎŃ
ÑĨÐ¸ Ñİ
Ġà¤ľ à¤¾à¤¨
ap at
Ġà¦ķà¦¿à¦Ľ à§ģ
ĠÛ±Û ³Û
Ø§ÙĦ ÛĮ
à±ģà° ¬
Ġn os
áĥª áĥĺ
ti vo
Ġv el
ĠÐ½Ð° Ñģ
Ġ ÉĻr
ĺà¸ ¸
Ġà¤Ĩ à¤¤à¤¾
ĠÎ¼ Î¿
Ã »
à®¾à®² à¯ģà®®à¯į
Ġà°ľ à°¨
ãģ¾ ãģĹãģŁ
ĠáĥĻ áĥĺáĥĵ
åı ³
«à¸¥à¸²à¸ ¢
à¹Ģ à¸Ńà¸²à¸
æĭ Ł
ä¸ĩ åħĥ
Ġpo ker
à¹Ħà¸ ĭà¸
à¤¦à¥įà¤ ¦
d uk
Ð°Ñĩ ÐµÑģÑĤÐ²
×ĳ ×ľ
ĠáĥĲáĥ Ĵ
ĠØ§ÙĦØ «
r ÉĻ
ĠÏĨ Ïī
Ġà°ħà°§ à°¿à°ķ
Ġpe u
Ġs á»±
Ġj uÅ¼
Ð¾Ð½ Ð°
àµįà´ ¤
Ġà¤¦ à¤¿à¤¨
Ġìĥ Ŀ
ĠH o
áĥĺáĥ¡ áĥĹáĥķáĥĺáĥ¡
Ġk ar
ļ à¹īà¸²à¸Ļà¸
æľª æĿ¥
ä¼ ¼
à¸£à¸ ´
ç¨ĭ åºı
à©Ĥ à©°
à¹Ģ à¸Ńà¸ĩà¸
Ī à¸Ļà¸
æĸĩ ä»¶
åįģ åĪĨ
à¥įà¤¯à¤¾à¤ ¯
E N
Ġn uest
g ia
j i
ĠÏĢ Î»Î±
Ġà°¸ à±įà°ª
a ll
ĠÏĩ ÏİÏģÎ±
Ð» ÐµÐºÑĤ
Ġà¦® à¦¹
à¤Ĥà¤ Ł
Ø§ÙĨ Ø¯
bi Ã©n
à®¿à®© à¯įà®©
ĠÐ´Ð¾Ð» Ð¶
ĠáĥĹ áĥ£áĥĽ
Ġ×Ķ× ¤
ìĤ¬ ìĿ´íĬ¸
ĠbÄĻ dzie
ilm ÉĻsi
Ġà¦¬ à¦¾
à°¿à°¸à±įà°¤ à±ģà°¨à±įà°¨
ĠìĹ Ĩ
b ÄĽ
h er
ĠÙĪ Ùħ
ĠÏĢ Î¯
is i
Äħ d
Ġn om
çĻ» åħ¥
Ġ% ï¼Į
Ĭà¹Īà¸§à¸ ¢à¸
ĠĈ ą
èĪ ĩ
Ġå ¢
åĤ ¨
à¸²à¸£ à¹Įà¸
Ġåı Ī
Ġà¨ ī
å¥ ¥
à¥įà¤¯ à¤Ĥà¤¤
Î» ÏĮÎ³
ri j
à±ĩ à°¨
ĠÐ¾Ð± Ñī
Ġà®ļ à®¿à®²
áĥķ áĥĺáĥļ
Î´ ÏģÎ¿
Ã¶ z
Ġà¤¬ à¤¾à¤¤
ĠÐ² Ð·
Ùģ ÙĬ
ÅĻ ed
Ġà°¦ à±ĩà°¶
n oÅĽÄĩ
áĥĶáĥłáĥ ķ
f i
z en
Ïĥ Îº
íĥ Ģ
æį Ł
é¢Ĩ åŁŁ
æ¶ ²
åħ· æľī
Ġæ¢¦ è§ģ
ç½ĳ _
Ġà¤µ à¤¾à¤¢
Ġà¤¬ à¥Ī
Ð¸ÑģÑĤ ÐµÐ¼
ĠÚ¯ ÙģØª
ĠáĥĽ áĥĿáĥĴ
Ġy ol
ĠçŃ ī
áŁĴáŀ ļáŀ
å¾® ä¿¡
Ĺà¸ ±
åĪ ļ
å¾ Į
å© ļ
éĿŀ åĲĮ
ç¬¬ äºĮ
áŀ ĵ
éľĢ æ±Ĥ
Ġà¤Ĺ à¥ĭà¤
Ð»Ñı ÐµÑĤÑģÑı
ĠÎ¿Î¹ÎºÎ¿ Î½Î¿Î¼
Ġ×ŀ× ª
Ġn Äĥm
ÙĪ Ø¹
ĠP ara
Ġà¤µà¤¿à¤ ¶
ÏĢ ÏĦÏħ
Ġn i
Î¶ ÏĮ
Ġì µľ
Ġáĥĳ áĥł
à¦¾à¦° à§ĩ
ĠA uf
ĠÎĶ Î¹
Ġà®ª à®ķ
Ġà°® à°¾à°¤à±įà°°
Î» Î¹Îº
ĠÐ¿ Ð°ÑĢ
t as
ĠØ³ ÛĮ
á½ ¶
Îº Î·ÏĤ
az Ä±r
Ġu 00
Î»Î¿ Î½
y s
ĠÙĥ ÙĦ
ĠÎĳ Î³
Ġà¦ķà¦¥ à¦¾
ÏĢ ÏĦ
ion i
áĥĺáĥĻ áĥĲ
Ġr u
ĠÐ ĸ
Ġà¤ª à¥Ģ
ÐºÐ° Ñĩ
ëĭ ¨
áĥ£áĥłáĥ ¡
Ã¤ r
ĠÐ° ÑĢ
à°¬ à°¡
it Ã©s
Ġn em
Ġáĥŀ áĥĲáĥ¢
en do
ÉĻb ÉĻr
Ġà¦¯ à¦¾à§Ł
ĠÏĥ Î®Î¼ÎµÏģÎ±
ĠÚ© Ùħ
Ġs al
wie t
Ø¨ Ø¯
×Ļ× ¦
à®° à¯įà®µ
à¸£à¹Īà¸§à¸ ¡à¸
Ġä¸Ĭ æµ·
Ġà¤® à¤¨
ĠÎ² ÏģÎ¯
áĥĶáĥĳ áĥĶáĥĳáĥĺ
et y
ÐµÐ½ Ð´
Ġà¸ §à¸±à¸Ļ
à¤Ĥà¤ §
it em
Ġí ĸ
Ġme di
men ta
ĠÑģÑĤ ÑĢÐ°Ð½
áĥľáĥĺáĥ¨áĥķ áĥľáĥĶáĥļ
Ġy eni
ov at
Ġh iá»ĩn
on y
sch aft
Ġde ux
ĠØ «
Ġà¦ļ à¦²
m ÉĻn
el ij
Ġáĥ¡áĥĲáĥ ¤
Î¸ Î¿
st ar
Ġå® ¶
æľĭ åıĭ
æ¶ ī
åŁº æľ¬
1 88
Ġå¾ ®
±à¸ ĩà¹Ģà¸
Ġ ä¸ĭè½½
áī µ
æ°´ å¹³
à¸£à¸ ĸà¸
ľà¸ ¡
à¥įà¤¯ à¤®
Ġà®¨ à¯ĩà®°
Ġin c
Ġà¨¹ à©Ī
Ġà¤®à¤¹ à¤¾à¤°
âĢĭâĢĭ âĢĭâĢĭ
æĬ¥ åĳĬ
Ġà¨ Ĺ
Ġà¸ «à¸²à¸
Ġå± ±
Ġç ģ
æĶ¿ æ²»
z z
ĠéĿ Ĵ
à¨ Ł
èĦ ±
à¥įà¤¯ à¤µ
ÉĻs inin
Îķ Î¤
ĠÎ¼ ÏĢ
à¦¾à¦° à¦£
Ġbar dzo
×Ļ× Ĺ
ĠÎ² Î¿
Ġ ÉĻn
ĠÐĿ Ð¾Ð²
à¤¾à¤¸ à¤¾à¤łà¥Ģ
Ġëı Ħ
kie m
iy or
Å ¥
ÐµÐ½ Ð¸Ñİ
áĥĿáĥĳ áĥĲáĥ¨áĥĺ
lich en
ÙĦ Ø³
Ġà°µ à°¸à±įà°¤
Ïĩ Ïī
C I
ÃŃ as
au t
Ġà¤ķà¤° à¤¤à¥ĩ
Ġdá»¥ ng
ĠÎºÎ±Î» ÏįÏĦÎµ
à±Ĥà° ¨
ni ka
ĠáĥĽ áĥĺáĥĶáĥł
Ùĥ Øª
ĠÐ¾Ð± Ð»Ð°ÑģÑĤ
ti ck
an to
ÏĢÎ¿Î¹ Î®
à¯ģà®³ à¯į
Ġf in
ĠÐ´ Ð¾ÑģÑĤ
Ġà°¸à°¿à°¨à°¿à°® à°¾
ªà¸¡à¸ ±à¸
äº¤ æĺĵ
Ġåį Ĺ
Ġé Ĵ
åŃĺ åľ¨
åŃ ¸
à¸£à¸¹à¹īà¸ ªà¸
ķ à¸²
Ġà¸ Ĥà¸Ńà¸ĩ
ļ à¥ĩ
à°µ à±įà°µ
Î³Î³ ÎµÎ»
le p
à§įà¦° à¦®
ĠÏĢ Î±Î½
Ġáĥ¨áĥĶáĥ £áĥ
×¨ ×Ļ×Ŀ
à°² à±įà°²à±ĭ
Ġà®ķ à®µ
Ġêµ Ń
ĠN a
ãģ® ãģ§
ĠÏĢÎ± ÏģÎ¿Ïħ
Ġm in
Ä± s
ï¼ ģ
äº¤ éĢļ
ĠTh e
Ġà¸ Ħà¸§à¸²à¸¡à¸
Ġé© ¬
æŁ ĵ
à¸£à¸¹ à¹ī
Ġå½© ç¥¨
Ġà¤ķà¤° à¤¤
Ġà°ľà°° à°¿à°Ĺ
ÙĦ Ø§ÙĦ
ĠÎŃ Î½
áĥ¥ áĥĿáĥľ
ĠÐ¿ÑĢ Ð¾Ð³
Ġà¤ªà¥įà¤° à¤¦
à® ·
Ġj our
ĠÎł ÏģÏĮ
ĠÚ¯ Ø±
Î¼Î² ÏģÎ¯Î¿Ïħ
lich e
Ġà°µà°¿à° ¦
Ð°Ð» Ð¸Ð·
ĠÎ¤ Î¹
Ġess ere
ĠÏħ ÏĢÎµ
Æ°á»£ ng
Ġp en
à®² à®ķ
áĥ£áĥłáĥ ľ
Ð¾Ð² Ð°ÑĢ
Ïģ Î¿ÏħÏĤ
n ak
áĥĵ áĥĿáĥĽ
ĠÐ¼ ÐµÑĤ
Ġb iz
te ment
ãĥ ¡
à¤¿à¤ ľ
Ġà°¨à±ĩ à°¨à±ģ
Ø¨ Ø§Ø±
ĠìĦ ¸
Ġh ÉĻy
ĠÎ³Î¹Î± ÏĦÎ¯
j o
ĠÐĺ Ð½
à°² à°ķà±ģ
ÏĨ Î¬Î»
Ġz d
à¦¾à¦ «
ĠáĥĹáĥ£áĥĽ áĥªáĥĲ
ĠÎ±Ïħ ÏĦÎ¬
er a
ĠÑįÑĤ Ð¾Ð¼
Ġb is
·à¹Ī à¸Ļà¸
Ġà¤µà¤¿à¤ ¦
Ġs om
Ġà°ħ à°Ĥà°Ł
Ã¶y Ã¼k
Ð°ÑĤ Ð°
ĠÎµÎº ÏĢ
Ġ×Ķ× ł
ĠD es
g l
ĠØ§ÙĦÙħ ÙĪ
à§įà¦¬ à¦°
Ã Ħ
Ã¡ nh
ĠÎł Î±Î½
à®¿à®Łà¯įà®Ł à¯ģ
à¹Ģà¸Ń à¸²
æ¯Ķ è¾ĥ
Ġä¸ ĩ
à¤¾à¤² à¥Ģ
ĠÐ¼ Ð¾Ð³
Ġà°®à±Ĭ à°¦
Î¼Î± ÏĥÏĦÎµ
à®¿à®ļ à¯įà®ļ
ĠÏĦÎµ Î»ÎµÏħÏĦÎ±
áĥĲáĥĽáĥĵ áĥĶáĥľ
ĠÙħ ÙĤ
m et
ãģ¨ ãģĦ
ĠÎ± Î¹
la v
à¦ ı
ion es
à§ģ à¦¦à§įà¦§
an k
Ġà®ķ à®£
à· ı
Ġà¤ķ à¥įà¤¯à¤¾
Î²Î¬ ÏĥÏĦÎµ
ĠÎ¬ ÏģÎ¸
Î½Î¿Î½ ÏĦÎ±Î¹
Ġà¤¹ à¥ĭà¤Ĺ
z na
å®ŀ æĸ½
æĹ §
ç¤ ¼
å° ļ
æĵį ä½ľ
Ġà¤ªà¥įà¤° à¤¶
m ak
ë§Į ëĤ¨
ìĺ Ī
ÉĻh ÉĻr
áĥ£áĥ ¢
Ġë° ©
Ķ à¹Į
Ġé ľ
à¹ĥà¸ ģà¸¥
åĽ º
©à¸ ±à¸
åģ¥ åº·
ä½ĵ ç³»
à¹Ģà¸ ŀ
ĠagæĹĹèĪ°åİħ ä¸ĭè½½
Ġ ç½ĳä¸Ĭ
æµ ª
ķà¸ ģà¸
Ĥà¸²à¸ ¢à¸
Ġå· ²
å· ¨
Ġç ĥ
ç ·
Ġé¦ Ļ
Ĭà¹Īà¸§à¸ ¢
Ġå Ń¦
Ġçİ¯äºļ æīĭæľº
à¸Ńà¸²à¸« à¸²à¸£à¸
à¤¾à¤ª à¤°
Ġes c
Ġà°ħ à°¸
Ġà®ĩ à®¤à¯ģ
el t
p tion
ĠÎķ ÎĽ
ÏĥÏĦÎ· Î¼Î±
áĥĶáĥĽ áĥĳ
à§Ĥ à¦²
ĠÄĳá»Ļ ng
Ùħ Ø¯
ĠÃ ī
Î¼ÎŃÎ½ Î¿Ïħ
an i
Ġáĥ¡áĥĲáĥĶ áĥłáĥĹ
ĠÐ¿ Ð¾ÑĢ
ÙĪ Ø¨
Ġ×ĳ ×©
ĠM e
Ġà°² à±ĩà°¦
Ġà¤ķà¥ĭà¤ Ī
Ġpri mer
ÑģÐº Ð¸Ðµ
áĥĲáĥł áĥĲ
á½ °
ÏģÎ³ Î±Î½
ĠS z
Ð¾Ð± Ñī
ĠbaÄŁ lÄ±
Ġpro f
Ġà¤ªà¤¹ à¤²à¥ĩ
ĠO d
Ġç ´
Ġéļ ı
Ġè¡ Į
3 åĪĨå½©
çĬ ¯
ŀà¸´ à¹Īà¸¡à¸
ĆĈ ć
éĽ ¨
æ¯ Ľ
æ ¦Ĥ
è· ĳ
ç« ¥
ç® ±
¥ à¹Īà¸²à¸
à¸£à¸±à¸ ģ
Ġà¸ ľà¸¹à¹īà¸
Ġà¤®à¥ĭà¤ ł
áĥĲáĥĹ áĥķáĥĺáĥ¡
t ri
Ã¼t Ã¼n
ĠÎķ Î¯Î½Î±Î¹
Ġà®® à¯ģà®±
Ġáĥľ áĥĲáĥ®
Ġà¦¸ à¦¾à¦®
ÅĽ li
ro v
ëĲ ľ
di ng
Ã© ra
Ñĥ ÑģÑĤ
ĠÎĳ Îł
ĠÏĦ ÎµÎ»
ti va
âĢĮ ÙĩØ§
ĠÙĪ Ùĩ
ÏĦÎ¿ ÏįÎ½
áĥĶáĥ ¨áĥĺ
Ġd alam
Ðµ ÑĦ
Ġà¦Ń à¦¾à¦°
Ġà®ķ à¯ģà®Ł
< /
èĢģ èĻİ
Ġà¸ª à¹Īà¸§
è´ ´
ç» ©
à¹Ĥà¸¥à¸ ģ
è¡Į ä¸º
Ġå® Į
ä¸Ń æĸĩ
Ġà¸ Ħà¸¸à¸ĵà¸
Ġag å®ĺæĸ¹ç½ĳç«Ļ
åĬł æĭ¿å¤§
ç¼ ©
ï¼ Ł
çĽ´ æİ¥
Ĭà¸²à¸ ķà¸´
à¥ĩà¤ ¡
Ġt ÉĻÅŁ
ĠÃ© c
m as
ÑĢÐ° ÑĦ
Ġt em
Î»Îµ Îº
ÃŃ ch
Ġ×ŀ× Ĺ
ÏģÎ· ÏĥÎ·
à¦¬ à¦¾à¦¦
Ġáĥ¢ áĥł
ãĥ £
Ġo ff
ĠÑģ Ñĩ
\ "
iÄĻ k
ĠÎĳ ÏĢÎ¿
ĠÃ ĸ
Î¼ÏĨÏīÎ½ Î±
Øµ Ø±
à¦¿à¦ Ń
Ð°ÑİÑĤ ÑģÑı
k en
à®¾à® ªà¯įà®ª
ëĭ ¹
Ġt ous
ÎµÎ¹ Î±ÏĤ
Ġè¿ ĳ
ļ à¹Ģà¸
ļ à¸Ļà¸
ĠagèµĮåľº åİħ
Ć ãĢĤ
åģ ·
ĸà¸ ·à¸Ń
à¥įà¤¯à¤¾à¤ļ à¥įà¤¯à¤¾
Ġà°ªà°¾à°°à±įà°Ł à±Ģ
ĠØ§ÙĦÙħ Øª
Õ¡Õ £
Ġt ÉĻs
Ġm Ã¡
Ġáĥĵ áĥłáĥĿáĥ¡
à±ĭ à°µ
ĠD z
ĠÎľ Î±Ïģ
Ġà¤Ĺ à¤Ī
ĠÎŃ ÏģÎ³
à®±à¯įà®ķ à¯ģ
Ġpe ti
ÏĪ Îµ
ÑĢÑĥ Ð¿
Ġro ku
Ġà§¦ à§
Ġà¦¹ à¦¾à¦¸
Ġest Ã¡
Ġà¦ķà¦° à¦¾à¦°
Ġ×Ĳ ×ľ
ĠÎ¿ÏĢÎ¿ Î¯Î¿
ĠÕ ½
Ġd Ã¼ÅŁ
Ġà°ķà°¾à°¨ à±Ģ
à¤°à¥įà¤ ¤
áĥĶáĥ¥ áĥ¡
at z
Ã¢ u
p h
Ð°ÑĤ Ñĭ
Ġáĥķ áĥĺáĥľ
z ia
Ġãģ ĵ
ìľ ł
Ġkter Ã©
il la
Î³ ÎµÎ¹
à´ Ĥ
Ġ à¬
Ġà¤ħ à¤Ĺ
ĠÐ¿ÑĢ Ð¸Ð¼
áĥĿáĥĵ áĥĶáĥ¡
Î½ Îµ
A S
Ġtr ab
Øª ÙĬ
à°¾à° Ĺà°¾
Ð ¤
ĠÐ°Ð² ÑĤÐ¾Ð¼
a ce
Î¸ ÏģÏİ
Ġà®Ĩà®© à®¾à®²à¯į
ĠéĢļ è¿ĩ
æĸ° çļĦ
Ġà¤¤ à¤¿à¤
ĠD o
de o
ci p
ĠØ¯ Ø§Ø´Øª
ĠÐ²Ñĭ Ð¿
Ġë¬ ¸
à¦ ¯
ÏĢÎ¿ Ïį
Ġà¤ľà¤¾à¤¤ à¤¾
Ġà°µà°¿à° ľ
ĠA b
Ġqar ÅŁÄ±
k ÄĻ
×¨ ×Ľ
Ð¾Ð· Ð´
áĥĺáĥĽ áĥĶ
Ġç¦ ı
Ġà¸ ģà¹ĩ
Ġ ä¼ļ
å¤§ å¸Ī
Ħà¸ ¥à¸
åĪĨ å¿«ä¹Ĳ
Ġà¤µ à¤¿à¤ķ
ĠÎ´ Î¿
m iento
Ġw z
à°² à°¨à±ģ
Ð½ Ð°Ðº
ĠÎµ ÏĨ
ØŃ Ø©
à§ĩà¦ ª
¸ à¸Ļà¸
åĵª ä¸ª
à¹Ģà¸ŀà¸ ·à¹Īà¸Ńà¸
78 9
ĠåĲ Ī
éĸ ĭ
à¤¾à¤¯ à¤²à¤¾
Ġf il
à®¾à® ª
Õ¡Õ °
Ġd ÉĻr
Ġáĥ¡ áĥĺáĥĽ
h re
Ġt emp
Ġng Ãły
ĠÏĢ ÏģÎ¹Î½
å» ¶
à¹Ī à¸Ń
Ġç ł
æĬ Ĺ
à¤ ·à¥įà¤Ł
Ð½Ð¸Ðº Ð¾Ð²
Ġà¦Ĩà¦® à¦¾à¦¦à§ĩà¦°
ĠìĦ ±
Ø¯ ÙĬØ¯
Äį ky
áĥĶáĥĳ áĥĲáĥ¨áĥĺ
Î´ Î¬
Ġà®İ à®²à¯įà®²
l y
Ð¸ Ð½Ð¾
Ġg el
ĠÑĢ ÐµÑĪ
Ġà¦¨à¦¿ à¦°à§įà¦¬
cz enia
aj o
ĠÎ± ÏĢÎ±
Ġm ol
Õ £
ey n
Ġáĥł áĥĲáĥĽáĥĵáĥĶáĥľ
ĠÑģ ÐµÐ±
Ø§ Ú©
Ġà¦ĩ à¦ī
à®¿à®±à¯įà®ķ à¯ģ
Ġà°Ĩ à°®à±Ĩ
íŀ Ī
Ġan n
à°§ à±įà°¯
ĠÎķ Îł
ÏīÎ½ Î¹Ïĥ
ÎŃÏģ Î½Î·
Ġe dÉĻ
Ġèĭ ±
èīº æľ¯
5 00
ªà¸¹à¸ ĩà¸
Ġà¤¤ à¤¸
Ġa k
£Â ¬
áº¯ c
ÏģÏī ÏĥÎ·
t ar
ĠÏĥÎ· Î¼Îµ
Ġà¦ªà¦° à¦¿à¦¬
Ġex p
ÑĮ Ñİ
Ġ×ķ ×Ĳ
Ġáĥĳ áĥĲáĥķáĥ¨
Ùĭ Ø§
Ġg es
ĠØ´ ÙħØ§
Ġà°¶ à±įà°°à±Ģ
Ġà°ª à°¡
Ĭà¸ ±à¸
éĻ Ħ
Ġå Ķ
å®ļ çļĦ
Ķ áĢ
Ġagäºļ å®ĺç½ĳ
à¤¶ à¥Ģ
ĠÅ ļ
Ġà¤¸ à¤¾à¤®
Î» Î¿Ïį
ĠáĥĲáĥ® áĥĲáĥļ
Ð»Ð¸ Ð²
à®© à¯įà®ª
ÅĤ am
ĠáĥĶ áĥķáĥł
Ġg ÅĤ
le ment
Ġâ ķ
Ġíı ¬
Ġà°ªà±ĭ à°²
ĠÐ² Ð¾Ð´
Ġt idak
ÎĻÎ Ķ
Î¼ Î¯Î±
à¦°à§įà¦ £
diy i
Ġw ur
áĥĲáĥĹ áĥĲ
g ar
ĠÙĩ Ø³Øª
ch i
ãĥ ŀ
Ġu it
ĠÏĥÏħ Î³Îº
à´ Ł
Ġà¤¦ à¥įà¤µ
k ou
Ġà°ķ à±įà°°
Ġst ron
Ġáĥ¡áĥĲáĥ®áĥĶáĥļáĥĽ áĥ¬áĥĺáĥ¤
Ġíĺ ¸
×Ļ× ļ
ĥ n
ĠÐ¢ Ð°Ðº
Î¿Ïħ Ïĥ
Ã© d
Ãº n
áĥĲáĥłáĥ ¯
ĠÎ£ ÏĦÎ¿
Ġà®µ à¯Īà®¤à¯įà®¤
u to
Î»Î± Î¼Î²
Ð» ÐµÐ¼
ier w
×Ľ ×ľ
à±Ĩ à°¡
à¸Ńà¸ ·à¹Īà¸Ļ
Ġçİ¯äºļ çľŁäºº
7 2
Ġäºļæ¸¸ æ¸¸æĪı
à¥įà¤ §
k il
Ø± Ø¶
ĠpÅĻ i
Ġâ Ĺ
Ġì§ Ħ
Ġà®® à®Łà¯įà®Ł
áĥĲáĥķ áĥĲáĥĵ
ti ve
Î³ Î¹
Ġà¦¹ à¦ļ
ÑĥÑĢ Ñģ
ĠÐ¿ Ð¾Ð½
ĠìĹ Ĳ
Ġm ay
ĠÎº Î¿Ïħ
Ġà°ħà°¯ à°¿à°¤à±ĩ
Ã¨ res
Ã¡ p
ĠØ³ Ø§Ø²
Ġà¦Ĩ à¦ľ
ãģĦ ãģ¾ãģĻ
Ã³ l
ĠÎ¶ Î·
Ġv ol
ĠÐŁ Ð¾Ð´
ĠÎµÏħ ÏģÏİ
ĠÕ ¾
l aÅŁ
ÏģÎ± Î½
ĠÙ¾ ÛĮØ´
à§ĭ à¦§
ĠÐľ Ð¾ÑģÐº
Ð¾Ð¿ÑĢ Ð¾Ñģ
à®µ à¯Ī
Ġ à¹Ħà¸Ķà¹īà¸
īà¸ ±à¸Ļà¸
ç½ ª
ç½ ²
ķ à¹īà¸Ļ
äºĭ ä¸ļ
à¹ĩà¸ Ķà¸
Ġà¹ģà¸ ¡
à¥įà¤ ļ
ĠÐ´ ÐµÐ½ÑĮ
am y
ĠáĥĶáĥłáĥĹ áĥĲáĥĵ
à°°à±įà° ¸
Ùĥ Ùħ
t ur
ĠÏĦ ÏģÎ¿
ÑħÐ¾Ð´ Ð¸Ð¼
¯ à§
Ġ×ŀ× ¢
Ġìŀ ¥
Ġdi ff
Ùĥ ÙĪÙĨ
à°Ĥà° ľ
ĠÐº Ð²
ĠáĥĲáĥĽ áĥĳ
Î¼Î¿ Î½
uy Ãªn
à§įà¦¯ à¦®
ļà¸£à¸´à¸ ģà¸²à¸£à¸
å² ¸
à¹ģà¸£à¸ ĩà¸
«à¸ķà¸ ¸à¸
Ġà¤ ĵ
ÑİÑĤ ÑģÑı
Ġr Ã³w
Ġd ÉĻy
Ġáĥ¡áĥĲáĥ Ĵ
Ġà°ª à±Ī
ĠÙ¾ Ø±
Ġu Å¾
ÎŁÎ ¤
ĠÎĶÎ¹Î± Î²Î¬ÏĥÏĦÎµ
ĠÎ¼Îµ Î³Î±
Ġb isa
Ġk dy
ĠáĥĻ áĥĲáĥľ
Ġb ij
em y
íģ ¬
Ġà¦ªà§įà¦° à¦§à¦¾à¦¨
ĠÐĿ Ð¾
Ġqu el
Ġw o
ĠÐ¾ÑĢÐ³Ð°Ð½ Ð¸Ð·
Ġà®ķ à¯ģà®´
ÎĻÎ ¤
ÎĳÎ ľ
ĠÎĶ Î®
Î³ÏģÎ± Î¼Î¼Î±
Ġå¤§åıĳ ç§ĴéĢŁ
ªà¸ ļà¸
» áĢ
ç¿ »
åĽ½éĻħ å®ĺç½ĳ
ŀà¸´ à¹Ģà¸¨à¸
Ġ1 99
ä¸į ä¼ļ
Ġ ä¸ª
ªà¸ ³
Ġ= '
ĸà¸ ¹à¸ģ
à¹ĥà¸«à¸¡ à¹Īà¸
Ġà¤Ĩà¤ª à¤²à¥įà¤¯à¤¾
à¦¤ à§įà¦°
for ma
Ġà°² à°ķà±įà°·
ĠÏĦ Î¯
Ġt ÉĻm
Ġà¤® à¤¾à¤¹
áĥĵ áĥľáĥĶáĥľ
ĠØ¨Ø§ Ø´Ø¯
ÎĹ Î¤
ĠÏĢÏģÏĮ Ïĥ
ĠÐ¼ Ð°Ð³
ĠSe xo
Ġe mp
âĢĮ à°°
à±Ģ à°ľ
ĠÑĢÐ°Ð· Ð²
Î» Î®ÏĤ
×ĵ ×Ļ
à§ĭ à¦¸
Ġgi or
á» ı
à¶ º
àµ ĩ
Ġà¤ķà¤¿à¤¸ à¥Ģ
Ġpue de
Ġ à¹ĥà¸Ļ
à¸£à¸¹à¸ Ľ
å°ı è¯´
å½± éĻ¢
à¹Īà¸² à¸Ļ
Ķà¸ ±à¸ĩ
ç¼ º
æīĭæľº çĻ»éĻĨ
Ġà¹Ģà¸ ª
à¤°à¥įà¤ ľ
Ġet mÉĻk
Ġp Å¯j
à°¿à°Ĥà°ļ à°¿à°Ĥà°¦à°¿
ĠÐ±Ñĭ ÑĤÑĮ
Ġh od
ÏĨ Î¹
à®µ à®¿à®²à¯įà®²à¯Ī
Ġa kan
t Ä±
áĥĴ áĥĿáĥĽ
ì Ķ
ta to
à¦Ń à¦¾à¦¬à§ĩ
Ġc es
ĠÎºÎ¬Î½ ÎµÎ¹
Øµ ÙĦ
r ie
Ġë ¨
Ġäºļæ¸¸å®ĺç½ĳ çĻ»å½ķ
ä¸ Ŀ
åı ¬
åĪĨæİĴåĪĹ 3
ĠæĬ Ĭ
ľà¸ ¥
ä¹ İ
å¢ŀ åĬł
à¸£à¸ ĸ
Ġé» Ħ
ç² ī
à¤¡ à¥Ĥà¤¨
dz in
ĠÏĢÎ¿ Î»Î»
à±ĭ à°°
Ġà®® à®¿à®ķ
Ġáĥ¬ áĥĶáĥļáĥ¡
Ð½ ÐµÑĤ
ib le
í ĭ
æĿ¡ ä»¶
à¹Ģà¸£à¸µà¸ ¢à¸Ļà¸
à¥įà¤ ŀ
ĠkÃ¶n nen
ĠÐ±Ñĭ Ð»Ð¾
Ġv ÃŃ
ãĥ ī
Î¼ Î¼
à°ªà±įà°ª à°Ł
ÙĪ Øª
Ġn ap
Ġv iá»ĩc
i ent
es e
an da
ĠáĥĴ áĥĲáĥ£áĥ
m ie
Ġà¦ı à¦ĸà¦¨
Ġæ Ĥ
åı «
4 2
Ġä¸ ĵ
æł ĳ
¼ áĢ
Īà¸ ¸à¸
à¸µà¸¢ à¸Ļ
éĤĢè¯·çłģ _
Ġà¤ķà¥ĭ à¤£
ĠÏĮ ÏĢÎ¿Ïħ
ëł ¤
Ã¼r k
ĠÑĩÐµÐ»Ð¾Ð² ÐµÐº
áĥłáĥĴ áĥĲáĥľ
ÉĻd ÉĻr
ÅĤ em
à§Ģ à¦¤
cz enie
á ¼
Î¾ Ïį
àµ ĭ
Ġà¤ľ à¤¨
ad as
ĠØ§ÙĦ ÙĬ
à°¾à°¨ à±ĩ
Ġà®ħ à®³
ĠÐ· Ð´
l en
ĠáĥĽ áĥ¨
ĠØ§ Ø¬
à±Ĥà°° à±įà°¤
ĠÏĥÏĩ Î¿Î»
ĠM o
Ġà¤ª à¥Ĥ
ĠÐ²Ð¾Ð· Ð¼Ð¾Ð¶
ãĥ ¥
×¨ ×Ķ
ĠÏħÏĢÎ¬ÏģÏĩ ÎµÎ¹
Ġáĥ¨áĥĶáĥ¡ áĥĲáĥ«áĥļ
à±ģà°¤ à±ģà°Ĥà°¦à°¿
Ùĩ ÙĨÚ¯
Ġà¦¸ à§įà¦¥
g u
Ġw e
Î»Î· Î¼Î±
áº· c
Ġm ed
ĠÐķ ÑģÐ»Ð¸
ov Ã¡nÃŃ
ĠÙĩ Ø±
à®Łà¯įà®Ł à¯ģ
Ùĳ Ùİ
i x
ÏģÎ¹ Î¸
Ġí Ĭ
Ġà¤ħà¤ª à¤¨à¥Ģ
ĠÕ¸ ÖĤ
Ġet m
Ø§Ø± Ø§Øª
Ġdes de
Ġà®ı à®±à¯įà®ª
Ġd ire
Ġà¤µ à¥ĩà¤³
ĠÎĿ ÎŃ
à±įà°Ł à±į
Ñĥ Ð»Ñı
da h
Ġáĥ¨ áĥĿáĥłáĥĺáĥ¡
Ġqu al
ãĤ µ
u ll
Î´ Î¿ÏĤ
Ġas s
ĠÑģÐ» ÑĥÑĩ
Ġà®µà®¿à® ³
áĥĲáĥĽ áĥĺáĥ¡
æıĲ é«ĺ
Ġ à¸Ńà¸²à¸
ļ à¤¾à¤°
ÏĢÎ¿Î¯ Î·ÏĥÎ·
ÉĻn c
Ø¯ Ùħ
Ġno tre
Ġ×ŀ× ¡
Ġà¦Ĩ à¦¹
Î¼Î¿ Ïģ
Ġà¦¦ à¦¿à§Łà§ĩ
Ġpers onn
Ġnie t
ĠÐ±Ð¾Ð» ÐµÐµ
Î³Ïī Î³
Ġp ou
à°¨ à°Ĥ
Õ¡Õ ¬
lÉĻrin in
i ta
ĠáĥĽ áĥĶáĥĿ
Ġz osta
ëŀ ĺ
ĠÎ´ Î¹Î¿
Ġà¤° à¤ĸ
l os
Ġà¦° à¦¾à¦ĸ
Î¶ Î·
è§ Ī
çľĭ åĪ°
è® ¨
ç§ĳ åŃ¦
ä½ĵ éªĮ
ĠãĢĳ ,
Ĺà¸ ±à¹īà¸ĩ
¶ à¹Īà¸ĩà¹Ģà¸
Ġ2018 å¹´
à¹Ħà¸§ à¹īà¸
Ġèħ¾è®¯ åĪĨåĪĨå½©
à¤Ĥà¤¬ à¤Ī
Ġà¤Ĩ à¤²à¥ĩ
ĠÛ °
ĠØ¯ Ùĩ
ÏĢÎ¿Î¹ Î·
à°ķà±įà°ķ à±ģà°µ
as ta
b ar
ï ½
ãĥ Ĳ
Îķ Î¥
Î¯Îº Î·
áĥĶáĥĳáĥ£áĥļáĥĺ áĥĲ
ĠÑĢ ÐµÐ·
ĠÎļ ÎĳÎĻ
ÏģÏī ÏĢÎ±
Ġà®ħà®µ à®°à¯į
Ø³ Ø¨
Ġà¦¦ à¦²
åĲ ī
Ġæ ģ
è· Į
æİ¨ èįĲ
áŀ Ħáŀ
à¸Ļ à¸²
à¥ģà¤ ¢
ë¥ ´
Îº Î¿Ïħ
A V
à¥Ĥà¤ ¸
l ine
Ġpar ti
à§Ģ à¦¦à§ĩà¦°
ĠÏĢ Î¹
ti k
ĠáĥĽ áĥª
ĠÐ¿ÑĢ Ð¸Ð²
Ġm ÃŃ
g el
Ġpo l
Ġà®¨ à®¾à®Ł
g r
é² ľ
±à¸ģà¸ ©à¸
¡à¸µà¸ Ħà¸§à¸²à¸¡à¸
åħŃåĲĪ å½©
à¸Ńà¸° à¹Ħà¸£
Ġäºļæ¸¸éĽĨåĽ¢ ç½ĳç«Ļ
æ´ Ĺ
6 2
æ´ ĭ
Ġ à¸£à¸µà¸§à¸´à¸§
Ĺà¸³ à¹ĥà¸«à¹ī
Ġæ° ´
Ġà¤® à¤¾à¤¤à¥įà¤°
ĠÏĥÏĦÎ¿ Î¹
ĠktÃ³ r
Ð½Ð¸Ðº Ð¸
æ¯Ķ èµĽ
å°ı æĹ¶
ĠæŀģéĢŁ å¿«3
Ġ25 9
ĩ à¹Īà¸²à¸¢
ĠåĽ½ å®¶
æİ¨ è¿Ľ
å® ĩ
à¨ ª
å° ½
Ġà¸ ¡à¸²à¸
Ġà¤® à¤°
á»± c
ub b
Ø· ÙĦ
ĠFr ance
à¦¿à¦ Ĺ
ĠÐĴ Ñģ
Ġv os
Î¸ ÎµÎ¹Î±
áĥĶáĥłáĥ Ľ
Ġm ÉĻr
ÎŁÎ ł
ÏĦÎ¹ÎºÏĮ ÏĤ
om e
å· ¦
éĩĳ èŀį
ĠãĢĳ, ãĢĲ
éĽ ª
ç© ¿
¸ à¹Īà¸Ļà¸
à¥Ģà¤ļ à¥ĩ
ĠÑĦ Ð¾ÑĢÐ¼
lar e
U R
ĠC e
Ġ×ľ ×¢
Ġà°ĩ à°Ĥà°Ł
Ġolar ak
ĠÎŃÎ½Î± Î½
ĠÛ±Û³Û ¹Û
ĠØ¨ Ø¯
Ð¾Ð² Ð°ÑĤÑĮ
ch o
Õ ¬
ÄŁ a
ag gi
Ġpk 10
æıĲ åįĩ
à¤¿à¤ķ à¥įà¤·
Ġà®ª à¯ģà®¤
ĠáĥĲáĥ ĺ
à¦² à§įà¦ª
Ġg ra
ãģĤ ãĤĭ
Ġí ģ
à°¡à±įà°¡ à°¿
Ġ Ïī
à±ĭ à°¨
ĠAn da
ti ques
ĠÐ²Ñĭ Ñģ
Ġà¥¨ à¥¦
áĥĶáĥĳ áĥĽáĥĲ
h men
Ã² n
Ġà¤ħ à¤²
Ġà®ħà®µ à®°
Ġà°ĩ à°¦à°¿
Î³ÏģÎ¬ ÏĨ
Ġbil dir
ĠPor no
on es
ĠÏĩÏģÎ· ÏĥÎ¹Î¼Î¿
li j
j Å¡ÃŃ
Ð¾ÑĢ Ð¾ÑĪ
áĥĲáĥľ áĥĴ
Ġà¦Ń à¦¾à¦²
à¯ģà®ķ à®¿à®©à¯įà®±
ĠØ¬ Ùĩ
Ġì ¶Ķ
Ġà¤ħà¤¨ à¥ĩà¤ķ
ĠS ta
cj ÄĻ
Ñı Ð´
Ġ ans
Ġ×Ķ× §
Õ¥Õ ½
a ta
ÏģÎ¹ Î¬
à¦¿à¦ ĵ
ĠÐ¿ Ð¾ÑģÑĤ
Ġph áº£i
Ġoldu ÄŁ
Î¹Î½ Î®
Ġha cer
Ã© lÃ©
áĥĲáĥĽ áĥĶáĥľáĥ¢
Ġì Ĥ
ĠP rze
ĠáĥŀáĥĿáĥļ áĥĺáĥ¢
ĠÙĪ ÛĮ
k Ã¡
ĠáĥĲáĥ £áĥ
ĠÐ· Ð°Ð´
ĠÏĥÏħÎ¼ Î¼Îµ
is z
ìļ ¸
ÙĦ Ùģ
Ġà®® à®ķ
Ġa Ã±os
ĠÏĢÏģÎ¿Ïĥ Ïī
Ð¾Ð² Ð°
ĠáĥĲáĥ Ļ
ĠÐ¿ÑĢÐ¾ ÑĨ
is er
Ġà®ĩ à®²
à¸Ńà¸° à¹Ħà¸£à¸
Ġà¤ī à¤¤
Î»ÎŃ Î¿Î½
eit er
p ad
ãĥ ģ
ë¬ ´
ĠÐº Ð°ÑĩÐµÑģÑĤÐ²
áĥĶáĥ £áĥļáĥĺ
Ġà°Ńà°¾à°° à°¤
Ġj us
Ġà®ī à®¯
Î´ Ïī
à¦¿à¦¨ à§įà¦¨
Î±Î½ Î¬
ĠÑĢ Ðµ
ĠM ad
Ġre c
Ġà°ªà±įà°° à°¯
ĠS o
Ġà¤ľ à¤¾à¤ı
ĠÎ¤ Î¿Ïħ
Ġth Ãłnh
ĠÐ¿ÑĢÐµÐ´ ÑģÑĤÐ°Ð²
áĥ£áĥł áĥĺáĥ¡
Ġê² Į
Ġ @
è®° å½ķ
èį £
åħ³ äºİ
Ġè¯ ´
åĶ ¯
Ġà¸ ļà¸
é¦Ļ æ¸¯
pk æĭ¾
å¹² éĥ¨
Ġć ć
à¤° à¥ĩ
ÅĦ st
ut z
ĠgÃ¶ z
Ġo ver
ÙĪ ÙĬ
Ġçİ ©
ä¸Ģ æ¬¡
ļà¸£à¸´à¸ ģà¸²à¸£
«à¸¡à¸²à¸ ¢à¸
Ġ266 96
Ġ6 5
Ġå¤§åıĳä¸Ģ åĪĨéĴŁå¿«ä¸ī
ç»ĵ æŀĦ
B ET
Ĺ à¹Ī
ĠèĢĮ ä¸Ķ
5 åĪĨå½©
Ġà¤®à¥įà¤¹à¤£ à¤ľ
ÛĮ Ùĩ
Ġ×ĳ ×ª
Î¸ ÏħÎ½
à®Ļà¯įà®ķà®³ à¯Ī
Ġcu i
ë¹Ħ ìĬ¤
z n
ĠG ratis
d or
Ïĥ Î®
ĠÐ¾ ÑģÑĤ
Ġà¦¸ à§ģ
Ġaut res
tif adÉĻ
ãģ Ŀ
ĠØ§ ÙĨØ¯
ëł Ī
áĥĲáĥł áĥĶáĥĿáĥĳ
æĹ¥ æĬ¥
åħ¨ éĿ¢
è ¸
å¦ ĩ
è®¡ ç®Ĺ
æĪĲ äºº
æĽ ²
¸ à¹Īà¸¡
ªà¸³à¸« à¸£à¸±à¸ļ
è° ģ
Ġà¸ Ĥà¸
à¹īà¸ ³
Ĺà¸µà¸ ¡à¸
Ġà¸ Ĥà¸Ńà¸ĩà¸
Ġæ ¹
èĮ ¶
æįķ é±¼
ŀà¸±à¸ Ĵ
à¥Ĥà¤ ķ
ĠV or
ĠÎµ ÏĦÎ±Î¹
Ġde ÄŁ
Ġà¦Ĩà¦® à¦°à¦¾
ĠØ§ Ø¯
ĠJ ak
Ġà®®à¯ĩ à®²
t Ã³w
Ġm ad
à±Ī à°¤
ent os
Ø§ÙĨ ÙĬ
à¦¾à¦¥ à§ĩ
ĠÎ½ ÏĮ
à±įà° ľ
ħ n
« à¸£
ç ¹
æ± ¡
Ġà¸Ľ à¸µ
i os
¶à¸ ĩ
à¹ĥà¸Ĭ à¹Ī
ä»» ä½ķ
çı ¾
Ġä»ĸ ä»¬
1 68
łà¸±à¸ ĵà¸ĳ
Ġè Ĳ
à¹Ģà¸¥ à¹Īà¸Ļ
çīĪ æľ¬
å¾· å·ŀæīĳåħĭ
à¤Ĥà¤ ª
ĠUn ter
ĠÐ¼ Ð½
Ġ×Ķ ×ķ×Ĳ
áĥĲáĥł áĥĶáĥĳáĥĺáĥ¡
ÙĪ Ø´
Ã³ r
an ya
ĠíĨ µ
ĠE t
ĠÃ© v
ĠÎ§ Î±
Ġsu l
ĠáĥĻ áĥļ
Î½ ÎµÎ¹
± c
ĠÙħ Ø±Ø¯
Ġs te
ĠÙĩ Ø°Ùĩ
Ïĥ Î¹Î¬
ĠÑģ Ð¸ÑģÑĤÐµÐ¼
ĠT elugu
à°¾à°° à±į
Ġin san
skie go
as h
Ĺà¹Īà¸² à¸Ļà¸
ªà¸´à¸ Ĺà¸ĺ
çĶµ è¯Ŀ
èģĶ ç³»
æ± ł
à¤¿à¤ ¹
ĠR Ã©
Ġà® Ĳ
nÃ© es
áĥĲáĥ£áĥ ł
Ġtam biÃ©n
Î» ÏİÎ½
à°¨à±įà°¨ à°¿
Ð¼ ÐµÐ½ÑĤ
Ø® Øµ
Ã³ Å¼
nÃŃ ho
çĶ ²
ļà¸£à¸´à¸ ©à¸±à¸
Ġà¤¤à¥įà¤¯à¤¾à¤ ®à¥ģà¤³à¥ĩ
Ġë ķĮ
Ð°Ð¶ Ðµ
ĠÎ² Î±Ïĥ
ĠæĢ »
à¹ ĭà¸
Ġç ¡
Ġ5 55
å½ Ĵ
Ġç ĭ
Ġ9 7
ªà¸ĸ à¸²à¸Ļà¸
à¥ĩà¤ ¬
Ġs emp
à§Ł à§ĩà¦°
b t
Ġt arix
ĠC o
ig n
ĠáĥĿ áĥłáĥĴáĥĲáĥľ
Ġp a
ĠÑģÑĤ Ð¾
à¦¾à¦¨ à¦¾
ãģĦ ãģŁ
ĠÎ¿ÏĢÎ¿ Î¯
Ġà®¤ à®°
ï »
à¹Īà¸ °
·à¹Ī à¸Ńà¸Ļà¸
ª à¸µ
éĿł è°±
Ġç ¼
à¹Ģà¸Ķ à¸´à¸Ļà¸
ļ à¸£
à¤ ±
Ġà´ ķ
ç²¾ åĵģ
Ġà¤¸à¤ķ à¤¤à¥ĩ
ÙĪØ± Øª
à¦¿à¦ ĸ
à±Ĭ à°ķà±įà°ķ
Ġpas s
ĠÐ¿ÑĢÐ¾Ð¸Ð· Ð²Ð¾Ð´
Ġq o
ĠÏĩÎ± ÏģÎ±Îº
Ġ×Ķ× ¡
áĥĲáĥ« áĥĶ
Ġáĥĺáĥľáĥ¤ áĥĿáĥłáĥĽ
Ð¼ Ñĭ
l ou
ĠÎļ Î¿
Ġæķ °
Ġà¤® à¤¾à¤Ĺ
ĠÐ· Ð°Ð¼
Ġb ul
Ġà¦¤ à¦¬à§ĩ
à®® à¯įà®®
Ġpro duk
ĠØ¥ ÙĨ
ĠÑģÐ» ÐµÐ´
ĠáĥĽ áĥĲáĥłáĥ¢
áº± ng
elij k
à®® à¯ģà®®à¯į
ÏĦÎ· Î³Î¿
ĠR o
ÙĦ Ùĩ
èĩª åĬ¨
Ġà¤® à¤¾à¤¨
Ġà®ļ à¯ĩà®°
Ðº Ð°Ð·
´ Ī
ĠáĥĽ áĥľáĥĺáĥ¨áĥķáĥľáĥĶáĥļ
in es
ãĥ ĭ
Ð¾Ð± ÑħÐ¾Ð´Ð¸Ð¼
ĠÎµÏģÎ³ Î±Ïĥ
Ġby Äĩ
ĠÄ° n
etz t
ĠÎ´ ÎµÎ¯
éĺ ¶
åħ¬ å¼ı
çģ µ
åħ¨ éĥ¨
8 5
ĠåĽł æŃ¤
Ġà¤¤ à¤°à¥Ģ
is ti
Ùģ Ø±
à¦¾à¦ ¡
Ð» Ð°Ð¹Ð½
à®µ à®°
Ġáĥª áĥ®áĥĿáĥķáĥł
ĠÐ¾ Ð½Ð¸
ĠÎ± Î³Î¿
Ġt ÉĻl
Ġë Ħ
der n
ĠáĥĶ áĥł
v y
ĠÎł Î¿
Ġte Å¼
Ġh e
Î´ Î¿Ïħ
à¤ķ à¥įà¤¤
×ķ× ĺ
áĥ£áĥłáĥ Ĺ
Ġpar te
Ġd om
à¯įà®¨à¯įà®¤ à¯ģ
Ġ Ïį
æĹł çłģ
à¥ĭà¤Ĥà¤ ¨à¥ĩ
Ġp on
áĥĺáĥĻ áĥĺáĥ¡
Ġp ada
ÑģÐº Ð¸Ñħ
ÙĪ Ùĩ
ĠÎłÎµ ÏģÎ¹
Ġ201 4
ÏĦÎ® ÏĥÎµÎ¹ÏĤ
ë Ķ
¨à¸ ±à¸
äºĴèģĶ ç½ĳ
Ġè¯ Ħ
Ġ' >
Ľà¸ ģà¸
Ġ à¹ĥà¸«à¹īà¸
åĪ¶ åº¦
Ĥ à¹īà¸Ńà¸
ä¸Ĭ æµ·
è± ¹
æ´ ¥
èİ· å¾Ĺ
Ġçİ¯äºļag å¹³åı°
Ġç§Ĵ ç§Ĵ
Ġçİ¯äºļ app
ç¬ ¦
åĬ ³
ä¸Ģ ä¸ĭ
à¹Ĥà¸ ķ
Ġæ±Łèĭı å¿«3
éĻ Ī
Ġ( )
Ġåı ¦
Ġ _
à¨ ¼
Ġà¤¶ à¥ĩà¤¤
à¹ģà¸« à¹Īà¸ĩà¸
¸à¸ Ľà¸
ä¹ĭ éĹ´
Ġç ©
å½© éĩĳ
à¥ĩà¤² à¥įà¤¯à¤¾
Ġà®ļ à®¨à¯įà®¤
à±ģà° £
Ġy az
ÎµÎ¯ Î¿Ïħ
Ġà¤¹à¥ĭ à¤¨à¥ĩ
un e
ĠÏĥÏħÎ½ ÎµÏĩ
Ġà¦ªà¦° à§įà¦¯
áĥĲáĥ¡ áĥ¢
à±Ģ à°Ł
ãģ °
ĠØ¯Ø§ÙĨ Ø´
ĠÎ´ Î®
Ġà¹Ģà¸ŀà¸ ·à¹Īà¸Ńà¸
Ĉ ï¼Į
áŀ ¾
Ġ äººæ°ĳ
Ġé ħ
ĠagåĽ½éĻħäºļæ¸¸ çĻ»å½ķ
æŃ£ åľ¨
Ħ à¹Īà¸²
Ġà¸ Īà¸²à¸ģ
æĽ °
à¹Ĥà¸ Ľà¸£
à¸Ńà¸¢à¹Īà¸²à¸ ĩà¹Ģà¸
Ħà¸£à¸ ·à¹Īà¸Ńà¸ĩ
Ġà¨ ļ
à¹īà¸ ¡
ãĢ į
à¥ĩà¤ ª
ÃŃ cul
ÅĽ my
à¯Īà® ®
í Ĥ
Ø¬ Ùħ
ay on
s ÉĻ
ÑĤ ÑĢ
Ġáĥ§áĥĿáĥķ áĥĶáĥļ
Ġw ym
Ġen f
Ġth Ã¬
Ġà°ª à°¾à°²
il d
à¹ģà¸ ŀà¸
Ġè®° èĢħ
ä¼ ĳ
Ġà¸ Īà¸²à¸ģà¸
Ġà¨¦ à©Ģ
· à¸Ļà¸
y y
çĽ Ī
è´ ·
Ġè¿Ļ æĺ¯
Ġà¤¤à¥įà¤¯à¤¾à¤Ĥà¤ ¨à¥Ģ
à®Ł à¯įà®ļ
Ïħ ÏĥÎ·
j em
t ir
áĥĲáĥľ áĥĺáĥĲ
ÑĤ Ðµ
Ġà¤¸à¤° à¤ķà¤¾à¤°
à®µ à®°à¯įà®ķà®³
ip o
s ten
Ġv is
ĠÎµÎ¹ Î´
Ġhá»į c
Ġà¦® à¦¾à¦°
à°¸ à±įâĢĮ
à°¾à° ¸à±įà°¤
Ĺ à¥ĩ
Ø§Ø± ÙĬ
ĠáĥĲáĥ¦ áĥĽ
Î¼Îµ Î½Î±
ĠçĽ ´
çİ° åľ¨
īà¸ ±à¸Ļ
ĠåĨ ħ
Ġà¸ ĭ
Ġè¯ ·
à¥įà¤ £
ĠÚ©Ø´ ÙĪØ±
ĠÆı liy
ĠB ir
Ġos ob
ÎºÎµ ÎºÏģÎ¹
Ġ×Ķ× Ľ
Ð¸Ð½ Ðµ
l us
0 4
ä¿¡ èªī
® à¤§à¥įà¤¯à¥ĩ
ë¡ Ŀ
à§Ģ à¦Ĺ
Ġà¦ľ à¦¾à¦¤
k lad
à®µ à®°à¯į
à°¾à°¬ à±ģ
à°¿à°¨ à°¾
ÏĦ ÏģÎŃ
ain t
ale ment
Ġo ok
Ġáĥ¨áĥĶáĥ ®
à±Ģ à°¤
ty cz
ÐµÑģ Ð¿
ÙĬØ± Ø©
Ġà¤µà¤¾à¤² à¥ĩ
Ġà¦¤ à¦¾
ĠáĥĲáĥĵáĥĴ áĥĺáĥļ
Õ¶Õ¥ÖĢ Õ«
Õ¸ÖĤÕ©Õµ Õ¡Õ¶
ĠÉĻs as
ĠH er
Ġà®® à®¾à®¤
ĠÏĥÎ· Î¼Î±Î½
ãĤĪ ãģĨ
Ġv ÄĽ
Ġà°Ĺà±įà°° à°¾à°®
O R
Ġm as
om o
Ð¾Ð² Ð¾Ð¹
Ġà°ī à°ª
t ros
Ð¿ÑĢ ÐµÐ´
re is
ĠÎ´Î¹ Îµ
Ġn uov
ia ÅĤa
Ġà®ħ à®ªà¯įà®ª
Ùģ Ø§Ø¯Ùĩ
à¯ģà® Ļà¯įà®ķ
Ãº c
ĠW ir
Ġà¦ķà¦¾à¦° à¦£
ÐµÐ½ Ð½ÑĭÑħ
en e
ÏĦÎµ ÏģÎ±
ÉĻ dÉĻn
Ġìĸ ´ë
áĥĵ áĥĶ
à®¨à¯įà®¤ à¯ģ
ou le
Ġ×ĳ ×Ķ
Ġw iel
Ġg io
ĠÐ¸Ð¼ Ðµ
Ø§Ø¯ Ø©
Ĥà¸Ńà¸ĩ à¹Ģà¸
Ġ è½¬
Ġéĺ ħè¯»
çļĦ å¤§
à¹Ħà¸¡à¹Ī à¹Ħà¸Ķà¹īà¸
çļĦ æĹ¶åĢĻ
ç©º éĹ´
à¥Ģà¤ļ à¤¾
Ġáĥ§áĥķáĥĶáĥļ áĥĲáĥĸáĥĶ
Ġj en
Î³ Î¿Î½
Ġtemp s
at ie
a zione
Ġz w
Ġp el
à®ļ à¯į
Ã Ĳ
Æ¡ i
à°¾à°Ĥà° ¡
Î¹Ïĥ Îµ
Ú¯ Ø§ÙĨ
åĽ½ äº§
à¤° à¤¾
Ġf on
à¦¨à§įà¦ ¨
Ġt ÄĽ
Ð¸Ñı ÑĤ
Ġy ox
ad or
ĠÎº ÏģÎ±
æµĭ è¯ķ
åį ±
à¨ Ĺ
ĠéĻ ¤
éĴ Ī
Ġäºļæ¸¸å®ĺç½ĳ ç½ĳç«Ļ
ĠAGçİ¯äºļ å®ĺç½ĳ
à¹ĥà¸Ļà¸ ģà¸²à¸£
à¤¾à¤¤ à¥Ĥà¤¨
Ġë ©
ĠÑĥ Ð²
Ġ$ (
Ġáĥŀáĥł áĥĿáĥª
g ie
Ġà¦¹ à¦¿à¦¸
ÏģÎ¹ Î¿ÏĤ
Ġd os
ĠÎłÎ± ÏģÎ±
à¯Īà®ķà¯įà®ķ à¯ģ
æ¶Ī æģ¯
ç» ¿
è ķ
åĩº äºĨ
æĿ Ł
Ġà¤ª à¥ģ
ĠÏĨ Î±
ich e
à¤°à¥įà¤ Ł
Ø· Ø©
æ° Ĺ
×ķ ×Ļ
áĥľ áĥĺ
ĠÑĩ ÐµÐ¼
ĠÃ¼z rÉĻ
ĠmoÅ¼ na
Ġs ite
ĠØ¢Ùħ ÙĪØ²
Ġà®ī à®±
ë ¯¼
áĥĽ áĥĺ
Ġtien e
Ġhaq q
ig ne
ag i
Ïĥ Ïį
Ġåĩ¯åıĳ ä½ĵèĤ²
ä¼ł ç»Ł
Ġà¤Ŀà¤¾à¤² à¥Ģ
hr en
ĠØ¨Ø§ Ø²ÛĮ
ĠÎº Îµ
à±Ĩ à°Łà±įà°Ł
ta li
Îµ Î²
æĴŃ æĶ¾
Ġà¤¬ à¥Ģ
il a
ĠÎ¾ ÎµÎº
Ð Ĺ
ĠÑģ Ð´ÐµÐ»
ë§ ¤
à°ª à°¡
c Ä±
áĥĲáĥľ áĥĲ
Ġl i
ĠØ¨ ÙĬÙĨ
ĠëĤ ¨
ä¼ ´
Ġå® ĺ
® áĢ
oo k
ä¸į æĸŃ
à¹Ĥà¸ Ķ
à¤µ à¤£
à§ģà¦ §
Ð¾Ñģ Ð¾Ð±
ãĥ¼ ãĤ¹
Ø±Ú© Øª
à¯Ĥ à®°
Ġà¤¸à¤® à¤¯
ĠáĥĴáĥĲáĥľ áĥĽ
Ġch a
Î¹ ÏİÎ½
Ġ×© ×Ĳ
Ġv ie
Ġdo or
Ġcz ÄĻ
ĠÎº Ïį
c el
Ġà¦¸ à§ĩà¦ĩ
áĥĲáĥ¡ áĥĹáĥĲáĥľ
Ġn ost
und o
Ġqu y
Ġà®İà®© à¯į
Ġà°ķ à°°
Ġà®ħ à®²à¯įà®²
Ġq ÉĻdÉĻr
Ġch i
à±Ģà° İ
à°ļà±įà°ļ à±ģ
¥à¸ ¢
à¸Ńà¸ ±à¸Ļà¸
æĬ ĵ
Ġå ĸ
è¾ħ åĬ©
¡à¸²à¸ģà¸ ¡à¸²à¸
åĵ Ī
à¹īà¸²à¸ ĩà¸
201 7
Ĭà¸ ¡à¸
Ġè¶ ħ
æĳ Ħ
à¹ĥà¸«à¸į à¹Īà¸
è¾ ĳ
Ġï ½
æĪĲ åĬŁ
æľī ä¸Ģ
ŀà¸ ¢à¸²à¸
Ġà¨¨ à©Ĥà©°
Ġæ² ³
à¤¾à¤° à¥ĩ
Ġil s
ĠÐĲ Ð½
Ġëį Ķ
ĠØ§Ø³Øª ÙģØ§Ø¯Ùĩ
ĠÎ±Î½ Î¸ÏģÏİ
Ðº ÑĢÐ°
áĥ¦ áĥķ
Ñĥ Ð³
Ã¸ r
Ø§ÙĦ Ùħ
Ġà¦¶ à§ģà¦°à§ģ
Ġmej or
Ġle g
ÏģÎ¿ Î¹
Ġ×Ĳ ×ķ
ÐµÑĤ Ñĭ
ĠÅ ł
ãģ¨ãģĦ ãģĨ
t Ä±r
Ġm Å¯
Ġáĥ¡ áĥĻ
ÏĦ Î¯Î±
ĠW o
Ġc er
à¦¿à¦ ı
Ð°Ð½ Ñģ
cz ÄĻ
ĠáĥĽáĥĿáĥ ¥
Î» Ïį
Ġà¤¬à¤¹ à¥ģà¤¤
à¦ŀ à§įà¦ľ
im iz
ĠJ ahr
ĠÐ¸ Ð³
ĠØ Ł
áº¡ o
Ġà¦¤à¦¾à¦° à¦¾
áĥĺáĥ ¬
ĠÕ¸ ÖĢ
ĠR es
owa dz
ĠØ¯Ø§Ø± Ø¯
Ġë° ľ
à°¿à° §
ĠÐ¿Ð¾Ñģ Ð»Ðµ
Î¼ÎŃÎ½ ÎµÏĤ
liy i
ĠC as
ĠØ§ÙĦ Ø§
Ġst r
en a
è§ ¦
ä¼ Ĭ
à¥ģà¤ ·
Ġpro pos
áĥĶáĥł áĥĲ
Ġà¥ ©
ãģ« ãģª
di k
ĠÐ± ÑĢ
Î¿Ïį ÏĤ
Ġp are
dz y
Ø¹ Ùħ
ĠV o
åĪ© çĶ¨
à¹Ģà¸ģà¸ µà¹Īà¸¢à¸§à¸
¢à¸ ĩ
ķà¸ ģ
Ġåİ »
è´Ł è´£
æĿĲ æĸĻ
ķ à¹īà¸Ļà¸
ĠçľŁ äºº
Ġå §
çĶ °
Ġ ä½ľ
0 2
éĸ ĵ
Ġç ¤
Ġç Ĳ
Ġà¸ ļà¸²à¸Ĺ
Ġà¤ľ à¤¾à¤£
Ġà°ª à°Łà±įà°Ł
áĥĿáĥļ áĥĿáĥĴ
A L
Ġf ue
Ġpri x
t ura
ĠáĥĵáĥĲáĥ ĳ
Ġà¤¸ à¥įà¤Ł
Î© Î£
ĠÎ±ÎºÏĮ Î¼Î±
Ġà¦ķ à§ĩà¦¨
an Ã§
ÑĢÑĥ Ð·
à®² à®¿à®²à¯į
à°¿à°Ĥà° ª
Ð¾Ð½ Ð¾Ð¼
ĠÎµ Î¼ÏĢ
Ġtra va
Ġz o
ĠØ§ÙĦØ° ÙĬ
Ġdo b
á»ĭ ch
Ġ item
N o
íĨ µ
ĠO n
à¦¾à¦ ī
ĠáĥĲáĥłáĥ ª
Ïģ Î¯Î±ÏĤ
áĥĿáĥ¤ áĥļ
ÑģÑĤ ÑĢÑĥ
ĠD i
p is
ĠÎ±ÏĢÎ¿ ÏĨ
Ġà®¤ à¯ĭ
à°¾à°¨ à±į
ĠÐ¿ Ð¾Ð¿
Ġ×Ķ× Ĵ
ĠØ¨ Ø®
ĠÃ§ ok
ĠM ais
Ġan ni
Î¶ Îµ
à¥ĭà¤¡ à¤¼
à§ĩà¦² à§ĩ
ĠktÃ³ ry
Ġb ax
ĠÃ©ta it
f ica
ÏĨ ÏīÎ½
ĠpÅĻ e
à®¿à®¯ à¯ĩ
Ð°ÑĢ Ð¸
Ġë° ı
Ġáĥ Ł
Ġà¦ı à¦²
ĠØ¨ Ø¹Ø¯
ÏģÎ± ÏĢÎµ
Î¼ ÏĢÎ¿
Ġà¤Ŀà¤¾à¤² à¥ĩ
Ġà¤²à¥ĭà¤Ĺ à¥ĭà¤Ĥ
Ġáĥ©áĥĶáĥĽ áĥĺ
p u
áĥĶáĥł áĥĶáĥ¡
Ð· ÑĭÐ²
ĠÑĤ ÐµÑĢ
Ġà¦® à§ģ
l and
áĥł áĥĿáĥĳ
Ġà°¹ à±Ī
à¦ķ à§ĩà¦°
ÏģÎ¿ ÏĨÎ¿
Ġà®ª à¯ĩà®ļ
ĠÑĤ Ð¾Ð¼
ð Ł
Ġap ar
ì° ¨
Ġà°¦ à±įà°µ
v r
Ø±ÙĪ Ø´
æİ Ī
à¤¡ à¤£
áĥĲáĥ¢ áĥĺ
Ġj u
Î¼Î¿Ïį ÏĤ
áĥł áĥĲáĥ¤
Ú¯ ÛĮØ±
Ġà¦ª à§ģà¦²
à®¿à®¯ à®¿à®©à¯į
Ñı Ð±
é¡ ¾
ç ¦ģ
Ġç Ŀ
«à¸±à¸ §
æĢİ æł·
åĩ Ģ
ä¸Ń å¥ĸ
Ġà¹Ģà¸ Ķ
éģ Ń
Ġé Ķ
à¹Īà¸²à¸ §
àª ¿
é£İ éĻ©
à¥ĩà¤ ·
I E
m u
Ġc el
Ġà¦¸ à¦¾à¦¥à§ĩ
Ð°Ð½ Ð°
Ġm u
ĠÏħ ÏĢÎ·ÏģÎµ
ĠB er
ÙĤ Øª
Ġde gli
×ŀ ×¨
áĥĺáĥľ áĥĴ
un a
Ġï¿½ï¿½ï¿½ï¿½ ï¿½ï¿½ï¿½ï¿½
Îº ÏİÎ½
íķ Ń
Ġà¹Ģà¸ Ľ
ç»Ł æĪĺ
Ġäºļæ¸¸å®ĺæĸ¹ ç½ĳ
Ľà¸ ±à¸
Ġ1 11
± à¹Īà¸Ļ
èĮĥ åĽ´
Ġà¤ħà¤¸ à¥Ĥà¤¨
co re
ĠÐ¿ÑĢ Ð¾ÑĤ
Ġåħ³ äºİ
à¥Ģ à¤¸
ãģĤ ãĤĬ
g lich
Ġà¤¤à¤° à¤¹
ĠÏĥÏĦÎ¹ Î³
Ġà®ķ à®¿à®Ł
Ġi k
£ p
Ġh ay
ĠV ous
as t
Ġà°¤ à±ĭ
Ġê± °
ĠåĪ ĺ
èı ²
éĿ Ļ
g g
è¯ į
Ħà¸£à¸ ĩà¸
æļ ´
4 1
ä¼ Ļ
æ¡ ¥
åŁ¹ è®Ń
ŀ à¸£à¸°à¸
Ġà¤ķà¤¿à¤Ĥà¤ µà¤¾
Ġà®Ĩ à®°
ĠÎºÎ¬ ÏĦÎ¹
ĠáĥĵáĥĲáĥ £áĥ
Ġgr and
ĠÏĨ ÏħÏĥ
ien ia
Ġà°¤ à°ªà±įà°ª
ĠÐ½Ðµ Ð¾Ð±ÑħÐ¾Ð´Ð¸Ð¼
Ġáĥ© áĥĲáĥĽ
Ġk un
ĠØ ¶
à°ª à±ģ
Ġà¦¹à¦ļ à§įà¦Ľà§ĩ
ĠÏĢ Î¹Ïĥ
Ġes pe
Ġc li
à¯Ĭ à®°
Ġâ Ħ
il li
à¤® à¥ĩà¤Ĥ
ÐºÐ°Ñĩ Ð°ÑĤÑĮ
Ð¾Ð¶ Ð´
nie Å¼
Îº Î®ÏĤ
Ġà¦¸ à¦ķ
Ġc rÃ©
Ġa tt
ĠÕ¥ Õ¶
d ar
áĥĶáĥľ áĥĺ
ĠÐµ ÑīÐµ
Î´ ÎµÏħ
ì² Ń
ÎŃ ÏģÎ³
Ġà¦¨ à§ĩà¦¤
ĠI ch
Ð» Ð¾Ð¶
Ġv Å¡e
à±ĩà° ¸à±įà°¤
ilm iÅŁ
Ġâ ľ
ĠìĽ Ĳ
Ġ×ľ ×©
Ġw enn
áĥĿ áĥĲ
ÏĪ ÎµÎ¹
à¦¾à¦° à§įà¦¥
in t
ĠØ§ÙĦÙħ ÙĨ
Ġo fer
Ø´ Ú©
Ļ à¯įà®ķà®³à¯į
ĠÐłÐ¾ÑģÑģ Ð¸Ð¸
Ð² ÐµÑģÑĤ
à´¿à´ ²
à¤ļà¥įà¤ Ľ
Ã± a
Ã¢ m
Ġà°ļà±ĩà°¶ à°¾à°°à±ģ
ÏģÏīÏĢÎ± ÏĬ
Ġà¦¬ à¦¿à¦°
v is
er w
Å¾ it
ĠÎµÏĢÎ¹ ÏĩÎµÎ¹
Ġáĥ©áĥķáĥĶáĥľ áĥĺ
Ġà°µà°¿à° ¶
ÐµÐ½ Ð¸
ĠÎ£ Î±
áĥĺáĥļáĥĺ áĥĲ
Ġon un
ĠÃ© qu
Ġda lla
à¯ĩ à®¯
ĠÎķ Î½
à¦¥ à¦®
ĠØ® Ø±
k s
in di
à¶ »
à¤Ĥà¤¤ à¥įà¤°à¥Ģ
ê· ¸
ÏĬ ÏĮÎ½
Ġà°ª à°¨
p or
ÙĬ Ø²
à´ ®
Ġà¤® à¥Į
ĠÎ¹ ÏĥÏĩ
ĠÐĶ Ð»Ñı
Ø§Ø³ ÛĮ
iá»ģ n
áĥĲáĥ¡ áĥ£áĥ®
à¯Īà®¯ à®¾à®ķ
Ġs Ã©
Ġ ur
ì§Ģ ë§Į
Ġáĥ¨ áĥĶáĥķ
ÎĻ ÎĳÎ£
ĠÏĥ ÎºÎ¿
ĠÐ° Ðº
ĠT Ã¼rk
×ĳ ×¢
Ð°Ð» Ð¾
p on
Ġà¤® à¥ģà¤
Ġáĥ£áĥĻ áĥķáĥĶ
à°¦ à±ģ
áŀ ı
à¸£à¸§à¸ Īà¸
0 3
à¥ĩà¤Ĥà¤¦ à¥įà¤°
Ã¼ y
ÙģØª Ùĩ
à¦¨à§įà¦¤à§įà¦° à§Ģ
und en
ĠÎľ Î·
á¿ ¶
ĠÏĢÎ±Î¹ Î´Î¹Î¬
ent ro
à¦¾à¦ Ń
áĥĶáĥĳáĥĺáĥ¡ áĥĲ
ĠÄĳ i
k Äħ
Ġu u
ĠåĽ ŀ
Ħà¸£à¸ ±à¹īà¸ĩà¸
Ġè¿Ļ ä¸ª
æľī åħ³
Ġèģ Ķ
Īà¸°à¹Ģà¸ Ľà¹ĩà¸Ļà¸
Ġà¤¦ à¤¿à¤µà¤¸
ÙĨ Ø©
in y
r Ã¨s
ĠÐ¿Ð¾ Ñĩ
ÏĥÏĦÎ· ÎºÎµ
Ġà¤¹à¥ģà¤ Ĩ
à°Ĥà° ¡à±ģ
Ġáĥ¡ áĥ£áĥļ
Ġà¤Ĩà¤ª à¤£
ĠL as
Ġáĥ¨ áĥĶáĥĴ
à® ľ
Ġh eb
ĠÑĤ Ð¾Ð³Ð¾
ĠØ§ ÙĪ
Ġa ta
Ġà¦¸ à¦Ń
Ġw as
Ġd Ã¼n
ãĥ¼ãĥ «
ĠÏĥ ÏĦÏĮ
Ġà°¸ à°¾à°§
Ġà¦ªà§įà¦° à¦¶
áĥ¡ áĥĲáĥª
ĠÏĦÏĮ ÏĥÎ¿
éĽ ·
é» ŀ
èĪ ŀ
ä½į ç½®
çĶµ è§Ĩ
ĠagåĽ½éĻħåİħ ä¸ĭè½½
j s
Ġà¤ª à¥ģà¤°
×ĵ ×¨
Ø£ ÙĨ
p uis
à®Ļà¯įà®ķà®³ à®¿à®²à¯į
dzie j
al a
ĠÎķ Î»Î»Î·Î½
Ġà¦¸ à¦¦
ÏĦ Î¿ÏħÏĤ
ìĹ Ī
Ġd Ã¶vlÉĻt
ĠÐ¸ ÑģÑĤ
Ġà§§à§ ¦
ª áĥ®
Ġtut ti
Ġà¤ĩà¤¸ à¤ķà¥ĩ
m al
ĠÏĥÏĦ ÏģÎ±
² áĢ
Ġè ı
Ġà¤µà¤¿à¤ ļà¤¾à¤°
à¦² à¦¾
ov a
Ġto dos
ĠU ne
Ã´ n
dz iaÅĤ
Ġà¦ªà§ģà¦² à¦¿à¦¶
Ġáĥ« áĥĲáĥļ
Ġsu o
Ø§Ø «
ĠÐŁ ÐµÑĢ
Ġkter Ã½
Î»Î¿Î³ Î¯Î±
ĠA v
Ġsi g
Ġà¤Ĺ à¤ı
Ġà§ §
Ġà¤¸à¤Ĥà¤ ª
Ġà°ħ à°¡
Ġà®ªà®¾à®° à¯įà®¤à¯įà®¤
ĠÎŃÎ½Î± ÏĤ
Ñĥ Ð²
f en
Ġà¦Ĩ à¦Ľà§ĩ
ãģķ ãĤĮ
Ġà®ĩ à®±
ĠáĥĻáĥĺáĥĵ áĥĶáĥķ
ĠØª Øµ
×ŀ× ª
ĠâĦ ĸ
Ġk aÅ¼
Ġà°ķà°¾à°° à±įà°¯
ÐµÐ½ Ð½ÑĭÐµ
ĠáĥĲáĥ ĸ
ĠÏĥ ÏįÎ½
asÄ±n a
ĠT o
à±Ģà° Ĩ
Ġà°® à°Ĥà°ļ
Ð¾Ñģ ÑĥÐ´
Ġà¦¬ à¦¾à§ľ
ri d
ç¶ ²
é« Ķ
äº Ī
Ġà¤®à¥ģ à¤Ĥà¤¬à¤Ī
æĮ ¥
ľà¸¥à¸´à¸ ķà¸
Ġæł ¹
½ çĦ¶
çľŁ å®ŀ
æĮģ ç»Ń
8 6
Ġà¤ł à¥ĩà¤µ
Ġcu ando
Ġáĥĺáĥ¥ áĥľáĥĶáĥĳáĥĲ
Î¹Î± Ïĥ
Ġà®ħà®µ à®°à¯įà®ķà®³
Ġà¦ªà§įà¦° à¦¥à¦®
Ġav ant
Ġ Å¼
ĠÎ¼Î± Î¶Î¯
ll t
ê¸ ī
c or
ĠØ² ÛĮ
ĠáĥĵáĥĲáĥ Ĵ
ÑĢ ÐµÐ´
ĠÎĺ Î±
Ġe dÉĻn
Ġà¤ľ à¥Ī
Ġà¤Ĺ à¥įà¤°
à®¿à®¯ à®²à¯į
Ġà°ķ à°¥
Ġla v
Ġk a
Î Ĳ
iá»ĥ m
à°¾à°Ĥà°Ł à°¿
ĠÎ± ÏĢÎµ
Ġáĥ¡áĥĲáĥĻ áĥ£áĥĹ
j et
Ġ×ľ ×¤
ĠØ± Ø³
ÐµÐ½ Ð¸ÐµÐ¼
an za
Î¹Îº Î·
Ġà¦ªà¦¾à¦° à§ĩ
Ġper met
Ġë§ Ĳ
Îł Îĳ
Ġà®ļ à®°
Ġ\ "
nik Ã³w
ĠN ach
ĠÙĩ ÙĪ
Ġà¤¦ à¤¿à¤¸
Ġà°ľ à±Ģà°µ
ĠÐ¼ Ð¾Ð´
ĠÑĥÑĩ Ð°ÑģÑĤ
ÎŁ ÎĻ
Îº Î¹Î±
Ġfor ma
ĠáĥĽ áĥĺáĥľ
Î´ ÏīÎ½
Ġs ous
Ä±n dan
ĠÎ½ÎŃ Î±
à®¿à®ķà¯įà®ķ à¯ģ
ĠÐ¿ÐµÑĢ ÐµÐ´
à¹Ĥ à¸Ń
à¤¾à¤µ à¥ĩ
à±Īà°¨ à°¾
áĥĶáĥĳ áĥĹáĥĲáĥľ
Ġtak Å¼e
ĠÎµ Î¼ÏĨ
k Ã©
ĠÏĥÏħ Î½Î¿
éĩĩ çĶ¨
Ġè ĥ
æ¦ ľ
è®¡åĪĴ _
ª à¸²à¸£à¸
æĮ ĳ
ĠåĪĨ åĪĨæĹ¶æĹ¶å½©
ä¸» ç®¡
áŁ Ĥ
Ġå¯¹ äºİ
åĽ½éĻħ å¹³åı°
Ĭà¸ ·à¹Īà¸Ń
¢à¸ ¸
Ġ5 00
è¾ Ĩ
45 6
èģĶ åĲĪ
åı£ è¯Ģ
Ġ5 åĪĨæĹ¶æĹ¶å½©
¢à¸ ¡
è¿ Ķ
áŀ ·áŀ
Ġä¸ ĸ
Ġà¤µ à¥įà¤¹
ang an
ĠH et
Ġ201 3
ĠÎ´Î¹Î± Î´Î¹Îº
le ich
Ø§Ùħ ÙĦ
Ġc ap
à¥ĭà¤ ¸
ìŀ ĳ
ĠÐ¾Ð½ Ð»Ð°Ð¹Ð½
à®Ł à¯į
ĠÑĤ Ñĭ
Ġà°ķ à±ĩà°¸
Ġf ir
ĠØ£ ÙĬ
ĠáĥĴáĥĲáĥľ áĥª
Ġà°ķ à°¿
Ġp owie
ĠÎµ Î½Î·
ĠÐº Ð°ÑĢÑĤ
áĥĶáĥł áĥĺáĥ¡
le Äį
ĠÎ» Î¹
ĠØ· Ø±
×ł ×Ļ×Ŀ
Ġdey il
g es
Ð°Ð» Ð¾Ð³
Ú© Ø³
ĠÎ¯ Î´Î¹Î¿
Ġà°®à±Ģ à°¦
uy á»ĩ
áĥķ áĥļáĥĺáĥ¡
ĠÐ¾Ñģ Ð½Ð¾Ð²
Î» Î¼
Ġc ol
ĠëĤ ´
Ġis tifadÉĻ
à¤¸ à¤¾
ov an
à®± à¯ģ
Î½Î¿Î½ ÏĦÎ±ÏĤ
Ġà§© à§
Ġl ui
ĠÑģ Ð¾ÑģÑĤÐ°Ð²
à¦¤ à¦¾à¦°
áĥľ áĥĺáĥ¨áĥľ
ÛĮÙħ Øª
ost ÄĻp
âĢĮ âĢĮ
à±ĭ à°ª
ou l
idad es
ÃŁ e
Ñı Ð¼
ĠÎµÏĢÎ¯ ÏĥÎ·ÏĤ
ere k
ĠØª Ùħ
Ġìĭ ¤
ĠÃ© g
A T
p ri
Ġé» ĳ
ä¸Ģ èµ·
Ġà¤¡ à¥ī
áº¯ t
īà¸ ŀà¸²à¸
Ķà¸ §à¸
æī ¶
ä¸Ģ ç¯ĩ
à¹ģ à¸Ńà¸
à¤µ à¤¾à¤°
u te
om b
ĠãĢı ãĢİ
à¤¿à¤² à¤¾
Ġbu de
it ar
à§ĩà¦¬ à§ĩ
ĠÐŃ ÑĤÐ¾
Ġáĥĵ áĥĶáĥĵ
Îµ ÏģÎ¿
à®Ł à¯ģà®ķà¯įà®ķ
à¤¾à¤± à¥įà¤¯à¤¾
ro d
ëĤ ´
ĠS i
Ġà¦Ĺ à¦¤
à°¨à±įà°¨ à°¾à°°à±ģ
iy ÉĻ
ĠØ¯ Ø§Ø¯
Ġæ¬§ ç¾İ
àµįà´ Ł
à¶ Ń
Ġà¤¦à¥įà¤µ à¤¾à¤°à¤¾
Ġáĥĳ áĥĶáĥķ
Ġse hr
à¯įà®ļ à¯įà®ļ
à°¾à°¨ à°Ĥ
O W
wiÄħ z
í Ŀ
ÎĳÎ ĵ
ÏĦÎŃ Î»Îµ
ĠÑģÐ¿ Ðµ
ìĸ ´ë
Õ ¢
ÉĻs inÉĻ
Ġà° Ĺà°¾
Ġh anno
ĠÎľ ÎŃ
Ġ×ĳ ×¨
à¦¬ à¦°
ĠÐ½Ð° ÑģÑĤ
ia l
ĠÎ¼ÎµÏĦÎ± Î¾Ïį
li w
áº¡ t
c ak
Ġd ann
ãĤ ¦
Ġp uj
Ġt om
Ġà°ª à±ĩà°°
ĠÚĨ Ùĩ
ÏģÏĮ ÏĤ
ĠáĥĴ áĥĸ
à®ªà¯įà®ªà®Ł à®¿
Øª Ùĩ
Î» ÏįÏĦÎµ
à§ģà¦ ľ
Ġà¤¹ à¤°
Ġna ar
Ġu Å¼y
Ġx ÉĻbÉĻr
ĠéĢ Ļ
æķ £
à¥ĩà¤ļ à¥įà¤¯à¤¾
ĠÐľÐ¾ÑģÐº Ð²
ĠÐ² Ð¾Ð¿ÑĢÐ¾Ñģ
à°¾à°° à°¨à°¿
Ġà®® à®¤
Ġtr ans
Ð½Ð¸Ðº Ð°
Ġà¦īà¦ª à¦ľ
ter n
Ġà¦ķ à¦²
Ġà¤īà¤¨à¥įà¤¹ à¥ĭà¤Ĥà¤¨à¥ĩ
ĠÐĲ Ð»
Ġà°µà°¿à° §
áĥĲáĥłáĥĵ áĥĲ
ĠÏĢÏģÎ¿ÏĥÏī ÏĢ
Ġà¦Ĩ à¦¦
ÙĪ Ø³
ov Ã½
Ġäºļæ¸¸éĽĨåĽ¢ app
è± ª
Ġ äºİ
Ġà¤¨ à¤¸
Ã ¦
ĠÎº ÏģÎ¹
á¿ Ĩ
ĠÎ£ ÏĦÎ±
ĠÐ»Ñİ Ð´
Ġy an
Ġà¦¤ à¦¾à¦ģ
ÃŃ n
ÏĨÎŃÏģ ÎµÎ¹
áĥĶáĥĹ áĥĲ
f ahr
em b
×ľ ×Ļ
Ġà®ªà¯ĭ à®²
¥ ¼
ÏģÎµ Î¯Î±
Ġà¤¨ à¤¾à¤®
áĥ®áĥķ áĥĲ
at to
Ġà°ļ à°Ĥà°¦à±įà°°
Ġa voir
Ġd ÄĽ
åł ´
æ£ ®
Ġà¤¦ à¤°
Âµ Î±
ĠÎµÎ½ ÏĮÏĤ
Õ º
Ġa Ã§
à°¦ à±ĩà°¶
g ÅĤ
à¦°à§įà¦ ķ
ta lia
Ġà®®à¯ģà®© à¯įà®©
Ġs olo
áĥĶáĥĳáĥļ áĥĲáĥĵ
ĠÐ° Ð´
ĠÙĪØ§ÙĦ Ùħ
ĠmÉĻlum at
n Ã½ch
ÃŁ en
ĠØ® Ø¨Ø±
ĠØ®ÙĪ Ø§Ùĩ
æľ¬ éģĵ
Ġà¤¸à¤ķ à¤¤à¤¾
Ġà¨ Ĩ
Ġ) (
æīĭæľºçīĪ å®ĺç½ĳ
äºĭ ä»¶
à¹ī à¸Ńà¸Ļà¸
à¥Ģà¤² à¤¾
ĠÐ¸Ð½ ÑĦÐ¾ÑĢÐ¼
Ġà°ªà±įà°° à°¤
Ġa ff
Ġn Æ°á»Ľc
ty w
Î¼ ÎµÎ¹
ĠÃ ľ
Ð½ ÐµÐµ
ä¸¤ ä¸ª
çī¹ èī²
Ġå¿« éĢŁ
Ĺà¸ ±à¸Ļà¸
æ¯ ķ
ŀà¸§à¸ ģà¹Ģà¸
æī ©
à¤¾à¤Ĥà¤ ¸
ë¬ ¼
à®¿à®°à¯ģà®¨à¯įà®¤ à¯ģ
Ġk ad
§ áĥķ
ÉĻf ÉĻr
ÏĢ Î±Î½
ĠÐ±ÐµÑģ Ð¿Ð»Ð°ÑĤ
Ġáĥ¡áĥĲáĥĸ áĥĿáĥĴ
ĠÐ´ ÐµÐ¹ÑģÑĤÐ²
do v
i or
or den
ÙĤ ÙĦ
Ġà¦ķ à¦¿
Ġà°ķ à±ĩà°Ĥà°¦à±įà°°
×ķ× Ķ
áĥĲáĥļ áĥĲáĥ¥
en ne
Ġà¦ħà¦Ń à¦¿à¦
ĠÎ ©
wia d
Ġà°ħ à°®à±įà°®
à°¿à° ³
ĠÐº Ð¾Ð³Ð´Ð°
à°¾à°Ĥà° ķ
ÏĮÏĦÎ· ÏĦÎ±ÏĤ
ĠÙĨ Ø´
Õµ Õ¡Õ¶
ab r
¬ áĥĽ
Ġcon o
Ġata u
Ġà¦ĩ à¦¸à¦²
Ġk ull
Î» Î±Î½
Ġà¦ªà§įà¦°à¦ķ à¦¾à¦¶
Ġqu r
ill es
æ³¨åĨĮ ç½ĳåĿĢ
ä¿Ŀ éļľ
à¸Ńà¸¢ à¸²à¸ģà¸
B O
à¹Īà¸² à¸Ļà¸
Ġèī ²
çĥ Ī
åĨ °
é ŀ
çĽ® æłĩ
Ġà¤®à¥įà¤¹à¤£à¤ľ à¥ĩ
Ġà°ľ à°¿à°²à±įà°²
om a
à°¯ à°Ĥà°²à±ĭ
áĥĲáĥłáĥ ļ
i co
Ġà¦¨ à¦¿à§Ł
Ã¡ r
Ġáĥ§áĥķáĥĶáĥļ áĥĲáĥ¤
Ġì ¶
Ġà¤ķà¤° à¥ĩà¤Ĥ
ĠÑįÑĤ Ð¾Ð³Ð¾
×ķ× ŀ×
Ġáĥ¨áĥĶáĥĵ áĥĶáĥĴ
Ġt iáº¿
Ġā ą
áŀ »
à¥ĩà¤² à¤¾
ĠW ar
ĠØ´ Ùĩ
lÉĻr ÉĻ
ĠC z
os ten
Ġà¦¶ à§ĩà¦·
ĠN ous
Ġë°Ķ ì¹´ëĿ¼
ì ¸
è¦ ĭ
ĠÎļ Î¬
Ġà°ªà±Ĩ à°¦à±įà°¦
Ġk m
Ø¦ ÙĬØ³
Ġà¤ķà¤° à¤¨à¤¾
Ùħ ÛĮÙĨ
ĠÐ±Ñĭ Ð»
à®¿à®ķà¯įà®ķ à¯ģà®®à¯į
áĥ£áĥļ áĥĲáĥĵ
Ġà¤ľ à¤¿à¤²
à¦¬ à§ĩà¦¨
ĠSp iel
ck Ã©
ļ èĩ³
Ġåı Į
Ġå¤§åıĳ å¤§åıĳå½©ç¥ŀ
éĩ İ
Ġï¼ī ãĢĤ
Ġagçİ¯äºļ æīĭæľºå®¢æĪ·ç«¯
èµĦ æĸĻ
áŀ ¸
Ġè į
è «
åĿ Ĳ
± à¹īà¸Ļ
à¥Ģà¤ļ à¥Ģ
ĠrÃ³w nieÅ¼
t in
Î¸ Î¿ÏĤ
Ġíĺ Ħ
ĠáĥĽáĥĺáĥ ¦
Ø§ÙĦ ÙĬ
à±ģà°ķ à±ģà°¨à°¿
ĠÏĢÏģÎ±Î³ Î¼Î±
Ġà°ķ à°¾à°µ
at er
è§Ħ å®ļ
Ĺà¸ĩà¸ ļà¸Ńà¸¥
à¤Ĺ à¥įà¤°
Ġà¦¸ à§ĩ
ĠÎ¿ Î´Î·
em me
ĠÃ© le
ĠáĥĴáĥĲáĥľ áĥķáĥĺáĥĹ
Ġdu e
å§Ķ ç»ŁæĪĺ
ä¹ ±
æ¤ į
¡à¸ ·à¸Ń
Ġè¿Ļ äºĽ
ĠåŁ º
à©ĭ à¨Ĥ
ĠçĻ ½
èª ª
åĮħ æĭ¬
à¹ģà¸Ļ à¹Īà¸Ļ
ĭà¸ ·à¹īà¸Ń
è°ĥ æŁ¥
ĠåĪ Ľ
Ħ à¸²à¸
ľ áĢ
à¹Ģà¸ Ķà¸
E D
Ġåħ¬ åı¸
ª à¸Ńà¸ĩà¸
å¼Ģ æĶ¾
çŃ ¹
· à¸Ļ
ªà¸¸à¸ Ĥà¸
Ħ à¸Ļà¹Ģà¸
à¤¾à¤µ à¤¾
un k
à®µ à®°à¯įà®ķà®³à¯į
Ġà°² à±ĩà°¦à±ģ
×ķ×ł ×Ķ
ĠÎ¸Îµ Ïī
Ġáĥ¡áĥĲáĥĸáĥĿáĥĴ áĥĲáĥĵáĥĿ
ti m
à±Ĩà°² à±įà°²
áĥķ áĥĶáĥĵ
ĠÐº Ð°Ð¶Ð´
à§ģ à¦Ł
Ġà¹ģà¸ ¥à¸°à¹Ģà¸
çĪ ¶
åĩº çļĦ
çĮ ®
ļ à¸£à¸£à¸
Ġ ç½ĳç»ľ
à¹ģà¸ Ł
éĢ Ĳ
å·ŀ å¸Ĥ
Ġà¤ħà¤¶ à¥Ģ
te k
Ġà´ µ
Ġà¤ª à¥Ī
ĠRes p
à¯ģà®¤ à¯į
Ġà°¨à°¿à°° à±įà°®
ĠÐ¿ÑĢ Ð¾Ð±
Ġh azÄ±r
ĠáĥĲáĥ ŀ
ĠØ¬ Ø¯ÛĮØ¯
ĠÂ °
Ïĥ Î¼Î±ÏĦÎ±
¶ Į
ow Äħ
g os
ĠS aint
in si
Î¯Î½ Î¿ÏħÎ½
Ġà¦¨à¦¿à¦°à§įà¦¬ à¦¾à¦ļ
ĠáĥĻ áĥł
uf en
Ġn b
æĪĳ çļĦ
Ġà¸£à¸ ¸à¹Īà¸Ļ
à¤¾à¤ Ĭ
ÙĪ Ø¬
im o
Ġà§ ¬
Ġà®ªà¯Ĩ à®°
Ð¾Ð²Ð°Ð½ Ð¸Ðµ
áĥłáĥ ª
à°¿à°¤ à±ĭ
u a
Ġà¤¸à¤¬ à¤¸à¥ĩ
Ġà¦Ł à§įà¦°
Ġbe au
ĠÎ· Î¼ÎŃ
íĻĶ ìĿ´íĬ¸
íĶĦ íĻĶìĿ´íĬ¸
Ġë Ĭ
Ġt ÉĻd
or um
ĠØ´ ÙĩØ±
h y
el d
Ġà¸ªà¸ ¡à¸±à¸
å§Ķåĳĺ ä¼ļ
Ġà¤Ń à¤¾à¤ľ
à¹Ĥà¸£à¸ĩ à¹ģà¸£à¸
ĠéĻ Ī
Ġà¤® à¥ģà¤ĸ
Ð° Ñİ
ÎµÎ¯ ÏĦÎ±Î¹
Ã© g
Ð¾Ð» Ñı
Äħ Å¼
Ġáĥ¡áĥĲáĥ¨ áĥ£áĥĲáĥļ
ck en
à°Ĥà°Ł à°¿
y on
Ġc a
Ð¼ Ñĥ
à¥ģ à¤¦à¥įà¤§
Ġ×ľ ×ĳ
st vÃŃ
ĠÏĥÏħÎ½ ÎµÏģÎ³
à¦¾à¦ ł
ĠD a
Î»Îµ Ïį
ka z
ãģĦ ãģ¦
áĥĲáĥľ áĥĺáĥ¡
ÙĨ Ø§ÙħÙĩ
Ġm ujeres
ĠÙĬ Ø¹
ll er
áº© m
ĠC ar
ĠÐ· Ð°ÑĢ
ê° ģ
Ġà¦ª à§Ĥ
à°¾à°² à°ķà±ģ
it as
ol u
ĠÎ¶Ïī Î®
ĠÎĵ Î¹
b ÉĻr
ĠÎµÏģÎ³ Î±
is es
à¹Ģà¸ ĩà¸´à¸Ļà¸
«à¸ §à¹Īà¸²à¸
Ġ äºĳ
èµĦ éĩĳ
ç»§ ç»Ń
ç¡ ¬
ª à¹Įà¸
éĢ ²
æİ ī
Ġæ³ ¨
å¯ ¦
à¹ģà¸ Ķà¸
Ġà¨ķ à¨°
Ġà¤Ń à¤¾à¤Ĺ
Ġs Ã¶z
ĠÐ¼Ð°Ð³ Ð°Ð·
Ġsam o
ĠÎºÏħÎ² ÎŃÏģÎ½Î·
Ñĥ ÑģÐº
Ġp u
à®¿à® ¸
ĠÚ©ÙĨ ÛĮØ¯
ĠF re
á»ģ n
ĠÎ£ÏĦÎ· Î½
áĥĲáĥ Ł
Ġà¦ķà§ĭà¦¨ à§ĭ
Ġa mp
ĠÎ²Î± Î¸
à°¤ à±įà°°
×© ×Ķ
ÐµÑģÑĤÐ² Ð¾
Ó Ļ
Ã¼ c
Ġde c
Ġáĥł áĥĶáĥĴ
ĠS te
à¦ ĥ
ÏĢ Ïī
ìĨ į
Ġà¦¬à¦¿à¦ ¦
à°°à±įà°µ à°¾à°¤
Ġr y
ÙĪØ± Ø©
Ïĥ ÏĦÎ¹
ch es
ãĥ ĸ
å± ı
Ĥà¸²à¸ ¢
åĪ ĺ
éľ ĩ
· à¸Ńà¸ĩà¸
à« ģ
æĲı å¤©åłĤ
è¡Į åĬ¨
à¨ Ī
Ġà¸ Ĺ
Ġà¤ª à¤¡
Îķ Îļ
Ïĩ Î®ÏĤ
áĥĲáĥł áĥĿ
ĠÐ» ÑĥÑĩÑĪ
Ġà®¤ à¯ĩà®°
Ġà°ĩ à°ļà±įà°ļ
Ġà¦¦ à§ĩà§Ł
Ġp ierw
Ġh asta
èķ ī
à´¤ àµįà´¤
Ġà¤ª à¤¾à¤°
áĥĶáĥĳáĥĺáĥ¡ áĥĹáĥķáĥĺáĥ¡
l ie
lÉĻrin i
Ġà°® à°§à±įà°¯
Î¼ ÏīÎ½
ÑĢÐ° Ñī
Ġp ubli
Ø¯ Ø±
ì ¤ĳ
à¦°à§įà¦ ·
Äį e
à¯Ĩ à®²à¯įà®²
ĠÎµÏĨ Î±Ïģ
Ġm es
ÏĦ Ïį
ib ile
à¯įà®¸ à¯į
Ġz p
Ġáĥ¡áĥĲáĥ¥áĥĲáĥłáĥĹáĥķáĥĶáĥļ áĥĿáĥ¨áĥĺ
áĥĲáĥļ áĥ£áĥł
Ġà´ ¸
Ġà¤¸ à¤Ńà¥Ģ
Ð½ Ð¸Ð¼
Ġ×Ķ ×Ķ
h ne
Ġv a
à±ģà°Ł à±įà°Ł
åŃ¦ æł¡
àª ¤
Ġà¤®à¤¹à¤¾à¤° à¤¾à¤·à¥įà¤Łà¥įà¤°
æĶ¶ åħ¥
åķ Ĭ
åĲĪ æ³ķ
ç¶ ĵ
åĽ½ åĨħ
ĠéĿ ¢
åĪĨ é£ŀèīĩ
ĠäºĶ åĪĨå½©
Ġà¤®à¥ģ à¤²
ÛĮ Ø§
Î ŀ
ÏĦÎ· ÏĦÎ±ÏĤ
Ġb as
Ġí ĽĦ
Ġà¦ıà¦® à¦¨
Ġ raz
s ce
áĥĺáĥ Ń
Ġt Ã´i
ĠÏĢÎ¬Î½ Ïī
Ġà°µà°¿à°¦ à±įà°¯
Ġolar aq
ĠÐ´ Ð¾Ðº
Ã¤ ng
à¤¯ à¥ĭà¤Ĺ
ÙĪÙĦ Ø©
ÄĻ d
áĥĿáĥ¡ áĥ¢
ĠÐ² Ð¾Ñģ
ãĤ į
áº¥ n
ľ à¸´à¸Ķà¸
z h
èĤ¡ ä»½
æ¼ «
Ĭà¸µà¸§à¸´à¸ ķà¸
äº§ çĶŁ
Ġà¸ŀà¸£ à¹īà¸Ńà¸¡à¸
à¸£à¸²à¸ Ĭà¸
å¦ ¹
¥à¸²à¸ ¢à¸
åĽł ä¸º
à¥ĩà¤ķ à¥įà¤·
à®² à®®à¯į
c ta
ĠÆıliy ev
k ar
à°ª à±įà°°
ĠÐ½ ÐµÑĤ
ĠÎºÎ± á½¶
Î¼Îµ Î¯
ĠÙģ ÛĮÙĦ
ne ment
áĥĶáĥľ áĥĲ
í Ĺ
ĠÏĥ Î±Î½
à¦Ľ à§ĩà¦¨
Ġi c
ãĥ ĩ
ÛĮ Ø³
à¤Ĥà¤ ľ
ĠÐ² Ðº
Ġà°µ à°¿à°¨
Ġ×ŀ× §
Ġf ÉĻ
Ġne ces
à¦¾à¦² à§ĩà¦°
ou te
Ïĩ Î¿Î»
à®ķ à®°
Ġà°¤ à°¿à°°
Ġ itu
t nÃŃ
Äħ dz
Ġ it
il itÃł
ĠÎµ Î´Ïİ
Ġon der
áĥĵ áĥĺáĥ¡
Ðµ ÑģÑı
Î¼ÎŃÎ½Î¿ ÏĤ
t et
ØªØ± ÛĮÙĨ
à· Ķ
à¤Ĥà¤ ¸
Ġb on
in as
Ġà¦¬ à§ĥ
ãĤ Ń
Ġver s
esz cze
Ïĥ Ïĥ
Ø« Ø±
Ã§ Ã£o
Ġk r
Ġs áº£n
Õ¥ÖĢÕ ¨
ÉĻx s
ĠA d
áĥĸ áĥĲáĥĵ
ĠÃ¶ n
Ðº Ð¾Ð¼
Ġà¤ħ à¤®
Ġf un
Ġí İ
à¦¬ à§įà¦¯
Ġà°¸à°Ĥà° ¸
jÄħ ce
áĥł áĥĶáĥĳáĥĺ
ĠÐº ÑĥÐ¿Ð¸ÑĤÑĮ
ĠÑħ Ð¾ÑĢÐ¾ÑĪ
ĠN am
i ce
ÏĢÏĦ ÏīÏĥÎ·
Ġà¦ħ à¦¸
Ġ×Ķ× ĵ
Ġáĥĵ áĥłáĥĿ
à¯Īà®ļ à¯į
Ġb us
Ð»ÐµÐºÑĤ ÑĢ
ĠÎĳ Î¸Î®
ĠVi deos
i do
sk Ã½
ĠÎ² Î¹Î²
it er
Ġx u
Î³ ÏĮ
Ġà¤ļ à¤²
Ġsp e
Ð¾ Ñħ
Ġ Õ¡Õ¶
Ġb Ã¶yÃ¼k
à°Ĥà°Ĺ à°¾à°£
à± ĸ
ĠáĥłáĥĿáĥĽ áĥļáĥĶáĥĳ
Ġ201 2
ĠÏĦ Î¬
Ġà°®à±ģà° ĸà±įà°¯
ÑıÑĤ ÐµÐ»ÑĮ
ëŀ Į
çĦ ¡
Ĺ à¹Į
Ġå¿ ĥ
Ġå¥ ³
æī§ è¡Į
Ġà¸ Ķ
Ġb tt
å¡ Ķ
Ĺà¸µà¹Īà¸ Ķà¸µà¸
à¸£à¸°à¸ļà¸ ļà¸
å§Ķç»ŁæĪĺ éĥ¨
Ġà¤Ĩ à¤²à¥Ģ
Ġe le
Ġà¦¬à¦Ľ à¦°
ĠÐµ Ðµ
Ġwie der
Ãª te
Ġà®ªà¯Ĩ à®±à¯įà®±
ĠØ¨ Ø§ÛĮØ¯
Î½ Î¹
Ġà¤¸à¤Ĥà¤ ¸
ãģ ĺ
ÙĪ Ø§Øª
Ġh ier
à°µ à°¿
Ġw ÅĤa
Ñį ÑĤ
i gen
ĠÎ» Î¬
ĠáĥĶ áĥľ
sk Ã¡
Ġà¦¬ à¦¾à¦¸
cto r
Ã ľ
ac ak
Ġpri ma
Ġt en
Ġs ÉĻn
ÐµÑĢ ÑĤ
Ġà®® à®±
ĠÏĦ ÎµÏĩ
Ġ×ľ ×Ĺ
Ġà¤ķ à¥įà¤·
Î¼ Î¹Î±
t rze
Ì Ģ
Ġch ÃŃnh
ĠØ³ ÙĬ
va it
ãĥ³ãĤ °
Ñĭ Ð»
ĠEs ta
t ÃŃ
Ġb Ã¼tÃ¼n
b ut
Ġà°İ à°µà°°
ĠÐ²Ð¸Ð´ Ðµ
ĠÙħ ÙĪØ±Ø¯
ĠÏĨ Î¿Ïģ
à®¾à®£ à¯įà®Ł
Ġà¦¹ à¦¾à¦ľà¦¾à¦°
Ġà°¬ à±įà°°
ĠáĥĹáĥĲáĥľ áĥĲáĥĽ
Ġc aÅĤ
tion en
Ð°Ð»ÑĮ Ð½ÑĭÐ¹
Ġcu al
à¦¨à§įà¦ ¡
ĠÎ±ÏĢÎ¿ Îº
Õ¡Õ Ń
Õ¸ Õ¶
Ġ Õ¡Õµ
un da
Ġáĥ¡ áĥĺáĥ¢
ÐµÑĤ Ðµ
äºº æīį
è´Ń å½©
à¹Ĥà¸Ńà¸ ģà¸²à¸
à¤¾à¤Ĥà¤ ¡
ess i
Ġà°® à±Ģà°°à±ģ
vÄĽ t
ĠãĤ ¹
owan y
ĠÎŃ ÏīÏĤ
ĠØ´ Ø±Ú©Øª
à§ģ à¦¦
Ġh ar
Ġwur de
ìĻ ¸
ĠÐºÐ¾ÑĤÐ¾ÑĢ ÑĭÐ¹
d es
Ġà¤ķ à¤¾à¤³
ÏĢÎ¿ ÏĦÎµ
×¨ ×ª
á»Ļ c
ĠÙĪ Ø¨
Ġáĥª áĥĶáĥľáĥ¢
Ġà¤®à¥Ī à¤Ĥ
Ġq ay
skie j
ì µľ
àµįà´ °
Ġà¤¸ à¤¾à¤²
t ta
ì¶Ķ ì²ľ
ìĶ ¨
à¦¾à¦° à§Ģ
j our
Ġë¶ Ħ
à¯įà®ķ à®¿à®±
Î´ ÏģÎ±
ku d
áĥĵ áĥĺáĥľ
ãģ Ķ
C J
cz as
Ø´Øª Ùĩ
Ġh an
ÑĥÑĤ ÑĮ
à¦ ģ
ĠÏĥ Î¿
èĪ ¹
ä¸Ģ çĽ´
å¼Ģå¥ĸ åİĨåı²
à¤¾à¤ Ń
à®±à¯įà®± à®¿
Ġk al
Ġd ir
ĠÙĦ Øª
ĠÎ¸ÎŃ ÏĥÎ·
Ġà¤® à¤²à¤¾
Ð¾ÑĢ Ð¾Ð²
Ġen core
ķà¸±à¸ Ķà¸
Ĭà¸²à¸ ¢à¸
Ħ à¸Ń
à¤°à¥įà¤ ¶
ì½ Ķ
Ġma ar
Ġ×Ĵ ×Ŀ
áĥ£áĥ Ļ
ĠÙģ Ø±ÙĪØ´
ĠÎľ Î¬
ir lÉĻr
Ġà®ħ à®¤à¯ģ
ĠÑĤ Ð¾Ð²Ð°ÑĢ
ca to
ĠÛ² Û
ĠØ± Ø§Ùĩ
Ð½Ð¾Ð¼ Ñĥ
áĥķ áĥĺáĥĵ
Ġap rÃ¨s
ur as
Ġmo g
Ġà¦Ĩà¦Ĺ à§ĩ
ĠÏĢÏģÏİ ÏĦÎ·
ãĤ ¸
Ġj i
Ġf uer
am ento
ĠÐ² Ð°ÑĪ
Ġo y
ëį ĺ
Ġåį ķ
Ġ201 0
«à¸ §
è» Ĭ
Ġà¹Ģà¸ Ľà¹ĩà¸Ļ
Ġà¤¸ à¥įà¤ª
Ġà°² à±ĩà°ķ
ÙĤ Ø±
áĥĺáĥľ áĥĺáĥ¡
ÎŃ Î²
v iz
à®¿à®µ à¯ģ
Ġà¦ķ à§įà¦°
Ġsch on
ĠáĥĹ áĥĺáĥĹ
ĠÑģ Ð¾Ð·Ð´
ĠØ¨Ø§ Ø´
u en
Ġhá» £p
Ġdon c
m bre
ÙĬ Ø«
ĠÎĳÏħ ÏĦÏĮ
Ġà°¦ à±Ģ
Ġ×Ľ ×Ļ
ĠáĥĲáĥĽ áĥĺáĥ¡
Ġpro g
à¤ Ĩ
ĠÐ· Ð°Ð±
Ġso ll
Ġêµ Ĳ
à®ķ à®®à¯į
áĥĺáĥ¢ áĥĿáĥĽ
à¦¾à¦¨ à§ĭ
à¥ĩà¤Ĺ à¤¾
an as
Ġod powie
Ġen s
s a
Ġáĥŀáĥĺáĥłáĥķ áĥĶáĥļáĥĺ
li v
Î¸ ÎµÎ½
ķà¹Īà¸²à¸ĩ à¹Ĩ
æ §
áĢ¬áĢ ¸áĢ
Ġà¸Ħà¸ ·à¸Ń
ĠæĮ ī
åĶ¯ ä¸Ģ
Ġåģ ļ
åĭ Ļ
éĶĢ åĶ®
çŁ ¿
à¹ĥà¸ Ħà¸£à¸
Ī à¸µ
6 4
à¤°à¥įà¤ Ĺ
ÑĮ Ñı
à±ģà°² à±įà°²à±ĭ
Ġà®ħ à®£
Ġt iem
Î³ Î½Ïī
ÅĤ at
ëĬ ¥
Ġà°¤à±Ĩà°² à°Ĥà°Ĺà°¾à°£
à°°à±įà° ķ
ie ux
Ùģ Ø³
Ġin f
Î» Î¹Î¬
ĠÑĢ ÐµÐº
ĠÙ¾ ÛĮ
Ġà¦ħ à¦°à§įà¦¥
áº« n
Ġáĥĺ áĥª
ĠÎ¾Îµ Î½Î¿Î´Î¿
c aq
åĮº åŁŁ
8 9
åŁº éĩĳ
Ġæ¬ ¢
à¹Ī à¸Ńà¸ĩà¸
5 7
äº ¡
à¤° à¤¾à¤¤
Ġ×ķ ×ŀ×
cze g
Ġà¤Ĩà¤ª à¤ķà¥ĭ
áĥĺáĥ£áĥ ļ
ĠÐĲ Ð²
Ġ uy
Ġv om
to ire
ÎĳÎ ł
Î± ÏģÎ¯Î¿Ïħ
ĠÎłÎ¿Î» Î¹
çĽ ĸ
åĬŀ åħ¬
çĶŁ æĢģ
ªà¹Īà¸§ à¸Ļ
Ġà¤ıà¤ķ à¤¾
z zo
ĠØ§ÙĦ Ùĩ
Ġz m
t utas
al idad
ĠÐļ Ð¾Ð¼
Ïģ Î¹Îº
à°Ĥà°¤à±įà°° à°¿
Ġëª¨ íħĶ
íĺ ķ
à®¾à®¤ à¯įà®¤
áĥĺáĥ¡ áĥ£áĥ¤
ov ÄĽ
Ġà°°à±Ĩ à°Ĥà°¡à±ģ
ei d
ÐµÑĢ Ñĭ
ĠÚ© ÙĨØ¯
Ġb ilm
Ġà¦Ł à¦¾à¦ķà¦¾
à§ĭ à¦°à§įà¦
Ġques ta
áĥłáĥĹ áĥ®
ĠB ar
ĠÎ´ Ïħ
Ð³ Ð¾ÑĤÐ¾Ð²
Ġdon de
ĠA u
Ġ×¤ ×¨
ÏģÎ¬ ÏĤ
åķ ª
à¤¤ à¤¿
Ġà°µà±įà°¯ à°ķà±įà°¤
Î¬Î½ Ïī
à¯Ĩ à®©
Ġ ÉĻ
v al
Ð» Ð¾Ð²
Ġk il
à¦¾à¦§ à§įà¦¯à¦®
ĠÎ³ Î¯Î½ÎµÎ¹
ĠÑĦ Ð¾ÑĤ
è¿Ĳ åĬ¨
Ġà¤Ŀà¤¾à¤² à¤¾
¤ Ģ
áĥ£áĥ ª
Ã Ĭ
Ġqu an
Ġt ÉĻk
Ġa bb
Î³ ÎµÎ½
om me
ĠÎ´ÏħÎ½Î± ÏĦÏĮ
ĠáĥĴáĥĲáĥĽ áĥĿáĥª
ĠS an
ĠØ£ Ùħ
ĠÙĨÛĮ Ø²
ÑĨ Ñĭ
ãĥ §
Ġà¤ª à¥ģà¤²
à§įà¦ §
ĠF o
A D
Ġre g
à°¿à°² à±į
c teur
Î® ÏĦÎ·
áĥĶáĥĽ áĥĲ
åĢ Ĵ
ag 88
is h
¹ à¹īà¸
ä¸» å¸Ń
æĪĺ çķ¥
Ġà¤ª à¥ģà¤¢
àµģà´ Ĥ
Ġà¤¸ à¤¿à¤Ĥà¤
Ġë ĺ
ĠÐĿ Ðµ
Ġp ay
Ð¾Ð» Ð¾Ð´
¦ à¥Ģ
re ich
á½ ´
ĠÎº Î¿Î¹
ĠáĥĽ áĥĶáĥł
ĠØ§ÙĦÙħ ØŃ
à´ ¨
à´ ³
Ġà¤¬ à¤¤
Ġà¦¦ à§ģà¦ĩ
al Ä±ÅŁ
Ġà®ļ à¯Ĥ
Ġ×Ķ× ¦
k em
à°¾à°³ à±įà°³
ĠáĥĲáĥ¡ áĥĶ
Ġà¦¬ à¦¿à¦ķ
áĥĺ áĥĶáĥłáĥĹ
ÑĦ ÑĦ
Ø¬ ÙĪØ¯
Ġje go
c en
ĠÎ Ħ
à±Ģ à°²à±ĭ
Îķ ÎĻÎ£
ĠÎº Î¿Î¹Î½
Ġà¤ķ à¤Ī
ĠÎ¼ Î¿Î½
ĠW e
Ð¸ÑĤ ÐµÐ»Ñı
Ġà¦ħà¦¨ à§įà¦¯
Ġb j
èĴ Ļ
ä¸ĵ å®¶
Ġå¿ ħ
Ġà¹Ģà¸¡à¸ ·à¹Īà¸Ńà¸
æķĪ æŀľ
æľĢ é«ĺ
Ġæĥ ³
çŁ¥ è¯Ĩ
Ġà¸ ¡à¸²
Ġà¤ħà¤¸ à¤¤
à±ģà°¤ à±Ĥ
Ð¸ÑĩÐµÑģÐº Ð¸Ñħ
Ġtak Ã©
Î¡ Îĵ
ĠÎº Î¿Î½
ĠdÉĻ f
Ġmol to
ãģ§ ãģį
ĠáĥĽ áĥĺáĥķ
czne j
ÐµÐ½ÑĤ Ð¾Ð²
áĥĲáĥķ áĥĲáĥļ
à°¿à° ¬
à¯Īà® ª
ĠÏİ ÏĥÏĦÎµ
Ġal gun
ce k
à¨ ľ
5 2
ªà¸ ¡à¸²à¸
à¹ģà¸£à¸ ģ
Ġ- -
¯ çĭĤ
Ġè¿ ĩ
Ġå¤§åıĳäºĶ åĪĨéĴŁå¿«ä¸ī
à¤¿à¤ķ à¤¾
ì ¶
ĠU m
Ġ ÉĻv
Ġnh Ã¢n
Ð°ÑĤ Ð¸Ð²
æ³ °
2019 å¹´
Ĺà¸ ¢à¸
çī Ļ
çģ ¯
Ġh k
Ġà¸ĸ à¹īà¸²à¸
Ġà¤ªà¥įà¤° à¤ķ
Ġà§ Ń
at u
áĥĶáĥĳ áĥĵáĥĲ
à±Ģ à°ķ
it es
w et
à§ģà¦· à§įà¦ł
es ta
ĠÎ¤ Î·Î½
Ġë ¦¬
ĠÐ° ÐºÑĤ
ĠÏĢ Î¿Î¹
Ġ×Ĳ ×ķ×ª
Ġw aar
ĠØ§Ùģ Ø²
ĠZ eit
ÏģÎµ Ïħ
Ġà°¤ à°°à±įà°µà°¾à°¤
Ġà®ķ à®¿à®°
áĥĶáĥĳ áĥĶáĥĳáĥĺáĥ¡
à§ĩà§Ł à§ĩ
ĠÐ¾ÑĤ Ð½Ð¾
ĠÙ¾ Ø§ÛĮ
éĹ ²
é© ¾
Ĭà¸µà¸§à¸´à¸ ķ
çĶŁ èĤĸ
æ» ĳ
ä»¥ æĿ¥
ĭà¸ ·à¹īà¸Ńà¸
æ ¾³
¨à¸²à¸ ªà¸
åº Ĭ
à¹Ī à¸Ńà¸Ļ
Ľà¸ ı
åĲĮ æĹ¶
ä¹ĭ åīį
Ġæ° ĳ
ķà¸ °à¸
äº¤æµģ ç¾¤
ŀà¸ ļà¸
åĪ¶ éĢł
æĺ¯ åĲ¦
ä¼ļ åĳĺ
Ġæķ Ļ
Ġ% ãĢĤ
Ġç ³
é½ Ĳ
å® ľ
è®¡åĪĴ ç½ĳ
Ĳ à¸²à¸Ļà¸
à¤¤ à¥įà¤¨
Ġwy b
ÙĪ Ùģ
íķľ ëĭ¤
b be
ĠU ni
ĠÎ¬Î½ Î¸ÏģÏī
z enÃŃ
Ġà°® à±Ĩ
ĠP os
Ġentre pr
Ð¸ÑĤÐµÐ»ÑĮ Ð½Ð¾
ĠÄĳá»ĭ nh
à¦° à¦¿
ĠÄ ±
ĠÎ¤ ÎŁÎ¥
ĠÏĥ ÏĦÎµ
áł¦ áł
æħ ¢
Ġæ ĳ
Ľ à¸µà¸
çĨ Ł
æĿ Ĥ
Ġà¤ªà¥įà¤° à¤®
áĥł áĥĲáĥĵ
Ġph o
à°² à±įâĢĮ
à±ĩà° ¦à°¿
ĠÎ´ Ïī
×ĳ ×Ķ
ë° ľ
a dÄ±
Ġm nie
ĠÐĲ ÑĢ
et as
wa Å¼
ĠÏĦ ÏİÏģÎ±
Ġjs me
ĠáĥĴáĥĲáĥľáĥª áĥ®áĥĲáĥĵ
ĠW er
Ġc v
Ġf ois
v od
áĥĲáĥª áĥ®áĥĲáĥĵ
Ġse x
âĢ¦ âĢ¦
Ïĩ ÏģÎ¿
à®¾à®µ à®¤à¯ģ
ch a
ÑĨ ÐµÐ½
ãĥ¼ãĥ Ī
Ã¤ ch
ªà¸´à¸Ļà¸ Ħà¹īà¸²
çĶ¨ äºİ
è ľ
à¸£à¸°à¸ «à¸§à¹Īà¸²à¸
à¤¦ à¤¾
ĠÎ±ÎºÏĮ Î¼Î·
j on
Ġm is
ĠÑĢÐ°Ð±Ð¾ÑĤ Ñĭ
ĠØ§ÙĦÙħ Ø³
Õ¡Õ ¼
Ġm Ã¶v
Ġà¤« à¤¿à¤²
Ð¸ÑĩÐµÑģÐº Ð¸Ðµ
ë ¸
Ġà¤« à¤¿à¤°
Ú© ÙĦ
Ġà¦¬à¦¿à¦Ń à¦¿à¦¨à§įà¦¨
g na
b u
ÎĳÎ Ķ
ĠÏĩ ÎµÎ¹
Ġv iel
ĠÐ³ Ð¾ÑĢ
Ġà°İà°¨à±įà°¨ à°¿à°ķ
à¯Īà®ļ à¯įà®ļ
ĠáĥĽ áĥĲáĥ¦
Ġà°ķà±Ĭ à°¤à±įà°¤
×ł ×ķ×ª
à®¿à®ªà¯įà®ª à¯ģ
Æ° a
Ġo Ã¹
ĠÏĥÏħÎ³ ÎºÎµÎºÏģÎ¹
à¥ĩà¤Ĥà¤ Ł
ĠÐ¼ÐµÐ½ Ñı
m enti
Ġd ÃŃ
ra l
ĠÐ½ ÐµÐ¿
ãģ§ ãģ¯
ĠØ¨ Ø¹
ëĵ¤ ìĿ´
ĠáĥĽ áĥĲáĥ¨
à¦ĵ à§Ł
Ġà°¸ à°¹
Ġà®¨ à®²à¯įà®²
ÏĦÏħ Ïĩ
ag a
Ġà¦¨ à¦¤
Ġáĥ£áĥ ¡
Ġi hr
ĠÑĢ ÑĥÐº
ĠÏĦÏģÏĮ ÏĢÎ¿
Ġà®¨ à¯ĭ
Ġa Å¾
ist as
ag li
Ġh er
ĠvÉĻ z
Ð¾ Ð½Ñĭ
ĠÏĢÎ± ÏģÎŃ
áĥĺáĥĵ áĥĶáĥľáĥ¢
ĠÙĤØ± Ø§Ø±
Ġà¦° à¦¹
Ġ") .
áĥłáĥ £áĥļáĥĺ
a cji
Ġà¦¨ à§ĩà¦ĩ
à¹Ģà¸ Ĺ
¥ à¸´
ļ à¸Ļ
ç ŀ
Ġà¤®à¤¾à¤¹ à¤¿à¤¤à¥Ģ
Ġà°¤ à±Ĭ
Ġc our
g gi
larÄ±n Ä±
Ġh Æ¡n
ĠÎµÎ¾ Î±
Ġà¤Ĩ à¤¦
×ŀ ×ķ
áĥ¬ áĥĲáĥķáĥļ
ck y
à°° à±įà°¯
Ġw ÅĤ
ug ar
ĠÐ¿ÑĢÐ¾Ð³ ÑĢÐ°Ð¼
à§İ à¦¸
à¤¾à¤ ī
nÃ© ho
ar ge
Ð¾Ð» Ð¾Ð²
Ġáĥľ áĥĲáĥĻ
Ġà®ªà¯Ĭ à®°
h eit
Ġjed nak
ÐµÑĢ Ð³
ÎĻÎ ©
Î¬Î½ ÎµÎ¹
I S
Ġch am
ĠÙĪ ÙĬ
à°° à±įà°²
i Äĩ
ÙĤ Ùĩ
å ´
æ¶ ¦
åı ¦
star s
Ħ à¹Īà¸²à¸
Ġæīĳåħĭ ä¹ĭæĺŁ
æĪĲ æľ¬
à¥įà¤ Ĺ
c ch
Ġà¦Ĩ à¦ķ
ing en
Ġs em
ĠÐ¶ ÐµÐ»
Î» ÏīÎ½
ub lik
ìĦ ¤
Ġr ayon
Õ¡Õ º
Ġh eÃ§
Ġs ar
Ġon line
Â »
ĠÎ± ÏģÎ¹Î¸
Ġ áĥĲ
à¶ ¸
Ġà´ ®
à¶ ļ
Ġà¤Ł à¥Ģ
Ġm at
ĠÐ» Ð¸ÑĨ
Ø ¡
le m
áĥĲáĥļ áĥ®
Ð½ Ð¸Ð¹
à°°à±įà° Ĺ
à· ĥ
Ġà¤¦ à¥ĭ
Î»Î» Î¹
I d
ìł Ĳ
Õ ¹
Ġe v
Ġs im
×© ×Ļ×Ŀ
ÅĽ l
áĥĶáĥļ áĥĺáĥ¡
ÑĪ Ðµ
b ur
ĠÎ» ÎµÏĢ
à®£ à®®à¯į
ĠI m
à°Ĥà° Ń
Ġà¦° à§Ł
áĥĲáĥ¨áĥķ áĥĺáĥļáĥĺ
® áĥĶáĥĵ
c ity
ä¸Ģ å®ļ
å® «
à¸£à¸²à¸ ¢
Ġæ »
çº ¸
ç¨³ å®ļ
à¨¿ à©±à¨
åı° æ¹¾
Ĺà¹Ī à¸Ńà¸ĩà¹Ģà¸
æľ «
Ġç ¨
æľī æķĪ
ou n
à¹Ħà¸¡à¹Īà¸ ¡à¸µà¸
§à¹ĩà¸ ļà¸
Ġà¸ ¢à¸
è® ¢
áĪ Ń
§à¹ĩà¸ļ à¹Ħà¸ĭà¸
à¥Ĥà¤ ¤
Î¼Îµ Î½Î·
ĠdÃ© p
ÐµÐ½ Ð½ÑĭÐ¹
ĠÏĨÎ¿ ÏģÎ¬
l au
Ġs iy
Ġà® Ī
ĠìŀĪ ìĬµëĭĪëĭ¤
ĠÑĨ Ð²ÐµÑĤ
Ġwy kon
ĠãĤ ¢
Ð°Ð»ÑĮ Ð½Ð¾Ð¹
Ø± Ø§ÛĮ
Ġà°ķ à°¾à°¦à±ģ
ĠÙĬ Øª
Ġm Ã¬nh
Ľà¹ĩ à¸Ļà¹Ģà¸
Ġà¸ Ķà¸¹à¸
ĠĈ ï¼Į
à¤Ĺ à¤°
ĠÎ ¨
ĠÎ¼ÏĢÎ¿ ÏģÎ¿Ïį
Õ¥Õ ²
Ġb elÉĻ
Ġà¦ķà¦° à§ĩà¦Ľà§ĩ
Ġç¥ŀå½©äºīéľ¸ 8
ç« Ł
«à¸¡à¸²à¸ °à¸
Ġä»Ĭ å¹´
åĪĨ 3d
Ħ à¸£à¸±à¸ļà¸
æ³¨ æĦı
åĬł çĽŁ
à¥ģà¤ Ĺ
d ÃŃ
Ġpra w
ĠÐŀ Ð´
v el
Îº Ïħ
in der
à¹Ģ à¸Ńà¸µà¸
ģà¸ µà¸
è Ķ
æĭ ¥
æĤ £
ä»» åĬ¡
à¹ģà¸ķ à¹Īà¸ĩà¸
çĽ® åīį
Ī à¸²à¸£à¸
éĩį çĤ¹
à¥įà¤¯à¤ķ à¥įà¤¤
l ti
Ġà°ħ à°®
ĠÏĮ ÏĥÎ¿
ĠL o
Ġáĥŀáĥł áĥĿ
Ġau tre
áĥ£áĥļ áĥ¢
Ġà°§ à°°
Ġà®ĩà®²à¯įà®² à¯Ī
Ġpo t
ĠÐ³ Ð´Ðµ
ĠÙĨ Ø§Ùħ
Ġà¦ĩà¦¸à¦² à¦¾à¦®
Î¿Ïħ Î»Î¯Î¿Ïħ
ĠC am
Ġà¦¬à¦¿à¦ ľ
à°ķà±įà° ¸
Ġk ur
ĠÏħ ÏĢÎ¿ÏħÏģÎ³
ĠÎ¸ÎŃ Î¼Î±
ĠA m
Ĺà¹Īà¸Ńà¸ĩà¹Ģà¸ Ĺà¸µà¹Īà¸
àª Ĥ
Ġèĩ ³
Ġå¤§åıĳä¸ī åĪĨéĴŁå¿«ä¸ī
æĥ Ĭ
Ġag ç½ĳ
å®ĺç½ĳ å¹³åı°
à©į à¨°
Ġå¤§åıĳäºĮ åĪĨéĴŁå¿«ä¸ī
ä¹ĭ ä¸Ģ
à¹Ģà¸ «à¸¡à¸·à¸Ńà¸Ļà¸
æķ° åŃĹ
Ġç§ ĳ
ä¸Ĭ å¸Ĥ
çĸ «
áŀ ļáŀ
éħĴ åºĹ
è£ ģ
è³ ĩ
è®¾ ç½®
å¤§å¸Ī èµĽ
Ġáł ª
ç¾¤ ä¼Ĺ
à¹ģà¸Ļà¸ §à¸
Ġà¤¬ à¤¸
ti cos
à®³ à¯įà®µ
ÏĪ ÎµÎ¹ÏĤ
Ġáĥ¡áĥĲáĥ®áĥĶáĥļáĥĽáĥ¬áĥĺáĥ¤ áĥĿ
Ġsi nh
Ġ×ĳ ×Ĺ
ĠáĥĽáĥ¡ áĥĿáĥ¤áĥļ
ia da
ĠÎĶ ÎĻ
! !
Î¶ Î±
åįģ ä¸Ģ
Īà¸ ³à¸Ļà¸
Ġç ķ
Ġæ £
à¹Ģà¸ «à¹ĩà¸Ļà¸
æ ¾³éĹ¨
tic le
å° Ĭ
ĠæŃ ¦
à¹Īà¸²à¸ ĩ
Ġäºļæ¸¸ ç½ĳåĿĢ
è¿Ļ ä¸Ģ
ģà¸ İ
æĿ¥ è¯´
æ¸¸æĪı ç½ĳåĿĢ
.. .
ģà¸¥à¸ ±à¸ļ
æ¬¢ ä¹Ĳ
à¹Ģà¸ª à¸Ļ
à¸Ļà¸ °
ĠæĢ İ
5 3
5 1
Ġéĩį åºĨ
Ġ259 45
à¤ ģ
Ġa f
Ùĥ Ø§ÙĨ
Ġv ax
à°¾à°² à±įà°¸
à¦¾à¦¨ à¦¿
ĠÎĽ Î±
Î¾ Î±
ĠÑħ Ð¾ÑĤ
ik an
à¯įà®¤ à®¾à®©à¯į
Ġmo Å¾
Î» Î¿ÏħÏĤ
n ÄĻ
Ġsta to
ic os
Ïħ ÏĦÏĮ
Ġà®®à¯ģà®Ł à®¿à®¯
ĠØ§Ùħ Ø§
Ġà¦Ĩà¦ª à¦¨à¦¾à¦°
Ġà°ı à°®
b st
áº£ ng
ĠÎĶ Îµ
ÐµÐ³ Ð¾Ð´
in den
Ġáĥł áĥĲáĥĽ
en iu
ĠÎŁ Îº
à®Ł à®¿à®¯
à°¾à°µ à±ģ
à±ĥ à°·
Î¿ÏįÎ½ ÏĦÎ±Î¹
áĥ¢ áĥł
ĠÃ§ a
Ġm ain
à°¿à°ķ à±į
v ÉĻl
Ã¥ r
en Ã©
Ġve z
×ķ× ĸ
Ð¾ÑģÑĥÐ´ Ð°ÑĢ
ĠáĥĳáĥĲáĥķáĥ¨ áĥķ
¡ à¸´
ä¹ ĺ
Ġé¦Ļ æ¸¯
å·¥ ä¸ļ
è° ¢
Ġåħ į
æľº åĪ¶
ªà¸¹à¸ ĩ
§à¸ ¥à¸²à¸
æĪĸ èĢħ
æŁ¥ è¯¢
æľº åħ³
Ĥà¸Ńà¸ĩà¸ Ħà¸¸à¸ĵ
ĠNe ws
æĢ Ģ
åıĤ åĬł
æ¢ °
é Ł
ĠæĬ ķ
Ġåķ Ĩ
æİª æĸ½
Ħ à¸£à¸±à¸
ä»· åĢ¼
ªà¸ Ķ
è¯ ¯
åī Ĥ
Ġs un
Ġà¤¤à¥įà¤¯à¤¾à¤Ĥà¤ ¨à¤¾
an iz
ë£ Į
Î¸ Î±Î½
ĠG es
à¥įà¤ ¬
Ġà®¤ à®µ
áĥĺáĥľ áĥĿ
Ġcon f
Ð¾ÑģÑĤÐ¾ ÑıÐ½
ÛĮ Ùģ
Ġëħ ¸
áĥĲáĥĵ áĥĲáĥ¡
Ġà¦¨à¦¤ à§ģà¦¨
Ã´ tel
ĠI talia
Ġim mer
ÙĢÙĢ ÙĢÙĢ
ĠØ¬ Ùħ
ĠÎ¤ Îµ
Ġà°µ à°¾à°Ł
ki m
Ġsu lla
ĠÎ» Î¿Î³
ìŀħ ëĭĪëĭ¤
à¯ģà®Ł à¯Īà®¯
Ġn Ã¡s
ÏĢ Î¿ÏħÏĤ
Ġ×Ķ× ĸ
ĠÑģÐ² ÑıÐ·
ction s
Ġà§ ·
Ġà¦Ńà¦¾à¦° à¦¤
ãĥ ł
ĠtÉĻÅŁ kil
Ġada lah
à¥ĩà¤Ĥà¤ Ĺà¥ĩ
ou w
Ġdal Å¡ÃŃ
n os
Ïĥ ÎºÎ¿
om men
Ġà¦ªà¦° à¦¿à¦ļ
áĥĲáĥĽ áĥĲáĥłáĥĹáĥļ
Ãª m
Ġ Ćą
«à¸¥à¸ ±à¸ģà¸
åİŁ åĽł
à¤§ à¥Ģ
à¯Ĭ à®´
ĠÑĢ Ñĭ
ĠÙĬ Ùħ
Ġj ue
Ġzna j
ĠÙĤ ÛĮÙħØª
Î¬Î½ Î¹
Ġnom bre
áĥ£áĥļ áĥĺáĥ¡
ÐµÐ½ÑĤ ÑĢ
ĠØ¨ ÛĮÙĨ
ĠÎ¿Î¼Î¬ Î´Î±
×Ļ× Ĵ
at ti
à°Ł à°Ĥ
Õ ©
ÉĻ lÉĻri
Ġpr osti
Ġgr an
Ġge Ã§
Ġà¦ī à¦¦
Ġb Ã½
Î¹Î½ Îµ
à´ µ
Ġà¤¶ à¥ģà¤°
ÐµÐ½ÑĤ Ð°
Ġà¤ħà¤¸ à¤¾
ich er
á»¥ c
d Äħ
ti ng
ãģ Ń
Ġà°µà±įà°¯ à°µ
Ð¼ ÐµÑģÑĤ
à§ĭ à¦ļ
Ġáĥ£áĥ łáĥ
ÏĢÎ¿Î¯ Î·
ãĤ »
re i
Ġpor que
Ġc ada
à¦¦ à¦¿
ĠéĿ ŀ
Ġçİ° åľ¨
ç§¯ åĪĨ
Ľà¸£à¸°à¸ ģ
å»º ç«ĭ
èĥ½ æºĲ
à¨¤ à©ĩ
Ġà¤ªà¥įà¤° à¤µ
áĥĲáĥ¬ áĥ§áĥķ
Ð°Ð»ÑĮ Ð½Ð¾Ð³Ð¾
ay an
Ġsemp re
Î» Î±Î¹
Ġà®ªà¯Ĩ à®£
Ġdo da
à®µ à¯įà®µ
ĠáĥĿ áĥĹ
Ġà°ħà°§à°¿à°ķ à°¾à°°
ĠÐ¸ ÑģÐº
Ġ×ķ ×ľ
I C
Ġpro p
ĠØ¢ Ø¨
ĠÎķ Îļ
ÏĦ Î¯Î±ÏĤ
el n
p ra
el s
ĠfÉĻ al
Ġà¤ªà¥ģà¤² à¤¿à¤¸
áĥłáĥ Ľ
ĠV iá»ĩt
ĠÎĵ Îµ
ĠÎķ Î¹
ÑĢÑĥ Ð¶
Ġc ao
Ġà°ļà±Ĥà° ¸
ĠÙģ Ùī
ĠÏĢÏģÎ¿ ÏĬÏĮÎ½
c ont
jÄħc ych
Ø±Ùĥ Ø©
ĠResp ublik
ĠÏĢ Î»Î®
Ġm ÉĻh
ãĥ Ł
ĠÑģÐ¾ Ð¾Ð±Ñī
Ġg Ã©nÃ©
Ġà¤ĺ à¤°
à§ģ à¦¤
à°¾à°¬ à°¾à°¦
Ġà°ħà°¨ à±ĩ
áĥĺ áĥĶáĥļ
ĠëĲ ĺ
b or
Î²Î¿Î» Î®
ĠÎºÎ± ÏĦÎ·Î³Î¿
à¯Īà®¯ à®¾à®©
ĠØªÙĪ Ø³
Ġtiem po
Ġj in
on i
é¦Ļ èķī
Ġ ä¹ħä¹ħ
à´ ¸
à´ ²
Ġà¤¹à¥ģà¤ Ī
Ġáĥ¡áĥĲáĥĻ áĥĺáĥĹáĥ®
Ġde ze
Ġà°īà°¨à±įà°¨ à°¾à°¯à°¿
×ķ× ļ
Ġáĥŀáĥł áĥĿáĥĴ
Î³ Î¿Ïħ
ĠÐ¼Ð°ÑĤ ÐµÑĢÐ¸
Ġl ie
ĠÐ¿Ð¾Ð¼ Ð¾Ñī
Ġngh iá»ĩ
Ġy Ä±l
ĠáĥĽáĥ¡áĥĿáĥ¤áĥļ áĥĺáĥĿ
iyy ÉĻti
k ÅĤad
à¦¹ à¦¾à¦°
li g
ÙĨ Ø³
ÏĦÎ± ÏĥÎ·
à´¿à´ ¯
Ġà¤¹à¥ĭà¤Ĺ à¤¾
ãĥ³ ãĥĪ
ģà¸ ¤à¸
èĦ ¸
è¶ £
ĠçĤ ¹
Ġä»Ĭ æĹ¥
âĸ¡âĸ¡ âĸ¡âĸ¡
Ġà¤® à¤¤
Ġuns er
ĠÑģÐ¿ Ð¾ÑģÐ¾Ð±
Ġju ga
ĠÏĦ ÏĮÏĦÎµ
ĠíĮ Į
Ħà¸ ĩà¸
çĶ ¢
è¾¾ åĪ°
è´ ¥
à¥ĭà¤ ¹
it t
Î¸ ÎµÎ¹
Ø§Ø² ÛĮ
ÎµÏħ ÏĥÎ·
Ġ rze
æĲ ľ
æ³ķ å¾ĭ
å¼Ģ åı·
Ġéĺ ¿
è¶ħ è¿ĩ
Ġà¸ªà¸³à¸« à¸£à¸±à¸ļà¸
«à¸ §à¸±à¸
åħ± åĲĮ
à¹Ģà¸Ļà¸ ·à¹Īà¸Ńà¸ĩà¸
¹ à¸Ļà¸
Ġ ä¼ĺ
äºĭ æĥħ
¢à¸´ à¹Īà¸ĩà¸
à¤¾à¤µ à¥Ģ
à°¿à°¨ à±į
r en
ĠP ra
Å¯ m
ĠÎł ÎŃ
Ġkh o
Ġà®ĩ à®©
áĥĿáĥª áĥĲ
åºĶ è¯¥
ç»ı éªĮ
åı· çłģ
à¹Ģà¸ Ĺà¸
è¿Ļ ç§į
Ć ãĢģ
å®¢ æľį
Ġçº¿ä¸Ĭ çľŁéĴ±
Ġà¤ļ à¤¾à¤²
Ø§Ø± Ùĥ
Ñ ĸ
Ð½Ð¾ÑģÑĤÑĮ Ñİ
ĠÏĨ Î¹
Ġa ch
Ġtut to
Ġáĥ¡áĥĲáĥĵ áĥĲáĥª
Ġ×ľ ×§
Ġë° °
ou pe
Ã¶ glich
Ġa ct
ĠÙĨØ¸ Ø±
ĠÎ¼ÎµÎ³Î± Î»ÏįÏĦÎµ
à¦°à§įà¦ ¶
Ġol ub
à¥Ĥà¤ Ł
Ġà°° à°¾à°®
à±įà°¸ à±įâĢĮ
Ġà®ĩà®°à¯ģà®ķà¯įà®ķ à¯ģà®®à¯į
Ð¿ÑĢÐµÐ´ ÐµÐ»
ĠS car
Ġl oro
ki ÅŁ
Ġs obie
Ġà°µà°¿à° ¡
ĠØ§ÙĦØª Ø¹
ãģķ ãĤĵ
Ġl et
Øª ÙĪØ§ÙĨ
Ġre la
Ð¼ ÐµÑĤ
ĠÕ Ħ
ĠtÉĻrÉĻf indÉĻn
ãĤ °
ĠÎ» Î¿Î¹
ÏĦÎ¹ Î¬
Ġáĥķ áĥĲáĥł
à±Ĩà°Ł à±į
ìĿ´ ìĬ¤
ÑĥÐ± Ð»Ð¸
Ġà¦¹ à¦¤à§ĩ
Ġ7 0
Ġà¹ģà¸ ļà¸
è¨ Ń
ä»¥ ä¸Ĭ
Ĥà¹īà¸²à¸ ĩà¸
à¹Ģà¸Ńà¸µà¸ ¢à¸
Ġï¼ģ âĢĿ
å¦ »
à¹Ģà¸£à¹ĩà¸ §
Ĺà¸ ¸à¸ģ
Ġà¤¸à¥ģà¤° à¥Ĥ
Ġm el
el i
Ø§ Ùĥ
× ¥
Ġgra tu
eit e
Ġë Ĩ
" #
§ áĥĶáĥľ
ÐµÐ½ Ð½Ð¾Ð¹
ĠÏĥ Ïī
ri g
Ġà¤ķ à¥įà¤¯
lÉĻrin ÉĻ
ĠÎ±Î¾ Î¹Î¿
Ġm y
è±¹ åŃĲ
å°¼ æĸ¯
«à¸¥à¸ ±à¸ĩ
ŀ à¸Ń
à¤° à¤£
Ġà®¤à¯Ĩà®° à®¿à®µ
ĠÐ´ Ð°Ð¶Ðµ
ĠÎ± Î¯
is Ã©
un to
ÏĦÎ® ÏģÎ¹Î¿
Ġà°ªà±įà°° à°¤à±įà°¯
rÃ³ d
ey e
ĠÄĳá» ģ
Ø¹ Ø±
í ĳľ
Î½ Î¿Ïħ
áĥĲáĥĵáĥĴ áĥĲáĥľ
Ġg ener
l Ã¤
Ġà¦® à¦¾à¦¸
ŀà¸£à¸ °
Ġ... .
æĺ¯çľŁ çļĦåĲĹ
æīĭæľº æĬķæ³¨
è´¦ åı·
à¹Ģà¸Ī à¹īà¸²à¸
à¥ĩà¤¹ à¥Ģ
à®¾à® ¨
Ġ×ŀ× ĵ
ĠrÃ© g
Ø§ÙĦ Ø©
ĠÎµ ÎºÎ±
ÑĨ Ð¸Ð¹
Ġby ÅĤo
Ġë ¡
ĠÐ¡ Ð¿
Äį et
Ġà®ī à®¤
áĥĶáĥ £áĥ
Ġà°Ĵ à°ķà±įà°ķ
Ġm ÉĻq
ĠáĥĲáĥ ĳ
ĠÐºÑĢ Ð°Ñģ
Ġè¯Ħ è®º
ľà¸´à¸ §à¸
Ġä¸Ģ ä¸ª
Ġagçİ¯äºļ æīĭæľºçĻ»å½ķ
åĬ ±
åıĤ ä¸İ
ĠåĨ Ľ
è¿Ľ ä¸ĢæŃ¥
à¸Ļ à¹Īà¸²
ĺà¸¸ à¸£à¸
Ĭ à¸Ńà¸ļà¸
Ġk8 å¨±ä¹Ĳ
çĶµèĦĳ çīĪ
Ġé ¾
à©Ģà¨ Ĩ
æŃ£ å¼ı
åĲĦ ç§į
à¹ĥà¸ Ħà¸£
ĠI P
Ġà°Ĺà±ģà°° à°¿à°Ĥà°ļà°¿
çĳ ŀ
Īà¸°à¸ ¡à¸µà¸
éĹ ľ
åĢ Ł
à¨¾à¨ ¨
à¹ģà¸£à¸ ģà¸
àª µ
å¤§ ä¼ļ
Ġagå¹³åı° å®ĺç½ĳ
Ġà¤¹ à¤ľ
Ġte j
p en
Ġà¦¬ à¦¾à¦°
ÐºÐ° Ñħ
Ġáĥł áĥĲáĥĵáĥĴáĥĲáĥľ
Î¿ Î´Î¿
Ġgi bt
ĠØ§ Øµ
ĆĈ ï¼Į
5 4
ĠçĶ± äºİ
ĠæĹ¶ æĹ¶å½©
ģà¸²à¸ ¨
à¹Ĩ à¹Ĩ
ç½ ļ
Ġà¤µ à¥įà¤¯à¤ķà¥įà¤¤
ĠÃ§ ÉĻk
ĠK o
Î¹ÎºÎ¿Ïį ÏĤ
ĠÙĪ Ø³
Ġáĥ¡áĥĲáĥ Ń
r it
à®¤ à¯ģà®®à¯į
à¦°à§įà¦ ľ
Ġà°¸ à°Ĥà°¦
ĠÑģ ÑĥÐ´
Ġla t
Ġìĺ¤ íĶĦíĻĶìĿ´íĬ¸
Ġë¬ ´
ĠÎŃ ÏĦÏĥÎ¹
Ġà®Ĩ à®¯
ãģ« ãģ¯
ÎĻÎ£ Î¤
ĠÎ´ ÏģÎ±
Ġáĥĺ áĥĹ
ĠÑıÐ² Ð»ÑıÐµÑĤÑģÑı
b s
ĠUU å¿«ä¸ī
¥à¸ Ķà¸
à¸Ńà¸¢à¸¹à¹Ī à¹ĥà¸Ļà¸
ª à¸Ńà¸ļà¸
¨à¸²à¸ªà¸ ķà¸£
§à¸´à¸ Ĺà¸¢
Ġà¤¯ à¥ĩà¤£
Ä ı
ĠÙ¾ Ø³
ĠÃ§ alÄ±ÅŁ
Ġà¤Ł à¥įà¤°
à¦¾à¦ ·à§įà¦Ł
Ġáĥł áĥĲáĥ¡
ĠØ§ÙĦØ º
íĥ Ŀ
il itÃ©
Ġ×Ĳ ×Ĺ
Ġg dy
ur ante
ĠÎ§ ÏģÎ¹Ïĥ
Ïĩ Ïİ
Ġg ar
ĠÄĳá»ĵ ng
Ġà°¨à°¿à°° à±įà°µ
ĠvÅ¡e ch
Î¼ ÎŃÏĤ
Ġin tÃ©r
áĥĿáĥķ áĥĲáĥľáĥĺ
Ġà°¹ à±Ģà°°
à¯ģà® ¨
à±ģà° ·
Ġil dÉĻ
Î¬Î½ ÏĦÎ·ÏĥÎ·
Ġì Ī
ĠÎºÎ± Î¸Î·
à§ĩà¦ ¹
Ġà®¨ à®¿à®©
aus s
Ġà°®à°¾à°Ł à±įà°²
ca tion
ĠÐ¿ÑĢÐ¾ ÑĦ
ĠÎł Î¬
ĠáĥĿáĥłáĥĴáĥĲáĥľ áĥĺáĥĸ
dÄĽ l
Ġm al
Ġà¦ª à§ģà¦°
Ð¿ ÐµÑĢ
Î»Î» Î¿
Ġà¤ļ à¥ģà¤¨
á»ĳ t
ĠÚ© ÙĦ
ĠÏħÏĢÎ¬ÏģÏĩ Î¿ÏħÎ½
t ung
èĳ £
à¸£à¸±à¸Ĳ à¸
å»º çŃĳ
Ġæ¾³éĹ¨ æĸ°
à¤¯ à¥ĩ
Ġgi bi
Ġw orden
Ġà®ª à¯Ĥ
Ġà´ ¨
Ġà¤µ à¥ĩ
ĠÐ» Ð¸
Ġáĥ¡áĥĲáĥ£áĥ Ļ
Ľà¸£à¸°à¹Ģà¸Ĺà¸ ¨à¸
ķà¸ ³
Ġáĭ ¨
ļà¸ ±à¸Ļà¸
Ġà¤® à¤§à¥įà¤¯à¥ĩ
Ġdz iaÅĤ
ìĹĲ ê²Į
Ġà¦¸ à§įà¦Ł
ĠE x
ra tion
Ð¸Ð± Ð¾
Ġa by
Ø¯ Ø¯
×ĺ ×¨
à±Ĩà°ķ à±įà°Ł
ÎµÎ¯ ÏĦÎµ
Ġà°ĩ à°Ĥà°ķ
Ġp ubb
Ã©r ie
ĠÑĩÐµÑĢ ÐµÐ·
u kan
ĠÎ£ ÎµÏĢ
Ġf ar
ĠØ§ÙĦ Ø²
áĥĲáĥ¡ áĥĺ
ÏĢÎ¿Ïħ Î»Î¿ÏĤ
Ġch er
Ïĩ ÎŃÏĤ
à¯Īà®¯ à¯ĩ
Ì £
uy á»
Ġìł Ģ
Ġáĥ¥áĥĲáĥłáĥĹ áĥ£áĥļáĥĺ
Ġáĥķ áĥĺáĥĵ
ĠÐ¸ Ñģ
ĠØ³ Ø§Ø®Øª
Ġs ia
il idad
d t
ÅĤu g
il s
ĠÎ»ÏĮÎ³ Ïī
Ġà®İà®´ à¯ģà®¤
Ġe qu
à§ĭ à¦·
ĠÐ¾ Ð½Ð°
i tion
Ġáĥŀáĥł áĥĶáĥĸ
ÉĻn i
Ġà®ħà®± à®¿à®µ
áĥĲáĥ¥ áĥķáĥ¡
ĠáĥĽáĥĺ áĥĺáĥ¦
ÑĢ Ð¾Ñģ
á»ĳ n
ĠÙĪ ÙĤ
Ġre aliz
Î´ Î·ÏĤ
ãĤ ª
Ïĩ Î¿ÏĤ
ç¢ °
Ġà¤īà¤¨ à¤ķà¥ĩ
Ġà¤¶ à¤¹
lar da
ì »
ĠÐŁÑĢ Ð¸
di tion
Ð¸ÑģÑĤ ÑĢÐ°
à¦¿à¦Ł à¦¿
Ġj eszcze
ĠíĶ Ħ
ĠÎŃ Î³
ti cas
ĠÐ¶ ÐµÐ½
Ġd ro
ĠÐ¡ Ð
ĠáĥŀáĥłáĥĿ áĥĶáĥ¥áĥ¢
Ġáĥŀáĥĺáĥłáĥķ áĥĶáĥļ
ĠØ§ÙĦÙħ Ø´
Ġ×ķ ×ĳ
Ġa tti
à®ķà¯įà®ķ à®®à¯į
Ã į
Ġ ÅĻÃŃ
ar beit
ĠÎº ÏģÎ¯
Ġà°ľ à°Ĺ
à±ĥ à°¤
c ri
is me
Ġà¦Ĩ à¦¶
à®¤à¯įà®¤ à®¿à®¯
Ġà¤µ à¤¾à¤ªà¤°
ĠÑĢ Ð¾Ð´
Î¶ Î¿ÏħÎ½
áĥĶáĥłáĥ ¢
an cia
r Ã¤
ka ch
Ø§ÛĮ ÙĦ
Ġmá» Ľi
Ø Į
Ġq eyd
ĠÑĤ Ð¾ÑĢ
ìĭ ¬
f ach
r an
à§ĩà¦® à§įà¦¬à¦°
áĥĶáĥľ áĥĵ
Ġà®ī à®²à®ķ
ĠÏĥÎ· Î¼Î±
o re
Ö ¼
×ľ ×Ļ×Ŀ
à¦¦ à¦¿à¦¨
Ġáĥ¡áĥĲáĥ ŀ
ĠÑĥÑģÑĤ Ð°Ð½Ð¾Ð²
ĠÄ° s
Ġà¤¬ à¤¡à¤¼
à°² à°Ĥ
à§įà¦ Ń
Ġê³ Ħ
Ð¾Ð± Ð°Ð²
da de
Ġl ors
ãĤ §
em e
ĠáĥĽáĥĲáĥĹ áĥĺ
ÉĻy i
ĠÐŁ Ð¾Ñģ
ĠØ° ÙĦÙĥ
Ġn Ãªn
Ġv Å¡
ÏĦÎ¯ Î¿Ïħ
Ġan der
g no
Ġmi esz
Ġà°ı à°°à±įà°ª
ĠÏĨ Î¯
à¥įà¤Ł à¤°
ĠB aÅŁ
ch Ã©
bi h
Ġd ÃŃa
ĠÙģÛĮÙĦ Ùħ
ĠÎ· Î»ÎµÎº
Ġs enza
ìĹ Īëĭ¤
ĠáĥĽ áĥĺáĥ£áĥ
ab ilir
à°¤ à±įà°¸
ĠÐ´ Ð¸
ĠC zy
ĠØ¯ ÙĪØ±
ĠÎĺÎµ ÏĥÏĥÎ±
Ġ201 1
ĠÏĢ Ïħ
Ġà®ĩ à®ªà¯įà®ª
Ġsp ra
à¤¿à¤ Ĺ
Ġna d
ĠÐ½ÑĥÐ¶ Ð½Ð¾
à¦¿à¦¬ à¦¾à¦°
o ra
ee ft
Ġà®ªà¯ĭ à®Łà¯įà®Ł
×ĵ ×Ļ×Ŀ
Ġse Ã§
Ġà¦ķà¦° à§ĩà¦Ľà§ĩà¦¨
Ġha ce
gli o
ĠÐ¿Ð¾Ð· Ð²
ÏģÎµ Ïį
Ġhab e
Ġjed no
à®£à¯įà®Ł à¯ģà®®à¯į
æ¬¢ è¿İ
éĺ µ
Ľà¸£à¸ °
æ¸¸ å®¢
Ġæ ¡
łà¸ ¹à¸
Ġ2 28
éĢ Ķ
ŀ à¸Ńà¸
Ġåľ¨ çº¿
Ġà¹Ģà¸¡à¸ ·à¹Īà¸Ń
æł¸ å¿ĥ
åĵª äºĽ
ķà¸±à¸§ à¹Ģà¸Ńà¸ĩ
ä¸ĭè½½ å®ĺæĸ¹ç½ĳç«Ļ
åĩ¡ åĵį
Ĺà¸± à¹Īà¸§
è§Ħ æ¨¡
à¤² à¥įà¤¯à¤¾à¤
Ġdies e
Ġde puis
i an
Ġà¦ļ à¦¾à¦²
Ġáĥĺáĥ§ áĥĿáĥ¡
à¥ģ à¤¦
Ð¸ÑĤ ÐµÐ»ÐµÐ¹
Ġcom un
Ïĥ Î¿Ïħ
Ġq ÉĻb
Ø¨ ÙĨ
à°¡ à°Ĥà°¤à±ĭ
ĠÏĨÏī ÏĦÎ¿
ÙĨ Ø¬
Ġà°¨ à°¿à°²
Ġãģ Ĭ
Ġthe o
Ð°Ð»ÑĮ Ð½Ð¾
ĠÏĥ Î±
Ġg en
i de
Î³ ÎŃÎ½
à§ĩà¦ Ĺ
ĠÐ¾ÑĤ Ð²ÐµÑĤ
ãĥ ĳ
Ġje ho
ni ng
Ġà®ª à¯ĩà®°
Ġìļ° ë¦¬
ĠØ§ÙĦÙĬ ÙĪÙħ
ĠÐ³Ð¾Ð´ Ñĥ
ÏİÎ½ ÏĦÎ±ÏĤ
Ġà°¸à°Ĥà° ¬
szy ch
ĠáĥĴ áĥĺáĥĿ
ĠáĥĲáĥ¦ áĥľáĥĺáĥ¨áĥľ
Ġà¤¸à¤¿à¤Ĥà¤ ¹
à´ £
åľ¨çº¿ è§Ĩé¢ĳ
à¤ª à¥Ģ
ĠØª ÙĪÙĦ
Ġs ÉĻr
ar ro
Ġpu Ã²
ĠÎ± Î»Î»Î±
Ġ×ŀ× Ľ
ĠÃ©g alement
Ġà®® à®£
Ġëĺ Ĳ
ĠØ®Ø± ÛĮØ¯
ĠÎĶ ÎĹÎľ
á½ Ĳ
Ïĥ ÏīÏĤ
à¥Ĥà¤ ®
ĠØ§ÙĨ Ø¬
ĠV y
ĠK on
ÙĬ ÙĪ
Ġprosti tutas
Ġemp res
cz nych
at Ä±
ĠÎĻ Î±Î½
Ġà°ª à±Ĥà°°à±įà°¤
ar on
áĥĵ áĥĺáĥļ
co ra
ÎµÏĢ Î¹Ïĥ
Ġ ä¹łè¿ĳå¹³
åİĭ åĬĽ
±à¸Ļà¸ ĺ
åħ¨ å¤©
ļà¸ ±à¸Ļ
ķà¸ ±à¹īà¸ĩà¸
ĠãĢģ ï¼Į
Ġæİ ¥
à¹ĩà¸ ¡
ĺ à¸´à¸
éĽ ħ
à¹ĥà¸ ķ
7 3
à¸£à¸´à¸ ¡à¸
à¥ģà¤ķ à¥įà¤¤
à¦¾à¦ĩ à¦¨
c Ã³w
Ġà®ª à®¾à®Ł
ĠÐ¿Ð» Ð°Ð½
ĠÄį er
à¯įà®Ł à¯į
Ġm ir
l in
ĠÎ¬ÏģÎ¸ ÏģÎ¿
Î» ÎµÏĤ
Ġà°®à°¾à°Łà±įà°² à°¾à°¡
ÐµÐ½ Ð¾
it el
à§ĭ à¦ª
ĠÏĢÎ±Î¹ ÏĩÎ½
f a
ļà¸²à¸ Ħà¸²à¸£
Ĭà¹Īà¸§à¸ ĩà¸
è¿Ĳ èĲ¥
æ¬§ ç¾İ
ä¸ĭ çļĦ
áŀ ĵáŀ
è¿Ļ æł·
à¹Ģà¸ ļ
åħ §
Ġag æ£ĭçīĮ
à¤¾à¤° à¤ĸ
Ø§Ùģ Ø©
áĥ£áĥłáĥ ķ
ãĤ ¨
Î¿ ÏĢ
ĠÕ ©
ĠÅŁ ÉĻhÉĻr
ĠØ Ľ
à¤ķà¥įà¤· à¤¾
im mer
anÃ§ ais
Ġin s
Ð¼ Ð¸Ð½
Ġv las
ÏĢÏĮ Î½
ĠÏĨ Ïį
Ġà®µ à®ķ
ĠÐł Ð°Ð·
ìĺĪ ìķ½
ìłģ ìĿ¸
ĠáĥĽ áĥ¬
à¥įà¤² à¥Ģ
ĠÐ¼ Ð¸ÑĢ
ĠDe utsch
cz ny
Ġc Ã¡ch
à¥įà¤Ł à¥Ģ
à°¿à°Ĥà° Ł
áĥĲáĥł áĥĶáĥĳáĥĲ
ĠØ´ ÙĨ
ÏĮÏĦÎ· ÏĦÎµÏĤ
Y W
Ġd nia
Ġk an
Ġ×ŀ× ĳ
Ġun o
à¦¦à§įà¦ ¦
ĠH e
Ġà´ ħ
à¤¨ à¤²
Ġl iv
ĠâĢ ¢
Ġpr os
áĥķáĥĶáĥļ áĥĺ
Ġa insi
ĠÎ±Î½ Îµ
Ð¸Ðº Ð¾Ð²
Ø§Ø¹ Ø©
sch en
Ġà¦ ł
ym i
Ġby l
à¤°à¥įà¤ ¸
à¯Īà®¤à¯įà®¤ à¯ģ
ĠØª ÙĨ
Ġà°µ à±ĩà°
Ġcomm un
ĠáĥĴ áĥĲáĥĴ
ĠÐ³ Ð»
Ġ ãģ¨
Ġkull an
Ïĥ ÏĮ
Ġk Ã¶
Î»Î¿Î³ Î¹Ïĥ
à¦¿à¦ §
Ð°Ð»ÑĮ Ð½ÑĭÐµ
ĠÃ©qu ip
áĥĿáĥª áĥĺ
c co
áĥĲáĥļ áĥĵ
ĠÎµ ÏĢÎ¿
Ġà®ķà¯Ĭ à®³à¯įà®³
Ġà¤ķà¤° à¤¤à¤¾
Ġbu en
Ã µ
Ġ×ŀ× ¦
ÑĢ Ð°Ð±Ð¾ÑĤ
ì ¶ľ
go d
Ġmo ins
at ta
ĠÐ· Ð°Ð½
ĠK om
Ġ ÏĪÎ·
áĥ£áĥłáĥľ áĥĲáĥļ
Ġáĥĵ áĥĲáĥ®
ĠÙħ Ùĩ
tiv os
Ġ ÏİÏģÎ±
Ġà¦ħ à¦§
Ġh eeft
Ġac qu
ĠM Ã¼
Ġà°¦ à±ĩà°µ
áĥķ áĥĹ
à¤³ à¥Ģ
ĠB es
Ġà°¨ à°Ł
Ġà°° à±Ĥà°ª
Ġà¤ħ à¤ļà¥įà¤Ľ
Ġíı ī
ĠØ® ÙĦØ§ÙĦ
Ġth áº¿
Ġna bÃŃ
ÑĨ ÐµÐ²
ãģ§ ãĤĤ
p rze
ÏĦ ÏīÏĤ
dad es
ka t
Ġà®ĩà®° à¯ģà®ªà¯įà®ª
Î¾ Î±Î½
à°¸ à±įà°¥
è· ¨
à¹Ī à¸Ńà¸ĩ
ĠĈ ĈĈ
Ġg 22
7 1
åĮ» éĻ¢
Ġà¤µ à¤°
kiÅŁ af
ĠØ§ Ø®
Ġê³ ¼
×Ļ×¨ ×ķ×ª
Î³ Î¬Î»
Ġà¦Ĩ à¦¨
áĥĶáĥĳáĥĶáĥļ áĥĺáĥĲ
sch ie
Ġme ille
ĠÐ¿Ð¾Ñģ Ð»ÐµÐ´
j m
id ent
Ġy Ã¼k
ĠÎ¬Î»Î» Î¿
et t
ĠÙħ Ø§Ùĩ
Ġà¤® à¤¾à¤®
ãĥ Ĭ
Ġà§ ®
Ð¿ Ð¾Ð»
æ· ·
à¹Ģà¸¥à¸·à¸Ńà¸ ģà¸
6 3
æĢİä¹Ī çİ©
æ£Ģ æŁ¥
ç»ı èĲ¥
£ áł
å± ĭ
à¥ «
à°² à±ĩà°¦à±ģ
Ġas ÃŃ
= >
ĠÏĢÎµÏģÎ¯ ÏĢÏĦÏīÏĥÎ·
Ġà¦¨à¦¿ à¦°à§įà¦
ĠPar is
ĠM er
ª à¹Īà¸ĩ
· áĢ
ĠãĢģï¼Į ãĢģ
äºĮ åħ«
Ġà¤¯ à¤¾à¤Ĥà¤ļà¥įà¤¯à¤¾
ĠáĥĽ áĥ£áĥ¨
à¤ķ à¥ĭà¤Ĥ
ĠÙĪ Ø¹
ra is
Ġsu a
ĠÂµ Îµ
ĠÎ¼ÎŃ ÏĥÏī
Ġcon tre
d ou
Ġìĺ ¨
Ġl ib
Ġs to
Ġà®ª à¯ģà®°
Ġáĥĸ áĥĿáĥĴ
ćĈ ï¼Į
ĺ à¸Ń
ªà¸ ·à¹īà¸Ńà¸
çİ ī
ä½ł çļĦ
Ġagè§Ĩè®¯ å¹³åı°
æĪĲ ç«ĭ
ä¿Ŀ éĻ©
ģà¸²à¸ ¨à¸
Ġà¤ľ à¤¾à¤Ĺ
à°¸ à±įà°¸
ĠR us
Ø¯ Ø§
Ã Ģ
ĠÃ £
Ġc Ã²n
es ab
Ġ' )
Ġìĸ ĳ
ĠÐ³ Ð»Ð°Ð²
ĠØ§ÙĦÙħ Ø¹
di o
ĠHo tel
Ġà°®à°° à±ĭ
ĠÎµÎ¾ Îµ
à¤ķ à¤¾à¤°à¥Ģ
Ġr Ã³Å¼
à¯ĭ à®ķ
Ġà¦ľ à§Ģà¦¬
Ġm ein
ÑĭÐ¼ Ð¸
Ġa Ã±o
à°ķ à°¾à°¶
íķ© ëĭĪëĭ¤
di g
ãĥ ĵ
ÎĻÎ ¡
ĠÎ¿ Î»Î¿
ia le
Ġà¤ħ à¤µ
à®¿à® ªà¯į
ĠÎµ Ïį
ĠØ¨ Ø³ÛĮ
k ÉĻz
ĠÐ¾Ð±Ð»Ð°ÑģÑĤ Ð¸
×ķ×ł ×ķ×ª
à¦¿à¦ ¹
Ġà°ļ à±ĩà°°
tor ia
ar t
Ġp eng
ĠØ¨ Øª
ĠpÅĻ es
ĠÐĺ Ð·
Æ°á» Ł
Ġà®ķà¯Ĭà®£à¯įà®Ł à¯ģ
Î¹Î¿ Î½
Ġáĥ¥áĥĲáĥļ áĥĲáĥ¥
ÐµÑĢ ÑĪ
am iento
ue lle
Ġà¤«à¤¿à¤² à¥įà¤®
Ġd y
à¥ĩà¤¨ à¥ĩ
à°ªà±įà°ªà°Ł à°¿à°ķ
ĠÙĪØ§ÙĦ Øª
ÏĦÎŃ ÏģÎ±
à¯ģà®® à¯ĩ
Ã¤ hr
ÏĨ Î±Î½
Ġje j
ĠÅŁ ÉĻr
Ã¶ l
Ġ. ,
ãģ ļ
Ġsu is
ĠÎ¬Î»Î» Î±
Ð¸ Ñī
Ġl ong
Ġíĺ¸ íħĶ
à¦¾à¦ Ľ
a ti
ĠÐ³ Ð¾Ð²Ð¾ÑĢ
áĥĿáĥ ļáĥĺ
ĠØ£ Ùĥ
ĠwiÄĻ cej
Ġà¤²à¥ĩà¤ķ à¤°
×© ×ª
ĠÏĢÎ¬Î½ ÏĦÎ±
åıĺ åĮĸ
Ġk8 å½©ç¥¨
¡ à¸Ńà¸ĩà¸
88 88
Ġè İ
å¾Ĺ åĪ°
ŀà¸£à¸²à¸ °à¸
Ľà¸£à¸°à¸ ªà¸ļà¸
èĦ ļ
Ġà¸¡à¸ ±à¸Ļà¸
Ļ æ±Ł
Ġà¸ľà¸ ¡à¸
¥à¸° à¹Ģà¸Ńà¸µà¸¢à¸
æİ¥ åıĹ
Ġ/ /
Ī à¤²
ol es
Ġìŀ ħ
Ġà¤°à¤¾à¤ľ à¥įà¤¯
ĠÐ± Ð°Ð½
Î¼ Î¹Ïĥ
Ġà¦® à¦¨à§ĩ
Ã Ĵ
ĠÂ ¹
iá»ĥ u
áĥĶáĥĵ áĥĺ
Ġmay or
Ġd ru
ĠÑĢ Ð°Ð¹
Ġtem po
à¤¾à¤¤ à¤¾
à¯Ĭ à®£à¯įà®Ł
ĠØµ ÙĪØ±Øª
Ïĩ Î¹Ïĥ
âĢĮ à°¨
à°ķ à°¾à°²
Ġà®İà®©à¯įà®ª à®¤à¯ģ
ĠagåĽ½éĻħäºļæ¸¸ æīĭæľºçīĪ
à¸²à¸£ à¹Į
éĹ Ń
ĠæĬ ¥
ä¼ °
Ġäºļæ¸¸ag ç½ĳç«Ļ
çĥ Ł
ªà¸ ±à¸ĩà¸
ç§ ĭ
à¸Ńà¸¢ à¸²à¸ģ
ĠåĿ ļ
à¸£à¸¹à¸ Ľà¸
s b
Ġ à¹Ģà¸£à¸²
Ġ8 9
à¤¡ à¥Ģ
Ð°Ð¹ÑĤ Ðµ
ĠáĥĲáĥ ¤
Ġde v
ãĤ ĥ
ì ¢
à¦ ĺ
ĠÐ¾Ñģ Ð¾Ð±
ãĤ¤ ãĥĪ
Ġme er
ÙĪÙĨ Ùĩ
ĠÎĴ Î±Ïĥ
æĺ¯ åľ¨
Ġåħ ·
à¹ĩà¸ Ķ
å¸ Ŀ
é² ģ
æīĭæľºçīĪ app
æĢ§ çļĦ
lo g
Ġäºļæ¸¸åĽ½éĻħ ag
çĦ ¦
à¹ģà¸Ĥ à¹ĩà¸
å®ŀ éĻħ
çº¢ é»ĳå¤§æĪĺ
Ġà¤¬ à¥ĭà¤²
trz ym
Ġà°Ł à±įà°°
Î» Î¹ÎºÎ¬
Ġáĥĵ áĥĲáĥª
Ġtr as
ĠØ¢ÙħÙĪØ² Ø´
Ð² Ð¾ÑĢ
ÑģÐº Ð¾Ð¼
×ķ×¨ ×Ķ
ĠÖ ĩ
lla h
ĠÏĨ Ïħ
Ġáĥ¡ áĥĲáĥľ
ĠÙħ Ø·
ĠP re
à¦¾à§ľ à¦¾
l Ã¼k
Ġë§ İ
ãģĹ ãģĦ
d f
Ġp df
Ġa di
as a
Ġin forma
ķ à¤¿
¸à¸ ĩà¸
ĠçĦ¶ åĲİ
ĠæŀģéĢŁ pk10
å¿ħ é¡»
ĠagæīĭæľºçīĪ å®¢æĪ·ç«¯
à¸´à¸ ĩ
Ĺà¹Īà¸² à¸Ļ
Ġçº¿ä¸Ĭ çľŁäºº
à¥ģà¤ Ł
à¦¿à§Ł à¦¾à¦°
ĠU hr
Ø±ÙĬ ÙĤ
ĠÐ²Ñģ ÐµÑħ
Îº Î±Î¹
Ġk l
ĠD Ã©
Ġen v
Ø¨ Ø§
à§ľ à§ĩ
Ġs á»Ń
Ġ3 åĪĨæĹ¶æĹ¶å½©
Ĭ à¸Ļ
ä¸ĭè½½ app
èĭ¹æŀľ çīĪ
æĻ ĵ
10 æľĪ
±à¸ Ķà¸
ģà¸ ´à¸Ļ
æĹł æ³ķ
à¹īà¸²à¸ ¢à¸
à¤¾à¤£ à¥ĩ
ĠÎ¯ Î´Î¹Î±
áĥĲáĥķ áĥĹ
Ġà®ļ à¯ĩ
á¿Ĩ ÏĤ
Ïĥ Î±Î¹
ĠÎķ ÏĢÎ¯
Ġà¦ĩ à¦¨
ãĥ »
ãĤ ĩ
ay Ä±
Ã¡ le
ĠÐºÐ» Ð°ÑģÑģ
ÏĢÎ¿ Î½
ą ą
åı¬ å¼Ģ
Ġäºļæ´² å®ĺæĸ¹ç½ĳç«Ļ
Ġà¤ļ à¤¿à¤¤à¥įà¤°
à°¾à° ĸ
it z
im ento
ĠÅ ģ
×¨ ×Ĵ
Ġà°¯ à±Ĭà°ķà±įà°ķ
ĠÐ²Ñģ ÐµÐ³Ð¾
Ġ: )
ÅĽ nie
ĠÏĢÎ»Î· ÏģÎ¿ÏĨÎ¿
ĠØ§ Øª
Ġáĥĺáĥ¡ áĥĶ
Ġfil es
Ġm er
Ġà¤¸à¤Ĥà¤ ĺ
à§ĩà¦² à¦¾à¦°
ier ung
Ġà®µ à®¿à®Łà¯įà®Ł
k ol
ĠÎŁ Î¹ÎºÎ¿
Îº ÎµÏĤ
ĠáĥĿ áĥłáĥĺ
à§ ¨
Ġà®ĩà®°à¯ģà®¨à¯įà®¤ à¯ģ
d c
Ġà¤ł à¤°
ĠÐ ®
Ġà¤Ĩ à¤Ī
c al
Ġst an
à§įà¦² à¦¾à¦¹
à¦¾à¦ĩ à¦²
Ġver ir
ĠÎµÎ½ Î´Î¹Î±
Ġà¤¬ à¤ļà¥įà¤
Ġc ent
ĠÎ±Î½ÏĦÎ¹ Î¼Îµ
± ħ
ÐµÐ³Ð¾Ð´ Ð½Ñı
hl en
áĥ¯ áĥĲáĥ®
ĠÎºÎ± Ïģ
ch od
dÄ± m
iá»ĥ n
ä¿ĥ è¿Ľ
à¤¾à¤² à¤¯
ce p
à¯Īà®ķ à®³à¯Ī
Ã¼s us
ĠÏĥÏħ Î¼ÏĢ
Ġáĥł áĥĿáĥªáĥĲ
íķĺ ìĹ¬
ÙĪ Ùī
ĠH indi
¦ à¤¾
ĠÐ² Ð°Ð¼
Ġpr v
ĠØªÙĪ Ø§ÙĨ
Ġà¦ħ à¦ªà¦°
ĠáĥĲáĥłáĥ¡ áĥĶáĥĳ
æĲ Ń
à¥įâĢį à¤¯
Ġs el
ĠÎº ÏģÎ¬
ãģª ãģ©
ti tu
×Ļ× ĸ
ĠæĶ ¿
ģ áĢ
Ġs b
å¹´ æĿ¥
ä¼ĺ åĬ¿
Ġå¤ ª
à¸Ļ à¹īà¸Ńà¸¢
Ġç² ¾
å¾ Ħ
¥à¸ ±à¸ĩ
Ġå¦Ĥ ä½ķ
æıĲ çİ°
Ġà¤Ńà¤¾à¤ľ à¤ª
à¹Ħà¸ «à¸Ļà¸
«à¸¡à¸²à¸ ¢
Ġà¤ħà¤¶ à¤¾
ĠÑģ ÐµÐ¼
er s
ĠÙĪ Ø±
zion ale
i da
à§įà¦¯ à¦¾
íĭ °
Ġà®µ à®³
ÐµÑģÑĤ Ð¸
os e
Ġáĥ¨áĥĶáĥĽáĥĹáĥ®áĥķáĥĶáĥķ áĥĲáĥ¨áĥĺ
ĠÎ± Î´
ØŃ Øª
ĠÏĥ ÏĦÎ¬
Õ¡Õ ²
ĠN az
Ġo hne
Ġc an
u jÃŃ
ĠÎ±Ïħ ÏĦÎ¿Ïį
à¹Ģà¸Ļà¸ ·à¹īà¸Ńà¸
ļà¸²à¸ ¢
à¥įà¤ ł
Ġ" ,
ĠØ¢ Ø²
ta ire
à¦¿à¦· à§įà¦ł
Ġes to
Ġpra cy
à®¿à®ķà¯įà®ķ à®ªà¯įà®ªà®Łà¯įà®Ł
Ã© tÃ©
ÏĥÏĦ Ïħ
æĽ´ åĬł
éĩ Ĭ
å® Ĺ
Ġáģ ĭ
ä»Ĭ å¹´
à¤µ à¤¾à¤¦
Ġt a
is sen
áĥĶáĥĹ áĥ¨áĥĺ
ĠÙħØ¯ ÛĮØ±
Ġà¦¨ à§Ł
àµįà´ ¯
Ġà¤ļà¤¾à¤¹ à¤¿à¤ı
Ġvi da
Ġd ont
ĠØŃ Ø³
Ġa ÄŁ
Ġs zy
ĠÏĩÎ±ÏģÎ±Îº ÏĦÎ·
ĠëĮĢ íķľ
Ġà¦¦ à§įà¦¬
Ġáĥł áĥĿáĥĵáĥĶáĥ¡
Ġæ¹ ĸ
à¹Ħà¸ Ĺà¸¢à¸
àª ķ
àª ®
æī ĳ
ķ à¸Ńà¸Ļà¸
Ġæĸ ¹
æĬ ĺ
åĪ© æĿ¥
Ġà¸Ńà¸ µà¸
Ġagäºļ éĽĨåĽ¢
ä¸» ä»»
à¹Ģà¸ª à¸µà¸¢à¸
à¤¾à¤Ĥà¤ ķ
ĠØŃ Ø§ÙĦ
Î³ ÏīÎ½Î¹Ïĥ
Î½Î¿ Î¯
ÑĤ Ð°
Ãº b
à°Łà±įà°Ł à±ģ
×Ļ×¨ ×Ķ
à°¦ à±įà°§
á¿ ĸ
ĠÏĢÎ¿ Î»Î»Î¬
Ġá į
è· Ŀ
åħ¬åĬ¡åĳĺ èĢĥè¯ķ
à¹Ħà¸ «à¸Ļ
Ġå¤§åıĳ åįģ
æľĢ å¤§
ŀà¸ ±à¸ģà¸
Ġ î
U U
.... ....
Ġà¤ª à¤ķà¥įà¤·
Ġw eiter
Ġà®İ à®Łà¯ģà®¤à¯įà®¤
Ġpe w
Ġb el
ÙĬ Ùĩ
Ġ ÅĻe
j ours
Ġhaqq Ä±nda
Ġperson as
Ġog ni
ĠP a
ĠÐ¿ Ð¾Ð»ÑĮÐ·
ĠåĪĨ åĪĨå¿«3
è¿ ª
çļĦ æĸ°
Ľà¸¥à¸µà¹Īà¸ ¢à¸Ļ
Ġagäºļæ´² éĽĨåĽ¢å®ĺç½ĳ
å®¶ åºŃ
±à¸ Ķ
Ġpoker stars
Ġ à¸£à¸§à¸¡à¸
å¸ ĮæľĽ
è°ĥ æķ´
ä¸ĭè½½ å®īè£ħ
§à¸²à¸ ĩ
éģ ¿
à¥įà¤¯à¤¾à¤Ĥà¤ ¨à¤¾
Ġm ie
Ïİ ÏĥÎµÎ¹ÏĤ
Ġà®¤à®®à®¿à®´ à¯į
Ġà®¤ à¯Ĩ
Ġìķ Į
Ð°Ðº ÑĤÐµÑĢ
ĠP r
ĠÏĢÏģÎ±Î³ Î¼Î±ÏĦÎ¿
à¶± à·Ĭ
Ġà¤¦ à¥Įà¤°
ĠáĥłáĥĿáĥĽáĥļáĥĶáĥĳ áĥĺáĥª
Ġà°¦à±įà°µ à°¾à°°à°¾
ÙĬ Ùĥ
e ur
ãģ¾ ãģĽ
æŀ ª
à¹Ģà¸ķ à¸Ńà¸£à¹Į
à¸Ńà¸ ´
áŁĭ áŀ
å½¢ æĪĲ
ģà¸²à¸£à¸ ĵà¹Įà¸
èĲ½ å®ŀ
ļ à¹īà¸²à¸ĩ
èĭ ¦
ŀà¸´ à¹Īà¸¡à¹Ģà¸
Ġçĸ ¯çĭĤ
ĠæĲıå¤©åłĤ 918
èĢ ³
æĢĿ æĥ³
Ġä¸į è¿ĩ
Ġå¢ ŀ
Ġà¤Ĩ à¤²à¤¾
Ð¸ÑĤ Ð¾ÑĢ
Ġd á»±
Ø§Ø± Ø§ÙĨ
ÏĥÎºÎµÏħ Î®
Ġfiles _
t ant
Îº ÎŃÏĤ
ÑĢ Ð¾Ð¿
à®Ļà¯įà®ķ à¯ģ
Ú© Ø±
Ġg ro
×ŀ× ł
ĠÏĩ ÏģÎ¿Î½
à¹Ģà¸ Ħà¸£à¸·à¹Īà¸Ńà¸ĩà¸
Ġà¥ «
Ġn ÉĻti
Ġa Ã§Ä±
Ġà¦¸ à¦¾à¦§
áĥ¡áĥĲáĥ® áĥ£áĥł
Ġpom o
ĠØ¨ Ùħ
ĠÏĥÏį Î¼ÏĨÏīÎ½Î±
ŀà¸´à¹Ģà¸¨à¸ ©
Ġåħ Ī
è§Ħ åĪĴ
Ġà¤¤à¥įà¤¯à¤¾à¤Ĥà¤ ļà¥įà¤¯à¤¾
Ġre p
à¯ģà®± à¯Ī
Ġà¤¬ à¤¢à¤¼
Ïħ Î¼Î±
ĠD ans
p f
áĥ¡ áĥĺ
Ġcon tra
Ñı Ñģ
Ġpra c
Ġà°ħ à°¦à°¿
Ġge w
ar zy
ĠÃ ´
ĠÎŃÏĩ Î¿ÏħÎ¼Îµ
Ġà®ħà®µ à®°à¯įà®ķà®³à¯į
ĠÐ¼ ÐµÐ´
ĠÏĥÏħ Î½Î±
ĠM ÉĻn
Ġg er
ĠÙĦ Ùĩ
áĥĶáĥł áĥĺáĥĿ
ëħ Ģ
à¥įà¤° à¥ĩà¤¸
Ø´ ÙĪØ¯
ĠÎ¿ ÏįÏĦÎµ
Ġc ie
à¥ĩà¤ ¯
ë¥ ¸
Ïģ Î±Î¹
ĠÑģÐ¾ Ð¾ÑĤ
à°Łà±įà°Ł à°¿
de j
ĠÏĮ Ïĥ
Ġà¤ª à¤¾à¤¸
Ġr app
ĠÏĢ Î¬Ïģ
Ð°Ð»ÑĮ Ð½ÑĭÑħ
ÙĦ Ø¨
Ã¡ ÅĻ
lÉĻr dÉĻ
Ġà¦ħà¦¬ à¦¸à§įà¦¥
ag o
Ġà°ļà±Ĩ à°Ĥà°¦
áĥĺáĥ ©
ĠÐ¿ÑĢ Ð¾ÑģÑĤÐ¾
ĠÎ» Îµ
Ġ×Ķ×ŀ× ©
ca do
Ġà®®à¯ģà®¤ à®²à¯į
ĠÑĨ ÐµÐ½
Ã¡ Å¡
ĠÎ±Î½ ÎŃ
ĠrÃ© al
ĠE st
Ø¯ Ùī
ä¿Ŀ æĮģ
à¤ľ à¥Ģ
do b
Ð°Ð´ Ð¸
Ã Ķ
áº¿ u
h nen
Î¡ ÎĻÎ
ĠÎ³ Î¯Î½ÎµÏĦÎ±Î¹
Ø§ÙĦ ÙĬØ©
Ġà°ªà±ĭà°² à±Ģà°¸
Ġcer ta
om bre
áĥĶáĥłáĥ Ĵ
lÉĻn dir
Ð¸Ð» ÑģÑı
am b
Ġs aÄŁ
Ġà¤Ńà¤¾à¤° à¤¤à¥Ģ
ar se
à±ģà°¤ à±ĭ
Î¼ÎŃÎ½Î¿ Î¹
ff en
Ġà¦¨ à¦¿à¦°
ĠP od
à¤µ à¤¨
à¯ģà®³à¯įà®³ à®¾à®°à¯į
áĥł áĥĶáĥ¡
ãĥ Ķ
ĠÎĵ ÎµÎ½
ÎĻ ÎŁÎ¥
ĠÏĩ Î»Î¼
×ľ ×§
à°ķ à°Ĥ
à´ ¨àµįà´¨
Ġà¤ľ à¤¾à¤¨à¥ĩ
Ġà¦ķà¦¾à¦ Ľà§ĩ
Ġf are
ĠØ¨ ÙĦ
Î¶ ÎµÏĦÎ±Î¹
Ġà®ĩ à®©à¯įà®©
ĠÐ· Ð½Ð°Ñĩ
Ã³ j
áĥĶáĥľ áĥĺáĥ¡
3 æľĪ
Ġç½ĳä¸Ĭ ag
Ġéĵ ¶
Ġè Ħ
ĠagæĹĹèĪ°åİħ åľ¨çº¿
éķ ·
Ġä»¥ åıĬ
I P
Ľà¸£à¸° à¹Ĥà¸¢à¸
Ġ6 up
å¯¹ äºİ
ä¸» é¢ĺ
à¹Ģà¸ §
ĸà¸ ·à¸Ńà¸
èĻ ĳ
ç»Ł è®¡
å¿« éĢŁ
æķħ äºĭ
Ķà¸²à¸ §
« à¹Į
ŀà¸¹à¸ Ķà¸
æ¡ £
ĺ à¸Ńà¸
èĥ Ĩ
ä¸¾ åĬŀ
Ġbtt 918
ç± į
æĺ ł
åıªä¸º éĿŀåĲĮ
Ġ918 æĲıå¤©åłĤ
è½ ´
åįĩ çº§
à¥ĭ à¤¤
à°² à°¿
Ġà¦¦ à§ĩà¦ĵ
Î´Î¿ ÏĥÎ·
ĠÎºÎ¹ Î½Î·
Ã¤ l
on na
Ġtr ov
Ġà°¤à±Ĩà°² à±ģà°Ĺà±ģ
Ġà°ĩ à°ķ
q a
lo Å¾
à®¾à® ¨à¯įà®¤
s to
à°¾à°ķ à±į
Ġre cher
Î»Î± Î´Î®
Ñı Ð¶
l Ã¼
ìħ ĺ
Ġagè§Ĩè®¯ æīĭæľºå®¢æĪ·ç«¯ä¸ĭè½½
æĮ ¯
«à¸±à¸ §à¸
ç¨³ èµļ
æļ ĸ
åįı è®®
Ĥ à¸Ń
Ġà¨µ à¨¿à¨
ķà¸£à¸ ĩà¸
Ġà¤ªà¥įà¤°à¤¤ à¥įà¤¯
ÏģÎº ÎµÎ¹Î±
Ġik ke
Ġs au
Ġser vi
Ø³ Ø±
Ġà¦¤ à¦¾à¦ĩ
ĠÐ¾Ð´ Ð¸Ð½
Ġkter Ã¡
ĠN on
Ġáĥ¬ áĥĶáĥķ
Ġà°İ à°ķà±įà°ķà±ģà°µ
Ġw ord
íķ ¨
Î± Î½Î±
Ġç İ¯
ä½ Ľ
Ĭà¸± à¹īà¸Ļ
Ġà¤ķ à¤¾à¤¢
ul o
ĠáĥłáĥĿáĥĵáĥĶáĥ¡ áĥĲáĥª
Ġmon de
ÏĨ ÎµÏģ
ien do
ĠG esch
à´ ±
Ġà¤īà¤¨à¥įà¤¹ à¥ĩà¤Ĥ
à§ĭ à¦ľ
ar Ã¡
ĠÎĴ Î±
æħ §
æģ ©
Ġäºļæ¸¸éĽĨåĽ¢ æ¸¸æĪı
ĠåĬ ¨
à¹Ģà¸ ģ
ľà¹Īà¸² à¸Ļ
à¥ ¨
ÑĥÑĢ Ñĭ
le ÅŁ
ĠØ§ÙĦØ£ Ùħ
Īà¸²à¸ ģà¹Ģà¸
å¥ ¶
c p
Ĥà¸Ļà¸²à¸ Ķ
æİ¨ åĬ¨
Ġą ć
ķà¸ ¥à¸²à¸
à¤¾à¤Ĥà¤ §
ĠÎ²Î¿ Î·
b ile
k ich
à¯ĭ à®Łà¯ģ
Ġt ÉĻq
at an
âĢ Ļ
à¦Ĺà§ģà¦² à§ĭ
Ġà®ĩ à®£
Ġcon tro
Î±Î¹ Î´ÎµÏħ
×ŀ× Ł
Ð ¯
Ð¸ÑĩÐµÑģÐº Ð¾Ð¹
ÏĢ ÏīÎ½
v ent
Ġï¼Ł âĢĿ
Ġ à¸£à¸±à¸ļà¸
è¿Ĳ è¡Į
Ġè¡ ¨
è´¸ æĺĵ
at hi
Ġ à¸£à¸²à¸Ħà¸²
èµĦ äº§
å¨±ä¹Ĳ å½©ç¥¨
ĠagåĽ½éĻħäºļæ¸¸ å®ĺç½ĳä¸ĭè½½
9 2
Ġà¤¦ à¤¾à¤ĸ
çħ ¤
à¤ª à¤Ł
ĠÄĮ es
s ob
ĠS u
ÏĦÎ¹ÎºÏĮ ÏĦÎ·ÏĦÎ±
Ġà¤¸ à¥ĭà¤
Ġë Ŀ¼
ĠÐ· Ð½
áº¡ nh
ãĥ¼ãĥ ī
ĠáĥĽ áĥĺáĥľáĥĺáĥ¡áĥ¢
Ø¹ Øª
ĠÃľ ber
Ġsp os
ĠÏĩ Î¬
Ġáĥ¯ áĥĶáĥł
z ident
Ġ ÖĦ
t ÉĻb
ĠÏĥÏĦÎ¹Î³ Î¼Î®
Ġcon ta
Ġáĥ¬áĥĲáĥłáĥĽ áĥĿ
Ġà°® à°¾
à¹ĩ à¸Ļà¸
ĠçĶµ ç«ŀ
ĠagèµĮ åįļ
æ½ ®
Ġà¤ħ à¤¤
id mÉĻt
ÑıÐ± ÑĢÑı
ĠÎ¼ÎµÎ³Î¬ Î»Î·
à®© à®®à¯į
à±Ģ à°®
it os
Ñĭ Ñĩ
or y
Ġà¦¹à¦¿à¦¸ à§ĩà¦¬à§ĩ
Ïī ÏĥÎ·ÏĤ
×ł ×ª
ge b
Ã ĸ
Ġtr Æ°á»Ŀng
Ġà°Ĺà±ģà°° à±įà°¤
Ġà®ħ à®²
ÉĻt ÉĻn
Ġse con
ĠgÃ¶ re
ĠÎ¼Î± Î¸Î·
ĠØ§ÙĦ Ø§ÙĨ
Ġì ¦
Ġà¦ıà¦ķ à¦Łà¦¾
s iÄĻ
à´ ª
Ġà¤ı à¤µ
ãĥ¼ãĥ ł
Ġw eb
Ùħ ÛĮ
à¤¿à¤¯ à¥ĩ
Ġà¦® à¦¾à¦®
te il
à¬ ¾
à¥ĩà¤¤ à¥įà¤°
ĠÅŁ ÉĻxs
Î¯ Î´Î¹
à§ĩà§Ł à¦¾à¦°
ĠCh at
à°¸ à±įà°¯
Ġfo tos
ĠÐ½Ðµ ÑģÐº
ho ra
Ġsp raw
à¦¾à¦ķ à¦¾à¦°
ĠÏĢÎµÏģÎ¹Î¿ ÏĩÎ®
ĠÛ° Û
ĠØ³ Ø§ÛĮØª
à®¤à¯įà®¤ à¯ģ
ĠáĥĲáĥ ¨
Ġre ci
end ant
ãĥ³ãĥ ī
Ġf ra
Ø¹ Ø¨
ĠÄį as
Ġà¦ħà¦¨ à§ģà¦·à§įà¦ł
Ġg ut
ĠØ¯ÛĮ Ú¯Ø±
h eid
ĠÕ Ń
aÄŁ Ä±
iÄĻ dzy
Ïģ Î½
Ġà°ħ à°°
×ķ×ª ×¨
éĢļ çŁ¥
Ġï½ ŀ
éĿ¢ çļĦ
Ġà¹Ģà¸ŀà¸ ·à¹Īà¸Ń
Ĥà¹īà¸Ńà¸¡à¸¹à¸ ¥à¸
Ġç» ĵ
Ġagç½ĳ èµĮ
éħ ¸
56 7
Ł à¹īà¸²
ªà¸³à¸Ħà¸ ±à¸įà¸
Ġà¤ª à¥ĭà¤²
eit en
Ġâ ŀ
Ġê° Ĳ
ĠÐ¾ÑĤ ÐºÑĢ
Ġà¦® à§ĥà¦¤
Ġin di
il en
ĠÎ² Î»ÎŃ
Æ°á»Ł ng
à®¿à®ķà¯įà®ķ à¯Ī
ĠÙĥ ÙħØ§
ĠÎ´ Ïİ
ìĥ ī
à¦¾à¦ĵ à§Łà¦¾
à¥ĩà¤¤ à¤¾
Ġáĥ¤ áĥĺáĥļ
ĠÎķ Î¸Î½
Õ¡Õ¶ Õ«
ÉĻn d
czy Äĩ
Ġà°ªà±įà°° à°®
Ð¸Ð½ Ñĥ
ding in
ja di
ĠÎ±Î½ ÏĦÎ¹Îº
ìĹħ ìĨĮ
Ġê²Į ìŀĦ
ĠáĥĴáĥĲáĥľ áĥĲáĥªáĥ®áĥĲáĥĵ
à¹Ģà¸ īà¸ŀà¸²à¸
¹ à¹ī
« à¹īà¸Ńà¸ĩ
10 åĪĨ
æķ ¸
à¹ģà¸ Ħà¹Ī
Ġè´ µ
Ġà¸ŀà¸ ¤à¸
Ķà¸ ±à¸ĩà¸
æı Ĵ
èħ ¾è®¯
à¥įà¤¯à¤¾à¤¤ à¥Ģà¤²
íĸ Ī
in cip
ĠÑĤÐµÑħ Ð½
ĠÐ² ÐµÐ´
ay ÉĻt
ĠÎ±ÏĨ Î¿Ïį
Ġà®µà®´ à®Ļà¯įà®ķ
Ġà¦ľà¦¾à¦¨ à¦¾à¦¨
à¤¥ à¤¾
ĠÎķÎĽ ÎĽ
ÏĨÎŃ ÏģÎ¿Î½
ĠØ§ ÙĪÙĦ
Ġà¤® à¥ĩà¤°
à¦¿à¦ķ à¦¾à¦°
Ġà¤ķà¤¾à¤° à¤£
ĠÐ¿ÑĢ Ð¾ÑģÑĤ
da w
ÏĢ Î»Î±
ÙĨ ÙĬØ©
ra da
Ġspo leÄį
ĠÎ´Î¹Î± ÏĨÎ¿
ĠÐ¼Ð¾Ð³ ÑĥÑĤ
ri ng
y w
ĠâĢľ ,
à°ķ à±ģà°Ĥà°¡à°¾
d Ã¼r
Ġc al
Ġà¦® à¦¾à¦§à§įà¦¯à¦®
Ġc Æ¡
Ø±Ø¨ ÙĬØ©
Ġà°ĩ à°ªà±įà°ªà±ģà°¡à±ģ
ĠáĥĴáĥĲáĥĵ áĥĲáĥ¬áĥ§áĥķ
Ġto p
ªà¸²à¸ ¢à¸
Ġv ip
è¯ º
æľŁ éĹ´
æĦı æĢĿ
Ġà¤¤à¥įà¤¯à¤¾à¤ ¤
Ġl igne
Ġl u
ÙĬÙĨ Ø©
Ġà¤° à¥ģà¤ª
ĠÎ¼ÏĢÎ¿ ÏģÎ¿ÏįÎ½
Ġà¤¬ à¥įà¤°
à®ªà¯įà®ªà®Ł à¯ģà®®à¯į
à° İ
ÙĪ ÙĨØ¯
Ġáĥ¡ áĥĺáĥ¡áĥ¢
Ġà°ªà±įà°° à°§
ich tig
Ġres p
h led
ãģ¾ãģĽ ãĤĵ
v es
Ġà¦ Ŀ
ĠmÉĻs ÉĻl
ĠáĥĴáĥĺáĥĿ áĥłáĥĴ
Ġáĥ¢ áĥĶáĥ¥
ĠÕ° Õ¡Õ´
q t
Ä± yor
p ag
áĥĶáĥķ áĥĲ
Ã ģ
Äį ek
f ol
Å¼ a
Ġà°ķ à°¾à°Ĥà°Ĺ
Î´Î¹Î± Î¯
ĠÐ¼ Ð½Ð¾Ð³Ð¾
Ġà¤¦ à¥Ĥà¤¸
Ġà®Ĩ à®¤
Ġà°µ à°¾à°°à±ģ
Ġal c
×¨ ×ĳ
Ġ æľĢæĸ°
Ġ à¸£à¸²à¸Ħà¸²à¸
3 00
æĳ ©
åį Ģ
à¹ģà¸ Ī
Ġà¤¦ à¥ĩà¤µ
Ġsu iv
Ġáĥ¤ áĥĶáĥ®
Ġm ÉĻk
el en
Ġpl ace
Ġà¦¸ à¦¾à¦°
ĠagåĽ½éĻħäºļæ¸¸ å®ĺç½ĳçĻ»å½ķ
æĸĩ æĺİ
ŀà¸§à¸ ģ
Ġäºļæ´²æ¸¸æĪı ag
Ġà¤² à¤ķà¥įà¤·
ar ia
nÄĽ jÅ¡ÃŃ
ĠÎ´ Î¯
am il
Ġà®ª à®¿à®©à¯įà®©
ĠáĥĵáĥĲáĥĻ áĥĲáĥķáĥ¨áĥĺáĥł
ĠÑĥÑģÐ» Ð¾Ð²
Ġswo je
Ø§Øª ÛĮ
à¦¾à¦¦ à¦ķ
ĠÎ¦ ÎµÎ²
ÏģÏħ Î¸
Ġà¦® à§ģà¦ĸ
ĠÐŁ Ð¾Ð»
d re
Ø¬ ÙĦ
ÏĥÎºÎµ ÏĦÎ±Î¹
Ġcom pr
Ä±l an
Ð°Ð» ÑģÑı
Ġà¤ī à¤¦
ne hmen
Ġh Ã¬nh
nym i
Ġà¦¦ à¦¿à§Ł
Ġh or
áĥĿáĥľ áĥĿáĥĽ
ĠØ§ ØŃ
ĠÎ³ ÏģÎ¬
Ġà®ļà¯Ĩà®¯ à®²
Ð» ÐµÐ¹
à¦¿à¦¤ à§įà¦°
Ġà°ļ à°¿à°¨à±įà°¨
Ġen cont
ĠÐ½ Ð¸Ðº
Î¼Îµ ÏĥÎ±
m t
Ġê° Ļ
Ġáĥ§ áĥĿáĥ¤
Ġå¤§åıĳ åĪĨ
éĺ ħè¯»
åħĪ éĶĭ
à¹ģà¸£à¸ ĩ
Ľà¸£à¸°à¸ ¡à¸²à¸
æ´ ģ
ªà¸²à¸ §à¸
åı ¥
ä¸į åĪ°
åĩº æĿ¥
ä¸ľ è¥¿
Ġà¤¨ à¤¾à¤µ
Ġq iy
Ġne Å¾
le h
Ġtout es
Ùģ Ø¶
al ne
Ġword t
ĠÑģÐµÐ± Ñı
p t
Ã¼ re
áĥ¢ áĥĺ
Î³ Î¼Î±ÏĦÎ±
ir i
Ķ áĢ¹áĢ
Ġà¨¨ à©ĩ
à¹Ĥà¸ Ľ
é¥ °
Ġà¤ī à¤¤à¥įà¤¤
Ġm undo
Î¼ Î¹Î¿
Ġà¦® à¦¨
Ø¯ ÛĮ
ÉĻs s
Ġà®ªà¯ĭ à®°
Ġtou te
ta j
Ġà°ļ à°¦
áĥĲáĥłáĥļ áĥĲáĥĽáĥĶáĥľáĥ¢
ie dy
ĠáĥĽáĥĲáĥ¨ áĥĺáĥľ
it Ã¤t
Ð¾Ñĩ Ð½Ð¾
Ġm ismo
Ġ×ŀ× ł
Î³ÏģÎ±ÏĨ Î®
à¦¸ à§įà¦ķ
ig lia
íķĺ ê¸°
ĠdÉĻf ÉĻ
ãĤĮ ãĤĭ
Ġthá» Ŀi
ra k
Øª Ø§Ø¨
ĠáĥĵáĥĲáĥ Ķ
Ġle urs
Äħ c
ĠÎ³ Î½Ïİ
Ġà°¬ à°¯
cia les
__ __
ĠÑĪ ÑĤ
Ġà®ķà¯ģà®± à®¿à®ªà¯įà®ª
Ø§Ùħ ÛĮ
©áĥĶáĥķ áĥľ
åĬł å¼º
å· ¡
à¹ĥà¸ģà¸¥ à¹ī
Ġæ¾³éĹ¨æĸ° èĲĦäº¬
Ġà¤µ à¤¿à¤°
Õ¥ Öģ
Ġ ÉĻh
d em
ĠâĢ ¬
ÙĪ ÙĬØ©
Î¯Î¶ Î¿ÏħÎ½
Ġvi deo
ĠáĥĶáĥķáĥł áĥĿáĥŀ
Ð¾Ð² ÑĭÐµ
Ġà° Ĭ
y e
Īà¸£à¸´à¸ĩ à¹Ĩ
æ²» çĲĨ
à¹Ħà¸¡à¹Īà¸ ¡à¸µ
ģà¸²à¸ ¢
å·¥ åħ·
±à¸ĩà¸ ģà¸¤à¸
å¼ Ł
Ġà¥ ¥
è¡¨ çİ°
æĸ¹ åĲĳ
Ġäºļæ¸¸éĽĨåĽ¢ å¹³åı°
h s
èĥ ŀ
¢à¸ ¡à¸
Ġà¸ Ŀ
Ġà¸ª à¸´
æī ¬
ä½ľ åĵģ
èĵ Ŀ
èµ ŀ
å¨±ä¹Ĳ åľº
Īà¸£à¸´à¸ ĩà¸
ç į
12 æľĪ
çª į
æ£Ģ æµĭ
ķà¹īà¸Ńà¸ĩà¸ ģà¸²à¸£à¸
Ġæ¸ ħ
Ħà¸ ³
¡à¸ ŀ
çı ł
Ġà¸ Ķà¸¹
Ġà¸ ¨
à¹Ĥà¸ Ħà¸£à¸ĩà¸
çļĦ å°ı
æł¹ æį®
Ľà¸ı à¸´à¸
Ķ à¸´à¸Ļà¸
Ġà¸Ħ à¸Ļ
Ġà¤ķ à¥ī
n u
Î¾ Ïī
Ġtr av
Ġ Ñİ
di ta
ÏĦÎ® ÏĥÎµÎ¹
×ķ×ł ×Ļ×Ŀ
à¦ª à§įà¦¤
ta le
áĥĲáĥłáĥ £áĥļáĥĺ
Ġà°µà±Ĩ à°³à±įà°²
ar y
Ïī Î´
Ú© Ø§ÙĨ
ĠEn t
ÎµÎ´ ÏģÎ¿ÏĤ
l Ã¨
j u
Ġm igli
ĠÎ´ Î¿Ïħ
à®¿à®¯ à®¤à¯ģ
ĠÐ¿ÑĢÐ¾Ð´ ÑĥÐº
ĠÐ¸Ð½ÑĤÐµÑĢ ÐµÑģ
ìĪ ł
mp re
à±ĭ à°²
ĠÙĤ Ø¯
Ġà¦°à§Ł à§ĩà¦Ľà§ĩ
Ð¾Ð´ Ð°
Ïħ Î¼
Ġáĥĺáĥ¡ áĥ¢
ĠagçľŁäºº ç½ĳç«Ļ
Ġ1 åĪĨæĹ¶æĹ¶å½©
à¹Ħà¸ Ĥ
« áĢ
§à¸ Ķà¸
Ĺà¸µà¹Īà¸ Īà¸°
çī¹ åĪ«
ĠçĶ ³
Ġà¹Ģà¸ ģà¸
ç ĺ
è° ·
à¤¾à¤ľ à¥Ģ
ÅĻ enÃŃ
ĠÏĦÎ· Î»Îµ
Ġc iu
ti gen
Ġà¤¨ à¤¿à¤ķ
Ġi di
Ã ĭ
Ġthá» ±c
Ġso it
ÑĢÑĥÐ¿ Ð¿
Ġn ei
Ġkad ar
ë³ ¸
Ġk re
Ġà¤ª à¥ģà¤¨
áĥĽ áĥĲáĥľ
wa Äĩ
Ġà¦¬ à¦¨à§įà¦§
Ð¾ÑĢ Ð°
àµįà´ ª
à¤¾à¤ı à¤Ĥ
à°¿à°¸ à±įà°¥
ĠÎ±Ïħ ÏĦÎŃÏĤ
ĠÐ¸Ð½ÑĤÐµÑĢ Ð½ÐµÑĤ
i vo
à¤¿à¤µ à¤¾à¤°
Ġd it
áĥĲáĥķ áĥĶ
Ġà®ķ à®£à¯įà®Ł
ist ra
ëĤ ľ
z ei
ĠagçľŁäºº æīĭæľºæĬķæ³¨
åĨ ¬
ĭ à¸µ
Ġå ¦
å½©ç¥¨ å¨±ä¹Ĳ
à¹ĩà¸ ¡à¸
Īà¸ ±à¸ĩà¸
¨à¸¶à¸ģà¸ ©à¸²
à¹Ĥ à¸Ļà¸
äºº å·¥
Ġè´ ¢
ļà¸ Ĺà¸
è´ ¯
åĢ º
éķ ľ
ĠagçľŁäºº å¹³åı°
į à¸²
¥à¸²à¸ ¢
ģà¸¥à¸²à¸ ĩà¸
Ġà¤¨ à¤¾à¤Ĺ
Ð¾Ð² ÑĭÑħ
à§ĩà¦¤ à§ĩ
ĠÎĺ ÎŃ
Î¼Îµ ÏĤ
Ġà°° à±Ĥ
Ġà°¬ à°¾à°²
Ġd ar
×¨×Ĳ ×ľ
ĠbÃ½ t
ĠØ³ ÙĪ
Ã¼y Ã¼k
æ°ĳ æĹı
åħ¬ å¼Ģ
Ġà¥ ª
Ġ×ķ ×¢
ĠáĥĽ áĥĶáĥª
Ġà°® à°Ĥà°¦à°¿
w iÄĻ
Î¸ Î»Î·
Ð°ÑĤ ÑĢ
Ġv al
ãģ¨ æĢĿ
èĩª çĦ¶
æĩ ī
Ġæł¹ æį®
ĠåĮħ æĭ¬
Ġå¸ ¸
Ġ æľª
à¹Ī à¸Ńà¸¢à¸
Ġç¬¬ äºĮ
ĠæĻ º
æĪĳ åĽ½
à© ľ
Ħà¸§ à¸£à¸
¥à¸ ¥
Ġçľ ģ
Ġć ï¼Į
èĲ ¨
æ£ĭçīĮ æ¸¸æĪı
ļ à¸£à¸´
ä¾ §
åĨ³ å®ļ
å° ĩ
åĽ¢ éĺŁ
å¿ ĺ
áĪ į
à¥Ģ à¤¯
Ġu00 3
ĠÎ± Î³Î±
ÏĦÎ® Î¸Î·ÎºÎµ
ouve z
ÑĥÑĢ Ð³
ĠÏĢ Î®
íķĺ ê²Į
Ġar asÄ±nda
R E
Ġte ch
Ãµ es
ĠáĥĲáĥ Ĺ
Ġpro pri
ÎĻ ÎŁ
ĠÎ±Î½ ÏĦÎ±
ĠÐ´ ÑĢ
Ġr áº¥t
sk ich
et tes
ĠÎłÎ± Î½Î±
ÏĦÎ® ÏģÎ¹Î±
à¦¨ à¦¾à§Ł
Ġt our
ĠØ§ Ú¯Ø±
à¯ģà®ļ à¯į
åĨ Ĩ
Ġà¦¤ à§ģà¦²
ia o
çª Ĺ
± à¹Īà¸ĩ
Ħà¸´à¸ Ķ
åį« çĶŁ
à¤¿à¤Ĥà¤ ¦
ĠÐ¿ÑĢÐ¾ ÐµÐºÑĤ
ãĤ¹ ãĥĪ
ĠÏĩÏģÎ·ÏĥÎ¹Î¼Î¿ ÏĢÎ¿Î¹
Ġ×Ķ ×Ļ×Ĳ
æı ¡
åĳ ¼
à¥ĩà¤ Ĭà¤¨
ll os
Ø§Ùħ Ø©
à°ªà±įà°ª à±ģà°¡
ÑģÐ» ÐµÐ´
Õ¡Õ½ Õ¿
ĠQ ar
Ġm ich
ĠAr beit
ĠáĥĶáĥł áĥĿáĥķáĥľ
Ġq az
Ġg a
n et
Ġà¤¹ à¤µ
à°¾à°¯ à°ķ
Ġà®®à¯ģà® ´
Ġser viz
ë° ĺ
ÙĬ Ø¨
Ġ$( "#
Ġáĥ¥ áĥĲáĥłáĥĹáĥķáĥĶáĥļ
áĥĶáĥķ áĥ¡
Î¼Î² Î±
Î¼Î¿ Î¹
Ġkdy Å¾
Ġx xx
Ġl ugar
à¦ª à¦¿
à±Ģà°ª à±Ģ
Ġà°ķà°¾à°Ĥà°Ĺ à±įà°°à±Ĩ
Ġà°īà°Ĥà°Ł à±ģà°Ĥà°¦à°¿
Ð² Ð°ÑĢ
Ġà¦¬à§ĩà¦¶ à¦¿
e go
Ġc it
st ru
áĥĲáĥĸ áĥłáĥĵ
Î² Î¿Ïħ
hal ten
ĠÑį Ð»ÐµÐºÑĤÑĢ
ĠØ´ Ùħ
ÎĻÎļ ÎĹÎ£
ÎºÏĮ ÏĤ
i O
Ġu cz
ÏĥÏĦÏħ Î½Î¿Î¼
Ġáĥŀáĥł áĥĿáĥĳáĥļ
Ġà®¤ à¯Ģ
Ġd apat
Ġà¤ Ī
Ġthá» ©
larÄ±n a
ĠÐ½ Ð¸
z ÃŃ
ra i
á į
Ġagçİ¯äºļ å¹³åı°
ç¬¬ ä¸ī
æı ´
åı ¶
ģ à¸£à¸£à¸¡
Ġà¹ģà¸¥ à¹īà¸§
Ġà¨¹ à©ĭ
åľ Ĩ
çľŁ çļĦ
å¯¼ èĪª
Ġà¤¤à¤¸ à¥ĩà¤ļ
Å ģ
Ġna wet
ĠØ§ÙĦÙħ Ø±
ĠÎĳÎ¸Î® Î½Î±
Ġd ou
ĠÎ¥ Îł
ÎµÏģ Î¼Î±Î½
Ð¸ÑĢÐ¾Ð² Ð°ÑĤÑĮ
Ġê² °
áĥľ áĥĺáĥĶáĥł
c Ã©
à¤ª à¥ģà¤°
à¤® à¤¾à¤¨
Ġp ia
×Ļ×ł ×ķ
c ka
Ġge gen
Î¯Î¶ ÎµÏĦÎ±Î¹
ĠÑĩ Ð°Ñģ
Ġto ho
Ġm us
I T
Ġal tri
ĠÎĺÎµÏĥÏĥÎ± Î»Î¿Î½
Î¹ÎºÎ¿ Î¯
à¦¬ à¦¿
áĥ£áĥ ©
Õ´ Õ¡Õ¶
lar dan
Ġà¤ķ à¥įà¤°
Ġà®ª à®´
Ġto t
ĠÚ©Ø±Ø¯ Ùĩ
ĠáĥĿ áĥ¥
ãĥķ ãĤ
Ø« ÙĦ
ĠÑģÐ»ÑĥÑĩ Ð°
ì° ½
Ġà¦Ńà¦¾à¦² à§ĭ
Ġáĥ¬ áĥĲáĥĽ
Ġes p
ĠÎľ ÏĢÎ¿
Ġ×Ĳ ×Ĺ×¨
Ġt ener
ÅĽ wiet
ëĿ¼ ìĿ¸
ĠÐ²ÑĭÑģ Ð¾Ðº
\\\\ \\\\
an iu
ĠáĥĽáĥĶáĥĿ áĥłáĥĶ
v re
ĠÎ¿ ÏģÎ³Î±Î½
à¥įà¤°à¥Ģ à¤¯
ê¹Į ì§Ģ
à¦¾à¦·à§įà¦Ł à§įà¦°
à®¾à®± à¯ģ
ti ge
ang e
Ġtrab aj
à±ģà° Ń
ãĥ į
ne m
Ð¸ÑĩÐµÑģÐº Ð¸Ð¹
Ġz n
Õ Ń
tir ak
Ġà®¨ à®¿à®°
Ġáĥ¡ áĥĿáĥ¤
Ġt Ã©lÃ©
Ø§ÙĨ ÙĬØ©
ĠÎºÎ± ÏĦÎ¿
ĠÑģÑĤ ÑĢ
Ġdo po
Ġo tros
áĥĿáĥłáĥª áĥĺáĥĶáĥļ
Ö ĩ
ad Ä±n
ĠK a
Ġà°īà°¦ à±įà°¯
ÛĮ Ø²
Ïģ Î¹ÎºÎ®
à¤°à¥įà¤ ¦
Ġà¦¯ à¦¾
ĠÑĤÑĢ ÐµÐ±
ĠÕ Ŀ
Õ¡Õµ Õ«Õ¶
Ġin kiÅŁaf
à°° à±Ģ
íĮ Į
ĠO r
áĥĲáĥ¡ áĥ¬
à®¾à® ¸
L L
Ġlav oro
ĠB o
ĠÎ¼ Î®Î½
Ġà°¸à°Ĥà°¬ à°Ĥà°§
àµ Ģ
Ġà¤Ńà¤¾à¤°à¤¤à¥Ģ à¤¯
dan ia
Ġm Ã¼n
Ø´Øª Ø±
Ġda ll
Ġdiff Ã©r
á»© ng
Ïĥ Î¯ÎµÏĤ
ÉĻy y
Ø· Ø±
Ġà¤¸ à¥įà¤ķ
Ġáĥĵáĥ¦ áĥĶ
ãĤ ±
ĠÐ¾ÑĤ Ð´
y la
Ġj a
k tu
ier on
×ŀ ×Ļ
Ġno g
ĠÎµÎ¯ ÏĩÎ±Î½
áĥĿáĥļ áĥĺáĥ¡
Ġj es
ÐµÐ· Ð´
Ġìŀ ĳ
Ġpro je
Ġin iz
Ġà®¤ à¯Ĥ
ĠÙĦÙĦ Ùħ
nie r
ĠktÃ³ ra
Ġà°¬ à±įà°¯
Ġb a
ĠÎºÎ± Î»Î¬
áĥĺáĥ« áĥĶ
áĥ£áĥ ŀ
ĠÎ³ ÏħÎ½Î±
em ein
áĥ® áĥĶáĥĵ
ĠÐ³ Ð¾ÑģÑĥÐ´Ð°ÑĢ
ĠÏĢÎ¿Î» Ïħ
æĸĩ ç«ł
æ¯Ķ åĪĨ
ĠæĦ Ł
Ġà¸ĭà¸ ¶à¹Īà¸ĩ
Ġå· ´
Ĺà¹Īà¸² à¸Ļà¸±à¹īà¸Ļ
Ħà¸£ à¸Ńà¸ļà¸
à¹ģà¸¡ à¹Īà¸
åį ·
ĸ à¸²à¸¡à¸
Ġæķ ´
æľº åĻ¨
æķĻ å¸Ī
«à¸¡à¸ ·à¸Ńà¸Ļ
Ĭ à¸Ńà¸ļ
éĺ »
9 1
ä½ Ĩ
Ġ7 5
åĲİ çļĦ
Ġà¸ªà¸²à¸ ¡à¸²à¸£à¸
éĢ Ĵ
çĸ Ĩ
áĪ Ŀ
áĢŃ áĢ¯
ªà¸²à¸ §
Ġà¤¹à¤ľ à¤¾à¤°
paÃ± a
ĠÎ¹ Î´Î¹
ĠqÉĻb ul
Ġà®İ à®¨à¯įà®¤
ĠC u
Ġu t
Ġà¤ľ à¤°
ach t
Ġfon ction
Ġáĥ¤ áĥĲáĥ¥áĥ¢
ãĥĥ ãĥĹ
ĠØ¹ ÙĨØ¯
ĠÏĨ ÏĮ
ĠåĽ½ äº§
Ġà¤¬ à¤¦
à±ģà°Ĥà° ¬
ĠÕ ¨
ĠtÉĻl ÉĻb
ì¡ ±
Ġáĥ£áĥ ĳ
Ġen cu
ĠÐ¿Ð¾Ðº Ð°Ð·
ĠM a
ãģł ãģĳ
ĠØ² ÙħØ§ÙĨ
Î»Î¿Î³ Î®
Ö ¸
×ł ×¡
à°Ĺ à°²
uf f
áĥļ áĥĶáĥĳáĥĲ
Î»Î¯ Î´Î±
czne go
Ġd ur
à§įà¦¦ à§įà¦°
à¯ģà®µ à®¤à¯ģ
Ð°Ñı Ð²
ĠÎ ī
cia le
ĠÂ ¡Â
Ġth Ã´ng
Ġáĥ¡áĥ¬ áĥĿáĥł
à¥ Ŀ
ĠUn d
ĠÃ ļ
us t
ĠãĤ ·
Ħà¸ ¸
æģ ¶
Ġçİ¯äºļ åĽ½éĻħå¨±ä¹Ĳ
Ġagäºļæ´² å®ĺæĸ¹
Ġà¤Ń à¤°
áĥļ áĥĶáĥĳáĥĺ
ĠÏĥ ÏĢÎ¯
Ġà¦ī à¦¤à§įà¦¤
Ġpro do
ĠÏĩ ÏģÎµÎ¹
Ġpro to
Ġë§ ¤
Ġne ll
Ġcon c
Ġdies er
ĠÐ¼ ÐµÐ¶Ð´
à¯ģà®µ à®°
à°¿à°Ĺ à°¿
Ø¬ Ø±
Ġáĥŀáĥł áĥĿáĥ¤
Ġäºļæ¸¸åĽ½éĻħ æ¸¸æĪıå®ĺç½ĳ
à¤² à¥įà¤ª
Ġtr ze
Ġ ãģ®
ĠáĥĿ áĥŀ
er os
Ġmais on
Î±Î¹ ÏģÎµ
áĥĲáĥ¦ áĥĽ
ag ai
Ġte k
Ġåĩ¯åıĳ app
å¯ »
ä¸ª æľĪ
Ġ> >
à¤µ à¤³
ation s
ĠØ¹ ÙĦ
ĠÑģÐº Ð°Ð·
p rav
ĠiÅŁ tirak
ĠÎ¼ Ïħ
à´ ķ
à¤ı à¤¸
Ġà¦¬ à§įà¦°
à®ķ à¯ģ
ãĥ Ģ
à¤ı à¤®
Ġum a
à´¾à´ ¯
Ġà¤« à¥Ī
Ġk eine
ĠÎ¼Î¹Î± ÏĤ
×ľ ×ķ
Ø° ÙĦÙĥ
Ġimp ort
ĠÕ ¹
ÅŁ aq
Ã «
Ġë ¹
áĥĲáĥĻ áĥĶáĥĹ
cz ki
ĠØ±ÙĪ ÛĮ
ĠÎ¼ Î®
Å¾ d
ĠÐ´ Ð¾Ð¿
Ġà¤® à¥ĩ
Ġà¤ķ à¥Į
ĠÂ £Â¬
ĠÄĳ iá»ģu
Ġáĥ¬ áĥĺáĥľáĥĲ
Ġsp rze
ĠÏĢÏģÎ¿Ïĥ ÏĦÎ±
à´ ķàµįà´ķ
à¤¾à¤ĩ à¤¨
k ÉĻm
ÐµÐ½ Ð½Ð¾Ð³Ð¾
à®¿à®¯ à®®à¯į
ĠÎ´ ÏģÎ¬
Ġà¦ħ à§įà¦¯
st up
ĠM ujeres
a ciones
fÃ¼ hr
di ÄŁ
ĠÏĩÏģÏĮ Î½Î¿
Ġtou jours
Ġna le
ĠØª Øª
çĻ º
Ġo x
ub lica
Ġìŀ ¬
ÐµÑĢ Ðµ
ÏĦ ÏģÎ¹
em Ã¡s
ĠScar pe
Ġv en
à¤Ł à¥Ģ
ĠPro duk
Ġà®ķ à®¾à®£
Î±Î¹ Î½
ĠáĥĺáĥĴ áĥĺ
ie le
Ġan cora
Î¹Ïĥ ÏĦÎ±
Ġåı į
ä¸Ģ èĪ¬
Ġàª ķ
à¤² à¥įà¤²
Ġh al
ta tion
Ġà°ķ à±ģ
ÎºÎ± ÏĦÎ±
Ð´ ÐµÑĢÐ¶
ni ki
Ġk á»
ì¦ Ŀ
ÏĦÎµ ÏģÎ¿
Ġáĥŀ áĥĲáĥ¡áĥ£áĥ®
Ġà¦¤ à¦¥
Ġby ÅĤ
Ġmo i
ĠÏĢ Î»ÎŃÎ¿Î½
Ġáĥ¨áĥĶáĥ¡ áĥĲáĥĳ
Ġser a
Äį enÃŃ
Ġdi ver
ÙĩØ± Ø§ÙĨ
ĠÚ¯ ÙĪ
Ø§ Ø§
ĠØ§ÙĦØ£ Ø³
à¤¿à¤¤ à¤¾
Ġà®ķà¯Ĥ à®Łà¯įà®Ł
Ġo pp
ĠÐ´ Ðµ
Ġdi fer
Ġein fach
ÎĹ Î¡
ĠÎ¼Î· ÏĩÎ±Î½
ĠØ¹ Ùħ
à§ «
áĥĽ áĥľ
àŃ į
àµįà´ ļ
Ġà¤ıà¤µ à¤Ĥ
Ġà¤¹ à¤¾à¤²
ìĦľ ë¹ĦìĬ¤
ìĺ¤ íĶ¼
Ġ×ĳ ×¡
a ires
Ð½ Ð¸Ðµ
ÏĢÎµ ÏģÎ¹
êµ °
Ġà¦¬à¦¿à¦ ı
Ġà¦¦à§ĩà¦¶ à§ĩà¦°
à°¤ à±įà°¨
Ġz v
Ġh esab
Ġsz czeg
ste ll
ler in
ÎĻÎļ ÎŁ
Î¼ Î·Î½
áĥĲáĥ¨ áĥĿáĥłáĥĺáĥ¡
ĠÙĨ Ø¯
Ġà¦ī à¦ł
ÏģÎ¯Î¶ ÎµÎ¹
Ġà®İà®©à¯įà®ª à®¤
Ġsp Ã©
ĠÃº lti
Ġko lej
Ġg anz
ÏĥÎ± Î¼Îµ
ĠÎµ ÏĢÏĮ
ĠçĶ ·
appä¸ĭè½½ å®īè£ħ
æĹĹèĪ°åİħ app
Ġèµ °
æĢ ķ
åħ³ éĶ®
Ġäºļæ¸¸ çĻ»å½ķ
à¹ģà¸ ¥à¸
Ġà¤¸à¥įà¤µ à¤¤
à¦¤ à¦¿à¦ķ
ei ÃŁ
áĥĶáĥĿáĥĳ áĥĺáĥ¡
ĠÙĪ ÙĦ
Ġà°ķà±ĭ à°°
Ġb ah
ÏĥÏĦ Î¹Î±
Ð± Ñĭ
Ġby la
Ġbu d
ë ĳĲ
Ġpa ÃŃs
p ro
i ti
ÑĢÑĥ ÑĪ
áĥľ áĥ¢
Ġc l
ÎĻÎļ Îĳ
Î¶ Î¿
Ġà°ªà±įà°°à°Ńà±ģà°¤à±įà°µ à°Ĥ
ĠÙĩ ÙĬ
Ġà®µ à®¿à®µ
Ġáĥ¨áĥĶáĥ¡áĥĲáĥĳ áĥĲáĥĽáĥĺáĥ¡
Ļà§įà¦ ķ
m uÅŁ
Ð² ÐµÐ´
Ġà°ħ à°Ĥà°Łà±ĩ
ĠÚ¯ Ø°
Ġtak ie
Ġà®ķ à®¤
áĥĲáĥľ áĥĻ
Ġag ç½ĳç»ľ
å¹¿ ä¸ľ
Ġą Ĉ
ĠA M
Ġæ Ł
ĠP M
à¹ģà¸Ļà¸° à¸Ļà¸³
ç§¯ æŀģ
æľĹ æĻ®
å¼ĢæĪ· ç½ĳåĿĢ
Ġà¤ĺ à¥ĩà¤£
o i
Ð¾Ð³ Ð»
ÏĨÎ± ÏĥÎ·
in ter
Ġ×© ×ĳ
ĠÄ° l
ĠÎ±Î½Î¬ Î³Îº
à°¿à°Ł à±Ģ
Ġ ãģ¾
ie urs
à¶ ½
à¬ ¿
Ġà¤ķà¥įà¤· à¥ĩà¤¤à¥įà¤°
Ġà®¤à®² à¯Īà®µ
Ġnas ze
Ġëĭ ¹
ĠÏĮÎ» ÎµÏĤ
Ġi tali
Ġd ni
Ġáĥª áĥľáĥĿáĥĳ
à§Ģà¦° à¦¾
l ÉĻy
ĠÐĴÑģ Ðµ
Ġt in
ĠÐ·Ð°Ðº Ð°Ð·
ĠÎµÏĢ ÎµÎ¹
Ġfa c
à®¯ à¯į
ob a
ĠÎķ Î¯
Ð· Ñĭ
Ġn enÃŃ
á¿¶ Î½
Îº ÏĦÎ·
ĠVer s
Ø§ ÙĬ
Ø¹ ÛĮ
à°¾à° «
Ġz ro
Ã§ ek
ĠI hr
ÅĻe j
à®¿à®² à®¿à®°à¯ģà®¨à¯įà®¤à¯ģ
Õ¡Õ ¦
ÉĻs ini
ÏİÎ½ ÎµÎ¹
ĠM i
ĠÎ±ÏĢÎ¿ÏĦÎµ Î»ÎµÎ¯
Ġà¦§ à¦°
es to
áĥª áĥĺáĥĲ
Ġche z
r ÄĻ
ãģª ãģı
ĠáĥĴ áĥĿáĥĴ
Ġáĥŀ áĥĲáĥłáĥ¢
Ġ":" "
íĤ ¤
ĠM en
Ġagäºļæ´² çĻ»éĻĨ
è´Ń ä¹°
éĺ¶ æ®µ
ĠáĢ ¡áĢ
è¨ Ī
è¡Į æĶ¿
åħĪ çĶŁ
ä¸Ģ æł·
ŀà¸´à¹Īà¸¡à¹Ģà¸ ķà¸´à¸
Ġè§ £
ĠagäºļéĽĨåĽ¢ å®ĺæĸ¹ç½ĳç«Ļ
Ġag ä¸ĭè½½å®ĺæĸ¹ç½ĳç«Ļ
ç¨ ®
å² Ĺ
Ġç» Ļ
Ġä½¿ çĶ¨
áŁ ĩ
à¹ģà¸ľ à¸Ļà¸
à¹ģà¸ªà¸Ķà¸ ĩà¸
Ķ à¸´
çļĦ é«ĺ
Ġà¸ Īà¸°
à¸²à¸ªà¸´ à¹Ĥà¸Ļ
à¤¾à¤ ·
à°¡ à°¿
ĠØ¨ ØŃ
à¦ŀ à§įà¦ļ
Ġáĥ¡áĥĲáĥŃ áĥĺáĥł
ÉĻr ÉĻk
Ġar ri
Ð»Ñı ÐµÑĤ
á»ķ i
Ġt Ã©
×ŀ× ©
Ġt ara
Ġà°¨ à°¿à°ľ
j as
Ð¸ÑĤ Ñĥ
cz na
Ġw el
ĠáĥĹ áĥķáĥĺáĥĹ
ni co
Äį as
ÏĢÎµ Î´Î¿
Ġà°ªà±įà°° à°¾à°°
Ġa vait
Ġpow in
ĠØ§ÙĦØ ¢
Ï ĭ
ÑģÑĤÑĢ Ð¾Ð¹
ĠáĥŀáĥłáĥĶáĥĸ áĥĺáĥĵáĥĶáĥľáĥ¢
à¥Ĥà¤ ľ
im a
ĠØ ¸
ÏģÎ¹ ÏĥÎ·
ĠáĥĿ áĥ¯áĥĲáĥ®
ĠÑĤ ÐµÐ¿
Ġà¦¹ à¦ĵ
n iÄĻ
ĠÙħ Øµ
ar aq
Ġr ych
ĠÏĥ Îº
u ti
áĥķ áĥĺáĥłáĥ
ĠÚ¯ Ø²Ø§Ø±
Ġmuch o
à¤ķ à¥įà¤¸
Ð¾ ÑĦ
ê ¶Į
ÏĢÎ± Î¯Î´
Ã¶y le
bur g
ĠÏĦ Ïį
à°¦ à°°
re ib
ĠÑĢÐµÐ· ÑĥÐ»ÑĮÑĤ
Ġge b
Ġà°Ń à°¾à°µ
à¯Īà®¯ à®¿à®©à¯į
ci dad
Ġwy so
ĠK h
áĥ£áĥ «
Ġd Ã©s
çº ·
è¿Ļ éĩĮ
ª à¸²à¸£
11 8
ģà¸£à¸ °
ĠagåĽ½éĻħäºļæ¸¸å®ĺç½ĳ æīĭæľº
åĪ º
Ġàª ª
Ġà¤Ĩ à¤¤
Õ«Õ ¯
ĠdÉĻy iÅŁ
ĠØªÙĪÙĦ ÛĮØ¯
Ġinc ont
ĠÎ¿ Ïħ
Ġëĭ ¨
owa ÅĤ
Ġd Å¯
à°¾à° Ń
D F
Ġp uis
Ġu lti
Ćć ï¼Į
åĮ» çĸĹ
ªà¸Ļ à¹ĥà¸Ī
łà¸²à¸ ©à¸²
ç¯ ®
å®£ ä¼ł
åĿ ı
Ġáł ¤
è¯ģ åĪ¸
åģ ı
à¹ĥà¸ Ķ
ĠagçľŁäºº æĹĹèĪ°åİħä¸ĭè½½
å¼ Ĭ
áĭ į
à¸£à¸²à¸ ĩà¸
h one
å½± è§Ĩ
çĽĳ ç®¡
ä¾Ľ åºĶ
à¤¾à¤Ĥà¤ µà¤°
ĠØ¨ Ø²
ĠáĥĽáĥĶáĥ¢ áĥĺ
ĠÐ¿ÑĢ Ð¾Ñģ
ĠI S
à±ĥà°· à±įà°£
Ġà°¨ à±Ĩà°²
Ã¦ r
ent lich
Î½Î¿ Î¼Î±
×ķ× £
ta ciÃ³n
Ġpo li
ĠÐº Ð°ÑĢ
à¯ģà® Ļà¯įà®ķà®³à¯į
Ð°Ð» Ð¸ÑģÑĮ
Ġi hre
uyá»ĩ n
ãģ§ãģĻ ãģĮ
ĠTÃ¼rk iye
Î»Î¬ Î²
«à¸Ļà¸±à¸ĩà¸ ªà¸
Ġà¤ľ à¤Ĺ
Ġil k
Ġà¦¦à§ĩà¦ĸ à¦¾
ĠÎķ ÎĿ
ÎŃÎ½ ÏĦÏģÎ¿
Ġà°ļà±ĩà°¸ à°¿
Ġpr incip
ÙĤ Ø§Øª
ĠÎł ÏģÏī
Ġë¶ Ī
ÏĦÎ¹ÎºÎ¿Ïį ÏĤ
áĥĲáĥłáĥ £áĥļ
Ð° Ñī
à°°à±įà° ·
d Åº
Ġà¦ĵ à¦ĩ
Ġà®ªà¯Ĩ à®¯
ĠÐ¶ Ð¸Ð²
ĠÂ ½
iá» ħn
Ïİ Î½Î±
Ġà¦¸à¦¦ à¦¸à§įà¦¯
áĥĺáĥł áĥĶáĥĳáĥĲ
ni ca
ĠÙħ Ø³Øª
Ġãĥ ķ
Ġquel ques
Ġç¡ ®
7 99
ĠUU å¿«3
áŀ¶áŀ ĵáŀ
à¹ģà¸ ģà¸£à¸
à¤¾à¤Ĥà¤ ¬
Ġbar ÉĻdÉĻ
Ġ ÅĻ
gen d
is to
Ġà¦¤ à§ĭ
×¢ ×ª
Ġà¦ªà¦°à§įà¦¯ à¦¨à§įà¦¤
Î¸ Î¬
Ġà°İ à°¦
Ġs ÉĻh
Ġà¤¦à¤¿à¤² à¥įà¤²à¥Ģ
à· ļ
à¥įà¤ ľ
Ġo per
ĠÎ±ÏĢÎ¿ ÏĦÎŃÎ»Îµ
à®¿à® £
iy le
áĥ¤ áĥĶáĥł
k l
ĠÐ±Ñĭ Ð»Ð¸
Ġan no
Ġa ia
Ġaia dingin
E W
Ġle bih
ĠÙĪ Ø¥
Ġest Ã¡n
im e
c oup
ĠÏĥÏĩÎŃ ÏĥÎ·
Ġà®¤à¯Ĩà®° à®¿à®¯
à±Ī à°Ł
ĠãĤ ³
el f
ia d
Ġà¦Ĩà¦ª à¦¨à¦¿
Ġkh Ã¡ch
ÏĨ Î±Î¹
Ġse v
ĠD onna
Ġvi ta
Ø§ ÙĪØ±
Ġ= >
áĥ® áĥļ
ĠÃ Ģ
ĠÏħ ÏĢ
Ġà¤Ĩ à¤Ĺ
Ġà®¤à¯Ĭ à®´
Ġs ÉĻb
ĠØ§ÙĦ Ùī
Ø§Ø °
ĠÎķÏħ ÏģÏİ
cj on
ĠMad rid
Ġm om
ĠíĬ ¹
ĠI hre
ĠÎ±Ïģ ÎºÎµ
ãĥ ¯
ĠáĥĽáĥĿáĥ «
ĠÚ©ÙĨ ÙĨØ¯
Ġà®µ à®²
×ĳ ×ķ×ĵ
ÙĪ Ùĥ
ic ul
ĠZ a
à· Ļ
à¤® à¥įà¤®
i as
Ġs or
ÐµÐ½ÑĤ Ñĭ
×Ļ×ł ×Ķ
Ġáĥĵ áĥĺ
Ġl Ã©
Ġà¤¸ à¥ģà¤
dz e
t ras
ĠÏħ ÏĪÎ·
Ġà°µà°¿à°ľ à°¯
ãĤĤ ãģ®
Ġer a
Ð°ÑĤ ÐµÐ»Ñı
áĥł áĥĶáĥĳáĥĺáĥ¡
di en
Ġà°ļà°Ĥà°¦à±įà°° à°¬
Ġà°¸ à±Ĩ
ĠÎ³Îµ Î³Î¿Î½
Ġ; ï¼Į
éŃ Ķ
åıĹ åĪ°
Ġé¦ĸ é¡µ
å¡ ŀ
é£Ł åĵģ
è¶ ĭ
à¥įà¤¯à¤¾à¤ µ
Ġmo is
ĠP rzy
áº¡ ng
ÑħÐ¾Ð´ Ð¸ÑĤ
Ä±n Ä±z
Ġà¦Ľ à¦¾à¦¤à§įà¦°
à¯ģà®¤ à®¾à®©à¯į
dz a
ĠnÄĽ k
Ġà¤ħà¤Ĺ à¤°
Ġà¦¹ à¦¾à¦°
ĠÎ±Î½Î¬ ÏĢÏĦÏħ
und e
ĠÙ¾ Ø±ÙĪ
ĠÎ´Îµ ÏįÏĦÎµ
ìĹĲ ëĬĶ
Ġà®Ĵ à®©à¯įà®±
ĠÙĬÙħ ÙĥÙĨ
Ġà°ķà±Ĭ à°¨à±įà°¨à°¿
Ġvo ir
áĥĺáĥ¡ áĥĻ
ĠÑģÐ¾Ð¾ÑĤ Ð²ÐµÑĤ
à¸£à¸¹à¹īà¸ªà¸ ¶à¸ģà¸
è®¡åĪĴ app
åħ¬ å®ī
èĭ ¥
à¹Ģà¸ ĩà¸´à¸Ļ
ç¼ ĵ
ç®Ģ åįķ
æĿ¥ è¶Ĭ
Ġà¤¨ à¤¿à¤¯
ko rzy
ĠÐ±ÐµÑģÐ¿Ð»Ð°ÑĤ Ð½Ð¾
Ð°ÑĢ Ð°ÐºÑĤÐµÑĢ
Ġà¦¬ à¦¸
ĠÎµÏĨÎ±Ïģ Î¼Î¿
Ġc ro
uch t
ÐµÐºÑĤ Ð¸Ð²
Ïī ÏĥÎµ
à®¿à®¤ à¯į
ad ores
ĠÅĽ wia
Ġà§§à§ ¨
Ġáĥľ áĥĲáĥ¬
à¦¿à¦ «
a ine
ÎŁÎ Ķ
Î¹Î¬ ÏĤ
Ġg j
n is
ÄŁ er
el o
Ġà®¤ à®ķ
ĠØª Ø§Ø±ÛĮ
Ġv ns
å½ »
Ġ à¹ĥà¸«à¹ī
¡à¸²à¸ģà¸¡à¸²à¸ ¢
Ġçĥ Ń
ĠN ET
Īà¸±à¸ Ķ
Ġèģ ļ
æıĲ åĩº
ª åĬĽ
¥à¸ Ķ
M S
ĠçľŁéĴ± æ£ĭçīĮ
Ġå¼ º
éļ Ĳ
éĢī äºĶ
ä¸Ģ è·¯
7 4
Ġà¸ Ķà¹īà¸§à¸¢à¸
é¸ ¡
à¹Ĥà¸£à¸ ĩà¸
é© »
Ġà¸Ĺà¸ ±à¹īà¸ĩà¸
Ġà¤ªà¥ĭà¤² à¤¿à¤¸
ÐµÑĢ ÑĮ
c olo
Õ« Öģ
Ġd Ã¶v
Ġav is
ĠÏĥ ÎµÎ¹
Ġtrava il
ãĤĮ ãģ¦
à¦Ĥ à¦¶
ĠÐ¾ÑĤ Ð»Ð¸Ñĩ
ĠS al
Ġal ors
Ġl id
Ġáĥĺáĥ¡ áĥĺáĥľáĥĺ
å° º
à¹Ģà¸ŀà¸ ·à¹Īà¸Ń
çļĦ éĩįè¦ģ
am e
Ġæ¾³éĹ¨ çľŁéĴ±
Ġå¹¿ ä¸ľ
ĠåĮ Ĺ
éĢł æĪĲ
à¤® à¤§
ĠC or
ìłģ ìľ¼ë¡ľ
ĠÎĴ Î¿Ïħ
Ġà¤¬à¤¾à¤° à¥ĩ
Ġ×Ĳ ×ł×Ļ
ĠS er
à®¿à®°à¯ģà®ķà¯įà®ķ à®¿à®±
Ġà°¦ à±Ĥà°°
ĠÎ±Ïĥ ÏĨÎ±
an os
Ġà®¤à¯ĩ à®µ
á»į n
ÛĮØ¯ Ùĩ
Ġm uss
Ġb ou
Ġ×Ĳ ×ł
Ð¸ÑĩÐµÑģÐº Ð¾Ð³Ð¾
iz ÉĻ
Ġpre m
ÏĦÎ¿ Î¼Î±
ĠÐ£ ÐºÑĢÐ°
Ð½ ÐµÐ²
à°¾à°¯ à°Ĥ
Øª Ùī
Ġsu per
l ung
Ġà¤¦ à¤¿à¤ĸ
ĠF or
Ã ĥ
Ġv iÃªn
ĠÐ¿ÑĢÐ¾ÑĨ ÐµÑģÑģ
Ġk li
à§ĩà¦ ¯à¦¼
áĥľáĥ¢ áĥĶáĥłáĥĶáĥ¡
ĠD Ã¶vlÉĻt
ÐµÑĢ Ð¾Ð²
Īà¸ Īà¸¸à¸
æĤ ī
ãĢ ĭ
ģà¸£à¸°à¸ Ĺà¸
Ġà¤ĺ à¤Ł
ĠÕ į
Ġdi gÉĻr
Ġni Å¼
ÙĩâĢĮ ÙĩØ§ÛĮ
Ġáĥ® áĥĿáĥļáĥĿ
Ġà°ķà±Ĭ à°¨
ti j
ĠÐ¾ÑĤ Ð·ÑĭÐ²
ĠÑĢÐ°Ñģ Ñģ
Ġà®ª à®Łà¯įà®Ł
Ġf aut
Ġk ein
Ġn in
ĠáĥĴ áĥĲáĥĹ
à°¨ à±Ĥ
Ġprof ession
ÏĦÎ¹ Î¿
Ġà°ªà±Ĩ à°°
ĠSe x
Ãº s
Ġf re
Ġpay s
ÐµÑĢ Ð±
ĠØª Ø¬
f r
ĠÑĢ ÐµÐ±
ĠÐ¼Ð½ Ð¾Ð³
Å¯ sob
Ġag çĶµæ¸¸
è· µ
è¡ ¡
Ġà¸ªà¹Īà¸§ à¸Ļà¸
å© ·
Ķ à¸µà¸¢à¸§à¸
Ġà¤¦à¤¿à¤² à¥Ģ
Ġà°ħ à°ķà±įà°ķà°¡
Ġà¤ªà¤¹ à¥ģ
×ŀ ×Ļ×Ŀ
ãĤ º
ĠÏĥÏħÎ½ ÎŃÏĩ
ĠáĥłáĥĿáĥĽáĥĶáĥļ áĥ¡áĥĲáĥª
ĠëĶ °
«à¸¥ à¹Īà¸²
Ġà¤¶ à¤¿à¤ķà¥įà¤·
Ġm am
p od
eler i
Ġà®µ à®¿à®´
á» £
ĠÏĦ ÏģÎ±Î³
is ter
Î´Î® ÏĢÎ¿ÏĦÎµ
Ġà°ķà°¾à°° à°£
Ø® ÙĦ
Ġà¤¸ à¥ģà¤¨
à¯ĭ à®°
ĠáĥĹáĥ¥áĥķáĥĶáĥľ áĥĺ
§à¸ ¢à¸
Ġáł ¬
à¸µà¹Īà¸ Ľà¸
Ġå¼ ķ
22 6
ç§ģ æľį
å®Į åħ¨
å¤ĩçĶ¨ çĻ»å½ķ
Ľà¸¥ à¸Ńà¸Ķà¸
Ġé¾ Ļ
Ġæ·± åľ³
èµļ éĴ±
áĪ µ
ľ à¹īà¸²à¸
æľī çļĦ
à¥ĭà¤ ·
ĠÐ½ ÐµÐ¼
ĠH aus
a te
Î»Î¬ ÏĩÎ¹Ïĥ
Ġda x
Ġà¦® à§įà¦¯
Ġm il
ãĥ Ŀ
Ð¾Ð½ Ðµ
Ã ı
ĠÂ ³
Ġx e
ĠØ£ Ø³
ĠæĤ ¨
Ġ'> </
è§ī å¾Ĺ
¯ áł
Ĺà¸³à¸ ĩà¸²à¸Ļ
Ġæ ĵ
éĩį å¤§
h g
Ġèµ Ħ
Ġà¸ĸ à¹īà¸²
è´µ å®¾
Ġw 66
à¸Ńà¸Ńà¸Ļà¹Ħà¸¥ à¸Ļà¹Įà¸
§à¸ ļà¸
Ġç¤ ¾
Ġå¾ Ĺ
± à¹Īà¸Ļà¸
é¥ ®
ä¹Ł ä¸į
«à¸¡à¸ Ķà¸
Ġèĭ ¥
Ĭà¸²à¸ ¢
Ġà¤¤ à¤¯
à±ģà°ķ à±ģà°¨
ĠáĥĽ áĥĶáĥĴ
Ġe ing
à¦¿à¦ķ à¦¾
ÎĳÎ ĺ
ĠÎº Î¿Ïģ
g ÃŃa
ĠáĥĽáĥĿáĥľ áĥĲáĥ¬áĥĺáĥļ
à°¿à°¯ à±ĭ
à¤Ĺ à¤¾
à¯Ĭà®° à¯ģ
ĠÎ³ Î¹
ĠáĥŀáĥłáĥĿáĥĴ áĥłáĥĲáĥĽ
Ð¾Ð² Ð¾Ð´
ĠÎ±ÏĢ Î±Î¹
×Ĳ ×ª
ig er
I A
Ġne lle
à¦¾à¦® à§ĩà¦°
ìĦ Ŀ
ĠA s
áĥĶáĥĳáĥĺ áĥĲáĥľ
ĠÐº Ð½Ð¸
Ġà¤ĸ à¤¿à¤²
iÄĻ ki
ĠÐĵ Ð»Ð°Ð²
åĥ ¹
å¥½ è¿Ĳ
ķà¸£à¸ ĩ
Ġäºļæ¸¸éĽĨåĽ¢ åľ¨çº¿
æ¬¢ä¹Ĳ çĶŁèĤĸ
ä»ĸ çļĦ
à¸£ à¹īà¸²à¸Ļ
Ġç³ »
ĠáĢ ±áĢ
à¥ĩà¤³ à¥Ģ
ĠØ¹ÙĦÙĬ Ùĩ
Ġà¦°à¦¹ à¦®à¦¾à¦¨
Ġà¦Ĺ à§ĩà¦Ľà§ĩ
Ã³ lo
ru ik
ĠÐ· Ð²
à°ķ à±Ģà°¯
qu ier
à¤¿à¤ ¡
ĠÙĪ Ùİ
ĠØ§ÙĦØ³ ÙĬ
à±ĥ à°·à±įà°Ł
Ġan da
Ġë ¸
Ġáĥ¡ áĥ®
ĠN EW
P art
ĠNEW Part
Ġp em
à¯ģà®Ł à¯įà®Ł
: :
ãģ ¹
t ni
Ġà¦¬à¦¿à¦· à§Ł
O L
ĠM il
ÑįÑĤ Ð¾Ð¼Ñĥ
Ġmo do
Ġà®µ à®¾à®°
ĠÎ¥ ÏĢÎ¿ÏħÏģÎ³
ĠÎ¸ Î¬
Ġm ont
Ġa ma
áĥĲáĥ¦áĥĽ áĥĵáĥĶáĥĴ
Ġl Ã½
en y
Ġà¤µ à¥Ģ
Ġà°¬ à°¾à°§
ĠL ie
ÙĨ ÛĮÙĨ
Ī ¬
eit s
ĠÐ±Ð¾Ð»ÑĮÑĪ Ðµ
Î» ÎŃÏĤ
Ġà¦ħ à¦ª
Ġà°¨ à°¾à°ķà±ģ
éº »
Ġà¹Ģà¸ Ħà¸£à¸·à¹Īà¸Ńà¸ĩà¸
ĠagåĽ½éĻħ æīĭæľºå®¢æĪ·ç«¯ä¸ĭè½½
à¸Ńà¸ ´à¸
Ġà¤ķà¤® à¥Ģ
Ġà°ļà±Ĥà° ¡
Ġtrab ajo
ci u
Ġ×Ķ ×Ļ
Ġà®ªà¯ĭ à®©à¯įà®±
ĠÉĻv vÉĻl
Ġc ab
ĠÏĥÏĦÎ¿Î¹ ÏĩÎµÎ¯Î±
à¦¾à¦ ·
ª áĥĺáĥļ
ic es
ĠØ§ÙĦØ¬ Ùħ
us am
ar Ä±
ĠÎ¬Î»Î» Î·
t ki
áĥĽ áĥĶ
Ġe au
Ġu0 4
ĠÐ¸Ð· Ð¼ÐµÐ½
Ġà¤µ à¥ĭ
I D
Ġt anto
Ġà¤ªà¥įà¤°à¤¦ à¥ĩà¤¶
à¤ Ŀ
k Ã½
ĠÎĻ Î¿ÏħÎ½
er d
ĠØª ÙĤ
ĠÎ²ÏģÎ¯ ÏĥÎºÎµÏĦÎ±Î¹
w ier
Ġein es
Ġãģ Ĥ
Ġc Ã¹ng
c ca
áĥĿáĥ £áĥ
à±įà° ŀ
ĠÐ½Ð° ÑĢ
ĠìĤ¬ ëŀĮ
Ġqu ando
Å¡ enÃŃ
à®¾à®Ł à¯ģ
ĠãĤ «
Ġsim p
ĠÑĢÐ°Ð·Ð² Ð¸ÑĤ
cel ona
Ġsie mpre
ĠÐ¼ Ð°Ð»
Ïģ ÎŃÏĤ
ĠáĥĴ áĥĲáĥĶ
Ġà°Ĺ à±Ĭ
à¤¿à¤¯ à¥ĭ
Ġdzie ci
ra d
Ġà®® à¯ģà®ķ
Ġà¦¬à¦¿à¦ ª
Ã» t
Ġtara f
Î¼Î¿ Î¯
Ġcu enta
ĠnÄĽ j
m Ã©
Ö °
Ġ×ľ ×Ľ
ĠáĥĹ áĥķáĥĲáĥļ
ĠÑĦ Ð¸Ð»ÑĮ
sta w
à°¤ à±įà°µ
ÎµÎ½ ÏĦÏģ
ĠÐ¼ Ð½Ðµ
ĠÐº Ð°Ð·
el ah
Ø§Ø± Øª
Ġc áº¥p
Ġà¤ªà¤¹à¥ģ à¤Ĥà¤ļ
Ġsy ste
ĠÐ· Ð°ÑıÐ²
ĠÎ· Î¼Îµ
áĥ¥ áĥķ
ĠE sc
is ten
ĠãģĿ ãģ®
Ġà¤ľ à¤¿à¤¨
Ġà¦ķ à§įà¦¯
Ġob e
ĠáĥĵáĥĲáĥ ¬
à®¨à¯įà®¤ à®¿à®°
áłłáł Ń
à¥ĩà¤ļ à¥ĩ
ĠÎ±ÏĢ ÎŃ
ĠáĥłáĥĲáĥĽáĥĵáĥĶáĥľ áĥĺáĥĽáĥĶ
ĠØ§ÙĦÙħ Ø³Øª
Ġh iss
Ġque llo
Ġà°° à°Ĥà°Ĺ
tif s
ĠÎĵ Î±
Ġà®Ĩ à®ļ
Ġà¸ Ħà¸£à¸±à¹īà¸ĩ
ķ à¸Ńà¸ļ
ĠĆĈ ć
Ġçİ¯äºļag æīĭæľºå®¢æĪ·ç«¯
åĪ ĳ
Ġåħ¨ åĽ½
èµ Ķ
ļà¸±à¸ ķà¸´à¸
ĠæĶ ¶
æ ª
å® ½
éĤ ®
è¦ Ĩ
Ľà¸£à¸°à¹Ĥà¸¢à¸ Ĭ
Ġéģ ĵ
æĬ ½
à¹Ģà¸¡à¸ ·à¹Īà¸Ń
Ġ9 5
ç´ ¯
2018 å¹´
¥à¸ ±à¸ģà¸©à¸
à¹ĥà¸ª à¹Ī
Ġè® ¾
çĽĳ çĿ£
åĶ Ĳ
Ġà¸Ħ à¸Ļà¸
è®¡åĪĴ è½¯ä»¶
åķĨ åĵģ
åĲ¯ åĬ¨
èģĶ çĽŁ
æİĴåĪĹ 3
à¸Ļà¸ ±à¸ģ
ç¦ı åĪ©
æ³ ½
éĤ Ħ
áŀ¶áŀ ļáŀ
à¸£ à¹īà¸²à¸Ļà¸
ĠagåĽ½éĻħ éĽĨåĽ¢å®ĺç½ĳ
9 4
ĠæĦ ı
è¯ ļ
ç ¸
áŀ Ļ
Ġåį ´
ĠãĢĭ ï¼Į
èĤ ¥
ç«ŀ äºī
å½¢ å¼ı
Ġå¤§åıĳ å¹¸è¿Ĳ
ĠagåĽ½éĻħ é¦Ĩ
à©Ģà¨Ĩ à¨Ĥ
Ġà¸ «à¸Ļà¸±à¸ĩ
è¯ ¦
å®¹ æĺĵ
à¸Ńà¸ļà¸ Ħà¸¸à¸ĵà¸
åĢį æĬķ
æ¸ Ĳ
Ġć ą
Ġäºļæ¸¸éĽĨåĽ¢ æīĭæľº
Ġ äºĭ
åĸľ æ¬¢
Ġà¨¦ à¨¾
à¸Ńà¸Ńà¸ģà¸ ¡à¸²
ķ à¸µ
Ġà¸ «à¸¥à¸±à¸ĩà¸
åıª æľī
áŀ ¼
éĢģ å½©éĩĳ
æī £
?? ??
ä¸ĭè½½ åľ°åĿĢ
à¹Ħà¸¡ à¹ī
ĠåĽ½éĻħ åİħ
çĶ³è¯· ag
å¤§åıĳ æĹ¶æĹ¶å½©
Ġagçİ¯äºļ ç½ĳç«Ļ
åĪĨæİĴåĪĹ ä¸ī
Ġäºļæ¸¸éĽĨåĽ¢å®ĺç½ĳ çĶ³è¯·ag
Ġagäºļæ´²åĽ½éĻħ éĽĨåĽ¢
ĆĈ ą
éª ¨
ag äºļ
ĠåĲ ĳ
Ġagçİ¯äºļ æ¸¸æĪı
ia ng
Ġäºļæ¸¸å®ĺç½ĳ éĿŀåĩ¡
6 æľĪ
Ĺà¸µà¹Īà¸ ¡à¸µ
Ġagäºļæ´²éĽĨåĽ¢å®ĺç½ĳ agäºļ
Ġà¤¨à¤¿ à¤°à¥įà¤®
Ġà°Ĩ à°¸
h et
Ø§ Ø³Øª
ĠÐ¾ Ð¿ÑĢÐµÐ´ÐµÐ»
Ïĥ ÏĦÎ±Î½
à®¾à®³ à®°à¯į
ĠÎµÎ¯ ÏĢÎµ
iy at
I ON
Ġris p
Ġcel a
rz ÄĻ
Ġà°ķà°¨ à°¿à°ª
Ġáĥ® áĥĲáĥļáĥ®
Ġes o
ĠÎºÏħÎ²ÎŃÏģÎ½Î· ÏĥÎ·
Ġà¤īà¤¸ à¤ķà¥ĩ
ÑĢ Ð°Ñģ
ill o
à§įà¦° à§Ģ
Ġà®Ĩ à®£à¯įà®Ł
Ã¡v Ã¡
Ġx pj
æľº æ¢°
ķ à¸£à¸§à¸Īà¸
Ġæŀ Ĺ
Ġæ° ¸
é į
å¾ ½
à¨ ¬
éĩı çļĦ
Ġå £
Ġà¤¸à¤¾à¤Ĥà¤Ĺ à¤¿à¤¤
k ÅĤa
Î³ ÎŃÏĤ
Ġà¦¢ à¦¾à¦ķà¦¾
à§ģà¦ ģ
Ø§Ø±ÙĬ Ø®
Ġ×Ĳ ×Ŀ
ĠØ§ Ø·ÙĦ
qu er
ÐµÑĩ ÐµÐ½Ð¸Ðµ
ĠáĥĻ áĥķáĥļ
à°Ł à°¨
ĠnhÆ° ng
Ġà¤ī à¤¸à¥ĩ
dÄ± ÄŁÄ±
Ð¡ Ð¢
ĠÐ´ Ð¾ÑĢ
ĠÎºÏĮÏĥ Î¼Î¿
ĠíĻ ķ
ll ando
ci miento
ie re
æ® Ĭ
Ġå°± æĺ¯
Ġà¨¤ à©ĩ
éĻ ·
Ġàª ¸
Ġæī į
ç¤¾ åĮº
åĬŀ æ³ķ
à¹Ī à¸Ńà¸Ļà¸
æĻ® éĢļ
½ áĢ
ģà¸´à¸ Ī
åĿ ¦
à¸£à¸§à¸ ¡
åĬ© æīĭ
Ġą ĆĈć
§ à¹Į
ĠåĪ ¶
à¤¾à¤Ĥà¤ ª
s I
z pie
áĥł áĥĲáĥ¢
Î² Î¿
Ġex emp
à§ĩà¦Ľ à¦¿
ĠáĥĴáĥĲáĥľ áĥ®
Ġpod le
ĠØ§ÙĨØ¬ Ø§Ùħ
ÏĥÏĦÎµ Î¯
ĠÐ¿ÑĢÐ¾Ð± Ð»ÐµÐ¼
ØŃ ÙĬ
à¦¿à¦¯à¦¼ à§ĩ
Ġà¤¬à¤¤ à¤¾à¤¯à¤¾
con tre
Ã´ t
jÄħ cy
en de
Î» ÏīÏĥÎ·
áĥĺáĥ§ áĥķ
os a
ì² ĺ
áĥĲáĥļ áĥĺáĥ¡
àµģà´ ¨àµįà´¨
Ġà¤®à¥ģà¤ Ŀ
à®¿à®ķ à®´
Ġà°Ń à°¾à°Ĺ
ov al
iy i
Îº Î»Î¿
Ð°Ð½ Ð¸Ð¹
ich i
à¶ §
à¤µ à¥Ģ
ĠÎ´ ÏģÏĮ
ie ur
y t
áĥĲáĥĺ áĥľ
Ġbe im
ĠÎľ ÏĢ
Ġ×ĳ ×§
Ġprzy pad
Ñĩ Ð°Ñģ
Ø¹ ÙĪØ¯
Ġser v
Ġà¦¥ à¦¾à¦ķà§ĩ
ªà¸§à¸ ¢
ªà¸¡à¸²à¸ Ĭà¸´à¸
¥à¸ ¹à¸ģ
é Į
ç¼ ĺ
çĩ ĥ
Ġu ed
åıĸ å¾Ĺ
Ĺà¸µà¹Īà¸ ªà¸¸à¸Ķà¸
Ġ ä¹ĭ
åĳ Ī
æ² ī
à¹ģà¸Ĥ à¹Īà¸ĩà¸
ĠãĢĤ ãĢĬ
Ġï¼ İ
ĠéĤ£ ä¹Ī
æĿ °
ĺ à¸µ
Ġà¤¨à¤µ à¥įà¤¹
Ð¾ÑĤÑĢ ÐµÐ±
ĠØª ÙĩØ±Ø§ÙĨ
ĠÙħ ÙĬ
Ú© ÛĮ
ÎŃ Î»
Ġi ki
Ġà°¦ à°°à±įà°¶
ëĵ ł
ÙĤ Ùħ
ĠáĥĶ áĥĽ
à±ģà°° à±ģ
áĥĶáĥłáĥ «
Ġth is
Ġpersonn es
Ġby lo
Ġà¤¹ à¥Ĥà¤
ĠwiÄĻ c
sch l
Ġà¤² à¤¿à¤¯à¤¾
áŀ ĳ
åĳ¨ å¹´
èĥ ¶
Īà¸±à¸ ļà¸
æĢİä¹Ī æł·
ŀà¸Ļà¸ ±à¸Ļ
ç»Ł ä¸Ģ
Īà¸ ¶à¸ĩà¸
é¥ Ń
į à¸µà¹Īà¸Ľà¸
§à¸´à¸Ĺà¸¢ à¸²à¸
ĠåĲ į
Ġà¤ķà¤¾à¤° à¥įà¤¯à¤ķ
ĠâĢĿ ,
aj es
ĠÐ½ Ð°Ð»
Ġà°Ĩ à°«
ĠÏĢÏģÎ¿Ïĥ ÏĢÎ¬
omb res
ĠÑģÑĤ Ð°ÑĢ
ÏģÎ± Ïĥ
ĠL and
Ġd urante
Ġvá» ¥
Ùĩ Ø¯
à¤Ĺ à¤³
ĠÎ¿Î´Î· Î³
Ġáĥ¡áĥĲ áĥĲáĥĹ
asÄ±n Ä±
Ð¾ÑĤ Ð°
ĠÐ¿ÑĢÐ¾ÑĤ Ð¸Ð²
æĺ¯ ä¸Ģä¸ª
à¤²à¥ĩà¤² à¥ĩ
Ġw at
Ġà®®à®ķà¯įà®ķ à®³à¯į
Î³Î³ÎµÎ» Î¼Î±
ĠÙĨÙħ ÛĮ
ĠÙĪ ÙĦØ§
any ak
Ġwar to
ÎŁÎ¥ Î£
ÎŃ Î½Î±
Ġat ten
ÏĦ ÏĤ
à¤¬ à¥Ģ
à¤Ĺ à¥Ģ
Ġpro ble
Ġà°ªà±įà°° à°¾à°Ĥà°¤
Ð «
ĠÐº ÑĤÐ¾
ãĥ ¢
ro b
ĠÎ¼ÎŃ ÏģÎ¿ÏĤ
åħįè´¹ è§Ĩé¢ĳ
à¤¾à¤ķ à¤°
Ġëª ©
Ġáĥ¡áĥ®áĥķ áĥĲáĥĵáĥĲáĥ¡
×ķ×ľ ×Ŀ
Ø³ Ø©
Ġorg an
ĠÑģÑĤ Ð¾ÑĢ
Ġà¤µà¤¾à¤² à¥Ģ
Ġà®ª à®¿à®Ł
à§ģà¦¦à§įà¦§ à§ĩ
ĠãĤ µ
m it
ĠØ² ÛĮØ±
n it
Ġíķ ł
Ġà®® à®¾à®±à¯įà®±
ÑĢ Ðµ
ka mi
Ġqu a
n b
ĠÎµ Î¸Î½
Ġà¦ī à¦ļ
Ġáĥ¢ áĥĶáĥł
ri que
Ġg erek
ÉĻhs il
ĠÎ´Î¹Î¬ ÏģÎºÎµÎ¹Î±
Ñĥ ÑĢÐ°
Ġà°ļà±ĩà°¸à±įà°¤ à±ģà°¨à±įà°¨
ãĤĬ ãģ¾ãģĻ
Ġì »
Ġq an
Ġd am
L CJ
Ġz ag
Ġheb ben
ĠÙĤ Ø§ÙĦ
ĠáĥĽ áĥĿáĥĵ
Ġà¤µ à¥įà¤¯à¤µ
Ġà°µà°¾à°° à°¿
e u
Ġà®µà®¾à® Ļà¯įà®ķ
ĠV Ã½
ÑĨ Ðµ
Ġdes arro
Ġj ou
c Äħ
×¨ ×Ļ
Ä Į
ov Ã½ch
Î¬Î» Î¹
Ġe uro
ĠÎµÎ¾ ÎŃ
áĥĺáĥļ áĥ¡
ch te
ÛĮÙĨ ÛĮ
Ġ áŁ
éŀ ĭ
éļ Ķ
à¸£à¸°à¸ļà¸ ļ
é© ¶
ļà¸²à¸Ħà¸²à¸£ à¹Īà¸²
à¥ ¯
ÙĦÙĬ Ùħ
Ġà¤¶à¥ģà¤° à¥Ĥ
à¯ģà®ķ à®³à¯Ī
Ġí ļĮ
ÏĦÎ¹Îº Î¿Î¯
Ð° ÑĨÐ¸Ð¾Ð½
Ġà¦¯ à¦¦à¦¿
ÎĳÎ ¦
ĠÎļÎ± ÏĦÎ±
Ġp ag
ĠB ei
Ġäºļæ¸¸ å®ĺæĸ¹ä¸ĭè½½
Ġåĩ¯åıĳ å®ĺç½ĳ
Ġà¤ħà¤¸ à¤¤à¥ĩ
ĠÙĦ ÙĬ
ĠÎ» Ïį
ĠÎ´Îµ Î´Î¿
ĠáĥĴáĥĺáĥĿáĥłáĥĴ áĥĺ
Ġáĥ¡áĥĲáĥĽ áĥĺáĥľáĥĺáĥ¡áĥ¢
ĠPos tÃ©
p ond
ĠÐļ Ð¾Ð½
at ter
cri ption
O U
Ġj ours
áĥļáĥĶáĥĳ áĥ¨áĥĺ
Ġst os
ĠØ§Ø·ÙĦ Ø§Ø¹
ĠÎ¹ Î´Î¹Î±Î¯
w as
ĠÐ½ Ð¸Ñħ
Ġà°¨à°¿à°°à±įà°µ à°¹
Ġà¤ľ à¤²
b res
ÉĻ ng
Äį nÄĽ
Ġì¢ ĭ
à°¾à°¸ à±į
Ġ osta
Ġch icas
Ġc r
lam a
å¯ ¾
ĠÎµÎ¾ Ïī
áĥĺáĥķ áĥĶ
Ġ×Ľ ×Ĳ
ÙĪ Ø©
ÐµÐ² Ð°
ĠW ie
Ø± Ø³
Ãª t
ĠÐ²Ñĭ Ð±
Ġcas a
à¯Ĥ à®°à¯į
ĠÏĦ ÏģÎ¯
ĠáĥĲáĥ®áĥļ áĥĲ
à· Ħ
à¤¾à¤ĩ à¤Ł
Ã Ĥ
Ġph áº©m
ĠD et
ĠT ra
Ġáĥ£áĥłáĥ Ĺ
ĠÑģÑĤ ÑĢÐ¾
à§ģ à¦¸
ĠÎļ Î¹
ĠÎ½ Î·
Ġc oup
an ych
áĥĲáĥ¨áĥĿáĥłáĥĺáĥ¡ áĥĿ
ĠH and
ê°Ģ ê²©
ìķĦ ê°Ģ
ll as
Ð¾Ð» Ð¶
áº¥ u
Ġíķľ êµŃ
dÉĻ t
à®¤à¯įà®¤ à®¿à®±à¯įà®ķà¯ģ
Ġà°¸ à°Ń
s g
Ġìĥ Ī
Ġãģĵ ãģ®
ap a
Ġdes s
Ïĥ Î¬
Ġpr ost
áĥ¢ áĥĻ
ĠÐº Ð»Ð¸
Ä±s Ä±
Ġà° ĺ
ru tt
ĠÚ¯Ø²Ø§Ø± Ø´
Ġà¦Ń à¦¾à¦ĩ
Ø¦ Ø©
ĠK inder
ÏģÎ· Î¼Î±
×¢ ×ķ×ª
Ġmo d
ĠÐºÐ² Ð°ÑĢÑĤ
Ġà¦¤ à§Ī
ĠIS T
Ġà°ª à±įà°²
Ġd ist
Ð°Ð» Ð¸ÑģÑĤ
Î½ ÏİÎ½
áĥ£áĥł áĥĲ
cj al
ĠvÃŃ ce
åĩĨ å¤ĩ
Ĥà¸ ±à¹īà¸Ļà¸
Ġäºļæ¸¸éĽĨåĽ¢ åĽ½éĻħå®ĺç½ĳ
èĻ ļ
æ¸© åº¦
à¹ĩ à¸Ļ
Ġà¤¯à¥ĩà¤¥ à¥ĩ
ĠÐ¾ ÑĦ
ĠÎºÎ± Î¯
Ġë° ĺ
h m
ĠÏĦ Ïħ
à°¸à±įà°Ł à±į
à¤¦ à¥Ģ
Ø§Ø² Ùħ
ĠáĥĴáĥĲáĥľáĥĲáĥªáĥ®áĥĲáĥĵ áĥĲ
à¯Ī à®¤à¯į
p s
ĠÐ´Ð¾Ðº ÑĥÐ¼
i i
ĠØº ÙĬØ±
ĠÎ½ÎŃ Î¿
ĠÑĥ Ð»
ĠÙĨ Ø³
Ġà´ ¤
Ġà¤µà¤¿à¤ Ń
Ġà°²à±ĩà°¦ à°¾
Îľ ÎĳÎ¤
ĠÏĨ Î¬
ĠÐ¸ Ñİ
Ġk ol
isse ment
Ġnue vo
O D
Ġpo zy
ÃŃ o
r er
ĠÐ» ÐµÐ³
Ġtr Ã¬nh
à¯Īà®ķà¯įà®ķ à¯ģà®®à¯į
Ġte c
ëĶ Ķ
ĠÎµ Î¹ÎºÏĮ
ĠáĥĽáĥ£áĥ¨ áĥĲáĥĿáĥĳ
ĠD I
Ġr ag
×© ×ķ×ª
Ġà¤¬ à¥Ģà¤ļ
éĿ¢ è¯ķ
çĬ¶ æĢģ
æľ ±
å½© ä¹Ĳ
ĠçĿ Ģ
ç¬¬ åĽĽ
å¸¦ æĿ¥
Ľ à¹ĭ
Ġà¤¦ à¥ģà¤¸
ck e
Ġag gi
ĠP L
owan ych
Ġk ay
in n
Ġà®ļà¯Ĩà®¯à¯įà®¤ à¯ģ
ĠÎµ Î³Îº
à§įà¦¯ à§ĩ
Ġáĥ¡ áĥĺ
ĠÕ ¬
Ġx Ã¼sus
ei g
Ð°Ð» Ð¾ÑģÑĮ
ĠØªØ§Ø±ÛĮ Ø®
Ġs ab
ĠN aj
ist es
ÎŃ ÏģÎ±
Ġj ÃŃ
Ġà®¨ à®©à¯įà®±
ill as
à§ĩà¦ ·à§įà¦Ł
ta zione
à®¿à®© à®°à¯į
Ļ àµįà´
Ġà¤µà¤¿à¤¶ à¥įà¤µ
íı ī
ci Äħ
ĠØ§ÙĦØ¹ Ø§ÙĦÙħ
ĠÏĩÏİ ÏģÎ¿
ĠáĥĽáĥĿáĥ Ĺ
ãĥ Ļ
ĠÎµ á¼
ĠÏĢÏģÏī ÏĦÎ¿
Ġbeau coup
Ġc ir
ê ´ĳ
Îº Î¿ÏĤ
ĠT er
ĠÐ¿ÑĢÐ¸Ð¼ ÐµÐ½
Úĺ Ùĩ
lij k
ĠÄį i
al t
ĠÐº Ð°ÑĤ
ĠÎķÏħ ÏģÏīÏĢÎ±ÏĬ
Ïĥ Ïħ
Ġagçİ¯äºļ å®ĺç½ĳçĻ»å½ķ
Ġ) ;
à¸£à¸°à¸ Ķà¸±à¸ļà¸
à¤°à¥įà¤ §
Ġà®ķà®° à¯ģà®¤à¯įà®¤
á» «
pe ÅĤ
ĠÎ£Ïħ Î¼Î²
Ġà¦® à§Ĥà¦²
Ġg u
ĠÏĥ Î¹
lÉĻÅŁ dir
Ġ×ĳ ×ł
áĥĲáĥĴ áĥĲáĥľ
ÃŁ er
à¥Ģ à¤ľ
ëĭ ĺ
ĠÑĤ ÑĢÐ°Ð½
Ġmen y
k la
ĠÙĪ Ø¬ÙĪØ¯
ì§ ģ
ĠáĥĴáĥĲáĥĽáĥĿáĥ §áĥĶáĥľ
ĠÎ¼Î¿Ïħ Ïĥ
ta ble
à®ªà¯įà®ª à¯ģ
cu er
ĠÎ´Î· Î¼ÏĮ
ãģĹ ãģ¾ãģĻ
ĠÑįÐº ÑģÐ¿
ÅĦ ski
ÏĨ Î¯
ãĢ ĳ
ĩà¹Ģà¸ ģà¸
åħ ĳ
à¸Ńà¸ĩà¸ Ħà¹Įà¸
Ġ8 5
ç½Ĺ æĸ¯
à¹Ģà¸ ¡
Ġéĺ ²
ĠãĢĤ .
Ġ2017 å¹´
ŀà¸ ±à¸ģ
Ġè ĳ
à¸£à¸±à¸ģà¸ ©à¸²à¸
33 5
Ġçİ¯äºļag æĹĹèĪ°åİħ
Ġà¸ķ à¸Ńà¸Ļ
Ġà¤¨à¤¿à¤µ à¤¡à¤£
Ġpr Å¯
b les
Ġh ak
Ġà¤¸à¥įà¤¥ à¤¿à¤¤
ow iÄħ
Îķ Îł
ĠÐŀ Ñģ
Î½ ÎµÏĤ
ta dos
ĠÄĳ ang
ĠÙĤ Ø¨ÙĦ
ĸ à¹īà¸²à¸
Ġæ¶ Ī
éĢŁ åº¦
çģ ¾
éĨ Ĵ
´à¸ Ķ
l d
§à¸´à¸ ĺà¸µà¸
æĺ Į
Ġà¤¶ à¥įà¤°à¥Ģ
Ġà®ļ à®Łà¯įà®Ł
ĠÎµÎ¼ÏĨ Î±Î½
Ġt ÉĻh
Ð¸ÑĤ ÐµÐ»Ð¸
ĠáĥĲáĥ¥ áĥ¢
Ġà¦® à§ģà¦ķà§įà¦¤
Ġest udi
Ġv rai
ê »
ĠÅ¾ ivo
Ĭà¸²à¸ ķà¸´à¸
Ġà¤ħà¤¸ à¥ĩà¤²
ĠLe ben
ĠÏĩÏģÎ® ÏĥÎ·
ki ng
ĠÑģÑĤ Ð°ÑĤÑĮ
Ġà¦¸à¦Ń à¦¾à¦ª
Ġà¦ĩà¦ī à¦¨
ĠÃ© tu
Ġg Ã¼
×¢ ×Ķ
Ġos Ã³b
Ġáĥ¡ áĥĺáĥ¡
ĠÏĦÎŃ Î»Î¿ÏĤ
ĠÐ± Ð»
Ġdo ve
Ġà¤Ĩ à¤§
ĠF Ã¼r
Ġà¦¬ à§ľ
ĠU na
íĥ ľ
ĠÐ² Ð¾Ð»
ĠáĥĽáĥĺáĥ ¬
ĠÐ¼ ÑĥÐ¶
Î¸ Ïį
ãģ¾ ãģ§
à¦ Ĩ
ĠÑĪ Ðº
ĠÎ´Î¹Î±ÏĨÎ¿ ÏģÎµ
ĠØ§ÙĦÙħ Øµ
k ovÃ©
Ġp es
m ay
vel op
à§Ģ à¦ķà§įà¦·
s ter
à®¿à®¨à¯įà®¤ à¯ģ
ĠpÅ¯j Äįka
ck Ã½
ĠÑĥ ÑĤ
dzi Äĩ
ti es
Ġà°µ à±ĩà°¸
f Ã©r
wi ck
Ġ( "
Ġáĥ¤ áĥł
ĠnÃ³ i
Ġin d
Ø¶ ÙĪØ¹
ĠØ¨ Ø´
Ġà§§à§ ¯à§
ĠÎ¿ÏĢÎ¿Î¯ Î¿ÏĤ
ĠÐľ Ñĭ
ta ch
åħįè´¹ è§Ĥçľĭ
à¥ĩà¤¶ à¤¨
ì ¼
sta v
v ar
Ġà°ļà±Ĥà° ª
Î´ Î¹ÎºÎ®
Ġ×Ļ ×ķ×ª×¨
Ġà®µ à®¾à®¯
Ð¾Ð³ ÑĢÐ°ÑĦ
à§ĩà¦¶ à¦¨
ĠÏĮ Î»Î¿Î¹
ĠF e
Ð Ļ
ÑģÐº Ð°Ð·
ãģĹ ãĤĩ
ĠÎ´Î· Î»Î±Î´Î®
Ġs ais
Ġinforma ciÃ³n
Ġn Ã£o
Ġpo trze
Ġà®µ à®¿à®ļ
Ġà°ĩ à°¦
Ø§Ø¨ ÙĦ
Î»Î¿Î³ ÎŃÏĤ
ĠA z
Õ¡Õ ·
m um
à°°à±įà° Ń
ĠÑĥ ÑĢÐ¾Ð²
ĠÎĳ Ïĥ
p x
Ġáĥ¡áĥĲáĥĶáĥłáĥĹ áĥĲáĥ¨áĥĿáĥłáĥĺáĥ¡áĥĿ
ĠÎĳ Î¹
Ġje g
at os
ĠG er
åģ· æĭį
Ġà¤¶ à¤¾à¤®
ÑĢÑĥ Ð±
Ġje Å¡tÄĽ
íĹ ĺ
Ġà¦¸ à¦°à§įà¦¬
Ġe ller
pr owadz
w ij
ĠÎµÎ¯ ÏĦÎµ
Ġà°ķ à°³
ter ior
Ġre pr
ÑĢ ÐµÑģ
ones ia
ap i
ä¸ ģ
éĿĴ å¹´
ģà¸ ģà¸
ĠåĮĹäº¬ å¿«3
Ġåħ ī
5 å¹´
Ġ9 1
Ġéľ Ģ
ĠæĿ ¨
è¿Ŀ æ³ķ
èĤ ĥ
Ġæĥ ħ
à¥ ¬
áĥĲáĥł áĥĺáĥĲ
Ġl ay
ĠE uro
Ġm no
áĥĺáĥł áĥĶáĥĳáĥ£áĥļáĥĺ
è£ ¡
çĮ «
ĠagçľŁäºº æīĭæľºçīĪä¸ĭè½½
èģ Ĭ
è¿Ļ ä¹Ī
çľŁ åģĩ
2 åĪĨå½©
à¸£à¸²à¸ §
çļĦ éĹ®é¢ĺ
ï¼ ī
æģ Ĳ
P K
åħ ¼
å° ¾
à¥įà¤¯à¤¾à¤ ķ
Ġà®®à¯ĩà®² à¯ģà®®à¯į
Ġà°µ à°¾à°¡
ĠÑįÑĤ Ð¾Ð¹
Ã§ e
at t
Ġà°ļà±ĩà° ¤
g ang
i h
ÎĹÎ£ ÎĹ
ĠÎ»Î¿Î¹ ÏĢÏĮÎ½
ÎŁÎ¥ ÎĽ
ĠÎĻÎ±Î½ Î¿Ïħ
Ġà¦ĵ à§Ł
ĠÙĥ Ùĩ
Ġres ul
Î¯ ÏĦÎ·
c le
ĠG i
Õ¥Õ ¯
ĠÃ¶z Ã¼n
ĠÐ² Ð°Ñģ
ĠØ³ ÙĨÚ¯
à±įà°µ à°°
ĠÎºÎ¿Î½ ÏĦÎ¬
à§įà¦¯à¦¾à¦¨ à§įà¦¡
áĥľ áĥĺáĥĹ
Ġ\" :
dz enia
à¤¿à¤¯ à¤¾à¤Ĥ
à°ķ à±įà°°à°®
Ġà¤ķ à¤ª
Ø§Ø¯ ÙĬ
Ġà¤Ĩà¤ª à¤ķà¥ĩ
Ġmen os
ĠÐ¸ÑģÑĤ Ð¾ÑĢ
v or
ĠÏĥ Ïİ
á»ĵ i
ĠÚ¯ Ø±Ø¯
Ġh is
à¥ĩà¤µ à¥įà¤¹à¤¾
à±ĭ à°®
Ġì½ ľê±¸
ã ħ
ìł Ģ
h am
Ġáĥ¨ áĥĶáĥ¥
ĠØ§ÙĦØ§ Ø³Øª
ĠÎļ ÏĮ
à¤¾à¤¯ à¤°
Ġf atto
Ġdo ÄŁ
Ġà®° à¯Ĥ
ĠáĥĵáĥĲáĥĺ áĥ¬áĥ§
Î¼Î¿Ïģ ÏĨ
Ðº Ð¸Ð¹
osten los
ĠÂ ¼
Ġl Ãªn
Ġìļ Ķ
Ġà®ļ à¯Ģ
Ġà¤ķ à¤¾à¤Ĥà¤Ĺ
ÏģÎ¹Î± ÎºÎ®
k ommen
Ġo re
Ġà¤µà¤¿à¤ §
Ġà¤ħà¤¨ à¥įà¤¯
ãĥ© ãĤ¤
ĠÙĬ ÙĤ
ĠÏĮÎ» Î¿ÏħÏĤ
ĠÏĦÎ¿ á¿¦
ĠÎ±Îº Î¿Î»
Ð¸ÑĤ Ð°
Ġt ych
×ĳ ×Ļ×Ŀ
áĥĶáĥ¢ áĥĺ
ĠP DF
et er
ĠÐ±Ñĭ Ð»Ð°
ÏĦÎµ ÏĩÎ½
à°¿à°Ĥà° ¤
Ġn um
il o
ĠÙĨ ÙĤ
Ġà¦ª à¦¾à¦¶
á½ ²
ĠÎł Î±Î¹
ÎºÎ±Î½ Îµ
áĥĺáĥ¢áĥĶáĥ¢ áĥĺáĥ¡
ct ie
Ġà°¤à±Ĩà°² à°¿à°ª
ĠmÃ¼ h
à®Ļà¯įà®ķà®³ à¯ģà®ķà¯įà®ķà¯ģ
Ñĥ ÑİÑĤ
Ġo cc
à¦¾à¦° à¦¿
ĠáĥĴáĥĲáĥĵáĥĲáĥ¬áĥ§áĥķ áĥĶáĥ¢
ÏĨ ÎµÎ¹
ãģĵãģ¨ ãģĮ
ĠÏĥÏĩÎµ ÏĦÎ¹ÎºÎ¬
ber g
s y
Ġà¦¹ à§ĭà¦¸
ĠáĥĶáĥĻ áĥĿáĥľáĥĿáĥĽ
Ġà°ªà±įà°° à°¸à±įà°¤
ĠÙĩ ÛĮ
Ġà¦ª à¦¾à¦²
Ġs itu
ĠDi es
Ã Ī
Ġb iáº¿t
à¬ °
Ġà¤ľ à¥įà¤¯à¤¾à¤
Ġ":"" ,"
ë² Ħ
Ġjej ich
Ġkun nen
ĠÐ² ÑĤÐ¾ÑĢ
ĠáĥĽáĥĿáĥ Ļ
Ġà¤ķà¤¾à¤Ĥà¤Ĺ à¥įà¤°à¥ĩà¤¸
Ġà¦ĸ à§ģà¦¬
ÏĦÏģÎ¿ Î½
Ġà°ªà±įà°° à°¶
åľ¨çº¿ æĴŃæĶ¾
Ġà¤ļà¥ģà¤¨ à¤¾à¤µ
Ġnas t
Ġfr anÃ§ais
à±Ĩ à°¡à±įà°¡à°¿
à±ĩ à°Ĥà°¦à±ģà°ķà±ģ
Ïģ ÎµÎ¹ÏĤ
åŃĹ å¹ķ
à¥ĩà¤¨ à¤¾
à¯ģà®£ à¯įà®Ł
Ġvax t
Ø¨ ØŃ
áĥ¨ áĥĺáĥł
à°¿à°¸à±įà°¤ à±ģà°Ĥà°¦à°¿
u ales
p iel
ta ts
ĠB us
Ġc ul
ĠÎ± Ïį
te go
Ø§ Ø´
ĠÎ¤ ÎŁ
ĠÏĦÎ¿ ÏĢ
ĠÐ½ ÐµÐº
Ġà®µ à®¯
ĠÃ§ Ä±k
Äį i
à¤°à¥įà¤ ¡
ì¢ ħ
ĠB r
ĠIn d
Ġà¦ħ à¦¤
ĠÎ¼ ÏĢÎ±
Ġà®µà¯Ĩà®³ à®¿à®¯
ĠØ§Ø³ ÙĦØ§Ùħ
ĠÎľÎµ ÏĦÎ±
ĠÅŁ ÉĻk
ĠmÅ¯ Å¾
Ø¨ Ø±ÛĮ
ĠÎ¸ ÎµÏģ
Ġ×¨ ×Ĳ
Ġà°µà°¿à°· à°¯
Ġch Ãºng
Ġd ÅĤu
pa i
ĠK ar
ĠÑįÑĤ Ð¾ÑĤ
Ġà®ªà¯Ĩ à®°à®¿à®¯
áĥľ áĥĶáĥ¡
Ġg us
Ø± Ø³ÛĮ
ÏĦÎµ Î¯Î±
Ġqu Ã©
ì¦ Ī
Ġag o
à±Ī à°²
ÐµÐ¹ ÑĩÐ°Ñģ
ĠØ¹ Ø¨Ø¯
Ø« ÙĬØ±
Ġáĥ¤ áĥĿáĥłáĥĽ
ĠW enn
ĠÎĿÎŃ Î±
à¥Ĥà¤ ¬
ãģ¨ ãģĹãģ¦
raz ie
sk Ã©ho
à¦¸ à¦¹
ĠÐ½ Ð°Ð¼
ĠÎł Îĳ
ĠÏĩ Î¿
iy et
à§įà¦Ł à¦¾à¦°
à°¾à°° à°£
Ã ī
Ġpre mi
Ġper chÃ©
ĠÎ´Î¹Îº Î±Î¹
Ġà¤¸ à¥ĩà¤µ
pu Ã©s
ĠÎ£ Î¬
Ġt uo
z zi
×Ļ ×ķ×Ł
Ġo leh
Î ĸ
ĠÏĦ ÏģÎ±
à®¾à®µ à®¿à®©à¯į
áĥĶáĥłáĥ ľ
Ð¾Ð¶ Ðµ
p raw
ĠÅ ½
Ġsp iel
Ð´ Ð¸Ð½
Ġre al
ĠÅŁ ek
s er
Ġan i
Ġì² Ń
ĠØ³ Ùĩ
Î´ Î¹ÎºÏĮ
ä¸¥ éĩį
ĻĢâ ĻĢ
ĠéĢ ī
è¿ĩç¨ĭ ä¸Ń
æĢ§ èĥ½
à¤£ à¥įà¤¯à¤¾à¤¸à¤¾à¤łà¥Ģ
Ġá½ ģ
Î´ Î¯Î±
Ġà¤ª à¥Ĥà¤°
ĠÙĪ ÙħÙĨ
ìķ ĺ
h Ã¶r
ĠÃ§ at
auss ures
ÅĤa w
ĠÐ¼Ð¾Ð¶ÐµÑĤ Ðµ
ĠáĥĽáĥĹáĥĲáĥķ áĥĲáĥłáĥĺ
Ġann Ã©e
Ġà¦ľà¦¾à¦¤ à§Ģà§Ł
owan a
en Ã¡
Ġpo i
ÙĪÙĨ ÛĮ
à¦¨ à§Ģ
ĠØŃ ÙĬØ«
×ŀ× ¦
ĠÎļ Î¿Ïħ
Ġáĥ¡áĥ®áĥķáĥĲáĥĵáĥĲáĥ¡ áĥ®áĥķáĥĲ
Ð¸Ð¼ Ð¾ÑģÑĤÑĮ
Ġkh Ã¡c
ļ àµįà´ļ
à¥ Ľ
ĠT amil
Ġà®ªà®ķ à¯ģà®¤
con om
Î¼ÎµÎ¯ ÏĤ
Î© Î¤
ÎĻÎ Ľ
ĠÏĦ á½¸
ĠÏĢ ÎµÎ¹
ĠÎļÎ± ÏĦÎ¬
ĠÐ³ ÑĢÑĥÐ¿Ð¿
Ġa ÅŁ
ĠÅĽ rod
Î³Ïī Î³Î®
an ta
Ġfin den
å£ ²
ra it
ĠÏĨÎ¿Ïģ ÎŃÏĤ
ÑĭÐ² Ð°ÑĤÑĮ
li o
ï¼ Ĳ
Ġãĥ ĸ
Ġáĥ£áĥ ĸ
Ġà°¸à°Ĥà°¸ à±įà°¥
ĠCon ta
ĠÂ ¡
ĠJ u
Ġne z
ĠÅ »
ļà¸£à¸´à¸©à¸±à¸ Ĺ
Ł à¸´à¸
æĺ¯ åĵª
åİ ļ
è¯Ģ çªį
à¤°à¥įà¤ Ń
ĠÑĥ Ð¿ÑĢÐ°Ð²
Ġda ar
Õ«Õ ½
ir k
Ġk ra
à§ĭ à¦¹
si Ã³n
ÏĦÏģÎ¿ ÏĢ
Ġíķ Ħ
f all
ķ à¸Ńà¸ļà¸
Ġty c
åĬĽ çļĦ
æ² Ĵ
Ġæ²¡ æľī
é¡ ¿
çĴ ĥ
æ¢ ħ
å³ ¡
sun city
§à¸ Ķ
Ġne ws
æĺİ æĺ¾
Ġà¤ħ à¤°à¥įà¤¥
ĠÑĥ Ð¼
ĠáĥĲáĥł áĥĲáĥ¡
Ġqu ien
Ø¬ Ø©
ĠÎ¼ ÎµÎ¹
Ð°Ð½ Ñĭ
v ia
ĠØ´ Ø¨
à¦¿à¦ ·à§įà¦Ł
Ġà°¸ à±įà°ķ
ÏĥÏĦÎ¿ Î¹
Ġcon se
ãģĭ ãģ£ãģŁ
áĥĲáĥª áĥĶáĥĽ
Ġpeti t
ĠÐŀ Ð½
n es
à®¾à®µ à®¿à®²à¯į
ĠÎ¼ Î¹
we ise
Ġ×ľ ×ª
Ġ3 33
æĢ» ä»£çĲĨ
à¤¾à¤® à¥ģà¤³à¥ĩ
Ġnie u
ĠÎķ ÏģÎ³
Ġ ÏģÎµ
lÄ± ÄŁ
áĥĺáĥķ áĥĺ
Ġla in
Î· Î¼Î±
r Ã¡t
ãĥ¼ãĤ ¸
Ġà¦¬à¦¿à¦¶ à§ĩà¦·
Ø® Ø§Ø¨
Ġà¤īà¤¤à¥įà¤¤ à¤°
Y n
Ġìł ģ
Ġe ur
Ð¸Ð· Ð½Ð¸
Ïĩ ÏĮ
ĠÏĦÎµÎ»ÎµÏħÏĦÎ± Î¯Î±
Ġà°ª à°¿à°²à±įà°²
áĥĴ áĥ£áĥ¤
ĠÎ® Î´Î·
c am
g ro
Ġn ov
ĠÕ ·
Ġn Ã¼m
Ð°Ðº Ñģ
ĠØ¨ Ø§Ø±
ÏģÏĮ Î½
em mes
re z
Ð¾Ðº Ð°
Ġpropri o
×Ĺ ×ª
Ð¸ÑĩÐµÑģÐº Ð¸
ĠÏĨÏīÏĦÎ¿ Î³ÏģÎ±ÏĨ
Ġà®ļà¯Ĩ à®²
Ġáĥ£áĥłáĥĹ áĥĺáĥĶáĥłáĥĹ
Ġex per
ĠP reis
Ġà¤µ à¥Ī
Ġmo et
ĠØ¹ ÙħÙĦ
ĠÉĻl aq
áĥĺáĥļ áĥĶáĥĳáĥĲ
Ġdis pos
ĠÎ±Î³Î¿ ÏģÎ¬
ck er
nge bo
Ġnie z
ãģĹ ãģ¾
à¦¾à¦ĩ à¦Ł
à°¾à°¨ à°¿à°ķ
ÎºÎµÎ¹ ÏĦÎ±Î¹
ĠWar sza
sze j
Ã¡ va
áĥ« áĥ¦
l et
ĠÑĤÐµÐ» ÐµÑĦ
ĠØ¹ Ø§Ùħ
Ġm ag
ÏĥÏĦÎµ ÏĤ
Ġa ng
ĠÐ¿ÑĢÐ¾ ÑĪ
Ġáĥ¨ áĥĺ
ìĺ Ģ
Ġ×ŀ× ŀ×
Ġà®®à®ķà¯įà®ķ à®³
b il
áĥ£áĥ¨ áĥĲáĥĿ
ãģ ³
ĠÎ±ÏĢÎ¿ÏĦÎŃÎ»Îµ ÏĥÎ¼Î±
ĠprÃ© c
Ġh Ãłnh
ÏģÎ¯ ÏīÎ½
ier no
æĦı è§ģ
ªà¸±à¸ ¡à¸
da y
ä¸Ģ ç§į
åĪĽ ä¸ļ
à¸£à¸°à¸ ¢à¸
èĽĭ èĽĭ
Ġà¹Ģà¸Ĭ à¹Īà¸Ļ
Ġnb sp
ç§» åĬ¨
6 å¹´
é ¬
à¤£ à¤¾
Ġà°¤ à±Ĩ
Ġáĥ¨áĥĶáĥ® áĥķáĥĶáĥĵ
à®¿à®¯ à®¾
i zione
ĠáĥĴáĥķ áĥĶáĥłáĥĵ
Ġà°®à°¾à°° à±įà°ļ
ĠÙĩÙħ ÚĨ
ÏĥÎµ ÏīÏĤ
ÎºÏĮ Ïĥ
à¦ ¯à§ĭà¦Ĺ
ĠM an
Ðº Ð°Ð¼Ð¸
Ġà¤Ĳ à¤¸à¥ĩ
Ĥ à¸Ļà¸
«à¸²à¸ ¢
æĮĩ åĩº
æ¨ £
ķ à¸Ļ
Ġè§ Ĩ
Ġå¸ ¦
Ġà¤ħ à¤ľ
Ġáĥĳ áĥĿáĥļ
ĠA y
ÅĤo Å¼
Ġu0 c
Ġà°¤à±Ĩà°² à±ģà°¸
Ġemp lo
è´ Ŀ
çĭ Ĺ
¢ à¸µà¹Īà¸¢à¸
Ġå½©ç¥ŀäºīéľ¸8 app
ĠèĻ ½çĦ¶
Ġ200 9
ï¼ ĳ
Ġãĥ ¬
æĺ¯ æŃ£è§Ħ
ĠèĬ ±
çĤ ¸
åĽŀ åºĶ
ä¸Ń åįİ
ªà¸ ±à¹Īà¸ĩà¸
Ĺà¸±à¹īà¸ĩà¸ «à¸¡à¸Ķ
Ġä¸ĸ çķĮ
çİ© å®¶
à¤¾à¤¸ à¤¨
ab a
ĠâĦ ĥ
è¿· å¤±
åħļ çļĦ
Ġ ä½ľä¸º
¸à¸ ĩ
åľ £
éĶ ģ
« à¹īà¸Ńà¸ĩà¸
ĵà¸ °
Ġåĩ ¯
å¸® åĬ©
łà¸±à¸ ¢
èĢģ å¸Ī
Ġà¸ ķà¸±à¸§
Ġ ä¹Ŀ
ä¸Ģ çĤ¹
ĠC C
v Ã©
Ġ" .
éļ Ĩ
° áĢ
ä»Ĭ å¤©
ķà¹īà¸Ńà¸ĩà¸ ģà¸²à¸£
Ġä» »
æĿ¥ æºĲ
æ¬§ æ´²
11 æľĪ
à¸£à¸ °
ļà¸²à¸ ¢à¸
ĠĈ ćĈ
åĺ ī
v ip
50 8
Ķà¸³ à¹Ģà¸Ļà¸
åĪĨ äº«
66 8
Ġåħ Ń
Ġà¤² à¥ĩà¤ĸ
Ġà®ħà®°à®ļ à¯ģ
tr ag
áĥĸ áĥĲáĥķ
à®¿à® Ļ
ĠS BO
ç»ĵ åĲĪ
ç¨ĭ åº¦
9 3
Ĺ à¸£
Ġæ ļ
Ġ3 00
Ġå¹¸è¿Ĳ å¿«3
çĽ® çļĦ
à©į à¨¹
Ġå¹¶ ä¸Ķ
Ġà¤ªà¥įà¤° à¤ķà¤¾à¤°
ë¶ ģ
un que
b ei
ëł ¹
ĠÏĢ Î½
Ġà¦ªà§įà¦°à¦¤ à¦¿à¦·à§įà¦ł
Î´ Î¿Î½
ÏĦ ÏģÎ¹Î±
Ġ×ķ ×Ľ
à±Ĩ à°Ĥà°¬
Õ« ÖĢ
dak Ä±
Ġsel bst
ĠÎŃ Î»Îµ
bi or
Ġà¦¸ à§įà¦ķ
em ble
ĠØ¨Ø± ÙĨØ§ÙħÙĩ
à±ĩ à°¨à°¿
I tem
ì£¼ ì¶ľìŀ¥
ì ¤Ģ
j az
ĠÏĢÎ± ÏģÎµ
Ġi ng
z eit
ĠÃ¼z er
Ġà¤¦à¥Įà¤° à¤¾à¤¨
Ġcon na
à°ª à°Ĥà°ļ
áŀ ĸ
à¥įà¤¯à¤¾à¤Ĥà¤ ¨à¥Ģ
ĠÎŃÎ³ Î¹Î½Îµ
áĥĶáĥľ áĥ¡
à®¿à®© à®¾à®°à¯į
Ø§Ø¹ Øª
Ġ×© ×ł
ĠB et
ĠÐ¼ Ð°ÑĪ
li ng
áĥĺáĥľ áĥĲáĥľáĥ¡
ãģ »
Ġp ak
ëł ¨
t ku
Ġl Æ°á»£ng
Îķ ÎĻÎĳ
Î¼ Î¼Î±ÏĦÎ±
Ġq ÉĻr
Ġs owie
Ã§ Ãµes
ÏĨÎµ ÏģÎµ
æİ Į
åħ¬ éĩĮ
éŁ³ ä¹Ĳ
Ġ20 01
åŃ£ åº¦
å¹¿ åĳĬ
äºº äºº
ŀà¸ ±à¸Ļà¸
ªà¸ ±à¸įà¸
å¤ļ çļĦ
åĶ ±
¶ à¥Ģ
Ġáĥ®áĥĶáĥļ áĥĺáĥ¡áĥ£áĥ¤
ues to
ĠD am
Ġà¦¬ à¦¿à¦¨
ĠáĥĲáĥ¡ áĥĶáĥĹáĥĺ
Ð¾Ð´ Ð°ÑĢ
Ġu w
Î»Î® Î¼Î±ÏĦÎ±
Ġsi c
h ou
Ġà¤ķ à¤Ĥà¤ª
Ġà§¨à§¦à§§à§ ¯
à§ĭ à¦ľà¦¨
áĥĲáĥĸ áĥĺ
ier te
Ġqu and
Ð½ Ð¸Ñħ
ĠA cc
áĥłáĥª áĥĶáĥļ
en ces
ĠØ® Ø§ÙĨ
à°°à±įà° ľ
b ili
Ġíķ Ļ
Ġà®İ à®£à¯įà®£
Ñĥ Ð»Ð¸
dÄ± ÄŁ
ĠÙĬ ÙĪÙħ
Ġsi do
ÏĦÏģÎ¿ ÏĨ
ĠÐ°Ð²ÑĤÐ¾Ð¼ Ð¾Ð±
szy m
Ġv ille
Î¬Î» Î¹ÏĥÏĦÎ±
à´¿à´ ķàµįà´ķ
Ġ à
Ġà¤¦à¥ĭà¤¨ à¥ĭà¤Ĥ
ut to
Ġgeb ruik
ĠáĥĽáĥĲáĥĺ áĥľ
Ġu00 26
Ïį ÎµÎ¹
ÚĨ Ùĩ
Ġà°µ à°¦à±įà°¦
ari as
Î¹Ïİ ÏģÎ³
Î´ ÎµÎ¯
Ġæ¸ ¸
Ġ1 88
ć ãĢĤ
ä¸į åı¯
ç²¾ åĩĨ
Ġà¤¶à¥ĩà¤¤ à¤ķ
æĬ µ
æ½ ľ
Ĭ à¸´
Ġäºļæ¸¸éĽĨåĽ¢ æīĭæľºappä¸ĭè½½
Ġà¤¹à¥ĭ à¤£à¤¾à¤°
ĠÃ Ķ
ÙĤ Ø·
ĠáĥĴáĥĲáĥľáĥĽ áĥĲáĥķáĥļ
Ñĥ Ð¹
ÏħÎ½ Î¬
Ġà¤ķà¥Į à¤¨
en z
Ñĥ ÐµÑĤÑģÑı
æ¯Ľ çīĩ
à¤¾à¤ª à¥įà¤¤
Ġà®ķ à®¾à®Łà¯įà®Ł
×¤ ×ª
Ġà°ªà±įà°°à°¾à°° à°Ĥà°Ń
ÏĦ ÏĥÎ±
ĠM on
e w
Ġl ÃŃ
ĠC ette
ĠÐ½Ð° ÑħÐ¾Ð´
ãģĹãĤĩ ãģĨ
Î² Î´Î¿
áĥĺáĥ¡ áĥĺ
Ġà¦¸ à¦¾à¦¹
ĠmÃ¡ y
æīĭæľºçīĪ appä¸ĭè½½
Ġä¸º äºĨ
Q åĪĨåĪĨå½©
Ĥà¸Ńà¸ĩ à¹Ģà¸£à¸²
çĹ Ľ
Ġæ¯Ķ å¦Ĥ
Ġag æ¸¸
å¼ ±
Ġå® ļ
Ġà¤µ à¤¾à¤ļ
T O
Ġcos Ã¬
ë¡ ł
à®±à¯įà®± à¯ģ
ci do
Ġdies em
Ġd ostÄĻp
ta t
ĠÏĢÏģÏĮ Î³ÏģÎ±Î¼Î¼Î±
à¤® à¤¾
ĠF ra
ÎµÏħ Î¼Î±
áĥłáĥ« áĥĶáĥļ
ess a
Ã¤ h
Ġà¦¬ à§Ī
à¯įà®µ à¯ģ
c s
ĠÙĩ ÙĨØ§
ĠÎ»Î¯ Î³Î¿
à¹Ģà¸Ħà¸ ¢à¸
à¥ĭà¤ ļ
Æı R
und an
Ġy o
Äį it
Ġà°ħà°µ à°ķà°¾à°¶
Ġde j
h an
Ġp utas
Ġutil iz
ĠÏĥÏħ Î¼ÏĨÏīÎ½
áĥĶáĥ ĸáĥĶ
Ġdo ty
ĠíĻ Ķ
Ġà¤ı à¤¸
ĠÎµÎº ÏĦÏĮÏĤ
Ġà°¨ à±ģ
Ġn Ãło
c re
ĠÐ¶ Ð¸Ð·Ð½Ð¸
ĠI I
Ġà¤ľà¥Ī à¤¸à¥ĩ
×ľ ×ª
à§įà¦¤ à¦¾à¦°
Ġin sta
Ġk de
w ania
ç¼ ´
åķĨ ä¸ļ
ĀĀĀĀĀĀĀĀĀĀĀĀĀĀĀĀĀĀĀĀĀĀĀĀĀĀĀĀĀĀĀĀĀĀĀĀĀĀĀĀĀĀĀĀĀĀĀĀĀĀĀĀĀĀĀĀĀĀĀĀĀĀĀĀ ĀĀĀĀĀĀĀĀĀĀĀĀĀĀĀĀĀĀĀĀĀĀĀĀĀĀĀĀĀĀĀĀĀĀĀĀĀĀĀĀĀĀĀĀĀĀĀĀĀĀĀĀĀĀĀĀĀĀĀĀĀĀĀĀ
Ġà¸ §
Ġà¤µà¤¿à¤ µ
Ġre m
Ð¾Ð´ ÐµÑĢÐ¶
Ġà®īà®° à¯ģà®µ
ĠáĥĴáĥĲáĥĽ áĥĿáĥķ
ti mm
Ïĩ ÎµÎ¯Î¿
ÐµÐ³ Ð´Ð°
Ġnuov o
Ġà¦ª à¦¦
ĠØŃ ØªÙī
ĠáĥĴáĥĲáĥľáĥĽáĥĲáĥķáĥļ áĥĿáĥĳáĥĲáĥ¨áĥĺ
Ġcas o
gr ap
ĠÎ´Î¹Î± Î¸ÎŃ
Ðł Ñ
Ñĳ ÑĤ
ĠÙĩØ³Øª ÙĨØ¯
Ġz wiÄħz
ĠìĤ¬ ìļ©
ĠsÉĻb ÉĻb
Ġes per
iss ance
Ġà¦¯ à§ĭà¦Ĺ
è½ ¨
h ttp
Ġ4 44
Ġà¸ ģà¸±à¸ļ
çĶ¨ çļĦ
åħ¬ å¸ĥ
à¹Ģ à¸Ļà¸µà¸
ªà¸£à¹īà¸²à¸ ĩ
è¿ĺ æľī
ä¸ĭè½½ èµ°åĬ¿åĽ¾
ä¸ĭè½½ åįķåıĮ
åĬĽ éĩı
à¥ĭà¤ ³
Ġj etzt
Ġáĥĵ áĥĶáĥĻ
Ġv ia
Ġg esch
å·¦ åı³
à¤¾à¤³ à¥Ģ
Ã©m u
áĥ£áĥľ áĥĵ
ag er
×ĳ ×Ļ
à¤Ĩ à¤Ī
« à¹Įà¸
Ġà¤¸ à¤¾à¤§
d ÄĻ
Ġà°İ à°²à°¾
ÐµÑģÑĤÐ² Ð°
ass er
áº¯ n
ĠØ§ÙĦØ¹ ÙħÙĦ
Ġáĥ¡áĥŀ áĥĶáĥª
ãģŁ ãĤģ
Ġåħį è´¹
Ġà¤² à¤¿à¤ĸ
Ġà¦¸à¦¾à¦§ à¦¾à¦°à¦£
Ġà®µà®° à¯ģà®®à¯į
Ġà°ķ à±ģà°Ł
on ych
Ġbul un
Ġáĥ¢ áĥĶáĥļ
ä¸Ģ æľ¬éģĵ
à¤Ń à¤¾
Ġà®ļà¯Ĭ à®©à¯įà®©
y age
ra ng
à¯įà®ª à¯ģ
à¤Ĥà¤¬ à¤°
Ð¸ ÑĦ
Ã¡v ÄĽ
Ġqu anto
Ø§Ùħ Ø¬
nÃ½ m
Ġà°®à°¾à°¤à±įà°° à°Ĥ
Ġ çļĩ
Ġå¾® ä¿¡
Ġ8 7
Ġà¤¬ à¤¾à¤ľ
Ġr ÉĻh
Ġu0026 nb
Ġu0026nb sp
ÏģÎ¿ Ïĥ
à°¿à°Ĥà°ļ à°¡à°Ĥ
ÑĥÐ»Ñı ÑĢ
Ã¼ qu
áº£ m
ĠáĥĴáĥĲáĥľ áĥĲáĥĹ
ĠÚ© ØªØ§Ø¨
ĠOn line
kie j
ĠÎľ Î¹Î±
èĩª æĭį
Ġà¤ªà¥Ĥ à¤°à¥įà¤µ
ì§ Ī
ta ti
ĠØ§ÙĦÙħ Ø¯
at ur
ĠÛĮÚ© ÛĮ
Î³ Î®ÏĤ
Ġà®ķà¯ģà®´ à®¨à¯įà®¤
Ġ×Ķ ×Ļ×Ķ
áĥĿáĥĵ áĥĺ
Î³Î³ Îµ
ĠÏĥÏħÎ½ÎŃÏĩ ÎµÎ¹Î±
Ġj aar
Ġáĥ¬ áĥļ
ĠÎ¤Î¿Ïħ ÏģÎº
Ð° ÑģÐº
áĥ¡ áĥĲ
Ġh lav
ue il
ĠâĢĿ .
Ġo tro
Ġac tiv
Ġtr atta
ĠÎµÏĢ ÎŃ
Ġda v
Ġà¦Ľà¦¿à¦² à§ĩà¦¨
ĠÐ·Ð°Ðº Ð¾Ð½
á½ ·
Ġ ÏģÏĮ
ĠáĥĲáĥĽ áĥĺáĥ¢áĥĿáĥĽ
Ïģ Î¹ÎºÎ¬
à¹ģà¸Ĥà¹ĩà¸ ĩ
à¸£ à¹Īà¸²à¸ĩà¸
æĮĩ å¯¼
à¹Ĥà¸ Ĭà¸
à¹ģà¸Ľà¸ ¥à¸
¡à¸µà¸ ģà¸²à¸£à¸
Ġç ¬
à¤° à¥įà¤¯à¤Ĥà¤¤
à¯ĭ à®ļ
áĥĶáĥĽáĥĳ áĥĶáĥłáĥĺ
áĥĶáĥĿáĥĳ áĥĲ
ien e
cÃŃ ch
um e
Ùĥ ÙĬ
Ġà¤īà¤ª à¤¯à¥ĭà¤Ĺ
Ð½ Ð¸Ñĩ
Ġà¦¤ à¦ĸà¦¨
ĠÎľ Îķ
ĠÎ³ Î±
Ġor ta
Ġplus ieurs
áĥĲáĥŀ áĥĺáĥł
Ġet was
×¨ ×ĺ
ĠØ§Ø³Øª Ø§ÙĨ
Ġà°®à°Ĥà°ļ à°¿
á»ĩ nh
Ġne p
Ø¨ Ø§ÙĨ
Ġpue den
ĠÑĥ Ð³
Ġë¡ ľ
x alq
Ġgo ed
ĠÎ¼ Î¹Ïĥ
Ġà®ªà®¾à®° à¯įà®ķà¯įà®ķ
àª¾àª Ĥ
æ© Ļ
¸à¸Ľà¸ ģà¸£à¸
±à¹īà¸ ĩà¹Ģà¸
ļà¸ ¹
Ġà¹Ģà¸ŀà¸£à¸²à¸ °
à¤ķà¤° à¤£
j Ã¸
ĠdÃ© f
ill et
ĠÐ¿ÑĢ Ð¸Ñĩ
ĠÎºÎ¬ ÏĦÏī
Ġb ie
Ġà¦ªà§įà¦°à¦¤ à¦¿à¦¬
à±Ĥà° ¤
Ġf er
ØŃ Ø±
ĠÃ¶ ÄŁ
ĠáĥĽáĥĲáĥĺáĥľ áĥª
âĢ ķ
æķ ı
à¹īà¸² à¸Ļà¹Ģà¸
à¥ ª
Õ¡Õ ¤
Õ¶ Õ¥ÖĢÕ¨
Ã¶ k
ãĤĮ ãģ°
Ġs na
ĠÐ·Ð° Ñī
Î»Ïħ Î¼ÏĢ
Ġà®ªà®¿à®° à®¤
Ġla ng
Ġà°ª à°¾à°Łà±ģ
Ġà¤ľà¤¿à¤² à¥įà¤¹
Ġà¤®à¥ĭà¤ ¦à¥Ģ
Ġà¤Ĩ à¤¸
áĥĶáĥĳ áĥĲáĥĹ
ĠÑģÐ¾Ð¾ÑĤÐ²ÐµÑĤ ÑģÑĤÐ²
æĸ°éĹ» ç½ĳ
åĭ Ĵ
Ľà¸£à¸°à¸ģ à¸Ńà¸ļà¸
Ġà¤¹ à¤¾à¤¤
ĠSch w
ĠÐĲÐ» ÐµÐºÑģ
Ġsar Ãł
iyy ÉĻ
Ã ĩ
ĠÂ ±
Ã³ ng
ë¶Ģ íĦ°
Ġbes te
ĠÎ²Î¬ ÏĥÎ·
ĠÐ¼ ÐµÑģÑı
à§ ª
n ut
×Ľ ×ķ×ľ
c ess
dzie l
ĠÙĪ Ùĥ
Ġà®µà¯Ģ à®Łà¯įà®Ł
Ġà°Ĩ à°¦
ĠÎ¤ ÎĹÎ£
Î¶ Î¹
ĭ à¸´à¸
Ġà¸ģà¸ ¥à¸
æĽ Ŀ
æĬ ¢
ªà¸´à¸Ĺà¸ĺ à¸´à¸
x in
å®ī æİĴ
Ġäºļæ¸¸åĽ½éĻħ éĽĨåĽ¢å®ĺç½ĳ
Ľ à¸£à¸²à¸
ĠU p
¨à¸¶à¸ģà¸ ©à¸²à¸
ľ à¹īà¸²
§à¸ ¢
Ġæ ¾³
Ġà¤µ à¥ĩà¤Ĺ
Ð¿ Ð¸Ñģ
ĠáĥĽ áĥĲáĥłáĥĹ
Ġà¦¶ à¦¹
ĠmÅ¯ Å¾e
ĠÏĢÎ¿Î»Î¹ ÏĦÎ¹ÎºÎ®
ĠJe an
Ġf our
Ø± Ùĩ
Î¶ Î®
Ġà¤īà¤¨ à¤ķà¥Ģ
Ġà®® à®¾à®£
Ġà°¨ à±ĩà°¤
Ġà°ļà±Ĥà° ¸à±įà°¤
ÉĻt in
ĠÐ¿Ð¾Ðº ÑĥÐ¿
olo gi
ÎºÎ¿ Î¯Î½
ÑĭÐ² Ð°ÐµÑĤ
iem bre
ĠP f
ĠÙĪ ÙĨ
Ġáĥľ áĥĲáĥĹ
Ġà°µà°° à°ķà±ģ
ey a
ÏĦÎ· ÎºÎµ
Äħ da
ĠãĤ ª
ĠìĦľ ìļ¸
ë£ ¨
ĠÎ´ÏģÎ± ÏĥÏĦÎ·
ÑĥÑĤ ÑĢ
Ġal go
Ġà®¨à®¿à®± à¯ģà®µ
ĠØ§ÙĦÙħ Ø¬
g ung
ĠáĥĲáĥł áĥĺáĥĲáĥľ
à¥ĩà¤Ĺ à¥Ģ
ite ment
ĠgÅĤ Ã³w
Ġmo y
ĠØ³ Ø±ÛĮ
ä¸Ģ çº§
à¤¾à¤¤ à¥ĩ
ĠÐ¼ Ð°ÑĢ
ĠbÄĻ dÄħ
Ġa nh
ĠáĥĲáĥ£áĥ ªáĥĺáĥļ
i ci
ess er
Ø§ Ø©
ĠÎ² Î¿Ïħ
Ġà¦² à¦¾à¦Ĺ
ĠÎłÎ± ÏĢÎ±
ĠÎ¥ ÏĢÎ¿
ĠÐ¾Ð± Ð¾ÑĢ
ĠC E
Î» Î¹ÎºÏĮ
ĠØ¹ÙĨ ÙĪØ§ÙĨ
Ġà¦¯ à¦¾à¦ļ
Ġmi es
Ġà¤®à¥ģà¤Ŀ à¥ĩ
áĥĲáĥļ áĥĺáĥĸ
Ġà°ħà°µ à°¸
Ġrecher che
ĠÐ¿ Ð¾Ð³
on der
es ti
iste ma
ãģ® ãģ¯
Ġì° ¸
çĥ §
Ĺà¸µà¹Īà¸ Ķà¸µ
æľº ä¼ļ
Ġà¥¨à¥¦ à¥§
ĠÏĢÏģÏİ ÏĦÎ¿
à¸Ļà¸ Ķà¹Į
Ħà¸ ĩ
8 7
ŀà¸ ¥à¸²à¸
Ġ1 åĪĨpk10
éģ į
æ· »
à¤°à¥įà¤ ļ
Ġc et
ĠÉĻm ÉĻk
Ġtr Æ°á»Ľc
id up
×Ļ× ŀ×
Ġáĥł áĥĲáĥ¢
à¦ª à¦¾à¦¤
Ġx idmÉĻt
id Ã©
ĠÐ¾Ð± ÑıÐ·
ab e
z u
ĠØª Ø³
ĠÏĢÏģÎ¿ Î·Î³
ĠìĦ ¤
Ġà®µ à®Ł
ÐµÐ´ ÐµÑĢ
Ġb l
Ġà¤¤ à¥Ī
áĥ¡ áĥŀ
Ġes e
ĠÑģÐ² Ð¾Ð¹
à¦ķà§įà¦· à§ĩ
Ġter se
c l
æĪĲ æŀľ
äºļæ¸¸ çĻ»å½ķ
¥ à¸µà¸
åĬŀ çĲĨ
it h
Ġà¤µ à¤¾à¤¹
ĠP l
´ Ŀ
Ġo ko
ĠØ§ ÙĬÙĨ
Ø± Ø§
ĠD u
ho p
wer t
n ung
ĠÎ³ Ïį
ãģŁ ãģĦ
áĥĲáĥĻ áĥ£áĥĹ
Ġob je
ì ´Ī
ĠÑĢ ÑĥÑģ
Ð¸Ð² Ð°ÑĤÑĮ
eyn ÉĻl
ãģ Ĵ
Ġzw ei
Ġmon do
Ġà¦ªà§Ĥ à¦°à§įà¦¬
ĠØ¢ÙĨ ÙĩØ§
Ð°Ð»ÑĮ Ð½Ð°Ñı
ĭà¸ ¶à¹Īà¸ĩà¸
Ġà¨ħ à¨¤à©ĩ
å¹ ¸
Īà¸°à¹Ģà¸ Ľà¹ĩà¸Ļ
Ġäºļæ¸¸éĽĨåĽ¢ ä¸ĭè½½
Ġà¤¤à¥įà¤¯à¤¾à¤ ²à¤¾
à±ĩà°· à°¨à±į
Ġà¶ ļ
àµįà´ ±
Ġà¤īà¤¤ à¥įà¤ª
ort s
ĠÑĩ Ð¸Ñģ
áĥ¡ áĥĶáĥľ
Ġë³ ´ë
Ġdan Ä±ÅŁ
ĠÎ¼Î¿ Î½Î±
áĥ£áĥ¡ áĥ¢
ĠÐ´ ÐµÐº
Ġg dzie
d r
ä¸ī çº§
Ġà¤¤ à¤¥à¤¾
Ġà¤¸ à¥Ĥà¤
Ð°Ð» Ðµ
ir a
Ùģ Ø¹
à®µ à®¿à®²à¯į
Î¬Î¶ ÎµÏĦÎ±Î¹
Ġà¦² à§ĩà¦ĸ
Ð §
Ġáĥ¡áĥĲáĥ¡ áĥĲáĥĽáĥĲáĥłáĥĹáĥļ
Ġpo co
Ð¸Ð² Ð°ÐµÑĤ
ĠE en
ĠS tu
j Ãł
à¦¨ à§įà¦¯
ĠdÃ¼n y
Ġà¤ļ à¥ģà¤ķ
Ġpro ces
×¤ ×©×¨
áĥĶáĥĹ áĥĶáĥ¡
Ġqual itÃ©
åł ±
es en
Ġn Äĥng
ĠÎĪ Î½Î±
ĠÐ½ Ð°Ð±
ĠÙĦÙĦ Øª
T I
en ze
Ġë° Ľ
Ġenv ir
ĠÎŃ ÎºÎ±Î½Îµ
àµ ¼
Ġà¤ª à¤¡à¤¼
Ġmiej sc
Ġf e
Ġæ´ »
---- ----
æ¯ķ ä¸ļ
Ćą ï¼Į
à¥įà¤¯à¤¾à¤ °
áĥ¢ áĥĿáĥĽ
Ġà°İ à°Ĥà°¤
à§ĩà¦Ľà¦¿à¦² à§ĩà¦¨
ĠA llah
ÉĻn dÉĻ
ĠÐ± Ð»Ð°Ð³
ĠÎ² Î¹Î¿
Ġà°°à±Ĩ à°Ĥà°¡
c ina
à®© à®¾à®²à¯į
Ġ ç½ĳé¡µ
å»º è®®
« à¸²à¸£à¸
Ķ à¸²
éĺ ´
à¥ ®
uf t
Ġq Ä±z
Ġal tro
áĥĶáĥĳ áĥĲáĥĸáĥĶ
ĠÐ¾ Ð³
Ġs lu
ÏĥÏĦÎ¬ ÏĥÎµÎ¹ÏĤ
àµ Ĥ
Ġà¤¦ à¥ĩ
ra do
Ø§Ø¨ Ø©
ĠÎŁÎ¹ÎºÎ¿ Î½Î¿Î¼
Î¹Î¿ Î¹
dÄ±r Ä±l
» çĴĥ
çļĦ è¯Ŀ
çĸ ¾
à¥ Ń
Ġà¤ Ĭ
it re
ÏģÎ® ÏĥÎµÎ¹ÏĤ
Ġ×ŀ ×Ļ
Ġbel ir
Ġservi ce
Ġà®¨à¯Ģ à®Ļà¯įà®ķà®³à¯į
Ġs ku
Ġse a
ĠÏĢÎµÏģÎ¹ÏĥÏĥÏĮÏĦÎµ ÏģÎ¿
áĥĶáĥ ¬
eynÉĻl xalq
ĠÂ ´
Ġlá» Ľ
g leich
ãĥ§ ãĥ³
Ĺà¸³à¸ ĩà¸²à¸Ļà¸
= =
çİ° ä»£
æ³ Ľ
Ĥ à¹īà¸Ń
Ġåį °
å¯ ¸
å« Į
è¿ ¹
¹ à¥Ģ
Ġav ons
ta mento
Ġt ij
ĠÙħØŃ ÙħØ¯
Ø¨ ÙĪ
olu tion
ÑĢÐ° Ñħ
ĠáĥĻáĥĿáĥľ áĥĻ
Ġà°°à°¾à°ľ à°ķà±Ģà°¯
Ġì° ¨
ĠÃ©le ct
Ġgr ande
ĠÏĢÎµ Ïģ
Ġà°Ĩ à°¶
Ġs ax
Ð ¬
Ð°Ð½ Ð¾
ĠØ¨ ÛĮÙħ
Ùģ Ø©
áĥĺáĥ ¯
ĠæĹ ©
à¥ĭ à¤²à¥Ģ
ÅĤ Ã³w
ĠÏĢÎ±ÏģÎ¿Ïħ ÏĥÎ¹Î¬
Ġáĥ¢áĥĶáĥ¥ áĥľ
áĥļ áĥĶáĥ¡
b au
Ġà°ĩ à°¤
Ġorg aniz
ĠB ild
Ćć ą
ä¸º äºĨ
Ĭà¸± à¹Īà¸Ļà¸
Ġáī ł
oo d
éĥ¨ ç½²
åįļ å½©
ĠS h
æĿ ¨
Ġçİ¯äºļå¨±ä¹Ĳ ag88
åľ¨çº¿ å¹³åı°
Ġagçİ¯äºļ æīĭæľºçĻ»éĻĨ
ľà¸¥à¸´à¸ķà¸ łà¸±à¸ĵà¸ĳ
çĶµ çİ©
åĽŀ è¡Ģ
à¹Ħà¸¡ à¹īà¸
in k
Ġè® ¡
Ġè £
çİ¯äºļ çľŁäºº
à¹Ģà¸Ķ à¹ĩà¸ģ
Ķ à¸´à¸Ļ
Ġå½©ç¥ŀ app
èĳ£ äºĭ
Ġagå¹³åı° æľĢæĸ°çĻ»å½ķåľ°åĿĢ
ªà¸ ¹à¹Īà¸
Ġæ ¨
åĭ ĩ
Ġåı Ĥ
åĨľ ä¸ļ
ģà¸ ³
Ġà¤° à¤¾à¤·à¥įà¤Łà¥įà¤°
Ġáĥ¡áĥĲáĥ Ĺ
Î³ Î¿Ïį
Ð ¥
ÑģÑĤÑĢÑĥ Ðº
ĠÑħ Ð°ÑĢÐ°ÐºÑĤÐµÑĢ
Ġfo to
Ïĥ ÏĨÎ±Î¹
Û° Û°
ĠØ¢ ÙĩÙĨÚ¯
ĠØµ ÙĨ
Î² Î¹
×ĵ ×Ķ
ĠÐ´ ÐµÐ²
à¤¾à¤¯ à¤ķ
Ġave z
ĠÐ¿Ð¾ ÑıÐ²
ĠØ¨Ø± Ú¯
Ã¨ le
ÑĢ Ð¾Ð±
Ġw p
å® Ł
Ø± ÙĤ
ĠáĥĻáĥķ áĥĺáĥł
Ġbes o
v itÃł
ta ma
ĠÕ¡Õ ¼
Ã§ i
ĠÐ¼ Ð¾
ĠÐºÐ¾Ð¼Ð¿ Ð°Ð½Ð¸Ð¸
Ġander en
ĠÏĥÏħÎ½ ÎŃ
Ã ¯
Ġì ¶ľ
Ġáĥĵ áĥĲáĥłáĥ
Ġprof es
ÏģÎ¯ Î´Î±
Ġà¦¬à§įà¦¯à¦¬ à¦¹à¦¾à¦°
ĠÐ» Ð¸ÑĪ
ĠV ÃŃ
Ġde f
ãģª ãĤĵ
zn am
ĠÎĿÎ¿ Îµ
åľ¨çº¿ çİ©
àµ ½
Ġà¤¤ à¥Ģà¤¨
çĦ¡ æĸĻ
Ġnh áºŃn
ÏĥÏĦ ÏģÎ¿
Ġdav am
Ġto das
ĠÐ¡ Ð¾
ãĥ Ħ
Ġáĥ¬áĥĲáĥłáĥĽ áĥĿáĥĽ
¢ à¸²
è¶Ĭ æĿ¥è¶Ĭ
åĮĸ çļĦ
à¥įà¤¯à¤¾à¤¨ à¤Ĥà¤¤à¤°
Î²Î¬ Î»Î»Î¿Î½
Ġà°ķ à°®
ost ra
ĠÎ· Î»Î¹Îº
Ġà®ħà®²à¯įà®² à®¤à¯ģ
qu Ã©
Ġëĵ ¤
ne a
Ö ·
×ĸ ×Ķ
ĠØ¹ Ø¯Ø¯
Ġà´ İ
¶ à¤¨
ĠÑģÐ»ÑĥÑĩÐ° Ðµ
Ġis e
ĠáĥĽáĥĵ áĥĴáĥĿáĥĽ
Ġjak ie
ĠØ§ÙĨØª Ø®Ø§Ø¨
s el
Î¼Îµ ÏģÎ¹Î½
ĠÐºÐ¾Ð» Ð¸Ñĩ
ĠL A
Ġto da
Ġgi Ãł
u le
Ġà°ª à°¾à°Ł
ì¸ ł
ĠÎķ ÏĢ
si ÄħÅ¼
Ú© Øª
ĠtÉĻd b
×¡ ×§
âĢĮ à°²
ãģķ ãģĦ
ĠÙĪ ØŃ
Ġà¤Ĳ à¤¸à¤¾
à±Ĥà° ®
Ġf al
v ol
ÏģÎ¹ ÏİÎ½
áĥĶáĥľáĥ¢ áĥĺ
Ġnaj lep
Ġt ipo
Ġà¦Ĩà¦° à¦ĵ
ªà¸³ à¹Ģà¸£à¹ĩà¸
U N
ĠæĶ ¯
æīį èĥ½
Ī à¸Ļ
à¤¾à¤² à¥ĩ
ĠØ¨Ø¹ Ø¶
ĠNaz ir
íĮ Ĳ
Ġyax ÅŁÄ±
Ġs iz
Ġáĥ¡áĥĲáĥĽ áĥ£áĥ¨áĥĲáĥĿ
ÑĢÐ° Ñĩ
ãĤ¹ ãĤ¿
ĠDeutsch land
Ġu l
ÑĥÐ· Ñĭ
ost up
Ġáĥ¯ áĥĴáĥ£áĥ¤
Ġm Ã³w
ĠÏĢÎ±ÏģÎ¿Ïħ ÏĥÎ¯Î±
u he
Ġar ticle
ĠÐºÐ¾Ð¼ Ð¿Ð»
ĠÑĨ ÐµÐ½ÑĤÑĢ
Ġc áº§n
g ul
Ġc ours
ë² Ī
ĠåĪĨ åĪĨ
à¸£à¸°à¸«à¸§à¹Īà¸²à¸ ĩà¸
Ġäºļæ¸¸éĽĨåĽ¢ appä¸ĭè½½
è®¾ æĸ½
æĿ¥ çľĭ
æ¥ ļ
à¹ĥà¸ª à¹Īà¸
å¤ļ ä¸ª
à¸Ńà¸ ±à¸ĩà¸ģà¸¤à¸
±à¸ į
Ģ áĢ
åįģä¸Ģ éĢīäºĶ
Ġà¸ ¡à¸´à¸
èħ Ĳ
à¤µ à¤¿à¤£
ĠE ste
à¤¤ à¤°
Ïģ ÏħÏĥ
Ġko ÅĦ
Ġs vÄĽ
Ġà°Ĺ à°¤
ĠDa ten
×ķ×ł ×Ļ
Ġin n
ĠK e
áĥĺáĥĹ áĥĲáĥĵ
Î¯Ïĥ Î¹Î¿
ĠÎµÎ½ ÎµÏģÎ³
ĠB a
r ag
ĠW as
ĠìĹ Ń
ĠGe w
ĠÐķ Ð²
Ġk iÅŁ
ĠG u
Ø± Ú¯
F A
Ġà¸ĭà¸ ¶à¹Īà¸ĩà¹Ģà¸
ªà¸´à¸Ļà¸ Ħà¹īà¸²à¸
ç¥ ĸ
ä¸ĭ éĻį
ä¸ ¹
èĤ ¯
à©° à¨¦
ow n
9 æľĪ
Ľ à¸´à¸Ķà¸
Ĥà¹īà¸Ńà¸¡à¸¹à¸ ¥
Ġà¤Ĺ à¤¾à¤µ
cz u
ÎĻÎ ľ
ĠÏĢ Î»ÎµÏħ
Ġà¦ķà¦° à§ĭà¦¨
à¦¤ à§įà¦¬
Ġa hora
æ§ ĺ
Ġag å¼ĢæĪ·
åĪ Ģ
¸à¸ ©à¸
«à¸¥à¸ ·à¸Ń
ĠåĨ ľ
Ġà¤µà¤¿à¤ ·
ĠÑģÐ» ÑĥÐ¶
Ġáĥ° áĥ¥áĥĿáĥľ
Ġà°İ à°²
Ġjus qu
ĠÎĳÏģÏĩ Î¹ÎºÎ®
ĠÎ£ ÏĩÎ¿Î»
Ïĥ Î¿Î½
c ÃŃa
¬ à¤Ĥà¤§
ĠGr und
Ġp ic
Ġdz i
Ùĥ Ø³
Ð¸Ð¼ ÐµÑĢ
ge ben
ãģĪ ãĤĭ
×ŀ× ¢
Î¾ Î¿
Ä±lÄ± b
Ġpro ye
Ġcon cer
Ġmen jadi
Ģ ìĿ´
Ġo ÄŁ
di do
Ġà°ªà±įà°°à°¤à±įà°¯ à±ĩà°ķ
áĥĺáĥļ áĥĶáĥĳáĥĺáĥ¡
ĠÑģÑĤ Ð¾Ð»
ÏĢÎµ Ïģ
ĠØ§ÙĦØ¹ Ø±
ien ie
ĠÙħÙĨ Øª
y abr
Ġà¤¸à¤® à¤Ŀ
ĠQ ue
Ġest os
Ġnouve au
Ġm Ã¶
sp ÄĽ
Ġà¦® à¦¤à§ĭ
ĠáĥĽ áĥł
ĠS a
Ø§Ø¦ ÙĬØ©
Ġp ouvez
Ð°ÑĤÐµÐ»ÑĮ Ð½Ð¾
ĠÎºÎ±ÏĦÎ¬ ÏĥÏĦÎ±ÏĥÎ·
Ġ ä¾Ŀ
æģ Ĵ
ä¾ µ
1 99
Ġà¤ļ à¤¾à¤Ĥà¤Ĺ
li ck
ĠÄĳ Ã¢y
ĠÙħØ±Ø¯ Ùħ
à±ģà°Ĥà°¦ à°¨à°¿
Õ¾ Õ¡Õ®
ĠnÉĻ zÉĻr
Ġtr ois
el a
ch ten
ĠÐ¿ Ð¾Ð±
Ġpro pr
Ġk up
Ġ6 00
Ġê ´ĳ
Ġk iedy
ĠC ol
Ġ, "
ÏĮ Î¼ÎµÎ½Î¿
å°ıæ¸¸æĪı åľ¨çº¿çİ©
Ġà¤ªà¥įà¤° à¤Ń
Ġ×ľ ×Ļ
Ø£ Ø³
u da
áĥł áĥĿáĥĳáĥĺáĥ¡
Î¥ Î¡
ÏĢ Î»Î·
ï ¾
è© ±
à±ĩà° ³
Ġka Å¾d
ĠÏĥ ÏĦÎ®
s ÅĤ
ĠÚĨ ÙĨØ¯
Ġà®¤ à¯Ģà®°
Ġd ÃŃas
Ġv eya
×Ļ×ľ ×Ķ
ĠÐļ ÑĥÐ¿Ð¸ÑĤÑĮ
ĠÑĥ Ð·
Ġs Ã¥
ĠÙĬ Ø¬
Ġì½ Ķ
à°¾à°° à±įà°¥
ÃŃ an
Ã¼ ber
be zpie
ĠÎ± ÏĨÎ¿ÏģÎ¬
Ġyar adÄ±
ni ce
Ġagç½ĳç«Ļ äºļæ¸¸çĻ»å½ķ
ĠæıĲ ä¾Ľ
ĠâĻĢâĻĢâ ĻĢâĻĢâ
è· ³
è¯´ æĺİ
çĹ ĩ
æķ ¢
ä½ľ å¼Ĭ
Ġà¤ĩà¤¤ à¤°
Ã³ a
Ð¾Ð² Ð°Ñı
ĠÏĦÎ¹ Î¼Î®
à¤¾à¤¡ à¤¼
j es
ĠÑģ Ð½
ĠÎĵ Î¹ÏİÏģÎ³
à®¿à®° à¯ģà®ªà¯įà®ª
ĠáĥĽ áĥĲáĥ¢
ĠI N
un i
ĠÎºÎ±Î¸ Î±
ĠÎºÎ± ÏĦÎŃ
Ġà¦ħà¦Ńà¦¿à¦ ¯à§ĭà¦Ĺ
ĠÙĨÛĮ Ø³Øª
Ã¡ st
Ġus ta
Ġà°µ à°²à±įà°²
Ġcha que
ĠÐ³ Ð¾ÑĤÐ¾Ð²
ĠÏĥ ÎºÎŃ
Ġpl an
à¦² à§ĩà¦°
íİ ¸
Ġáĥ§áĥķáĥĶáĥļáĥĲáĥ¤ áĥĶáĥłáĥĺ
ĠÐ¾Ð± ÐµÑģÐ¿
ĠÎºÎ¬Î½ Î¿ÏħÎ½
Ġà¤ĩà¤¸ à¥ĩ
áĥĿ áĥĶáĥĳáĥĺáĥ¡
Ġsy st
×ľ ×ķ×ª
Ġge ht
ÑĢÐ° ÑģÑĤ
Ġà®Ĩà®ķ à®¿à®¯
ãĤ ¬
ĠÙģ Ø§Ø±
l ass
ÏĨ Ïį
Ġszy b
Ġma chen
ĠÙģ Ø¹
ÏĥÏī ÏĦÎµÏģ
ìľ ¡
Ġge en
Ð» Ð°Ð¼
à¤¤à¥įà¤¤ à¥įà¤µ
Ã¡ ri
Ä± ÄŁ
ĠÑı Ð·Ñĭ
Ġà°¨à°¿à°° à±įà°£
Ġpart ie
áĥĽ áĥĺáĥĹ
Ġsv Ã©
Ġpri mo
á»ĵ ng
ĠÏĢÎ± Î¯
Ġíķ ¨
à¦¬ à¦¾à¦¸
en den
ÙĬ Ø§ÙĨ
ĠÏĩÎ±ÏģÎ±ÎºÏĦÎ· ÏģÎ¹Ïĥ
à±ĭ à°¹
jÄĻ cia
ĠÎ´ ÏħÏĥ
à¤¾à¤ĩ à¤²
à¦² à§įà¦²
éĸ ¢
Ø¨ Ø§ÙĦ
áĥłáĥ ¡
Ġph Ã¡t
Ľà¸£à¸°à¸ Ĭà¸²à¸
Ġåı° æ¹¾
è¯ Ĭ
à¹ģà¸Ļ à¹Ī
ä¿Ħ ç½Ĺæĸ¯
ä¼ ¯
Ġà¸Ļ à¸Ńà¸ģà¸
g le
Ġï¼Į [
ĠagæĹĹèĪ°åİħ æ³¨åĨĮ
ĸ à¹Īà¸²à¸¢à¸
æ±Ł èĭı
à¥ĭà¤Ł à¥Ģ
áĥĺáĥļ áĥĽáĥĲ
à°ļ à°¨
lar la
cze j
ĠÏĢÎ¿ ÏĦÎŃ
Ø¶ Ø¹
ÏĨ ÏģÎ¬
à¦¸ à§įà¦Ł
à¹Ħà¸ Ł
c m
Ġà¤° à¥ĭà¤ľ
Ġà°ľà±Ģà°µ à°¿à°¤
Ġtut te
ĠáĥĹáĥĳáĥĺáĥļáĥĺáĥ¡ áĥĺáĥ¡
ĠáĥĹáĥĲáĥķáĥĺáĥ¡ áĥ£áĥ¤
ĠÎ±ÏĢÎ¿ÏĦÎµ Î»ÎŃ
isch er
Ġsu ite
à¤°à¥įà¤ ķ
Ġà°ħà°¯ à±įà°¯
ĠÑģ Ð¾ÑĤ
k ovÃ¡
áĥĲáĥ ¯
Ġso tto
Ġpod r
Ġz mi
Ġà®® à®¾à®µ
Î¯ Î½Î±
ì§ ĳ
ÑĢ ÑĭÑĤ
ĠØ¨Ø® Ø´
à¦¿à¦¤ à§įà¦¬
Å¡ÃŃ m
Ġ×ľ×Ķ ×ª
Ġkar ena
Ġà°¸ à°¾à°®
Ġpers onne
à¯Ĩà®²à¯įà®² à®¾à®®à¯į
áĥª áĥĺáĥĺáĥ¡
ĠyÃ¼k s
ĠÐ¼Ð°ÑĤÐµÑĢÐ¸ Ð°Ð»
ĠÎŁ Î»ÏħÎ¼ÏĢ
Ġà®µ à®¿à®²
ĠÐ¡ Ð°Ð¼
Ġà¦¬à¦¿à¦ı à¦¨
à§ģà¦ £
am o
ah re
ĠáĥĲáĥĵáĥĲáĥĽ áĥĺáĥĲáĥľáĥĺ
ĠOd powie
go t
Ùħ ÙĪ
is k
ĠÑĢÐ°Ð· Ð»Ð¸Ñĩ
lo ck
ãĥ Ľ
à¦² à¦¾à¦°
Ġà°¹à±Ī à°¦à°°
à±Ģ à°ķà±įà°·
Ġsi to
ĠÎ¿ ÏħÏĥ
Ġáĥ¨áĥĶáĥ£áĥ «áĥļ
ë¦ ½
ĠÏĥÏĢÎ¯ ÏĦÎ¹
ĠE N
Ġt an
Ġtr op
ĠØ¯ ÙĪÙĦ
ÏĥÏĦ Î¿Ïħ
à¦¬ à¦¿à¦¦
Ġà°®à±Ĭ à°¤à±įà°¤
Ð¸Ñı Ñħ
Ġ×ŀ× ¤
Î¬Î½ Î½Î·ÏĤ
Î³ ÎºÎ±
Ġcon di
Å¼e j
áĥĿáĥĵ áĥ£áĥ¥
ĠPra ha
pl at
Ġáĥĳ áĥłáĥ«
Ġà¤ľà¥įà¤¯à¤¾à¤ ¦à¤¾
ich te
Ġà¦ķà¦°à§įà¦® à¦ķ
Ð°ÑĤ Ð¾Ð²
da t
Î® ÏĨ
à¤§ à¤¾à¤¨
Ġà®®à®© à®¿à®¤
à¦² à§ĩà¦¨
an v
ÙĩâĢĮ Ø§ÛĮ
ĠÎ¾ ÎµÏĩ
áĥķáĥĲáĥļ áĥĺáĥ¡
êµŃ ìĿ¸
Ġà°Ĩ à°¡
Ġn Ã¶v
ĠÑĤ Ð°Ð¼
ãĥĩ ãĤ£
Ġà¦¸à¦Ĥ à¦¬à¦¾à¦¦
n Ã©e
ti vi
à´ Ļàµįà´
Ġà¤ħà¤ª à¤¨à¤¾
ê» ĺ
k ty
ÙĪÙħ Ø©
Ġt Æ°
ĠÏĦÎ¿ Ïį
å¹ ¼
8 3
Ĭà¸ ¡
ĠagèµĮåľº ç½ĳåĿĢ
app _
Ġà¤®à¤° à¤¾à¤łà¥Ģ
å½©ç¥¨ _
1 åĪĨå½©
A I
ĠæŃ¤ å¤ĸ
éĥ½ æľī
à¤¾à¤¬ à¤¤
ĠÎ¿ ÏģÎ¹Ïĥ
Ġà¦¦ à¦¿à¦ķà§ĩ
à¯Ĭ à®³à¯įà®³
à°¿à°¸à±įà°¥ à°¿à°¤
Ġáĥ¡áĥ¬áĥĿáĥł áĥĶáĥĵ
Ġmom ento
à¤° à¥ĭà¤Ĥ
ĠÑģÐ¾Ð± ÑģÑĤÐ²ÐµÐ½
ĠR a
Ġ×Ĳ ×ĳ×ľ
Ù į
áĥĲáĥķ áĥĺáĥ¡
ĠæĶ ¹
Ġå¤§åıĳ 5
Ġà¤¯ à¤¾à¤Ĥà¤ļ
Ã©c ur
ve den
Ġí Ŀ
ru ck
ãģ« ãĤĪ
ÏĩÎ± ÏģÎ¹Ïĥ
ill er
ÐµÐ´ Ð¸ÑĤ
ĠÎ± ÎµÏģÎ¿
à°¾à°² à°²à±ĭ
in ci
à¹ĥà¸«à¹īà¸ ģà¸±à¸ļà¸
à¤¤ à¥įà¤µ
Ġ×ĳ ×Ĵ
in os
ĠÑį ÑĦÑĦ
ĠÃ ½
Ġáĥľ áĥĲáĥª
hne d
p ovÄĽ
Ġ, ,
áĥĺáĥ¨áĥķ áĥĺáĥļáĥĺ
ĠáĥĶ áĥĴ
ĠA le
ĠÑĥ Ð±
Ġà®ªà¯ĭ à®¤à¯ģ
Ð¸Ð·Ð½ ÐµÑģ
ÑĥÐ½ Ðº
Ġc ost
à§įà¦¯ à§ģ
Ġáĥ¡áĥĺáĥ¡áĥ¢ áĥĶáĥĽ
ĠA k
Ġz ar
ÑĨÐ¸ Ð¿
ĠÎ¦ÎµÎ² ÏģÎ¿Ïħ
ÐĿ Ðĺ
ÐµÐ½ Ñģ
ĠÎµÎºÏĢ Î±Î¹Î´ÎµÏħ
Ġ5 åĪĨpk10
ĠáĬ ¥
Ġ1 22
Ġè¿ ŀ
Ħà¸ ¡à¸
å¥ ĭ
Ġï ľ
áł £áł
åįĹ çľģ
åī ĳ
å¨±ä¹Ĳ åŁİ
Ĺà¸µà¹Ī à¸Ļà¹Īà¸²à¸
Ġä»ĬæĹ¥ åħ³æ³¨
à¸Ńà¸ ¡à¸
¨à¸ ¹à¸Ļà¸
Ġç® ¡
åĬ¡ éĻ¢
à¹ĥà¸Ĭ à¹Īà¸
365 bet
åĪĨ åĪ«
ªà¸°à¸ Ķà¸§à¸
ĩ à¸²à¸Ļà¹Ģà¸
à¹Ħà¸ «à¸¡
«à¸į à¸´à¸ĩà¸
åįĬ å¹´
Ġï¼ į
Ġä¼ Ĭ
Ġagçİ¯äºļ æ¸¸æĪıå®ĺç½ĳ
å®ŀ éªĮ
æĪĲ äºĨ
à¹Ģà¸Ķ à¸µà¸¢à¸§
ģà¸²à¸£ à¹ĥà¸Ĭà¹īà¸
à¹Ĥà¸ Ĺà¸£à¸
Ġè¿Ļ ç§į
Ĺà¸£à¸ ĩà¸
Ġ ðŁ
Ġäºļæ¸¸ åıªä¸ºéĿŀåĩ¡
ª à¸Ļà¸²à¸
Ġà¸ «à¸
è¦ ĸ
æĩ Ĥ
Ġà¸ ģà¸²à¸
æİĴ åĲį
ĠáĬ ł
Ġà¤ħà¤¸ à¤²à¥ĩà¤²à¥įà¤¯à¤¾
ĠS ur
ĠÐ´ Ð°Ð²
Î±Ïĥ Î¯Î±ÏĤ
Ġà¥¤ âĢĻ
Ġà¦¦ à¦¾à¦¬
Ġi ci
v at
Ġterse but
ÏģÎ¯ ÏīÏĤ
Ġk osz
Ġà¦ħ à¦Ĥà¦¶
áĥĽ áĥĲáĥł
ĠÐŁ ÐµÑĤ
us es
ĠÐ½ Ð¾Ð¼
×Ĺ ×§
ĠfÉĻal iyyÉĻt
Ġáĥĺ áĥķ
Ã ĵ
lar es
ìĿ´ ëĿ¼
r icht
Ġt ÃŃm
ĠÎºÎ¬ÏĢÎ¿ Î¹Î±
Ġà¤ľ à¤¹
Ð³ Ð°
áĥĶáĥĳ áĥĺáĥĵáĥĲáĥľ
Ġpers one
ow ski
S I
p i
ĠÐ¿ÐµÑĢ ÐµÐ²
Ġm áº·t
Ġà°ķ à°¾à°ķ
ĠAv ro
ĠÎłÎ± ÏģÎ¬
Ġà®¤ à®¯
ka l
ÏĥÏĦÏĮ ÏĥÎ¿
Ġhat te
Ð¸Ð»Ð¸ ÑģÑĮ
Ġà°Ĩ à°§
ĠáĥĶáĥłáĥĿáĥķáĥľ áĥ£áĥļáĥĺ
ues ta
ment os
Ġáĥ¡áĥĲáĥĳ áĥŃ
Ġà®¯ à®¾à®°
er en
Ġà¦¬à¦¿à¦ ¸
Ġà®ķà¯ĩ à®Łà¯įà®Ł
ĠØŃ Ø¶
Ġi z
Ġn u
ĠÐ½ÐµÑģÐº Ð¾Ð»ÑĮÐºÐ¾
Ġà®¨ à®¿à®ķà®´
áĥĺáĥľ áĥĵ
Ġpuj cka
Å¾ enÃŃ
Î» ÏĢ
Ġ×Ķ× ĺ
ĠÎľÎ±Ïģ ÏĦÎ¯Î¿Ïħ
Ġist ÉĻy
ĠÎ¼ Î¿Ïģ
Ġà¸Ĺà¸ ¸à¸ģà¸
4 æľĪ
ç½ĳ åıĭ
à¥ĭà¤¬ à¤°
Ġof re
Ġà¤¬ à¤ľ
áĥĶáĥĳ áĥłáĥĺáĥķáĥĺ
Ġë¬ ´ë
Ø±ÛĮ Ú©
Ġà¦¹ à¦²à§ĩ
ĠÃº Äį
ãĤĵ ãģª
Ġtá» ±
Ġà¦ļ à¦¾à¦°
ĠÕ« Õ¶
Õ ·
ti y
ĠdÃ© jÃł
Ð¸Ðº Ðµ
ãģ ¸
áĥĶ áĥĶáĥĳáĥĺ
sz ta
h le
à°¿à°¸ à±įà°Ł
m at
ĠÎĳ Î¡
ĠÏĥÏħÎ¼Î¼Îµ ÏĦÎ¿
Ġà¤² à¥ĩ
Ľà¸±à¸įà¸ «à¸²à¸
Ġåı Ĺ
Ġà¤Ĩà¤® à¥įà¤¹à¥Ģ
ÏĥÎ¹ ÏİÎ½
çĪ ¸
ç»ĵ æĿŁ
à¥ ©
Ġáĥ® áĥ¨áĥĺáĥł
Ġpo der
ĠÐ¼ Ð¾ÑĢ
ĠpÅĻÃŃ pad
ê° Ĳ
æİĴ è¡Į
è² »
ç¹ ģ
âĢĭâĢĭâĢĭâĢĭ âĢĭâĢĭâĢĭâĢĭ
à¹Ģà¸£à¹ĩà¸ §à¸
b ook
ļà¸Ńà¸ ģ
å¢ Ļ
Ġ( '
èµĮ åįļ
æ» ¤
åĸ Ŀ
à¹ģà¸« à¹Īà¸ĩ
Ġ200 8
è§Ĥ å¯Ł
à¹ģà¸ «à¸
k 8
Ġéĩ ĩ
æ³ ī
à¹ģà¸ ķà¸ģà¸
Ġagçİ¯äºļ æ¸¸æĪıå¹³åı°
ĠåĪ©æĿ¥ ag
Ġå¤§åıĳå½©ç¥ŀ 8
Ķà¸´à¸ ¡
Ġ **
ç½ĳç«Ļ _
äº ¦
à¤¸ à¥įà¤¯
Ġà¦Ĺ à¦£
ĠD la
ĠIn ter
Îķ ÎĶ
Î²Î¬ Î»Î»
Ġà¦¦ à¦¿à¦²
Ĭà¸± à¹Īà¸§
ĠæĪ ¿
à¹Īà¸ °à¸
Ġà¤² à¤¾à¤µ
Ġexemp le
Ø³Øª Ùĩ
Ġà¦¤ à¦¾à¦ķà§ĩ
Ġinter net
h and
Î¼ Î¿ÏħÏĤ
Ġp ens
ĠãĢ Ĺ
íĿ ¥
íĺ Ħ
Ġà°ªà±įà°° à°ªà°Ĥà°ļ
l age
Ġ918 åįļ
åĪ¶ ä½ľ
Ġć ĈĈ
à¸Ļà¸ ´
¢à¸ ģà¸
66 66
Ġ8 2
ķà¸ ¹
æĶ¯ ä»ĺ
æ¸¸æĪı å¤§åİħ
æ¸¸æĪı ä¸ĭè½½
ä¸į å¾Ĺ
à¤¾à¤¡ à¥Ģ
Ġà¦Ĩ à§Ł
Ãº t
ĠìľĦ íķ´
ĠAr tik
à¹Ģà¸ ģà¹ĩà¸
Ġç ı
Ġà¤Ĺà¥ĭà¤ ·à¥įà¤Ł
ĠÎ´Î¹ ÎµÏħ
Ġ×ŀ× Ĵ
Ġb r
ÐµÐ¼ Ð¾Ð½ÑĤ
Ġne ue
ĠÑģÐ» Ð¾Ð²
Ġà¦® à¦¤
à· Ĳ
à¶ ¯
Ġà¤ķà¤¾à¤° à¥įà¤¯
Ġà®µ à®¿à®¤
Z W
Ġspos Ã³b
Ø§Ø¯ Ø±
ĠAzÉĻrbaycan da
ĠB iz
ÄŁ u
ĠÎ±Îº ÏģÎ¹
Ġa lles
Ġest ar
Ġt i
à´ ¨àµįà´
Ġà¤¯à¤¹ à¤¾à¤Ĥ
ĠÐº Ð°Ð¼
ib ilitÃł
Ġà¦ªà§įà¦°à¦§à¦¾à¦¨ à¦®
ĠÎĮ ÏĦÎ±Î½
Ġ à·Ģ
à¤¿à¤¸ à¥įà¤¤
Ġáĥ¡ áĥĶáĥ¥áĥ¢
à§Ģ à¦¤à§ĩ
Ġprodu its
ĠM us
ĠÑģ ÐºÐ°ÑĩÐ°ÑĤÑĮ
ĠÐ§ ÑĤÐ¾
Ùİ ÙĦ
ĠØ§ÙĦØ¯ ÙĪÙĦ
Ġáĥŀ áĥĲáĥłáĥļáĥĲáĥĽáĥĶáĥľáĥ¢
ÐµÐ´ Ð¸Ð½
ĠáĥĽ áĥĶáĥ¡
ĠS in
ĠP lus
Î¹Î½ Î¬
ĠR oma
Ġri cer
z w
Ġb lock
ä¾ ¡
Ã¡c e
ĠÎ±ÏħÏĦÎ¿ Îº
Ġà®ļ à®ķ
ve au
à¤¾à¤¦ à¥Ģ
×ķ×¨ ×Ļ×Ŀ
Ġ antes
ĠT ak
Ø§ Ù¾
áĥł áĥĿáĥķ
Ġà¦®à¦¾à¦§à§įà¦¯à¦® à§ĩ
Ġlang _
Ġà°µà°ļà±įà°ļ à°¿à°¨
s ÃŃ
den ti
à®¾à® ´
larÄ±n da
Ġdo ch
ÙĦ ÙĬØ©
ĠÏĨ Î±Î½
à¤ Ľ
Ġà®¤ à®Ł
ĠSt ra
áĥĿáĥ ®
ĠÃ©quip e
ĠÐ´Ðµ ÑıÑĤÐµÐ»ÑĮ
Ïģ ÏĦÎ·
Ġà°¤à±Ĩà°² à°¿à°¸
ãģĹãģ¦ ãģĦãĤĭ
ÐµÑĢ Ðº
ĠÎ± Î¹Ïĥ
ĠáĥĽáĥĺáĥĽ áĥĵáĥĺáĥľ
8 1
à¹Ĥà¸£à¸ĩà¹ģà¸£à¸ ¡
à¸£à¸°à¸ Ķà¸±à¸ļ
ĺ à¸£à¸£à¸¡
Ġ ä¾¿
è¯¾ ç¨ĭ
ģà¸£à¸ °à¹Ģà¸
æīĭæľº å¨±ä¹Ĳ
åĪ© äºļ
à¹Ħà¸ Ĥà¸
ĠåĮ »
åĨł åĨĽ
ļà¸ ¸
Ġ2020 å¹´
å Ĺ
çĻ¾ å®¶
ĠagèµĮåľº å®ĺæĸ¹
Ġz h
æĳ ¸
Ġç» Ħ
Ġà¤Ĩ à¤ł
Ġo ra
cj Äħ
ĠÐ¿ÑĢ Ð°ÐºÑĤ
Ġm ak
ĠÎŃ ÏĢ
Ġà¦¶ à¦¤
Ġder nier
Ġà¤ĸ à¥ĩà¤²
Ġà°ª à°µ
à¯įà®® à¯Ī
Ġprimer a
Ġb á»Ļ
ëŀ ĳ
Ð¸Ð» Ð¾
st ag
áĥĺáĥ¡ áĥĽ
Ġà°µà°¿à° ®
ĠáĥłáĥĿáĥĽ áĥļáĥĺáĥ¡
Ġh u
Ī à¹īà¸²
Ġåĵ ª
Ġ7 2
èµĦ è®¯
Ġé£ İ
å¯¹ è±¡
ĠåŃ Ĳ
ä¿¡ åı·
ĠåĲ ī
Ġà¤® à¤Ĺ
ĠÎµÎ½ ÎŃÏģÎ³
Ġà¤µà¤¿à¤Ń à¤¾à¤Ĺ
ĠT ag
Ġf ino
ĠÚ©Ø±Ø¯ ÙĨ
ĠØª Ø´
ĠS uj
Ġprem ier
Ġà¤ªà¥įà¤° à¤¯
Ġs Ã¼r
nÄĽ nÃŃ
ĠMen schen
Ġre f
ĠÐ±ÑĥÐ´ ÑĥÑĤ
ÏĦÏģÎ¿ ÏĢÎ®
à®µ à®¿
ĠáĥĽáĥĵáĥĴáĥĿáĥĽ áĥĲáĥłáĥĶáĥĿáĥĳ
kie go
Ġà¦¦ à¦¿à¦¤à§ĩ
à¯įà®ķà®³ à¯Ī
à°¾à°Ĺ à±ĩ
Ġp un
Îµ Î¯Î±
Ġêµ °
ÏĮÏĦÎµ ÏģÎ±
ĠÑģÐ´ÐµÐ» Ð°ÑĤÑĮ
Ð» ÐµÐº
Ġz em
Ġà¤ľà¤¾à¤¤ à¥Ģ
æĦŁ è§ī
åħ¬ åħ±
à¤¾à¤Ĥà¤ ®à¤§à¥įà¤¯à¥ĩ
ir o
Ġenf ants
Ġ×ĳ ×¤
Ġà¦ľ à§ĩà¦²à¦¾
ĠÐ² Ð¾ÑĤ
Ġà¦¬ à¦°
áĥ¨ áĥłáĥĿáĥĽ
ÑĮ Ðµ
Ġte le
ĠÎľ ÏĢÎ±
Ġà°ħà°¨à±įà°¨ à°¿
Î¸Î· ÏĥÎ·
ëĭ¤ ëĬĶ
ÐµÐ» Ð¸Ñĩ
ĠØ¯Ø§Ø´Øª Ùĩ
áĥĲáĥª áĥĺáĥĿ
Ġm Ã¥
áºŃ y
Î±Î¹ Î±
ĠÎŃÏĩ Ïī
Î½ ÏīÏĥÎ·
à¤µ à¤¾à¤²
áĥ£áĥľ áĥ¥
Ø§Øµ Ø©
Ġãĥ ŀ
ĠÑģ Ð¸Ð»
Ġdo it
Ġà¤¬à¥Ī à¤ł
Ġà®ª à¯ģà®ķ
áĥĶáĥł áĥĲáĥ¢
t w
à¦¸à§įà¦¥ à¦¾
Î¡ÎĻÎ ĸ
ĠÏĢÏģÎ¿ ÎºÎ±
ĠÑįÐº Ð¾Ð½Ð¾Ð¼
Ġà¤ľà¥Ģ à¤µà¤¨
i ciÃ³n
Ġà°¦ à±Ģà°¨
Ġê° Ħ
Ġsch ne
áĥĲáĥĻáĥ£áĥĹ áĥł
Î´ Ïį
à¤² à¤¬
Ġr ap
ĠÑģÐ¼ Ð¾ÑĤÑĢ
×ľ ×ĳ
ry w
ĠÎ¼Îµ Î³Î¬Î»
Ġzam an
ĠI k
ĠÐ°ÐºÑĤ Ð¸Ð²
ãģª ãĤī
à§ĥ à¦·à§įà¦Ł
à¯ģà®¤à¯įà®¤ à¯ģà®µ
Ġ ir
á»¯ a
Ġw ij
ĠÏĢÎ¿Î»Î» ÎŃÏĤ
Øµ Ø©
Ġáĥĺ áĥĲáĥľ
à±ģà°µ à±ģ
I j
Ġp ost
ê² ł
Ø´ Ùħ
ĠTh em
çľ Į
Ġà¤¦ à¥ĩà¤¨à¥ĩ
Ġm ujer
Ġa qu
Ð¸Ñģ Ñģ
ãģĤãĤĬ ãģ¾ãģĻ
ĠWo hn
à¯ĩà®¯ à¯ĩ
ĠwiÄĻ k
Ġin v
Ġren contre
ĠE lle
Ġà¦ªà¦¾à¦° à§ĩà¦¨
áĥķ áĥĶáĥĹ
Ġt ah
ĠíĨ ł
à°¾à°® à°¨à°¿
Ġch áº¥t
à¤¾à¤¨ à¥ĭà¤Ĥ
à°²à±įà°² à°¿
an ces
ÏĦ ÏģÏĮ
à±ģà°² à°¤à±ĭ
ĠM in
ĠØ§ÙĦÙħ ÙĨØª
Ð¸Ð² ÑĪ
Ġ×¢ ×ĵ
ĠáĥŀáĥłáĥĿáĥª áĥĶáĥ¡
ĠØ² ÙĨØ¯
à¯Ģ à®¤
ĠÎĻ Ïī
Î£ Î¤
Î¹Ïĥ Î¼ÏĮ
Ġà¦ķ à§ĩà¦
Ġve el
ìĸ ¸
Ã¤l t
Ø§Ø¦ ÙĬ
áĥĺáĥľ áĥĵáĥĲ
Ĺà¸µà¹Ī à¸Ļà¸µà¹Ī
Ĺ à¹Īà¸²à¸
åŃ Ķ
Ġä¸Ń å¤®
Ġä¸ Ķ
åľ° äº§
ģà¸±à¸ļà¸ ģà¸²à¸£à¸
Ġà¤¬ à¤Ĥà¤¦
ĠÎĳ Ïģ
menta ires
en o
Ġà¦¸ à§ĩà¦Ł
à±ģà°² à±į
ĠáĥĵáĥĲáĥ ¤
ich ten
ĠÎĵ ÎĻÎĳ
Î¼ Î®ÏĤ
Ġà®ķà¯Ĭ à®Łà¯ģà®¤à¯įà®¤
Ġnuest ro
Ð¾Ð´ Ñĭ
ĠÎ¤ ÏģÎ¯
Ġà®ĩ à®³
is iÃ³n
Ø¨ Ø¹
Ġà¦¬ à¦¾à¦¬
Ġpho to
Ġà¦ıà¦ķ à¦ľà¦¨
æļ Ĺ
æĻ ¶
¢à¸±à¸ĩ à¹Ħà¸
è£ Ŀ
çĭ ł
æ³ ¡
Ġè º«
å¿ħ ä¸Ń
å°¼æĸ¯ äºº
à¹Ģà¸Ľ à¸´à¸Ķà¸
Ġ ^
à¹Ĥà¸ ¥
à¤Ĺà¥įà¤° à¥ĩà¤¸
¡à¸²à¸ģà¸ Ĥà¸¶à¹īà¸Ļ
Ġ2 96
áĪ Ī
à¥įà¤ŀ à¤¾à¤¨
à°¿à°ª à±ĭà°¤
Ġnghiá»ĩ p
ìĺ ¨
ĠÏĢÎµÏģÎ¯ ÏĢÎ¿Ïħ
à®¿à® ¨
Ġh um
Ġà°ĩ à°Ĥà°¡
Ø±ÙĪ Ø²
ÑĤ Ñĭ
ê¸ Ģ
Ö ´
×ķ×ĳ ×Ķ
Ġnouve lle
ĠÑģ ÑĥÐ¼
Ġqu indi
à±ĩà° ¡
Ġna m
ë ¨
ĠÐ¿ÑĢÐµÐ´ Ð¿ÑĢ
áĥł áĥĲáĥļ
Ġs at
ÐµÐ½ Ð½Ð°Ñı
r ir
Ġma jÄħ
g esch
åŁº åľ°
Ġèµ ·
Ġæ ¼
æİ¥ åı£
à¹īà¸²à¸ ¢
Ġçİ¯äºļ appä¸ĭè½½
Ġ9 6
à¸£à¸²à¸¢à¸ ¥à¸°à¹Ģà¸Ńà¸µà¸¢à¸
ŀà¸±à¸Ĵ à¸Ļà¸²à¸
èĢģèĻİ æľº
äºº å£«
ĠçĶµ åŃĲ
Ġ6 2
Ġ ä¾ĭ
æŃ£è§Ħ ç½ĳç«Ļ
Ġç½ĳé¡µ æ¸¸æĪıå¹³åı°
Ġà¤ĸ à¤°
ĠÐºÐ¾Ð½ ÑĤÑĢ
Ġv Ã¬
Ġcos a
Ġáĥ¡áĥĲáĥ£áĥ ĳ
à±Ģ à°²à±ģ
ĠSuj et
au te
Ġë Ī
Ġà¦ī à¦¨à§įà¦¨
ĠØ¨ ÙĪ
Õ¡ ÖĦ
Ġla z
os pod
ĠØ§ Ø´
Ġ×ĳ ×ĳ
ĠáĥĴáĥĲáĥĽ áĥĿáĥĽ
Ġy h
æµĭ éĩı
åĪĨ ç±»
å¯¼ èĩ´
ä¼ĺ æĥł
Ġ= "
Ġäºļæ¸¸ æīĭæľºçīĪ
Ġà¹Ģà¸ Ĥ
áŁ Ħáŀ
éĤ ¦
èĭ¹æŀľ çīĪä¸ĭè½½
ç °
Ġç¬¬ ä¸Ģ
Ġà¤¶ à¤¿à¤µ
ĠRe g
lan c
ĠÐ¾Ðº Ð°Ð·
ĠÎ» ÏĮ
Ġà®ĩ à®©à¯įà®±à¯ģ
ct ure
æį ·
ç®Ĺ æ³ķ
Ľà¸¥à¸µà¹Īà¸ ¢à¸Ļà¸
Ġé¢ Ħ
æ¬ ²
å®ļ ä½į
ħ à¤°
Ġsta ta
Ġact ual
ar ak
Ġà¦¸à¦®à§įà¦ª à¦°à§įà¦ķ
l ish
Ġà°ĩ à°µà±įà°µ
à¤ ĩ
as ib
ĠØ¨Ø± Ø®
Ð¼ Ðµ
iss ion
as jon
ĠEr mÉĻn
ne k
ÏĨÎ¿Ïģ ÎŃÏĤ
Ġà®¤ à®¿à®Łà¯įà®Ł
ÙĤØ¯ Ùħ
ar ÉĻt
Ġp Ãºb
Ġto e
ÑıÑĤ ÑģÑı
ê³ ³
Ġpra v
Ġà°ĩ à°²à°¾
Î»Î± Ïĥ
Ġk ap
Î¯ ÏīÏĥÎ·
à±Ģà°Ĩ à°°à±į
à±Ĥà°° à±ģ
Ġà°¦ à°Ĺà±įà°Ĺ
Ġtien en
ĠP ri
ëª ©
ĠÏĢÏģÏĮ Î²
Ġà¤Łà¥Ģ à¤®
Ġáĥ¡ áĥĿáĥªáĥĺ
áĥ£áĥļáĥĺ áĥĲ
t on
Ġ×Ĳ ×ĳ
ÎĻÎ£ Îľ
ĠÎł ÏĮ
Ġà¤ķ à¤²
ÙĦ Øª
ĠÐ¾ÑĤÐ½Ð¾ ÑĪ
Ġob ie
Ġvo it
Ġà®¨ à®¾à®®à¯į
à¦¾à§Ł à§Ģ
ĠáĥĲáĥł áĥĲáĥ¤
Ġ| --
ĠØ§ÙĦØ± Ø¦ÙĬØ³
áĥĲáĥªáĥĺ áĥĲáĥ¡
ĠÎ¼ÎµÎ³Î¬ Î»Î¿
ë©´ ìĦľ
Ġ×ľ ×¦
ĠÑĥ Ð¿
Ġa o
Ġà®ī à®Ļà¯įà®ķà®³à¯į
à±ģà°¦ à°²
Ġà¤ľà¤¾à¤¨ à¤ķà¤¾à¤°à¥Ģ
Ġm ov
ess en
ĠAGçİ¯äºļ éĽĨåĽ¢å®ĺç½ĳ
à¹ģà¸ķà¹Īà¸ ¥à¸°à¸
à¤£ à¥įà¤¯à¤¾à¤¤
à±Ĥà° Ł
s iniz
áĥĿáĥł áĥĺáĥĲ
à§Ĥ à¦°à§įà¦£
Ġxu áº¥t
Ġi de
áĥĲáĥķ áĥĲáĥļáĥĺ
Ø¨ÙĬ Ø¹
à¤°à¥įà¤ ·
ê² °
ÄĽ st
ÏĦÎ¹Îº Î¿
T A
Ġpo lÃŃ
Ð° ÑĨÐ¸Ñİ
à°¿à°ļ à±įà°ļ
ch ts
Î¹Ïĥ Î¼Î¿Ïį
Ġn r
Ġcomp te
Ġa llo
ĠÐ¿ ÑĥÑĤ
ow ni
Ġà°ķ à±Ĩ
Ġmej ores
ĠØ¯ ÛĮØ¯
ĠáĥĴáĥĲáĥĽ áĥĿáĥ¡
ĠãĤ ¤
ĠÙħ ØµØ±
Ġte ng
r Ã¼n
Øµ ÙĪÙĦ
ÅĻe ba
ÏĪ Î·ÏĤ
×ŀ ×ķ×ª
Ġà°¸à°Ĥà° ª
eit ere
Ġna ture
ĠÄ± n
dz ia
Î± ÏĦÏģ
Ġch at
ch os
Ġà¤ļ à¤¾à¤°
ta mente
Ġà®® à¯ģà®ķà¯įà®ķ
or u
Ġsu pp
ĠÎł ÎŁÎĽ
Î½Î¿Ïį ÏĤ
za hl
ë¡ ¯
Ġà°¨ à°¿à°¯
áĥķ áĥĲáĥłáĥĺ
sk Ã½ch
Ġáĥŀ áĥĶáĥłáĥĺáĥĿ
ien s
ĠØ®ÙĪØ¯ Ø±ÙĪ
Î» Î¯Î±ÏĤ
íĽĦ ê¸°
Ġì¶ ©
j os
áº¡ ch
Ġà¤ħà¤² à¤Ĺ
Ġ×¢ ×¦
st Ã¤n
Ġà¹Ģà¸ §à¹ĩà¸ļ
é Ĭ
ç¤¾ä¼ļ ä¸»ä¹ī
à¹ģà¸ §à¸
Ľà¸±à¸įà¸ «à¸²
Ġà¸ Ħà¸§à¸²à¸¡
åĳĬ è¯ī
åĩ ¯åıĳ
Ġà¸ªà¸ ĸ
éĩĮ çļĦ
é© ±
B A
5 æľĪ
à¤²à¥ĩà¤² à¥Ģ
Ġb ene
Ġà¦ķ à§Ģ
ve z
ĠÐ²Ñģ ÐµÐ³Ð´Ð°
Ġà°ķ à°¦
Ġur z
Î¹Î½ Î±Î¹
ĠÏĦÎ¿ ÏĢÎ¿
Ġman era
Ġë¬ ¼
Ġà°¸à°Ĥà° Ĺ
Ð¾Ð³ Ð¾Ð²Ð¾ÑĢ
Ã¦ re
Ġà¤¨ à¥ĩà¤¤
Ġà°ªà°° à°¿à°¶
Ġs co
Õ ²
Ġm ÉĻÅŁ
Ð½Ð°Ðº Ð¾Ð¼
ĠØ¨ÛĮ Ø´ØªØ±
Ġáĥ¬áĥĲáĥłáĥĽáĥĿáĥĽ áĥĲáĥĵáĥĴáĥĶáĥľ
Ġà¦¸ à¦¾à¦Ĥ
ĠP ero
Ġk ier
ÙĬ Ø¬
à®¤ à®¾à®²à¯į
ÐµÑĢ Ñģ
Ġq q
è³ ¼
æĪĲ ç»©
åĿļ æĮģ
Ġ äº¬
è± Ĩ
áŀ Ĭ
è¾ĵ éĴ±
å½± éŁ³
ª à¸£à¸£à¸
§à¹Īà¸²à¸ Īà¸°à¸
Ġà¤ķ à¤¾à¤ģ
Ġpe que
äººæ°ĳ å¸ģ
Ġà¤¤à¥įà¤¯à¤¾à¤ ļ
k om
Ġsa voir
Ġà°¹à±Īà°¦à°° à°¾à°¬à°¾à°¦
Ġà°° à°¾à°µ
ĠÏĢÎ¹ Î¸Î±Î½
Ġà¦² à§Ģà¦Ĺ
Ġà¦® à¦¿à¦²
ĠáĥĴ áĥ£áĥļ
Ġf Ã¼
ĠáĥĽ áĥĶáĥĵ
Æ°á»Ľ ng
Ġsz ko
ĠprÃ©s ent
Ġy e
Ġa ir
±à¸ģà¸ ĩà¸²à¸Ļà¸
à¤¦à¥įà¤¦ à¤²
ĠÑĥ ÐºÐ°Ð·
Ġi hned
Ġv ÄĽt
ãģĪ ãģ¦
ĠÐ½Ð°Ð¿ ÑĢÐ°Ð²
Ġnost ro
Ġ×ľ ×Ĵ
Ġda i
ĠáĥĹáĥĲáĥķáĥĺáĥ¡ áĥĺ
Ġe k
ĠÙĪ Ø§ØŃ
à°Ĥà° ¶
Ġesc ri
ĠÎµÏģÎ³Î±Ïĥ Î¯Î±ÏĤ
Ġà¦¤à¦¾à¦ģ à¦°
Ġà°ªà°° à°¿à°¸à±įà°¥à°¿à°¤
ÏĨ Î¬
ĠrÉĻh bÉĻr
Ġå®ĺ æĸ¹
Ġà¹Ģà¸ Ĥà¸²à¸
à¤µ à¥Ĥà¤¨
à®Ļà¯įà®ķ à¯ĩ
ĠÐ¿ Ð¾Ð¶
Ã¡ g
Ġg em
ĠãģĿ ãĤĮ
ÛĮÙĨ Ùĩ
v an
ĠáĥĴáĥĲáĥľáĥ¡ áĥĲáĥĻáĥ£áĥĹáĥł
enie m
Ġne cess
ĠÎ± ÏĨÎ®
ìķĦê°Ģ ìĶ¨
Ġê²½ ìļ°
Ġà°ħà°¨à±įà°¨ à°¾à°°à±ģ
ĠÎºÏħ ÏģÎ¯ÏīÏĤ
Ġà¦ķ à§ĩ
ĠÐºÐ¾ÑĤÐ¾ÑĢ Ð°Ñı
Ġgi an
èĢ Ĺ
à¸Ļà¸± à¹Īà¸Ļ
ªà¸³à¸Ħà¸ ±à¸į
è¢ Ń
å¦Ĥ æŃ¤
à¹Ģà¸¡à¸ ·à¹Īà¸Ńà¸
Ġà¤ª à¤¾à¤£à¥Ģ
Ġo rig
ĠPer son
Ġà°¤ à°²
ĠRo z
Ġagåľ¨çº¿ å®ĺç½ĳ
ç» ķ
Ġáł İ
áłłáł ¨
Ġc m
à¹Ģà¸¥à¸·à¸Ńà¸ ģ
é© °
çīĽ çīĽ
áŀ Ħ
à¹Ĥà¸ ŀà¸
æĤ ł
Ĺ à¸£à¸²à¸
¥à¸·à¸Ńà¸ Ķà¸
à¥Ĥ à¤°à¥įà¤µ
à¦¿à¦¸ à§įà¦¤
ĠØ§Ø± Øª
ĠÏĢÎ± Î³
ĠáĥĲáĥ®áĥĲáĥļ áĥĴ
à°¿à° £
Ġpe ÅĤ
Øµ Ùģ
à®µ à®©à¯į
m ÉĻsi
ãģ« ãģ¤
Ġà®¨ à®®à¯įà®ª
Ġáĥ¥áĥķáĥĶáĥ§ áĥľáĥĺáĥ¡
Ġà¦¤à¦¥ à§įà¦¯
Ġcom ment
pr Ã¨s
Ð°ÑĤ Ðµ
Ġde re
in ie
Ġsu dah
Ġà¤Ĺ à¤¿à¤°
×Ĳ ×Ļ
c ciones
ĠÃ ¤
áĥĶáĥĳáĥĺ áĥĲ
ĠÙħ Ø¤
ĠÎĻ Ïĥ
wo rz
Ġà¦¬à§įà¦¯ à¦ķà§įà¦¤
ê· ¼
Ġà¤ħà¤¨ à¥ģà¤¸
à°° à±įà°²à±ģ
Ġpart ir
Ġéĥ ¨
Ġå¤§ å®¶
éĻį ä½İ
æ·± åľ³
±à¸Ļà¸ĺ à¹Į
Ġåıĳ å¸ĥ
¡à¸²à¸ģà¸ ģà¸§à¹Īà¸²
èĪ Ĵ
ä¸ĭ æĿ¥
Ġà¸ Ķà¸±à¸ĩ
Ġä» £
äºº å¤§
æ±¡ æŁĵ
Ġç« ĭ
Ġà¤Ĺ à¤°
Ø¨ ÙĬØ±
n el
Ðº Ð°Ð½
Ġza w
ÙĨ Ùĩ
Ġà®® à®¾à®¨
ÉĻm iyyÉĻt
Ġs aya
Ġann on
Ð½ ÐµÐ³Ð¾
áĥĲáĥĹ áĥĺ
Ġà°® à°¾à°¨
iv el
ĠÎļ ÏīÎ½
à¯ĭ à®Ł
bi to
Ġd Ã¢n
ĠÏĢÎ»Î·ÏģÎ¿ÏĨÎ¿ ÏģÎ¯ÎµÏĤ
ĠÄį es
en Ã½
áĥķ áĥĺ
Ġà¤¸à¤Ĥà¤ Ĺ
Ð¸Ð½ Ð¾Ð²
cyj ne
ang at
ìķ ł
×¤ ×§
Ġà°¤à±Ĩà°² à°¿à°¯
Ġvie le
mek te
ĠÏĨÎ¹ Î»Î¿
ĠáĥŀáĥłáĥĿáĥĳáĥļ áĥĶáĥĽ
g n
ãĢ ħ
à®¿à®° à®¿à®¯
ĠÑģÐº Ð¾ÑĢ
Ã© ro
il ik
· °
Ġk to
es a
ĠìĬ ¬
ĠÎŃ ÏģÎµ
à¥ĭ à¤°à¥įà¤Ł
ĵ °
Ġvel mi
Ġà¦¹à§ĭà¦¸ à§ĩà¦¨
à§ĩà¦¤ à§įà¦°
Ġà°ļà±Ĩà°Ĥà°¦ à°¿à°¨
ĠØ³ Ø§Ø¹Øª
à®©à¯įà®© à¯Ī
ob ierno
Ġà®ķ à¯ģà®°
k re
ĠP as
i Ã¨re
Ġra cc
Î¼ÎµÎ½ ÎµÏĤ
Ġà¤µà¤¿à¤ ľ
Ġáĥĺ áĥł
×¨×Ĳ ×©
du ca
íĻ ©
ĥ à®ª
ħ ÖĢ
Ġt ap
ĠáĥĳáĥĶáĥķ áĥłáĥĺ
ff e
Ġsprze da
Î¸ ÏĮ
ĠwÅĤ as
is ce
Ġn or
è¨ ĺ
Ġà°¸à°® à°¸à±įà°¯
á»į i
Ġì¶ľìŀ¥ ìĥµ
ëª¨ íħĶ
ĠíĶ ¼
ĠÐ¿ÑĢÐ¾ÑĦ ÐµÑģÑģ
ç½ĳä¸Ĭ æ³¨åĨĮ
y l
Ġà¤¦ à¥ĩà¤¤
Î³Îµ Î¯Î±ÏĤ
ĠØ§ÙĦÙħ ÙĤ
Ð¸ÑĩÐµÑģÐº Ð°Ñı
Ġme zi
Ïī ÏģÎ³
ĠÎµÏĢ Îµ
ĠÑĤ Ðµ
ĠØ®ÙĪØ§Ùĩ Ø¯
ba ar
ĠÏĦ Î±Î¹Î½
à§ĩà¦® à¦¨
Ġwie le
Ùİ Ø§
ÙĬ ÙĬÙĨ
Î¹Îº Î±
ĠÎŃÏģÎ³ Î¿
ÏĦÎµ Î¿
Ġbir i
ëĬĶ ëį°
ĠáĥĽ áĥĶáĥĹ
à±ĭ à°¸
Ð´ Ð¶
Ġh Ã´tel
ĠÏĥÏį ÏĥÏĦÎ·Î¼Î±
Ġà¤ĩ à¤²
ĠTe il
Ġr Å¯
Ġà¦¬à¦¿à¦Ń à¦¾à¦Ĺ
Ùİ ÙĨ
ĠØ£ ØŃ
tiv as
ãģ§ãģį ãĤĭ
Ð» ÐµÑĤ
ĠáĥĲáĥł áĥĲáĥĽ
ĠktÃ³r ych
Ġpro v
Ġáĥ¥ áĥ£áĥ©
ĠÏĮÎ» ÏīÎ½
à¹ģà¸ªà¸Ķà¸ ĩ
à¹Ģà¸¡à¸ ·à¸Ńà¸ĩ
Ġà¤ķà¥ĭ à¤°
áĥĺáĥķ áĥĶáĥłáĥ¡
ĠÚ© Ø¯
am a
Ø¨ Ø§Øª
Ġà¦¸ à§Ĥ
ĠÏħÏĢÎ¿ Ïĩ
ĠH ome
à¹ĩà¸ ķ
Ġà¤¸ à¤Ĺà¤³
Ġà¤ķ à¤Ńà¥Ģ
ĠÑģ ÑĥÑīÐµÑģÑĤÐ²
à°¡ à±ģ
Ġk im
an c
Ġà¸ªà¸ ¹à¸
èĢħ çļĦ
ç¡® å®ļ
ģà¸ ´à¸Ļà¸
ĠæĮ ĩ
è¯ Ĺ
çķ ¶
Ġçº¢ é»ĳå¤§æĪĺ
Ġà¤¨à¤¿ à¤°à¥įà¤£
ĠØ± ÛĮ
ÏĨ ÏģÎ±
ë¥ ĺ
ĠÏĮ Î»Î¿
ĠáĥĲáĥĽ áĥĶáĥł
Ġä¸ ¥
Ġs bo
å®ĺç½ĳ æ³¨åĨĮ
Ľà¸£à¸°à¸¡à¸²à¸ ĵ
é«ĺ çļĦ
åĲ ´
ĠæĿ¥ æºĲ
Ġå ĭ
Ġà¤® à¤¦
à±ģà°ķ à±įà°ķ
iy asÄ±
×ĵ ×Ŀ
ĠIn forma
Ġe er
ĠØªÙĪ Ø¬Ùĩ
à±ģà°¤ à±ĭà°Ĥà°¦à°¿
Ġcom mer
Ġà¦¬à¦¿à¦° à§ģà¦¦à§įà¦§à§ĩ
ĠÎ¬Î»Î» ÎµÏĤ
Ġà°µ à±Ĩà°²
Ġdam it
Ġatti vitÃł
ri c
Ġapp ar
Ġà®¤à¯Ĩà®°à®¿à®µ à®¿à®¤à¯įà®¤
ĠáĥĻáĥĲáĥłáĥĴ áĥĺ
Ġà°®à±ģà°Ĥà°¦ à±ģ
ĠÑģ ÐµÐ³Ð¾Ð´Ð½Ñı
ĠÙĩÙħ Ùĩ
Ġv ur
ue go
à§ Ń
ze ich
Ġch ar
Ùĩ Ùĩ
ĠÙĪ Ùģ
Ïĩ Î¿ÏħÎ½
dan ie
Ġãĥ ¡
áĥļ áĥĶ
à§ĭà¦°à§įà¦ Ł
2020 å¹´
Ġà¤ªà¥įà¤°à¤¶ à¥įà¤¨
ÑģÐº Ð¾Ðµ
Ġagäºļæ´²æ¸¸æĪı éĽĨåĽ¢
åº Ł
ªà¸ °
k j
Ġå° ½
èĢ Ģ
ļà¸²à¸ ĩ
Ġà¤ĸ à¥ĩà¤³
Ġãĥ Ĳ
ìĽ Į
Ġpeu vent
ĠK r
×Ĳ ×Ļ×Ŀ
wÃ³ j
ĠÛ µ
ĠØ³Ø§Ø² ÙħØ§ÙĨ
à¯ĭ à®©
ĠáĥĹáĥĲáĥĽ áĥĲáĥ¨
ĠØ³ Øª
ĠÏĢÎ»Î± Î¯ÏĥÎ¹Î¿
a Ã§Ã£o
ĠÏİ ÏģÎµÏĤ
Ġà¦Ĩ à¦¬à¦¾à¦°
Ġà°ª à°¾à°¤à±įà°°
ĠA Z
ti q
ÑĤ Ð¾Ð²
á» Ĺ
à°¿à°¸à±įà°¤ à±ģà°¨à±įà°¨à°¾à°°à±ģ
à§ĩà¦ĸ à¦¾à¦¨à§ĩ
ĠÎºÎ±ÏĦÎ± ÏĥÎºÎµÏħ
b li
ter e
ãĥ İ
Ġà°ľà°° à±ģà°Ĺ
áĥ¬ áĥĺáĥľ
Ġà¤¯ à¤¦
ĠÐ²Ð½ Ð¸Ð¼
ÏĦÎ¹Ïĥ Î¼Î¿Ïį
ÉĻt ir
ĠcÃ³ mo
ĠL u
ber o
ê² ĥ
Î½ ÏīÎ½
Ð¸Ð» Ð°ÑģÑĮ
Ġt ari
Ġf ig
Ġà°µ à°¿à°ķ
ĠáĥłáĥĲáĥ¢ áĥĿáĥĽ
ĠØªÙĪØ³ Ø·
Ġà®ķ à¯Ĩ
Ġà°ª à±ģà°°
Ġdru h
b el
Ġ rz
áĥĺáĥłáĥĵ áĥĶáĥĳáĥĲ
ĠÎ¿Î¹ÎºÎ¿ Î³ÎŃÎ½
Ġà®µ à®ļ
ĠÑģ Ð¾Ð´ÐµÑĢÐ¶
ĠãĤ ¯
ica ciÃ³n
Ġà¤ªà¥įà¤° à¤¸
an der
ĠÐľ Ð¸Ð½
áĥ® áĥĶáĥļ
Ġ×Ĳ ×Ļ×ļ
ra f
×ľ ×ĺ
ĠÑĢ Ð¾ÑģÑģ
ÙĲ ÙĬ
áĥĶáĥ ¯
ĠÑģÐ¿Ðµ ÑĨÐ¸
ÙĪ ÙĪ
ÙĬ Ø´
ÏģÎµ Î¬Î½
áº¯ ng
à°°à±įà°¸ à±į
á½´ Î½
Î¼ Î·ÏĤ
Ġà®ªà¯ĭ à®ķ
Ġáĥł áĥĲáĥĺ
Ġtr es
Ïĩ Î¬
ĠÐ¸ Ð´
or to
Ġà¤µà¤¿à¤¶ à¥ĩà¤·
ĠáĥĽáĥĶáĥĴ áĥĿáĥĳ
Ð¾ ÑıÑī
ãģĦ ãģĦ
ÄĽ k
Î² Î±Ïĥ
ĠìĥĿ ê°ģ
à®¿à®ķ à®³à¯Ī
ĠB l
ãģ£ãģ¦ ãģĦãĤĭ
áĥĴ áĥĶáĥľ
Ġà°Ĩ à°ķ
Õ¸ÖĤÕ µ
ÄŁ un
Î¸Î· Î¼Î±
ÏĢ ÏĦÏİ
Ġcon os
à¦¹ à¦£
ĠØ¬ Ø¯ÙĬØ¯
Ø§ØŃ ÛĮ
ĠmoÅ¼ liw
Ġentrepr ise
Ġb anyak
Ġ×§ ×¨
áĥĳ áĥ£áĥłáĥĹ
Ġda ting
Ġh ui
Ġv il
Ġwo j
ĠØ¯Ø§ÙĨØ´ Ú¯Ø§Ùĩ
ĠÕ« ÖĢ
ĠaÃ§ Ä±q
gra f
Ð°Ð¶Ð´ Ð°Ð½
ĠÏĩÏİÏģÎ± ÏĤ
Ġáĥŀáĥł áĥĿáĥĵáĥ£áĥ¥
Ġáĥ¥áĥķáĥĶáĥ§ áĥĲáĥľ
ë³ µ
Ø§ ÙĬØ©
ãĥ¼ãĤ º
ÏĦÎ® Î¼Î±ÏĦÎ±
ĠÖ ĥ
ĠAzÉĻrbaycan Ä±n
Ġu z
Ø§Ø º
à¤® à¥Ģ
Ġà¦ħ à¦«
Ġà®ªà®¯ à®©à¯įà®ª
Ġin te
ĠÐ° Ð¿
Î¾ Î¿ÏħÎ½
z immer
Ã¶ s
Ġà°ħà°Ĥà°Ł à±Ĥ
à±ĭ à°§
ĠÐł Ñ
Ð°ÑĤ ÐµÐ»ÐµÐ¹
ĠÎļ ÎĳÎ¤
ĠÎĶ ÎµÏħ
Ġgr u
Ã¨ ne
ĠÄĳ iá»ĥm
Ġn Ã¡m
éĿĴ èįī
Ġà¤¸ à¥įà¤¤
ĠÐ¼ Ð¾Ð¼
Ïĥ ÏĢ
ÎŁÎ ¦
ĠÏĦ á¿ĨÏĤ
Ïĥ ÏĥÎµ
Ġìĺ¨ ëĿ¼ìĿ¸
ãģ« ãĤĤ
ĠO b
Ø§ ÙĪ
ëĵ¤ ìĿĺ
Ġà§§à§ §
Ġáĥĳ áĥĺáĥĸ
Ġà¦¶ à§ĩà¦ĸ
ĠÎĵ ÏģÎ±
nost ÃŃ
ĠÎ±ÏĢÏĮ ÏĨÎ±ÏĥÎ·
áĥĶáĥĳ áĥĲáĥĵ
Ġco lle
ak t
à´¾à´ £
Ġà¤¹à¤® à¤¾à¤°à¥ĩ
à±ģà°µ à°¾à°¤
ĠEs paÃ±a
ĠÐ· Ð°Ð³
Î¤ Îĳ
ĠÏĪ Ïħ
Î¶ Î±Î½
r ent
Ð¸Ð¼ Ð¾ÑģÑĤÐ¸
Ġà¦² à¦ķà§įà¦·
æĢ» ç»Ł
Ġåį ĥ
à¥ĩà¤ļ à¤¾
à¤¾à¤« à¥Ģ
c Ãª
T E
ĠCh icas
Ġencu ent
cia li
ëĭ ¬
ĠÐ²Ñĭ Ð±Ð¾ÑĢ
C lass
Î» Î¿ÏįÎ½
ĠÛ ´
ĠØŃ Ø¯
Ġ×ĳ ×Ľ
ÉĻy in
Ġà¦ªà¦° à§ĩ
ĠÐ¿ÑĢ ÐµÐ¿
Ġol tre
uj emy
ĠmÃ¼ s
wo d
u jÃŃcÃŃ
à´¿à´ ¨
à¥ĩà¤Ĥà¤ ¸
Ð°Ð± Ð¾Ñĩ
łà¸²à¸ Ħ
ŀà¸ ·à¹Īà¸Ńà¸
å¸¦ ä¸Ģè·¯
è Ŀ
áĢ¹áĢ ±áĢ
à¹ĥà¸ ļà¸
æĸ ¤
ä½ĵ çļĦ
Ġçģ «
Ġè° ĥ
è¿ ħ
¢à¸ ĩà¸
ļà¸¸à¸ Ħà¸
ĠåŁ İ
Ġä»Ĭ å¤©
Ġà¹Ģà¸ ģà¸¡à¸
Ġ< /
Ġç ±
æĽ ¿
äºĭä¸ļ åįķä½į
Ġà¥§à¥ ¯
ĠÐ´ÑĢÑĥÐ³ Ð¸Ñħ
áĥĺáĥł áĥĶáĥĳáĥĺáĥ¡
Î»Î¿Î³ Î¯Î±ÏĤ
Ġà®¨ à®¾à®³
ek en
ëį Ķ
I i
Ġmog Äħ
ĠÎ¾ÎµÎ½Î¿Î´Î¿ ÏĩÎµÎ¯Î±
Ġna z
Ġki ta
à¯ģà®¤ à¯ģ
Ġ ÏģÎ¿
à±Ĥà° ¡
Ġse p
ĠÏĦÎŃ ÏĦÎ¿
ĠáĥĴáĥĲáĥł áĥĶáĥĽ
à¥ĩà¤ķà¥įà¤· à¤¾
f ang
ĠÎ»ÎŃ ÎµÎ¹
Ġ×Ĺ ×©
m ment
ĠÎ² ÏģÎ±
ĠÉĻr az
à®¿à® Ļà¯įà®ķ
s Ã¥
Ġo tra
ĠU r
áĥĶáĥĴ áĥĽ
Ġb amb
ĠÐŁÑĢ ÐµÐ´
Ġil g
à±Ĩ à°ķà±įà°ķ
Ġà¤ķà¥Ī à¤¸à¥ĩ
à±įà°¯ à°¤
áº¹ p
ÎĳÎ£ Î¤
ĠÎłÎ±Î½ ÎµÏĢÎ¹Ïĥ
Ġí Ĺ
à§ ¬
Ø±Ùĥ Ø²
z ie
Ġf ilm
ãĥª ãĥ¼
Ñħ ÑĢÐ°Ð½
Ġà¤¬ à¤ļ
Ġà®ļà¯Ĩ à®©à¯įà®±
ĠÏĮ Î»Î·
à¦¾à¦¡ à¦¼
à±ģà°ķà±Ĭ à°¨à°¿
Ġtra ta
n al
Ġki nh
for m
ĠÑĦÐ¾ÑĤ Ð¾
ĠÎ¹ÏĥÏĦÎ¿ ÏģÎ¯Î±
ĠÐł Ð¤
ĠÑĤÐµÑĢ ÑĢ
Ġà®ļ à®¾à®¤
Ġáĥĳ áĥĿáĥļáĥĿ
Ġà°¨ à°Ĺ
Ġà¤¬ à¤²
ti ma
ĠÙĨÙħ Ø§ÛĮ
el ing
×Ĳ ×¨
Ġáĥ£áĥĻ áĥĲáĥľ
ĠØ§ÙĦØ¹ Ø§Ùħ
ĠP ÅĻÃŃ
ĠÎµ Î²Î´Î¿
Ð½Ð°Ðº Ð¾
Ġass ur
Ġf ÉĻr
Ġji Å¾
ÙĨØ¯ ÛĮ
ĠSta dt
ãĥ ı
ti en
Ġk áº¿t
à¥ģà¤® à¤¾à¤°
à¤¨ à¥ĭà¤Ĥ
Î»ÎµÏį Î¸Îµ
ĠØ³ Ø¨
ĠA pp
Ġà®¨ à®¾à®Łà¯įà®Ł
ëĵ ±
ĠP e
Ġf Ã©
áĥĿáĥĳ áĥĶáĥľ
Ġà°ľ à°¾à°¤
ĠM ont
Ã´ le
ĠÎľÎ± ÎĲ
Î® ÏĥÎµÎ¹
Ġíķ ©
Ġs Ã¼re
tic olo
Ġwsp Ã³ÅĤ
Ġb ed
z io
ĠÎĻÎ¿ÏħÎ½ Î¯Î¿Ïħ
ä¸į åį¡
à¤¬ à¤°
ĠÐºÐ¾ÑĤÐ¾ÑĢ ÑĭÑħ
Ġcom ent
Î¹Ïĥ Î¼ÏĮÏĤ
ĠInd onesia
u an
Ġà¤² à¤¡à¤¼
t res
Z X
am iÄĻ
Ø§Ø¦ ÙĦ
ar si
Ïĩ Ïį
Ġà°¨ à°¡
Ġj un
ĠÙħÛĮâĢĮ Ø´ÙĪØ¯
Ġà¦ļ à¦¿à¦ķ
in nen
Ġà¤ļ à¥Ģà¤¨
áĥ¢áĥĻ áĥĺáĥª
cz ka
d Ã¡
Ġl lam
Ð¸ÑĨ Ñĭ
Ġin nych
Ġà®ļ à®¾à®°
å¤ ī
ĠÐ· Ð°ÑĤ
Ġà¦¶ à¦¿à¦¶
Ġà°ªà±Ĭ à°Ĥà°¦
Ġpi Ã¨
ĠÙĪ ÙĦÙĥ
ĠN or
à¥ĩà¤ķ à¥įà¤¸
×Ļ×§ ×Ķ
ĠÎ¾ ÎŃ
Ġáĥ¡áĥĲáĥĽ áĥ¡áĥĲáĥ®
Ã¸ y
à´¿à´ °
Ġà¤ªà¤¾à¤° à¥įà¤Łà¥Ģ
ÉĻyy ÉĻn
Ð¾Ð½ Ð¾Ð²
Îķ Îľ
Î¸ ÏįÎ½
Ġà¤¯ à¥ĭà¤ľ
Ġà¦¤ à¦¾à¦¹
áĥľ áĥĶáĥĳáĥĺáĥ¡
Ġt Ã½
Ġt Ã¢m
Ġà®° à®¾à®ľ
à¤µ à¥įà¤¹
Ġeff et
à®¿à®°à¯ģà®ķà¯įà®ķ à¯ģà®®à¯į
ĠÎ²ÏģÎ¯ ÏĥÎº
ĠãĤ ¨
schie den
ĠdÃ© velop
ler ini
Ġà¤¬ à¥ī
à¦¿à¦¤ à¦¾
Ġáĥķ áĥĺáĥ¡
ti ci
Ġà¤®à¤¾à¤® à¤²à¥ĩ
Ġnuest ra
I jo
ÅĽ wiad
Ġb ych
Ġà¦¯ à¦¾à¦¬à§ĩ
Øª ÙĩØ§
ĠF emme
Ġdes cription
Ġb onne
ÅĻe b
Ġà¤° à¤¾à¤®
à´° àµįâĢį
Ġà¤® à¤ľ
Ġáĥ¡áĥĲáĥĻáĥ£áĥĹ áĥĲáĥłáĥĺ
ie ra
Ġà°ªà±įà°°à°¸à±įà°¤ à±ģà°¤
Ġwe er
Ġmem ili
Ġb áº±ng
ÉĻl ÉĻ
à§ ®
la ce
ÐµÐº ÑģÑĤ
íİ ĺ
Ø¹ Ø§Ø±
keit en
Ġwer k
Ġà¤¶à¤¾à¤® à¤¿à¤²
ĠÑģÑĩ Ð¸ÑĤ
æ¥ ½
Î½Î¿ Î¹Îº
à¯ģà®± à¯įà®±
ch u
áĥĿáĥ ©
Ġà°¤ à°Ĺà±įà°Ĺ
Î¼Îµ ÏģÎ¹Îº
ĠâĢ ª
ĠØ£ÙĨ Ùĩ
à¦¾à¦¸ à§įà¦¥
Ãªn cia
×ķ×ľ ×Ķ
à°¿à°ª à±Ī
Ġres te
z are
ta d
à¤µ à¤¾
ĠÎĳÎ½ Î¬
ĠÎ½Î¿ Î¼
à§Ģ à¦²
ĠÐ² Ð°Ð¶
Ġn l
Ġh ij
ĠÔ µ
ĠA B
ra Å¼
ì» ¤
Ġma i
ãĤ ½
áĥĲáĥ¡ áĥĲ
Ġhe cho
Ĺ à¸²à¸Ļ
è° ĭ
à¹Ģ à¸Ńà¸ģà¸
¡à¸ «à¸²à¸
Ġè¿ĺ æľī
Ġà¤¬à¤¦ à¤²
à°¿à° «
ĠE ine
ĠÎºÎ± Î»Î¿
Ġso ci
ĠÃ ¸
Ġst ar
ë³´ ìŀ¥
Ġë¨ ¸
ĠáĥĴáĥĲáĥľáĥķáĥĺáĥĹ áĥĲáĥłáĥĶáĥĳáĥĺáĥ¡
ĠáĥĻ áĥĲáĥ¢
Ġpor te
ĠÎ¸ÎŃ Î»
Ġho y
ÏģÎ¬ ÏĢÎµ
Ġà¦¬à¦¾à¦Ĥà¦²à¦¾à¦¦à§ĩà¦¶ à§ĩà¦°
à¦¨à§įà¦ ®
Ð°Ð² ÑĪ
íĮ ħ
il es
×ŀ× ĵ
ìĤ° ì¶ľìŀ¥
Ġë¨ ¹
à±Ĩà°Ĥà°Ł à±į
ĠáĥĹáĥĲáĥľáĥĲáĥĽ áĥ¨áĥłáĥĿáĥĽ
ĠÎµ Î½Î±
Ġris ul
n ku
e h
ĠM ÉĻr
ĠÅ¡ kol
Ïģ Î¹ÎºÏĮ
ãģĭ ãģª
ì²ľ ì¶ľìŀ¥
Ġë £
à§ĥ à¦·
à¥įà¤ķ à¤¾à¤°
Ø® Ø¯
Î¿Ïħ ÏĥÎ±
ĠáĥĻ áĥĲáĥļ
Ġnast ÄĻp
Ġza Äį
Ġw66 åĪ©æĿ¥
Ġ à¸£à¸±à¸ļ
à¹Ĥà¸ ģ
à¹Ģà¸ģà¸ ¡à¸
Ġagçİ¯äºļå®ĺç½ĳ æľĢä½³
Ġ à¹Ħà¸Ľà¸
Ġà¤¬ à¤°
Ġdax il
ĠÃ© p
ĠÑĤ ÑĥÑĢ
ĠØ¨Ø§ Ø²Ø§Ø±
ĠÎłÏģÎ¿ Ïĥ
Ġ" ]
Î¼ Î¼Î±ÏĦÎ¿ÏĤ
z ent
Ãº p
ĠÎµ ÏĦÏİÎ½
áĥª áĥĶáĥĽ
Ġog gi
à¦¾à¦ Ļà§įà¦Ĺ
ang er
æĽ ¸
Ø³ Ø§ÙĦ
áĥĿáĥ¥ áĥĽáĥĶáĥĵ
b ul
Ġë ĳĲ
a ber
Ġwszyst ko
Ġà®īà®³à¯įà®³ à®¤à¯ģ
ÏĥÎ¹ ÎµÏį
ĠÏĥÏħ Î»Î»
Ġcu is
ĠÎ£Î¥ Î¡ÎĻÎĸ
ĠÎ´Î¹Î±Î´Î¹Îº Î±ÏĥÎ¯Î±
Ġ×Ļ ×Ľ×ķ×ľ
uy or
Ġpremi Ã¨re
Ġro dz
Ġpro dej
à°Ĺ à±įà°°
ĠØ² ÙħÛĮÙĨ
áĥĶáĥķ áĥĺáĥ¡
ere ka
ĠpÅĻ ip
ĠÎķ ÏĢÎ¹Ïĥ
Ġà¦®à¦¾à¦¨à§ģà¦· à§ĩà¦°
Ġs Ã³lo
Ã¡ri o
ÏĨ ÎŃÏĤ
ĠE S
ed es
aj a
Ġnas zy
ĠÏĥÏħÎ¼ ÏĢÎµÏģÎ¹
Ġäºļæ¸¸ å¹³åı°
áł ¨
1 æľĪ
Ġäºļæ¸¸éĽĨåĽ¢ æīĭæľºå®¢æĪ·ç«¯
à¸Ļà¸± à¹īà¸Ļà¹Ģà¸
à¤²à¥ĩà¤² à¤¾
à°¿à°Ĥà°Ĺ à±įâĢĮ
b ra
ĠÐ¿ÑĢÐµÐ´ Ð»Ð¾Ð¶
Ġmet tre
Ġä¸Ģ æľ¬éģĵ
à¤¸ à¥įà¤Ł
áĥĲáĥļ áĥ£áĥłáĥĲáĥĵ
Ġgrand es
Ã¤ s
ĠÅŁ ey
à¦¸ à¦®
Ġà°¨ à°¿
Ġk obie
nÃŃ k
c ere
ĠÎĻ Î¿ÏħÎ»Î¯Î¿Ïħ
Ġdu Å¼
elij ke
ãĤĮ ãģŁ
áº£ nh
ĠÎº Î¯Î½
ÑĢ Ñĭ
ĠØ§ÙĦÙĤ Ø±
Ã©ra tion
Ġes paÃ±
Ġà®ļ à®®à¯įà®ª
Ġs eit
Ġda lle
Ã¡ Å¾
ÑĥÐ´ Ð°
on as
ë³ Ħ
Ġmar s
à§ ©
Ġáĥ¢áĥĶáĥł áĥĺáĥ¢
Ġà¤ĩà¤¸ à¤²
Ġol ur
ĠÎµ Î¹Î½Î±Î¹
ÏģÏĩ ÎµÏĦÎ±Î¹
à¯Ĥ à®Ł
Ġdis pon
Ð¾Ð± ÑĢÐ°Ð·
Ġbu dou
ÏģÎ· ÏĥÎ·ÏĤ
Ġà¦ªà§įà¦° à¦ļ
Ġn ar
ĠÎ¹ Î´
ag t
ĠA ve
Ġê² Ģ
ĠÐ½ Ð°Ð²
Ġà°¸à°Ĥà° µ
Ġáĥ¤ áĥĿáĥ¢
Ġï¼Ł ï¼Į
Ġç ª
Ġå®ŀ çİ°
å¯¼ å¸Ī
áŁĴáŀ ļ
Ĺ à¹Įà¸
¡à¸ ·à¹Īà¸Ń
Ġä¹Ł æĺ¯
ĠPos ted
å¢ ¨
Ġáł ¶
æĭ¥ æľī
à¹ģà¸ ¡à¸
ģà¸²à¸£à¸ ĵà¹Į
Ġä» Ģ
å½©ç¥¨ ç½ĳ
ä¸į è¦ģ
à¥ģà¤¸ à¤¾à¤°
ĠÎµ ÏģÏī
ĠØ± ÙĤÙħ
ĠØ§ ÙĤØª
ĠÎ±ÏĢ Î±Î½
Ġcual quier
na tion
ĠÐ½ ÐµÐ²
Î´ ÏĮÎ½
Ġ×¨ ×§
Ġà¦ªà¦° à§Ģà¦ķà§įà¦·
Ġì¢ ħ
v ere
Ġà®µà®¨à¯įà®¤ à¯ģ
ĠÐ´ÐµÑĤ ÐµÐ¹
à¤® à¤¤
Ġà®ªà¯Ĩ à®±
c ent
Øµ Ø¯
Ġà¦¬à¦¿à¦ ļ
áĥĶáĥļ áĥĺáĥĲ
ĠU S
Ġaz ien
Ñĳ Ð½
ĠÏħ ÏĢÎ®
ĠMil ano
etto re
c uk
Ġà¤ĵ à¤°
Ġáĥ¬ áĥĺáĥĴ
ĠnÉĻti c
Ġnue va
Ġpro jet
ãĥ ľ
ĠCom e
ÏĦ ÏģÎµ
Ġgior ni
ĠÙħ Ùħ
áĥĺáĥłáĥ ¡
par t
Ġth áº¥y
Ľà¸£à¸°à¹Ģà¸ łà¸
Ġà¤ªà¤° à¤¿à¤¸
it to
Ã§ o
Ġza ch
id ente
Ġw Ã¼r
Ġà¦Ĩ à¦Ł
Ġà°ļà°Ĥà°¦à±įà°°à°¬ à°¾à°¬à±ģ
Ġà°ĩ à°ķà±įà°ķà°¡
×ŀ ×ķ×ĵ
ĠÎ±Î½Î± ÎºÎ¿Î¯Î½
à±Ī à°µ
Õ¾ Õ¥Õ¬
Õ¸ÖĤÕ ½
Ġh Ã¼qu
Ġdes puÃ©s
j te
ĠáĥĽáĥĹ áĥĶáĥļáĥĺ
Ġagäºļæ´² æ¸¸æĪıå¹³åı°
åıĳå±ķ çļĦ
à¥ģà¤ Ń
ãĥ ļ
Î¯ Î´Î¹Î±
di ÄŁi
ĠáĥĲáĥ®áĥĲáĥļáĥĴ áĥĲáĥĸáĥłáĥĵ
Ġon ze
Ġà®ħ à®ķ
Ġim m
Î»Î¹ ÏĤ
ni enia
Ġáĥł áĥĶáĥ¡
Ġe igen
Ø§Ø¹ Ø¯
Ġà¦ķà¦¾à¦°à¦£ à§ĩ
ĠÎ¤ Î·
Ġp al
Ġà®ķà®Ł à®¨à¯įà®¤
à±ģà°¤ à±ģà°¨à±įà°¨à°¾à°°à±ģ
×ª ×¨
áĥĿáĥ ¨
ĠÐ¿Ð¾Ð´ Ð´ÐµÑĢÐ¶
ĠÎµÏĢÎ± Î½Î±
ĠPo kud
ĠìĻ ¸
ÉĻl ik
à°¾à° ¦à°¿
Ġnale Å¼y
ĠÎ±ÎºÏģÎ¹ Î²
Ġà¸Ńà¸ ±à¸
çĮ ª
à¸´à¸ ¥à¸
Ġà¨ Ń
ĠW eb
æĶ» çķ¥
Ġé Ń
Ġà¤² à¤¾à¤ĸ
çļĦ åıĳå±ķ
æ¹ ¿
ĦáĢ¹áĢ ¸áĢ
Ĥ à¸Ńà¸
Ġå½ ±
Ġà¤ķà¤¾à¤ģ à¤Ĺà¥įà¤°à¥ĩà¤¸
áĥĲáĥł áĥĲáĥĻ
à¤µ à¤¤
Ġch á»§
Ġem bar
ĠÎ± ÏģÎ³
Ġáĥ¬ áĥĶáĥ¡
ÐºÐ¸ Ñħ
Ġy ak
à°Ĥà°¡ à±įà°°
à® ¹
à°Ĥà°²à±ĭ à°¨à°¿
ªà¸´ à¸Ļ
Ĺà¸µà¸ ¡
è¯ķ éªĮ
æĿ¥ èĩª
å¿«ä¹Ĳ 8
U S
ĠçĲ Ĩ
Ġà¤ħà¤¸ à¤Ĥ
ÙĤ Ø¹
Ġf emme
Ġcz ÅĤ
der land
ĠO p
ĠáĥĽ áĥĺáĥļ
P hone
Ġ2016 å¹´
ç»ı çĲĨ
à¤£ à¥įà¤¯à¤¾à¤ļà¥Ģ
b an
Ġà®ħ à®Łà¯ģà®¤à¯įà®¤
Ġ×ĳ ×Ļ×Ł
Ġà¦¸à¦®à§įà¦ª à¦¾à¦¦à¦ķ
Ġà¦Ĩ à¦ĵà§Ł
Ġà¦² à§ĭà¦ķ
ĠB as
Ġs ens
Ġà¤¯à¤¦ à¤¿
Ġì§ ģ
ĠÐ± ÐµÐ»
ãĥ ¤
ĠÐ²Ñģ ÐµÐ¼
Ġà®ª à®¾à®²
Ġspo t
ĠØ¹ ÙĦÛĮ
ĠÎ¸ Ïħ
c are
Ġaf in
Ð» Ð¸Ð½
ĠØ§ÙĦØ ¶
Ġb áº£o
ĠÎĳ Î¸Î·
ĠÎ£Î¥Î¡ÎĻÎĸ Îĳ
Î¸ÎŃ ÏĥÎµÎ¹ÏĤ
à±ģà° ĸ
ĠF ar
Ã§ ilÉĻr
ĠG ar
Ġs ty
ĠØµ Ùģ
ĠáĥĽ áĥĲáĥĵ
ĠÐ²Ðº Ð»ÑİÑĩ
Ġfo i
áĥĲáĥ £áĥļ
ãģ£ ãģ¨
Ġà¤¸ à¤«
ste m
Ġà°ªà±įà°°à°§ à°¾à°¨
ĠÎ¶Ïī Î®ÏĤ
ĠM as
ĠØ§ÛĮÙĨ Ú©Ùĩ
Ġnue v
om i
åł´ åĲĪ
Ľà¸£à¸ ªà¸´à¸
Ġå½ ¢
æĽ´ æĸ°
áŀ ħ
ģà¸²à¸ ¢à¸
Ġæł ĩ
ĠçĶ ļèĩ³
àª¾àª °
Ġèı ²
Ġw h
å¹ »
Ġ ä¸»è¦ģ
éģ ĭ
é¼ ĵ
Ġb m
éĢ ĥ
ç»´ æĬ¤
å¡ ĳ
Ġ æľĪ
éĽĨ ä¸Ń
ĠåĶ Ĳ
è¯Ħ è®º
çº ¯
æ ¾
å§ ĵ
r r
00 8
à¹ģà¸Ĥà¹Īà¸ĩà¸ Ĥà¸
Ġä¸ ĥ
çľŁ æŃ£
Ġà¤¨à¤¿à¤°à¥įà¤£ à¤¯
Ġz ich
Ġ×Ļ×© ×¨×Ĳ×ľ
Ġà¦¸ à§įà¦ª
Ġà®¨à®Ł à®¤à¯įà®¤
Ġë² Ī
×ŀ× Ĳ
Ġáĥ¡áĥĲáĥĽ áĥĲáĥłáĥĹ
æķ´ ä¸ª
ä¼ĺ åĮĸ
æ» ļ
à¤ļ à¤Ĥ
Ġg ay
x ico
Ġd onn
Ġéĵ ģ
Ġà¸ «à¸¡à¸
å¼ ĥ
Ġ ä½ĵ
è£ħ å¤ĩ
æīĳåħĭ ä¹ĭæĺŁ
áĢĢ áĢ
0 01
« à¸²à¸£
Ġà¸ «à¸Ļ
à¨ ¶
æ² ¿
æ° £
Ġà¤ªà¥įà¤°à¤® à¤¾à¤£
Ġdec ir
ospod ar
ĠÏĦ ÏĮÎ½
ĠÏħÏĢÎµ Ïģ
Ġáĥł áĥĲáĥ¦
w end
Ġn Ã¡v
izza zione
à¤¾à¤·à¥įà¤Ł à¥įà¤°à¥Ģà¤¯
Ġre t
ĠáĥĻáĥĲáĥľ áĥĿáĥľ
ĠÐ´ Ð¾ÑģÑĤÐ°Ð²
Ġto Ãłn
Î® Î¼Î±
Ġyax Ä±n
g ur
ÐµÑĢ ÐµÐ´
Ø§ÙĤ Ø©
ck ie
Î¶ Î¿Î½ÏĦÎ±Î¹
ĠÐľ Ð°ÑĢ
Ġà®İà®© à®ķà¯įà®ķà¯ģ
Ġcom er
à®Łà¯įà®Ł à®¿
und er
Ġà° Ľ
×¤ ×Ļ
Ġáĥ® áĥĵáĥĶáĥĳáĥĲ
un o
ĠÑĢÐ°Ð· Ð¼ÐµÑĢ
Ġpo le
Î¸ÏħÎ½ ÏĥÎ·
Ġmom ent
Ð ¦
ĠÐĶ Ð¶
Ġgior no
Ġà®®à¯Ĥ à®²à®®à¯į
ĠÎľÎµ ÏĦÎ¬
Ġà¤¤ à¤¬
Ġmiej sce
Ġk at
ĠÚ¯ ÙĦ
à§įà¦¯ à§ĩà¦°
Ġe fe
Ġju in
ĠÎ±ÎºÎ¿Î» Î¿Ïħ
à°Ĥà°ª à±Ī
Î» Î¹ÎºÎ®
Ġs kal
ti t
ĠáĥĴáĥĲáĥĵ áĥĲáĥ¡
au d
Ġh iá»ĩu
Ø² Ø©
Ġl ung
usam men
Ġà¤¬ à¥ĩà¤¹
Ġì¶Ķ ì²ľ
ä»¥ ä¸ĭ
¸à¸ ¡
Ľà¸±à¸ Īà¸Īà¸¸à¸
ģà¸³à¸ «à¸Ļà¸
Ġag é¦Ĩ
æĢİä¹Ī ä¸ĭè½½
å·¥ èīº
Ġå¨ ģ
ä» Ļ
à¹ģà¸ ĸà¸
ŀà¸´à¸ ¡à¸ŀ
æĮĩ æķ°
à¤¾à¤² à¤ķ
Ġ. )
à°¿à°Ĥà°ļ à°¾à°¡à±ģ
á½ ±
ÎŁÎĽ ÎŁÎĵ
ĠÎľÎ±ÎĲ Î¿Ïħ
Ġ×ľ ×ķ
ĠÑģÐ°Ð¹ÑĤ Ðµ
ĠØ² ÙĨ
Ïĥ Î¯Î¿Ïħ
ëĦ ¤
ÃŃcul o
ÅĦst wa
ck Ã¡
ÎºÎ¿Î» Î¿Ïħ
ĠÑĦ Ð¸Ð½
ÛĮØ± ÛĮ
ĠmÃ¼ ÉĻyyÉĻn
ī ´
Ġà¤ªà¥įà¤°à¤¤à¥įà¤¯ à¥ĩà¤ķ
Ã¶ ff
Ġs ort
Ġà®ªà¯ģà®¤ à®¿à®¯
Ġg Ã¬
ĠdeÄŁ il
Ø§ØŃ Ø©
Ġáĥ¡áĥĲáĥ® áĥļ
Ġà¤ī à¤ł
Ġna da
Ġpre cio
Î² ÏģÎ¯Î¿Ïħ
Ġà¦ķà¦° à§ģà¦¨
Ġw ill
Ġh omme
ĠÏĢÏģÎ¿ Ïĭ
×ŀ ×Ļ×ĵ
ien cia
à±ĩà°· à±į
âĢĮ à°®
Ġà°ħ à°¤à±įà°¯
ĠÑĢÑĥÐ± Ð»ÐµÐ¹
ĠÑĢ Ð°ÑģÑĤ
hal b
d n
ĠáĥĿ áĥ¤
à¸Ńà¸ ¡
Īà¸³à¸Ļà¸ §à¸Ļà¸
çĲĨ è®º
à¨¾à¨ ¹
éĥ İ
åŃ Ļ
å½ĵ åľ°
à¤¾à¤® à¤§à¥įà¤¯à¥ĩ
Ġog sÃ¥
ĠÎŁÎ»ÏħÎ¼ÏĢ Î¹Î±
à¥Ī à¤¨
Ġa ura
ĠØ¨Ø³ÛĮ Ø§Ø±
ĠÐ¿Ð¾Ð»ÑĮÐ· Ð¾Ð²
à¯ģà® ·
E C
e x
à®® à¯ĩ
Ġà¦ª à¦¾à¦ł
Ð°Ð» Ð°ÑģÑĮ
Ġv ic
wa ÅĤ
os ial
Ö ĥ
Õ¡Õ ¢
Ġg Ã¼c
Î¬ Ïĥ
áĥ¢ áĥĺáĥ¡
Ġph Ã²ng
ĠÏĢÏģÎ¿Ïĥ ÏĢÎ±
Ø®Ø± Ùī
v in
Ġà®ļà¯Ĩ à®²à¯įà®²
A M
Ġà¦® à¦¾à¦²
ĠCom o
Ġb Ã¶l
ĠáĥĻáĥĲáĥłáĥĴ áĥĲáĥĵ
Ð¾ÑĤ Ñĭ
ĠÑĨ ÐµÐ»
Ġencont rar
Ġdz iaÅĤa
ĠÐ²ÑĭÐ¿ Ð¾Ð»Ð½
ĠÏĢÎ¯ ÏĥÏī
Ġs eine
Ġque lla
à¦ķà¦¾à¦° à§Ģ
Ð¾Ñĩ ÐºÐ¸
Ġìĺ ¬
ĠáĥĽ áĥ£áĥľ
t ych
Ġan dere
Ġáĥª áĥķáĥļ
Ġá¼ Ķ
ĠÎ¿ÏĢÎ¿ Î¯ÎµÏĤ
Ġà¤ª à¤¿à¤
Ġo tras
Ġs ouv
Ġt iá»ģn
×ł ×ĺ
Ð¾Ð³Ð» Ð°Ñģ
à°Ĥà°¤ à°¾
dz Äħ
ĠÙħÛĮ ÙĦÛĮ
Ġà°µ à°¾à°³à±įà°³
Ġk am
c ce
Ġà°® à°Ĥà°¡
ãģĿ ãģĨ
Ġà°ªà±įà°° à±ĩà°®
áĥļ áĥĿ
ĠÐ²ÑĢÐµÐ¼ ÐµÐ½Ð¸
Ġt á»ĳt
à°¿à°¦ à±įà°§
ĠÎ± ÏĥÏĦÏħÎ½Î¿Î¼
à§įà¦¯ à¦ķ
Ġà¤¶ à¥įà¤°
ĠáĥĽáĥĿáĥ £áĥ
Ġn ivel
ãģķãĤĮ ãģ¦
Ġb ÄĽ
Ġvol ta
ak ukan
Ñı Ð»
ĠÙĦ Ø£
à¤¿à¤¸ à¥įà¤Ł
ĠáĥĺáĥĽ áĥĺáĥ¡
Ġn ich
Ġíĸ ī
Ø´ Ø§Ø±
à®£ à¯įà®ª
ÏĥÏĦ ÏģÎ±
Ã¸ l
à¯Ģ à®°à¯į
Ġà°ķà±ģà°Ł à±ģà°Ĥà°¬
Ġpro bl
ĠÐ²Ð¾Ð· Ð´
Ġcon tin
à¦¬ à¦¾
Ġc iÄħ
Ġà®ĩà®¯ à®ķà¯įà®ķ
ĠmÃ¼ d
áº¡ c
ÙĪ Øµ
Ġáĥ£áĥľ áĥĺáĥķáĥĶáĥłáĥ¡
à®¤à¯įà®¤ à®¿à®°
Ġà¤®à¥ĩà¤° à¥ĩ
Ġà¤¯ à¤¾à¤¦
ĠÎľ ÏĮ
Ġà°µà±Ĩ à°³à±įà°³
Ġh in
lÄ± ÄŁÄ±
Ġá½ ħ
Î¶Î® ÏĦÎ·ÏĥÎ·
ÐµÑĢ Ñħ
Ġtrav Ã©s
Ġqu ali
Ã³ d
ĠÏĢÏģÏĮ ÏĥÏī
Ġà¤¸à¤ķ à¤¤à¥Ģ
ĠÎĹ ÎłÎĳ
Ġà®ħà®® à¯įà®®
Ġà®ħ à®ª
ĠáĥĽ áĥ£áĥ®
ĠB und
Ġà¦¸à§įà¦¥ à¦¾à¦¨
ĠÚ¯ Ø±ÙĪ
ë ·°
Ġ×¤ ×¢
áĥĿáĥľ áĥĲ
Ġt or
Ġìĸ ´
Ġà®Ĩ à®£
Ġw en
áĥĺáĥĹ áĥĺ
Ġv ed
ĠÏĢ ÏİÏĤ
à®¾à®° à®®à¯į
Ðł Ðŀ
ĠÐ¾Ð±ÐµÑģÐ¿ ÐµÑĩ
Ġà°µà°¿à° ²
Ïĥ ÎµÏĤ
g m
å¿ Ļ
Ġè§ Ħ
Ġagå¹³åı° çļĦ
99 99
8 æľĪ
Ġæĺ Ł
Ġåħ ļ
Ġ22 3
ĸ áĢ
Ġagå¹³åı°çļĦ æŃ£è§Ħç½ĳç«Ļ
à¥ĥ à¤·
Ïĩ Î¿ÏħÏĤ
áĥ¡áĥ¢ áĥĺáĥ¢
ĠÐ¿Ð» Ð°ÑĤ
ĠÙĥØ§ÙĨ Øª
Ã İ
Ġthá» ĭ
Ġg ir
Ġê± ´
Ġf am
r uk
ĠÙ¾ Ø±Ø¯
Ġà®¤à®®à®¿à®´ à®ķ
Ġà®µà®° à¯Ī
ĠáĥĶ áĥ¢
ĠÑģÐ»ÐµÐ´ ÑĥÑİÑī
ĠÎĶ ÎµÎ¯ÏĦÎµ
ĠÎ³ÎµÎ³Î¿Î½ ÏĮÏĤ
Ħ à¹īà¸Ļà¸
Ġäºļæ´² åŁİ
Ġp m
Ġagäºļæ´² å®ĺç½ĳå¹³åı°
éģ ¸
åĬ¨ åĬĽ
å® ı
Ġà¤¸à¤® à¤¾à¤ľ
Ġprog ram
Î»ÎµÎ¹ Î¿
æ³ķ éĻ¢
ĠæĪ ĺ
Ġà¤ļ à¥įà¤¯à¤¾
Ġà°Ĩ à°²à±ĭ
ĠÐ²Ð½ ÑĥÑĤÑĢ
ĠÎĳ Îĵ
ÏĦÏģÎ¿ ÏĨÎ®
Ú¯ÛĮØ± ÛĮ
à¥ĩà¤¸ à¥įà¤Ł
áĥĲáĥĽ áĥĲáĥ¨
Î¼Î± ÏģÏĩ
ĠÏĢÎŃ ÏģÎ±
Ġ×Ĳ ×¨
Ġs atu
Ã¤ re
ab les
Ð¾Ð¼ Ðµ
e j
Ġë ł
à°¯ à±ĭà°Ĺ
Î»Ïİ ÏĥÎµÎ¹ÏĤ
Ġà¦ªà§įà¦° à¦¦
áĥĶáĥłáĥ ®
Ġpo k
à¥Ģ à¤ķ
Ġà®®à®¾à®µ à®Łà¯įà®Ł
ĠÐ³ Ð°ÑĢ
we e
Ġg leich
ĠÑĤ Ð¸Ð¿
ce ption
à®¯ à®®à¯į
cz es
lÉĻrin dÉĻ
Ġposs ibile
Ġy Ã¶n
Ġb Ã¡n
ĠÎł ÎĳÎ¡
ÏĦ ÏģÎ¬
Ġtech ni
ĠÐ¼ Ð¼
t schaft
Ø± Ø§Øª
Ġà®ķ à®¾à®¤
à®¾à®° à®£
tiv es
ka li
Ġáĥ¨áĥĶáĥ ª
ĠÐ² ÐµÑģ
ĠáĥĲáĥłáĥ¡áĥĶáĥĳ áĥĿáĥĳáĥ¡
Î¯Î½ ÏĦÎµÎ¿
ĠÄĳ Æ°á»Ŀng
ĠÃ© conom
ĠÐŀ ÑĢ
ĠãĤ Ĵ
ĠÎķÎ»Î»Î¬ Î´Î±ÏĤ
ĠÎ¼Î¹Îº ÏģÏĮ
ĠåĲ ´
è´Łè´£ äºº
Ġéļı çĿĢ
æŃ£ å¸¸
Ĺ à¸´
ĠèĤ ¡
Ġà¤ªà¤¹ à¤¿à¤²
Ġar ty
st ÄĽ
Ġà¤ħ à¤§à¥įà¤¯
Ġà¦ķ à§įà¦²
ìµľ ê³ł
ë³´ ê¸°
´ë ı
Ġs ol
ĠÐ¿ Ð¾ÑģÑĤÐ°Ð²
ĠÐ¼ Ð»
{ "
ĠÑĤ ÑĢÑĥÐ´
Ġpo da
Ø¶ Ø§
Ġg ÉĻtir
ÙĨ ÙĬÙĨ
ĠÃ¶n ce
áĥĲáĥ¤ áĥłáĥĹáĥ®
Ġà¤¸à¤Ĥà¤ ķ
Ġ×ŀ×Ĺ ×Ļ×¨
Ġer st
ĠÐ½ ÐµÐ±
Ġwszyst kie
ĠØ® ÛĮ
ĠÎŁÎº ÏĦÏī
Ġan nÃ©es
Ġho tel
Î¼Î® Î¼Î±
Ġ×ŀ ×¨
Ġà®ķ à®´
ĠìķĦ ëĭĪ
ĠáĥĻ áĥ£áĥļáĥ¢
lÉĻr dÉĻn
ĠP are
gra ma
ĠÏĢÎµÏģÎ¹ Î»Î±Î¼Î²
à§Ģ à¦¯à¦¼
a Äĩ
Ġà®¤ à®¿à®©
ãĤ Ģ
ĠI hnen
Ø¨ ÙĬØ©
os o
Ġì Ĥ°
ĠJahr en
ÑĢ Ð°Ð´
à®¿à®® à¯ģà®ķ
à°¾à°ķ à±įà°Ł
Ġà¤¨ à¤Ī
ĠnÄĽj ak
à¥įà¤¯à¤¾à¤ ²
Ġà®¨ à®¾à®©
ĠÎļÏīÎ½ ÏĥÏĦÎ±Î½
el ig
Î»Î¯ ÎµÏĤ
ant Ã©
im y
ovÃ© ho
Ġáĥ®áĥĶáĥļ áĥĽ
Ú¯ Ùĩ
h b
t nie
g gio
Ġng o
Ġ×ľ ×ĵ
Ð¾Ð»Ð½ Ð¸ÑĤÐµÐ»ÑĮ
ÎºÎ± ÏĦÎ¬
ier re
ĠØ¨ Ø§ÙĨ
e f
Î² Î²Î±
r Ã©e
ĠáĥĽ áĥĴ
ĠÎł ÎķÎ¡
ĠÎ£Ïį Î¼ÏĨÏīÎ½Î±
à®¿à®¯ à®¾à®©
à±ģà°¦ à±įà°§
Ġb Ã¼yÃ¼k
Ġà¤ķ à¤¿à¤¤
Ġsi ti
ãĥĥ ãĥī
Ġn es
Ġrec enz
Ġcz erw
Ġis te
is on
ĠÙģØ¹ Ø§ÙĦ
Ġtem u
Ġà¤¹à¥ĭà¤Ĺ à¥Ģ
ĠÐ´Ð¾ÑģÑĤ ÑĥÐ¿
Ġse u
ØŃØ¯ Ø©
à¹Ģà¸ §à¸¥à¸²
à¤Ł à¤ķ
ĠÎ¼ÎŃ ÏĦÏģÎ±
áĥļ áĥĲáĥĵ
Ġpar tico
ro j
Ġx alq
Î¿Ïį Î¼ÎµÎ½Î¿
í ļ
un ter
g as
cu te
Ġd ne
Õ¡ÖĢÕ ¤
ĠhÉĻy ata
ÏģÎ¹Ïĥ ÏĦÎµ
×ł ×Ļ×ª
ĠáĥĴáĥĲáĥĽáĥĿ áĥĺáĥ§
tori o
è² ·
ĠÐ¿ÑĢÐ¾Ð² ÐµÐ´
d ag
Ø± Ø§Ùĩ
Î¹Î½ ÏĮ
à¯ĭ à®°à¯į
Ġm ater
ãĥ» ãĥ»
Ġãģĵ ãĤĮ
ĠÏĢ Ïī
Ġf ik
kan ia
à¤¾à¤¹ à¤°
ĠÙĪÙĩ ÙĪ
ĠÎµÎ½Î· Î¼ÎŃ
ĠG io
ì¶ľìŀ¥ë§ĪìĤ¬ì§Ģ ìĥµ
Ġë° ķ
b ir
ĠÐ» Ð¸Ð±Ð¾
ĠÎĵ ÎµÏģÎ¼Î±Î½
Ġb en
ĠG E
áĥĽ áĥĲáĥª
Ġà°¦à°°à±įà°¶ à°ķ
Ġà®µà®³ à®°
ap e
ìĨĮ ìĿ´ìĬ¤
Ġi f
íķĺ ì§Ģ
cze go
Ġà°¨ à°¿à°µ
ĠCh aussures
Ġp age
Ġæ ¿
ä¸į äºĨ
Ġagçİ¯äºļ ä¸ĭè½½
ĠagåĽ½éĻħåİħ è¯ķçİ©
åĲ ¨
10 åĪĨå½©
Ķà¸³à¹Ģà¸Ļà¸ ´à¸Ļà¸
ģ à¸£à¸²à¸
ĠC N
Ġ8 4
Ġ2 åĪĨæĹ¶æĹ¶å½©
Ġ ww
à¹Ģà¸ŀ à¸µà¸¢à¸ĩ
Ġåĵ Ī
Ġå¤§åıĳ çº¢é»ĳå¤§æĪĺ
å±ŀ äºİ
Ķ à¸Ļà¸
å¿ §
ķáĢ «áĢ
Ġà¸ŀà¸ §à¸
Ġà¸Ĥ à¸Ļà¸²à¸
ĸ à¹īà¸²
ĠæĪĲ äºº
Ġagå¹³åı° å¨±ä¹Ĳ
å±ħ æ°ĳ
â Ĺ
«à¸ķà¸ ¸
Ġà¤¯ à¥ĭà¤Ĺ
Ġt ar
Îº Ïį
Ġna tion
ÙĦÛĮ ÙĦ
ĠP ÅĻ
t ÄĻ
ÐµÑĢ Ð¾
ĠÎ£Î¥ ÎĿ
ĠÎµÏĢÎµÎ¹ Î´Î®
Â º
ĠÂ ²
ĠÄĳ á»ĳi
Ġqo y
à¥ĭà¤Ĥà¤ ķà¤¿
áĥķ áĥĲáĥł
è£ħ ç½®
ç¨ ¿
áĭ Ń
à¨° à©Ģ
Ĺ à¸£à¸±à¸
Ġà¤ªà¥Ĥ à¤°à¥įà¤£
Øº ÙĬØ±
à®£ à®¿
ĠÎļ ÏįÏĢ
ÏģÎµÎ¯ ÏĦÎµ
Ġh ombre
tiv nÃŃ
Ġ×Ĺ ×ĳ×¨
Ġtr e
av ab
Ġa unque
c te
ĠÐ¿ÑĢÐ¾Ð² Ð¾Ð´
ĠP R
Ġk os
ĠÏĥÏĩ ÏĮ
à¯ģà®¤ à®²à¯į
Ġ6 9
à¸Ńà¸ ¸à¸
n n
äº¿ ç¾İåħĥ
ä¸¤ å²¸
Ġà¸¡à¸ ±à¸Ļ
¢à¸Ńà¸ Ķà¹Ģà¸
Ĭà¸±à¹Īà¸§ à¹Ĥà¸¡à¸
èį ·
è§Ħ èĮĥ
èµ ı
¢à¸²à¸ §
ķà¸ ¸
Ġà¤ķà¤°à¤£ à¥įà¤¯à¤¾à¤¸à¤¾à¤łà¥Ģ
ĠÎ³ Î¿Î½
ĠÏĨ Î¹Î»
Ġáĥ ĸáĥĶ
Ġsc ar
ĠØ± Ø¦ÙĬØ³
ĠÑģÐ¿ Ð¾ÑĢÑĤ
Ġà°ħ à°®à±Ĩ
Ġes a
Ġsou ha
f on
ĠÎ¸Îµ ÏģÎ±ÏĢÎµ
Î· Î³Î®
ĠÙĩ ÙĨ
Ġà§§à§ «
Ġà¦ķ à§Ł
Ġz elf
áĥĲáĥ¨áĥķ áĥĺáĥļáĥĺáĥ¡
Ġáĥĵ áĥĶáĥŀ
se z
per ti
ÙĬÙĦ Ø©
Ġà¤ªà¥Ĥ à¤°à¥Ģ
Ġ×Ļ ×Ķ
_ id
ÏģÏī Î¼Î±
Ġà¦ķà§ĩà¦¨ à§įà¦¦à§įà¦°
ĠÐ½Ð°Ð» Ð¸Ñĩ
ëŁ ī
Ġan te
à±Ĩ à±ĸ
ĠÐ¼ÐµÐ¶Ð´ Ñĥ
ĠáĥĹáĥĲáĥķ áĥ¡
ĠA ngebo
ĠÏĢÎ±ÏģÎ± ÏĢ
Ġà°¤à°° à±ģà°µà°¾à°¤
ĠÂ ¶
Ġtiáº¿ p
in al
ĠU omo
up po
ĠáĥĽáĥĶáĥł áĥĶ
Ġpod czas
Ġy ay
ĠV al
ãĤĭ ãģ¨
ĠÎĻÎ±Î½Î¿Ïħ Î±ÏģÎ¯Î¿Ïħ
id as
ĠÎ´ Î±
à¤°à¥įà¤ ¨
Ġà¦« à¦¿à¦°
kan n
Ġà®µà¯ĩ à®²
ĠáĥĹáĥĺáĥĹ áĥ¥
Ġs Ã©cur
t Ã¡
ĠØ§ÙĤØª Øµ
Î© Î¡
Ġ[ "
Î² Î¯
×¤ ×ĺ
Ð»Ñİ Ð´
ë¯¸ ëħĢ
ê°ķ ì¶Ķ
ĠìĨ į
Ġprodu it
Ġau to
ÏĢÎ¿Î¯Î· ÏĥÎ·ÏĤ
áĥĶáĥĳáĥĺáĥĹ áĥĺ
Ġà®ļ à®¿à®µ
Ġw ith
Î¥ ÎĿ
ĠÎ´Î¿Ïħ Î»ÎµÎ¹
Ø³Øª Ùħ
Î» ÎµÎ¹Î±
ĠÎ±Î½ÏĦÎ¹Î¼Îµ ÏĦÏī
Ġf ile
ti Ã¨re
Ġà®¨ à¯Ĥ
ĠÎ»ÏĮ Î³Î¿
Ġm ill
Ð»Ñı ÑĤÑĮ
ÙĦ ÙĤ
à¦¾à¦® à§įà¦ª
Ġk ostenlos
Ġà¤ķ à¤¾à¤«à¥Ģ
áĥĺáĥł áĥĶáĥĳáĥ£áĥļ
az u
Ð°ÑĤ ÑĥÑĢ
ĠØ§Ø¯ Ø§ÙħÙĩ
ĠÑĩÐµÐ»Ð¾Ð²ÐµÐº Ð°
ov er
Ïī Î¸ÎµÎ¯
ë ĳ
ãĥĨ ãĤ£
à±ĭ à°·
Ġd ÉĻn
Ġkil ka
h em
Ġà°®à°¾à°¤à±įà°° à°®à±ĩ
ĠÑĢÐµÐ± ÐµÐ½
ĠÐ½ Ð¾ÑĢÐ¼
Ú© Ø±Ø¯
Ġìĥģ íĴĪ
Ġ×© ×¢
Ġà¤ª à¥įà¤²
Ġë³ Ģ
Ð¾Ð¿ Ð°Ñģ
Ġà¦¬à§įà¦¯ à¦¾à¦ª
Ġà®¤ à¯ĩà®ļ
Ġáĥŀáĥł áĥĶáĥĽ
ĠG ra
à´¾à´ °
à¥ĩà¤¯ à¤°
Ã ķ
Ġth iáº¿t
ĠÙĬ ØŃ
Ġfin al
Ġáĥ« áĥĺáĥł
ar an
Ġï¼Į ãĢĲ
à¥Ĥà¤ ¦
ĠÎķÎĽÎĽ ÎĹÎĿ
Î´ Î¿ÏħÏĤ
Ð°Ð· Ð´
Ġch w
Ġde be
ess ione
i es
ĠÐ³ Ð°Ð·
Ġà¦¸à¦® à§įà¦®
à¯ģà®ªà¯įà®ª à¯ģ
anv ier
vo or
à´¾à´ ¨
Ġà¤ļ à¥Į
Õ¥ÖĢ Õ«
Ġt ÉĻ
ka cji
ĠÙĪ ÙģÙĬ
ĠÏĥÎ· Î¼ÎµÎ¹
ib les
Ġ} .
ï¼ Ĵ
çĶ £
ëĵ¤ ìĿĢ
ĠÐ¸Ð½ Ð´
Ġ×ĳ ×ĵ
áĥķáĥĲáĥļáĥĺáĥ¡ áĥ¬áĥĺáĥľ
Ġricer ca
à¦£ à¦¾
Ġà°µà°¿à°µ à°°
Ġà¤ªà¥įà¤° à¤¾à¤ªà¥įà¤¤
Ġà®®à¯ģà®¤ à®²
à±ģà°ķ à±ģà°¨à±įà°¨à°¾à°°à±ģ
Ġele kt
ĠÏĢÏģÎ¿ ÎºÎµÎ¹
Ġh á»Ļi
ĠØ·Ø± ØŃ
ĠA uch
di zione
ĠJe ÅĽli
Ø§Ø³ Ø©
à¯įà®ļ à¯įà®ļà®¿
Ġm ise
ĠØ§ Ø¹
ĠáĥĹ áĥĶáĥĽ
ĠC an
ĠG Ã¼n
ĠÎŁÎºÏĦÏī Î²ÏģÎ¯Î¿Ïħ
Ġáĥ¥áĥĲáĥłáĥĹ áĥ£áĥļáĥĲáĥĵ
áĥł áĥĶáĥĹ
m ann
ÑĥÑĤ ÑģÑĤÐ²
ĠÎµÎ³ Ïİ
ĠÎ¹ÏĥÏĩ Ïħ
à§įà¦° à¦¾à¦¨à§įà¦¤
ne lle
Ġpubb li
Ġãĥ ĳ
Ġà°¸à°Ĥà°µ à°¤à±įà°¸
i der
Ġà¶ ´
Ġà¤¬ à¥įà¤²
Ġou ver
b ild
ĠUnter nehmen
ĠÐ¾ ÑĨÐµÐ½
Ã§ a
Ø³ ÙĦØ§Ùħ
mit tel
Ġà®® à®¾à®±
Ġciu dad
ĠÙĦ ÙĥÙĨ
Î´Î¹Î± Ïĥ
Ġr ou
z d
×ķ ×ķ
ĠZ ap
Ġw ol
à§ģ à¦ª
ĠÙħ Ø®Øª
Ð½ ÐµÐ¼
Ġseb agai
Ġà¤ĩà¤¸à¤² à¤¿à¤ı
Ġà¦ªà§įà¦°à¦¤ à¦¿
Ġ à¹Ģà¸Ń
ç»Ħ æĪĲ
à¤ļ à¤¾à¤°
Ġrec ens
ãĤ ¶
Ġdon na
Ġsecon do
Ô ±
dÄ± q
ĠdÃ© m
ÏĥÎ¿ ÎºÎ¿
ĠáĥĲáĥ¦ áĥĲáĥł
á»Ń a
Ġon s
v ou
ĠÎµÎ¾Ïī ÏĦÎµÏģ
Ġas so
a cja
éŁ© åĽ½
èĨ ľ
à¸£à¸±à¸ģà¸ ©à¸²
ĠæĢİ ä¹Ī
Ġáł ²
ä¼Ļ ä¼´
¨ è¯¢
ģà¸¥ à¹Īà¸²à¸§à¸
Ġà¸ ģà¸£à¸°à¸
ä¸ĭè½½ _
à¤ķà¥Ģ à¤¯
Ġet ter
Ġzw ischen
ĠÐ¢ ÑĢ
ĠÎĶ Î¹Î¿
Ġáĥ¡áĥĲáĥĻ áĥĽ
ÏĦÎ¬ ÏĥÎµÎ¹ÏĤ
Ġtr ouver
Î¼Î® ÏĦ
ĠÎ·Î»ÎµÎº ÏĦÏģÎ¿Î½
é«ĺ éĢŁ
à¨¿à¨ ¸
Ġà¤ªà¥įà¤°à¤¯ à¤¤à¥įà¤¨
ri o
Å¡ i
kan ie
ĠÑģÐ» Ð¾Ð¶
Ġs ÅĤ
ĠÏĢÏĮ Î»Î·
za d
Ġà°ľà°¿à°²à±įà°² à°¾
æĸĻ çĦ¡æĸĻ
Ġ ãģĦ
Ġmak en
ĠØ¯ Ø§Ø¯Ùĩ
à¦¬à¦¿à¦¦ à§įà¦¯à¦¾à¦²
Ġà°ī à°Ĥà°¦
ĠÃ© t
Ġn ÃŃ
m b
menta ire
ĠA ng
à®° à®¾à®ķ
åķ ı
áĥķ áĥĲáĥ¡
Ġh ans
à§ģà¦ ¶
Ġà°ķà°² à°¿à°¸
Ġfo llando
Ġun os
Ġt áº¿
ĠS on
×ľ ×Ĺ
Ġéĩ Į
Ġè Į
Ġå¨ ±ä¹Ĳ
Ġy ou
à¸£à¸²à¸ĩà¸ §à¸±à¸
ĠåĪ Ļ
Ġ ä¼ģä¸ļ
é¾ Ħ
æľī äºº
Ġå ĥ
åĪĨéĴŁ éĴŁ
à¹Ģà¸§à¸ ¥à¸²à¸
7 æľĪ
Ĭà¸²à¸ §à¸
Ġà¤¦ à¤¿à¤µ
ĠAve c
ĠÐ´ ÐµÑĢ
Ġ iyi
Î¸ Î¹
à¦¾à§Ł à§ĩà¦°
à¯Īà®ªà¯įà®ª à¯ģ
va to
Ġje ÅĽli
Ġag æīĭæľºå®¢æĪ·ç«¯ä¸ĭè½½
è®¸ å¤ļ
æĴ ĳ
¥ à¹Įà¸
Ġà¸ Ķà¸µ
Ġà¤Ł à¤¾à¤ķ
ĠØ¬ Ø§Ùħ
Ġà¤ª à¤¾à¤¨à¥Ģ
à§ĭ à§Ł
Ġà°µ à±Ģà°°
ĠBar celona
ĠÎµ Î¼ÏĢÎ¿
ĠVi deo
icul as
ĠD el
áĥĲáĥ« áĥĺáĥ¡
áĥł áĥĺáĥĴ
ĠÐ¸Ð¼Ðµ ÐµÑĤ
Ġe j
à±ĥ à°¦à±įà°§
Ġatt ra
ĠØ® Ø¯Ùħ
à§ģ à¦Ĺ
Ġà¤¤à¤¯ à¤¾à¤°
Ġkl ein
t ent
Ġáĥ£áĥ¤ áĥļáĥĶáĥĳ
Ġprv nÃŃ
ĠÎ² ÎµÎ»
Ġà¦¹ à¦¾à¦¤
Ġáĥ¡áĥĻ áĥĿáĥļ
ĠÐ² ÑģÑĤÑĢ
ÙĦ Ø§Ø«
Ġu ÅŁaq
çķ ª
Ġni veau
Ġf unk
ÏħÎ½ Î±Î¹
Ġà°ļà±Ĩà°ªà±įà°ª à°¾à°°à±ģ
Î¼ Î¹ÎºÏĮ
Ġà¤ķ à¤¿à¤ı
íĻ ĺ
ĠØ¯Ø³Øª Ú¯Ø§Ùĩ
Ġà®®à¯ģà®ķà¯įà®ķ à®¿à®¯
Ġáĥł áĥĲáĥĿ
Ġroz po
Ġa li
ĠÑģÐµÐ± Ðµ
ÏĦÎ¯ ÎµÏĤ
Ġà¦ķà§ĩà¦ ī
à°°à±įà° §
i ge
Ø¬ ÛĮ
Ġtá» ķ
ÏĢ Î½
ë¦ °
×¨ ×ļ
ĠÎ¼ÎŃ ÏģÎ±
ªà¸ ·à¹Īà¸Ńà¸
áŁ ħ
Ĥà¹īà¸²à¸ ĩ
Ġà¤² à¤¿à¤¹
ĠT y
Ä±m Ä±z
cz one
Ġà¤¯ à¤¾à¤Ĥà¤¨à¤¾
Ġà¦ī à¦¦à§įà¦¦
à°¿à°¸à±įà°¤ à±ĩ
Ġáĥ¬ áĥĽ
uf fi
Ð°Ð½ Ð¸Ñİ
ĠÙĪØ§ÙĦ Ø£
ĠÏĦÎ¯ ÏĦ
ĠÙħØŃ ØµÙĪÙĦ
ĠÃ§ o
ÙĪ Ø§Ø±
ĠÏĢÏģÎ¿ ÎŃ
Ġà¤ķà¥įà¤¯ à¥ĭà¤Ĥà¤ķà¤¿
Ġáĥľ áĥĺáĥ¨áĥľ
Ġà°Ĩ à°¨
cto bre
åĬ¨ æĢģ
Ġæĺ ĵ
Ġ77 7
å¿ Ĩ
à¸Ļà¸°à¸ Ħà¸£à¸±à¸ļ
¢à¸²à¸ ¡à¸
ķ è¥¿
Ġçİ¯äºļæīĭæľº ä¸ĭè½½
Ġà¨ĩ à¨¸
åĵ ¡
«à¸§à¸ ¢
łà¸²à¸¢ à¹ĥà¸Ļà¸
åģļ å¥½
å¾ĭ å®¾
ļà¸¹ à¸£à¸
Ġà¸ª à¸µà¸
çī¹ çĤ¹
åĳĺ å·¥
à¹ģà¸Ļà¸° à¸Ļà¸³à¸
à¨¿à¨ ²
¨à¸²à¸ªà¸ķà¸£ à¹Į
Ġä¸ľ äº¬
äº ķ
Ġà¸ķ à¸Ńà¸Ļà¸
Ġà¤Ĩ à¤²
U E
Ġperson a
Ġà°¶ à±įà°°
li que
Ġczy li
Î» ÏİÏĤ
ĠmÉĻk tÉĻb
ĠÐ³ Ð¾Ð»
Ġà°ªà±įà°°à°¯ à°¤à±įà°¨
ĠFo tos
Ġc um
Îķ Îĳ
ĠÎºÎ¿ Î¼
j ets
Ġà¦ķà¦°à§įà¦®à¦ķ à¦°à§įà¦¤
à¯įà®© à¯ģ
Ġà®®à®° à¯ģà®¤à¯įà®¤à¯ģà®µ
Ġà¤¨ à¥įà¤¯à¤¾à¤¯
as il
Ġv enta
Ġsp r
ĠÂ ¬
Ġu0 3
Âµ Îµ
ĠÎĮ ÏĢÏīÏĤ
áĥĲáĥķ áĥĲ
ujÄħ ce
Ġà¦¸ à¦¾à¦²à§ĩ
Ġcor re
Ġb in
ÏĮ ÏĦÎ¹
ĠØ§ÙģØ² Ø§ÛĮØ´
Ġmar aq
Ġdies es
áĥĿáĥĳ áĥĵáĥĲ
ard in
ĠÏĢÏģÎ¿Î² Î»Î®Î¼Î±ÏĦÎ±
ê²Į ìŀĦ
ë¸ Į
ĠÐ½ÐµÐ¾Ð±ÑħÐ¾Ð´Ð¸Ð¼ Ð¾
ķà¹Īà¸Ń à¹Ħà¸Ľ
å© Ĩ
à©Ģ à¨Ĥ
Ġ9 4
Ġ1 åĪĨ
çĵ ¦
ĠéŁ© åĽ½
Ġà¸£à¸ ¹à¸
Ġà¤ª à¤¾à¤Ł
ä¹ ³
ĩ áŀ¶áŀ
æĸ° æĹ¶ä»£
åįı ä¼ļ
¬ à¤°
Ġsh ort
at s
ÄĽ l
à¯Īà®¨à¯įà®¤ à¯ģ
Ġqiy mÉĻt
ĠÐ² ÐµÑī
ĠÙħØ¯ ÙĦ
Ġà°ħà°¦ à±ĩ
Ø¨ Ø§Ø±Ùĩ
ãģ¡ ãĤĥ
Ġserv ices
Ġ×ķ ×©
ĠÙĬ ÙĥÙĪÙĨ
å¿ ľ
Ġvá» ĭ
Ľ à¹īà¸Ńà¸ĩà¸
åĽł ç´ł
à¥ģà¤ ľ
Ġà°¦à°Ĺà±įà°Ĺ à°°
Ġs ÅĤu
ĠÎµÏĢÎ± Î³Î³ÎµÎ»Î¼Î±
à®® à®¾
Ġà®īà®¯ à®¿à®°
ĠhÉĻy at
ĠB uch
áĥĶáĥĳ áĥĿ
Ġe llos
Ġu omo
áĥķ áĥĵ
Ġgratu it
nÄĻ trz
ĠÏĢÎ±ÏģÎ± Î³ÏīÎ³
¥ à¹ĩà¸ģ
Ġà¤®à¤¾à¤° à¥įà¤Ĺ
ĠÐ¶ÐµÐ½ Ñī
ĠÏĢÏģÎ¿ ÏĥÎµ
ĠB on
tem bre
ĠÐ´ Ð¾Ð±Ð°Ð²
áĥĿáĥĳ áĥĺáĥļ
al d
Ġdem ande
ãĥ¼ ãĤ¯
Ġau c
Ġso pra
Ġtem at
Ġv Ã¡m
ĠÙħ Ø§ÙĨ
Ġs istema
ë° ķ
ĠÐ» Ð¸Ñĩ
Ġ×Ľ ×ļ
ĠÎ¬Î»Î» ÏīÎ½
ĠbaÅŁ qa
ĠS y
Ġo rang
áĥķáĥĶáĥ £áĥļ
rÃ³ Å¼
à®ªà¯įà®ªà®Łà¯įà®Ł à®¤à¯ģ
à°¿à°¸à±įà°¤ à±Ĥ
à¤¸ à¤Ńà¤¾
à¤¡ à¤¿à¤¯à¥ĭ
Ġà¦ķà¦° à¦Ľà§ĩ
Î³ Î±Î½
ah l
Ġc oule
ĠÐ¶ Ð¸Ð·Ð½
h Ã¡
Ġà°İ à°¨
Ġlo áº¡i
ĠEs p
[...]
