{
  "version": "1.0",
  "truncation": null,
  "padding": null,
  "added_tokens": [
    {
      "id": 0,
      "content": "<s>",
      "single_word": false,
      "lstrip": false,
      "rstrip": false,
      "normalized": false,
      "special": true
    },
    {
      "id": 1,
      "content": "</s>",
      "single_word": false,
      "lstrip": false,
      "rstrip": false,
      "normalized": false,
      "special": true
    },
    {
      "id": 2,
      "content": "<pad>",
      "single_word": false,
      "lstrip": false,
      "rstrip": false,
      "normalized": false,
      "special": true
    },
    {
      "id": 3,
      "content": "<unk>",
      "single_word": false,
      "lstrip": false,
      "rstrip": false,
      "normalized": false,
      "special": true
    }
  ],
  "normalizer": null,
  "pre_tokenizer": {
    "type": "ByteLevel",
    "add_prefix_space": false,
    "trim_offsets": true,
    "use_regex": true
  },
  "post_processor": null,
  "decoder": null,
  "model": {
    "type": "BPE",
    "dropout": null,
    "unk_token": "<unk>",
    "continuing_subword_prefix": null,
    "end_of_word_suffix": null,
    "fuse_unk": false,
    "byte_fallback": false,
    "ignore_merges": false,
    "vocab": {
      "<s>": 0,
      "</s>": 1,
      "<pad>": 2,
      "<unk>": 3,
      "!": 4,
      "\"": 5,
      "#": 6,
      "$": 7,
      "%": 8,
      "&": 9,
      "'": 10,
      "(": 11,
      ")": 12,
      "*": 13,
      "+": 14,
      ",": 15,
      "-": 16,
      ".": 17,
      "/": 18,
      "0": 19,
      "1": 20,
      "2": 21,
      "3": 22,
      "4": 23,
      "5": 24,
      "6": 25,
      "7": 26,
      "8": 27,
      "9": 28,
      ":": 29,
      ";": 30,
      "<": 31,
      "=": 32,
      ">": 33,
      "?": 34,
      "@": 35,
      "A": 36,
      "B": 37,
      "C": 38,
      "D": 39,
      "E": 40,
      "F": 41,
      "G": 42,
      "H": 43,
      "I": 44,
      "J": 45,
      "K": 46,
      "L": 47,
      "M": 48,
      "N": 49,
      "O": 50,
      "P": 51,
      "Q": 52,
      "R": 53,
      "S": 54,
      "T": 55,
      "U": 56,
      "V": 57,
      "W": 58,
      "X": 59,
      "Y": 60,
      "Z": 61,
      "[": 62,
      "\\": 63,
      "]": 64,
      "^": 65,
      "_": 66,
      "`": 67,
      "a": 68,
      "b": 69,
      "c": 70,
      "d": 71,
      "e": 72,
      "f": 73,
      "g": 74,
      "h": 75,
      "i": 76,
      "j": 77,
      "k": 78,
      "l": 79,
      "m": 80,
      "n": 81,
      "o": 82,
      "p": 83,
      "q": 84,
      "r": 85,
      "s": 86,
      "t": 87,
      "u": 88,
      "v": 89,
      "w": 90,
      "x": 91,
      "y": 92,
      "z": 93,
      "{": 94,
      "|": 95,
      "}": 96,
      "~": 97,
      "¡": 98,
      "¢": 99,
      "£": 100,
      "¤": 101,
      "¥": 102,
      "¦": 103,
      "§": 104,
      "¨": 105,
      "©": 106,
      "ª": 107,
      "«": 108,
      "¬": 109,
      "®": 110,
      "¯": 111,
      "°": 112,
      "±": 113,
      "²": 114,
      "³": 115,
      "´": 116,
      "µ": 117,
      "¶": 118,
      "·": 119,
      "¸": 120,
      "¹": 121,
      "º": 122,
      "»": 123,
      "¼": 124,
      "½": 125,
      "¾": 126,
      "¿": 127,
      "À": 128,
      "Á": 129,
      "Â": 130,
      "Ã": 131,
      "Ä": 132,
      "Å": 133,
      "Æ": 134,
      "Ç": 135,
      "È": 136,
      "É": 137,
      "Ê": 138,
      "Ë": 139,
      "Ì": 140,
      "Í": 141,
      "Î": 142,
      "Ï": 143,
      "Ð": 144,
      "Ñ": 145,
      "Ò": 146,
      "Ó": 147,
      "Ô": 148,
      "Õ": 149,
      "Ö": 150,
      "×": 151,
      "Ø": 152,
      "Ù": 153,
      "Ú": 154,
      "Û": 155,
      "Ü": 156,
      "Ý": 157,
      "Þ": 158,
      "ß": 159,
      "à": 160,
      "á": 161,
      "â": 162,
      "ã": 163,
      "ä": 164,
      "å": 165,
      "æ": 166,
      "ç": 167,
      "è": 168,
      "é": 169,
      "ê": 170,
      "ë": 171,
      "ì": 172,
      "í": 173,
      "î": 174,
      "ï": 175,
      "ð": 176,
      "ñ": 177,
      "ò": 178,
      "ó": 179,
      "ô": 180,
      "õ": 181,
      "ö": 182,
      "÷": 183,
      "ø": 184,
      "ù": 185,
      "ú": 186,
      "û": 187,
      "ü": 188,
      "ý": 189,
      "þ": 190,
      "ÿ": 191,
      "Ā": 192,
      "ā": 193,
      "Ă": 194,
      "ă": 195,
      "Ą": 196,
      "ą": 197,
      "Ć": 198,
      "ć": 199,
      "Ĉ": 200,
      "ĉ": 201,
      "Ċ": 202,
      "ċ": 203,
      "Č": 204,
      "č": 205,
      "Ď": 206,
      "ď": 207,
      "Đ": 208,
      "đ": 209,
      "Ē": 210,
      "ē": 211,
      "Ĕ": 212,
      "ĕ": 213,
      "Ė": 214,
      "ė": 215,
      "Ę": 216,
      "ę": 217,
      "Ě": 218,
      "ě": 219,
      "Ĝ": 220,
      "ĝ": 221,
      "Ğ": 222,
      "ğ": 223,
      "Ġ": 224,
      "ġ": 225,
      "Ģ": 226,
      "ģ": 227,
      "Ĥ": 228,
      "ĥ": 229,
      "Ħ": 230,
      "ħ": 231,
      "Ĩ": 232,
      "ĩ": 233,
      "Ī": 234,
      "ī": 235,
      "Ĭ": 236,
      "ĭ": 237,
      "Į": 238,
      "į": 239,
      "İ": 240,
      "ı": 241,
      "Ĳ": 242,
      "ĳ": 243,
      "Ĵ": 244,
      "ĵ": 245,
      "Ķ": 246,
      "ķ": 247,
      "ĸ": 248,
      "Ĺ": 249,
      "ĺ": 250,
      "Ļ": 251,
      "ļ": 252,
      "Ľ": 253,
      "ľ": 254,
      "Ŀ": 255,
      "ŀ": 256,
      "Ł": 257,
      "ł": 258,
      "Ń": 259,
      "ĠÐ": 260,
      "Ø§": 261,
      "Ð¾": 262,
      "à¤": 263,
      "Ðµ": 264,
      "ÙĦ": 265,
      "Ð°": 266,
      "en": 267,
      "ÑĤ": 268,
      "er": 269,
      "Ð¸": 270,
      "Ð½": 271,
      "Ġd": 272,
      "Ñģ": 273,
      "an": 274,
      "ÙĬ": 275,
      "ĠØ": 276,
      "Ð¾Ð": 277,
      "ÑĢ": 278,
      "in": 279,
      "Ø§ÙĦ": 280,
      "Ùħ": 281,
      "Ġt": 282,
      "Ġs": 283,
      "ÙĪ": 284,
      "es": 285,
      "ch": 286,
      "ÙĨ": 287,
      "Ġa": 288,
      "ĠØ§ÙĦ": 289,
      "ä¸": 290,
      "Ð»": 291,
      "Ø§Ø": 292,
      "Ġà¤": 293,
      "ar": 294,
      "ï¼": 295,
      "à¥": 296,
      "Ġm": 297,
      "Ġp": 298,
      "on": 299,
      "ĠÎ": 300,
      "Ø±": 301,
      "ï¼Į": 302,
      "un": 303,
      "Ñĥ": 304,
      "Ġb": 305,
      "Ġc": 306,
      "as": 307,
      "Ġl": 308,
      "or": 309,
      "Ġw": 310,
      "Ġn": 311,
      "Ð°Ð": 312,
      "el": 313,
      "Ø©": 314,
      "ÐµÐ": 315,
      "Øª": 316,
      "Ñı": 317,
      "al": 318,
      "Ùĩ": 319,
      "at": 320,
      "is": 321,
      "âĢ": 322,
      "Î±": 323,
      "çļ": 324,
      "çļĦ": 325,
      "it": 326,
      "Ñĭ": 327,
      "ie": 328,
      "Ġh": 329,
      "Ùģ": 330,
      "ÏĦ": 331,
      "ÑĮ": 332,
      "ĠÐ¿": 333,
      "ĠØ§ÙĦØ": 334,
      "Î¿": 335,
      "os": 336,
      "Ġth": 337,
      "äº": 338,
      "re": 339,
      "Ø¯": 340,
      "Î¹": 341,
      "ãĢ": 342,
      "á»": 343,
      "Ġk": 344,
      "ÑģÑĤ": 345,
      "ÙĤ": 346,
      "Ġde": 347,
      "Ùĥ": 348,
      "ĠÐ²": 349,
      "Ð¸Ð": 350,
      "Ġo": 351,
      "Ġg": 352,
      "Ñĩ": 353,
      "Ġy": 354,
      "Ø¹": 355,
      "ĠÐ½": 356,
      "ĠÙĪ": 357,
      "Ø¨": 358,
      "Î½": 359,
      "ĠÑģ": 360,
      "ad": 361,
      "Ġf": 362,
      "ĠÙħ": 363,
      "Ġv": 364,
      "Îµ": 365,
      "Ä±": 366,
      "ÐµÐ½": 367,
      "il": 368,
      "Ġe": 369,
      "Ðº": 370,
      "am": 371,
      "ä»": 372,
      "te": 373,
      "Ð²": 374,
      "à¤¾": 375,
      "æľ": 376,
      "Ã¼": 377,
      "Ø³": 378,
      "ĠÐ¸": 379,
      "Ġin": 380,
      "ãĢĤ": 381,
      "ĠÐ¾": 382,
      "ich": 383,
      "ro": 384,
      "Ġun": 385,
      "ci": 386,
      "us": 387,
      "åı": 388,
      "ir": 389,
      "Ð¾Ð²": 390,
      "ĠS": 391,
      "Ïģ": 392,
      "ur": 393,
      "Ïĥ": 394,
      "le": 395,
      "Ð´": 396,
      "áº": 397,
      "Ñħ": 398,
      "Ã³": 399,
      "è¿": 400,
      "Ġan": 401,
      "om": 402,
      "å¤": 403,
      "ent": 404,
      "qu": 405,
      "im": 406,
      "Ġthe": 407,
      "ed": 408,
      "ak": 409,
      "åħ": 410,
      "ÏĢ": 411,
      "ing": 412,
      "à¥ĩ": 413,
      "Ġz": 414,
      "ĠA": 415,
      "ĠØ¨": 416,
      "..": 417,
      "em": 418,
      "Ïħ": 419,
      "ÏĤ": 420,
      "id": 421,
      "et": 422,
      "ĠÐº": 423,
      "æĺ": 424,
      "Ð¼": 425,
      "ØŃ": 426,
      "ic": 427,
      "Î·": 428,
      "à¤°": 429,
      "åľ": 430,
      "Ġto": 431,
      "å®": 432,
      "ÐµÑĤ": 433,
      "ĠÙĦ": 434,
      "ĠØ£": 435,
      "ÑĤÐ¾": 436,
      "ĠÙģ": 437,
      "ä½": 438,
      "æĪ": 439,
      "åĪ": 440,
      "ĠÐ´": 441,
      "ut": 442,
      "ĠM": 443,
      "Ð°Ð½": 444,
      "ĠÐ¿ÑĢ": 445,
      "ĠØ¹": 446,
      "Ġqu": 447,
      "ra": 448,
      "ol": 449,
      "ÐµÑĢ": 450,
      "ig": 451,
      "Ùī": 452,
      "ĠB": 453,
      "ĠT": 454,
      "Ã¡": 455,
      "ä¸Ģ": 456,
      "ng": 457,
      "Ñİ": 458,
      "Ð¾Ð»": 459,
      "est": 460,
      "åĲ": 461,
      "Ð¿": 462,
      "ĠD": 463,
      "ĠÏĦ": 464,
      "Ġla": 465,
      "Ð¾Ð¼": 466,
      "Ø¬": 467,
      "Ð½Ð¾": 468,
      "æĺ¯": 469,
      "Ġse": 470,
      "st": 471,
      "Î»": 472,
      "ÙĬØ©": 473,
      "ĠI": 474,
      "Ġ1": 475,
      "ä¹": 476,
      "ÐµÐ»": 477,
      "Ð°ÑĤ": 478,
      "Ġ(": 479,
      "ĠØª": 480,
      "ĠP": 481,
      "ĠÐ¼": 482,
      "Ð°Ð»": 483,
      "ul": 484,
      "ĠØ§ÙĦÙħ": 485,
      "à¥į": 486,
      "Ġ2": 487,
      "ah": 488,
      "ik": 489,
      "ab": 490,
      "Ð¸ÑĤ": 491,
      "ĠÑĤ": 492,
      "³Ð¾": 493,
      "Ð¾Ð´": 494,
      "Ø§Øª": 495,
      "ÑĪ": 496,
      "Ġen": 497,
      "å°": 498,
      "åĽ": 499,
      "ØĮ": 500,
      "ow": 501,
      "Ø§ÙĨ": 502,
      "à¥Ģ": 503,
      "um": 504,
      "Î¯": 505,
      "Ġà¤ķ": 506,
      "Îº": 507,
      "ang": 508,
      "ay": 509,
      "ĠÑĢ": 510,
      "Ð½Ñĭ": 511,
      "ung": 512,
      "ç»": 513,
      "Ġal": 514,
      "ĠâĢ": 515,
      "Î¼": 516,
      "åĬ": 517,
      "Ġque": 518,
      "ÑĨ": 519,
      "ĠE": 520,
      "è¯": 521,
      "ion": 522,
      "çĶ": 523,
      "Ùİ": 524,
      "Ġj": 525,
      "ist": 526,
      "äºĨ": 527,
      "åľ¨": 528,
      "ĠÙĬ": 529,
      "ĠÄ": 530,
      "ä¼": 531,
      "ÃŃ": 532,
      "Ð°Ðº": 533,
      "Ġand": 534,
      "Ġof": 535,
      "ĠÐ±": 536,
      "ĠK": 537,
      "Ð±": 538,
      "ĠÙģÙĬ": 539,
      "æĹ": 540,
      "à¤¿": 541,
      "à¤Ĥ": 542,
      "Ġel": 543,
      "ä¸į": 544,
      "ÏĮ": 545,
      "Øµ": 546,
      "Ġr": 547,
      "æĸ": 548,
      "Î¿Ïħ": 549,
      "Î¬": 550,
      "ÐµÐ¼": 551,
      "ĠÙħÙĨ": 552,
      "Ø·": 553,
      "Ġund": 554,
      "ĠC": 555,
      "Ã¤": 556,
      "ter": 557,
      "Ã¶": 558,
      "Ġcon": 559,
      "è®": 560,
      "ia": 561,
      "ÅĤ": 562,
      "Ġein": 563,
      "ot": 564,
      "ÐµÐ½Ð¸": 565,
      "Ġes": 566,
      "Ġbe": 567,
      "Ø§Ø±": 568,
      "æľī": 569,
      "Ġre": 570,
      "ĠÐ½Ð°": 571,
      "ÐµÐ´": 572,
      "ĠÑĩ": 573,
      "æĿ": 574,
      "å¹": 575,
      "ÅŁ": 576,
      "âĢĿ": 577,
      "ac": 578,
      "Ġder": 579,
      "Ð¾Ð¹": 580,
      "à¤¨": 581,
      "Ġdie": 582,
      "ĠG": 583,
      "ĠW": 584,
      "ĠÑĥ": 585,
      "ĠÐ·": 586,
      "äºº": 587,
      "Ġi": 588,
      "end": 589,
      "Ð¾ÑĢ": 590,
      "and": 591,
      "ĠH": 592,
      "ÙĬÙĨ": 593,
      "od": 594,
      "æĪĳ": 595,
      "ĠÄĳ": 596,
      "ers": 597,
      "iv": 598,
      "åį": 599,
      "ãĢģ": 600,
      "Ø´": 601,
      "Ñī": 602,
      "åŃ": 603,
      "ÑģÑı": 604,
      "å¾": 605,
      "Ø§Ùħ": 606,
      "ĠÑ": 607,
      "Ãł": 608,
      "ĠF": 609,
      "ÑģÐº": 610,
      "ĠN": 611,
      "ek": 612,
      "ec": 613,
      "æī": 614,
      "ag": 615,
      "ĠL": 616,
      "Ġch": 617,
      "Ø£": 618,
      "ap": 619,
      "ÙĦÙī": 620,
      "Ø¶": 621,
      "Ø®": 622,
      "Ã³n": 623,
      "ĠÐ½Ðµ": 624,
      "00": 625,
      "eg": 626,
      "Ð·": 627,
      "å·": 628,
      "à¥ĭ": 629,
      "ÑģÑĤÐ²": 630,
      "ĠÏĢ": 631,
      "å¸": 632,
      "ĠÐ¿Ð¾": 633,
      "Ð°Ð·": 634,
      "à¤¤": 635,
      "Ð°Ð²": 636,
      "ÙĩØ§": 637,
      "ier": 638,
      "ĠÎº": 639,
      "ĥ½": 640,
      "ÄĻ": 641,
      "Ø°": 642,
      "âĢľ": 643,
      "éĩ": 644,
      "à¤ķ": 645,
      "Ġdi": 646,
      "è¿Ļ": 647,
      "Ïī": 648,
      "Ð°Ð¼": 649,
      "å¥": 650,
      "ach": 651,
      "ĠÏĥ": 652,
      "Ġyo": 653,
      "eb": 654,
      "uch": 655,
      "ÎŃ": 656,
      "ä¸ª": 657,
      "01": 658,
      "ĠR": 659,
      "ĠÎ±": 660,
      "Ð¸Ð¼": 661,
      "uf": 662,
      "iz": 663,
      "Ð¶": 664,
      "Ð»Ð¸": 665,
      "ten": 666,
      "ĠØ¥": 667,
      "ara": 668,
      "Ġtr": 669,
      "å¼": 670,
      "Ð¾Ð½": 671,
      "Ð¾Ð³Ð¾": 672,
      "Ø²": 673,
      "åĩ": 674,
      "ind": 675,
      "Ġ-": 676,
      "ber": 677,
      "Ð³": 678,
      "èĢ": 679,
      "ä¸Ń": 680,
      "Î±Î¹": 681,
      "Ġpro": 682,
      "åĽ½": 683,
      "Äħ": 684,
      "Ð¸Ð½": 685,
      "eit": 686,
      "åº": 687,
      "å¯": 688,
      "ĠÙĥ": 689,
      "åĨ": 690,
      "...": 691,
      "åĴ": 692,
      "ĠÙĪØ§ÙĦ": 693,
      "Ä±n": 694,
      "Æ°": 695,
      "ÙĬØ±": 696,
      "âĢĻ": 697,
      "Ð¾Ð±": 698,
      "Ã¼r": 699,
      "ta": 700,
      "Î³": 701,
      "ĠØ§ÙĦØª": 702,
      "Ġpr": 703,
      "Ð¾ÑĤ": 704,
      "Ø«": 705,
      "Î®": 706,
      "Ã§": 707,
      "ÙĪÙĦ": 708,
      "å¤§": 709,
      "ÄŁ": 710,
      "ĠÑį": 711,
      "à¤¸": 712,
      "ud": 713,
      "èµ": 714,
      "è¡": 715,
      "up": 716,
      "icht": 717,
      "åĴĮ": 718,
      "à¤²": 719,
      "ĠV": 720,
      "uk": 721,
      "ciÃ³n": 722,
      "eh": 723,
      "Å¼": 724,
      "Ïĩ": 725,
      "è§": 726,
      "Ð°ÑĢ": 727,
      "Ð°ÑĤÑĮ": 728,
      "æĬ": 729,
      "ĠÎµ": 730,
      "Ġcom": 731,
      "çĽ": 732,
      "ä¸º": 733,
      "ÐµÐ¹": 734,
      "Ġ\"": 735,
      "Ġden": 736,
      "Ð¾Ð³": 737,
      "Ġà¤¸": 738,
      "à¤¯": 739,
      "Ã©": 740,
      "ĠÎ¼": 741,
      "ä¼ļ": 742,
      "ÙĪÙĨ": 743,
      "Ġdas": 744,
      "Ġfor": 745,
      "Ġno": 746,
      "Ġà¤¹": 747,
      "Ø§Ø¨": 748,
      "ĠØŃ": 749,
      "ib": 750,
      "zy": 751,
      "Ġst": 752,
      "éĢ": 753,
      "Ġlos": 754,
      "ĠØ§ÙĦØ£": 755,
      "der": 756,
      "Ø§Ø³": 757,
      "ĠÐ³": 758,
      "Ġis": 759,
      "Ð¾Ð¶": 760,
      "æł": 761,
      "æĢ": 762,
      "ÑĨÐ¸": 763,
      "Ġon": 764,
      "Ð¸Ðº": 765,
      "lich": 766,
      "ĠÙĩ": 767,
      "æĿ¥": 768,
      "¦ģ": 769,
      "ien": 770,
      "ä¸Ĭ": 771,
      "de": 772,
      "éĹ": 773,
      "ĠÐ¾ÑĤ": 774,
      "æķ": 775,
      "Ø§Ø¯": 776,
      "è´": 777,
      "Ġdo": 778,
      "Ġna": 779,
      "è¦ģ": 780,
      "Ġso": 781,
      "Ãª": 782,
      "ug": 783,
      "åĮ": 784,
      "ĠÐµ": 785,
      "Ð¾Ñģ": 786,
      "Ð¸Ð»": 787,
      "ere": 788,
      "åĪ°": 789,
      "å¿": 790,
      "ÙĦÙĬ": 791,
      "à¤®": 792,
      "Ø§Ø¡": 793,
      "Ïį": 794,
      "Ð°Ñģ": 795,
      "ya": 796,
      "ä»ĸ": 797,
      "ä»¬": 798,
      "Î¹Îº": 799,
      "ĠÙĤ": 800,
      "æĶ": 801,
      "ĠJ": 802,
      "Ð¸Ð²": 803,
      "Ġim": 804,
      "ĠÐ¾Ð±": 805,
      "ä»¥": 806,
      "av": 807,
      "Ø±ÙĬ": 808,
      "ÎµÎ¹": 809,
      "à¤¹": 810,
      "çİ": 811,
      "he": 812,
      "ĠØ§ÙĦØ¹": 813,
      "ĠÐ°": 814,
      "ĠU": 815,
      "èĩ": 816,
      "ĠØ³": 817,
      "ç§": 818,
      "ce": 819,
      "çľ": 820,
      "æĹ¶": 821,
      "sch": 822,
      "Ġit": 823,
      "Ġà¤®": 824,
      "ÅĽ": 825,
      "ĠØ¹ÙĦÙī": 826,
      "ĠÑĩÑĤÐ¾": 827,
      "å¹´": 828,
      "Ð°Ð½Ð¸": 829,
      "Ġme": 830,
      "ok": 831,
      "und": 832,
      "ĠÐ»": 833,
      "éĿ": 834,
      "lar": 835,
      "åĳ": 836,
      "ÐµÐº": 837,
      "Ùĳ": 838,
      "ant": 839,
      "ly": 840,
      "æŃ": 841,
      "åİ": 842,
      "Ð»Ñı": 843,
      "ÑĢÑĥ": 844,
      "Î´": 845,
      "ĠÂ": 846,
      "Ġzu": 847,
      "ÙĲ": 848,
      "å±": 849,
      "ine": 850,
      "la": 851,
      "ĠÙĨ": 852,
      "Ġist": 853,
      "ĠÑģÑĤ": 854,
      "æĥ": 855,
      "aj": 856,
      "ĠØ£ÙĨ": 857,
      "å½": 858,
      "ann": 859,
      "å°±": 860,
      "Ġdes": 861,
      "ÐµÐ»ÑĮ": 862,
      "ell": 863,
      "ĠO": 864,
      "Ġyou": 865,
      "Ġer": 866,
      "if": 867,
      "Ð¸Ð¹": 868,
      "Ð¾Ð»ÑĮ": 869,
      "Ġlo": 870,
      "Ġlas": 871,
      "èĥ½": 872,
      "Ð½Ð°": 873,
      "æ³": 874,
      "iá»": 875,
      "ct": 876,
      "æ²": 877,
      "Ġest": 878,
      "éĻ": 879,
      "Ġ201": 880,
      "Ġwh": 881,
      "Î¹Î±": 882,
      "az": 883,
      "å¯¹": 884,
      "Ùı": 885,
      "Ø§Ø¹": 886,
      "Ġà¤ª": 887,
      "ub": 888,
      "Ð¹": 889,
      "Ġdel": 890,
      "hr": 891,
      "ÑĤÐ¾ÑĢ": 892,
      "ver": 893,
      "Ø§Ø¦": 894,
      "ÏĨ": 895,
      "Ġthat": 896,
      "Ð¾ÑģÑĤ": 897,
      "Ġor": 898,
      "à¥ģ": 899,
      "çī": 900,
      "Ġmen": 901,
      "ä¿": 902,
      "ne": 903,
      "nh": 904,
      "Ġ3": 905,
      "Ġas": 906,
      "ÐµÐ½Ð¸Ñı": 907,
      "ess": 908,
      "ation": 909,
      "Ð¾Ðº": 910,
      "ada": 911,
      "den": 912,
      "Ġver": 913,
      "ĠâĢĵ": 914,
      "op": 915,
      "ze": 916,
      "art": 917,
      "çĶŁ": 918,
      "ill": 919,
      "ĠÏĦÎ·": 920,
      "åıĳ": 921,
      "ĠÙĦÙĦ": 922,
      "à¥Ī": 923,
      "ado": 924,
      "çĲ": 925,
      "Ã´": 926,
      "Ð¸Ñħ": 927,
      "ari": 928,
      "Ġpor": 929,
      "og": 930,
      "Ġnh": 931,
      "Ð¸Ð·": 932,
      "ÙĪØ±": 933,
      "åı¯": 934,
      "Ð¸Ñĩ": 935,
      "wa": 936,
      "Øº": 937,
      "Æ°á»": 938,
      "Î¸": 939,
      "Ġper": 940,
      "ÐµÑģ": 941,
      "ĠÐ²Ñĭ": 942,
      "ĠÐ±Ñĭ": 943,
      "ÙħØ§": 944,
      "Ïİ": 945,
      "tr": 946,
      "ä½ł": 947,
      "ÏĦÎ±": 948,
      "ler": 949,
      "da": 950,
      "åĩº": 951,
      "ä¹Ł": 952,
      "æ¯": 953,
      "æ°": 954,
      "åŃ¦": 955,
      "ä¸ļ": 956,
      "æŀ": 957,
      "Ð°Ð´": 958,
      "âĢ¦": 959,
      "Ùĭ": 960,
      "æĭ": 961,
      "Ġpara": 962,
      "Ãº": 963,
      "å¤ļ": 964,
      "ĠØ¬": 965,
      "å®¶": 966,
      "ew": 967,
      "Ġnicht": 968,
      "men": 969,
      "æİ": 970,
      "ort": 971,
      "Ð½ÑĭÑħ": 972,
      "áº¿": 973,
      "ith": 974,
      "è¡Į": 975,
      "ÑĦ": 976,
      "Â»": 977,
      "ĠÐĴ": 978,
      "Ð¾Ð·": 979,
      "Ð¸ÑĤÑĮ": 980,
      "Ġex": 981,
      "áº¡": 982,
      "Ġam": 983,
      "çº": 984,
      "ĠØ±": 985,
      "æµ": 986,
      "ĠZ": 987,
      "é¢": 988,
      "Ġve": 989,
      "Ġmit": 990,
      "ÑĥÐ´": 991,
      "ĠÎ´": 992,
      "æĦ": 993,
      "ĠØ§ÙĦØ³": 994,
      "uy": 995,
      "iel": 996,
      "Ġauf": 997,
      "èĩª": 998,
      "ÙĩÙħ": 999,
      "iÄĻ": 1000,
      "à¤ª": 1001,
      "ÙĴ": 1002,
      "Äĩ": 1003,
      "åľ°": 1004,
      "ä½ľ": 1005,
      "ip": 1006,
      "åĵ": 1007,
      "ÙĬØ¯": 1008,
      "aciÃ³n": 1009,
      "ĠÎºÎ±Î¹": 1010,
      "à¤µ": 1011,
      "ÏĦÎ¿": 1012,
      "to": 1013,
      "Ġya": 1014,
      "à¤¦": 1015,
      "Ġvon": 1016,
      "Ð½Ð¾ÑģÑĤ": 1017,
      "è¿ĩ": 1018,
      "å¦": 1019,
      "Ġyang": 1020,
      "Ð°Ð±": 1021,
      "Ø¸": 1022,
      "oc": 1023,
      "kan": 1024,
      "Ð°Ð»ÑĮ": 1025,
      "Ġsu": 1026,
      "Ġab": 1027,
      "ÏģÎ¿": 1028,
      "è¯´": 1029,
      "æ¬": 1030,
      "iy": 1031,
      "Ø§Ùģ": 1032,
      "Ġkh": 1033,
      "ÑıÑĤ": 1034,
      "ĠØ§ÙĦØŃ": 1035,
      "ĠÐ¶": 1036,
      "à¥ĩà¤Ĥ": 1037,
      "ĠÂ«": 1038,
      "çĶ¨": 1039,
      "Ð°ÐµÑĤ": 1040,
      "éĥ½": 1041,
      "Ġman": 1042,
      "æĪĲ": 1043,
      "Ġuna": 1044,
      "Ġich": 1045,
      "ĠâĢľ": 1046,
      "th": 1047,
      "éģ": 1048,
      "Ð½Ð¾Ð³Ð¾": 1049,
      "Ð¸Ñģ": 1050,
      "Ġar": 1051,
      "åī": 1052,
      "ä¸ĭ": 1053,
      "Ð¸Ðµ": 1054,
      "ĠIn": 1055,
      "è¾": 1056,
      "çĿ": 1057,
      "ç½": 1058,
      "Ġhe": 1059,
      "Ġwir": 1060,
      "çŃ": 1061,
      "ÙĪÙħ": 1062,
      "Ġhab": 1063,
      "ç»ı": 1064,
      "äºİ": 1065,
      "pr": 1066,
      "Ġng": 1067,
      "æĮ": 1068,
      "orm": 1069,
      "ÙĦÙĥ": 1070,
      "ĠØ¨Ø§ÙĦ": 1071,
      "ÏģÎ±": 1072,
      "Ġsch": 1073,
      "Ġwith": 1074,
      "Ð½Ð¾Ð¹": 1075,
      "af": 1076,
      "ob": 1077,
      "åĲİ": 1078,
      "å¥½": 1079,
      "ÃŁ": 1080,
      "ĠØ¹ÙĨ": 1081,
      "à¤Ĺ": 1082,
      "è½": 1083,
      "ĠØ¯": 1084,
      "Ð¾Ð¿": 1085,
      "áº£": 1086,
      "ĠfÃ¼r": 1087,
      "ĠÏĦÎ¿": 1088,
      "cion": 1089,
      "ÐµÐ²": 1090,
      "Ġà¤¬": 1091,
      "ĠÐŁ": 1092,
      "æĸ¹": 1093,
      "ÃŃa": 1094,
      "ĠÐ²Ñģ": 1095,
      "ÑĢÐ°": 1096,
      "Ø§ÙĤ": 1097,
      "Ð°Ð¶": 1098,
      "Ġwas": 1099,
      "Ã±": 1100,
      "Ġle": 1101,
      "io": 1102,
      "ĠØ´": 1103,
      "çİ°": 1104,
      "ç«": 1105,
      "ies": 1106,
      "ÑĥÑĤ": 1107,
      "pl": 1108,
      "per": 1109,
      "ĠAn": 1110,
      "ÏĦÎµ": 1111,
      "ĠÐºÐ°Ðº": 1112,
      "ÐµÐ·": 1113,
      "Ã¼n": 1114,
      "ÏĦÎ·": 1115,
      "Ø§ØŃ": 1116,
      "se": 1117,
      "Ġdan": 1118,
      "ĠY": 1119,
      "Ð°Ñı": 1120,
      "ÐµÐ½Ð¸Ðµ": 1121,
      "ht": 1122,
      "ĠÐ¸Ð·": 1123,
      "ĠÏĦÎ¿Ïħ": 1124,
      "å¾Ĺ": 1125,
      "á»Ļ": 1126,
      "Ġser": 1127,
      "åŁ": 1128,
      "ĠÎ½": 1129,
      "Ġad": 1130,
      "ÏĢÎ¿": 1131,
      "Ø¥": 1132,
      "ma": 1133,
      "åħ¬": 1134,
      "åģ": 1135,
      "ä¸Ģä¸ª": 1136,
      "éĺ": 1137,
      "å·¥": 1138,
      "Ġat": 1139,
      "çĲĨ": 1140,
      "Ġsich": 1141,
      "Ã¢": 1142,
      "Ġsp": 1143,
      "ĠÑĤÐ°Ðº": 1144,
      "Ã¶n": 1145,
      "ÑİÑĤ": 1146,
      "ÙĬÙĦ": 1147,
      "ÙĨØ§": 1148,
      "ĠØ§ÙĦÙĤ": 1149,
      "Ġph": 1150,
      "ĠØ®": 1151,
      "ĠÐ¡": 1152,
      "Ġdem": 1153,
      "Ø³Øª": 1154,
      "Ġbir": 1155,
      "Ġol": 1156,
      "éĤ": 1157,
      "æ³ķ": 1158,
      "ym": 1159,
      "ust": 1160,
      "Ġwe": 1161,
      "isch": 1162,
      "ÐµÐ±": 1163,
      "ï¼ļ": 1164,
      "Ġ4": 1165,
      "å¾Ī": 1166,
      "Ð¸ÑĢ": 1167,
      "ong": 1168,
      "Î¼Î±": 1169,
      "ient": 1170,
      "Ð½ÑĭÐµ": 1171,
      "å¼Ģ": 1172,
      "Ġ5": 1173,
      "Ã¡s": 1174,
      "à¤Ł": 1175,
      "ĠÑı": 1176,
      "all": 1177,
      "áº¥": 1178,
      "Ð¿ÑĢ": 1179,
      "æĪĳä»¬": 1180,
      "ç¬": 1181,
      "ave": 1182,
      "ĠÑģÐ²": 1183,
      "Î½Î±": 1184,
      "Ð¸Ð´": 1185,
      "du": 1186,
      "ç®": 1187,
      "Ġber": 1188,
      "ĠÐĿ": 1189,
      "ĠÑĢÐ°Ð·": 1190,
      "ual": 1191,
      "Ġà¤¨": 1192,
      "Ø±Ø¨": 1193,
      "æ´": 1194,
      "å®ŀ": 1195,
      "è¿ĺ": 1196,
      "idad": 1197,
      "Ġus": 1198,
      "è¿Ľ": 1199,
      "ä¹Ī": 1200,
      "Ãªn": 1201,
      "ä¾": 1202,
      "ÙĢ": 1203,
      "çĿĢ": 1204,
      "cz": 1205,
      "ĠØ§ÙĦÙĨ": 1206,
      "ÐµÑģÑĤ": 1207,
      "ĠÎ¿": 1208,
      "Ġare": 1209,
      "ĠØ§ÙĦÙĦ": 1210,
      "Ġte": 1211,
      "ÑĥÑĩ": 1212,
      "ĠÐºÐ¾": 1213,
      "Ġco": 1214,
      ").": 1215,
      "Ø°Ø§": 1216,
      "ĠÃ": 1217,
      "åŃĲ": 1218,
      "ÏĥÎ·": 1219,
      "Ġauch": 1220,
      "Ġ19": 1221,
      "Ġnie": 1222,
      "Î¯Î±": 1223,
      "ana": 1224,
      "ĠØ§ÙĦØ¥": 1225,
      "ØªÙħ": 1226,
      "ue": 1227,
      "ÏīÎ½": 1228,
      "Ø§Ø¬": 1229,
      "ĠØ§ÙĦØ¬": 1230,
      "æĸ°": 1231,
      "Ð´Ð°": 1232,
      "æĽ": 1233,
      "åħ¨": 1234,
      "èĢĮ": 1235,
      "ç¾": 1236,
      "ard": 1237,
      "à¤ľ": 1238,
      "ÙĦÙħ": 1239,
      "ost": 1240,
      "ĠÙħØ¹": 1241,
      "ff": 1242,
      "äºĭ": 1243,
      "çľĭ": 1244,
      "ĠÐ¿ÑĢÐ¾": 1245,
      "ĠÃ¼": 1246,
      "ĠÎ³": 1247,
      "éĿ¢": 1248,
      "Ġent": 1249,
      "Ġà¤ľ": 1250,
      "ĠØ§ÙĦØ¨": 1251,
      "gr": 1252,
      "ast": 1253,
      "gan": 1254,
      "åĪĨ": 1255,
      "ente": 1256,
      "ĠSt": 1257,
      "éĩĮ": 1258,
      "åĬ¨": 1259,
      "ĠÑįÑĤ": 1260,
      "æĹ¥": 1261,
      "æľ¬": 1262,
      "kt": 1263,
      "æı": 1264,
      "Ġ.": 1265,
      "au": 1266,
      "Ġne": 1267,
      "ÙħÙĨ": 1268,
      "å®ļ": 1269,
      "Ã´ng": 1270,
      "åĬĽ": 1271,
      "ĠØ§ÙĦØ¯": 1272,
      "Ð°ÑĨÐ¸": 1273,
      "enn": 1274,
      "ÑĥÑİ": 1275,
      "ÐµÐ½ÑĤ": 1276,
      "Ð°ÑģÑĤ": 1277,
      "æ²¡": 1278,
      "Ġke": 1279,
      "ĠÐ¿Ð¾Ð´": 1280,
      "ens": 1281,
      "è·": 1282,
      "ĠØ§ÙĦØ´": 1283,
      "åīį": 1284,
      "ÐµÑĩ": 1285,
      "æ±": 1286,
      "ĠÑģÐ»": 1287,
      "å¿ĥ": 1288,
      "ici": 1289,
      "ĠÑĦ": 1290,
      "å¦Ĥ": 1291,
      "Ã³w": 1292,
      "æīĢ": 1293,
      "Ø¦": 1294,
      "201": 1295,
      "æ¸": 1296,
      "á»ĳ": 1297,
      "ern": 1298,
      "ÑģÐ»": 1299,
      "Ġeine": 1300,
      "è¶": 1301,
      "ÐµÐ³Ð¾": 1302,
      "ÑīÐµ": 1303,
      "æľĢ": 1304,
      "ef": 1305,
      "åĲĮ": 1306,
      "ä¹ĭ": 1307,
      "ĠØ¥ÙĦÙī": 1308,
      "ĠØµ": 1309,
      "Ġwie": 1310,
      "ĠÑįÑĤÐ¾": 1311,
      "åĢ": 1312,
      "éĤ£": 1313,
      "Ġter": 1314,
      "Ø¹Ø¯": 1315,
      "ç¤": 1316,
      "aw": 1317,
      "Ø±Ø©": 1318,
      "Ġsie": 1319,
      "ck": 1320,
      "Ġro": 1321,
      "ych": 1322,
      "å°ı": 1323,
      "ÙĪØ¯": 1324,
      "éĥ": 1325,
      "ÐµÑģÐº": 1326,
      "Ä±r": 1327,
      "à¤¬": 1328,
      "nie": 1329,
      "åħ³": 1330,
      "é«": 1331,
      "Ã¬": 1332,
      "ego": 1333,
      "Ð¸Ð¸": 1334,
      "ĠÐļ": 1335,
      "Ġhat": 1336,
      "ll": 1337,
      "çĦ": 1338,
      "mer": 1339,
      "å¤©": 1340,
      "è°": 1341,
      "Ġ:": 1342,
      "ĠÐ¿ÐµÑĢ": 1343,
      "ÑħÐ¾Ð´": 1344,
      "çŁ": 1345,
      "ĠÐºÐ¾ÑĤÐ¾ÑĢ": 1346,
      "Ġhave": 1347,
      "é«ĺ": 1348,
      "Ġals": 1349,
      "ez": 1350,
      "ÙħÙĦ": 1351,
      "Ġall": 1352,
      "çĤ": 1353,
      "ÙĤØ¯": 1354,
      "Ġby": 1355,
      "é¡": 1356,
      "å¸Ĥ": 1357,
      "ĠÎ½Î±": 1358,
      "ĠTh": 1359,
      "ÏģÎ¹": 1360,
      "Ġyour": 1361,
      "Ġaus": 1362,
      "Ð¸Ñı": 1363,
      "Ġà¤¦": 1364,
      "à¥Ĥ": 1365,
      "iá»ĩ": 1366,
      "Ġnot": 1367,
      "cia": 1368,
      "uj": 1369,
      "ian": 1370,
      "éķ": 1371,
      "eng": 1372,
      "Î²": 1373,
      "ĠSie": 1374,
      "ä¸»": 1375,
      "oll": 1376,
      "Ġac": 1377,
      "éģĵ": 1378,
      "Ð°Ð¹": 1379,
      "Ð½ÑĭÐ¼": 1380,
      "Ġà¤²": 1381,
      "ate": 1382,
      "äº§": 1383,
      "Ġob": 1384,
      "æľº": 1385,
      "ĠÐ¾Ð½": 1386,
      "Ð³Ð¾": 1387,
      "åħ¶": 1388,
      "ore": 1389,
      "Ġthis": 1390,
      "ĠÎ¼Îµ": 1391,
      "li": 1392,
      "Ð°Ð¿": 1393,
      "ÙĦØ§": 1394,
      "èĢħ": 1395,
      "çĦ¶": 1396,
      "ĠÐŀ": 1397,
      "Ð½ÑĭÐ¹": 1398,
      "ect": 1399,
      "ä½Ĩ": 1400,
      "Ġda": 1401,
      "Ġres": 1402,
      "ve": 1403,
      "Ġpl": 1404,
      "ĠÐ¿ÑĢÐµÐ´": 1405,
      "ĠUn": 1406,
      "å½ĵ": 1407,
      "åİ»": 1408,
      "èĤ": 1409,
      "ÙĬÙħ": 1410,
      "Ð¸ÑģÑĤ": 1411,
      "ĠØĮ": 1412,
      "Ġdies": 1413,
      "ä½ĵ": 1414,
      "ĠÐ¿Ð¾Ð»": 1415,
      "Ø±Ùĥ": 1416,
      "æĻ": 1417,
      "éĥ¨": 1418,
      "ile": 1419,
      "ä¸İ": 1420,
      "sen": 1421,
      "ÐºÐ¾": 1422,
      "Ġà¤ħ": 1423,
      "å§": 1424,
      "ÙĪÙĤ": 1425,
      "ai": 1426,
      "gen": 1427,
      "we": 1428,
      "nen": 1429,
      "ç¨": 1430,
      "Ø¨ÙĬ": 1431,
      "uld": 1432,
      "form": 1433,
      "Î¼Îµ": 1434,
      "ĠÐ´Ð»Ñı": 1435,
      "Ø¨Ø±": 1436,
      "Ġsh": 1437,
      "æĥ³": 1438,
      "áºŃ": 1439,
      "ĠÃ§": 1440,
      "Ġmem": 1441,
      "ĠØ§ÙĦÙģ": 1442,
      "ĈĈ": 1443,
      "ahr": 1444,
      "æį": 1445,
      "rom": 1446,
      "éĹ´": 1447,
      "Ä±l": 1448,
      "ĠsiÄĻ": 1449,
      "èģ": 1450,
      "ç¾İ": 1451,
      "Ġap": 1452,
      "ÐµÐ³": 1453,
      "Ġgo": 1454,
      "ide": 1455,
      "ĠÎŃ": 1456,
      "ĠÑħ": 1457,
      "Ġwer": 1458,
      "éĩį": 1459,
      "Ġà¤°": 1460,
      "äºĽ": 1461,
      "ama": 1462,
      "Ġwy": 1463,
      "ĠSch": 1464,
      "åĲĪ": 1465,
      "ĠÐ·Ð°": 1466,
      "Î½Î¿": 1467,
      "ćć": 1468,
      "Ðŀ": 1469,
      "à¤¶": 1470,
      "ĠÐł": 1471,
      "Ġcan": 1472,
      "ĠÄĳá»": 1473,
      "æľĪ": 1474,
      "amb": 1475,
      "æıĲ": 1476,
      "ih": 1477,
      "Ð°Ð½Ð¸Ñı": 1478,
      "ĠÐľ": 1479,
      "ÐºÐ¸": 1480,
      "Æ¡": 1481,
      "Ġà¤µ": 1482,
      "Ġcu": 1483,
      "Ð¡": 1484,
      "åľº": 1485,
      "sp": 1486,
      "ive": 1487,
      "aus": 1488,
      "ran": 1489,
      "Ø§Ø³Øª": 1490,
      "å±ķ": 1491,
      "ÐºÐ°": 1492,
      "åĿ": 1493,
      "çķ": 1494,
      "ÐµÐ¶": 1495,
      "Ð¸ÑĩÐµÑģÐº": 1496,
      "Ø¤": 1497,
      "åĬł": 1498,
      "tern": 1499,
      "ĠVer": 1500,
      "Ġdass": 1501,
      "ica": 1502,
      "Ġwa": 1503,
      "mp": 1504,
      "ØŃØ¯": 1505,
      "me": 1506,
      "ge": 1507,
      "ÙĪØ¹": 1508,
      "çĤ¹": 1509,
      "ĠØ§ÙĦØ±": 1510,
      "æĥħ": 1511,
      "ï¼Ł": 1512,
      "çŃī": 1513,
      "Ġ6": 1514,
      "ç¬¬": 1515,
      "dz": 1516,
      "æĦı": 1517,
      "ÏĦÎ¹Îº": 1518,
      "éķ¿": 1519,
      "ä¸ŃåĽ½": 1520,
      "à¥¤": 1521,
      "ini": 1522,
      "ted": 1523,
      "ks": 1524,
      "ĠâĢĶ": 1525,
      "Ġum": 1526,
      "one": 1527,
      "ÑĭÐµ": 1528,
      "èµ·": 1529,
      "Ã¡n": 1530,
      "Ð¾Ñĩ": 1531,
      "Ġher": 1532,
      "her": 1533,
      "åĮĸ": 1534,
      "ÙĬØ§": 1535,
      "ÑĭÐ²": 1536,
      "ÏĦÎ¹": 1537,
      "Ġpo": 1538,
      "éļ": 1539,
      "Ġtak": 1540,
      "Ð°Ð¼Ð¸": 1541,
      "åĬ¡": 1542,
      "ando": 1543,
      "ÑĥÐ¶": 1544,
      "ep": 1545,
      "åĽł": 1546,
      "ĠØ§ÙĦØ®": 1547,
      "å°Ĩ": 1548,
      "á»§": 1549,
      "Ġson": 1550,
      "æł·": 1551,
      "ĠÏĦÎ·ÏĤ": 1552,
      "Ġpre": 1553,
      "ĠØ§ÙĨ": 1554,
      "ÙĬØ³": 1555,
      "Ġwar": 1556,
      "ä»İ": 1557,
      "å·±": 1558,
      "Ð½Ð¸Ðº": 1559,
      "ÑģÐ¿": 1560,
      "igen": 1561,
      "å»": 1562,
      "ÐĴ": 1563,
      "ĠÐ¸Ð½": 1564,
      "ungen": 1565,
      "Ġdis": 1566,
      "Î¿Ïį": 1567,
      "Ġpod": 1568,
      "æģ": 1569,
      "ĠÎ±ÏĢ": 1570,
      "Ġcomp": 1571,
      "Ø§Øµ": 1572,
      "æĽ´": 1573,
      "Î¾": 1574,
      "fer": 1575,
      "ÙĥÙĨ": 1576,
      "ĠÑĤÐ¾": 1577,
      "Î»Î»": 1578,
      "Ġpu": 1579,
      "ĠmÃ¡s": 1580,
      "èĩªå·±": 1581,
      "Ġwill": 1582,
      "ĠÐ±ÑĭÐ»": 1583,
      "ĠØ§ÙĦØªÙĬ": 1584,
      "èµĦ": 1585,
      "ome": 1586,
      "Ġvá»": 1587,
      "Ð¸ÑĤÐµÐ»ÑĮ": 1588,
      "à¤ı": 1589,
      "ĠÐĺ": 1590,
      "Ġà¤Ĩ": 1591,
      "do": 1592,
      "ÑģÑĤÐ²ÐµÐ½": 1593,
      "åĨħ": 1594,
      "no": 1595,
      "Ð½Ðµ": 1596,
      "æ°ĳ": 1597,
      "Ð°Ð±Ð¾ÑĤ": 1598,
      "ste": 1599,
      "Ġuns": 1600,
      "Ġx": 1601,
      "ĠÐ¼Ð¾Ð¶": 1602,
      "ika": 1603,
      "ÑĥÐ¼": 1604,
      "go": 1605,
      "ç§į": 1606,
      "ciones": 1607,
      "Ġbu": 1608,
      "Ġ200": 1609,
      "å¥¹": 1610,
      "ÐŁ": 1611,
      "Î±Î½": 1612,
      "ĠÏĦÎ·Î½": 1613,
      "lo": 1614,
      "à¤¡": 1615,
      "ka": 1616,
      "out": 1617,
      "æĢ§": 1618,
      "ki": 1619,
      "ĠØ§ÙĦØµ": 1620,
      "ĠvÃł": 1621,
      "ĠÙĪØª": 1622,
      "æĶ¿": 1623,
      "ĠÐĲ": 1624,
      "erson": 1625,
      "éľ": 1626,
      "Ġhas": 1627,
      "åºĶ": 1628,
      "ĠØ§ÙĦÙĥ": 1629,
      "na": 1630,
      "ÐµÐ½ÑĮ": 1631,
      "ÎµÏĤ": 1632,
      "ido": 1633,
      "ĠlÃł": 1634,
      "zen": 1635,
      "amp": 1636,
      "ÐµÐ¿": 1637,
      "),": 1638,
      "ÎµÎ¯": 1639,
      "à¥ĭà¤Ĥ": 1640,
      "æĸĩ": 1641,
      "Ġsind": 1642,
      "Ã¡c": 1643,
      "åº¦": 1644,
      "ĠÙħØ§": 1645,
      "ÑĥÑĢ": 1646,
      "ales": 1647,
      "åĳĺ": 1648,
      "è¢": 1649,
      "ÑĭÑħ": 1650,
      "Ã¶r": 1651,
      "Ð¾Ð¼Ñĥ": 1652,
      "æ¯Ķ": 1653,
      "Ġdur": 1654,
      "Ġ,": 1655,
      "ĠØ·": 1656,
      "éĹ®": 1657,
      "ÙĪØ§": 1658,
      "Ġmy": 1659,
      "ĠØ£ÙĪ": 1660,
      "Ä±m": 1661,
      "Ä±k": 1662,
      "å¹¶": 1663,
      "ç©": 1664,
      "æŀľ": 1665,
      "Ġoder": 1666,
      "Ð½Ð¾ÑģÑĤÐ¸": 1667,
      "Ġra": 1668,
      "ult": 1669,
      "ĠØ§ÙĦØ°": 1670,
      "æ¬¡": 1671,
      "ĠÏĮ": 1672,
      "ĠÙĦØ§": 1673,
      "ÙģÙĬ": 1674,
      "åĵģ": 1675,
      "ĠÐ²ÑģÐµ": 1676,
      "éĢļ": 1677,
      "Ġtra": 1678,
      "ĠPro": 1679,
      "å¤ĸ": 1680,
      "aya": 1681,
      "uh": 1682,
      "Ġwerden": 1683,
      "Î¯Î½": 1684,
      "åķ": 1685,
      "Ġcomo": 1686,
      "ĠÐ¢": 1687,
      "éĽ": 1688,
      "ity": 1689,
      "áº§": 1690,
      "ass": 1691,
      "ment": 1692,
      "ĠAr": 1693,
      "able": 1694,
      "çĪ": 1695,
      "ĠcÃ³": 1696,
      "ĠÑģÐ¾": 1697,
      "à¤ļ": 1698,
      "ÙħØ©": 1699,
      "ĠÎºÎ±": 1700,
      "åĪ©": 1701,
      "åı¯ä»¥": 1702,
      "Æ°á»Ŀ": 1703,
      "ehr": 1704,
      "Ġag": 1705,
      "ĠÃ¼ber": 1706,
      "Ġkon": 1707,
      "ÐµÑĪ": 1708,
      "Ġ7": 1709,
      "ight": 1710,
      "Ã®": 1711,
      "ĠØ¹ÙĦÙĬ": 1712,
      "esch": 1713,
      "ĠCh": 1714,
      "uz": 1715,
      "Ġet": 1716,
      "Ġgr": 1717,
      "ï¼ī": 1718,
      "Î¶": 1719,
      "æ²¡æľī": 1720,
      "ä¿¡": 1721,
      "iáº¿": 1722,
      "Ġ10": 1723,
      "ï¼Ī": 1724,
      "Ø¹ÙĦ": 1725,
      "ÑĢÐ°Ð½": 1726,
      "Ġsa": 1727,
      "ä¿Ŀ": 1728,
      "çī¹": 1729,
      "çĽ®": 1730,
      "Ġà¤¤": 1731,
      "oh": 1732,
      "å¸¸": 1733,
      "çĽ¸": 1734,
      "ĠEr": 1735,
      "ĠØ§ÙĦÙĦÙĩ": 1736,
      "èī": 1737,
      "åıª": 1738,
      "ĠÐĶ": 1739,
      "di": 1740,
      "Ġwor": 1741,
      "Ð°Ñħ": 1742,
      "å¢": 1743,
      "pe": 1744,
      "Å¼e": 1745,
      "åģļ": 1746,
      "Ð¾Ð»ÑĮÐºÐ¾": 1747,
      "Ð½Ð¾Ðµ": 1748,
      "ÙĤØ©": 1749,
      "ite": 1750,
      "ans": 1751,
      "ark": 1752,
      "ç³": 1753,
      "å»º": 1754,
      "çŁ¥": 1755,
      "åĪ¶": 1756,
      "ÙĦØ©": 1757,
      "ft": 1758,
      "ØªÙĩ": 1759,
      "ja": 1760,
      "ï¼ģ": 1761,
      "ĠØ°": 1762,
      "Ġvor": 1763,
      "ÑĢÐµÐ¼": 1764,
      "ç®¡": 1765,
      "ein": 1766,
      "ç½ĳ": 1767,
      "Ġnach": 1768,
      "è¡¨": 1769,
      "za": 1770,
      "Ð¾Ðµ": 1771,
      "ä½į": 1772,
      "å·²": 1773,
      "ick": 1774,
      "Ġà¤ķà¤°": 1775,
      "etz": 1776,
      "'s": 1777,
      "Ø°Ùĩ": 1778,
      "è®¾": 1779,
      "ice": 1780,
      "Ø¹Ø©": 1781,
      "Ġcont": 1782,
      "Ġnoch": 1783,
      "ku": 1784,
      "ÐĿ": 1785,
      "ain": 1786,
      "iÅŁ": 1787,
      "Ø£ÙĨ": 1788,
      "Ġho": 1789,
      "Ġgen": 1790,
      "nya": 1791,
      "uer": 1792,
      "!!": 1793,
      "Ð°Ð³": 1794,
      "uest": 1795,
      "age": 1796,
      "ØªØ±": 1797,
      "ĠÐ¸Ð¼": 1798,
      "æĺİ": 1799,
      "Ġbut": 1800,
      "Ġthá»": 1801,
      "çł": 1802,
      "Ø§Ø·": 1803,
      "æīĭ": 1804,
      "âĢĶ": 1805,
      "ÑģÐ»Ð¸": 1806,
      "Ø¨Ø©": 1807,
      "Ġ8": 1808,
      "é£": 1809,
      "æĹł": 1810,
      "Ø§Ùĩ": 1811,
      "è¢«": 1812,
      "ĠÎ¸": 1813,
      "ados": 1814,
      "Ä±ÅŁ": 1815,
      "æŁ": 1816,
      "10": 1817,
      "ĠÐ½Ð¾": 1818,
      "æķĻ": 1819,
      "Ġfrom": 1820,
      "ÙĳÙİ": 1821,
      "é¢ĺ": 1822,
      "ÙħØ±": 1823,
      "aÅŁ": 1824,
      "ĠÎ³Î¹Î±": 1825,
      "å®ī": 1826,
      "åı¸": 1827,
      "èĭ": 1828,
      "port": 1829,
      "åıĬ": 1830,
      "Ġmo": 1831,
      "bre": 1832,
      "Ð¶Ðµ": 1833,
      "å¹³": 1834,
      "æŃ£": 1835,
      "éĶ": 1836,
      "ĠÑģÐ¿": 1837,
      "ca": 1838,
      "ÏİÎ½": 1839,
      "ä¸ī": 1840,
      "ÑĭÐ¹": 1841,
      "ÙĬØ¹": 1842,
      "ĠÐºÐ¾Ð½": 1843,
      "Ġpar": 1844,
      "èº": 1845,
      "Ġup": 1846,
      "ĠÐ³Ð¾": 1847,
      "Ð°ÑİÑĤ": 1848,
      "mo": 1849,
      "ÐĲ": 1850,
      "åħ¥": 1851,
      "æ¶": 1852,
      "ĠThe": 1853,
      "Ġreal": 1854,
      "ĠÐ¾Ð´": 1855,
      "è®©": 1856,
      "ĠEn": 1857,
      "ts": 1858,
      "Ġtá»": 1859,
      "ÑģÑĤÐ²Ð°": 1860,
      "ĠÏĢÎ¿Ïħ": 1861,
      "ÐºÐ°Ð·": 1862,
      "lem": 1863,
      "æŃ¤": 1864,
      "Ð½Ð¾ÑģÑĤÑĮ": 1865,
      "å·¥ä½ľ": 1866,
      "ould": 1867,
      "áº¡i": 1868,
      "ÑĢÑĥÐ³": 1869,
      "Îĳ": 1870,
      "Ñĳ": 1871,
      "æĸ¯": 1872,
      "ru": 1873,
      "èĲ": 1874,
      "çĶµ": 1875,
      "Ġkann": 1876,
      "Ġbis": 1877,
      "ĠÙĦÙħ": 1878,
      "ial": 1879,
      "que": 1880,
      "æľŁ": 1881,
      "Ľi": 1882,
      "ÙĪØ¬": 1883,
      "çĻ": 1884,
      "ØªÙĬ": 1885,
      "ĠÎ·": 1886,
      "Ø±Ùģ": 1887,
      "ÑĥÐ»": 1888,
      "Ġod": 1889,
      "19": 1890,
      "ÏģÎ¬": 1891,
      "ÐµÐµ": 1892,
      "asi": 1893,
      "æķ°": 1894,
      "Ġha": 1895,
      "ÐµÑĤÑģÑı": 1896,
      "ÙĨÙĬ": 1897,
      "æ´»": 1898,
      "ĠÎ±ÏĢÏĮ": 1899,
      "ĠÏĩ": 1900,
      "ĠÐ±ÑĥÐ´": 1901,
      "åĮº": 1902,
      "áº¥t": 1903,
      "ear": 1904,
      "ĠÐ³Ð¾Ð´": 1905,
      "ç¨ĭ": 1906,
      "ä¸¤": 1907,
      "Ø§Ø¶": 1908,
      "ç»Ļ": 1909,
      "Ġmak": 1910,
      "Ð¾ÑĢÐ¼": 1911,
      "Ġbei": 1912,
      "Ġsin": 1913,
      "ĠÐ¾Ñģ": 1914,
      "ĠÐµÐ³Ð¾": 1915,
      "ack": 1916,
      "ÙĪÙĬ": 1917,
      "Ġà¤Ń": 1918,
      "ç³»": 1919,
      "ua": 1920,
      "ĠÐ¿ÑĢÐ¸": 1921,
      "ÙĥÙĦ": 1922,
      "ÐµÐºÑĤ": 1923,
      "wo": 1924,
      "Ġà¤Ĺ": 1925,
      "ante": 1926,
      "ico": 1927,
      "Ġmeng": 1928,
      "ãĢĤâĢĿ": 1929,
      "å£": 1930,
      "be": 1931,
      "ĠÙĥØ§ÙĨ": 1932,
      "ÑĢÐµÐ´": 1933,
      "Ġwird": 1934,
      "ali": 1935,
      "åĲį": 1936,
      "ert": 1937,
      "ata": 1938,
      "ven": 1939,
      "Ġrec": 1940,
      "Ġ9": 1941,
      "Äĥ": 1942,
      "Î»Î¿": 1943,
      "ina": 1944,
      "ÏĦÎ¬": 1945,
      "Ø§Ø®": 1946,
      "ç¡": 1947,
      "Ġpos": 1948,
      "ĠÐ¸Ð»Ð¸": 1949,
      "ĠØº": 1950,
      "rit": 1951,
      "Ġsi": 1952,
      "ĠAl": 1953,
      "éĩĳ": 1954,
      "ĠÑģÐ²Ð¾": 1955,
      "Ġma": 1956,
      "ä»Ģ": 1957,
      "ry": 1958,
      "æĪĸ": 1959,
      "ĠÙĩØ°Ø§": 1960,
      "èº«": 1961,
      "åįģ": 1962,
      "Ġ...": 1963,
      "ä»ĸä»¬": 1964,
      "Ġperson": 1965,
      "è½¦": 1966,
      "ĠÐ²Ð¾Ð·": 1967,
      "ime": 1968,
      "ish": 1969,
      "ied": 1970,
      "ord": 1971,
      "Ġop": 1972,
      "ä»£": 1973,
      "Ġmi": 1974,
      "Ð½Ð¾Ð²": 1975,
      "á»§a": 1976,
      "ÑĥÐ¿": 1977,
      "Ðļ": 1978,
      "ÙĥØ±": 1979,
      "ĠÑĢÐ°Ñģ": 1980,
      "Ø´Ø±": 1981,
      "ÑĢÐ¾Ð²": 1982,
      "Ġsein": 1983,
      "ÎµÎ½": 1984,
      "åıĳå±ķ": 1985,
      "è§£": 1986,
      "éĩı": 1987,
      "ĠØ§ÙĦÙĪ": 1988,
      "Ð°Ð»Ð°": 1989,
      "Ð°Ð»Ð¸": 1990,
      "Ã¤t": 1991,
      "Ð¾Ð³Ð´Ð°": 1992,
      "tuk": 1993,
      "och": 1994,
      "are": 1995,
      "any": 1996,
      "èĬ": 1997,
      "Ġcá»§a": 1998,
      "Ġjed": 1999,
      "ros": 2000,
      "á»į": 2001,
      "æį®": 2002,
      "åħ¬åı¸": 2003,
      "Ġkom": 2004,
      "Î¹Ïĥ": 2005,
      "Ð°ÑĨÐ¸Ð¸": 2006,
      "Ø¯ÙĬ": 2007,
      "ĠÏĥÏħ": 2008,
      "Ð°ÑĤÐµÐ»ÑĮ": 2009,
      "Ð»ÐµÐ½": 2010,
      "ćĈ": 2011,
      "akt": 2012,
      "Æ°á»£": 2013,
      "Ø¨ÙĦ": 2014,
      "ure": 2015,
      "Ð¸Ð±": 2016,
      "ĠÑĨ": 2017,
      "Ã¤n": 2018,
      "Ġthey": 2019,
      "Ð¸ÑĨ": 2020,
      "ungs": 2021,
      "è®¡": 2022,
      "isi": 2023,
      "Ġpued": 2024,
      "ĠÐºÐ¾Ð¼": 2025,
      "anz": 2026,
      "000": 2027,
      "min": 2028,
      "ä»Ģä¹Ī": 2029,
      "oy": 2030,
      "ĠØ§ÙĦØ·": 2031,
      "ÅĽci": 2032,
      "Ġpart": 2033,
      "ĠÑģÐ°Ð¼": 2034,
      "ĠÑĢÐ°Ð±Ð¾ÑĤ": 2035,
      "ny": 2036,
      "Ä±z": 2037,
      "ç¥": 2038,
      "é©": 2039,
      "ores": 2040,
      "Ð¸Ð»Ð¸": 2041,
      "Ø¯Ø©": 2042,
      "Ð°Ð½Ð¸Ðµ": 2043,
      "Ġget": 2044,
      "èĪ": 2045,
      "Ġmuch": 2046,
      "Ġcl": 2047,
      "ç¤¾": 2048,
      "Ġ0": 2049,
      "é¦": 2050,
      "akan": 2051,
      "è¿Ļä¸ª": 2052,
      "res": 2053,
      "Ġem": 2054,
      "ä»»": 2055,
      "Ġinc": 2056,
      "Î¿ÏħÎ½": 2057,
      "ĠÎĳ": 2058,
      "Ġà¤ī": 2059,
      "éĴ": 2060,
      "Ġu": 2061,
      "Ġinter": 2062,
      "ĠâĢŀ": 2063,
      "Ð°Ñİ": 2064,
      "Ġeinen": 2065,
      "Ø§Ø±Ø©": 2066,
      "ami": 2067,
      "Ġout": 2068,
      "Ð½Ð°Ñı": 2069,
      "æĤ": 2070,
      "Ġdengan": 2071,
      "æĦŁ": 2072,
      "ÑĢÐ°Ð·": 2073,
      "ÙĤÙĬ": 2074,
      "Ġnur": 2075,
      "éĹ¨": 2076,
      "æ¡": 2077,
      "ÑĪÐµ": 2078,
      "asa": 2079,
      "Ġsol": 2080,
      "ćï¼Į": 2081,
      "ey": 2082,
      "à¤§": 2083,
      "ita": 2084,
      "iem": 2085,
      "åĸ": 2086,
      "ces": 2087,
      "tra": 2088,
      "æ·": 2089,
      "æĬ¥": 2090,
      "ji": 2091,
      "ÏģÎ¯": 2092,
      "Ø®Ø±": 2093,
      "ĠÑĥÑĩ": 2094,
      "ĠÐ»Ñİ": 2095,
      "uss": 2096,
      "Ø§Ø²": 2097,
      "Ġact": 2098,
      "Ð¸ÑĢÐ¾Ð²": 2099,
      "ÏĦÎ±Î¹": 2100,
      "ÎŃÏĤ": 2101,
      "co": 2102,
      "era": 2103,
      "ike": 2104,
      "ild": 2105,
      "Ġaber": 2106,
      "ĠiÃ§": 2107,
      "ech": 2108,
      "à¤¼": 2109,
      "Ð»Ñİ": 2110,
      "Ġcons": 2111,
      "æİ¥": 2112,
      "éľĢ": 2113,
      "ç±": 2114,
      "cial": 2115,
      "ĠÏĦÎ±": 2116,
      "Ġhaben": 2117,
      "ç´": 2118,
      "Ð°ÐµÑĤÑģÑı": 2119,
      "ink": 2120,
      "ä»¶": 2121,
      "Ðĺ": 2122,
      "ĠÐ´Ð¾Ð»": 2123,
      "¥¿": 2124,
      "ĠÐ¿ÑĢÐ°Ð²": 2125,
      "iento": 2126,
      "ÙĪØ¨": 2127,
      "à¥Īà¤Ĥ": 2128,
      "lan": 2129,
      "èĢģ": 2130,
      "åıĹ": 2131,
      "åĽŀ": 2132,
      "Ġjest": 2133,
      "ÑĤÐµÑĢ": 2134,
      "çĲĥ": 2135,
      "Ġsel": 2136,
      "ÙĬÙģ": 2137,
      "AN": 2138,
      "yn": 2139,
      "ÙĪÙģ": 2140,
      "éħ": 2141,
      "ÙĪØ³": 2142,
      "ÑĢÐ¸": 2143,
      "ãĢĬ": 2144,
      "ben": 2145,
      "æľį": 2146,
      "Ø§ÙĦÙħ": 2147,
      "itt": 2148,
      "ÅĦ": 2149,
      "ãĢĭ": 2150,
      "ĠÙĥÙĦ": 2151,
      "ĠØªØ¹": 2152,
      "áº¯": 2153,
      "Ķà¤°": 2154,
      "Ġni": 2155,
      "Ä°": 2156,
      "çľŁ": 2157,
      "ÏģÏĮ": 2158,
      "Ã£": 2159,
      "éĿŀ": 2160,
      "ili": 2161,
      "è§Ħ": 2162,
      "åŁº": 2163,
      "20": 2164,
      "ĠÏĥÏĦÎ¿": 2165,
      "ÑĤÑĮ": 2166,
      "à¤·": 2167,
      "è¥¿": 2168,
      "Ð½Ñı": 2169,
      "ĠÎķ": 2170,
      "æĬĬ": 2171,
      "ischen": 2172,
      "Î¹Î¿": 2173,
      "Ġger": 2174,
      "Ġgel": 2175,
      "Ġjak": 2176,
      "ev": 2177,
      "ä½¿": 2178,
      "æĢ»": 2179,
      "Ġtu": 2180,
      "Ġini": 2181,
      "ÙĥÙĪÙĨ": 2182,
      "åĲĦ": 2183,
      "å¼º": 2184,
      "è®¤": 2185,
      "Ð½Ð¾Ð¼": 2186,
      "à¤ĸ": 2187,
      "ĠDie": 2188,
      "ĠkhÃ´ng": 2189,
      "Ã¬nh": 2190,
      "ame": 2191,
      "inde": 2192,
      "esi": 2193,
      "ĠÙĪÙĩ": 2194,
      "Th": 2195,
      "Ġsus": 2196,
      "á»ĭ": 2197,
      "ire": 2198,
      "Ð¾Ð²Ð¾ÑĢ": 2199,
      "ĠkÃ¶n": 2200,
      "ç§ĳ": 2201,
      "ĠÎµÏĢ": 2202,
      "Ġpe": 2203,
      "The": 2204,
      "Ġmer": 2205,
      "ÑĥÐ±": 2206,
      "è¯Ŀ": 2207,
      "Ġ20": 2208,
      "ÙĢÙĢ": 2209,
      "Ġabout": 2210,
      "äº¤": 2211,
      "Ġà¤ªà¤°": 2212,
      "Ġone": 2213,
      "çī©": 2214,
      "ugh": 2215,
      "Ð¾Ð±Ñĭ": 2216,
      "Ġmed": 2217,
      "æµ·": 2218,
      "ÑĢÐ¾": 2219,
      "ä¸ĸ": 2220,
      "Ã¢n": 2221,
      "ÐµÐ½Ð¸Ð¸": 2222,
      "Ġà¤Ķà¤°": 2223,
      "ida": 2224,
      "æĬĢ": 2225,
      "Ġmore": 2226,
      "con": 2227,
      "á»¯": 2228,
      "æ¯ı": 2229,
      "ÅĤo": 2230,
      "ga": 2231,
      "å°±æĺ¯": 2232,
      "ank": 2233,
      "ÙĪØ¶": 2234,
      "å¼ı": 2235,
      "æĮģ": 2236,
      "ÙĦØ§Ùħ": 2237,
      "æľ¯": 2238,
      "beit": 2239,
      "Ġku": 2240,
      "ĠÅŁ": 2241,
      "ĠÙħØŃ": 2242,
      "iert": 2243,
      "ĠÏĢÏģÎ¿": 2244,
      "ÐºÑĥ": 2245,
      "lam": 2246,
      "Ġviel": 2247,
      "ÏĥÎµÎ¹": 2248,
      "man": 2249,
      "ase": 2250,
      "ÙĨØª": 2251,
      "Ġmal": 2252,
      "hal": 2253,
      "ko": 2254,
      "ty": 2255,
      "çĥ": 2256,
      "ise": 2257,
      "ige": 2258,
      "mas": 2259,
      "Ġcho": 2260,
      "ÅĤa": 2261,
      "åĲĳ": 2262,
      "ater": 2263,
      "ign": 2264,
      "ĠÐĳ": 2265,
      "ĠÐ´ÐµÐ»": 2266,
      "éĹ®é¢ĺ": 2267,
      "Ð²ÐµÑĤ": 2268,
      "Ø¨Ø¯": 2269,
      "Ġuntuk": 2270,
      "ĠÙĩØ°Ùĩ": 2271,
      "ĠÐ¶Ðµ": 2272,
      "Ġeiner": 2273,
      "Ġtem": 2274,
      "ĠÙĪÙħ": 2275,
      "åĪ«": 2276,
      "ace": 2277,
      "ÂŃ": 2278,
      "ĠÏĨ": 2279,
      "com": 2280,
      "eben": 2281,
      "Ġten": 2282,
      "Ġà¤ĩ": 2283,
      "æ±Ĥ": 2284,
      "Ġza": 2285,
      "ä¼ģ": 2286,
      "ania": 2287,
      "hen": 2288,
      "Ġcre": 2289,
      "Ġ15": 2290,
      "ĠSp": 2291,
      "ĠÎł": 2292,
      "Ġgi": 2293,
      "Ø³Ø¨": 2294,
      "á»Ļt": 2295,
      "ÑģÑĤÐ²Ð¾": 2296,
      "äºĮ": 2297,
      "ĠÏĥÏĦÎ·": 2298,
      "ÎŁ": 2299,
      "Ä±nda": 2300,
      "çĸ": 2301,
      "èĦ": 2302,
      "Ġdu": 2303,
      "Ġrel": 2304,
      "à¤Ī": 2305,
      "Îķ": 2306,
      "ĠÐ²ÑĢÐµÐ¼": 2307,
      "now": 2308,
      "ç»ĵ": 2309,
      "Ġà¤ļ": 2310,
      "ero": 2311,
      "èĥ": 2312,
      "ej": 2313,
      "ions": 2314,
      "Î¼Î¿": 2315,
      "å°ĳ": 2316,
      "Ġmis": 2317,
      "ĠÎ²": 2318,
      "12": 2319,
      "Ø¬ÙĦ": 2320,
      "ĠÐ·Ð°Ðº": 2321,
      "amos": 2322,
      "ĠÙĪØ£": 2323,
      "èģĶ": 2324,
      "ÐµÑħ": 2325,
      "Ø¬Ùħ": 2326,
      "lt": 2327,
      "Ġinform": 2328,
      "Ġsal": 2329,
      "ĠØ«": 2330,
      "ÑģÑĤÐ°Ð²": 2331,
      "ĠØ§ÙĦØ°ÙĬ": 2332,
      "æīĵ": 2333,
      "ÑĢÐ°Ð²": 2334,
      "ĠÄ°": 2335,
      "Î±ÏĤ": 2336,
      "mal": 2337,
      "len": 2338,
      "å¥³": 2339,
      "çĶ±": 2340,
      "Ġmir": 2341,
      "æīį": 2342,
      "ĠÐ´ÑĢÑĥÐ³": 2343,
      "ĠØ§ÙĦØ«": 2344,
      "Ġih": 2345,
      "ØµÙĦ": 2346,
      "ti": 2347,
      "uro": 2348,
      "åķĨ": 2349,
      "ä¸ľ": 2350,
      "lÃ¼": 2351,
      "Ð¾Ñı": 2352,
      "Ġil": 2353,
      "Ġà¤¯": 2354,
      "Ġkar": 2355,
      "ç«ĭ": 2356,
      "ĠÐ´Ð¾": 2357,
      "alam": 2358,
      "dan": 2359,
      "ÙĬØ§Øª": 2360,
      "ÏīÏĤ": 2361,
      "ute": 2362,
      "Ġbel": 2363,
      "ose": 2364,
      "Ð°ÑĪ": 2365,
      "ç¼": 2366,
      "urs": 2367,
      "ras": 2368,
      "ÐºÑĤ": 2369,
      "ĠØ§": 2370,
      "à¤¥": 2371,
      "Ġbo": 2372,
      "Ø¯Ø±": 2373,
      "ĠØªØŃ": 2374,
      "ĠÐ¼Ñĭ": 2375,
      "ÙĦØ§ÙĦ": 2376,
      "Ð¼Ð¸": 2377,
      "ç¦": 2378,
      "ÙĥÙħ": 2379,
      "Î®ÏĤ": 2380,
      "ÙĨØ³": 2381,
      "ĠAb": 2382,
      "gun": 2383,
      "è®°": 2384,
      "Ø³Ùħ": 2385,
      "elt": 2386,
      "è¯¥": 2387,
      "wy": 2388,
      "åĢĻ": 2389,
      "'t": 2390,
      "Ð¸Ð³": 2391,
      "In": 2392,
      "çķĮ": 2393,
      "ĠÎ»": 2394,
      "Ð¢": 2395,
      "Ġsup": 2396,
      "ç»Ł": 2397,
      "Î¼ÎŃ": 2398,
      "èİ": 2399,
      "ä¼ģä¸ļ": 2400,
      "Ġmehr": 2401,
      "æ°´": 2402,
      "éª": 2403,
      "enden": 2404,
      "ĠÎ±Î½": 2405,
      "Ð°Ð½Ð¾Ð²": 2406,
      "pt": 2407,
      "Ð°Ñĩ": 2408,
      "Ø§Ø¯Ø©": 2409,
      "Ð´ÐµÐ»": 2410,
      "å°Ķ": 2411,
      "åıĺ": 2412,
      "lu": 2413,
      "Ġwenn": 2414,
      "ios": 2415,
      "á»±": 2416,
      "Ġdon": 2417,
      "Ġmas": 2418,
      "ĠÏĢÎ±": 2419,
      "ĠÐķ": 2420,
      "bar": 2421,
      "å¤Ħ": 2422,
      "ena": 2423,
      "Ø¯Ùħ": 2424,
      "cy": 2425,
      "les": 2426,
      "Ġ12": 2427,
      "ĠØ¨ÙĬÙĨ": 2428,
      "åħ±": 2429,
      "å®Į": 2430,
      "Ð¸Ð·Ð½": 2431,
      "Ġzum": 2432,
      "ĠÑĪ": 2433,
      "ĠGr": 2434,
      "adi": 2435,
      "Ġfin": 2436,
      "ï¼Ľ": 2437,
      "å¤´": 2438,
      "Ġeinem": 2439,
      "Î¿Î»": 2440,
      "åħĥ": 2441,
      "lÄ±": 2442,
      "ĠÏĥÎµ": 2443,
      "çĽ´": 2444,
      "Ġif": 2445,
      "ÏģÎ³": 2446,
      "iá»ģ": 2447,
      "Ġeste": 2448,
      "éĻ¢": 2449,
      "åĩł": 2450,
      "é¡¹": 2451,
      "Ø±Ø¶": 2452,
      "Ġtod": 2453,
      "ÑĨÐ¸Ð¸": 2454,
      "ÑĢÐ¾Ñģ": 2455,
      "Ġbl": 2456,
      "ØªØ¨": 2457,
      "ØµØ±": 2458,
      "Ġgib": 2459,
      "amente": 2460,
      "ĠTr": 2461,
      "Ġmay": 2462,
      "ä¸ĩ": 2463,
      "ĠÐ¿Ð»": 2464,
      "æĿ¡": 2465,
      "eren": 2466,
      "ade": 2467,
      "11": 2468,
      "cht": 2469,
      "Ġzur": 2470,
      "anya": 2471,
      "èĩ³": 2472,
      "Ñį": 2473,
      "ĠÐ¾Ð¿": 2474,
      "Î¬Î½": 2475,
      "ä»Ĭ": 2476,
      "Î¯Î½Î±Î¹": 2477,
      "ĠÐ±Ð¾Ð»ÑĮ": 2478,
      "ĠÐĵ": 2479,
      "ora": 2480,
      "ĠEs": 2481,
      "Ġhis": 2482,
      "ĠEin": 2483,
      "ÙĦÙģ": 2484,
      "chen": 2485,
      "Ø§Ø´": 2486,
      "ings": 2487,
      "Ġprob": 2488,
      "Ġreg": 2489,
      "Ġ18": 2490,
      "ÑıÐ·": 2491,
      "å¯¼": 2492,
      "\".": 2493,
      "Ġyap": 2494,
      "abil": 2495,
      "int": 2496,
      "Ġà¤¶": 2497,
      "Ġ..": 2498,
      "ular": 2499,
      "pa": 2500,
      "ĠQ": 2501,
      "Ġdar": 2502,
      "pro": 2503,
      "æł¼": 2504,
      "ĠÑĤÐ¾Ð»ÑĮÐºÐ¾": 2505,
      "è·¯": 2506,
      "atur": 2507,
      "ç¤º": 2508,
      "ĠÎļ": 2509,
      "ĠÏħ": 2510,
      "Ġtheir": 2511,
      "Ġprzy": 2512,
      "ieren": 2513,
      "ÐµÑĢÐ¶": 2514,
      "Ġany": 2515,
      "ĠÃ¶": 2516,
      "Ø§Ø«": 2517,
      "Æ°á»Ŀi": 2518,
      "Ø§Ø©": 2519,
      "Ð¾ÑģÑģ": 2520,
      "æ»": 2521,
      "å·²ç»ı": 2522,
      "ĠØ§ÙĦÙħØª": 2523,
      "ÐĶ": 2524,
      "å¦Ĥæŀľ": 2525,
      "Ð°ÑĤÑĮÑģÑı": 2526,
      "Ġpero": 2527,
      "è¿ĳ": 2528,
      "ĠÑĤÑĢ": 2529,
      "ÑĬ": 2530,
      "tÃ³": 2531,
      "zi": 2532,
      "æĪĺ": 2533,
      "Ġind": 2534,
      "nik": 2535,
      "ĠÏĦÏīÎ½": 2536,
      "ĠÐ¼Ð¾Ð¶ÐµÑĤ": 2537,
      "Ġhay": 2538,
      "Ġjust": 2539,
      "ĠØ¨ÙĨ": 2540,
      "åįķ": 2541,
      "act": 2542,
      "Î»Î·": 2543,
      "Ðł": 2544,
      "åĨį": 2545,
      "è´¹": 2546,
      "pon": 2547,
      "ĠaÃ±": 2548,
      "è¶Ĭ": 2549,
      "ÙĥØ§ÙĨ": 2550,
      "Ġwhat": 2551,
      "aft": 2552,
      "El": 2553,
      "ale": 2554,
      "á»©": 2555,
      "ä¸įæĺ¯": 2556,
      "æģ¯": 2557,
      "Ġseg": 2558,
      "Ġins": 2559,
      "Ġcar": 2560,
      "ani": 2561,
      "åĽ½å®¶": 2562,
      "Ġpol": 2563,
      "æĶ¾": 2564,
      "åĨ³": 2565,
      "ont": 2566,
      "Æ°á»£c": 2567,
      "åĪĽ": 2568,
      "Ã©n": 2569,
      "ÙħØ¯": 2570,
      "Ġpres": 2571,
      "å¸¦": 2572,
      "ER": 2573,
      "Î¿Î½": 2574,
      "egen": 2575,
      "iend": 2576,
      "ni": 2577,
      "ÏĦÏĮ": 2578,
      "æłĩ": 2579,
      "ä»·": 2580,
      "à¤Ń": 2581,
      "Ġpas": 2582,
      "let": 2583,
      "ei": 2584,
      "å®ĥ": 2585,
      "á»ĩ": 2586,
      "Ġlike": 2587,
      "éĺŁ": 2588,
      "æĹ¶åĢĻ": 2589,
      "Ã²": 2590,
      "Ġdari": 2591,
      "Ġ2018": 2592,
      "Ġwho": 2593,
      "èĻ": 2594,
      "ä¸ĵ": 2595,
      "ÙĤÙĦ": 2596,
      "å²": 2597,
      "å½±": 2598,
      "ç²": 2599,
      "ativ": 2600,
      "Î£": 2601,
      "keit": 2602,
      "ÑĥÑģ": 2603,
      "Ġmá»Ļt": 2604,
      "fen": 2605,
      "ou": 2606,
      "ren": 2607,
      "owa": 2608,
      "Ð¾Ð»ÑĮÐ·": 2609,
      "ĠØ§Ø³Øª": 2610,
      "iste": 2611,
      "Die": 2612,
      "è¾¾": 2613,
      "Ġev": 2614,
      "che": 2615,
      "ÏĥÎµ": 2616,
      "ĠÙĩÙĪ": 2617,
      "á»¥": 2618,
      "ĠØ¨Ø¹Ø¯": 2619,
      "ÑĥÐ½": 2620,
      "Ø¯ÙĬØ¯": 2621,
      "Ãły": 2622,
      "ÙģØ³": 2623,
      "ĠÐ¼ÐµÐ½": 2624,
      "çłĶ": 2625,
      "itu": 2626,
      "Ġmod": 2627,
      "Ġsome": 2628,
      "éĵ": 2629,
      "los": 2630,
      "Ø§ÙĨÙĬ": 2631,
      "Ġà¤ı": 2632,
      "emos": 2633,
      "Ġed": 2634,
      "Ġdurch": 2635,
      "iej": 2636,
      "Ġgeh": 2637,
      "Ð°Ð¶Ð´": 2638,
      "Ð³ÑĢ": 2639,
      "ÐºÐµ": 2640,
      "çģ": 2641,
      "è®®": 2642,
      "ĠÅ¼e": 2643,
      "lichen": 2644,
      "çĹ": 2645,
      "æĶ¶": 2646,
      "æĹ¶éĹ´": 2647,
      "ĠÐ¸Ñħ": 2648,
      "ĠØ£ÙĬ": 2649,
      "ÑĤÐ¸": 2650,
      "Ð½Ð°Ñĩ": 2651,
      "ĠÐ²Ð¾": 2652,
      "ĠÎ£": 2653,
      "Ġart": 2654,
      "ĠÎµÎ¯Î½Î±Î¹": 2655,
      "ÑĢÐ³": 2656,
      "ÏĦÎ®": 2657,
      "ĠÑģÐ¼": 2658,
      "ÑģÑĤÑĮ": 2659,
      "åİŁ": 2660,
      "ä½ķ": 2661,
      "ays": 2662,
      "åĽłä¸º": 2663,
      "æĪ¿": 2664,
      "Ġwould": 2665,
      "Ġtime": 2666,
      "Ġcz": 2667,
      "æĶ¹": 2668,
      "sk": 2669,
      "ÏģÎµ": 2670,
      "idak": 2671,
      "En": 2672,
      "wi": 2673,
      "ĠÐ£": 2674,
      "ken": 2675,
      "eri": 2676,
      "Å¼y": 2677,
      "Ä±nÄ±": 2678,
      "éĢī": 2679,
      "æĬķ": 2680,
      "ÑĤÐ¾Ð±Ñĭ": 2681,
      "ely": 2682,
      "Ð¾ÑģÑĮ": 2683,
      "Î»Î±": 2684,
      "Î¤": 2685,
      "Ġthere": 2686,
      "è§ģ": 2687,
      "ä¾Ľ": 2688,
      "ba": 2689,
      "30": 2690,
      "mente": 2691,
      "åı°": 2692,
      "åħĪ": 2693,
      "Ð´Ðµ": 2694,
      "è¿Ľè¡Į": 2695,
      "åıĪ": 2696,
      "Ġihr": 2697,
      "Ðķ": 2698,
      "Ð½Ð¸Ð¼": 2699,
      "Ø¹Ùħ": 2700,
      "è§ī": 2701,
      "Ĉï¼Į": 2702,
      "ikan": 2703,
      "Ø·ÙĦ": 2704,
      "ner": 2705,
      "é¢Ĩ": 2706,
      "ÙĬØª": 2707,
      "ç®¡çĲĨ": 2708,
      "Ġfr": 2709,
      "æĪ·": 2710,
      "á»Ł": 2711,
      "ÙĬØ±Ø©": 2712,
      "ÙĩØ±": 2713,
      "ger": 2714,
      "ÙĨØ©": 2715,
      "ha": 2716,
      "Ġhad": 2717,
      "Ġvers": 2718,
      "wie": 2719,
      "ĠÐ¾Ñĩ": 2720,
      "ĠÄĲ": 2721,
      "ĠÎ¤": 2722,
      "Ġunter": 2723,
      "ĠÐ¿Ð¾Ðº": 2724,
      "Ġty": 2725,
      "je": 2726,
      "Ðľ": 2727,
      "âĢĵ": 2728,
      "èį": 2729,
      "åı£": 2730,
      "Ġmich": 2731,
      "Ġour": 2732,
      "ĠØ§ÙĦÙĬ": 2733,
      "ĠÐµÑģÐ»Ð¸": 2734,
      "eth": 2735,
      "Î½Î·": 2736,
      "è°ĥ": 2737,
      "ÑģÐºÐ¾Ð¹": 2738,
      "ĠÐ±ÑĭÐ»Ð¾": 2739,
      "sel": 2740,
      "Ġprz": 2741,
      "ÙĩØ¯": 2742,
      "åı¯èĥ½": 2743,
      "ĠAus": 2744,
      "ĠØ°ÙĦÙĥ": 2745,
      "ç»Ħ": 2746,
      "è®º": 2747,
      "çļĦäºº": 2748,
      "ĠÎ±Ïħ": 2749,
      "ç¤¾ä¼ļ": 2750,
      "ther": 2751,
      "Î¿ÏħÏĤ": 2752,
      "è£": 2753,
      "land": 2754,
      "ĠÐŃ": 2755,
      "ĠØ¥ÙĨ": 2756,
      "ç¡®": 2757,
      "ario": 2758,
      "aten": 2759,
      "å¸Ī": 2760,
      "Ø¹Ø¶": 2761,
      "Ð¸ÑĤÐµÐ»": 2762,
      "ĠÐ¸ÑģÐ¿": 2763,
      "å®¢": 2764,
      "ćĆ": 2765,
      "åĬŀ": 2766,
      "åĳĬ": 2767,
      "Æ°Æ¡": 2768,
      "cie": 2769,
      "ç¾İåĽ½": 2770,
      "Ġbes": 2771,
      "ØŃØ©": 2772,
      "ĠkÃ¶nnen": 2773,
      "éĻħ": 2774,
      "our": 2775,
      "ĠÐ´Ð¾Ð»Ð¶": 2776,
      "ĠktÃ³": 2777,
      "Ġbr": 2778,
      "Î»Îµ": 2779,
      "Ð¸Ð¶": 2780,
      "Ġthem": 2781,
      "ese": 2782,
      "iÃªn": 2783,
      "èµ°": 2784,
      "ĠØ§ÙĦÙħÙĨ": 2785,
      "ĠÎľ": 2786,
      "ekt": 2787,
      "Ð¸Ð»ÑĮ": 2788,
      "çİ°åľ¨": 2789,
      "ÙĪØª": 2790,
      "Ġ[": 2791,
      "anie": 2792,
      "Ãºn": 2793,
      "ĠÐ¿Ð¾ÑģÐ»": 2794,
      "å¸ĥ": 2795,
      "ĠÙĪØ§ÙĦÙħ": 2796,
      "ĠiÃ§in": 2797,
      "Ġgro": 2798,
      "ĠJahr": 2799,
      "æ®": 2800,
      "ye": 2801,
      "ÙĤØ±": 2802,
      "emb": 2803,
      "wn": 2804,
      "erv": 2805,
      "è¿Ĳ": 2806,
      "Ø¯Ø§": 2807,
      "ĠØ²": 2808,
      "ĠÐ´Ð²": 2809,
      "ÐµÐ¼Ñĥ": 2810,
      "ĠÄĳÆ°á»£c": 2811,
      "200": 2812,
      "ĠIt": 2813,
      "æľįåĬ¡": 2814,
      "Ġsoll": 2815,
      "Ø¥ÙĨ": 2816,
      "Ġknow": 2817,
      "Ġdann": 2818,
      "larÄ±": 2819,
      "ilm": 2820,
      "Ġalso": 2821,
      "æ°Ķ": 2822,
      "Ġ/": 2823,
      "ĠcÃ¡c": 2824,
      "ĠØ¢": 2825,
      "Ġca": 2826,
      "Ġmin": 2827,
      "æµİ": 2828,
      "ĠÐ¿Ð¾Ð¼": 2829,
      "è¯ģ": 2830,
      "Ġprodu": 2831,
      "ĠØ¶": 2832,
      "Ø«Ø±": 2833,
      "é©¬": 2834,
      "Ġben": 2835,
      "ä¼ł": 2836,
      "ÐµÐ½Ð½Ð¾": 2837,
      "Ð½ÑĥÑİ": 2838,
      "Ġaut": 2839,
      "Ġba": 2840,
      "ĠÎ¸Î±": 2841,
      "cul": 2842,
      "ĠÑģÐ¾Ð±": 2843,
      "è´¨": 2844,
      "owie": 2845,
      "å¿«": 2846,
      "ĠÑģÐ¾Ð²": 2847,
      "æ¸¸": 2848,
      "Ġschon": 2849,
      "ÑĭÑĤ": 2850,
      "Æ°á»Ľ": 2851,
      "Ø®Øµ": 2852,
      "åĦ": 2853,
      "ĠPr": 2854,
      "Ð»ÐµÐ½Ð¸Ñı": 2855,
      "ĠÎ¬": 2856,
      "ĠÐ²Ð¸Ð´": 2857,
      "50": 2858,
      "áº§n": 2859,
      "ÅĤy": 2860,
      "ÐµÐ»Ð¾Ð²": 2861,
      "ĠÐ¿Ð¾ÑĤ": 2862,
      "æµģ": 2863,
      "Ġkat": 2864,
      "unt": 2865,
      "ende": 2866,
      "ØªØŃ": 2867,
      "encia": 2868,
      "ĠÐ½Ð°Ð¿": 2869,
      "âĢ¦âĢ¦": 2870,
      "AR": 2871,
      "æŃ¥": 2872,
      "Ġbet": 2873,
      "Ġdr": 2874,
      "åŁİ": 2875,
      "ical": 2876,
      "å¾·": 2877,
      "áº·": 2878,
      "ĠÙĬØ¹": 2879,
      "åĦ¿": 2880,
      "acht": 2881,
      "sten": 2882,
      "Ġprze": 2883,
      "ement": 2884,
      "éĢł": 2885,
      "Ġfre": 2886,
      "Ġay": 2887,
      "Ġsehr": 2888,
      "ÑĥÑīÐµ": 2889,
      "ä¹ł": 2890,
      "æĿĥ": 2891,
      "éľĢè¦ģ": 2892,
      "Ġwur": 2893,
      "ĠEl": 2894,
      "æİ¨": 2895,
      "èĤ²": 2896,
      "å§ĭ": 2897,
      "è¿Ļæł·": 2898,
      "ĠÐ±ÑĥÐ´ÐµÑĤ": 2899,
      "Ġ30": 2900,
      "ors": 2901,
      "Ġfind": 2902,
      "ĠÐ¾ÑĢÐ³": 2903,
      "Â».": 2904,
      "ÑĢÐ°ÑĤ": 2905,
      "atu": 2906,
      "las": 2907,
      "ÑıÑĤÑĮ": 2908,
      "tet": 2909,
      "æĮĩ": 2910,
      "ance": 2911,
      "à¤£": 2912,
      "....": 2913,
      "ĠÑĩÑĤÐ¾Ð±Ñĭ": 2914,
      "olog": 2915,
      "åħĭ": 2916,
      "Ð¸Ð¿": 2917,
      "Ø¡": 2918,
      "ĠÙĪØ³": 2919,
      "Ġyear": 2920,
      "ĠngÆ°á»Ŀi": 2921,
      "pres": 2922,
      "Ä±y": 2923,
      "Ġtien": 2924,
      "Ð°ÑĢÑĤ": 2925,
      "Ġbeen": 2926,
      "Ġcor": 2927,
      "ÑĢÐ¾Ð´": 2928,
      "ary": 2929,
      "ĠÏĦÎ¿Î½": 2930,
      "æº": 2931,
      "Ġ_": 2932,
      "å¢ŀ": 2933,
      "ÏĪ": 2934,
      "ÑģÑĮ": 2935,
      "eces": 2936,
      "çº§": 2937,
      "La": 2938,
      "ÑĢÑı": 2939,
      "åħ·": 2940,
      "é»": 2941,
      "éļ¾": 2942,
      "schen": 2943,
      "ç»ıæµİ": 2944,
      "ä¹¦": 2945,
      "Ġhabe": 2946,
      "ĠÐ¼Ð¾Ð¶Ð½Ð¾": 2947,
      "Ġ14": 2948,
      "por": 2949,
      "reat": 2950,
      "åĩĨ": 2951,
      "çĭ": 2952,
      "ÎºÎµ": 2953,
      "Äħc": 2954,
      "å¸Ĥåľº": 2955,
      "Ġbest": 2956,
      "Ġstr": 2957,
      "gram": 2958,
      "Ã¹": 2959,
      "ĠÙĪØ¨": 2960,
      "szy": 2961,
      "ØŁ": 2962,
      "ÐµÑģÑģ": 2963,
      "å¤ª": 2964,
      "å®¹": 2965,
      "ÙĬØ«": 2966,
      "èµĽ": 2967,
      "ider": 2968,
      "å¨": 2969,
      "Ð¸ÑĤÑģÑı": 2970,
      "Ġfir": 2971,
      "Ġwork": 2972,
      "cu": 2973,
      "çŁ¥éģĵ": 2974,
      "ĠÑģÐµÐ±": 2975,
      "leg": 2976,
      "ÏģÏī": 2977,
      "Ġpa": 2978,
      "ible": 2979,
      "Ġweit": 2980,
      "Ġtrong": 2981,
      "Ã¼ck": 2982,
      "Ġseb": 2983,
      "è§Ĩ": 2984,
      "adas": 2985,
      "Ã¼hr": 2986,
      "Ø·Ø©": 2987,
      "æ£": 2988,
      "ä½ı": 2989,
      "alah": 2990,
      "ĠnhÆ°": 2991,
      "Ġwhich": 2992,
      "æķ´": 2993,
      "Ġtidak": 2994,
      "Ø§ÙĦÙĬ": 2995,
      "ĠÏĢÎµ": 2996,
      "Ġpra": 2997,
      "á»ĵ": 2998,
      "ĠÐ¯": 2999,
      "ÙĪØ±Ø©": 3000,
      "åıĸ": 3001,
      "æ²»": 3002,
      "çĪ±": 3003,
      "åŃ©": 3004,
      "Ð¿ÑĢÐ°Ð²": 3005,
      "æ³¨": 3006,
      "ï¼ļâĢľ": 3007,
      "ĠØ§ÙĦÙħØ³": 3008,
      "ala": 3009,
      "aba": 3010,
      "Ġwhen": 3011,
      "ĠÐ¼Ð¾Ð³": 3012,
      "ento": 3013,
      "ĠÏĦÎ¿ÏħÏĤ": 3014,
      "æ·±": 3015,
      "Ġste": 3016,
      "å¾Īå¤ļ": 3017,
      "Ġ11": 3018,
      ".\"": 3019,
      "Ġaf": 3020,
      "ĠDe": 3021,
      "Ġmar": 3022,
      "Ġthan": 3023,
      "Ø§Ø±ÙĬ": 3024,
      "Ä±ÄŁ": 3025,
      "Ġhac": 3026,
      "Ġserv": 3027,
      "ä¸ĸçķĮ": 3028,
      "EN": 3029,
      "ubl": 3030,
      "Ġta": 3031,
      "own": 3032,
      "Ġinv": 3033,
      "é£İ": 3034,
      "Ø§Ø±Ø§Øª": 3035,
      "æĭī": 3036,
      "Ġsobre": 3037,
      "å¹¿": 3038,
      "ÐºÐ¾Ð²": 3039,
      "äºĨä¸Ģ": 3040,
      "åĶ": 3041,
      "agen": 3042,
      "liche": 3043,
      "ĠÐ±ÐµÐ·": 3044,
      "ĠÐ¿ÑĢÐ¾Ð²": 3045,
      "ations": 3046,
      "Ġmein": 3047,
      "ĠÐ±ÑĭÑĤÑĮ": 3048,
      "Ð°Ð½Ð¸Ð¸": 3049,
      "ĠTe": 3050,
      "åĥ": 3051,
      "ÙĪØ§Øª": 3052,
      "áº¡n": 3053,
      "Ð½ÑĭÐ¼Ð¸": 3054,
      "ØªØ¹": 3055,
      "åįĹ": 3056,
      "hat": 3057,
      "Ð»Ð°": 3058,
      "ä¹Ĳ": 3059,
      "ÙĬØ²": 3060,
      "ĠØ¹ÙĦÙĬÙĩ": 3061,
      "åŀ": 3062,
      "Ġile": 3063,
      "Ð¾Ð»Ð½": 3064,
      "èī²": 3065,
      "ĠÏĥÏĦÎ·Î½": 3066,
      "ĠÐ½Ð°Ñĩ": 3067,
      "ÑĤÐµ": 3068,
      "Ġpen": 3069,
      "Ġhel": 3070,
      "Ġesta": 3071,
      "ÙĪÙĦØ©": 3072,
      "ÑĭÐ¼": 3073,
      "ople": 3074,
      "æĺĵ": 3075,
      "etzt": 3076,
      "è±": 3077,
      "ĠÐ¿ÑĢÐ¾Ð´": 3078,
      "wer": 3079,
      "Ġnos": 3080,
      "ĠÐ¿Ð¾Ð»ÑĥÑĩ": 3081,
      "ated": 3082,
      "Ġfe": 3083,
      "å¤ĩ": 3084,
      "Ġhal": 3085,
      "Ġngh": 3086,
      "Ġge": 3087,
      "ret": 3088,
      "ÑĤÐ¾Ð²": 3089,
      "Î¹Î¬": 3090,
      "Ġwieder": 3091,
      "è¯Ĩ": 3092,
      "à¥Ģà¤Ĥ": 3093,
      "Ġitu": 3094,
      "Ġà¤ĸ": 3095,
      "Ġdalam": 3096,
      "äºļ": 3097,
      "åıį": 3098,
      "leri": 3099,
      "ØªÙī": 3100,
      "ĠNo": 3101,
      "áº£n": 3102,
      "ĠDas": 3103,
      "ÙģØ±": 3104,
      "Ð»ÑİÑĩ": 3105,
      "aha": 3106,
      "ç©¶": 3107,
      "iá»ĩn": 3108,
      "Ġever": 3109,
      "Ġyn": 3110,
      "erg": 3111,
      "ĠÙĦÙĩ": 3112,
      "ÐµÐ¹ÑģÑĤÐ²": 3113,
      "ç±»": 3114,
      "ĠSo": 3115,
      "ĠÙħØ³": 3116,
      "ĠÙĪÙĤ": 3117,
      "zo": 3118,
      "ä½Ĩæĺ¯": 3119,
      "Ġzw": 3120,
      "ambi": 3121,
      "ĠÐĹ": 3122,
      "ĠÑģÐº": 3123,
      "ĠÐ»Ð¸": 3124,
      "iyor": 3125,
      "Ã©s": 3126,
      "Ð¼Ð¾Ð¶": 3127,
      "åĮĹ": 3128,
      "uen": 3129,
      "ä¹ī": 3130,
      "ĠÐ¾Ð½Ð°": 3131,
      "ĠÙģÙī": 3132,
      "æĶ¯": 3133,
      "ĠOr": 3134,
      "ellen": 3135,
      "Ġimmer": 3136,
      "à¤¾à¤Ĥ": 3137,
      "ĠÏĦÎ¹": 3138,
      "ivers": 3139,
      "áº£i": 3140,
      "ĠÑįÐº": 3141,
      "Ġdz": 3142,
      "Ġtodo": 3143,
      "ĠÑģÐ¾ÑģÑĤ": 3144,
      "iá»ĥ": 3145,
      "æ¼": 3146,
      "èĢĥ": 3147,
      "Ġkwa": 3148,
      "Ġnew": 3149,
      "Ø¦ÙĬØ³": 3150,
      "pos": 3151,
      "çļĦä¸Ģ": 3152,
      "Ġhar": 3153,
      "ĠØ£Ùħ": 3154,
      "ĠÑĥÐ¶Ðµ": 3155,
      "ÐµÐ½Ð¸Ð¹": 3156,
      "ĠÑĩÐµÐ»Ð¾Ð²": 3157,
      "Ø°ÙĦÙĥ": 3158,
      "Ã¤r": 3159,
      "ura": 3160,
      "Ġhier": 3161,
      "ĠÐµÑģÑĤÑĮ": 3162,
      "iá»ģu": 3163,
      "æĢĿ": 3164,
      "åįİ": 3165,
      "æķĪ": 3166,
      "ÑĥÐ»ÑĮ": 3167,
      "Ã´i": 3168,
      "ukan": 3169,
      "iÃ³n": 3170,
      "ĠÐ¾Ð½Ð¸": 3171,
      "bl": 3172,
      "Ãłng": 3173,
      "ĠmÃ¼": 3174,
      "15": 3175,
      "ÙĥØª": 3176,
      "Ð¸ÑĤÐµ": 3177,
      "æł¡": 3178,
      "ÎĻ": 3179,
      "çħ": 3180,
      "heit": 3181,
      "yd": 3182,
      "åıĭ": 3183,
      "éĿŀå¸¸": 3184,
      "Ġfun": 3185,
      "ww": 3186,
      "Ġ16": 3187,
      "Ø¢": 3188,
      "ØªØµ": 3189,
      "åĨµ": 3190,
      "æ¶Ī": 3191,
      "ĠÐ¾ÑĢÐ³Ð°Ð½": 3192,
      "ĠLa": 3193,
      "à¤«": 3194,
      "æ¡Ī": 3195,
      "æŁ¥": 3196,
      "ond": 3197,
      "ĠÐ²ÑĢÐµÐ¼Ñı": 3198,
      "ÏģÎ·": 3199,
      "ĠZeit": 3200,
      "nych": 3201,
      "ific": 3202,
      "Ġmuy": 3203,
      "ĠÑģÐ»ÑĥÑĩ": 3204,
      "ĠÐ¤": 3205,
      "ĠÐłÐ¾ÑģÑģ": 3206,
      "ĠÐ¿ÑĢÐ¸Ð½": 3207,
      "atan": 3208,
      "æľª": 3209,
      ".âĢĿ": 3210,
      "æľĽ": 3211,
      "Ð´Ñĥ": 3212,
      "æĳ": 3213,
      "Ġnow": 3214,
      "è¿ĻäºĽ": 3215,
      "ÅĽÄĩ": 3216,
      "ÑģÑĤÑĢ": 3217,
      "ÐµÐ½Ð¸Ñİ": 3218,
      "Ġvá»Ľi": 3219,
      "ĠcÃ¡": 3220,
      "ys": 3221,
      "ĠÙĪÙĬ": 3222,
      "ones": 3223,
      "æĬĢæľ¯": 3224,
      "ĠMen": 3225,
      "ç«Ļ": 3226,
      "rie": 3227,
      "amil": 3228,
      "led": 3229,
      "ĠÐºÑĢ": 3230,
      "åĥı": 3231,
      "Ġhow": 3232,
      "Î¯Î±ÏĤ": 3233,
      "è§Ĥ": 3234,
      "ĠLe": 3235,
      "Ġà¤°à¤¹": 3236,
      "åıĤ": 3237,
      "åĮħ": 3238,
      "ional": 3239,
      "Ġtel": 3240,
      "Ãłnh": 3241,
      "Ð°ÑģÑĮ": 3242,
      "ç¥ŀ": 3243,
      "ior": 3244,
      "Ġsk": 3245,
      "ĠØªÙħ": 3246,
      "angan": 3247,
      "å¿ħ": 3248,
      "Ãłi": 3249,
      "Æ°á»Ŀng": 3250,
      "ĠIch": 3251,
      "Ð¸Ð»Ð°": 3252,
      "ĠÐºÐ¾ÑĤÐ¾ÑĢÑĭÐµ": 3253,
      "Ġ)": 3254,
      "æł¹": 3255,
      "duk": 3256,
      "ä¸Ķ": 3257,
      "Ġinst": 3258,
      "Ð¸Ð¼Ð¸": 3259,
      "åĮ»": 3260,
      "ĠÎĶ": 3261,
      "ĈĆ": 3262,
      "Æ°Æ¡ng": 3263,
      "Î¿Î¹": 3264,
      "æĸ½": 3265,
      "Ġà¤¥": 3266,
      "ç»Ń": 3267,
      "éŁ": 3268,
      "An": 3269,
      "itar": 3270,
      "ische": 3271,
      "mt": 3272,
      "åĽĽ": 3273,
      "ĠÙĬÙħ": 3274,
      "iki": 3275,
      "Ġother": 3276,
      "ĠÐ¿Ð¾ÑĢ": 3277,
      "å±Ģ": 3278,
      "è´£": 3279,
      "Ġsem": 3280,
      "ĠÎ´ÎµÎ½": 3281,
      "èĮ": 3282,
      "tem": 3283,
      "åĳ¨": 3284,
      "baj": 3285,
      "Ġkur": 3286,
      "ause": 3287,
      "Ã¼t": 3288,
      "è¯·": 3289,
      "Ġnuest": 3290,
      "Ġges": 3291,
      "Ich": 3292,
      "Ð¸ÑģÑĮ": 3293,
      "Îł": 3294,
      "Ġcas": 3295,
      "ĠÑĤÐ¾Ð¼": 3296,
      "Ð¾ÑĤÑĢ": 3297,
      "ÎºÎ±": 3298,
      "ĠÐ½Ð°Ð´": 3299,
      "Ġâ": 3300,
      "Ã¡t": 3301,
      "ced": 3302,
      "Ġneed": 3303,
      "Ġpeople": 3304,
      "ÑĦÐ¾ÑĢÐ¼": 3305,
      "ÐµÑģÑĮ": 3306,
      "Ġmel": 3307,
      "á»¯ng": 3308,
      "ĠÑģÑĢÐµÐ´": 3309,
      "alt": 3310,
      "ÐµÑī": 3311,
      "èĲ¥": 3312,
      "Ð°ÑİÑī": 3313,
      "Ð¾Ð»ÐµÐµ": 3314,
      "ÐµÑĤÑĮ": 3315,
      "ĠÐ°Ð²": 3316,
      "red": 3317,
      "alu": 3318,
      "Ġ2017": 3319,
      "ano": 3320,
      "entes": 3321,
      "Ġlook": 3322,
      "ØªÙĩØ§": 3323,
      "apat": 3324,
      "ç½Ĺ": 3325,
      "Ø±Ø§Ø¡": 3326,
      "åĬ©": 3327,
      "fr": 3328,
      "ÐµÐ´ÐµÐ»": 3329,
      "áºŃt": 3330,
      "larÄ±n": 3331,
      "ĠbaÅŁ": 3332,
      "ĠWe": 3333,
      "Ø§Ø°": 3334,
      "ĠØ§ÙĦÙħØŃ": 3335,
      "Ġmemb": 3336,
      "lie": 3337,
      "ÙĪØ²": 3338,
      "Ġentre": 3339,
      "\",": 3340,
      "Ġang": 3341,
      "ÎĹ": 3342,
      "ç©º": 3343,
      "Ġgut": 3344,
      "ĠÑįÑĤÐ¾Ð¼": 3345,
      "igh": 3346,
      "éĽĨ": 3347,
      "çİ¯": 3348,
      "æŀĦ": 3349,
      "Ġcol": 3350,
      "è¿ĺæĺ¯": 3351,
      "18": 3352,
      "va": 3353,
      "ĠÐ¼ÐµÐ½Ñı": 3354,
      "vel": 3355,
      "ĠÐºÐ¾Ð¼Ð¿": 3356,
      "sa": 3357,
      "ĠĠ": 3358,
      "cr": 3359,
      "enta": 3360,
      "åĪ°äºĨ": 3361,
      "Ø§Ùĥ": 3362,
      "Ð¾ÑĪ": 3363,
      "æºĲ": 3364,
      "Ø±ÙĥØ©": 3365,
      "ĠÐ»ÑİÐ±": 3366,
      "nis": 3367,
      "czy": 3368,
      "ÑģÐºÐ¾Ð³Ð¾": 3369,
      "ĠÐ³Ð¾Ð´Ð°": 3370,
      "å¤Ł": 3371,
      "cias": 3372,
      "ory": 3373,
      "ÙĨØ¯": 3374,
      "æīĢä»¥": 3375,
      "ĠÐĽ": 3376,
      "ÐµÑģÐ¿": 3377,
      "apa": 3378,
      "å½¢": 3379,
      "iri": 3380,
      "Ġ13": 3381,
      "ece": 3382,
      "iler": 3383,
      "Ã¶g": 3384,
      "ommen": 3385,
      "ĠAuf": 3386,
      "Ġwere": 3387,
      "ĠØ®ÙĦØ§ÙĦ": 3388,
      "ÏĥÎ·ÏĤ": 3389,
      "ĠÑĩÐ°ÑģÑĤ": 3390,
      "ç®Ĺ": 3391,
      "åºľ": 3392,
      "ĠÙħØ±": 3393,
      "Ġset": 3394,
      "ĠHe": 3395,
      "åĽ¢": 3396,
      "Ø§ÙĦØ©": 3397,
      "ĠÐºÐ¾Ð³Ð´Ð°": 3398,
      "ĠÐ¿Ð¾Ð²": 3399,
      "ĠRe": 3400,
      "cid": 3401,
      "ĠÐ³Ð»": 3402,
      "ÙĦÙĩ": 3403,
      "sz": 3404,
      "èĩªå·±çļĦ": 3405,
      "Ġak": 3406,
      "ĠÙĤØ¯": 3407,
      "çº¿": 3408,
      "è¾ĥ": 3409,
      "ĠØ¨Ùħ": 3410,
      "è½¬": 3411,
      "Ġsay": 3412,
      "ÅĤem": 3413,
      "éĩįè¦ģ": 3414,
      "æıĲä¾Ľ": 3415,
      "Ð²Ð»Ñı": 3416,
      "Ġ17": 3417,
      "ĠIh": 3418,
      "ĠÑĤÑĭ": 3419,
      "ĠÐ¼ÐµÑģÑĤ": 3420,
      "Ð¸ÑĤÑĮÑģÑı": 3421,
      "ĠØ³ÙĬ": 3422,
      "è®¸": 3423,
      "çľģ": 3424,
      "ph": 3425,
      "ĠÙĪØ¬": 3426,
      "ĠÑĢÐµÑĪ": 3427,
      "åħļ": 3428,
      "ÑĭÑĪ": 3429,
      "icos": 3430,
      "iden": 3431,
      "ĠØ§ÙĦÙħØ¹": 3432,
      "è¾¹": 3433,
      "Ġoff": 3434,
      "Å©": 3435,
      "Ġprof": 3436,
      "Î¸Î·": 3437,
      "ĠVor": 3438,
      "Ġbin": 3439,
      "atz": 3440,
      "å§Ķ": 3441,
      "ç²¾": 3442,
      "par": 3443,
      "Ð°ÐºÑĤ": 3444,
      "ĠÙħØª": 3445,
      "Ġczy": 3446,
      "gt": 3447,
      "ĠÑĤÐ¾Ð³Ð¾": 3448,
      "Ġ'": 3449,
      "br": 3450,
      "ĠÑĩÐµÐ»Ð¾Ð²ÐµÐº": 3451,
      "Â»,": 3452,
      "ĠÐĿÐ¾": 3453,
      "Ġover": 3454,
      "si": 3455,
      "iáº¿t": 3456,
      "aki": 3457,
      "Î¸Îµ": 3458,
      "ĠÐ²Ð·": 3459,
      "ĠÑĥÑģÐ»": 3460,
      "ĠÎ±ÏĢÎ¿": 3461,
      "èĬĤ": 3462,
      "èĭ±": 3463,
      "Ã¢y": 3464,
      "äººçļĦ": 3465,
      "ĠÐ´Ð¾ÑģÑĤ": 3466,
      "äº§åĵģ": 3467,
      "ĠBer": 3468,
      "Ø±ÙĬÙĤ": 3469,
      "çĬ": 3470,
      "å¼Ģå§ĭ": 3471,
      "çĶŁæ´»": 3472,
      "Ð¾Ð»ÑĮÐ·Ð¾Ð²": 3473,
      "åĨĽ": 3474,
      "ĠHer": 3475,
      "line": 3476,
      "Ø±ÙĤ": 3477,
      "Ġtan": 3478,
      "ĠÐ½Ð¾Ð²": 3479,
      "çº¦": 3480,
      "Ġsy": 3481,
      "ĠÐ¿ÑĢÐ¾ÑģÑĤ": 3482,
      "ĠÙĬØª": 3483,
      "ÑĥÑĪ": 3484,
      "so": 3485,
      "ld": 3486,
      "icas": 3487,
      "ĠÐ½Ð°ÑĪ": 3488,
      "çľ¼": 3489,
      "iye": 3490,
      "éĢļè¿ĩ": 3491,
      "ÙĦØ¨": 3492,
      "was": 3493,
      "Ð²Ð¾Ð´": 3494,
      "ÄŁi": 3495,
      "ĠPh": 3496,
      "schaft": 3497,
      "ple": 3498,
      "ÑĥÐµÑĤ": 3499,
      "Æ°á»Ľc": 3500,
      "Ġkal": 3501,
      "à¤ªà¤¨": 3502,
      "ake": 3503,
      "Ð¾Ð¿ÑĢÐ¾Ñģ": 3504,
      "Ø§ÙĨÙĬØ©": 3505,
      "éĥ½æĺ¯": 3506,
      "Ġant": 3507,
      "Ġakan": 3508,
      "eral": 3509,
      "ĠÎ®": 3510,
      "Ġdiese": 3511,
      "ĠÎ´Î¹Î±": 3512,
      "Ø«ÙĦ": 3513,
      "Ġcal": 3514,
      "ook": 3515,
      "ä¼ĺ": 3516,
      "ona": 3517,
      "ÙĪÙĬØ©": 3518,
      "Ãłn": 3519,
      "çłĶç©¶": 3520,
      "Ġbi": 3521,
      "Ø´Ø§Ø±": 3522,
      "Ġmus": 3523,
      "inn": 3524,
      "Ġpada": 3525,
      "ÏģÏĩ": 3526,
      "Un": 3527,
      "Ġà¤ĩà¤¸": 3528,
      "ĠÐ½Ð°Ñģ": 3529,
      "Ġprim": 3530,
      "ãĢĢ": 3531,
      "ĠÐ½ÑĥÐ¶": 3532,
      "Ġgibt": 3533,
      "å¤§çļĦ": 3534,
      "Ġja": 3535,
      "Ġjug": 3536,
      "ĠØ¬Ùħ": 3537,
      "ĠFra": 3538,
      "à¤ĩ": 3539,
      "é¦ĸ": 3540,
      "Ġà¤«": 3541,
      "ĠØ§ÙĦØ£Ùħ": 3542,
      "å¼ł": 3543,
      "Ø³ÙĬ": 3544,
      "Î¹ÎºÏĮ": 3545,
      "Ø¨ØŃ": 3546,
      "ĠÙĩÙĬ": 3547,
      "Â«": 3548,
      "Ġok": 3549,
      "Ġdid": 3550,
      "å¢ĥ": 3551,
      "Ġsom": 3552,
      "ĠgÃ¶": 3553,
      "ĠÐµÐµ": 3554,
      "æĶ¿åºľ": 3555,
      "æ¨": 3556,
      "Ã¤hr": 3557,
      "Ø¹Ø¨": 3558,
      "Ø®ÙĦ": 3559,
      "æ¢": 3560,
      "ç¦»": 3561,
      "ÑĥÐ»ÑĮÑĤ": 3562,
      "Ġalle": 3563,
      "åİĨ": 3564,
      "Ġpow": 3565,
      "ane": 3566,
      "ĠSe": 3567,
      "ĠCom": 3568,
      "âĢĿ.": 3569,
      "rem": 3570,
      "Ġweb": 3571,
      "ĠØ§ÙĦØº": 3572,
      "ĠÑĤÐµÐ¼": 3573,
      "dem": 3574,
      "ĠMar": 3575,
      "ĠÑĩÐµÐ¼": 3576,
      "lik": 3577,
      "Ġproblem": 3578,
      "æ¬¢": 3579,
      "ØŃÙĬ": 3580,
      "ÑĥÑİÑī": 3581,
      "ehmen": 3582,
      "ĠÐ¾ÑĩÐµÐ½ÑĮ": 3583,
      "æĢİ": 3584,
      "ĠØªÙĨ": 3585,
      "ĠÎ¿Î¹": 3586,
      "Ã¤h": 3587,
      "ĠÅĽ": 3588,
      "ĠÐ§": 3589,
      "éªĮ": 3590,
      "ĠØ§ÙĦØ¹Ø§Ùħ": 3591,
      "Ð°ÐµÐ¼": 3592,
      "aka": 3593,
      "è¯ķ": 3594,
      "Ġlie": 3595,
      "IN": 3596,
      "Ġcual": 3597,
      "ĠØ¹Ø§Ùħ": 3598,
      "Ġà¤¨à¤¹": 3599,
      "Ð°ÑĤÐµÐ»": 3600,
      "æĬ¤": 3601,
      "idades": 3602,
      "Ġ199": 3603,
      "ĠÐ¾Ð±ÑĬ": 3604,
      "çª": 3605,
      "å£«": 3606,
      "ĠBe": 3607,
      "Ġut": 3608,
      "Ġ25": 3609,
      "ĠÑĥÐ²": 3610,
      "èģĮ": 3611,
      "iniz": 3612,
      "çļĦæĹ¶åĢĻ": 3613,
      "Ã¼k": 3614,
      "zÄħ": 3615,
      "åĪĻ": 3616,
      "gi": 3617,
      "Åŀ": 3618,
      "Ġbar": 3619,
      "Ġshe": 3620,
      "ĠÑģÐºÐ°Ð·": 3621,
      "ÏĦÎ±Î½": 3622,
      "áº§u": 3623,
      "Ġorgan": 3624,
      "mak": 3625,
      "Ġsaid": 3626,
      "ÏĥÎ±": 3627,
      "mit": 3628,
      "æ¸ħ": 3629,
      "Ġmej": 3630,
      "à¥Į": 3631,
      "æħ": 3632,
      "ĠØ£Ùĥ": 3633,
      "åį´": 3634,
      "Ġdire": 3635,
      "unden": 3636,
      "16": 3637,
      "Ġata": 3638,
      "ÑģÑĤÐ°Ð½Ð¾Ð²": 3639,
      "åŀĭ": 3640,
      "Ġbec": 3641,
      "Ġsz": 3642,
      "ĠÙĦÙĦÙħ": 3643,
      "ĠCon": 3644,
      "Ã¤ng": 3645,
      "æĤ¨": 3646,
      "bst": 3647,
      "å£°": 3648,
      "Îļ": 3649,
      "Ġdos": 3650,
      "utz": 3651,
      "æĸ¹éĿ¢": 3652,
      "inh": 3653,
      "ĠÙĪØ¹": 3654,
      "ĠÙĦØª": 3655,
      "ÙĪÙī": 3656,
      "ĠÃľ": 3657,
      "Ġà¤ıà¤ķ": 3658,
      "ender": 3659,
      "ï¼ĮâĢľ": 3660,
      "ĠÐ³ÑĢ": 3661,
      "ĠØ¨Ùĩ": 3662,
      "Ã¼z": 3663,
      "ange": 3664,
      "Ġ100": 3665,
      "äººæ°ĳ": 3666,
      "ij": 3667,
      "çļĦæĺ¯": 3668,
      "tro": 3669,
      "14": 3670,
      "Ã¤ch": 3671,
      "çħ§": 3672,
      "Ð¸Ð½Ð°": 3673,
      "ĠÑĥÐ´": 3674,
      "ima": 3675,
      "å¼ķ": 3676,
      "åŃ©åŃĲ": 3677,
      "æĥħåĨµ": 3678,
      "Ġbus": 3679,
      "Ġpuede": 3680,
      "åºĹ": 3681,
      "ĠX": 3682,
      "åĢ¼": 3683,
      "ĠÙħØ¯": 3684,
      "ambiÃ©n": 3685,
      "Ø³Ø±": 3686,
      "á»Ļi": 3687,
      "uÅŁ": 3688,
      "Ġintern": 3689,
      "åŃĺ": 3690,
      "áº¥y": 3691,
      "ÏģÏİ": 3692,
      "Ð¾Ñī": 3693,
      "eni": 3694,
      "è¶³": 3695,
      "dern": 3696,
      "á»ķ": 3697,
      "áºŃn": 3698,
      "Ð¤": 3699,
      "Ġnhá»¯ng": 3700,
      "ÏĥÎµÎ¹ÏĤ": 3701,
      "áº¿n": 3702,
      "ÃŃas": 3703,
      "ĠØ§ÙĦØ¹Ø±Ø¨": 3704,
      "Ã¼m": 3705,
      "ĠÐ³Ð¾Ð²Ð¾ÑĢ": 3706,
      "äº¬": 3707,
      "åĵį": 3708,
      "13": 3709,
      "Ġbil": 3710,
      "ĠØ¹ÙĨØ¯": 3711,
      "ç»´": 3712,
      "ä»ħ": 3713,
      "ĠØ¨ÙĦ": 3714,
      "cio": 3715,
      "Ġwurde": 3716,
      "ä¾¿": 3717,
      "ÃŃnh": 3718,
      "ĠÐ¿Ð¾Ð·": 3719,
      "ĠBl": 3720,
      "ĠØ§ÙĦØ¢": 3721,
      "ĠÎŃÏĩ": 3722,
      "Ð¼Ñĥ": 3723,
      "ito": 3724,
      "ĠÐ¾Ð±ÑĢÐ°Ð·": 3725,
      "Ġmach": 3726,
      "ĠÐµÑīÐµ": 3727,
      "Ð»Ð°Ð´": 3728,
      "ath": 3729,
      "åĬŁ": 3730,
      "å¾Ģ": 3731,
      "inin": 3732,
      "æī¾": 3733,
      "Es": 3734,
      "eka": 3735,
      "med": 3736,
      "eli": 3737,
      "æķĻèĤ²": 3738,
      "æ»¡": 3739,
      "xt": 3740,
      "Ġtrabaj": 3741,
      "att": 3742,
      "ĠÐ·Ð°Ð¿": 3743,
      "ĠÐ»ÑİÐ´": 3744,
      "ĠÙĥÙħØ§": 3745,
      "owe": 3746,
      "eler": 3747,
      "æĪĳçļĦ": 3748,
      "Ø§ÙģØ©": 3749,
      "Ġos": 3750,
      "ĠÄĳÃ£": 3751,
      "Ð»Ð°ÑģÑĤ": 3752,
      "ĠÙĬÙĤ": 3753,
      "Ġemp": 3754,
      "å¥½çļĦ": 3755,
      "raf": 3756,
      "Ġmake": 3757,
      "Ð°Ð¶Ðµ": 3758,
      "ahl": 3759,
      "Ġgood": 3760,
      "ĠÏĦÎ¹ÏĤ": 3761,
      "çĻ½": 3762,
      "æĺ¾": 3763,
      "Ġimport": 3764,
      "äºĶ": 3765,
      "åħī": 3766,
      "stem": 3767,
      "ÙĦØ³": 3768,
      "ĠAs": 3769,
      "fach": 3770,
      "ĠPol": 3771,
      "Ġbek": 3772,
      "æĸŃ": 3773,
      "ä¿¡æģ¯": 3774,
      "ĠØ§ÙĦÙĩ": 3775,
      "Ġthink": 3776,
      "leich": 3777,
      "è¶ħ": 3778,
      "ĠØ§ÙĦÙħØ±": 3779,
      "Ġdef": 3780,
      "å¤į": 3781,
      "ator": 3782,
      "Ġgew": 3783,
      "Ġthá»ĥ": 3784,
      "åĲ¬": 3785,
      "ÏĢÎ±": 3786,
      "ĠÐ¶Ð¸Ð·Ð½": 3787,
      "Ġkul": 3788,
      "ict": 3789,
      "Ġexper": 3790,
      "Ġale": 3791,
      "ĠØ§ÙĦØ²": 3792,
      "éļı": 3793,
      "Î¿ÏĤ": 3794,
      "icz": 3795,
      "Ġlu": 3796,
      "ĠEuro": 3797,
      "ĠÐ´Ð°Ð½": 3798,
      "ÐµÐ½Ð¸ÐµÐ¼": 3799,
      "ES": 3800,
      "vo": 3801,
      "é¢Ħ": 3802,
      "Ð»ÐµÐ½Ð¸Ðµ": 3803,
      "ÑĨÐ¸Ð°Ð»ÑĮ": 3804,
      "istr": 3805,
      "Ä±s": 3806,
      "Ġ24": 3807,
      "AT": 3808,
      "Ŀi": 3809,
      "ç§°": 3810,
      "ĠDer": 3811,
      "ÏģÎ¹Ïĥ": 3812,
      "ä¹Łæĺ¯": 3813,
      "app": 3814,
      "åįı": 3815,
      "ĠØ§ÙĦØ§ÙĨ": 3816,
      "ÙĪØ±ÙĬ": 3817,
      "ĠÑģÑĩ": 3818,
      "ĠEst": 3819,
      "Î¹ÎºÎ®": 3820,
      "Ġbef": 3821,
      "ä¼Ĺ": 3822,
      "ĠÐ¾ÑģÐ½Ð¾Ð²": 3823,
      "ition": 3824,
      "eck": 3825,
      "Ø§ÙĦÙĬØ©": 3826,
      "æŀģ": 3827,
      "ĠÎ±Î½Î±": 3828,
      "à¤ķà¤°": 3829,
      "åĳ½": 3830,
      "ĠÑģÐ»ÐµÐ´": 3831,
      "ÃŃs": 3832,
      "reich": 3833,
      "ÙĪÙĥ": 3834,
      "å±±": 3835,
      "ĠÃ©": 3836,
      "Â·": 3837,
      "ÙĪØ§ÙĨ": 3838,
      "Ġmon": 3839,
      "Ø«ÙĬØ±": 3840,
      "ema": 3841,
      "ĠÑĤÐ°ÐºÐ¶Ðµ": 3842,
      "ĠâĢĺ": 3843,
      "è¨": 3844,
      "dzie": 3845,
      "ĠØ¨Ø¯": 3846,
      "ges": 3847,
      "çı": 3848,
      "Î»Î»Î¬": 3849,
      "åĪĴ": 3850,
      "è¨Ģ": 3851,
      "æĹ©": 3852,
      "Ġmom": 3853,
      "ä»ĸçļĦ": 3854,
      "ÏģÎŃ": 3855,
      "tain": 3856,
      "Ùį": 3857,
      "Ð½ÐµÐ¹": 3858,
      "ĠÐ¿Ð¾Ñģ": 3859,
      "æĻ®": 3860,
      "Ã¼h": 3861,
      "ÃŁen": 3862,
      "æĴ": 3863,
      "ĠestÃ¡": 3864,
      "áº¿t": 3865,
      "Ð¿ÑĢÐµÐ´ÐµÐ»": 3866,
      "ĠÐ¿ÐµÑĢÐ²": 3867,
      "Ø±Ø¯": 3868,
      "éħĴ": 3869,
      "Ġroz": 3870,
      "Ġhacer": 3871,
      "ĠÐ¿ÑĢÐ¾Ð¸Ð·": 3872,
      "ÑĢÑĥÐ´": 3873,
      "Ð£": 3874,
      "Ð¸ÐºÐ¸": 3875,
      "iente": 3876,
      "arn": 3877,
      "è·Ł": 3878,
      "Ġide": 3879,
      "á»£": 3880,
      "ital": 3881,
      "Ð¼ÐµÐ½": 3882,
      "Ġsab": 3883,
      "Ġneces": 3884,
      "raw": 3885,
      "ĠÑħÐ¾ÑĤ": 3886,
      "Ġju": 3887,
      "ĠnÃły": 3888,
      "Ġvery": 3889,
      "Î¼ÏĮ": 3890,
      "Ġtho": 3891,
      "åŃ¦çĶŁ": 3892,
      "ĠÐ¸Ð½ÑĤÐµÑĢ": 3893,
      "à¤°à¤¤": 3894,
      "ĠØºÙĬØ±": 3895,
      "ÑĥÑīÐµÑģÑĤÐ²": 3896,
      "Ġinto": 3897,
      "ents": 3898,
      "å¤±": 3899,
      "ĠWir": 3900,
      "ĠÑĢÐµ": 3901,
      "ÑĥÐ´Ð°ÑĢ": 3902,
      "Ġevery": 3903,
      "æĢģ": 3904,
      "éĻĲ": 3905,
      "ĠÎ¼ÎŃ": 3906,
      "ĠÙĪÙĦ": 3907,
      "17": 3908,
      "á»Ń": 3909,
      "Ġdec": 3910,
      "Ġback": 3911,
      "æ¨¡": 3912,
      "Ø¹Ø±": 3913,
      "ĠÐ¼Ð½Ðµ": 3914,
      "sche": 3915,
      "ĠaÃ±os": 3916,
      "Ġbul": 3917,
      "äºī": 3918,
      "izar": 3919,
      "Ð½Ð¸": 3920,
      "ĠØªÙĤ": 3921,
      "Ġincl": 3922,
      "åĽ½éĻħ": 3923,
      "Al": 3924,
      "Ġsub": 3925,
      "ĠÎµÎ½": 3926,
      "ĠØ§ÙĦÙī": 3927,
      "ĠÎŁ": 3928,
      "åĲ§": 3929,
      "èİ·": 3930,
      "Ã¼rk": 3931,
      "ps": 3932,
      "ĠÙĪÙĦØ§": 3933,
      "ÐºÑĢ": 3934,
      "iger": 3935,
      "ivo": 3936,
      "Ġsig": 3937,
      "Ġtie": 3938,
      "å¹²": 3939,
      "ĠÐ±Ð»": 3940,
      "plic": 3941,
      "Ð¾ÑĢÑĤ": 3942,
      "Ġsim": 3943,
      "ÏĥÎ¹": 3944,
      "Ġir": 3945,
      "ÙĬÙĨØ©": 3946,
      "ĠÎµÎº": 3947,
      "ĠÃ¶n": 3948,
      "Äĥng": 3949,
      "Ġka": 3950,
      "Ð»Ð¾": 3951,
      "war": 3952,
      "Ġsee": 3953,
      "tir": 3954,
      "isten": 3955,
      "ç¬¬ä¸Ģ": 3956,
      "ĠÐ½Ð°Ð·": 3957,
      "iaÅĤ": 3958,
      "ĠÐ²Ð¾Ð¿ÑĢÐ¾Ñģ": 3959,
      "é¥": 3960,
      "ÙĪØ©": 3961,
      "ĠnÃ³": 3962,
      "ä¸įèĥ½": 3963,
      "ĠÏĥÏħÎ½": 3964,
      "Ġotr": 3965,
      "ÑħÐ¾Ð´Ð¸Ð¼": 3966,
      "æ¬¾": 3967,
      "à¥Īà¥¤": 3968,
      "Ä±na": 3969,
      "larak": 3970,
      "ÑĮÑİ": 3971,
      "Ġ50": 3972,
      "Ð½Ð°Ðº": 3973,
      "ĠÙĤØ§ÙĦ": 3974,
      "éĻ©": 3975,
      "æ®µ": 3976,
      "ä½¿çĶ¨": 3977,
      "ĠÐ¾ÑĢÐ³Ð°Ð½Ð¸Ð·": 3978,
      "Ġpost": 3979,
      "Ġcuando": 3980,
      "çŃĸ": 3981,
      "Ġcould": 3982,
      "ĠÑįÑĤÐ¾Ð³Ð¾": 3983,
      "Ġform": 3984,
      "ĠÐ²Ð¾Ð·Ð¼Ð¾Ð¶": 3985,
      "2018": 3986,
      "ĠÄĳá»ĥ": 3987,
      "AS": 3988,
      "ĠÑĢÐ°Ð·Ð²": 3989,
      "è¿Ļç§į": 3990,
      "è±¡": 3991,
      "dy": 3992,
      "ĠÄĳá»Ļ": 3993,
      "po": 3994,
      "è¿Ļä¸Ģ": 3995,
      "gu": 3996,
      "å¾ĭ": 3997,
      "cional": 3998,
      "eld": 3999,
      "ĠÑģÑĥÐ´": 4000,
      "å®īåħ¨": 4001,
      "ĠÐ²ÐµÑĢ": 4002,
      "ĠÐŃÑĤÐ¾": 4003,
      "aman": 4004,
      "Ġproduct": 4005,
      "Ġdam": 4006,
      "una": 4007,
      "ĠÑĤÐµÑħ": 4008,
      "Ð¾ÑģÑĤÐ¸": 4009,
      "ÐµÐ½Ñĭ": 4010,
      "ĠFre": 4011,
      "Ġ2016": 4012,
      "Ð¼ÐµÑĢ": 4013,
      "ĠØ¨Ø¹Ø¶": 4014,
      "ĠÐ¿ÑĢÐ¸Ð²": 4015,
      "ho": 4016,
      "uje": 4017,
      "Ġmil": 4018,
      "ĠÐ±Ð¾Ð»ÐµÐµ": 4019,
      "åĭ": 4020,
      "ÑıÐ´": 4021,
      "iew": 4022,
      "ĠÙĤØ¨ÙĦ": 4023,
      "Ġonly": 4024,
      "Ð¾Ð»Ð¾Ð³": 4025,
      "æĪĲä¸º": 4026,
      "ćãĢĤ": 4027,
      "ĠØ¨ØŃ": 4028,
      "ĠØ¨Ø±": 4029,
      "ä½İ": 4030,
      "Ġfo": 4031,
      "Ø·Ø±": 4032,
      "åĬ¿": 4033,
      "ĠØŃØªÙī": 4034,
      "Ćï¼Į": 4035,
      "ÏĦÎ¯": 4036,
      "Ġbisa": 4037,
      "Ġprov": 4038,
      "25": 4039,
      "ĠAd": 4040,
      "Ġdir": 4041,
      "æļ": 4042,
      "Ð¾Ð²Ð°Ð½Ð¸Ñı": 4043,
      "åĻ": 4044,
      "åĽ¾": 4045,
      "tal": 4046,
      "oto": 4047,
      "ĠÃ§ok": 4048,
      "elle": 4049,
      "á»ĳi": 4050,
      "å¸Į": 4051,
      "cess": 4052,
      "ÙģØ¶": 4053,
      "Îľ": 4054,
      "ino": 4055,
      "å¤§å®¶": 4056,
      "ĠÂ¿": 4057,
      "éĴ±": 4058,
      "ÑĨÐ¸Ð¾Ð½": 4059,
      "ÙĨÙĬØ©": 4060,
      "ĠÐ»ÐµÑĤ": 4061,
      "Ġtodos": 4062,
      "ĠÙĪØ§ÙĦØª": 4063,
      "çİĩ": 4064,
      "ajÄħ": 4065,
      "ĠAll": 4066,
      "Ð»Ð¸Ñĩ": 4067,
      "Î¼Î¬": 4068,
      "æĬķèµĦ": 4069,
      "à¤ģ": 4070,
      "teil": 4071,
      "ĠØ¨Ø´": 4072,
      "å·´": 4073,
      "è¯Ń": 4074,
      "Ġinf": 4075,
      "ÙĦÙĬÙħ": 4076,
      "Ġkad": 4077,
      "ÏĢÎµ": 4078,
      "Ġgem": 4079,
      "eln": 4080,
      "ÐĹ": 4081,
      "Ðĳ": 4082,
      "antes": 4083,
      "Ġnas": 4084,
      "Ġmat": 4085,
      "arios": 4086,
      "Ã¶glich": 4087,
      "udah": 4088,
      "å¯¹äºİ": 4089,
      "åĲĥ": 4090,
      "ĠÐ¼Ð½": 4091,
      "ede": 4092,
      "Ġko": 4093,
      "kon": 4094,
      "è¿Ļæĺ¯": 4095,
      "Ø³Ø©": 4096,
      "stand": 4097,
      "Ġatau": 4098,
      "ĠÐ¿Ð¾ÑģÑĤ": 4099,
      "ĠÐ²ÑĭÐ¿": 4100,
      "Ð¾Ð±ÑħÐ¾Ð´Ð¸Ð¼": 4101,
      "åı·": 4102,
      "Ð½ÑĥÑĤ": 4103,
      "ä¹°": 4104,
      "çĻ¾": 4105,
      "ĠÐ±Ð¾Ð»ÑĮÑĪ": 4106,
      "Ġnue": 4107,
      "áº½": 4108,
      "ç»Ī": 4109,
      "ĠÏĮÏĦÎ¹": 4110,
      "tur": 4111,
      "Ġhim": 4112,
      "ĠÐ¾ÑĤÐ½Ð¾": 4113,
      "//": 4114,
      "ĠÐ·Ð°Ð²": 4115,
      "è¿ľ": 4116,
      "Ġwant": 4117,
      "ä¸ĢäºĽ": 4118,
      "ÑİÑī": 4119,
      "ster": 4120,
      "ĠÐ½Ð¸Ðº": 4121,
      "æĲ": 4122,
      "ÃŃcul": 4123,
      "Ø¦Ø©": 4124,
      "Ø§Ø¹Ø©": 4125,
      "ĠÃĸ": 4126,
      "Ø¨Ø§Ø±": 4127,
      "ĠÐ´ÐµÐ¹ÑģÑĤÐ²": 4128,
      "inden": 4129,
      "Ġolarak": 4130,
      "ÎĿ": 4131,
      "çĹħ": 4132,
      "è£ħ": 4133,
      "AL": 4134,
      "ÙģØ¹": 4135,
      "ä¸įä¼ļ": 4136,
      "leh": 4137,
      "ĠØŃÙĬØ«": 4138,
      "ĠÙĬØŃ": 4139,
      "Ġmu": 4140,
      "ife": 4141,
      "ÑıÑĤÐµÐ»ÑĮ": 4142,
      "Das": 4143,
      "nia": 4144,
      "çīĩ": 4145,
      "Ġvis": 4146,
      "nej": 4147,
      "ĠÐ¸Ð¼Ðµ": 4148,
      "Å©ng": 4149,
      "ĠØ§ÙĦØªØ¹": 4150,
      "ä¸¾": 4151,
      "ĠÐ·Ð°ÐºÐ¾Ð½": 4152,
      "mek": 4153,
      "Ã¼y": 4154,
      "ista": 4155,
      "åį³": 4156,
      "Ġà¤¸à¤®": 4157,
      "aja": 4158,
      "iss": 4159,
      "ÐµÑĤÐ°": 4160,
      "ĠÑıÐ²Ð»Ñı": 4161,
      "ĠÐ·Ð´": 4162,
      "idos": 4163,
      "åŃĹ": 4164,
      "ke": 4165,
      "ÙĬØ¨": 4166,
      "alar": 4167,
      "Ġcer": 4168,
      "ĠâĢ¦": 4169,
      "åįĩ": 4170,
      "ÙĪØ¶ÙĪØ¹": 4171,
      "cciÃ³n": 4172,
      "çĶ·": 4173,
      "bo": 4174,
      "à¥ī": 4175,
      "ÙĤØ·": 4176,
      "é¡¹çĽ®": 4177,
      "Ġway": 4178,
      "ĠQu": 4179,
      "æĢİä¹Ī": 4180,
      "á»ī": 4181,
      "my": 4182,
      "ĠÙħØ¬": 4183,
      "ĠØ§ÙĦØ³ÙĬ": 4184,
      "à¤Ľ": 4185,
      "éĢŁ": 4186,
      "ä»½": 4187,
      "çĽĳ": 4188,
      "Ġpot": 4189,
      "Î±Ïĥ": 4190,
      "çĽĬ": 4191,
      "nym": 4192,
      "è¿ŀ": 4193,
      "åĪĩ": 4194,
      "igt": 4195,
      "Ġbah": 4196,
      "ĠdeÄŁ": 4197,
      "ĠÐ½ÐµÑĤ": 4198,
      "ÅĤad": 4199,
      "Ġmenj": 4200,
      "Ø¬Ø©": 4201,
      "Ġjuga": 4202,
      "gl": 4203,
      "Ð°ÑģÑģ": 4204,
      "åĳ¢": 4205,
      "wor": 4206,
      "ä¾Ŀ": 4207,
      "ÑĤÑĢ": 4208,
      "å»ºè®¾": 4209,
      "ĠÙĬØ¬": 4210,
      "rol": 4211,
      "ĠØ§ÙĦØ¬Ùħ": 4212,
      "Ð°ÑĨÐ¸Ñı": 4213,
      "à¤¿à¤Ĥ": 4214,
      "äº²": 4215,
      "Ġkeine": 4216,
      "æ´»åĬ¨": 4217,
      "geb": 4218,
      "åĲĮæĹ¶": 4219,
      "Ġbas": 4220,
      "Ð¸Ð¼ÐµÑĢ": 4221,
      "ĠÐ³Ð¾Ñģ": 4222,
      "met": 4223,
      "Ġhelp": 4224,
      "oth": 4225,
      "åŁŁ": 4226,
      "á»ĳng": 4227,
      "ĠØ§ÙĦÙħØ³Øª": 4228,
      "éĺ¿": 4229,
      "Ø®Øª": 4230,
      "äººåĳĺ": 4231,
      "éĤ£ä¹Ī": 4232,
      "Ð»Ðµ": 4233,
      "æĿ¥çļĦ": 4234,
      "Ġpoc": 4235,
      "Ġmet": 4236,
      "ĠÙĬÙħÙĥÙĨ": 4237,
      "ĠÐ´Ð¾Ðº": 4238,
      "Ġpubl": 4239,
      "ĠÐ¾Ðº": 4240,
      "ĠÙħØ³Øª": 4241,
      "ĠUm": 4242,
      "Ð¾Ð±ÑĢ": 4243,
      "ĠÑģÐ¾Ð·": 4244,
      "Ġze": 4245,
      "ä»¥åıĬ": 4246,
      "Ðĵ": 4247,
      "ÐµÑĤÐµ": 4248,
      "çĮ": 4249,
      "Ã¼ÅŁ": 4250,
      "ĠÐ´ÐµÑĤ": 4251,
      "è¦ģæ±Ĥ": 4252,
      "åĸľ": 4253,
      "Ġhá»į": 4254,
      "ÙĤØ§ÙĦ": 4255,
      "lin": 4256,
      "Ġtal": 4257,
      "éĶĢ": 4258,
      "Ġprop": 4259,
      "èĩ´": 4260,
      "Ġunser": 4261,
      "ĠÎ¹": 4262,
      "ĠÑģÐ´ÐµÐ»": 4263,
      "Ġadalah": 4264,
      "ĠIhr": 4265,
      "ize": 4266,
      "ĠÐºÐ¾Ð»": 4267,
      "çĥŃ": 4268,
      "by": 4269,
      "éĻ¤": 4270,
      "Ġgiá»": 4271,
      "ĠÙĦÙĬ": 4272,
      "å¤§åŃ¦": 4273,
      "ĠÐ´Ðµ": 4274,
      "rat": 4275,
      "als": 4276,
      "ĠtambiÃ©n": 4277,
      "ÙĪØ§ÙĦ": 4278,
      "ri": 4279,
      "âĢĿï¼Į": 4280,
      "amiento": 4281,
      "Ġesc": 4282,
      "Ġhan": 4283,
      "Ġprogram": 4284,
      "ON": 4285,
      "ÃŃt": 4286,
      "ĠÎĵ": 4287,
      "tu": 4288,
      "ĠÐ¿ÑĢÐµÐ´ÑģÑĤÐ°Ð²": 4289,
      "uda": 4290,
      "ç¬ĳ": 4291,
      "ele": 4292,
      "ĠØ£Ø³": 4293,
      "ĠReg": 4294,
      "Ġeinfach": 4295,
      "Ġli": 4296,
      "å°¼": 4297,
      "ĠØ§ÙĦØ¹Ø§ÙĦÙħ": 4298,
      "å·ŀ": 4299,
      "Ġada": 4300,
      "uan": 4301,
      "Ø¶Ø§": 4302,
      "Î´Î±": 4303,
      "anto": 4304,
      "Ã¹ng": 4305,
      "cer": 4306,
      "gar": 4307,
      "ohn": 4308,
      "Ð¾Ð³ÑĢ": 4309,
      "èĬ±": 4310,
      "aca": 4311,
      "Ø¯Ø¯": 4312,
      "ĠÑĢÑĥ": 4313,
      "Ð°Ð»Ð¾": 4314,
      "asÄ±": 4315,
      "zeit": 4316,
      "ÙĬÙĪ": 4317,
      "Ð¸Ð¾Ð½": 4318,
      "fe": 4319,
      "ĠÐ½ÐµÐ¾Ð±ÑħÐ¾Ð´Ð¸Ð¼": 4320,
      "ĠÎŃÎ½Î±": 4321,
      "è½»": 4322,
      "åĲĹ": 4323,
      "ĠØ§Ø¨": 4324,
      "Ġbien": 4325,
      "Ġtiemp": 4326,
      "Ã±o": 4327,
      "èŀ": 4328,
      "ąï¼Į": 4329,
      "áº©": 4330,
      "æķ°æį®": 4331,
      "Ø£Ø³": 4332,
      "Ø§Ø¨Ø©": 4333,
      "ons": 4334,
      "ins": 4335,
      "ola": 4336,
      "zt": 4337,
      "Ð°Ð»Ð¸Ð·": 4338,
      "ÎµÏĦÎ±Î¹": 4339,
      "ĠØ¨Øª": 4340,
      "Ð»ÐµÐ¼": 4341,
      "ony": 4342,
      "å½±åĵį": 4343,
      "ĠEnt": 4344,
      "anan": 4345,
      "ehen": 4346,
      "Ġerf": 4347,
      "ĠÑģÐµÐ±Ñı": 4348,
      "åı²": 4349,
      "ĠAnd": 4350,
      "uar": 4351,
      "ĠlÃłm": 4352,
      "Ġmost": 4353,
      "Ġsor": 4354,
      "æ¹": 4355,
      "anh": 4356,
      "inen": 4357,
      "ĠKom": 4358,
      "Ø¸Ø±": 4359,
      "Ð°Ð½Ð´": 4360,
      "Ġgra": 4361,
      "ĠØ§ÙĦÙħÙĪ": 4362,
      "Ġwell": 4363,
      "è®¤ä¸º": 4364,
      "ĠÎµÎ¯": 4365,
      "Ġspe": 4366,
      "ÐµÑĢÑĮ": 4367,
      "Î¿ÏħÎ¼Îµ": 4368,
      "à¤Ĩ": 4369,
      "ĠÙĩÙĨØ§": 4370,
      "ĠØ§ÙĦÙĬÙĪÙħ": 4371,
      "Åº": 4372,
      "Ġtiene": 4373,
      "ÙĬÙĩ": 4374,
      "igkeit": 4375,
      "Ġblog": 4376,
      "ĠØªØ¬": 4377,
      "Ġdieser": 4378,
      "quier": 4379,
      "Ġsuch": 4380,
      "æŃ»": 4381,
      "nah": 4382,
      "ç½®": 4383,
      "Ġmá»": 4384,
      "è¡¨ç¤º": 4385,
      "ĠInd": 4386,
      "åĻ¨": 4387,
      "Ġleb": 4388,
      "ĠMa": 4389,
      "Ġmuss": 4390,
      "ĠAng": 4391,
      "æīĢæľī": 4392,
      "mun": 4393,
      "Æ¡n": 4394,
      "è¿ĺæľī": 4395,
      "inci": 4396,
      "Ġaw": 4397,
      "âĢĿ,": 4398,
      "endo": 4399,
      "è¯Ħ": 4400,
      "Ø³ÙĦØ§Ùħ": 4401,
      "Ġshould": 4402,
      "ä¸įåĲĮ": 4403,
      "ĠÐ¿ÑĢÐ¾ÑĨ": 4404,
      "Ġvom": 4405,
      "äºĴ": 4406,
      "å¡": 4407,
      "ĠGes": 4408,
      "Ġ?": 4409,
      "Ã»": 4410,
      "ady": 4411,
      "Ġny": 4412,
      "ĠBu": 4413,
      "Ġpun": 4414,
      "ç»ĩ": 4415,
      "Ð°ÑİÑĤÑģÑı": 4416,
      "Ġdoch": 4417,
      "Î·Î½": 4418,
      "çİĭ": 4419,
      "ĠØ§ÙĦØ¹ÙħÙĦ": 4420,
      "old": 4421,
      "ĠÐ´ÐµÐ½ÑĮ": 4422,
      "ĠØ§ÙĦÙħØ¯": 4423,
      "24": 4424,
      "--": 4425,
      "ĠPl": 4426,
      "ĠArbeit": 4427,
      "ĠÙĪÙħÙĨ": 4428,
      "use": 4429,
      "Ø§ÙħÙĦ": 4430,
      "imo": 4431,
      "ĠYou": 4432,
      "ĠÐ³Ð¾ÑģÑĥÐ´Ð°ÑĢ": 4433,
      "Ġgef": 4434,
      "ĠÐ´Ð°Ð¶Ðµ": 4435,
      "ä½ľä¸º": 4436,
      "ĠÃ¡": 4437,
      "ÏĦÎŃ": 4438,
      "ember": 4439,
      "zie": 4440,
      "Ġoldu": 4441,
      "ĠÑģÑĤÑĢÐ°Ð½": 4442,
      "ĠÎµÏĢÎ¹": 4443,
      "ii": 4444,
      "ÙĦÙĥÙĨ": 4445,
      "ÑĥÐ³": 4446,
      "car": 4447,
      "Ġganz": 4448,
      "Ġmes": 4449,
      "vers": 4450,
      "èĥ½å¤Ł": 4451,
      "ÏĥÏĦÎµ": 4452,
      "ĠcÅ©ng": 4453,
      "anda": 4454,
      "Ġgar": 4455,
      "ĠÐ¿Ð¾Ñĩ": 4456,
      "ati": 4457,
      "ycz": 4458,
      "Î»Î¬": 4459,
      "ÙĪÙĤØ¹": 4460,
      "jo": 4461,
      "å¸®": 4462,
      "Ġ#": 4463,
      "No": 4464,
      "Ġthese": 4465,
      "ument": 4466,
      "ĠÑģÐ²ÑıÐ·": 4467,
      "Ġhere": 4468,
      "ÐµÐ»Ð¸": 4469,
      "Ġsek": 4470,
      "Ġeven": 4471,
      "Î´Î¿": 4472,
      "Ġplan": 4473,
      "Ã³r": 4474,
      "ĠÄĳáº¿n": 4475,
      "æĸĩåĮĸ": 4476,
      "ÑĥÑħ": 4477,
      "éĢĤ": 4478,
      "Ġvez": 4479,
      "ĠØªØª": 4480,
      "Ġmejor": 4481,
      "stell": 4482,
      "ias": 4483,
      "Ð¼Ð¾ÑĤÑĢ": 4484,
      "èĤ¡": 4485,
      "åħ¶ä»ĸ": 4486,
      "of": 4487,
      "Ġbáº¡n": 4488,
      "Ġpeng": 4489,
      "ÑģÐºÐ¸Ð¹": 4490,
      "èĲ½": 4491,
      "æİĴ": 4492,
      "éĿ©": 4493,
      "Ġresp": 4494,
      "ÑİÑĤÑģÑı": 4495,
      "ÐµÐ½Ð°": 4496,
      "Ġà¤Ĩà¤ª": 4497,
      "Ġgan": 4498,
      "ĠÐ¿Ð¾Ð¿": 4499,
      "entr": 4500,
      "ä¸ªäºº": 4501,
      "ÐµÐºÑģ": 4502,
      "åŃ¦ä¹ł": 4503,
      "Ġsec": 4504,
      "çķĻ": 4505,
      "ĠAm": 4506,
      "ident": 4507,
      "ä½łçļĦ": 4508,
      "èŀį": 4509,
      "Ġláº¡i": 4510,
      "ĠÎºÎ¬": 4511,
      "Ð»Ð°ÑĤ": 4512,
      "èĥ½åĬĽ": 4513,
      "Ġef": 4514,
      "ador": 4515,
      "ĠKind": 4516,
      "è¯ī": 4517,
      "ĠcÃ´ng": 4518,
      "Ð¸ÐºÐ°": 4519,
      "ĠÙħØ´": 4520,
      "ĠÐ·Ð°Ð´": 4521,
      "Ð¾Ð¶Ðµ": 4522,
      "Ġbeg": 4523,
      "ĠÙĪØŃ": 4524,
      "ational": 4525,
      "æŀĹ": 4526,
      "à¤¾,": 4527,
      "Ã½": 4528,
      "ĠÐ¾ÑĤÐ²ÐµÑĤ": 4529,
      "ÙĪÙĩ": 4530,
      "Ġthu": 4531,
      "ĠMit": 4532,
      "Ġ2015": 4533,
      "Ġcos": 4534,
      "ĠÙĪÙĨ": 4535,
      "Ð¼Ð°": 4536,
      "èµ·æĿ¥": 4537,
      "è®²": 4538,
      "Ġvá»ģ": 4539,
      "Ġsit": 4540,
      "Ġlle": 4541,
      "ä¸ĬçļĦ": 4542,
      "Ġexp": 4543,
      "ĠÐ»Ð¸ÑĨ": 4544,
      "ĠØªØ±": 4545,
      "ĠØ£ÙĨÙĩ": 4546,
      "ĠÑģÐ»ÑĥÑĩÐ°": 4547,
      "Ġcáº£": 4548,
      "æĪĸèĢħ": 4549,
      "ĠÐŁÑĢ": 4550,
      "åħ»": 4551,
      "ĠÏĢÎ¿Î»": 4552,
      "://": 4553,
      "2017": 4554,
      "ÐĽ": 4555,
      "Ġtur": 4556,
      "ĠÙĪØ¥": 4557,
      "ÃŃn": 4558,
      "ĠÑģÐ¸ÑģÑĤ": 4559,
      "ĠÑĢÐµÐ·": 4560,
      "Der": 4561,
      "ÑıÐ¼": 4562,
      "æĭ©": 4563,
      "zu": 4564,
      "Ġfirst": 4565,
      "cze": 4566,
      "fl": 4567,
      "æ¥": 4568,
      "Ġcada": 4569,
      "âĢ¢": 4570,
      "ØµÙģ": 4571,
      "aga": 4572,
      "ĠØ§Ø³": 4573,
      "èħ": 4574,
      "ĠArt": 4575,
      "Ġalgun": 4576,
      "Ġoc": 4577,
      "Ġreally": 4578,
      "ä¾ĭ": 4579,
      "nego": 4580,
      "tt": 4581,
      "æĭ¿": 4582,
      "Ġah": 4583,
      "Ð¸ÑģÐº": 4584,
      "ody": 4585,
      "Ġthro": 4586,
      "ĠiÅŁ": 4587,
      "ĠÏħÏĢ": 4588,
      "OS": 4589,
      "å©": 4590,
      "åıĳçİ°": 4591,
      "æĺŁ": 4592,
      "ĠasÃŃ": 4593,
      "Ġhand": 4594,
      "Ġday": 4595,
      "ĠÐ´Ð¾Ð¼": 4596,
      "rif": 4597,
      "ĠØ¹ÙħÙĦ": 4598,
      "Ġend": 4599,
      "Ð¾ÑĤÐ²ÐµÑĤ": 4600,
      "Ġamb": 4601,
      "urch": 4602,
      "ÑĥÐ²": 4603,
      "Ø¨Øª": 4604,
      "æĸĻ": 4605,
      "Ġetwas": 4606,
      "ĠÙħÙĪ": 4607,
      "ç§¯": 4608,
      "Ġdesde": 4609,
      "Î¼Î±ÏĦÎ±": 4610,
      "åĪĹ": 4611,
      "è´Ł": 4612,
      "ÏĨÎ¿": 4613,
      "zw": 4614,
      "Ġhin": 4615,
      "arak": 4616,
      "áºŃp": 4617,
      "ĠÐ·Ð°Ð¼": 4618,
      "ÙĩÙĦ": 4619,
      "Ġvar": 4620,
      "éĩĩ": 4621,
      "Ġtiempo": 4622,
      "Ġtrans": 4623,
      "Ġkw": 4624,
      "Î¹ÎºÎ¬": 4625,
      "ĠØ§Ø®": 4626,
      "ipo": 4627,
      "Ġà¤ķà¤¹": 4628,
      "èĮĥ": 4629,
      "bie": 4630,
      "Î»Î®": 4631,
      "Ġmany": 4632,
      "ç»Ħç»ĩ": 4633,
      "iones": 4634,
      "niej": 4635,
      "ĠØ¹Ø¨Ø¯": 4636,
      "Ġolan": 4637,
      "Ġhasta": 4638,
      "ĠÑĢÐµÐ³": 4639,
      "ecto": 4640,
      "nÄħ": 4641,
      "olg": 4642,
      "ä¸Ģå®ļ": 4643,
      "ĠIntern": 4644,
      "ĠØ§ÙĦØ§Ø³Øª": 4645,
      "ĠÐ¾Ð¿ÑĢÐµÐ´ÐµÐ»": 4646,
      "Ġyears": 4647,
      "'d": 4648,
      "erk": 4649,
      "ä¿®": 4650,
      "hi": 4651,
      "Ġrest": 4652,
      "rag": 4653,
      "ock": 4654,
      "iendo": 4655,
      "ĠÙĪÙĩÙĪ": 4656,
      "èĻ½": 4657,
      "ĠÎ¼Î±ÏĤ": 4658,
      "ĠgÃ¼n": 4659,
      "å®¤": 4660,
      "Ø§ØµØ©": 4661,
      "ÐµÑĢÐ¸": 4662,
      "Ð°Ð»ÑģÑı": 4663,
      "acji": 4664,
      "ĠØ§ÙĦØ£Ø³": 4665,
      "22": 4666,
      "Ð¿Ð¾Ð»": 4667,
      "Ġmeny": 4668,
      "ÑĥÑī": 4669,
      "els": 4670,
      "iá»ĩt": 4671,
      "ÙĪØŃ": 4672,
      "Ã¤nd": 4673,
      "ĠÙĪÙĥ": 4674,
      "Ġwen": 4675,
      "çľĭåĪ°": 4676,
      "ĠÐºÐ°Ð¶Ð´": 4677,
      "yle": 4678,
      "ÑĢÑĥÐ¿": 4679,
      "Ġtá»«": 4680,
      "ÎºÏĮ": 4681,
      "ĠÙĬÙĥÙĪÙĨ": 4682,
      "Ä±ndan": 4683,
      "Ã¤s": 4684,
      "ÏĦÎ¹ÎºÏĮ": 4685,
      "Ã¡ng": 4686,
      ".,": 4687,
      "ĠÐ½Ð¸": 4688,
      "ä¸»è¦ģ": 4689,
      "éĢīæĭ©": 4690,
      "åĪļ": 4691,
      "Ġcr": 4692,
      "ĠØ£Ø¨": 4693,
      "iáº¿n": 4694,
      "Ð¸Ð½Ñĭ": 4695,
      "ÐµÐ½Ð½ÑĭÑħ": 4696,
      "éħį": 4697,
      "å¦Ī": 4698,
      "Ġ&": 4699,
      "Ġ$": 4700,
      "ates": 4701,
      "Ġkhi": 4702,
      "owy": 4703,
      "ÑĢÐ°Ñī": 4704,
      "åħ³ç³»": 4705,
      "åħ´": 4706,
      "ÐµÐ´ÐµÑĢ": 4707,
      "annya": 4708,
      "Ø§Ø¯ÙĬ": 4709,
      "ĠÑĥÑĩÐ°ÑģÑĤ": 4710,
      "aran": 4711,
      "æ¼Ķ": 4712,
      "Äĥm": 4713,
      "utsch": 4714,
      "ĠÙĥØ§ÙĨØª": 4715,
      "imm": 4716,
      "Î»Î¿Î³": 4717,
      "ÑĤÐ¾Ð¼": 4718,
      "ä¸¥": 4719,
      "Ġthen": 4720,
      "ÙĦÙĤ": 4721,
      "á»ı": 4722,
      "è§īå¾Ĺ": 4723,
      "ersch": 4724,
      "ĠÙĨÙģØ³": 4725,
      "ting": 4726,
      "Ġlang": 4727,
      "ĠGo": 4728,
      "ÙĥÙĬ": 4729,
      "åºĶè¯¥": 4730,
      "éĺ²": 4731,
      "åĲĪä½ľ": 4732,
      "ustr": 4733,
      "ato": 4734,
      "ree": 4735,
      "è´¢": 4736,
      "Ġadd": 4737,
      "ç±³": 4738,
      "Ġunder": 4739,
      "åĨľ": 4740,
      "ĠØ§Ø¹": 4741,
      "ĠÐ¸ÑģÑĤ": 4742,
      "éĶĻ": 4743,
      "ichtig": 4744,
      "Ġkatika": 4745,
      "AM": 4746,
      "ĠGen": 4747,
      "Ġdla": 4748,
      "ĠÐ¿ÑĢÐ¾Ð±": 4749,
      "ÐµÑĢÐ²": 4750,
      "çĽ¸åħ³": 4751,
      "undo": 4752,
      "Ġ2014": 4753,
      "ĠMenschen": 4754,
      "40": 4755,
      "Ġright": 4756,
      "ÎŃÏģ": 4757,
      "Ġ22": 4758,
      "Ã¡ch": 4759,
      "lad": 4760,
      "Ġnun": 4761,
      "äº¿": 4762,
      "æĹħ": 4763,
      "ĠÐ¿Ð¾ÑģÐ»Ðµ": 4764,
      "ilen": 4765,
      "è´Ń": 4766,
      "ĠwÃ¼r": 4767,
      "ĠGesch": 4768,
      "Ġà¤ħà¤ªà¤¨": 4769,
      "Ch": 4770,
      "ÅĤÄħ": 4771,
      "ĠÂ»": 4772,
      "oj": 4773,
      "Ġwel": 4774,
      "api": 4775,
      "åĨĻ": 4776,
      "Ġgreat": 4777,
      "èĳ": 4778,
      "Ġtym": 4779,
      "Ġbit": 4780,
      "ĠØ§ÙĦØ¯ÙĪÙĦ": 4781,
      "ĠNam": 4782,
      "âĢĮ": 4783,
      "éŁ³": 4784,
      "Ġ21": 4785,
      "Ġdiff": 4786,
      "ĠÐºÑĤÐ¾": 4787,
      "ĠÐºÐ¾ÑĤÐ¾ÑĢÑĭÐ¹": 4788,
      "çĽ®åīį": 4789,
      "ebut": 4790,
      "ĠÐ¿ÐµÑĢÐµÐ´": 4791,
      "ĠÃĩ": 4792,
      "Ġkam": 4793,
      "ices": 4794,
      "Ġnaj": 4795,
      "æĻ¯": 4796,
      "ĠmÃł": 4797,
      "åį¡": 4798,
      "ç»Ĩ": 4799,
      "ĠØ«Ùħ": 4800,
      "Ġpop": 4801,
      "icio": 4802,
      "ÏĦÎ¹ÎºÎ®": 4803,
      "Ġgest": 4804,
      "ÑıÐ²": 4805,
      "Ø¶Ø¹": 4806,
      "ÑĤÐ²": 4807,
      "eite": 4808,
      "é£Ł": 4809,
      "Ä±yor": 4810,
      "çīĮ": 4811,
      "ĠÐĴÑĭ": 4812,
      "ç¾¤": 4813,
      "Ġsiste": 4814,
      "ĠÐ¾ÑģÑĤ": 4815,
      "ĠÐ½Ð°ÑģÑĤ": 4816,
      "ÑĥÐ±Ð»": 4817,
      "åģ¥": 4818,
      "Ġsur": 4819,
      "ows": 4820,
      "ĠÐ¥": 4821,
      "ÐµÐ¶Ð´": 4822,
      "??": 4823,
      "Ġcap": 4824,
      "éĥ¨éĹ¨": 4825,
      "æĺ¯ä¸Ģ": 4826,
      "ðŁ": 4827,
      "ØºÙĬØ±": 4828,
      "æĸ¹å¼ı": 4829,
      "ÙĤØ¯Ùħ": 4830,
      "á»©c": 4831,
      "net": 4832,
      "ĠdÃŃa": 4833,
      "Ġequ": 4834,
      "æĮī": 4835,
      "Ġsent": 4836,
      "Ð¾ÑıÐ½": 4837,
      "Ġej": 4838,
      "Ġpodr": 4839,
      "ÐµÑĢÐ°": 4840,
      "ĠÐ¸ÑģÐº": 4841,
      "åįĬ": 4842,
      "éĥ¨åĪĨ": 4843,
      "Ð¾ÑģÐ¾Ð±": 4844,
      "Ġtwo": 4845,
      "arÃ¡": 4846,
      "Ġá»Ł": 4847,
      "Ġfa": 4848,
      "Ġmot": 4849,
      "Ãło": 4850,
      "pu": 4851,
      "ĠKon": 4852,
      "Î»ÎŃ": 4853,
      "Ġnorm": 4854,
      "issen": 4855,
      "ĠÙĬÙĨ": 4856,
      "ats": 4857,
      "ÎµÎ¹ÏĤ": 4858,
      "ÄĲ": 4859,
      "agai": 4860,
      "ĠÄĳÃ³": 4861,
      "á»ĳc": 4862,
      "ohl": 4863,
      "Ìģ": 4864,
      "ĠØ§ÙĦÙħØµ": 4865,
      "åįļ": 4866,
      "Ġuse": 4867,
      "zer": 4868,
      "ĠÎµÎ¾": 4869,
      "ç®Ģ": 4870,
      "Ø¹ÙĪØ¯": 4871,
      "mi": 4872,
      "åħ°": 4873,
      "Ġhist": 4874,
      "Ø§Ø¦ÙĬØ©": 4875,
      "á»ģ": 4876,
      "Ġfuer": 4877,
      "Ġ2011": 4878,
      "ĠTer": 4879,
      "Ø§Ø¦ÙĦ": 4880,
      "eza": 4881,
      "aciones": 4882,
      "ating": 4883,
      "Ġbecause": 4884,
      "å¸ĮæľĽ": 4885,
      "ĠMan": 4886,
      "ĠÐ²ÑĭÐ±": 4887,
      "ĠÐ¿ÑĢÐ¾ÑĤ": 4888,
      "Ġactiv": 4889,
      "ÏĥÎ¿": 4890,
      "Äĥn": 4891,
      "Ð¸Ñİ": 4892,
      "Ġrespon": 4893,
      "ful": 4894,
      "ÑĩÐ½Ð¾": 4895,
      "Ġpersonas": 4896,
      "Î·ÏĤ": 4897,
      "å°½": 4898,
      "get": 4899,
      "Ġbez": 4900,
      "å¾®": 4901,
      "Ġ23": 4902,
      "Ġyer": 4903,
      "mail": 4904,
      "ught": 4905,
      "Ð½Ð¸ÐºÐ¾Ð²": 4906,
      "Ġpom": 4907,
      "ÑģÑĤÐ²Ðµ": 4908,
      "Ø§ÙĦØª": 4909,
      "ĠÑģÐ¾Ð¾ÑĤÐ²ÐµÑĤ": 4910,
      "ĠUnd": 4911,
      "jÄĻ": 4912,
      "ĠmoÅ¼": 4913,
      "ÑĥÑģÑĤ": 4914,
      "ĠsÄħ": 4915,
      "unu": 4916,
      "åıĮ": 4917,
      "Ð¾ÑĢÐ¾ÑĪ": 4918,
      "ä¸ŃçļĦ": 4919,
      "ĠÐ¸Ð³ÑĢ": 4920,
      "Ġdaha": 4921,
      "ĠFor": 4922,
      "ï»": 4923,
      "å¿µ": 4924,
      "ĠÙĪÙĦÙĥÙĨ": 4925,
      "ÐµÑģÑĤÐ¸": 4926,
      "fa": 4927,
      "Ġtar": 4928,
      "Ġporque": 4929,
      "Ð°Ð½Ñģ": 4930,
      "cal": 4931,
      "onder": 4932,
      "Ġhum": 4933,
      "åºķ": 4934,
      "Ø§Ø¦ÙĬ": 4935,
      "row": 4936,
      "Ø§ÙĨÙĪÙĨ": 4937,
      "çªģ": 4938,
      "ÙĤØ§": 4939,
      "str": 4940,
      "arket": 4941,
      "Ġsen": 4942,
      "æİ§": 4943,
      "Ġters": 4944,
      "åĿļ": 4945,
      "Ġparte": 4946,
      "Ġaqu": 4947,
      "ĠÙĦØ£": 4948,
      "Ġselbst": 4949,
      "lÄ±k": 4950,
      "asy": 4951,
      "åı¦": 4952,
      "laub": 4953,
      "Ð¸ÑĤÐµÐ»ÑĮÐ½Ð¾": 4954,
      "Ġà¤Ł": 4955,
      "ĠÙĬÙĪÙħ": 4956,
      "Ãºng": 4957,
      "ĠÙĪØ²": 4958,
      "Ġweiter": 4959,
      "60": 4960,
      "æĻļ": 4961,
      "ĠÐ±ÑĭÐ»Ð¸": 4962,
      "ĠÐ³Ð´Ðµ": 4963,
      "ĠÐ¿ÑĢÐ¾ÑģÑĤÐ¾": 4964,
      "è¡Įä¸ļ": 4965,
      "åŁİå¸Ĥ": 4966,
      "å²ģ": 4967,
      "æī¿": 4968,
      "ĠCo": 4969,
      "iness": 4970,
      "Ð¾Ð²Ð°Ð½": 4971,
      "ĠÐ¾Ð±Ñī": 4972,
      "Ġzn": 4973,
      "ĠÐ¸Ð½ÑĦÐ¾ÑĢÐ¼": 4974,
      "Ø®Ø¯": 4975,
      "ÏĦÎ±ÏĤ": 4976,
      "Ð°ÑĩÐµ": 4977,
      "Ð¾ÑģÑĤÑĮ": 4978,
      "bi": 4979,
      "ĠØ§ØŃ": 4980,
      "Ġespe": 4981,
      "áº±": 4982,
      "ÙĬØ´": 4983,
      "é¾": 4984,
      "ĠÑģÐ»Ð¾Ð²": 4985,
      "ä¹ĭåĲİ": 4986,
      "Ġci": 4987,
      "áº¹": 4988,
      "çİ¯å¢ĥ": 4989,
      "ĠSh": 4990,
      "Ã¶ch": 4991,
      "åł": 4992,
      "çĶŁäº§": 4993,
      "yw": 4994,
      "Ġlong": 4995,
      "eter": 4996,
      "ĠÐ½ÐµÐ´": 4997,
      "ä¸įè¿ĩ": 4998,
      "Ġsm": 4999,
      "ç¬¬äºĮ": 5000,
      "Ġdown": 5001,
      "ĠØ§ÙĦÙħØ¬": 5002,
      "ĠÑģÐ¸ÑģÑĤÐµÐ¼": 5003,
      "ÃŁe": 5004,
      "Ġanderen": 5005,
      "ull": 5006,
      "ĠÐ³Ð¾ÑĢÐ¾Ð´": 5007,
      "Ð°Ð½ÑĤ": 5008,
      "It": 5009,
      "arse": 5010,
      "cir": 5011,
      "Ġgeht": 5012,
      "åķĬ": 5013,
      "ĠÐ½ÐµÐ¿": 5014,
      "ister": 5015,
      "ĠAnda": 5016,
      "ÎºÎ¿": 5017,
      "OR": 5018,
      "ĠNg": 5019,
      "Ġexperien": 5020,
      "Ġprzez": 5021,
      "Ġint": 5022,
      "ĠÎĿ": 5023,
      "ĠMe": 5024,
      "é¡»": 5025,
      "åħħ": 5026,
      "Ġstud": 5027,
      "Ġwhere": 5028,
      "ĠÙģÙĬÙĩØ§": 5029,
      "ĠØ¨ÙĩØ§": 5030,
      "Ġakt": 5031,
      "ĠPar": 5032,
      "irt": 5033,
      "Ø¨ÙĬØ±": 5034,
      "ĠØªØ´": 5035,
      "ÐµÑĨ": 5036,
      "å®Ŀ": 5037,
      "ç³»ç»Ł": 5038,
      "Ø¸Ø§Ùħ": 5039,
      "ÑĨÐ¸Ñı": 5040,
      "ÙĬØ§ÙĨ": 5041,
      "Ġgu": 5042,
      "ĠÄĳá»ĭ": 5043,
      "æ¬§": 5044,
      "Ġleg": 5045,
      "Ġalles": 5046,
      "äºĭæĥħ": 5047,
      "Ġconc": 5048,
      "put": 5049,
      "è¯»": 5050,
      "ĠÑģÑĤÐ¾": 5051,
      "æł¸": 5052,
      "ĠØ§ÙĦÙĤØ±": 5053,
      "round": 5054,
      "èĻ½çĦ¶": 5055,
      "ĠÐķÑģÐ»Ð¸": 5056,
      "åĵª": 5057,
      "ĠÐ¢Ð°Ðº": 5058,
      "ä¸Ńå¿ĥ": 5059,
      "ÙĪÙħØ©": 5060,
      "Ð¸Ð»ÑģÑı": 5061,
      "oz": 5062,
      "amin": 5063,
      "ÑģÐºÐ¸Ñħ": 5064,
      "ĠÙĦØ£ÙĨ": 5065,
      "åĽ´": 5066,
      "ÏĢÎ¿Ïħ": 5067,
      "è¿ĻéĩĮ": 5068,
      "Ġkut": 5069,
      "ction": 5070,
      "Ġdom": 5071,
      "ĠbÄĻ": 5072,
      "ç´ł": 5073,
      "inal": 5074,
      "ØµÙĪÙĦ": 5075,
      "ĠÐ±ÑĭÐ»Ð°": 5076,
      "âĢĿãĢĤ": 5077,
      "ĠÑĦÐ¾ÑĢÐ¼": 5078,
      "Ġsang": 5079,
      "ĠÐ½Ð¸Ñħ": 5080,
      "ĠÑĤÐµÑĢ": 5081,
      "uÃŁ": 5082,
      "é²": 5083,
      "Ġjetzt": 5084,
      "Ġthrough": 5085,
      "ĠÐ·Ð½Ð°": 5086,
      "Î¼Î²": 5087,
      "ĠIs": 5088,
      "esz": 5089,
      "ĠÙĪØ§ÙĦØ£": 5090,
      "Ġdev": 5091,
      "Ġkil": 5092,
      "ç¦ı": 5093,
      "Ð¸Ð±Ð¾": 5094,
      "ĠDu": 5095,
      "nte": 5096,
      "ÏĩÎµ": 5097,
      "Ġdig": 5098,
      "Ġvida": 5099,
      "ĠOn": 5100,
      "Ġactual": 5101,
      "ÐºÐ¾Ð¼": 5102,
      "ĠÑĩÐµÑĢ": 5103,
      "Ġkita": 5104,
      "unda": 5105,
      "80": 5106,
      "Ø¨Ùĩ": 5107,
      "ĠÐ½ÑĥÐ¶Ð½Ð¾": 5108,
      "IS": 5109,
      "kl": 5110,
      "ÙģØª": 5111,
      "fahr": 5112,
      "ĠØ§Øª": 5113,
      "Ð¾Ð½Ð¾Ð¼": 5114,
      "åľ°æĸ¹": 5115,
      "Ġdá»¥": 5116,
      "Ġdich": 5117,
      "Ġtah": 5118,
      "Ä©": 5119,
      "Ġdapat": 5120,
      "ĈĈï¼Į": 5121,
      "ĠyÄ±l": 5122,
      "ÏĥÏĦ": 5123,
      "ĠTÃ¼rk": 5124,
      "ç«ł": 5125,
      "Ġits": 5126,
      "ÙĬØ¬": 5127,
      "ØªÙĦ": 5128,
      "ÑįÑĤ": 5129,
      "Ġlá»": 5130,
      "å®³": 5131,
      "åĩ»": 5132,
      "Ð¾Ð³Ð»": 5133,
      "Ġsáº½": 5134,
      "ÏģÎ®": 5135,
      "Ð»Ð°ÑģÑĤÐ¸": 5136,
      "æĿİ": 5137,
      "ÏĦÎ¿ÏĤ": 5138,
      "isa": 5139,
      "Ãªu": 5140,
      ".)": 5141,
      "Ġdoes": 5142,
      "duc": 5143,
      "rz": 5144,
      "æĭħ": 5145,
      "ĠÏĢÎ¿": 5146,
      "kat": 5147,
      "áº«": 5148,
      "Ã¢m": 5149,
      "Ġtake": 5150,
      "å®ĺ": 5151,
      "dzi": 5152,
      "yi": 5153,
      "Ġdiesem": 5154,
      "æĪı": 5155,
      "ammen": 5156,
      "gest": 5157,
      "lung": 5158,
      "ĠÐ¼Ð°ÑĤ": 5159,
      "Ġà¤ķà¤°à¤¨": 5160,
      "Ġconst": 5161,
      "szyst": 5162,
      "Ø§Ø±ÙĬØ®": 5163,
      "dad": 5164,
      "Ġ40": 5165,
      "ters": 5166,
      "åŁ¹": 5167,
      "åĲ¦": 5168,
      "ientes": 5169,
      "ÎĶ": 5170,
      "Ġsam": 5171,
      "ĠÐ·Ð½Ð°Ñĩ": 5172,
      "ĠNach": 5173,
      "Ġpel": 5174,
      "ĠAp": 5175,
      "!!!": 5176,
      "ĠØªØ³": 5177,
      "ĠØ¥ÙĦØ§": 5178,
      "ÙĨØ§Ø¡": 5179,
      "ĠÙĪØ§ØŃ": 5180,
      "ĠvÃło": 5181,
      "æī§": 5182,
      "enia": 5183,
      "Ø¬ÙĦØ³": 5184,
      "Ġtáº¡i": 5185,
      "entro": 5186,
      "Ð¾ÑģÐº": 5187,
      "çºª": 5188,
      "pat": 5189,
      "ÙģØ©": 5190,
      "Ġgot": 5191,
      "Ġeines": 5192,
      "ĠmÃ¼s": 5193,
      "ĠÐ½Ð°Ð»": 5194,
      "åıĳçĶŁ": 5195,
      "ingen": 5196,
      "ues": 5197,
      "ĠÐ¿Ð¾ÑģÐ»ÐµÐ´": 5198,
      "Ø±Ø§Øª": 5199,
      "ĠEx": 5200,
      "Ø§ÙħØ¬": 5201,
      "ĠÃ»": 5202,
      "23": 5203,
      "imiz": 5204,
      "Ġ2013": 5205,
      "ÙĪØ·": 5206,
      "ĠÐ±Ð¾Ð»ÑĮÑĪÐµ": 5207,
      "è§Ħå®ļ": 5208,
      "ä»»ä½ķ": 5209,
      "ĠÐ°ÐºÑĤ": 5210,
      "å®¡": 5211,
      "ĠØ£ØŃ": 5212,
      "ä¸ĢçĽ´": 5213,
      "isiÃ³n": 5214,
      "ĠÑģÐ¾ÑģÑĤÐ°Ð²": 5215,
      "Ø§Ø³Ø©": 5216,
      "uel": 5217,
      "ĠÑĢÐ¾Ð´": 5218,
      "We": 5219,
      "angen": 5220,
      "Ð°Ð»Ð¾ÑģÑĮ": 5221,
      "Ġforma": 5222,
      "cho": 5223,
      "ÙĥØ©": 5224,
      "ĠÑģÐ»ÑĥÑĩÐ°Ðµ": 5225,
      "21": 5226,
      "Ġà¤īà¤¸": 5227,
      "Ð»Ð¸Ð²": 5228,
      "éĿĴ": 5229,
      "Ġvol": 5230,
      "icher": 5231,
      "ä¸ºäºĨ": 5232,
      "ĠÎ¼Î¹Î±": 5233,
      "Ġsc": 5234,
      "ĠUS": 5235,
      "Ġsaya": 5236,
      "ctor": 5237,
      "æĭ¬": 5238,
      "ÐµÑĪÑĮ": 5239,
      "Ġpersonal": 5240,
      "ĠmÃ¡": 5241,
      "ĠØ§ÙĦØ¶": 5242,
      "aje": 5243,
      "Ġhatte": 5244,
      "ćĈï¼Į": 5245,
      "Ġdeb": 5246,
      "å¤«": 5247,
      "çĶ¨æĪ·": 5248,
      "Ġrequ": 5249,
      "ÐµÑĢÑĪ": 5250,
      "åĮĹäº¬": 5251,
      "ÑģÐµ": 5252,
      "ÎµÎ¹Î±": 5253,
      "ÑĩÐ°Ñģ": 5254,
      "åº·": 5255,
      "ÙĳÙĲ": 5256,
      "Ø§ÙĦØ¨": 5257,
      "ject": 5258,
      "Î¥": 5259,
      "ä¸Ģæł·": 5260,
      "ĠÏĥÏĦÎ±": 5261,
      "ÙĪÙĦØ§": 5262,
      "ÙĤÙĬÙĤ": 5263,
      "èĢĮä¸Ķ": 5264,
      "ÏĦÎ¹ÎºÎ¬": 5265,
      "Ġgoing": 5266,
      "æľĭ": 5267,
      "ÑĪÑĮ": 5268,
      "ØªÙħØ§Ø¹": 5269,
      "æ±Ł": 5270,
      "Ġtek": 5271,
      "Ã±a": 5272,
      "ĠÙħØŃÙħØ¯": 5273,
      "Ã²ng": 5274,
      "à¤°à¤ķ": 5275,
      "è®Ń": 5276,
      "ĠÐłÐ¾ÑģÑģÐ¸Ð¸": 5277,
      "Î¡": 5278,
      "Ġà¤¡": 5279,
      "Ġ2012": 5280,
      "ï¼ŁâĢĿ": 5281,
      "jet": 5282,
      "åĺ": 5283,
      "ĠÎ¾": 5284,
      "Ð°Ð»ÑĮÐ½Ð¾Ð³Ð¾": 5285,
      "çıŃ": 5286,
      "æĻº": 5287,
      "ÙĬÙĬÙĨ": 5288,
      "ĠÄĳi": 5289,
      "Ġorang": 5290,
      "çķ¥": 5291,
      "ÐºÐ¾Ð¹": 5292,
      "ĠØ¨Ø£": 5293,
      "ććï¼Į": 5294,
      "Ġafter": 5295,
      "ĠÐŀÐ½": 5296,
      "ser": 5297,
      "reib": 5298,
      "izaciÃ³n": 5299,
      "ÙĪØ£": 5300,
      "gel": 5301,
      "Ð¾Ð²Ð°ÑĤÑĮ": 5302,
      "aut": 5303,
      "ĠÑģÐ¾Ð¾ÑĤÐ²ÐµÑĤÑģÑĤÐ²": 5304,
      "ćą": 5305,
      "ĠÑģÐ¾Ð·Ð´": 5306,
      "jÄħ": 5307,
      "Ð½ÑĥÐ»": 5308,
      "Ãľ": 5309,
      "alan": 5310,
      "ĠÐ²ÑģÐµÐ³Ð¾": 5311,
      "rÃ³": 5312,
      "Ġread": 5313,
      "Ġpháº£i": 5314,
      "ĠMin": 5315,
      "è¯¾": 5316,
      "Ø§Ø¹Ø¯": 5317,
      "iá»ĩu": 5318,
      "ĠThis": 5319,
      "ĠÐ·Ð°Ð½": 5320,
      "isk": 5321,
      "ÎµÏħ": 5322,
      "ĠgÃ¶r": 5323,
      "Ð¾Ð³ÑĢÐ°Ð¼": 5324,
      "Ġpon": 5325,
      "noÅĽci": 5326,
      "Ġconf": 5327,
      "Ġkes": 5328,
      "aron": 5329,
      "Î¼Î·": 5330,
      "for": 5331,
      "ĠÙħØµ": 5332,
      "æľºæŀĦ": 5333,
      "Ġles": 5334,
      "ĠØªØµ": 5335,
      ",âĢĿ": 5336,
      "Ġdest": 5337,
      "ÐµÐ´ÑĮ": 5338,
      "Ġmachen": 5339,
      "eden": 5340,
      "Ø®Ø±Ùī": 5341,
      "orn": 5342,
      "Ð¸Ð½Ð¸ÑģÑĤ": 5343,
      "æķħ": 5344,
      "åĸĦ": 5345,
      "æ£Ģ": 5346,
      "åħį": 5347,
      "å¾ħ": 5348,
      "ump": 5349,
      "ç´§": 5350,
      "mÄ±ÅŁ": 5351,
      "ĆĆ": 5352,
      "ĈãĢĤ": 5353,
      "acak": 5354,
      "ĠØ¨Ø£ÙĨ": 5355,
      "Ġgegen": 5356,
      "å¹´çļĦ": 5357,
      "Ġwoll": 5358,
      "å±Ĥ": 5359,
      "ç¢": 5360,
      "entlich": 5361,
      "idas": 5362,
      "ĠÑģÑĤÐ¾ÑĢ": 5363,
      "Ġresult": 5364,
      "usammen": 5365,
      "ĠÐ¸ÑģÐ¿Ð¾Ð»ÑĮÐ·Ð¾Ð²": 5366,
      "ĠDies": 5367,
      "å¥ĩ": 5368,
      "Â¿": 5369,
      "Ġzap": 5370,
      "sta": 5371,
      "ÙĮ": 5372,
      "ä¸ĵä¸ļ": 5373,
      "ÑĥÐº": 5374,
      "cim": 5375,
      "trag": 5376,
      "ugar": 5377,
      "Ġpat": 5378,
      "Ġpers": 5379,
      "ĠÙħØ¤": 5380,
      "ĠÙħÙĤ": 5381,
      "Ġoh": 5382,
      "ĠÐ¿ÑĢÐ¾Ð¸Ð·Ð²Ð¾Ð´": 5383,
      "ĠÐ°Ð½": 5384,
      "æĦ¿": 5385,
      "å±ħ": 5386,
      "ä¹İ": 5387,
      "è®¾è®¡": 5388,
      "ĠgiÃ¡": 5389,
      "ĠÑĤÑĢÐµÐ±": 5390,
      "æľĭåıĭ": 5391,
      "ĠMed": 5392,
      "Ġfamil": 5393,
      "chn": 5394,
      "Ġimp": 5395,
      "åĶ®": 5396,
      "ĠaÃ§": 5397,
      "Ġdep": 5398,
      "æµĭ": 5399,
      "æĽ¾": 5400,
      "Ø±Ø¬": 5401,
      "ities": 5402,
      "æ¯į": 5403,
      "ism": 5404,
      "ĠÐ²Ð°Ð¼": 5405,
      "äº«": 5406,
      "ĠRech": 5407,
      "Ð°ÑıÐ²": 5408,
      "ĠBr": 5409,
      "çĭ¬": 5410,
      "æĿ¥è¯´": 5411,
      "ĠØ³Ø¨": 5412,
      "EL": 5413,
      "ĠØ£ÙĥØ«Ø±": 5414,
      "à¤ł": 5415,
      "ØªÙģ": 5416,
      "Ġchá»ī": 5417,
      "Ġgibi": 5418,
      "ÑĭÐ»": 5419,
      "ĠÙģØ¥ÙĨ": 5420,
      "agi": 5421,
      "Ġthose": 5422,
      "æĽ´å¤ļ": 5423,
      "Ġgia": 5424,
      "ucht": 5425,
      "fall": 5426,
      "Ġ!": 5427,
      "ÐµÐºÐ¾": 5428,
      "Ġfue": 5429,
      "Ġ2010": 5430,
      "otel": 5431,
      "Ġgesch": 5432,
      "dd": 5433,
      "ÑĮÑı": 5434,
      "çİ©": 5435,
      "ĠÐ¿Ð°ÑĢ": 5436,
      "ç»§": 5437,
      "ĠolduÄŁ": 5438,
      "enie": 5439,
      "ĠÙģÙĬÙĩ": 5440,
      "åį°": 5441,
      "Ð¯": 5442,
      "Ġagain": 5443,
      "çģ«": 5444,
      "åĪĿ": 5445,
      "AD": 5446,
      "Ġuno": 5447,
      "Ġval": 5448,
      "ĠaÃ±o": 5449,
      "Ġoraz": 5450,
      "ationen": 5451,
      "ÑĥÐ¼ÐµÐ½ÑĤ": 5452,
      "itas": 5453,
      "æ¸¯": 5454,
      "Ġmater": 5455,
      "åĮħæĭ¬": 5456,
      "ÙĨÙī": 5457,
      "Ä±ÄŁÄ±": 5458,
      "è¿ĩç¨ĭ": 5459,
      "è¿Ļä¹Ī": 5460,
      "ÑĥÐ»ÑĮÑĤÐ°ÑĤ": 5461,
      "å¿Ĺ": 5462,
      "Ġul": 5463,
      "ierung": 5464,
      "Î¼ÏĢ": 5465,
      "è§£åĨ³": 5466,
      "zÄĻ": 5467,
      "Ġlebih": 5468,
      "inya": 5469,
      "dÄ±r": 5470,
      "Ġdik": 5471,
      "Ġwo": 5472,
      "Ġbeing": 5473,
      "Ġmismo": 5474,
      "mpre": 5475,
      "Ġà¤¯à¤¹": 5476,
      "abei": 5477,
      "æł¹æį®": 5478,
      "èı": 5479,
      "ufen": 5480,
      "ĠØ§ÙĦÙħØ¤": 5481,
      "ÏįÎ½": 5482,
      "owaÄĩ": 5483,
      "ĠÐ¸Ñģ": 5484,
      "Ġcontin": 5485,
      "è°Ī": 5486,
      "åª": 5487,
      "åıªæĺ¯": 5488,
      "Ð¸ÑĢÑĥ": 5489,
      "piel": 5490,
      "æĿĳ": 5491,
      "itÃ¤t": 5492,
      "ĠÐ¼Ð¾Ð³ÑĥÑĤ": 5493,
      "eda": 5494,
      "Ġweek": 5495,
      "Ġdil": 5496,
      "ĠÎ´Î·": 5497,
      "ĠNew": 5498,
      "ĠÐ²ÑģÐµÑħ": 5499,
      "ĠÐŁÐ¾": 5500,
      "hing": 5501,
      "å¯Į": 5502,
      "ĠØ¥Ø°Ø§": 5503,
      "ĠØ¨Ø§ÙĦÙħ": 5504,
      "ĠÙĪÙģ": 5505,
      "ĠMon": 5506,
      "åĩºçİ°": 5507,
      "Ð½ÐµÐµ": 5508,
      "Ġown": 5509,
      "ÑĨÐ°": 5510,
      "ØŃØ±": 5511,
      "Ġuy": 5512,
      "ĠØ£ØŃØ¯": 5513,
      "ĠNe": 5514,
      "ĠÐ¾Ð´Ð¸Ð½": 5515,
      "Ġbefore": 5516,
      "Ġtoo": 5517,
      "ĠÐ¼Ð½Ð¾Ð³Ð¾": 5518,
      "ÃŃch": 5519,
      "æŁĲ": 5520,
      "ĠÐ¿Ð¾Ð½": 5521,
      "åĵĪ": 5522,
      "Ð°Ð»Ð¸ÑģÑĮ": 5523,
      "Ð»Ð¾Ð¶": 5524,
      "ÄŁÄ±": 5525,
      "ram": 5526,
      "cept": 5527,
      "icip": 5528,
      "ĠÙĦÙĩØ§": 5529,
      "Ã¡p": 5530,
      "Ġdia": 5531,
      "ÐµÐ¹ÑĩÐ°Ñģ": 5532,
      "ĠÎ¶": 5533,
      "Ð½Ð¾Ð¼Ñĥ": 5534,
      "ĠÐ³Ð¾Ð»": 5535,
      "Ġje": 5536,
      "ĠÄĳáº§u": 5537,
      "æĪĳä»¬çļĦ": 5538,
      "Ġsá»±": 5539,
      "iá»ĩc": 5540,
      "Î»Î¯": 5541,
      "Ð¾Ð³Ð¾Ð²Ð¾ÑĢ": 5542,
      "uat": 5543,
      "ĠÑģÐ¿Ðµ": 5544,
      "ĠØ§Ùħ": 5545,
      "ĠØ¥ÙĦÙĬ": 5546,
      "Ġoper": 5547,
      "Ġcontr": 5548,
      "ÙĦØ§Ø«": 5549,
      "Ġnum": 5550,
      "ĠTag": 5551,
      "ĠKar": 5552,
      "ĠÐ°Ð´": 5553,
      "ĠÅŀ": 5554,
      "Ð¸ÑĤÑĥ": 5555,
      "Î¬Î»": 5556,
      "ØŃØ¯Ø©": 5557,
      "Ø±ÙĬØ¯": 5558,
      "äºĨè§£": 5559,
      "è§Ĵ": 5560,
      "ĠnhÃł": 5561,
      "Ġkl": 5562,
      "Ġeing": 5563,
      "Ġbra": 5564,
      "à¤ķà¤¤": 5565,
      "ĠÎºÎ±ÏĦÎ±": 5566,
      "Ġneg": 5567,
      "Ġ28": 5568,
      "ØªÙĥ": 5569,
      "ĠÙĦÙĥÙĨ": 5570,
      "erb": 5571,
      "Ġnat": 5572,
      "åį«": 5573,
      "))": 5574,
      "ool": 5575,
      "Ġoleh": 5576,
      "çº¢": 5577,
      "anyak": 5578,
      "ÙĬÙĤ": 5579,
      "imi": 5580,
      "å¿ħé¡»": 5581,
      "olu": 5582,
      "åĽŃ": 5583,
      "masÄ±": 5584,
      "Ġnad": 5585,
      "Ġlar": 5586,
      "ÑĨÐ¸Ð¹": 5587,
      "Ġmucho": 5588,
      "ĠÐºÐ¾ÑĢ": 5589,
      "ÏĥÏī": 5590,
      "Ø¯Ùī": 5591,
      "owych": 5592,
      "Ġnhiá»ģu": 5593,
      "ĠÑĤÐµÐ±": 5594,
      "ious": 5595,
      "Ġ27": 5596,
      "Ð°Ð¹ÑĤÐµ": 5597,
      "à¤¾à¥¤": 5598,
      "ĠÑıÐ²Ð»ÑıÐµÑĤÑģÑı": 5599,
      "ĠØ¸": 5600,
      "Ġfinal": 5601,
      "anc": 5602,
      "Ġkle": 5603,
      "edd": 5604,
      "çĶļ": 5605,
      "Ġdonde": 5606,
      "ĠÑĥÑģÐ»Ð¾Ð²": 5607,
      "Ø§Ø³ÙĬØ©": 5608,
      "Ø¹Ø§": 5609,
      "ĠØ§ÙĦÙħØ´": 5610,
      "Ã¢u": 5611,
      "Ĉą": 5612,
      "Ãºc": 5613,
      "ĠÏĢÎ±ÏģÎ±": 5614,
      "IC": 5615,
      "ĠÙħØµØ±": 5616,
      "à¤ħ": 5617,
      "ĠÐ°ÑĢ": 5618,
      "halten": 5619,
      "St": 5620,
      "Ġwan": 5621,
      "ved": 5622,
      "osten": 5623,
      "ĠktÃ³re": 5624,
      "Ø²Ø©": 5625,
      "ahan": 5626,
      "çº³": 5627,
      "Ð§": 5628,
      "Ġlot": 5629,
      "Ġgran": 5630,
      "ĠÐĿÐµ": 5631,
      "asil": 5632,
      "alÄ±ÅŁ": 5633,
      "ï¼ģâĢĿ": 5634,
      "Î¹Î½": 5635,
      "ĠKur": 5636,
      "Ġ26": 5637,
      "ĠGer": 5638,
      "å·®": 5639,
      "ĠÃº": 5640,
      "è®°èĢħ": 5641,
      "ĠIm": 5642,
      "eits": 5643,
      "Ð¸ÑĩÐµ": 5644,
      "åħ¶å®ŀ": 5645,
      "ä»Ĭå¤©": 5646,
      "ç»ľ": 5647,
      "udi": 5648,
      "Ġsah": 5649,
      "ĠÙħØ«ÙĦ": 5650,
      "ude": 5651,
      "åĨħå®¹": 5652,
      "å¦Ĥä½ķ": 5653,
      "ĠÐ²Ð°ÑĪ": 5654,
      "Ð¸ÑĩÐµÑģÐºÐ¸Ñħ": 5655,
      "Ġtom": 5656,
      "imiento": 5657,
      "ĠÐ¾Ð±ÑıÐ·": 5658,
      "ĠDo": 5659,
      "ĠÐ½ÐµÑģÐº": 5660,
      "its": 5661,
      "éĵ¶": 5662,
      "ÐŃ": 5663,
      "Ġcaso": 5664,
      "ĠBet": 5665,
      "'m": 5666,
      "ĠØ´ÙĬ": 5667,
      "èŃ": 5668,
      "ĠtrÃªn": 5669,
      "çĸĹ": 5670,
      "Ã²n": 5671,
      "å®ŀçİ°": 5672,
      "wend": 5673,
      "ĠÎ¼Î¿Ïħ": 5674,
      "Ġplay": 5675,
      "ĠÐ²Ð¾Ñģ": 5676,
      "ÏĦÎµÏĤ": 5677,
      "ĠÐ·Ð°ÑıÐ²": 5678,
      "Ġsystem": 5679,
      "Ø¹Øª": 5680,
      "ÙĦØª": 5681,
      "ĠtÃ´i": 5682,
      "Ġlet": 5683,
      "enz": 5684,
      "Ġput": 5685,
      "Ġkend": 5686,
      "ĠÑįÑĤÐ¾ÑĤ": 5687,
      "Ð°ÑĨÐ¸Ð¾Ð½": 5688,
      "ĠÑħÐ¾ÑĢÐ¾ÑĪ": 5689,
      "ĠÐ³Ð¾Ð´Ñĥ": 5690,
      "ionen": 5691,
      "å¯Ĩ": 5692,
      "ideo": 5693,
      "ĠÎĹ": 5694,
      "ĠÐ·Ð½": 5695,
      "ogle": 5696,
      "Ġhtt": 5697,
      "ä¹Łä¸į": 5698,
      "Ġnam": 5699,
      "Ġkel": 5700,
      "Ġexc": 5701,
      "Ġdamit": 5702,
      "ÑĤÐ°": 5703,
      "åŃ¦æł¡": 5704,
      "sh": 5705,
      "Ġkarena": 5706,
      "ĠÐ¸Ð½ÑĤÐµÑĢÐµÑģ": 5707,
      "Ġtener": 5708,
      "ĠÐµÐ¼Ñĥ": 5709,
      "ÙĦÙĬØ©": 5710,
      "Ġmill": 5711,
      "Ġeff": 5712,
      "Ð¾Ñħ": 5713,
      "Ø±ÙĬØ¨": 5714,
      "ĠÑģÑĤÑĢ": 5715,
      "æĶ¿çŃĸ": 5716,
      "Ø§ÙĤØ©": 5717,
      "ĠÐ¾ÑĤÐ½Ð¾ÑĪ": 5718,
      "Ġhom": 5719,
      "ĠÐ»ÑĥÑĩ": 5720,
      "Ġeso": 5721,
      "ĠJahren": 5722,
      "ç»Ŀ": 5723,
      "ode": 5724,
      "Ä±nÄ±n": 5725,
      "ĠwiÄĻ": 5726,
      "Ð¼Ñĭ": 5727,
      "Ãºbl": 5728,
      "ĠgeÃ§": 5729,
      "ence": 5730,
      "ald": 5731,
      "Ġperf": 5732,
      "Ð°Ð½Ð°": 5733,
      "Ø§Ø¬ØªÙħØ§Ø¹": 5734,
      "æĹı": 5735,
      "ĠLand": 5736,
      "åĸľæ¬¢": 5737,
      "Ø§Øº": 5738,
      "ØªØ§Ø¨": 5739,
      "ota": 5740,
      "tÄ±r": 5741,
      "ä¼¼": 5742,
      "lko": 5743,
      "ĠFran": 5744,
      "Ġerst": 5745,
      "èŃ¦": 5746,
      "æ´²": 5747,
      "site": 5748,
      "ayÄ±": 5749,
      "ÅĤÄħcz": 5750,
      "Ġhapp": 5751,
      "Ã¼ber": 5752,
      "27": 5753,
      "ä¸įæĸŃ": 5754,
      "Ġwszyst": 5755,
      "Ġpes": 5756,
      "Ġmeine": 5757,
      "ĠnÃ³i": 5758,
      "æī¹": 5759,
      "èīº": 5760,
      "ÙĢÙĢÙĢÙĢ": 5761,
      "Ġihre": 5762,
      "ĠÄĳá»Ļng": 5763,
      "å±ŀ": 5764,
      "ĠyaÅŁ": 5765,
      "Ð°Ð½Ð¾": 5766,
      "ĠÎ¼Î±": 5767,
      "ĠÐ¾Ð±ÑīÐµ": 5768,
      "Ġdin": 5769,
      "à¥ľ": 5770,
      "ĠÐ²ÑĭÑģ": 5771,
      "rech": 5772,
      "iÃŁ": 5773,
      "ative": 5774,
      "ĠDes": 5775,
      "Ġstill": 5776,
      "ward": 5777,
      "ÑĥÑĢÑģ": 5778,
      "Ġquy": 5779,
      "ÃŃculo": 5780,
      "ĠÐ¼ÐµÑĢ": 5781,
      "ĠØ§ÙĦØ¹Ø±Ø¨ÙĬØ©": 5782,
      "Ġtim": 5783,
      "ĠÐĿÐ°": 5784,
      "æ¯Ķè¾ĥ": 5785,
      "self": 5786,
      "¤Ĳ": 5787,
      "æĸ°çļĦ": 5788,
      "Ã©r": 5789,
      "icios": 5790,
      "ĠÑĢÐµÐ·ÑĥÐ»ÑĮÑĤÐ°ÑĤ": 5791,
      "unk": 5792,
      "wick": 5793,
      "Ġpass": 5794,
      "ÙĬÙĦØ©": 5795,
      "Ġonline": 5796,
      "Ġempres": 5797,
      "Ġkadar": 5798,
      "ĠÐ¶Ð¸Ð·Ð½Ð¸": 5799,
      "Ø®ØªÙĦÙģ": 5800,
      "Ġmade": 5801,
      "ç¿": 5802,
      "ĠÐ½ÐµÐ¼": 5803,
      "Î³Îº": 5804,
      "éĢģ": 5805,
      "éģĩ": 5806,
      "ĠPerson": 5807,
      "Ø±ÙĥØ²": 5808,
      "ä»¤": 5809,
      "ĠÐ²Ð°Ñģ": 5810,
      "urg": 5811,
      "iva": 5812,
      "Ġdre": 5813,
      "ç§ĳåŃ¦": 5814,
      "Ħĸ": 5815,
      "ä»ĺ": 5816,
      "ÐµÐºÑĤÐ¸Ð²": 5817,
      "Ð´Ð¸Ð½": 5818,
      "Ð²Ð¾Ð»": 5819,
      "Ġgir": 5820,
      "2016": 5821,
      "ĠSel": 5822,
      "áº»": 5823,
      "Ġreci": 5824,
      "âĢĶâĢĶ": 5825,
      "Ġsea": 5826,
      "å¨ģ": 5827,
      "ĠÎĴ": 5828,
      "é¤Ĳ": 5829,
      "ivid": 5830,
      "ĠÎ¿ÏĢÎ¿": 5831,
      "Ð¾Ð¶Ð´": 5832,
      "é£ŀ": 5833,
      "28": 5834,
      "atos": 5835,
      "eta": 5836,
      "ves": 5837,
      "ĠðŁ": 5838,
      "ilir": 5839,
      "ä¸ľè¥¿": 5840,
      "ĠpaÃŃs": 5841,
      "uka": 5842,
      "roll": 5843,
      "ä¸Ģèµ·": 5844,
      "Ã¤re": 5845,
      "Ð¼ÐµÑģÑĤ": 5846,
      "Ġà¤īà¤¨": 5847,
      "ÙĪØ§Ø±": 5848,
      "Ġlib": 5849,
      "urr": 5850,
      "Ġstar": 5851,
      "æ¾": 5852,
      "eki": 5853,
      "ĠÙĦÙĨ": 5854,
      "vent": 5855,
      "Ġsign": 5856,
      "ĠÐ·Ð°Ð±": 5857,
      "ĠÏĥÏĦÎ¹": 5858,
      "ä»£è¡¨": 5859,
      "ÙĪØµ": 5860,
      "ä¸»ä¹ī": 5861,
      "idi": 5862,
      "åģľ": 5863,
      "Ġhav": 5864,
      "azu": 5865,
      "Ġlub": 5866,
      "ĠÐ½ÐµÐ³Ð¾": 5867,
      "åıªæľī": 5868,
      "Ø¬Ø±": 5869,
      "ĠÑĤÐµÐ»": 5870,
      "Ø¯ÙĬØ¯Ø©": 5871,
      "åİĨåı²": 5872,
      "çī¹åĪ«": 5873,
      "Ġref": 5874,
      "This": 5875,
      "ĠÏĢÎµÏģÎ¹": 5876,
      "Ġmayor": 5877,
      "Î´Î¹Î±": 5878,
      "áº·t": 5879,
      "ĠÐ½Ð°Ð¼": 5880,
      "ĠÙĪÙĤØ¯": 5881,
      "ough": 5882,
      "ule": 5883,
      "ĠÐ¿ÑĢÐ¾Ð±Ð»ÐµÐ¼": 5884,
      "anj": 5885,
      "ĠDaten": 5886,
      "Ġsaat": 5887,
      "unkt": 5888,
      "åĿĩ": 5889,
      "ĠNh": 5890,
      "ÑıÐ±": 5891,
      "ĠNa": 5892,
      "Ġbá»ĭ": 5893,
      "åŁºæľ¬": 5894,
      "imos": 5895,
      "Ã±os": 5896,
      "cji": 5897,
      "Ġkein": 5898,
      "reis": 5899,
      "ĠPer": 5900,
      "Ø¹ÙĬØ©": 5901,
      "ĠØ¹ÙĦ": 5902,
      "Ġolm": 5903,
      "ÙĪØ¹Ø©": 5904,
      "ittle": 5905,
      "ä¼¤": 5906,
      "ĠÑĢÐ°Ð·Ð²Ð¸ÑĤ": 5907,
      "ĠBut": 5908,
      "26": 5909,
      "Ð¾Ð²Ð¾Ð¹": 5910,
      "Ġsudah": 5911,
      "áº¥p": 5912,
      "Ġteng": 5913,
      "ĠhÃłng": 5914,
      "Ġutil": 5915,
      "Ġdenn": 5916,
      "ÏĮÎ½": 5917,
      "çĬ¶": 5918,
      "Ġpem": 5919,
      "èĴ": 5920,
      "ĠFr": 5921,
      "çĨ": 5922,
      "ä¸¤ä¸ª": 5923,
      "ething": 5924,
      "ĠÐļÐ°Ðº": 5925,
      "ĠØ£Øµ": 5926,
      "ĠUnter": 5927,
      "æıĲé«ĺ": 5928,
      "ĠØ¬ÙħÙĬØ¹": 5929,
      "Ø§Ø±Ø¬": 5930,
      "Ġnháº¥t": 5931,
      "ĠØ±Ø¦ÙĬØ³": 5932,
      "Ġhace": 5933,
      "èį¯": 5934,
      "ÐµÑĢÐ³": 5935,
      "Ġanda": 5936,
      "ĠÑĢÐ°ÑģÑģ": 5937,
      "ÑįÑĤÐ¾Ð¼Ñĥ": 5938,
      "ÏĦÏħ": 5939,
      "adt": 5940,
      "Î¼ÎŃÎ½": 5941,
      "ui": 5942,
      "ç½ĳç»ľ": 5943,
      "Ġà¤¬à¤¨": 5944,
      "ĠØªØ¯": 5945,
      "Ġcha": 5946,
      "åħ¨çĲĥ": 5947,
      "adan": 5948,
      "ĠÐºÐ»": 5949,
      "ĠÑĥÑģÑĤÐ°Ð½Ð¾Ð²": 5950,
      "áº·c": 5951,
      "Ġhá»įc": 5952,
      "osta": 5953,
      "ics": 5954,
      "ä»ĭ": 5955,
      "ÏĢÎ¿Î¹": 5956,
      "Ġpal": 5957,
      "ateg": 5958,
      "ĠÙģØ±": 5959,
      "ÃŃan": 5960,
      "Ġera": 5961,
      "åŃ£": 5962,
      "åħŃ": 5963,
      "Ġtego": 5964,
      "adores": 5965,
      "Ġfl": 5966,
      "Ð¾Ð½Ñĭ": 5967,
      "áº£o": 5968,
      "åįĥ": 5969,
      "åľ°åĮº": 5970,
      "ÏĨÎ±": 5971,
      "Ġkullan": 5972,
      "çĶļèĩ³": 5973,
      "kin": 5974,
      "sze": 5975,
      "Î¿ÏįÎ½": 5976,
      "ĠÑģÐ¿Ð¾ÑģÐ¾Ð±": 5977,
      "ÑģÐ»ÐµÐ´": 5978,
      "Ð°ÑĤÐ¸Ð²": 5979,
      "çĶ³": 5980,
      "ibu": 5981,
      "æŃ¢": 5982,
      "áº±ng": 5983,
      "akukan": 5984,
      "é»ĳ": 5985,
      "Wir": 5986,
      "Ġviele": 5987,
      "ĠTo": 5988,
      "ĠÑģÐµÐ¼": 5989,
      "ffen": 5990,
      "ĠÙĦÙĥ": 5991,
      "áº¯c": 5992,
      "Î¸ÎµÎ¯": 5993,
      "ĠÙĬØ³Øª": 5994,
      "ĠÑĨÐµÐ»": 5995,
      "Ġmereka": 5996,
      "å½ķ": 5997,
      "Ø§ÙħØ©": 5998,
      "Ð°Ð»ÑĮÐ½Ð¾": 5999,
      "çĦ¶åĲİ": 6000,
      "ĠÐ·Ð°ÑĢ": 6001,
      "ĠÙĬØªÙħ": 6002,
      "Ġconsider": 6003,
      "Ġthings": 6004,
      "çĪ¶": 6005,
      "é¦Ļ": 6006,
      "klich": 6007,
      "ĠAut": 6008,
      "åĪ»": 6009,
      "Ġà¤ĺ": 6010,
      "Ġlugar": 6011,
      "ĠÐ´ÐµÑıÑĤÐµÐ»ÑĮ": 6012,
      "ĠÐ¼Ð¾": 6013,
      "ĠMus": 6014,
      "Ø·ÙĬÙĨ": 6015,
      "á»±c": 6016,
      "Ġviá»ĩc": 6017,
      "Ø³ÙĨ": 6018,
      "Î³Î±": 6019,
      "Ġtry": 6020,
      "æ¿": 6021,
      "ĠØ§ÙĦØ§": 6022,
      "ĠthÃ¬": 6023,
      "ĠÙĪÙģÙĬ": 6024,
      "Ġhiá»ĩn": 6025,
      "ĠInform": 6026,
      "Ġlain": 6027,
      "unde": 6028,
      "åħ¨åĽ½": 6029,
      "org": 6030,
      "ÏģÎµÎ¯": 6031,
      "æĵ": 6032,
      "abilir": 6033,
      "Ġmw": 6034,
      "ØµØ©": 6035,
      "Ġki": 6036,
      "ĠÑĤÐ°Ð¼": 6037,
      "Ġlove": 6038,
      "ÏİÏĤ": 6039,
      "åªĴ": 6040,
      "Ø®Ø¯Ùħ": 6041,
      "ujÄħ": 6042,
      "ĠwÃ¼rde": 6043,
      "thing": 6044,
      "ÑıÑī": 6045,
      "ĠÐ¤ÐµÐ´ÐµÑĢ": 6046,
      "Ġdist": 6047,
      "ellt": 6048,
      "Ġsiempre": 6049,
      "oria": 6050,
      "Ø§ØªÙĩ": 6051,
      "ibil": 6052,
      "pen": 6053,
      "Ġbard": 6054,
      "Ġà¤¹à¤®": 6055,
      "Ã¡i": 6056,
      "ahre": 6057,
      "çł´": 6058,
      "âĢĭ": 6059,
      "Ġlife": 6060,
      "Ġseine": 6061,
      "Ġcab": 6062,
      "Ġczas": 6063,
      "Ã´n": 6064,
      "ĠÐ´Ð¾ÐºÑĥÐ¼ÐµÐ½ÑĤ": 6065,
      "Ã¶l": 6066,
      "aceb": 6067,
      "Ġvi": 6068,
      "ĠâĦĸ": 6069,
      "Ġlleg": 6070,
      "ÙĦÙĬÙĦ": 6071,
      "zel": 6072,
      "Ġcel": 6073,
      "Ġtotal": 6074,
      "ÑĥÑģÐº": 6075,
      "åľŁ": 6076,
      "Ġalgo": 6077,
      "åŁºç¡": 6078,
      "ĠÑģÐµÐ±Ðµ": 6079,
      "alth": 6080,
      "ÏģÎ¹Î±": 6081,
      "ĠÐ¿ÑĢÐµÐ´Ð¿ÑĢ": 6082,
      "199": 6083,
      "ĠÐ¼Ð½Ð¾Ð³": 6084,
      "Ġwal": 6085,
      "åŁºç¡Ģ": 6086,
      "Ġkem": 6087,
      "Ø®Ø¯Ø§Ùħ": 6088,
      "Ġohne": 6089,
      "Ġinvest": 6090,
      "other": 6091,
      "ĠÎµÏħ": 6092,
      "ç½ĳç«Ļ": 6093,
      "Ø§Ø°Ø§": 6094,
      "Ġmenjadi": 6095,
      "ÐµÐ³Ð¾Ð´": 6096,
      "Ã¤lt": 6097,
      "ØĽ": 6098,
      "Ø¸Ùħ": 6099,
      "Ġcomple": 6100,
      "Ð½Ð¾ÑģÑĤÑĮÑİ": 6101,
      "sam": 6102,
      "Ġtro": 6103,
      "ĠØ§ÙĦØªÙĨ": 6104,
      "Ġweil": 6105,
      "iet": 6106,
      "ØŃØ¯Ø«": 6107,
      "ÎµÏģ": 6108,
      "Ġsame": 6109,
      "ĠÐ¿ÑĢÐ¾Ð³ÑĢÐ°Ð¼": 6110,
      "Ġproces": 6111,
      "iego": 6112,
      "ecek": 6113,
      "ĠÐºÐ°ÑĩÐµ": 6114,
      "You": 6115,
      "Ø¹ÙħÙĦ": 6116,
      "ĠÑĢÐ°Ð±Ð¾ÑĤÑĭ": 6117,
      "ĠÃ§alÄ±ÅŁ": 6118,
      "Ø§ÙĦØŃ": 6119,
      "ĠÑįÑĤÐ¾Ð¹": 6120,
      "Por": 6121,
      "Ġ29": 6122,
      "ĠÙĬØ¯": 6123,
      "iesz": 6124,
      "Los": 6125,
      "åħ«": 6126,
      "ĠthÃłnh": 6127,
      "Ġcualquier": 6128,
      "æľīåħ³": 6129,
      "æ¦": 6130,
      "Ġà¤²à¤Ĺ": 6131,
      "Ġtylko": 6132,
      "entar": 6133,
      "Ø¬Ùĩ": 6134,
      "Ð°ÑĢÐ¸": 6135,
      "laÅŁ": 6136,
      "ono": 6137,
      "ÐµÐ½Ð¾": 6138,
      "ĠÐ¿Ð¾ÐºÐ°Ð·": 6139,
      "eros": 6140,
      "ĠDeutsch": 6141,
      "ĠSer": 6142,
      "uyá»ĩ": 6143,
      "ÙĪØ§Ø¬": 6144,
      "å®£": 6145,
      "Ø®Ø·": 6146,
      "æľĢåĲİ": 6147,
      "ÑĢÐµ": 6148,
      "ĠsÃ¶": 6149,
      "Ġzwe": 6150,
      "ĠØ§ÙĦØ¥Ø³ÙĦØ§Ùħ": 6151,
      "Ġespecial": 6152,
      "ĠmÃ¬nh": 6153,
      "éĺ³": 6154,
      "arbeit": 6155,
      "ĠÎ¼ÏĢÎ¿": 6156,
      "Ø³Ø¨Ø¨": 6157,
      "Ø§Ø³ÙĬ": 6158,
      "Ð°Ð¶Ð´Ð°Ð½": 6159,
      "Ġstart": 6160,
      "Ð°Ð»ÑĮÐ½ÑĭÑħ": 6161,
      "é¢Ŀ": 6162,
      "æĶ¯æĮģ": 6163,
      "èĪª": 6164,
      "ÙĩÙĬ": 6165,
      "ways": 6166,
      "æ½": 6167,
      "miÅŁ": 6168,
      "Î³Î¿": 6169,
      "mitt": 6170,
      "Ġhor": 6171,
      "åĩºæĿ¥": 6172,
      "Ð¸ÑĤÐµÐ»ÐµÐ¹": 6173,
      "ĠÙĩÙĨØ§Ùĥ": 6174,
      "ĠÎĻ": 6175,
      "ĠSa": 6176,
      "ĠÐ¶ÐµÐ½": 6177,
      "ĠÑĩÐ¸Ñģ": 6178,
      "45": 6179,
      "ĠØŁ": 6180,
      "aji": 6181,
      "Ð¾ÑĢÐ¾Ð²": 6182,
      "æ³ķå¾ĭ": 6183,
      "åŃĺåľ¨": 6184,
      "ÐµÑģÑı": 6185,
      "Ð·Ð°": 6186,
      "Ð¾Ð½Ð°": 6187,
      "Ġstand": 6188,
      "çīĪ": 6189,
      "Ġcuenta": 6190,
      "ÙĨÙĬÙĨ": 6191,
      "éħĴåºĹ": 6192,
      "ĠIf": 6193,
      "ments": 6194,
      "urt": 6195,
      "ĠÐ¼Ð¸Ð½": 6196,
      "acebook": 6197,
      "çļĦè¯Ŀ": 6198,
      "ĠÙĪØ±": 6199,
      "Ġrev": 6200,
      "Ġtháº¿": 6201,
      "ÙĤØ¨": 6202,
      "ÏĮÏĦÎµ": 6203,
      "ĠÑĢÐ°Ð·ÑĢ": 6204,
      "±c": 6205,
      "å¯Ł": 6206,
      "Ġprinci": 6207,
      "Ġà¤ªà¤¹": 6208,
      "Ġuz": 6209,
      "Ð²ÐµÑģÑĤ": 6210,
      "è¡Įä¸º": 6211,
      "Ġ60": 6212,
      "ĠØ¨Ø´ÙĥÙĦ": 6213,
      "å¥¥": 6214,
      "29": 6215,
      "edi": 6216,
      "Ġlast": 6217,
      "ientos": 6218,
      "ĠDE": 6219,
      "Ġmundo": 6220,
      "ils": 6221,
      "ĠHand": 6222,
      "Ø¹ÙĬ": 6223,
      "åı«": 6224,
      "Ð¾ÑĢÐ°": 6225,
      "oÅĽci": 6226,
      "Ð¸ÑĩÐµÑģÐºÐ¾Ð¹": 6227,
      "ĠFl": 6228,
      "ĠÙĤØ±": 6229,
      "ress": 6230,
      "ÐµÐ½Ð½ÑĭÐµ": 6231,
      "æ¸¸æĪı": 6232,
      "ĠWeb": 6233,
      "Ø§Ø±ÙĬØ©": 6234,
      "Ã¼nd": 6235,
      "Ġsomething": 6236,
      "weise": 6237,
      "fern": 6238,
      "âĢĺ": 6239,
      "ç¥¨": 6240,
      "ĠØªØ£": 6241,
      "Î³ÏģÎ±": 6242,
      "ä¸Ģæ¬¡": 6243,
      "nung": 6244,
      "ĠÑģÐ¾Ð±ÑģÑĤÐ²ÐµÐ½": 6245,
      "Ġandere": 6246,
      "Ø§Ø±Ø³": 6247,
      "åī¯": 6248,
      "ĠÐ¾ÑģÐ¾Ð±": 6249,
      "ĠÑģÑĤÐ°ÑĤÑĮ": 6250,
      "Ġà¤Ĺà¤¯": 6251,
      "ÏĥÏĦÎ·": 6252,
      "ĠBar": 6253,
      "Ġkep": 6254,
      "åİĭ": 6255,
      "ĠØ§ÙĦØ¨Ø±": 6256,
      "halb": 6257,
      "ÙģÙĦ": 6258,
      "ĠAber": 6259,
      "II": 6260,
      "Se": 6261,
      "ïº": 6262,
      "Ġspr": 6263,
      "ÙħØ§ÙĨ": 6264,
      "ÑĢÐ°ÑĦ": 6265,
      "ÏģÎ¿Ïħ": 6266,
      "ç§»": 6267,
      "á»ĵi": 6268,
      "ÐµÐ³Ð´Ð°": 6269,
      "åħ¶ä¸Ń": 6270,
      "Ġtrabajo": 6271,
      "Ġdá»¥ng": 6272,
      "ĠnÄĥm": 6273,
      "ivos": 6274,
      "á»ĭch": 6275,
      "Ġgeb": 6276,
      "Ġfeel": 6277,
      "åĽłæŃ¤": 6278,
      "è®¿": 6279,
      "reg": 6280,
      "ÄĻp": 6281,
      "ĠÄĳá»ĵ": 6282,
      "ĥn": 6283,
      "áº¡o": 6284,
      "æĿ¿": 6285,
      "çŃĶ": 6286,
      "Ġfew": 6287,
      "Ġpay": 6288,
      "ç«ŀ": 6289,
      "ç¼ĸ": 6290,
      "Ø§ØŃØ©": 6291,
      "Ġti": 6292,
      "åĿĲ": 6293,
      "ather": 6294,
      "èī¯": 6295,
      "ÎĽ": 6296,
      "ç¯": 6297,
      "Ar": 6298,
      "à¥ĥ": 6299,
      "ÑĨÐµÐ½": 6300,
      "èİ·å¾Ĺ": 6301,
      "Ø·ÙĤØ©": 6302,
      "Ġprote": 6303,
      "Ġlittle": 6304,
      "avor": 6305,
      "Ġecon": 6306,
      "ÙĬÙĨØ§": 6307,
      "ä½łä»¬": 6308,
      "æŀĲ": 6309,
      "perti": 6310,
      "á»ĳn": 6311,
      "Ġ%": 6312,
      "ĠÎ±ÏħÏĦÏĮ": 6313,
      "ĠÐ¸Ð·Ð¼ÐµÐ½": 6314,
      "èĪ¬": 6315,
      "Ð°ÑĨÐ¸Ñİ": 6316,
      "èĭı": 6317,
      "è®¡åĪĴ": 6318,
      "Ġur": 6319,
      "Ġsolo": 6320,
      "iere": 6321,
      "amy": 6322,
      "owi": 6323,
      "éĻį": 6324,
      "ĠÎ¬Î»Î»": 6325,
      "Ġtut": 6326,
      "ÏħÎ½": 6327,
      "ĠchÃŃnh": 6328,
      "ĠØŃØ¯": 6329,
      "ÑĭÐ²Ð°ÑĤÑĮ": 6330,
      "ÌĢ": 6331,
      "If": 6332,
      "ÏĮÏĤ": 6333,
      "acz": 6334,
      "wiet": 6335,
      "ĠÙĦÙĦØª": 6336,
      "áº«n": 6337,
      "ĠDa": 6338,
      "ĠquÃ©": 6339,
      "ä¼ļè®®": 6340,
      "So": 6341,
      "Ã³ÅĤ": 6342,
      "Ø§Ø¶ÙĬ": 6343,
      "Ġcomun": 6344,
      "ĠØ¹ÙĦÙĬÙĩØ§": 6345,
      "åĤ": 6346,
      "ĠÑĢÐµÐº": 6347,
      "Ġhigh": 6348,
      "ĠmÃ¼ssen": 6349,
      "ĠÑģÐ¸Ð»": 6350,
      "ĠDr": 6351,
      "åºŃ": 6352,
      "ĠÐ½Ð°ÑħÐ¾Ð´": 6353,
      "ĠØ³Øª": 6354,
      "åĩºäºĨ": 6355,
      "Ø§ÙĦÙī": 6356,
      "ĠÙĪØ£ÙĨ": 6357,
      "Ð°Ð½Ð¸Ð¹": 6358,
      "ĠÄĳá»ģ": 6359,
      "Ġmend": 6360,
      "æĭ¥": 6361,
      "Ġnap": 6362,
      "æ¿Ģ": 6363,
      "ÐµÐ½ÑĤÐ°": 6364,
      "Ġkor": 6365,
      "ĠsÃ³": 6366,
      "ĠØªÙĥÙĪÙĨ": 6367,
      "ÑĢÐ¾Ðº": 6368,
      "Ġgl": 6369,
      "UR": 6370,
      "Ð°Ð»ÑĮÐ½Ð¾Ð¹": 6371,
      "Ġ2009": 6372,
      "ismo": 6373,
      "ÙĪØ±ÙĬØ©": 6374,
      "åĪĽæĸ°": 6375,
      "ott": 6376,
      "æ¸©": 6377,
      "ades": 6378,
      "Ġversch": 6379,
      "As": 6380,
      "Ġyaz": 6381,
      "ĠÐ¿Ð¾Ð¼Ð¾Ñī": 6382,
      "ĠÐ³Ð»Ð°Ð²": 6383,
      "ĠmÃ¶ch": 6384,
      "à¤¤à¤°": 6385,
      "áº¯t": 6386,
      "ä¸Ģç§į": 6387,
      "ET": 6388,
      "ĠÐ³Ð¾ÑģÑĥÐ´Ð°ÑĢÑģÑĤÐ²ÐµÐ½": 6389,
      "Ð¾Ð»Ð¶": 6390,
      "ÑģÑĤÐ²Ñĥ": 6391,
      "Ġsau": 6392,
      "Ġquan": 6393,
      "Ġask": 6394,
      "ÙĤÙĪÙĦ": 6395,
      "å¸Ń": 6396,
      "IT": 6397,
      "arm": 6398,
      "ĠØ³ÙĨ": 6399,
      "fort": 6400,
      "æ¶Īè´¹": 6401,
      "Ġ:)": 6402,
      "Ġsollte": 6403,
      "Ġagus": 6404,
      "ĠÎ¸ÎŃ": 6405,
      "Ġ*": 6406,
      "Ð´ÐµÑĢÐ¶": 6407,
      "é¢Ĩå¯¼": 6408,
      "ĠSan": 6409,
      "èĦĳ": 6410,
      "Ġbook": 6411,
      "ç»ĥ": 6412,
      "uchen": 6413,
      "ĠÎ±Î»Î»Î¬": 6414,
      "Ġgleich": 6415,
      "dÄ±": 6416,
      "ĠIhnen": 6417,
      "ited": 6418,
      "ØµØ¯": 6419,
      "Ġkup": 6420,
      "Ġyak": 6421,
      "è¿Ļæł·çļĦ": 6422,
      "éĴŁ": 6423,
      "åģĩ": 6424,
      "Ġpublic": 6425,
      "ĠÐ²Ð¾ÑĤ": 6426,
      "ĠÐ½Ð¸Ñĩ": 6427,
      "Ġlim": 6428,
      "ä¹ħ": 6429,
      "Ġalt": 6430,
      "ula": 6431,
      "Ġgerek": 6432,
      "Ġsigu": 6433,
      "Ġmad": 6434,
      "Ġopt": 6435,
      "Pro": 6436,
      "Ø¹ÙħØ§ÙĦ": 6437,
      "ĠØ¯ÙĪÙĨ": 6438,
      "Ġeigen": 6439,
      "æĹ¥æľ¬": 6440,
      "Ġbuen": 6441,
      "ĠØ£Ø¹": 6442,
      ",\"": 6443,
      "lay": 6444,
      "ÏĥÏĦÎ¿": 6445,
      "ĠÐ¼Ð¾Ð»": 6446,
      "ÐºÐ°Ñħ": 6447,
      "Ð¾ÑģÑĤÐ°Ð²": 6448,
      "Ġtersebut": 6449,
      "å¤®": 6450,
      "èµĦæºĲ": 6451,
      "ĠgÃ¼": 6452,
      "ollow": 6453,
      "ĠWelt": 6454,
      "70": 6455,
      "Ġmomento": 6456,
      "ÐºÐ»ÑİÑĩ": 6457,
      "ĠProb": 6458,
      "ĠÐ¿ÑĢÐ¸Ñĩ": 6459,
      "ÙģØ¶ÙĦ": 6460,
      "ä¸Ģä¸ĭ": 6461,
      "ĠÙħÙħ": 6462,
      "ĠÐłÐ¤": 6463,
      "ÑıÑģ": 6464,
      "ĠÐ¿ÑĢÐ¾ÐµÐºÑĤ": 6465,
      "ĠÐ°Ð²ÑĤÐ¾Ð¼": 6466,
      "ĠnhÃ¢n": 6467,
      "Ġworld": 6468,
      "Ġinteres": 6469,
      "Ġaround": 6470,
      "Î¯Î¶": 6471,
      "æĶ¹éĿ©": 6472,
      "å¢ŀéķ¿": 6473,
      "ĠSon": 6474,
      "ĠestÃ¡n": 6475,
      "ÑĢÐ°Ñģ": 6476,
      "Ġnatur": 6477,
      "ä¸ĢæŃ¥": 6478,
      "ĠÄĳá»ĭnh": 6479,
      "ĠØ¯Ø±": 6480,
      "Ġtam": 6481,
      "ĠØ§ÙĦØ±Ø¦ÙĬØ³": 6482,
      "Ġtanto": 6483,
      "æ±½": 6484,
      "iga": 6485,
      "Ġmenos": 6486,
      "ĠInternet": 6487,
      "Ġdesar": 6488,
      "ç´¢": 6489,
      "vor": 6490,
      "itam": 6491,
      "åĳ³": 6492,
      "ĠÑĢÑĭ": 6493,
      "Ġmag": 6494,
      "å¥ĸ": 6495,
      "á»ģn": 6496,
      "Ġorganiz": 6497,
      "Ġotros": 6498,
      "ĠPart": 6499,
      "Ð·Ñĭ": 6500,
      "è´§": 6501,
      "iera": 6502,
      "Ġanh": 6503,
      "Ġdurante": 6504,
      "Ġbusiness": 6505,
      "UN": 6506,
      "æĦŁè§ī": 6507,
      "ÑĢÐ¸Ð¼ÐµÑĢ": 6508,
      "ĠSte": 6509,
      "umb": 6510,
      "ĠÑĥÐ±": 6511,
      "ĠÑĥÐºÐ°Ð·": 6512,
      "Ġinformation": 6513,
      "è´£ä»»": 6514,
      "ene": 6515,
      "Î¹ÎºÎ¿": 6516,
      "ÏħÏĥ": 6517,
      "Ġchild": 6518,
      "Ð¾Ð±Ñī": 6519,
      "uyÃªn": 6520,
      "æĺ¯ä¸Ģä¸ª": 6521,
      "uma": 6522,
      "Î´Î·": 6523,
      "ÙĩÙħØ§": 6524,
      "ilt": 6525,
      "Ø§ÙĦØ§Øª": 6526,
      "ĠÐ¿Ð¾Ð½Ð¸Ð¼": 6527,
      "ason": 6528,
      "ç²¾ç¥ŀ": 6529,
      "ØŃÙĪ": 6530,
      "Ġsondern": 6531,
      "ĠjuÅ¼": 6532,
      "iele": 6533,
      "Ð°ÑĤÐ¾": 6534,
      "å®¢æĪ·": 6535,
      "unque": 6536,
      "upt": 6537,
      "ĠWas": 6538,
      "ĠØ§ÙĪ": 6539,
      "ĠAt": 6540,
      "ĠÐ¶ÐµÐ»": 6541,
      "Ġdifer": 6542,
      "ĠBel": 6543,
      "35": 6544,
      "ĠØŃÙĪÙĦ": 6545,
      "ĠmoÅ¼e": 6546,
      "ĠHo": 6547,
      "ĠBes": 6548,
      "ÐµÐ¶Ð´Ñĥ": 6549,
      "ÙĩØ©": 6550,
      "ĠØ§ÙĦØ¨ÙĦ": 6551,
      "ÏĥÏĦÎ±": 6552,
      "ä¸įè¦ģ": 6553,
      "ĠÑĢÐµÐ±": 6554,
      "Ġcontra": 6555,
      "Ġtin": 6556,
      "Ġsebagai": 6557,
      "Ġtiáº¿": 6558,
      "Ġlat": 6559,
      "Ø¶Ø±": 6560,
      "Ġ198": 6561,
      "Ġwaren": 6562,
      "Ġprzed": 6563,
      "ÑĦÑĦ": 6564,
      "ç»ĵæŀľ": 6565,
      "ĠÐ´ÑĥÐ¼": 6566,
      "ÑĢÑĥÐ¶": 6567,
      "eres": 6568,
      "aku": 6569,
      "Ma": 6570,
      "Ð¸Ð½Ðµ": 6571,
      "Ã¼g": 6572,
      "ĠTra": 6573,
      "ĠÐºÐ¾ÑĤÐ¾ÑĢÑĭÑħ": 6574,
      "é¦Ĩ": 6575,
      "Ġsil": 6576,
      "Ġara": 6577,
      "ĠAmer": 6578,
      "Ġtop": 6579,
      "abe": 6580,
      "ĠnÆ°á»Ľc": 6581,
      "Ġatt": 6582,
      "Ã³m": 6583,
      "Ø¨Ø§Øª": 6584,
      "Ð¾Ð³Ð»Ð°Ñģ": 6585,
      "ÙĪØ¯Ø©": 6586,
      "è°¢": 6587,
      "ćãĢģ": 6588,
      "Ġpueden": 6589,
      "igung": 6590,
      "è°ģ": 6591,
      "çľŁçļĦ": 6592,
      "ĠWoch": 6593,
      "åħ³äºİ": 6594,
      "iven": 6595,
      "Ð°Ð½Ñĭ": 6596,
      "Ġass": 6597,
      "ä¿ĿæĬ¤": 6598,
      "çŁŃ": 6599,
      "ĠÐ¿ÑĢÐ¾ÑĨÐµÑģÑģ": 6600,
      "åı¤": 6601,
      "ĠÐ¼ÐµÑĤ": 6602,
      "sung": 6603,
      "ĠWar": 6604,
      "yÅĽ": 6605,
      "Ġsat": 6606,
      "ichte": 6607,
      "ĠÙħÙĨÙĩØ§": 6608,
      "çĽ´æİ¥": 6609,
      "ĠÑģÑĩÐ¸ÑĤ": 6610,
      "Ġhome": 6611,
      "ÐµÑĤÑĭ": 6612,
      "ĠÙħØ¨": 6613,
      "ĠØªÙģ": 6614,
      "äº§ä¸ļ": 6615,
      "mar": 6616,
      "ĠØ§Ø±": 6617,
      "äºĳ": 6618,
      "æį¢": 6619,
      "Ġzd": 6620,
      "ÏĦÏģÎ¿": 6621,
      "ĠÐ¾ÐºÐ°Ð·": 6622,
      "ÐµÑĩÐ½Ð¾": 6623,
      "ternehmen": 6624,
      "AC": 6625,
      "ĠØ§ÙĦØ°ÙĬÙĨ": 6626,
      "ä¹ĭéĹ´": 6627,
      "owania": 6628,
      "ĠÐ¾ÑĤÐ´": 6629,
      "Ġsuper": 6630,
      "Ġprincip": 6631,
      "Ġsá»ĳ": 6632,
      "ĠÑĥÑģÑĤ": 6633,
      "ĠÏĢÏģÏĮ": 6634,
      "éĹ»": 6635,
      "ĠÙĪÙĩÙĬ": 6636,
      "ÐµÐºÐ¾ÑĤÐ¾ÑĢ": 6637,
      "Ø´Ùģ": 6638,
      "áº¯n": 6639,
      "ĠinformaciÃ³n": 6640,
      "ÑıÑĤÐ¸Ñı": 6641,
      "Ð»ÐµÐºÑĤ": 6642,
      "Ġfact": 6643,
      "ĠØªÙĦÙĥ": 6644,
      "ĠÐ¿Ð¾ÑĢÑıÐ´": 6645,
      "ØªÙħØ¹": 6646,
      "ĠØ¨Ø¥": 6647,
      "ÑĭÐ¼Ð¸": 6648,
      "ÑģÑĤÐ²Ð¾Ð¼": 6649,
      "Ð°Ð»Ð°ÑģÑĮ": 6650,
      "100": 6651,
      "ç»§ç»Ń": 6652,
      "ÙħÙĪØ¶ÙĪØ¹": 6653,
      "ĠÐ´Ð¾Ð¿": 6654,
      "Æ°a": 6655,
      "day": 6656,
      "Ã¼s": 6657,
      "ÙĦØ³Ø·ÙĬÙĨ": 6658,
      "à¤µà¤°": 6659,
      "á»Ļc": 6660,
      "Æ°á»£ng": 6661,
      "Ġtun": 6662,
      "ĠØ§ÙĦØ§Øª": 6663,
      "é¢ĨåŁŁ": 6664,
      "åĪĨæŀĲ": 6665,
      "ĠRes": 6666,
      "åĩı": 6667,
      "jekt": 6668,
      "Ø§ÙĤØªØµ": 6669,
      "ç¨İ": 6670,
      "ydd": 6671,
      "ĠOd": 6672,
      "ĠÎºÎ±ÏĦÎ¬": 6673,
      "Ġbre": 6674,
      "Ġdej": 6675,
      "ental": 6676,
      "iter": 6677,
      "Ã¤ft": 6678,
      "åĽ½åĨħ": 6679,
      "Ġsitu": 6680,
      "ĠØ®Ø·": 6681,
      "yr": 6682,
      "Ġgeneral": 6683,
      "ĠIhre": 6684,
      "ÎŃÎ½": 6685,
      "Ġwirklich": 6686,
      "Ð½Ð°ÐºÐ¾": 6687,
      "yt": 6688,
      "èĦ¸": 6689,
      "tek": 6690,
      "å¸®åĬ©": 6691,
      "ćĈĈ": 6692,
      "atch": 6693,
      "Ø¬Ø¯": 6694,
      "nin": 6695,
      "Ġcome": 6696,
      "Ġgrup": 6697,
      "åĪ¤": 6698,
      "Ð½Ð¸ÐºÐ¸": 6699,
      "å¹³åı°": 6700,
      "Ġpoco": 6701,
      "ä¹ĭåīį": 6702,
      "ĠÙĦØŃ": 6703,
      "ĠngÃły": 6704,
      "iar": 6705,
      "Ð¸Ð»Ð¾ÑģÑĮ": 6706,
      "ĠÏħÏĢÎ¿": 6707,
      "AK": 6708,
      "uir": 6709,
      "eme": 6710,
      "Ġbeim": 6711,
      "ÑģÐºÐ°Ð·": 6712,
      "ienia": 6713,
      "ÙħØ³": 6714,
      "ÑĨÐµ": 6715,
      "ç§ĳæĬĢ": 6716,
      "ä¸´": 6717,
      "ÐµÐ»Ð°": 6718,
      "ĠØ±Ø³": 6719,
      "gin": 6720,
      "Ġdol": 6721,
      "æ³¢": 6722,
      "Ġdib": 6723,
      "ãĢĤâĢľ": 6724,
      "åħ·æľī": 6725,
      "Ã³b": 6726,
      "ä¹Ŀ": 6727,
      "ips": 6728,
      "www": 6729,
      "Ġrealiz": 6730,
      "æĪĳåĽ½": 6731,
      "igo": 6732,
      "Ã¼rlich": 6733,
      "Si": 6734,
      "èĥĮ": 6735,
      "ĨĴ": 6736,
      "Ġlist": 6737,
      "Ġnever": 6738,
      "ĠØ¹Ùħ": 6739,
      "ÑĥÐ´Ð°": 6740,
      "Ã³g": 6741,
      "ĠØ§ÙĦØªØŃ": 6742,
      "iá»ĥm": 6743,
      "Ì£": 6744,
      "ĠÐ²Ð¾Ð´": 6745,
      "ĠÑģÐµÐ¹ÑĩÐ°Ñģ": 6746,
      "Î²Î±": 6747,
      "ĠØ§ÙĦØ§Ø³": 6748,
      "åįł": 6749,
      "ÙĪÙħØ§Øª": 6750,
      "bor": 6751,
      "ĠMal": 6752,
      "å®ĮæĪĲ": 6753,
      "ĠØªØ·": 6754,
      "Ø±ÙĬÙĥ": 6755,
      "ĠGrund": 6756,
      "ĠDeutschland": 6757,
      "ĠÎŃÏĩÎµÎ¹": 6758,
      "æīĺ": 6759,
      "ĠChr": 6760,
      "Îĵ": 6761,
      "Ġwr": 6762,
      "Ãªm": 6763,
      "gal": 6764,
      "ĠÐ²Ð°Ð¶": 6765,
      "ultur": 6766,
      "ĠØ§ÙĦÙĪØ·": 6767,
      "ĠTeil": 6768,
      "Ġsan": 6769,
      "åĵ¥": 6770,
      "Ġalways": 6771,
      "ĠÐ½Ð°Ð¿ÑĢÐ°Ð²": 6772,
      "ÐµÑģÐ¿ÐµÑĩ": 6773,
      "Ġprofes": 6774,
      "Ġencon": 6775,
      "Ð¸Ð»Ð¾": 6776,
      "Ġdieses": 6777,
      "ÐµÐ¿ÐµÑĢÑĮ": 6778,
      "lerin": 6779,
      "ĠDi": 6780,
      "ĠÐ¿ÑĢÐ¾ÑĤÐ¸Ð²": 6781,
      "ĠcÃ²n": 6782,
      "Ġnada": 6783,
      "ley": 6784,
      "Ä±nÄ±z": 6785,
      "Ġkap": 6786,
      "Ġhak": 6787,
      "Ġsure": 6788,
      "çŁ³": 6789,
      "crib": 6790,
      "ĠÃľber": 6791,
      "åº§": 6792,
      "arÄ±": 6793,
      "ÑĭÐ²Ð°ÐµÑĤ": 6794,
      "æĸ¹æ³ķ": 6795,
      "ĠÐ¿ÑĢÐ¸Ð¼": 6796,
      "nt": 6797,
      "schaf": 6798,
      "ĠProduk": 6799,
      "åįķä½į": 6800,
      "Ġhast": 6801,
      "æ²³": 6802,
      "Ġ2008": 6803,
      "çŁ¥è¯Ĩ": 6804,
      "ÑħÐ¾Ð´Ð¸ÑĤ": 6805,
      "ĠÐ½ÐµÑģÐºÐ¾Ð»ÑĮÐºÐ¾": 6806,
      "è¿ĩåİ»": 6807,
      "âĢŀ": 6808,
      "ĠÑĩÐµÑĢÐµÐ·": 6809,
      "ĠÅ¼": 6810,
      "áº¡t": 6811,
      "ĠØ§ÙĦØ£ÙĪÙĦ": 6812,
      "ĠØ§ÙĦØŃÙĥ": 6813,
      "åĨ³å®ļ": 6814,
      "Ġfinden": 6815,
      "hir": 6816,
      "ulu": 6817,
      "ĠØªØŃØª": 6818,
      "ÎµÎ»": 6819,
      "iyet": 6820,
      "sol": 6821,
      "inter": 6822,
      "ĠSi": 6823,
      "æĢķ": 6824,
      "Ð¸Ð¹ÑģÐºÐ¾Ð¹": 6825,
      "Ø¸ÙĬÙħ": 6826,
      "Ġseit": 6827,
      "çĶ±äºİ": 6828,
      "Ġraz": 6829,
      "cak": 6830,
      "Ġses": 6831,
      "ç¬¬ä¸ī": 6832,
      "EM": 6833,
      "æłĩåĩĨ": 6834,
      "ÑĢÑĥÐ¿Ð¿": 6835,
      "ÑģÐºÐ°Ñı": 6836,
      "ĠÑģÑĤÐ°ÑĢ": 6837,
      "Ġkuwa": 6838,
      "ĠHa": 6839,
      "æ¯ķ": 6840,
      "Ġberb": 6841,
      "ç¨³": 6842,
      "Ã¼yÃ¼k": 6843,
      "ĠÐºÐ²": 6844,
      "ĠÐ¼ÑĥÐ¶": 6845,
      "ĠÑĥÑĢÐ¾Ð²": 6846,
      "Ġcamp": 6847,
      "Ġhiz": 6848,
      "æĿ¥è¶Ĭ": 6849,
      "Ġsido": 6850,
      "åĬª": 6851,
      "ĠJahre": 6852,
      "Ð°Ð½Ð¸Ñİ": 6853,
      "bra": 6854,
      "ĠÐ´Ð¾Ð³Ð¾Ð²Ð¾ÑĢ": 6855,
      "Ġesp": 6856,
      "ĠÐŀÐ±": 6857,
      "éĿł": 6858,
      "Ġesto": 6859,
      "Æ¡i": 6860,
      "Ġred": 6861,
      "ĠÐ²ÑģÐµÐ³Ð´Ð°": 6862,
      "Ø§Ø¯Ø±": 6863,
      "ÐµÐ³Ð¾Ð´Ð½Ñı": 6864,
      "ĠÐ³ÑĢÐ°Ð¶Ð´Ð°Ð½": 6865,
      "è´¸": 6866,
      "åģ¥åº·": 6867,
      "Ġtran": 6868,
      "puÃ©s": 6869,
      "sto": 6870,
      "çĽ®æłĩ": 6871,
      "ĠØŃÙĤ": 6872,
      "ĠÐ»ÑİÐ´ÐµÐ¹": 6873,
      "lus": 6874,
      "Ĉćï¼Į": 6875,
      "Ġzam": 6876,
      "odz": 6877,
      "ĠInter": 6878,
      "ĠØ§ÙĦØªØ¬": 6879,
      "Ġnichts": 6880,
      "Ġese": 6881,
      "Ð¸Ð²Ð°ÑĤÑĮ": 6882,
      "æĪĲåĬŁ": 6883,
      "eiten": 6884,
      "áº¥n": 6885,
      "Ġsatu": 6886,
      "ĠØ§ÙĦÙĪÙĤ": 6887,
      "ÏīÏĥÎ·": 6888,
      "ĠBil": 6889,
      "ÙĪØ§Ø¡": 6890,
      "éĩĳèŀį": 6891,
      "Ġfal": 6892,
      "ĠMas": 6893,
      "Ġsocial": 6894,
      "aden": 6895,
      "æħ¢": 6896,
      "iÃ³": 6897,
      "ÑĢÐ°Ñħ": 6898,
      "ĠÎ´Î¹": 6899,
      "Ġkeep": 6900,
      "ÅĤug": 6901,
      "Ġzwei": 6902,
      "ton": 6903,
      "Ġetc": 6904,
      "æİ¥åıĹ": 6905,
      "ÑģÑĤÑĢÑĥ": 6906,
      "ãĢĤãĢĤ": 6907,
      "Ġtodas": 6908,
      "è¶ĬæĿ¥è¶Ĭ": 6909,
      "è¿°": 6910,
      "Ġpens": 6911,
      "Ð°ÑĤÐµÐ»ÑĮÐ½Ð¾": 6912,
      "ÏģÎµÏĤ": 6913,
      "ID": 6914,
      "erent": 6915,
      "à¤ĵ": 6916,
      "ä»į": 6917,
      "uten": 6918,
      "ÑĦÐµÑĢ": 6919,
      "ä»Ĭå¹´": 6920,
      "ĠgÃ¶re": 6921,
      "Ġsed": 6922,
      "ĠAug": 6923,
      "Ġuk": 6924,
      "á»£p": 6925,
      "æľīäºĽ": 6926,
      "nos": 6927,
      "Ø§ÙģØ¸": 6928,
      "ä¸Ĭæµ·": 6929,
      "Ġkol": 6930,
      "Ġbanyak": 6931,
      "owej": 6932,
      "annt": 6933,
      "ĠÐ¶Ð¸Ð²": 6934,
      "rzy": 6935,
      "ÙĪÙĦÙī": 6936,
      "mos": 6937,
      "Ø´ÙĬ": 6938,
      "å®ŀéĻħ": 6939,
      "çĵ": 6940,
      "å¼Ģåıĳ": 6941,
      "ĠÃºlt": 6942,
      "ĠØ±Ø¯": 6943,
      "Ġheute": 6944,
      "è´¨éĩı": 6945,
      "ote": 6946,
      "Ġek": 6947,
      "illa": 6948,
      "Ø¹ÙĬØ¯": 6949,
      "Ġsta": 6950,
      "ĠÐ¿ÑĢÐ¾ÑĦ": 6951,
      "ĠÑįÐºÐ¾Ð½Ð¾Ð¼": 6952,
      "à¤Ŀ": 6953,
      "Ġyet": 6954,
      "ĠÐ¼Ð°ÑĤÐµÑĢÐ¸": 6955,
      "Ġderech": 6956,
      "Ð½Ñĥ": 6957,
      "ĠÐ¾Ð±Ð»Ð°ÑģÑĤÐ¸": 6958,
      "æĬ¥åĳĬ": 6959,
      "ÏģÎ¯Î±": 6960,
      "owanie": 6961,
      "ĠÏĥÏĦÎ¿Î½": 6962,
      "ela": 6963,
      "ĠÐ¼Ð¾Ð¼": 6964,
      "ĠUr": 6965,
      "Ġestar": 6966,
      "Ð¸ÑĩÐµÑģÐºÐ¾Ð³Ð¾": 6967,
      "Ġpresent": 6968,
      "isha": 6969,
      "Ġfac": 6970,
      "ĠØ¹Ø¯Ø¯": 6971,
      "ĠØ¯ÙĪÙĦ": 6972,
      "bir": 6973,
      "Ġbelie": 6974,
      "ĠsaÄŁ": 6975,
      "Ġdabei": 6976,
      "Ð³Ð»Ñı": 6977,
      "har": 6978,
      "Ġtest": 6979,
      "ÙĥØ¯": 6980,
      "Î¼Î¹": 6981,
      "Ø±ØŃ": 6982,
      "Ġcoun": 6983,
      "ĠFall": 6984,
      "à¤¾à¤ģ": 6985,
      "çĸĳ": 6986,
      "ĠÐ½Ð°Ð´Ð¾": 6987,
      "fÃ¼hr": 6988,
      "åĬ³": 6989,
      "Ø¯ÙĬØ«": 6990,
      "ĠÙĬØ³": 6991,
      "Ġiz": 6992,
      "çŃ¾": 6993,
      "iap": 6994,
      "schl": 6995,
      "Ġantes": 6996,
      "Ġprev": 6997,
      "ĠNie": 6998,
      "Ġxu": 6999,
      "Ġgener": 7000,
      "Ġà¤¸à¤ķà¤¤": 7001,
      "cimiento": 7002,
      "áº¿u": 7003,
      "Ã¡nh": 7004,
      "Ġeinmal": 7005,
      "press": 7006,
      "ÙĨØ§ÙħØ¬": 7007,
      "Ġzaman": 7008,
      "æĭį": 7009,
      "Ø¯Ø§Ø±Ø©": 7010,
      "ÐµÐ½ÑĤÐ¾Ð²": 7011,
      "ĠÐ²ÑĢÐµÐ¼ÐµÐ½Ð¸": 7012,
      "lah": 7013,
      "æ²¹": 7014,
      "Ġunsere": 7015,
      "çļĦå¤§": 7016,
      "odo": 7017,
      "è¿Ľåħ¥": 7018,
      "):": 7019,
      "ĠÐ¿ÑĥÑĤ": 7020,
      "uli": 7021,
      "Ġpriv": 7022,
      "åĿĹ": 7023,
      "Î¾Î·": 7024,
      "Ð¸ÑĩÐµÑģÐºÐ¸": 7025,
      "iá»ģn": 7026,
      "Ð¼ÐµÑĤ": 7027,
      "__": 7028,
      "æ¾³": 7029,
      "Ø±Ø¨ÙĬØ©": 7030,
      "stan": 7031,
      "Qu": 7032,
      "åĲ¸": 7033,
      "Ġesper": 7034,
      "ĠÐ¸Ð´": 7035,
      "ĠÑĥÐ¼": 7036,
      "Ð¸Ð»Ð°ÑģÑĮ": 7037,
      "ED": 7038,
      "Ø§Ø¨Ø§Øª": 7039,
      "ÙĳÙı": 7040,
      "Ġindivid": 7041,
      "ØªØ¯": 7042,
      "æĹ¶ä»£": 7043,
      "á»¥c": 7044,
      "Ã³l": 7045,
      "iku": 7046,
      "ĠÑĤÐ¾Ð¶Ðµ": 7047,
      "ä¼Ĭ": 7048,
      "ĠÐ¾ÑĤÐºÑĢ": 7049,
      "2015": 7050,
      "ÙĥØ³": 7051,
      "iles": 7052,
      "Ð°ÑĤÑĭ": 7053,
      "åİ¿": 7054,
      "aria": 7055,
      "Ġotro": 7056,
      "ĠOb": 7057,
      "Ġmá»Ľi": 7058,
      "ç«Ł": 7059,
      "åºı": 7060,
      "Ø¨ÙĨ": 7061,
      "Ã¶t": 7062,
      "ĠdÃ¼ÅŁ": 7063,
      "entos": 7064,
      "ĠyapÄ±l": 7065,
      "Ø£Ø©": 7066,
      "iá»ĥu": 7067,
      "ĠgÃ¬": 7068,
      "Ã©t": 7069,
      "ĠÏĥÏĦÎ¹ÏĤ": 7070,
      "à¥Ģ,": 7071,
      "Ġllev": 7072,
      "IL": 7073,
      "Ġseperti": 7074,
      "æĿĲ": 7075,
      "iciÃ³n": 7076,
      "Ġbie": 7077,
      "nak": 7078,
      "Ġdisc": 7079,
      "Ġmarket": 7080,
      "çĳ": 7081,
      "ĠÑĤÑĢÑĥÐ´": 7082,
      "é¾Ļ": 7083,
      "ĠLie": 7084,
      "ĠÑİ": 7085,
      "Ø®Ø°": 7086,
      "Ð¸Ð»Ð¸ÑģÑĮ": 7087,
      "Ġzaw": 7088,
      "ÐµÐ´ÐµÐ½Ð¸Ñı": 7089,
      "essen": 7090,
      "gesch": 7091,
      "à¤¹à¤°": 7092,
      "ÑĤÐ²ÐµÑĢÐ¶": 7093,
      "ĠÎ§": 7094,
      "Ġfilm": 7095,
      "åı¥": 7096,
      "ecz": 7097,
      "Ä±mÄ±z": 7098,
      "ĠÑĥÑģÐ»ÑĥÐ³": 7099,
      "ĠVers": 7100,
      "ä¸ļåĬ¡": 7101,
      "Ġshow": 7102,
      "Ġjeden": 7103,
      "Ġletz": 7104,
      "Ġbetter": 7105,
      "Ġnormal": 7106,
      "ÐµÐ½Ð½Ð¾Ð¹": 7107,
      "cel": 7108,
      "Ġwhile": 7109,
      "Ġfest": 7110,
      "Ġnghiá»ĩ": 7111,
      "Ġcost": 7112,
      "cios": 7113,
      "ĠLos": 7114,
      "Ġ--": 7115,
      "ĠÑħÐ¾Ñĩ": 7116,
      "éŃ": 7117,
      "Ø·Ø¨": 7118,
      "under": 7119,
      "Ġráº¥t": 7120,
      "agt": 7121,
      "éľĢæ±Ĥ": 7122,
      "ÑĢÐµÐ±": 7123,
      "å±Ĭ": 7124,
      "ÙĤØ¨ÙĦ": 7125,
      "ĠschÃ¶n": 7126,
      "Ġrem": 7127,
      "Ġà¤Ľ": 7128,
      "ĠdÃŃas": 7129,
      "ĠÙģÙĤØ·": 7130,
      "Ø§Ø¯ÙĬØ©": 7131,
      "leib": 7132,
      "Ġaller": 7133,
      "æĭĽ": 7134,
      "ĠPor": 7135,
      "iving": 7136,
      "ĠÐ´Ð¾Ð»Ð¶Ð½Ñĭ": 7137,
      "ĠÐ¿Ð¾ÑĤÐ¾Ð¼Ñĥ": 7138,
      "ous": 7139,
      "è¿½": 7140,
      "ĠÙĪØ§ÙĦØ¥": 7141,
      "Ġlassen": 7142,
      "å¥¹çļĦ": 7143,
      "ä¸įä»ħ": 7144,
      "ĠhÆ¡n": 7145,
      "å©ļ": 7146,
      "Ġmust": 7147,
      "Ġmuj": 7148,
      "lara": 7149,
      "Ġenerg": 7150,
      "Ġused": 7151,
      "ware": 7152,
      "ĠnÃło": 7153,
      "ĠÐ¸Ð³": 7154,
      "ĠØ§ÙĦØ¹ÙĦÙħ": 7155,
      "Ð½Ð¸ÐºÐ°": 7156,
      "ness": 7157,
      "Ġfollow": 7158,
      "Î¯Îº": 7159,
      "ĠØ§ÙĦÙħÙħ": 7160,
      "åİŁåĽł": 7161,
      "éļľ": 7162,
      "tk": 7163,
      "ĠLeben": 7164,
      "ĠÐ¾Ð±ÐµÑģÐ¿ÐµÑĩ": 7165,
      "Ġschn": 7166,
      "ØªÙħØ±": 7167,
      "á»įn": 7168,
      "gend": 7169,
      "Ð¾Ð²Ð°ÑĢ": 7170,
      "ĠKl": 7171,
      "Ġket": 7172,
      "æľºä¼ļ": 7173,
      "è¡¥": 7174,
      "ĠØ§ÙĦØ³Ø¹ÙĪØ¯": 7175,
      "Ġbiáº¿t": 7176,
      "ĠØ£ÙĬØ¶Ø§": 7177,
      "Ġsend": 7178,
      "ÑĢÐ°Ð¶": 7179,
      "Ð²Ð¾ÑĢ": 7180,
      "?\"": 7181,
      "å·¥ç¨ĭ": 7182,
      "æ¥¼": 7183,
      "esser": 7184,
      "zeug": 7185,
      "Ġrun": 7186,
      "ĠÑģÐ¾Ð²ÐµÑĢÑĪ": 7187,
      "the": 7188,
      "ä¸½": 7189,
      "ĠÐºÐ¾ÑĤÐ¾ÑĢÐ°Ñı": 7190,
      "Ġbud": 7191,
      "ÐµÐ½Ð´": 7192,
      "Î¹ÎºÎ®ÏĤ": 7193,
      "Ġbur": 7194,
      "aben": 7195,
      "aliz": 7196,
      "åĽ°": 7197,
      "ĠØªØ³Øª": 7198,
      "åĪ¶åº¦": 7199,
      "ĠÑģÐºÐ°Ð·Ð°Ð»": 7200,
      "Ð¸ÑĢÐ°": 7201,
      "ĠÑĥÐ¿ÑĢÐ°Ð²": 7202,
      "Ġeach": 7203,
      "Ġbesch": 7204,
      "ĠÐ´Ð¾ÑĢ": 7205,
      "Ġdefin": 7206,
      "rop": 7207,
      "istas": 7208,
      "Ġihn": 7209,
      "Tr": 7210,
      "çĶ»": 7211,
      "ĠWenn": 7212,
      "å¤ĦçĲĨ": 7213,
      "ÅĽli": 7214,
      "esen": 7215,
      "iver": 7216,
      "onesia": 7217,
      "æ±½è½¦": 7218,
      "Ġestos": 7219,
      "Ð»ÑĮ": 7220,
      "ĠBir": 7221,
      "é¡¾": 7222,
      "ĠÐ½Ð¸ÑĩÐµÐ³Ð¾": 7223,
      "uft": 7224,
      "ÏİÏģÎ±": 7225,
      "ĠÐ²Ð½Ð¸Ð¼": 7226,
      "ĠÐ¿ÑĢÐ¾ÑĪ": 7227,
      "Ġmov": 7228,
      "ä»·åĢ¼": 7229,
      "ĠmÃ¶glich": 7230,
      "Ġfriend": 7231,
      "Ġdifferent": 7232,
      "Ġhá»£p": 7233,
      "ĠÑįÐºÑģÐ¿": 7234,
      "imin": 7235,
      "åĬªåĬĽ": 7236,
      "Ġtheo": 7237,
      "é»Ħ": 7238,
      "Ġfound": 7239,
      "Ġà¤§": 7240,
      "Ġzak": 7241,
      "äººä»¬": 7242,
      "itz": 7243,
      "Ġkho": 7244,
      "Ġbed": 7245,
      "éĻĪ": 7246,
      "ĠØ£Ø¯": 7247,
      "á»ĳt": 7248,
      "Ġtechn": 7249,
      "éļıçĿĢ": 7250,
      "Ph": 7251,
      "Ġdav": 7252,
      "Î´Î¹": 7253,
      "ĠÐ¸Ð¼ÐµÐ½Ð½Ð¾": 7254,
      "wan": 7255,
      "Ġfut": 7256,
      "å»ºç«ĭ": 7257,
      "à¤Łà¤°": 7258,
      "ÏĢÎµÎ¹": 7259,
      "ĠpÃºbl": 7260,
      "idir": 7261,
      "éľ²": 7262,
      "ĠÐ°Ðº": 7263,
      "à¤ľà¤¨": 7264,
      "Ġva": 7265,
      "Ø·Ùģ": 7266,
      "ĠÏĢÏģÎ¿Ïĥ": 7267,
      "Ġav": 7268,
      "ĠÐ¾Ð³ÑĢ": 7269,
      "Ġdecir": 7270,
      "Ð¸Ð½Ð³": 7271,
      "Ġmam": 7272,
      "Î¼Î®": 7273,
      "Î¼ÏĨ": 7274,
      "ÙİÙĳ": 7275,
      "lat": 7276,
      "ÙĪÙģÙĬ": 7277,
      "orang": 7278,
      "Ø±ÙģØ©": 7279,
      "stag": 7280,
      "Ð°Ð»Ð¸ÑģÑĤ": 7281,
      "ä»·æł¼": 7282,
      "Ġdazu": 7283,
      "æĴŃ": 7284,
      "itos": 7285,
      "icy": 7286,
      "Ġji": 7287,
      "ĠÑĤÐµ": 7288,
      "ÑĪÐ¸Ñħ": 7289,
      "Ġencontr": 7290,
      "ĠØ§ÙĦØ§Ùħ": 7291,
      "Ġseem": 7292,
      "ĠGeb": 7293,
      "powie": 7294,
      "ĠØ§ÙĦØ¹ÙĦ": 7295,
      "åıĳå¸ĥ": 7296,
      "é¸": 7297,
      "Æ°á»Ł": 7298,
      "Ġ80": 7299,
      "æĬ¥éģĵ": 7300,
      "æ°´å¹³": 7301,
      "ron": 7302,
      "Ġmind": 7303,
      "ĠSpiel": 7304,
      "ĠÑĤÐµÑħÐ½": 7305,
      "osp": 7306,
      "ĠÎĺ": 7307,
      "ĠRa": 7308,
      "Ã¼l": 7309,
      "ÏįÏĦÎµ": 7310,
      "ÑģÐºÐ¸Ðµ": 7311,
      "yf": 7312,
      "åįĸ": 7313,
      "Ġnuestro": 7314,
      "Ø§ÙĤØ¹": 7315,
      "Ġplace": 7316,
      "Ġbenef": 7317,
      "Ġà¤®à¤¹": 7318,
      ".-": 7319,
      "éĺ¶": 7320,
      "Ġobjet": 7321,
      "ÑĨÑĭ": 7322,
      "ÏĦÎ·ÏĦÎ±": 7323,
      "ĠÑįÑĤÐ¸": 7324,
      "ĠØ§ÙĦØ´ÙĬ": 7325,
      "Ġinternet": 7326,
      "Ø°ÙĥØ±": 7327,
      "æīĭæľº": 7328,
      "Ġká»": 7329,
      "Ġkommt": 7330,
      "33": 7331,
      "ĠThey": 7332,
      "Ġmonth": 7333,
      "åıĤåĬł": 7334,
      "æľĿ": 7335,
      "åĳĬè¯ī": 7336,
      "Ġpan": 7337,
      "Ð°Ð´Ð¸": 7338,
      "è´Łè´£": 7339,
      "æĺ¯åľ¨": 7340,
      "ä¿Ħ": 7341,
      "âĢı": 7342,
      "Ġbereits": 7343,
      "zenia": 7344,
      "pie": 7345,
      "Ġbro": 7346,
      "Ġot": 7347,
      "ĠÐ±Ð°Ð½": 7348,
      "esta": 7349,
      "è½¯": 7350,
      "ä½ľçĶ¨": 7351,
      "ĠØ´Ø®Øµ": 7352,
      "ĠnÃªn": 7353,
      "Î¯ÎµÏĤ": 7354,
      "éĤ£äºĽ": 7355,
      "æĶ¿æ²»": 7356,
      "cÄ±": 7357,
      "ĠÙĦØ¥": 7358,
      "Ð¾Ð²ÑĭÑħ": 7359,
      "Ã¶rt": 7360,
      "èĥľ": 7361,
      "Ġzwischen": 7362,
      "90": 7363,
      "OM": 7364,
      "Ġmanera": 7365,
      "Ġair": 7366,
      "ÑĥÐ»Ñı": 7367,
      "æĹłæ³ķ": 7368,
      "Ġ+": 7369,
      "Ġdit": 7370,
      "Ġaku": 7371,
      "å®Įåħ¨": 7372,
      "Ġkami": 7373,
      "çļĦéĹ®é¢ĺ": 7374,
      "áºŃy": 7375,
      "æľªæĿ¥": 7376,
      "Ġà¤ħà¤¨": 7377,
      "Ã¤nder": 7378,
      "ĠÐºÐ¾Ð½ÑĤÑĢ": 7379,
      "áº©m": 7380,
      "ÏģÎ¹Î½": 7381,
      "æĭ¥æľī": 7382,
      "Ġenv": 7383,
      "Î¬Ïģ": 7384,
      "ĠÐ½Ð¾ÑĢÐ¼": 7385,
      "undes": 7386,
      "olle": 7387,
      "sy": 7388,
      "ÑĢÐ¾Ð¼": 7389,
      "Ġsonra": 7390,
      "Ġsowie": 7391,
      "ĠGoogle": 7392,
      "Ġhttp": 7393,
      "ungan": 7394,
      "Ġthá»©": 7395,
      "Ø²ÙĬØ¯": 7396,
      "Ø§Ø®ÙĦ": 7397,
      "ç¼º": 7398,
      "Ð»Ð°Ð³": 7399,
      "ä¿ĥ": 7400,
      "åī§": 7401,
      "Ġsum": 7402,
      "Ġotra": 7403,
      "Äħz": 7404,
      "éĤ£ä¸ª": 7405,
      "Com": 7406,
      "ĠÙĬØ´": 7407,
      "ØºÙĬ": 7408,
      "Æ°á»Łng": 7409,
      "Ġik": 7410,
      "aks": 7411,
      "leicht": 7412,
      "icial": 7413,
      "ĠÐ½ÐµÐ²": 7414,
      "Ð¾Ð±ÑīÐµ": 7415,
      "Ġproy": 7416,
      "ĠÐ¾ÑģÑĥÑīÐµÑģÑĤÐ²": 7417,
      "'re": 7418,
      "auf": 7419,
      "Ġdah": 7420,
      "ines": 7421,
      "leÅŁ": 7422,
      "Ã¡o": 7423,
      "Ġersten": 7424,
      "Ġsangat": 7425,
      "ĠØ£Ø®Ø±Ùī": 7426,
      "ĠÙĪØ§ÙĨ": 7427,
      "ĠÐ¼ÐµÐ¶Ð´Ñĥ": 7428,
      "ç½ª": 7429,
      "Ġsuf": 7430,
      "å®ŀæĸ½": 7431,
      "Ø±ÙĥØ§Øª": 7432,
      "ÑĢÑĥÐ·": 7433,
      "ĠÐ´ÑĢÑĥÐ³Ð¸Ñħ": 7434,
      "Ġbers": 7435,
      "ÏĢÏīÏĤ": 7436,
      "ĠhabÃŃa": 7437,
      "éĵ¶è¡Į": 7438,
      "Wenn": 7439,
      "ĠStr": 7440,
      "áº£ng": 7441,
      "ĠÑģÐ²Ð¾ÐµÐ¹": 7442,
      "Ĺı": 7443,
      "Ġfavor": 7444,
      "çĻ»": 7445,
      "Ġcle": 7446,
      "acy": 7447,
      "ĠØ¢Ø®Ø±": 7448,
      "ØºÙħ": 7449,
      "ĠchÃºng": 7450,
      "Ø³ÙĦ": 7451,
      "éº": 7452,
      "Ð»ÐµÑĤ": 7453,
      "ĠDen": 7454,
      "ork": 7455,
      "ex": 7456,
      "ett": 7457,
      "ĠÙĦÙĬØ³": 7458,
      "ĠÐ¼ÐµÑģÑı": 7459,
      "æ¢¦": 7460,
      "åªĴä½ĵ": 7461,
      "å·¨": 7462,
      "ØºØ©": 7463,
      "ÏģÎ±Î³": 7464,
      "å½ĵçĦ¶": 7465,
      "Ð¸ÑĤÐµÐ»Ñı": 7466,
      "Ġdiesen": 7467,
      "ä¸ĥ": 7468,
      "afÃ¼r": 7469,
      "à¤ī": 7470,
      "ĠÙħÙĨØ°": 7471,
      "Ġbak": 7472,
      "è¡Ģ": 7473,
      "å§Ķåĳĺ": 7474,
      "pre": 7475,
      "ä¸įçŁ¥éģĵ": 7476,
      "ĠÑģÑĤÑĢÐ¾": 7477,
      "åįĪ": 7478,
      "ĠwÃ¤re": 7479,
      "irk": 7480,
      "å²Ľ": 7481,
      "ç»ıèĲ¥": 7482,
      "Ġrecom": 7483,
      "ĠÎłÎ±": 7484,
      "Î»Î¹": 7485,
      "åĲĦç§į": 7486,
      "ĠÃ§Ä±k": 7487,
      "è®¨": 7488,
      "Ġfund": 7489,
      "emy": 7490,
      "ÙĬÙħØ©": 7491,
      "Ġsl": 7492,
      "èĢģå¸Ī": 7493,
      "Ġautor": 7494,
      "ĠÐ±ÑĥÐ´ÑĥÑĤ": 7495,
      "Ġcum": 7496,
      "ĠØ§ÙĦÙħØªØŃØ¯Ø©": 7497,
      "Ġpast": 7498,
      "ĠnhÆ°ng": 7499,
      "Ġtipo": 7500,
      "Ġker": 7501,
      "Ġswo": 7502,
      "pis": 7503,
      "ÑĢÑĥÑĪ": 7504,
      "ä»¥ä¸Ĭ": 7505,
      "ĠÑĩÐµÐ»Ð¾Ð²ÐµÐºÐ°": 7506,
      "Ġtrat": 7507,
      "Ð»ÐµÐºÑģ": 7508,
      "ÏĦÏīÎ½": 7509,
      "ÐµÐ½Ð½Ð¾Ð³Ð¾": 7510,
      "ander": 7511,
      "Ġpier": 7512,
      "ages": 7513,
      "ĠÙĪØ³ÙĦÙħ": 7514,
      "arte": 7515,
      "Ġrespons": 7516,
      "orth": 7517,
      "ĠØ§ÙĦØŃØ±": 7518,
      "èĤ¯": 7519,
      "ĠÐ¼Ð¸ÑĢ": 7520,
      "Ġsinh": 7521,
      "ç§¯æŀģ": 7522,
      "Ã¤ll": 7523,
      "Î¿Î¹Î½": 7524,
      "éĵģ": 7525,
      "Ġwurden": 7526,
      "Ġsite": 7527,
      "Ġhu": 7528,
      "eder": 7529,
      "can": 7530,
      "Ġciud": 7531,
      "ĠÐ¿ÑĢÐ°ÐºÑĤ": 7532,
      "Ð¸ÑĪ": 7533,
      "èĭ¦": 7534,
      "cep": 7535,
      "ĠzurÃ¼ck": 7536,
      "ancia": 7537,
      "Ġbaj": 7538,
      "iembre": 7539,
      "til": 7540,
      "ÏĮÎ³": 7541,
      "é¼": 7542,
      "Ð°Ð²Ð½Ð¾": 7543,
      "Ã¼re": 7544,
      "otos": 7545,
      "ĠÏĥÎ·": 7546,
      "Î¼ÎŃÎ½Î¿": 7547,
      "Ð½ÑĥÑĤÑĮ": 7548,
      "Ġans": 7549,
      "ĠÐ³ÑĢÑĥÐ¿Ð¿": 7550,
      "iner": 7551,
      "asan": 7552,
      "Ġcam": 7553,
      "Ġidea": 7554,
      "ĠÙħÙĦÙĬ": 7555,
      "Ġeduc": 7556,
      "innen": 7557,
      "ieden": 7558,
      "Ġneue": 7559,
      "rÃ¡": 7560,
      "Ġmemil": 7561,
      "Ġmodel": 7562,
      "ĠÐ½ÐµÐºÐ¾ÑĤÐ¾ÑĢ": 7563,
      "fic": 7564,
      "Ġmight": 7565,
      "Ġestable": 7566,
      "ĠÙĪØ°ÙĦÙĥ": 7567,
      "Ø¨ÙĬØ©": 7568,
      "åĨ²": 7569,
      "ĠÑģÑĥÑīÐµÑģÑĤÐ²": 7570,
      "Ġminut": 7571,
      "ĠSam": 7572,
      "He": 7573,
      "Ġdoc": 7574,
      "ĠÙĨØ³": 7575,
      "ciales": 7576,
      "ĠØ§ÙĦØ¹Ø±": 7577,
      "å¾ĹåĪ°": 7578,
      "Ø§ÙĬ": 7579,
      "á»©ng": 7580,
      "ÙħÙĪ": 7581,
      "æ¯ĶèµĽ": 7582,
      "ĠÑģÐ²Ð¾Ñİ": 7583,
      "ĠMo": 7584,
      "ĠØ§ÙĦØ£ÙħØ±": 7585,
      "IM": 7586,
      "ĠØ§ÙĦÙģØ±": 7587,
      "Ġthá»±c": 7588,
      "rÃ¤": 7589,
      "æĿĢ": 7590,
      "ĠÐ²ÑģÐµÐ¼": 7591,
      "ÏĬ": 7592,
      "ÙĤÙħ": 7593,
      "Ð½ÐµÑĤ": 7594,
      "ĠÑĤÐ°ÐºÐ¾Ð¹": 7595,
      "ĠÑģÐ¾ÑĤ": 7596,
      "çĽŁ": 7597,
      "ĠÎ´Îµ": 7598,
      "ution": 7599,
      "Ð°Ð½Ð¸ÐµÐ¼": 7600,
      "ĠÐ·Ð´ÐµÑģÑĮ": 7601,
      "ĠÐ´Ð¾Ð±": 7602,
      "å·¦": 7603,
      "Î¿ÏįÏĤ": 7604,
      "ÑĨÐµÐ²": 7605,
      "iyle": 7606,
      "ĠØ§ÙĦØ¥ÙĨØ³": 7607,
      "ierte": 7608,
      "Ġtent": 7609,
      "ä¸ĢçĤ¹": 7610,
      "Î¿ÏħÏģÎ³": 7611,
      "è¶ħè¿ĩ": 7612,
      "ĠÙģØª": 7613,
      "ĠÑĥÐ¿": 7614,
      "Ð»ÑıÐµÑĤ": 7615,
      "Ġbardzo": 7616,
      "ÐºÑĢÐ°": 7617,
      "ently": 7618,
      "Ø²ÙĦ": 7619,
      "ĠÏĥÏĦ": 7620,
      "Ġhecho": 7621,
      "eny": 7622,
      "Ġespa": 7623,
      "å¸ģ": 7624,
      "Ġsex": 7625,
      "oda": 7626,
      "Ġdeut": 7627,
      "Ġquest": 7628,
      "ä¹ĭä¸Ģ": 7629,
      "Ð¸ÑĢÐ¾Ð²Ð°ÑĤÑĮ": 7630,
      "Ð¾ÑıÑī": 7631,
      "Ġzm": 7632,
      "ÏĪÎ·": 7633,
      "ĠÐºÐ¾Ð»Ð¸ÑĩÐµ": 7634,
      "raft": 7635,
      "uyá»ĩn": 7636,
      "Ġelec": 7637,
      "uni": 7638,
      "ĠkarÅŁ": 7639,
      "ĠcÆ¡": 7640,
      "ĠbÄĻdzie": 7641,
      "emp": 7642,
      "è¡£": 7643,
      "Î¸Î·ÎºÎµ": 7644,
      "ÙĪØ§Ø¨": 7645,
      "Ø§ØµÙĦ": 7646,
      "ĠWie": 7647,
      "Ġwszystk": 7648,
      "äºĪ": 7649,
      "ĠÐľÐ¾ÑģÐº": 7650,
      "halt": 7651,
      "ÑıÐ¶": 7652,
      "imal": 7653,
      "ĠÐ½ÐµÑģ": 7654,
      "Ø§ÙħØ¹Ø©": 7655,
      "ĠØ§ÙĦÙĨØ§Ø³": 7656,
      "è®¸å¤ļ": 7657,
      "'ve": 7658,
      "Ġproduk": 7659,
      "ĠViá»ĩt": 7660,
      "ÑıÐ±ÑĢÑı": 7661,
      "ĠlÃŃ": 7662,
      "ĠÐ²ÑģÑĳ": 7663,
      "Ġharus": 7664,
      "Ġpm": 7665,
      "çĬ¯": 7666,
      "Ð¾Ð¼Ð½": 7667,
      "Ġbeh": 7668,
      "Ġcosas": 7669,
      "Ã¡m": 7670,
      "Ã§ek": 7671,
      "orte": 7672,
      "portun": 7673,
      "ĠLeb": 7674,
      "èĻĳ": 7675,
      "ĠØ£ÙĪÙĦ": 7676,
      "ĠÎºÏħ": 7677,
      "ĠÐ¿Ð¾Ð·Ð²Ð¾Ð»": 7678,
      "Ð½Ð¸Ð¹": 7679,
      "Ð¸Ð½Ñĥ": 7680,
      "ajÄħc": 7681,
      "æıĲåĩº": 7682,
      "ĠØ§ÙĦØ£Ø®": 7683,
      "ĠdoÄŁ": 7684,
      "Ð¾Ð»ÑĮÐ·Ñĥ": 7685,
      "Ġsáº£n": 7686,
      "á»Ĺ": 7687,
      "Ø«Ùħ": 7688,
      "Ġgive": 7689,
      "ĠAk": 7690,
      "åį±": 7691,
      "Ġthing": 7692,
      "cido": 7693,
      "ĠÐ·ÐµÐ¼": 7694,
      "ç«¯": 7695,
      "uc": 7696,
      "ĠÎĽ": 7697,
      "Ð´Ð¶": 7698,
      "emen": 7699,
      "ä¸ºä»Ģä¹Ī": 7700,
      "Ð¸ÑĢÐ¾Ð²Ð°Ð½": 7701,
      "Ġ31": 7702,
      "unun": 7703,
      "Con": 7704,
      "Ġgrand": 7705,
      "çĶ³è¯·": 7706,
      "ira": 7707,
      "åĵģçīĮ": 7708,
      "ĠcÃ¡i": 7709,
      "Ġdebe": 7710,
      "Ã¡l": 7711,
      "ä¸Ńå¤®": 7712,
      "ĠÙĪØ§ÙĦØ¹": 7713,
      "Ð²ÐµÑĢ": 7714,
      "ĠØ£Ø´": 7715,
      "Ġnom": 7716,
      "Ġdeber": 7717,
      "ĠÑĢÐ°Ð¹": 7718,
      "Ø´Ø±ÙĪØ¹": 7719,
      "Ġtahun": 7720,
      "bes": 7721,
      "ply": 7722,
      "Ġama": 7723,
      "ÏģÎ¿ÏĤ": 7724,
      "Ġlearn": 7725,
      "aban": 7726,
      "araf": 7727,
      "ÑģÑĤÐ²ÐµÐ½Ð½Ð¾": 7728,
      "Ð¸Ð½Ð°Ð½Ñģ": 7729,
      "ĠÙĬØ¬Ø¨": 7730,
      "ectos": 7731,
      "ĠBo": 7732,
      "Ð¾Ð²Ð°Ð½Ð¸Ðµ": 7733,
      "è¯º": 7734,
      "ĠÐ¤ÐµÐ´ÐµÑĢÐ°ÑĨÐ¸Ð¸": 7735,
      "ÙĪÙĬØ±": 7736,
      "ĠØ§ÙĦØ¯Ø±": 7737,
      "IA": 7738,
      "Ã¤d": 7739,
      "ift": 7740,
      "crip": 7741,
      "Ġ90": 7742,
      "Ã¶glichkeit": 7743,
      "çĿ£": 7744,
      "ĠcÃ¡ch": 7745,
      "Ġpap": 7746,
      "å½©": 7747,
      "ennen": 7748,
      "ives": 7749,
      "ĠØ§ÙĦØŃÙĬ": 7750,
      "å½ĵæĹ¶": 7751,
      "tegr": 7752,
      "ĠÏĥÎ±ÏĤ": 7753,
      "å¹¸": 7754,
      "Ø§Ø¨Ø¹": 7755,
      "ispiel": 7756,
      "ĠBest": 7757,
      "ä¸ĭæĿ¥": 7758,
      "adh": 7759,
      "ĠÄĳiá»ģu": 7760,
      "Ð°Ð½Ð¸Ñĩ": 7761,
      "Ð¸ÑĩÐµÑģÐºÐ¸Ðµ": 7762,
      "wit": 7763,
      "âĢį": 7764,
      "ÏĦÏİÎ½": 7765,
      "Ġkay": 7766,
      "ĠÐ´Ð¾Ð»Ð¶ÐµÐ½": 7767,
      "éĢĢ": 7768,
      "Ġverg": 7769,
      "ĠØ§ÙĦØ¯ÙĬÙĨ": 7770,
      "efon": 7771,
      "And": 7772,
      "å¥Ĺ": 7773,
      "Ð°Ð»ÑĮÐ½ÑĭÐµ": 7774,
      "ums": 7775,
      "gef": 7776,
      "immt": 7777,
      "ĠGew": 7778,
      "åħ±åĲĮ": 7779,
      "ĠÙĬØ±": 7780,
      "è·Ŀ": 7781,
      "ester": 7782,
      "Ġencu": 7783,
      "Ġalm": 7784,
      "ogen": 7785,
      "ĠÐ²ÑģÑĤÑĢ": 7786,
      "è¿Ŀ": 7787,
      "Ġhop": 7788,
      "ĠÑģÐ¸ÑĤÑĥ": 7789,
      "å®Ī": 7790,
      "æŃ£åľ¨": 7791,
      "ĠAllah": 7792,
      "ØŃÙĨ": 7793,
      "gul": 7794,
      "ÑĢÐ¾Ð¿": 7795,
      "åı³": 7796,
      "Ġkommen": 7797,
      "Ĥ¬": 7798,
      "ÏĥÎ±Î½": 7799,
      "Î³Î¬": 7800,
      "ĠÐ¿Ð¾Ð»Ð¾Ð¶": 7801,
      "ĠÅŁey": 7802,
      "Ġdá»±": 7803,
      "ĠÑģÐ¾Ð¾Ð±Ñī": 7804,
      "ush": 7805,
      "plo": 7806,
      "ĠIndonesia": 7807,
      "Ġkab": 7808,
      "ikel": 7809,
      "ĠÐ¿Ð¾Ð»Ð¸ÑĤ": 7810,
      "ables": 7811,
      "Ġincre": 7812,
      "åħ³æ³¨": 7813,
      "Ein": 7814,
      "ÙĬÙĥ": 7815,
      "è¿İ": 7816,
      "ÑĥÐ¶Ð´": 7817,
      "CH": 7818,
      "æŃ¦": 7819,
      "lieÃŁ": 7820,
      "ĠÐ¶ÐµÐ½Ñī": 7821,
      "Ġnext": 7822,
      "izi": 7823,
      "Ġthá»Ŀi": 7824,
      "31": 7825,
      "ĠÙħÙĨÙĩ": 7826,
      "ĠUnivers": 7827,
      "Ġpob": 7828,
      "ØªØ®": 7829,
      "ĠØ§ÙĦØ´Ø±": 7830,
      "bul": 7831,
      "Ð°ÑĤÐ°": 7832,
      "Ĉćć": 7833,
      "ä½Ļ": 7834,
      "ĠÐ¼ÐµÐ´": 7835,
      "è½®": 7836,
      "ruck": 7837,
      "ĠÐ´Ð¾Ð²": 7838,
      "ÑħÑĢÐ°Ð½": 7839,
      "ĠFacebook": 7840,
      "ĠØ§ÙĦØ³ÙĦ": 7841,
      "ĠthÃ´ng": 7842,
      "ĠØ¨Ùĥ": 7843,
      "ativa": 7844,
      "Ġfar": 7845,
      "åħ¨éĿ¢": 7846,
      "Ø°ÙĬ": 7847,
      "Ġpolit": 7848,
      "bol": 7849,
      "ÏĩÎ±": 7850,
      "Ġthought": 7851,
      "è·ĳ": 7852,
      "ĠUnternehmen": 7853,
      "Ġihm": 7854,
      "ĠÐłÐ¾ÑģÑģÐ¸Ð¹ÑģÐºÐ¾Ð¹": 7855,
      "ĠcÃ¹ng": 7856,
      "Ġwak": 7857,
      "oney": 7858,
      "ĠÑģÐ´ÐµÐ»Ð°ÑĤÑĮ": 7859,
      "ifa": 7860,
      "Ġmember": 7861,
      "Ġcorre": 7862,
      "36": 7863,
      "ĠÐ²Ð½": 7864,
      "ÏĥÎ¿ÏħÎ½": 7865,
      "ä¸ĢèĪ¬": 7866,
      "æĢ¥": 7867,
      "åĬłå¼º": 7868,
      "ĠÐ¿ÑĢÐµÐ´Ð¾ÑģÑĤÐ°Ð²": 7869,
      "Ġ70": 7870,
      "ĠlÃ½": 7871,
      "Ġvia": 7872,
      "Ġà¤ķà¤°à¤¤": 7873,
      "gn": 7874,
      "éĽ·": 7875,
      "Ð¨": 7876,
      "owan": 7877,
      "iÄĩ": 7878,
      "Î¤Î¿": 7879,
      "Ġdara": 7880,
      "owego": 7881,
      "éĿĻ": 7882,
      "ĠÑģÐ»ÑĥÐ¶": 7883,
      "ÏĦÎŃÏĤ": 7884,
      "uck": 7885,
      "ĠÐ½Ð°Ð²": 7886,
      "ĠÑĩÐ°Ñģ": 7887,
      "ÙĬØ¯Ø©": 7888,
      "Ð¼Ð¸Ð½Ð¸ÑģÑĤ": 7889,
      "Ø§Ø¦Ø±": 7890,
      "Er": 7891,
      "áº¡nh": 7892,
      "ÑĥÑĢÑĭ": 7893,
      "æ²Ļ": 7894,
      "ĠØ§ÙĦØ§ØŃ": 7895,
      "ĠØ§ÙĦØµØŃ": 7896,
      "Ġyar": 7897,
      "ÐµÑĢÐµÐ´": 7898,
      "å°±ä¼ļ": 7899,
      "Ġahora": 7900,
      "pet": 7901,
      "Ġnatural": 7902,
      "Ø·Ø§Ø¹": 7903,
      "Ġpad": 7904,
      "Ġdzie": 7905,
      "è¾ĵ": 7906,
      "æĩ": 7907,
      "arias": 7908,
      "ĠØµÙĦÙī": 7909,
      "uhan": 7910,
      "ĠCar": 7911,
      "å¾ģ": 7912,
      "å¼Ĥ": 7913,
      "Ġnuestra": 7914,
      "ĠKinder": 7915,
      "Ġcall": 7916,
      "ÙĬØ±Ø§ÙĨ": 7917,
      "ÙĪØ«": 7918,
      "Ġadmin": 7919,
      "èģĶç½ĳ": 7920,
      "stÃ¤nd": 7921,
      "Î´Îµ": 7922,
      "09": 7923,
      "Ġple": 7924,
      "velop": 7925,
      "Ġpert": 7926,
      "ÏĢÏĮ": 7927,
      "Î¯Î¿Ïħ": 7928,
      "ç»į": 7929,
      "Ġchar": 7930,
      "ĠÙĦÙĦØ£": 7931,
      "ĠlÃªn": 7932,
      "ÄŁer": 7933,
      "Ġinclud": 7934,
      "á»ħ": 7935,
      "ahren": 7936,
      "Ġsá»Ń": 7937,
      "æĺ¯åĲ¦": 7938,
      "Ð¸ÐºÐ¾Ð²": 7939,
      "iyo": 7940,
      "Sie": 7941,
      "Ġbig": 7942,
      "ĠCl": 7943,
      "terior": 7944,
      "åĪĨéĴŁ": 7945,
      "US": 7946,
      "yl": 7947,
      "èĩªçĦ¶": 7948,
      "ĠÐ´ÐµÑıÑĤÐµÐ»ÑĮÐ½Ð¾ÑģÑĤÐ¸": 7949,
      "zcz": 7950,
      "ÙħØ§ÙĦ": 7951,
      "Ø¬ÙĨ": 7952,
      "Ġ;": 7953,
      "ĠbyÄĩ": 7954,
      "ĠtrÆ°á»Ŀng": 7955,
      "æĿ¨": 7956,
      "æĿ¡ä»¶": 7957,
      "inan": 7958,
      "Î»ÎµÏħ": 7959,
      "asÄ±nda": 7960,
      "æĮ¥": 7961,
      "ĠÑģÐ¾Ð´": 7962,
      "iad": 7963,
      "ĠÐ»Ð¸Ñĩ": 7964,
      "Ġhanya": 7965,
      "Ġadv": 7966,
      "?âĢĿ": 7967,
      "å°ıæĹ¶": 7968,
      "åĢĴ": 7969,
      "Ð»Ð°Ð²": 7970,
      "ĠØ¨Ø·": 7971,
      "Ġtelah": 7972,
      "Me": 7973,
      "ĠsÃ³lo": 7974,
      "Ð°Ð»ÑĮÐ½ÑĭÐ¹": 7975,
      "ĠBuch": 7976,
      "Ø¬Ø²": 7977,
      "è®¢": 7978,
      "Ġtrav": 7979,
      "ÑĢÐ¾Ð½": 7980,
      "Ġlocal": 7981,
      "Ġeng": 7982,
      "ÑıÑĤÑģÑı": 7983,
      "ĠÑģÐ¾ÑĨÐ¸Ð°Ð»ÑĮ": 7984,
      "æ°¸": 7985,
      "ÙĪÙĤÙģ": 7986,
      "Ġtienen": 7987,
      "ds": 7988,
      "ĠBaÅŁ": 7989,
      "Ġsehen": 7990,
      "Ġquien": 7991,
      "ĠÑĥÑģÐ¿": 7992,
      "Ġcontrol": 7993,
      "Las": 7994,
      "æķĳ": 7995,
      "Ð¸ÐºÐµ": 7996,
      "AB": 7997,
      "ĠØ¬Ø¯Ø§": 7998,
      "ĠÑģÐ²Ð¾Ð¸": 7999,
      "ç§ģ": 8000,
      "à¤¼à¤¾": 8001,
      "Ø§ÙĦÙģ": 8002,
      "Î³Î³": 8003,
      "satz": 8004,
      "iene": 8005,
      "Ġà¤Ĩà¤ªà¤ķ": 8006,
      "ÅĽcie": 8007,
      "å¢ŀåĬł": 8008,
      "ĠÄĳÃ¢y": 8009,
      "ĠÐ»Ð¸ÑĪÑĮ": 8010,
      "ÑĤÐ°Ðº": 8011,
      "æĺ¥": 8012,
      "Ġsicher": 8013,
      "cil": 8014,
      "iejs": 8015,
      "ĠÑĩÑĥÐ²": 8016,
      "rar": 8017,
      "Ð¸Ð¾Ð´": 8018,
      "ĠÐ¼Ð°Ð»": 8019,
      "apan": 8020,
      "Ġtre": 8021,
      "Äħd": 8022,
      "Ð°Ñī": 8023,
      "ÐŁÑĢ": 8024,
      "iá»ĥn": 8025,
      "Ġaz": 8026,
      "rod": 8027,
      "ĠPo": 8028,
      "Ġgenau": 8029,
      "ÑĢÐ¸ÑĤÐ¾ÑĢ": 8030,
      "uÃŁer": 8031,
      "ÏģÎ¿Ïį": 8032,
      "ÙĬØ§Ùħ": 8033,
      "ÙģØ§ÙĤ": 8034,
      "ĠÐ·Ð°ÑĤ": 8035,
      "Ġbleib": 8036,
      "Ġdirect": 8037,
      "Ġbahwa": 8038,
      "ÙĭØĮ": 8039,
      "ĠÐºÐ½": 8040,
      "å®¶åºŃ": 8041,
      "Ġext": 8042,
      "ÑıÐ½": 8043,
      "Ø¶Ø§Ø¡": 8044,
      "æī§è¡Į": 8045,
      "Ġpie": 8046,
      "à¥Ī.": 8047,
      "ĠÐĺÐ½": 8048,
      "staw": 8049,
      "uyor": 8050,
      "ç»ıéªĮ": 8051,
      "ĠÅ¼y": 8052,
      "ets": 8053,
      "Ø¬ÙħÙĪØ¹Ø©": 8054,
      "ÎºÎ±Î½": 8055,
      "Ġellos": 8056,
      "ĠÑģÑĥÐ¼": 8057,
      "ĠEng": 8058,
      "ĠØ§Ø¨ÙĨ": 8059,
      "ĠÑģÑĢÐµÐ´ÑģÑĤÐ²": 8060,
      "æ¹ĸ": 8061,
      "Ġident": 8062,
      "odzi": 8063,
      "Ø²ÙĬ": 8064,
      "åĩĨå¤ĩ": 8065,
      "é¡¿": 8066,
      "ÙħØ§Ùħ": 8067,
      "ilo": 8068,
      "å¹¶ä¸į": 8069,
      "Ġerh": 8070,
      "äº¤æĺĵ": 8071,
      "ĠPa": 8072,
      "wad": 8073,
      "ĠÙĨÙĤ": 8074,
      "ĠSal": 8075,
      "ierno": 8076,
      "Ð¸Ð¼Ð¾ÑģÑĤÐ¸": 8077,
      "Ð¸Ð½Ð¾": 8078,
      "à¤¯à¤°": 8079,
      "å§Ĳ": 8080,
      "èµĦéĩĳ": 8081,
      "ÏĥÎ¯Î±": 8082,
      "Ġpoder": 8083,
      "ĠWh": 8084,
      "Ã©c": 8085,
      "ĠØ§ÙĦØ³ÙĦØ§Ùħ": 8086,
      "Ġtend": 8087,
      "Ġpok": 8088,
      "Ġwrit": 8089,
      "Ġwom": 8090,
      "ÙĩÙĪ": 8091,
      "æľĹ": 8092,
      "Ġwym": 8093,
      "Ð²Ð¾": 8094,
      "ĠÐ¾ÑĤÐºÐ°Ð·": 8095,
      "Ġ197": 8096,
      "scheid": 8097,
      "05": 8098,
      "ĠÄĳá»ĵng": 8099,
      "çĪ¸": 8100,
      "çłģ": 8101,
      "Ġwz": 8102,
      "ĠÏĥÏĩ": 8103,
      "äº®": 8104,
      "ĠÙħÙĦ": 8105,
      "à¤¤à¤¨": 8106,
      "Ġcompr": 8107,
      "ç¾İåħĥ": 8108,
      "uerdo": 8109,
      "ĠÑĪÐº": 8110,
      "ĠÐ´ÐµÐ²": 8111,
      "åİħ": 8112,
      "èĭ±åĽ½": 8113,
      "ÙĩØ§Ø¨": 8114,
      "Ð³Ð¾ÑĤÐ¾Ð²": 8115,
      "Und": 8116,
      "ĠØ§ÙĦÙħÙĩ": 8117,
      "ĠUhr": 8118,
      "ÏĦÎ¿Ïį": 8119,
      "zlich": 8120,
      "Ð½Ð¸ÑĨ": 8121,
      "Ġcare": 8122,
      "è¡ĮæĶ¿": 8123,
      "AP": 8124,
      "ĠyÃ¶n": 8125,
      "à¤°à¤¦": 8126,
      "ĠÙĪÙĥØ§ÙĨ": 8127,
      "å¼Ģå±ķ": 8128,
      "ĠÑĥÑģÐ»Ð¾Ð²Ð¸Ñı": 8129,
      "unan": 8130,
      "ĠhÃ¤t": 8131,
      "ĠØ§ÙĦÙħÙĨØª": 8132,
      "æĪĺçķ¥": 8133,
      "ĠDan": 8134,
      "ĠWeg": 8135,
      "ÙĤØ§Øª": 8136,
      "ĠBen": 8137,
      "Ġwebsite": 8138,
      "AH": 8139,
      "Ġhaber": 8140,
      "owo": 8141,
      "ä¼łç»Ł": 8142,
      "Ġold": 8143,
      "çľŁæŃ£": 8144,
      "abor": 8145,
      "Witam": 8146,
      "Im": 8147,
      "ÐµÐ½Ð½ÑĭÐ¹": 8148,
      "è¸": 8149,
      "ĠSin": 8150,
      "Ġdesign": 8151,
      "wort": 8152,
      "ÙĤØª": 8153,
      "ĠÐ½ÐµÐ¾Ð±ÑħÐ¾Ð´Ð¸Ð¼Ð¾": 8154,
      "ĠÙģÙĤØ¯": 8155,
      "Ð³Ð¸": 8156,
      "ĠÐ¡ÑĤ": 8157,
      "è®¾å¤ĩ": 8158,
      "æ³¨æĦı": 8159,
      "æĹħæ¸¸": 8160,
      "æİī": 8161,
      "itor": 8162,
      "ĠÐ¿ÐµÑĢÐ¸Ð¾Ð´": 8163,
      "Ġqua": 8164,
      "åıĤä¸İ": 8165,
      "mon": 8166,
      "Ġsteht": 8167,
      "34": 8168,
      "zeich": 8169,
      "æİª": 8170,
      "ÑĢÐ°ÑģÑĤ": 8171,
      "æĽ´åĬł": 8172,
      "ä»ĸä»¬çļĦ": 8173,
      "ĠDar": 8174,
      "Ġinsan": 8175,
      "Ð»Ð°Ð¼": 8176,
      "iti": 8177,
      "aza": 8178,
      "Ġdesarroll": 8179,
      "bed": 8180,
      "åºĶçĶ¨": 8181,
      "çĶµå½±": 8182,
      "ĠÐ»ÑİÐ´Ð¸": 8183,
      "Ġcono": 8184,
      "eba": 8185,
      "ĠkhÃ¡c": 8186,
      "azi": 8187,
      "Ġcao": 8188,
      "ĠÅŁek": 8189,
      "á»ķi": 8190,
      "Ġyan": 8191,
      "ä¸įåĪ°": 8192,
      "æĢĢ": 8193,
      "Ġschnell": 8194,
      "Ġsaja": 8195,
      "ĠÙĪØ¯": 8196,
      "oma": 8197,
      "ç§Ģ": 8198,
      "Ġhard": 8199,
      "Ø¹Ø§Ø±": 8200,
      "Ø§ÙĨØ¨": 8201,
      "Ġbeste": 8202,
      "ĠsÃŃ": 8203,
      "æĪĲäºĨ": 8204,
      "ume": 8205,
      "ichten": 8206,
      "ingt": 8207,
      "ĠdÃ¶n": 8208,
      "ieron": 8209,
      "åĨ·": 8210,
      "ĠÐ¿ÑĢÐ¸Ð·Ð½": 8211,
      "ĠÐŀÐ´": 8212,
      "Ġunserer": 8213,
      "Ø§ÙĪÙĦ": 8214,
      "ĠÑģÐ½": 8215,
      "ÏħÎ½Î±": 8216,
      "åıĺåĮĸ": 8217,
      "Ġjeder": 8218,
      "ĠÐ½ÐµÐ¹": 8219,
      "Ð±Ñĭ": 8220,
      "ĠartÃŃculo": 8221,
      "2014": 8222,
      "ĠÎ®ÏĦÎ±Î½": 8223,
      "é¢ĳ": 8224,
      "39": 8225,
      "Ġzusammen": 8226,
      "ruct": 8227,
      "uri": 8228,
      "uran": 8229,
      "Ġallem": 8230,
      "ĠÎºÎ¹": 8231,
      "bin": 8232,
      "Ġcompet": 8233,
      "ÅĤu": 8234,
      "try": 8235,
      "à¥Īà¤Ĥà¥¤": 8236,
      "ĠÑģÐ¾Ð³Ð»Ð°Ñģ": 8237,
      "ç»©": 8238,
      "Ġdevelop": 8239,
      "ĠSta": 8240,
      "è¿·": 8241,
      "ä¼¦": 8242,
      "Ġrefer": 8243,
      "Ġwohl": 8244,
      "ĠKh": 8245,
      "åĿļæĮģ": 8246,
      "Ġesa": 8247,
      "ĠÑģÐ»ÐµÐ´ÑĥÑİÑī": 8248,
      "ÑģÑĤÑĥÐ¿": 8249,
      "Ġexpl": 8250,
      "à¤ªà¤°": 8251,
      "uesto": 8252,
      "ĠÐ¸ÑģÑĤÐ¾ÑĢ": 8253,
      "ÑģÐºÐ¾Ð¼": 8254,
      "æķ´ä¸ª": 8255,
      "tens": 8256,
      "Ġhealth": 8257,
      "ĠTÃ¼rkiye": 8258,
      "ĠØ¨ÙĤ": 8259,
      "Ġposit": 8260,
      "æľīéĻĲ": 8261,
      "æĿ¾": 8262,
      "äº§çĶŁ": 8263,
      "ØªØ¨Ø±": 8264,
      "ĠØ·Ø±ÙĬÙĤ": 8265,
      "èº«ä½ĵ": 8266,
      "cent": 8267,
      "ĠÙĪØ§ÙĦØŃ": 8268,
      "cis": 8269,
      "ĠÑĤÐµÑĢÑĢÐ¸ÑĤÐ¾ÑĢ": 8270,
      "ÙħÙĬØ©": 8271,
      "ÑıÑħ": 8272,
      "Ġiss": 8273,
      "Ġposs": 8274,
      "ĠSep": 8275,
      "ÏģÎº": 8276,
      "Ġpemb": 8277,
      "ĠBeg": 8278,
      "Î½Ïī": 8279,
      "lej": 8280,
      "à¤Ĺà¤°": 8281,
      "enye": 8282,
      "Ð¸ÑģÑģ": 8283,
      "ĠÐ¿Ð¾Ð´Ð´ÐµÑĢÐ¶": 8284,
      "Ġqued": 8285,
      "ĠFamil": 8286,
      "ÄŁini": 8287,
      "ayan": 8288,
      "Ġspraw": 8289,
      "ĠØ§ÙĦØ¹Ø§ÙħØ©": 8290,
      "chi": 8291,
      "ĠØŃØ³": 8292,
      "Ø±ÙĬÙĤØ©": 8293,
      "æŃĮ": 8294,
      "ĠÑĢÐµÐ±ÐµÐ½": 8295,
      "ĠÐ¿ÑĢÐ¸Ð¼ÐµÐ½": 8296,
      "±ä¹Ĳ": 8297,
      "ÐķÑģÐ»Ð¸": 8298,
      "æĺ¾ç¤º": 8299,
      "éĶĢåĶ®": 8300,
      "ä»ĭç»į": 8301,
      "æİ¢": 8302,
      "ÐĿÐ°": 8303,
      "IK": 8304,
      "ker": 8305,
      "Ġhi": 8306,
      "Ġrad": 8307,
      "Ø·Ø§Ø±": 8308,
      "Ġpros": 8309,
      "Î»Î»Î·Î½": 8310,
      "ĠÎºÎ±Î¸": 8311,
      "çĨŁ": 8312,
      "ĠÐ½Ð°Ð¹": 8313,
      "Ø§Ø¦Ùħ": 8314,
      "ĠÎļÎ±": 8315,
      "ÏĦÏī": 8316,
      "Î´Î®": 8317,
      "De": 8318,
      "ĠServ": 8319,
      "æ¦Ĥ": 8320,
      "omat": 8321,
      "ĠteÅ¼": 8322,
      "è°ĥæŁ¥": 8323,
      "obil": 8324,
      "Ø±Ø¨Ø¹": 8325,
      "Ð¼Ð¾ÑĤ": 8326,
      "à¥Ī,": 8327,
      "éĴĪ": 8328,
      "ĠMill": 8329,
      "æĥĬ": 8330,
      "ĠÐľÑĭ": 8331,
      "Ġwsp": 8332,
      "ican": 8333,
      "ĠÐ¿ÑĢÐ¸Ð´": 8334,
      "Ġpersona": 8335,
      "à¤¢": 8336,
      "Ø¨Ø§Ø¨": 8337,
      "icular": 8338,
      "larÄ±nÄ±": 8339,
      "Ã¼hrt": 8340,
      "Ġdidn": 8341,
      "ĠÙĥØ¨ÙĬØ±": 8342,
      "Ġwithout": 8343,
      "ĠØ¹ÙĨØ¯ÙħØ§": 8344,
      "Ġdim": 8345,
      "'ll": 8346,
      "Ġextra": 8347,
      "Ð¸Ð·Ð½ÐµÑģ": 8348,
      "ĠmoÅ¼na": 8349,
      "Ø¶Ø§ÙģØ©": 8350,
      "Î¯Î¿": 8351,
      "æľīæķĪ": 8352,
      "ĠÑĥÐ»": 8353,
      "ĠdespuÃ©s": 8354,
      "tar": 8355,
      "Ġanother": 8356,
      "ÐºÐ¾Ð²Ð¾Ð´": 8357,
      "èīºæľ¯": 8358,
      "à¤¯à¤ķ": 8359,
      "Ġcent": 8360,
      "ĠhÃ¬nh": 8361,
      "ĠØ¨ÙħØ§": 8362,
      "çģµ": 8363,
      "Ġseiner": 8364,
      "Ġgerne": 8365,
      "ĠÐ¿ÑĢÐ¸Ð±": 8366,
      "gres": 8367,
      "06": 8368,
      "ä»¥åĲİ": 8369,
      "vern": 8370,
      "Ġtháº¥y": 8371,
      "à¤¸à¤°": 8372,
      "Ð¸Ð²Ð°ÐµÑĤ": 8373,
      "æįŁ": 8374,
      "gang": 8375,
      "Ġsagen": 8376,
      "Ø¨Ø¹": 8377,
      "éĥ½æľī": 8378,
      "irm": 8379,
      "Ð°Ð»Ðµ": 8380,
      "ĠÐŁÑĢÐ¸": 8381,
      "ĠÅ": 8382,
      "Ġboth": 8383,
      "ÑĢÑĭ": 8384,
      "ars": 8385,
      "ĠÙĪÙħØ§": 8386,
      "Ãºs": 8387,
      "æĢ§çļĦ": 8388,
      "ĠÐ¿Ð¾ÑĤÑĢÐµÐ±": 8389,
      "Ġeuch": 8390,
      "ĠÃ¶ÄŁ": 8391,
      "ĠØ§ÙĦÙħØº": 8392,
      "æıĲåįĩ": 8393,
      "kÄĻ": 8394,
      "Ã¼d": 8395,
      "ĠHal": 8396,
      "ĠÎ¼ÏĮ": 8397,
      "Î»Î¿ÏĤ": 8398,
      "ç«ŀäºī": 8399,
      "ĠtravÃ©s": 8400,
      "Ġotras": 8401,
      "åŁ¹è®Ń": 8402,
      "æĸ°éĹ»": 8403,
      "Ġcommun": 8404,
      "ÑĳÑĤ": 8405,
      "ÙĥØ«Ø±": 8406,
      "ĠÙĪÙĦÙħ": 8407,
      "ining": 8408,
      "ä¼ĳ": 8409,
      "è¶£": 8410,
      "lex": 8411,
      "ĠÎĪ": 8412,
      "éĻĨ": 8413,
      "ĠÐ²ÑĤÐ¾ÑĢ": 8414,
      "ĠWhat": 8415,
      "bert": 8416,
      "500": 8417,
      "Ð»ÐµÐ´": 8418,
      "urse": 8419,
      "Ġindustr": 8420,
      "48": 8421,
      "ÑĤÐ²ÐµÑĢÐ¶Ð´": 8422,
      "ä¼Ļ": 8423,
      "ĠÙĪØ§ÙĦØªÙĬ": 8424,
      "éĶ®": 8425,
      "æīįèĥ½": 8426,
      "ÙĦØ§Øª": 8427,
      "Ġren": 8428,
      "Ø¶Ø§Ùģ": 8429,
      "åºĶå½ĵ": 8430,
      "Ġniv": 8431,
      "ĠÐ¼Ð¾Ð¼ÐµÐ½ÑĤ": 8432,
      "dr": 8433,
      "ably": 8434,
      "éŁ©": 8435,
      "Ġcamb": 8436,
      "ç«¥": 8437,
      "].": 8438,
      "OL": 8439,
      "ĠÐ¨": 8440,
      "ĠLo": 8441,
      "Ø¸ÙĬÙģ": 8442,
      "Ġà¤¤à¤ķ": 8443,
      "Ġturn": 8444,
      "Ø¨Ø·": 8445,
      "ÑĥÑĤÑģÑĤÐ²": 8446,
      "åıĹåĪ°": 8447,
      "elah": 8448,
      "ĠÑģÐ»Ð¾Ð¶": 8449,
      "daki": 8450,
      "Ġná»¯": 8451,
      "ÅĤam": 8452,
      "Ø§Ø¦ÙĬÙĦ": 8453,
      "38": 8454,
      "ĠStadt": 8455,
      "ling": 8456,
      "Ġdeter": 8457,
      "amm": 8458,
      "Ġable": 8459,
      "åĬŀæ³ķ": 8460,
      "ily": 8461,
      "ĠnatÃ¼rlich": 8462,
      "ĠdafÃ¼r": 8463,
      "æĹ¢": 8464,
      "ĠnÃ¤ch": 8465,
      "çļĦåıĳå±ķ": 8466,
      "usu": 8467,
      "cher": 8468,
      "é¡º": 8469,
      "Ġise": 8470,
      "ĠserÃ¡": 8471,
      "**": 8472,
      "Ġtus": 8473,
      "Ġwhy": 8474,
      "ĠBew": 8475,
      "Ġbaik": 8476,
      "é¦Ļæ¸¯": 8477,
      "ĠÎ¦": 8478,
      "æĸĹ": 8479,
      "à¤¬à¤°": 8480,
      "07": 8481,
      "æĮīçħ§": 8482,
      "erein": 8483,
      "Ġfast": 8484,
      "Ð²Ñĭ": 8485,
      "ustom": 8486,
      "æģ©": 8487,
      "ÙĨØ³Ø¨Ø©": 8488,
      "Ã¤ÃŁ": 8489,
      "Ãºt": 8490,
      "Ġhead": 8491,
      "åıªè¦ģ": 8492,
      "Ð»ÑİÐ´": 8493,
      "ĠÑĥÐ·": 8494,
      "ĠØ§ÙĦÙĤØ§ÙĨÙĪÙĨ": 8495,
      "bet": 8496,
      "ÙĥØ±ÙĬ": 8497,
      "Ð¼Ð°ÑĤ": 8498,
      "ĠGe": 8499,
      "cej": 8500,
      "ĠÐ¿ÑĢÐµÐ´Ð¿ÑĢÐ¸": 8501,
      "ĠØ§ÙĦØ¯ÙĪÙĦØ©": 8502,
      "ç©¿": 8503,
      "ï¼īï¼Į": 8504,
      "ĠØ§ÙĦÙĪØ²": 8505,
      "What": 8506,
      "ÐµÐ»Ð¸Ñĩ": 8507,
      "ĠÎºÏĮ": 8508,
      "ween": 8509,
      "ÙĪØ¬Ø¯": 8510,
      "á»«": 8511,
      "ĠâĢĿ": 8512,
      "Ø§Ø¦Ø¯": 8513,
      "æĤ£": 8514,
      "yo": 8515,
      "ecu": 8516,
      "Ġwollen": 8517,
      "37": 8518,
      "ä¸ªæľĪ": 8519,
      "å¦ĤæŃ¤": 8520,
      "æ¯Ķå¦Ĥ": 8521,
      "08": 8522,
      "ĠLas": 8523,
      "Ġkind": 8524,
      "ĠviÃªn": 8525,
      "Î»ÎµÎ¹": 8526,
      "ĠHar": 8527,
      "åºĵ": 8528,
      "çļĦå°ı": 8529,
      "Ġverdad": 8530,
      "Ð½Ð¸Ñħ": 8531,
      "Ġcasa": 8532,
      "Sch": 8533,
      "Ġkit": 8534,
      "Ġnuevo": 8535,
      "Ġschool": 8536,
      "Ġstop": 8537,
      "ÙĤÙĬÙĤØ©": 8538,
      "ç®Ģåįķ": 8539,
      "pas": 8540,
      "ÑĢÐµÐ½": 8541,
      "ĠRo": 8542,
      "ically": 8543,
      "Ġvisit": 8544,
      "éĽĨåĽ¢": 8545,
      "ĠÄĳang": 8546,
      "ĠMay": 8547,
      "ĠÐ²ÑĭÐ¿Ð¾Ð»Ð½": 8548,
      "Ġdays": 8549,
      "tron": 8550,
      "Ġmedia": 8551,
      "Ð½Ð°ÐºÐ¾Ð¼": 8552,
      "Ġpag": 8553,
      "ĠcÃ´": 8554,
      "Ġwid": 8555,
      "isen": 8556,
      "ĠhÃłnh": 8557,
      "ash": 8558,
      "ĠØ§ÙĦØ§Ø¬ØªÙħØ§Ø¹": 8559,
      "ĠÐ¿ÑĢÐ¾Ð¸Ñģ": 8560,
      "ĠÐ¿Ð¾ÐºÐ°": 8561,
      "zent": 8562,
      "ĠtrÆ°á»Ľc": 8563,
      "åĢŁ": 8564,
      "Ð°ÐºÑĤÐµÑĢ": 8565,
      "Ġaunque": 8566,
      "ÑĩÐ¸ÑĤ": 8567,
      "ĠÑĨÐµÐ½": 8568,
      "é¥Ń": 8569,
      "55": 8570,
      "åİĤ": 8571,
      "Ġlooking": 8572,
      "Ø¨ÙĬØ±Ø©": 8573,
      "Ġtá»±": 8574,
      "ezi": 8575,
      "ĠÐ¾Ð±ÑĢÐ°Ð·Ð¾Ð¼": 8576,
      "Ġmiejs": 8577,
      "Ġella": 8578,
      "ÙĪÙĬÙĦ": 8579,
      "Ġcaus": 8580,
      "Ġcara": 8581,
      "ĠÐ½Ð¸Ð¼": 8582,
      "Ġtell": 8583,
      "ĠØ´Ø±ÙĥØ©": 8584,
      "ĠAnt": 8585,
      "ĠÐ²Ð¿": 8586,
      "Ġimportante": 8587,
      "ĠØ§ÙĦÙĪÙĤØª": 8588,
      "nolog": 8589,
      "ä¸°": 8590,
      "ĠThere": 8591,
      "anks": 8592,
      "å¤ľ": 8593,
      "äºĴèģĶç½ĳ": 8594,
      "Ã¤l": 8595,
      "Ã¤hrend": 8596,
      "siniz": 8597,
      "æ¶ī": 8598,
      "ĠÐ²Ð¸Ð´Ðµ": 8599,
      "ĠÐ·Ð°Ð½Ð¸Ð¼": 8600,
      "ĠÑģÐ°Ð¹": 8601,
      "ĠÑĢÐ°Ð·Ð»Ð¸Ñĩ": 8602,
      "ÐµÑĩÐµÐ½Ð¸Ðµ": 8603,
      "Ġayud": 8604,
      "ĠÐ´ÐµÑĤÐµÐ¹": 8605,
      "ÏĩÎ½": 8606,
      "è¯¦": 8607,
      "ĠÙĪÙĦÙĬ": 8608,
      "Ġà¤µà¤¹": 8609,
      "ĠØ¹Ø¨Ø±": 8610,
      "ĠÑĢÐ°Ð½": 8611,
      "ÑĨÐ¸Ñİ": 8612,
      "ĠÑĦÐ¸Ð½Ð°Ð½Ñģ": 8613,
      "ĠÑģÐºÐ¾ÑĢ": 8614,
      "é£İéĻ©": 8615,
      "å³": 8616,
      "ĠgÅĤ": 8617,
      "Ġaplic": 8618,
      "ĠØ§ÙĦØ§Ø¹": 8619,
      "Ġà¤¸à¤¬": 8620,
      "à¤¶à¤¨": 8621,
      "ĠØ¨ÙĬ": 8622,
      "æİĪ": 8623,
      "æİ§åĪ¶": 8624,
      "ĠpolÃŃt": 8625,
      "Des": 8626,
      "Ġmacht": 8627,
      "Ġfil": 8628,
      "Ø¶ÙĬ": 8629,
      "arly": 8630,
      "Ġsamp": 8631,
      "ÐµÐ´Ð¸Ð½": 8632,
      "ĠmÃ¶chte": 8633,
      "ĠÐ¿ÑĢÐ¸Ñģ": 8634,
      "æľīä¸Ģ": 8635,
      "æĿ¥èĩª": 8636,
      "ØªØ¬": 8637,
      "rob": 8638,
      "Î²Î¬": 8639,
      "Ġtaraf": 8640,
      "ĠÐ§ÑĤÐ¾": 8641,
      "éĻ¤äºĨ": 8642,
      "ĠÐ¿Ð¾Ð»ÑĮÐ·Ð¾Ð²": 8643,
      "åı¯æĺ¯": 8644,
      "ÙĤØ§Ø¡": 8645,
      "ĠÐ½Ð°Ðº": 8646,
      "Ġemail": 8647,
      "Ġrepres": 8648,
      "ache": 8649,
      "ÑģÐµÐ¼": 8650,
      "Ð»ÐµÐ½Ð¸Ð¸": 8651,
      "Ġlagi": 8652,
      "è¿Ľä¸ĢæŃ¥": 8653,
      "ĠEle": 8654,
      "ants": 8655,
      "Ġtet": 8656,
      "ĠÙħØ¬ÙĦØ³": 8657,
      "wier": 8658,
      "Ø§ÙĦØ«": 8659,
      "Ġmain": 8660,
      "uff": 8661,
      "çĥĪ": 8662,
      "ĠÐ²ÑĭÑģÐ¾Ðº": 8663,
      "ĠÑĥÐ³": 8664,
      "Ã¼ll": 8665,
      "Ġmog": 8666,
      "ĠØªØ¹Ø§ÙĦÙī": 8667,
      "æĮģç»Ń": 8668,
      "Ġfamily": 8669,
      "ÑıÐµÑĤ": 8670,
      "ÙĩÙĪØ¯": 8671,
      "å¹¶ä¸Ķ": 8672,
      "çĶµè¯Ŀ": 8673,
      "æĢĿæĥ³": 8674,
      "ĠSup": 8675,
      "ĠÎ¼ÎµÏĦÎ±": 8676,
      "Ġ2007": 8677,
      "Ãĸ": 8678,
      "å®ģ": 8679,
      "ĠMod": 8680,
      "ĠÐ·Ð°Ñī": 8681,
      "stellung": 8682,
      "å°¤": 8683,
      "ĠÎºÎ¬Î½": 8684,
      "Ð¥": 8685,
      "Ġpend": 8686,
      "Î½Î¿Î¼": 8687,
      "ĠÐ¿ÑĢÐ¾Ð´Ð¾Ð»Ð¶": 8688,
      "ĠÑģÐ²Ð¾Ð¹": 8689,
      "éķĩ": 8690,
      "Ð²Ð°ÑĤ": 8691,
      "ÏĢÎ¹": 8692,
      "rac": 8693,
      "ĠÐ·Ð°Ð²Ð¸Ñģ": 8694,
      "pad": 8695,
      "Ð¼Ðµ": 8696,
      "Î¹ÎºÎŃÏĤ": 8697,
      "Ġort": 8698,
      "indows": 8699,
      "çĽ¸ä¿¡": 8700,
      "iza": 8701,
      "Ð¸Ð²ÑĪ": 8702,
      "Î¯Î½ÎµÎ¹": 8703,
      "32": 8704,
      "ĠØ§ÙĦØ±ÙĬ": 8705,
      "ÙĪÙĨÙĬ": 8706,
      "iedad": 8707,
      "Ġbag": 8708,
      "ä¼´": 8709,
      "tÄ±": 8710,
      "Ġmor": 8711,
      "Ä±yla": 8712,
      "Ø¸ÙĩØ±": 8713,
      "Ġopen": 8714,
      "é²ľ": 8715,
      "ĠÑģÐµÐ³Ð¾Ð´Ð½Ñı": 8716,
      "ĠÐ±ÐµÑģÐ¿": 8717,
      "ÄŁu": 8718,
      "å®¹æĺĵ": 8719,
      "åĪ©çĶ¨": 8720,
      "akit": 8721,
      "éĢĲ": 8722,
      "99": 8723,
      "ĠShe": 8724,
      "Ġsev": 8725,
      "ĠJak": 8726,
      "ĠÐºÐ°ÐºÐ¾Ð¹": 8727,
      "ĠEm": 8728,
      "agement": 8729,
      "ä»¥æĿ¥": 8730,
      "Ġfree": 8731,
      "fte": 8732,
      "Ø§Ø¹Ø§Øª": 8733,
      "uridad": 8734,
      "ä¹¡": 8735,
      "Ð¿ÑĢÐ¾Ñģ": 8736,
      "ror": 8737,
      "ÙģØ§": 8738,
      "ĠÐ¿Ð¾Ð¶": 8739,
      "ĠÙĪØ´": 8740,
      "geh": 8741,
      "Ġning": 8742,
      "ix": 8743,
      "ä¸ĩåħĥ": 8744,
      "ĠÙħÙħØ§": 8745,
      "çĿ¡": 8746,
      "á»įi": 8747,
      "Ġaway": 8748,
      "æĵį": 8749,
      "ä½Ľ": 8750,
      "ĠGef": 8751,
      "udio": 8752,
      "EC": 8753,
      "Ġdort": 8754,
      "Ġviv": 8755,
      "ĠØ¹Ø¯Ùħ": 8756,
      "Ġ500": 8757,
      "Ġconv": 8758,
      "åºĬ": 8759,
      "Ġà¤¬à¤¹": 8760,
      "ćĆï¼Į": 8761,
      "alÄ±": 8762,
      "ĠÐ½Ð°Ð±": 8763,
      "è¯¯": 8764,
      "ĠØ§ÙĦÙĤØ¯": 8765,
      "abr": 8766,
      "ĠÐĶÐ°": 8767,
      "ĠÑĤÐµÐ±Ñı": 8768,
      "Ġredu": 8769,
      "Ġlead": 8770,
      "ĠÐŀÑĤ": 8771,
      "ĈãĢģ": 8772,
      "Ġers": 8773,
      "è¾¾åĪ°": 8774,
      "ĠÃ©l": 8775,
      "zn": 8776,
      "ĠÑĤÐ¾ÑĢ": 8777,
      "ĠChrist": 8778,
      "ĠØ¹Ø¨": 8779,
      "ĠJan": 8780,
      "ÃŃst": 8781,
      "æľīäºº": 8782,
      "ĠØ§ÙĦØ¬Ø²": 8783,
      "éĩĮçļĦ": 8784,
      "ĠÐ·Ð°ÐºÐ»ÑİÑĩ": 8785,
      "ision": 8786,
      "ĠØ´Ø±": 8787,
      "Para": 8788,
      "Ġneuen": 8789,
      "esiÃ³n": 8790,
      "yon": 8791,
      "aring": 8792,
      "Ġpeny": 8793,
      "ĠÏĩÎ±": 8794,
      "Ø¹Ø§Ø¯Ø©": 8795,
      "Ã³Å¼": 8796,
      "ĠAc": 8797,
      "Ġquer": 8798,
      "04": 8799,
      "ÙĦÙĬØ§Øª": 8800,
      "aniu": 8801,
      "Ð½ÐµÐ³Ð¾": 8802,
      "Ġhari": 8803,
      "Ð»ÑıÑĤÑĮ": 8804,
      "ĠÑįÑĦÑĦ": 8805,
      "æ´¾": 8806,
      "Ġsupport": 8807,
      "Ð°ÑİÑīÐ¸Ñħ": 8808,
      "Ġhuman": 8809,
      "ÐµÑĢÑĤ": 8810,
      "èĭ¥": 8811,
      "Ġestado": 8812,
      "Ġprimer": 8813,
      "ÑĩÐµÑĤ": 8814,
      "ĠWer": 8815,
      "ĠÑģÐ²Ð¾Ð¸Ñħ": 8816,
      "noÅĽÄĩ": 8817,
      "ÙĬØ·": 8818,
      "Ġmb": 8819,
      "ĠBa": 8820,
      "Î³ÏģÎ±ÏĨ": 8821,
      "ĠÐ»ÐµÐ³": 8822,
      "ĠProf": 8823,
      "Ġparticip": 8824,
      "ĠkiÅŁ": 8825,
      "acter": 8826,
      "ĠÏĨÎ¿": 8827,
      "Ġmemiliki": 8828,
      "ĠØ§ÙĦØ¹Ø±Ø§ÙĤ": 8829,
      "ĠÐ¿ÑĢÐ¸Ð¼ÐµÑĢ": 8830,
      "ĠØ§ÙĦØ¹Ùħ": 8831,
      "ÑĢÐ°ÑĨÐ¸Ð¸": 8832,
      "alten": 8833,
      "Ã³j": 8834,
      "ØµØŃ": 8835,
      "ĠÐ¾ÑĤÐ»Ð¸Ñĩ": 8836,
      "Î¸Î®": 8837,
      "ĠÐ¸Ð¼ÐµÐµÑĤ": 8838,
      "ĠbÃ¼yÃ¼k": 8839,
      "ĠÙĪØ§ÙĦÙĨ": 8840,
      "Ġsince": 8841,
      "TA": 8842,
      "Ġquier": 8843,
      "Ġverb": 8844,
      "ĠÐ²ÐºÐ»ÑİÑĩ": 8845,
      "Ġeinz": 8846,
      "Ġexist": 8847,
      "ĠÐ¿ÑĢÐ¾Ð²Ð¾Ð´": 8848,
      "Ġà¤ªà¤¹à¤²": 8849,
      "egeben": 8850,
      "ÑĥÐ´ÑĮ": 8851,
      "ĠÐ³Ð¾ÑĤÐ¾Ð²": 8852,
      "ĠÑĩÐµÐ³Ð¾": 8853,
      "ĠÑģÐ¾Ð´ÐµÑĢÐ¶": 8854,
      "iÄħ": 8855,
      "lk": 8856,
      "èĵ": 8857,
      "ĠÙĦØ¯ÙĬ": 8858,
      "èĽ": 8859,
      "ĠtrÃ¬nh": 8860,
      "Ġestas": 8861,
      ".âĢľ": 8862,
      "çļ®": 8863,
      "ĠÐ¾Ð±Ñĭ": 8864,
      "ĠÑĤÐ¾ÑĤ": 8865,
      "èĲ¨": 8866,
      "Ġsistema": 8867,
      "ĠÏĦÎµ": 8868,
      "ĠÑįÐ»ÐµÐºÑĤ": 8869,
      "ĠÑģÑĤÐ¾Ð¸ÑĤ": 8870,
      "ĠÐ»ÑĥÑĩÑĪÐµ": 8871,
      "Ġjob": 8872,
      "æ¯ıå¤©": 8873,
      "æĶ»": 8874,
      "ĠÐ¦": 8875,
      "ĠDem": 8876,
      "Ġihrer": 8877,
      "Ġdata": 8878,
      "ĠEnde": 8879,
      "åłĤ": 8880,
      "ÑĢÐ¾Ð±": 8881,
      "ĠÑģÑĢÐ¾Ðº": 8882,
      "\"ØĮ": 8883,
      "Ð½ÐµÐ¼": 8884,
      "ischer": 8885,
      "ee": 8886,
      "Ġdok": 8887,
      "ĠTel": 8888,
      "ograf": 8889,
      "ĠÐ¿Ð¾Ð±": 8890,
      "Ġvideo": 8891,
      "ures": 8892,
      "æĿĤ": 8893,
      "ĠÏĥÎ¿Ïħ": 8894,
      "ĠØ¹ÙĨÙĩ": 8895,
      "ĠÐļÐ¾Ð½": 8896,
      "ĠÎµÏĢÎ¯": 8897,
      "è´¸æĺĵ": 8898,
      "ĠØ§ÙĤ": 8899,
      "Ġprocess": 8900,
      "ä½ĵç³»": 8901,
      "Ġpregun": 8902,
      "Ġsecara": 8903,
      "iaÅĤa": 8904,
      "ÑĤÐ¾ÑĢÐ°": 8905,
      "ÙĬØŃ": 8906,
      "Î¿Î½ÏĦÎ±Î¹": 8907,
      "ĠÐ¿Ð¾ÑĤÐ¾Ð¼": 8908,
      "ÏĩÎ®": 8909,
      "Ø§Ø¯Ø§Øª": 8910,
      "Ġvá»¥": 8911,
      "ä¿ĿæĮģ": 8912,
      "lim": 8913,
      "ĠForm": 8914,
      "Ġfinan": 8915,
      "Ø§ÙĦÙĥ": 8916,
      "03": 8917,
      "dings": 8918,
      "Ġdatos": 8919,
      "Ġofre": 8920,
      "éĩĬ": 8921,
      "tener": 8922,
      "Ġbetween": 8923,
      "æİ¨åĬ¨": 8924,
      "ĠBild": 8925,
      "Ø§ÙħØ§": 8926,
      "Ġprimera": 8927,
      "ĠØ³ÙĨØ©": 8928,
      "ĠktÃ³r": 8929,
      "ĠBundes": 8930,
      "ĠÐ½Ð°Ð»Ð¾Ð³": 8931,
      "ĠÑĤÐ¾Ñĩ": 8932,
      "Ð°ÑĢÐ°ÐºÑĤÐµÑĢ": 8933,
      "ĠÃ¼zer": 8934,
      "æ£®": 8935,
      "mu": 8936,
      "uta": 8937,
      "licher": 8938,
      "Ġpoint": 8939,
      "åıĸå¾Ĺ": 8940,
      "ÑīÐµÐµ": 8941,
      "ÛĮ": 8942,
      "ĠÐ·Ð²": 8943,
      "æĥ³è¦ģ": 8944,
      "Ø§ÙĩØ¯": 8945,
      "ĠÑģÐ¿ÐµÑĨÐ¸": 8946,
      "Ø§Ø¨ÙĤ": 8947,
      "ĠĠĠĠ": 8948,
      "Ġfam": 8949,
      "ä¼°": 8950,
      "Ġelement": 8951,
      "ĠÐºÐ¾ÑĤÐ¾ÑĢÐ¾Ð¹": 8952,
      "ĠÑĢÑĭÐ½": 8953,
      "ÙĬØ±Ø§": 8954,
      "ĠÏĩÏģÏĮ": 8955,
      "ĠÐ°ÐºÑĤÐ¸Ð²": 8956,
      "ĆãĢĤ": 8957,
      "ĠÐ½ÐµÐ·": 8958,
      "Ø¬ÙĬÙĦ": 8959,
      "å¸¦æĿ¥": 8960,
      "ĠaquÃŃ": 8961,
      "neh": 8962,
      "ÑĥÐ»Ð¸": 8963,
      "çļĦäºĭ": 8964,
      "à¥įâĢį": 8965,
      "ĠvÃ¬": 8966,
      "iu": 8967,
      "Ġeben": 8968,
      "ielen": 8969,
      "ĠBlog": 8970,
      "Ġimportant": 8971,
      "ĠØ£Ø®": 8972,
      "Ġveya": 8973,
      "Ġnivel": 8974,
      "Ø²Ø¨": 8975,
      "Ġ35": 8976,
      "ov": 8977,
      "oren": 8978,
      "Ġmenc": 8979,
      "ĠDank": 8980,
      "Ø¢ÙĨ": 8981,
      "powiedzi": 8982,
      "Ġteam": 8983,
      "æı¡": 8984,
      "çĶµè§Ĩ": 8985,
      "ĠÑĨÐµÐ½ÑĤ": 8986,
      "uso": 8987,
      "Ġverl": 8988,
      "Ø¹ÙĦØ§Ùħ": 8989,
      "çŀ": 8990,
      "ÐµÐ½Ñģ": 8991,
      "ĠÐ´Ð°": 8992,
      "ĠÐºÐ¾Ð¼Ð¿Ð°Ð½Ð¸Ð¸": 8993,
      "ÙħÙĩ": 8994,
      "ĠOk": 8995,
      "Ð¾Ð»ÑĮÑĪ": 8996,
      "ä¿ĿéĻ©": 8997,
      "ĠtÆ°": 8998,
      "Ġmáº·t": 8999,
      "ĠÐŀÐ½Ð°": 9000,
      "ÙĩØ¯Ùģ": 9001,
      "Wie": 9002,
      "ĠCan": 9003,
      "ĠÑįÑĤÐ¸Ñħ": 9004,
      "obierno": 9005,
      "ÙĦÙħØ©": 9006,
      "ĠÙĪØ¶Ø¹": 9007,
      "Ġobs": 9008,
      "å»ºè®®": 9009,
      "Ġgemacht": 9010,
      "æĿŁ": 9011,
      "ĠÐ½Ð°ÑĩÐ¸Ð½": 9012,
      "ĠÃ´ng": 9013,
      "unya": 9014,
      "aty": 9015,
      "ĠØ§ÙĦØ£ÙĨ": 9016,
      "Ġmeiner": 9017,
      "Ġliegt": 9018,
      ")ØĮ": 9019,
      "UL": 9020,
      "Was": 9021,
      "ÏĢÎ·": 9022,
      "Ġrum": 9023,
      "çľĭçĿĢ": 9024,
      "Ġihren": 9025,
      "osa": 9026,
      "ÙĪÙĦÙĩ": 9027,
      "cidad": 9028,
      "Ġgame": 9029,
      "å¹´æĿ¥": 9030,
      "Ð°Ð±Ð¾Ñĩ": 9031,
      "2010": 9032,
      "owym": 9033,
      "ÎºÎ¬": 9034,
      "mel": 9035,
      "Ġunos": 9036,
      "Ġdone": 9037,
      "ÏģÎ¯Î¿Ïħ": 9038,
      "åĮ»éĻ¢": 9039,
      "ÑĥÐ·": 9040,
      "otros": 9041,
      "acja": 9042,
      "Ð°ÑĤÐµÐ»ÐµÐ¹": 9043,
      "Ġps": 9044,
      "ĠFrage": 9045,
      "ĠØ§ÙĦØ§Ø®": 9046,
      "ĠÐ²Ð¾Ð¹": 9047,
      "ÑģÑĤÑĢÐ¾Ð¹": 9048,
      "ĠÑģÐ²ÑıÐ·Ð¸": 9049,
      "Ð°ÑĤÐ¾ÑĩÐ½Ð¾": 9050,
      "uru": 9051,
      "Ġgehen": 9052,
      "æĸ¹æ¡Ī": 9053,
      "ĠØ§ÙĦØ®Ø·": 9054,
      "èĳĹ": 9055,
      "ĠØ¨Ø¹": 9056,
      "è½½": 9057,
      "Ð¾Ð¿Ð°Ñģ": 9058,
      "ÏģÏħ": 9059,
      "icle": 9060,
      "Ø±Ùī": 9061,
      "Ġhá»Ļi": 9062,
      "Ġfall": 9063,
      "ÑıÑģÐ½": 9064,
      "Ġmaj": 9065,
      "leb": 9066,
      "ĠÙĦÙĪ": 9067,
      "éĥ½ä¼ļ": 9068,
      "çĮ®": 9069,
      "Ø§ÙĦØ£": 9070,
      "Ġkim": 9071,
      "ĠnháºŃn": 9072,
      "ĠØ§ÙĦØ¥ÙĨ": 9073,
      "49": 9074,
      "åĪĺ": 9075,
      "Ġcáº§n": 9076,
      "reen": 9077,
      "ĠÙĬØ§": 9078,
      "ĠphÃ¡t": 9079,
      "ides": 9080,
      "nahme": 9081,
      "ĠÐ¾ÑģÑĤÐ°Ð²": 9082,
      "ĠÑĤÐ¾Ð²Ð°ÑĢ": 9083,
      "åĲ«": 9084,
      "ÏĮÎ¼Îµ": 9085,
      "Ġperm": 9086,
      "Ġpeque": 9087,
      "ĠÐ´ÐµÐ»Ð°ÑĤÑĮ": 9088,
      "ased": 9089,
      "ÄŁit": 9090,
      "ÑĦÐ¸": 9091,
      "è´¥": 9092,
      "ĠÐ¾Ð±ÑĬÐµÐºÑĤ": 9093,
      "æ¨¡å¼ı": 9094,
      "Ð¾Ð·Ð¼Ð¾Ð¶": 9095,
      "2013": 9096,
      "unia": 9097,
      "ĠØ¨Ø³Ø¨Ø¨": 9098,
      "Ġpla": 9099,
      "ĠÑĤÐ¾Ð³Ð´Ð°": 9100,
      "äº¤æµģ": 9101,
      "éĢı": 9102,
      "èģĶç³»": 9103,
      "Æ°á»Ľng": 9104,
      "ĠÐ½Ð¸ÐºÐ°Ðº": 9105,
      "è¿ĩç¨ĭä¸Ń": 9106,
      "bu": 9107,
      "ĠHaus": 9108,
      "Ġtres": 9109,
      "ĠÙĪÙĩØ°Ø§": 9110,
      "ĠÑģÐµÑĢ": 9111,
      "ÎºÎ¹": 9112,
      "Ã¶h": 9113,
      "ually": 9114,
      "ÑĢÐ°ÑĤÑĮ": 9115,
      "ms": 9116,
      "Ð²Ð°ÑĢ": 9117,
      "Ġpret": 9118,
      "çĹĽ": 9119,
      "ÙħØ¹": 9120,
      "ĠÎ¯": 9121,
      "Ġarr": 9122,
      "ĠváºŃy": 9123,
      "Ġilk": 9124,
      "äºĨä¸Ģä¸ª": 9125,
      "ĠÙĥÙĬÙģ": 9126,
      "Ġhoy": 9127,
      "lÃ¼ck": 9128,
      "Ġkepada": 9129,
      "ĠrÃ³w": 9130,
      "çİ°ä»£": 9131,
      "Cu": 9132,
      "ĠÙĪØ§ÙĦØ¯": 9133,
      "Ð¾Ð¶ÐµÑĤ": 9134,
      "enda": 9135,
      "Ð¾Ð±Ð¾Ð´": 9136,
      "vail": 9137,
      "ragen": 9138,
      "ĠÏĢÎ¿Î»Î¹": 9139,
      "ÑıÐ»": 9140,
      "rach": 9141,
      "åŃ¦éĻ¢": 9142,
      "åħ¸": 9143,
      "Ġcáº¥p": 9144,
      "ä¸įå¾Ĺ": 9145,
      "ç½Ĺæĸ¯": 9146,
      "Ã¨": 9147,
      "ĠÐ¾Ð±ÑĢÐ°ÑĤ": 9148,
      "Ġallen": 9149,
      "ihat": 9150,
      "æ´Ľ": 9151,
      "Ġà¤¤à¤°": 9152,
      "Ġjedoch": 9153,
      "ç»¼": 9154,
      "ĠÐ¾ÑĢÐ³Ð°Ð½Ð¸Ð·Ð°ÑĨÐ¸Ð¸": 9155,
      "âĢľ,": 9156,
      "Ġ196": 9157,
      "jos": 9158,
      "Ġcir": 9159,
      "ÙĪØ¡": 9160,
      "è´µ": 9161,
      "áº¡ng": 9162,
      "zenie": 9163,
      "æĶ¶åħ¥": 9164,
      "ÙħØ¨Ø±": 9165,
      "ÑĢÐ°Ð·Ñĥ": 9166,
      "èĢĥèĻĳ": 9167,
      "ĠØ¹ÙĦÙħ": 9168,
      "Ġà¤ħà¤§": 9169,
      "ÐļÐ°Ðº": 9170,
      "Ð³Ð»ÑıÐ´": 9171,
      "Ġencuent": 9172,
      "Ġeig": 9173,
      "ames": 9174,
      "umen": 9175,
      "Ġexperience": 9176,
      "ĠÙĪØ§ØŃØ¯": 9177,
      "Ġthree": 9178,
      "ĠØ£ÙħØ§Ùħ": 9179,
      "asar": 9180,
      "adÄ±r": 9181,
      "ĠSeite": 9182,
      "ØºØ·": 9183,
      "Î¼Î±ÏĦÎ¿ÏĤ": 9184,
      "Ent": 9185,
      "ĠÐ³Ð»Ð°Ð·": 9186,
      "Ġbáº£n": 9187,
      "Ġtalk": 9188,
      "ÙĥØªØ¨": 9189,
      "Ġveces": 9190,
      "Ġembar": 9191,
      "iko": 9192,
      "Ġalan": 9193,
      "ĠÏĥÏį": 9194,
      "ĠweiÃŁ": 9195,
      "Ġmnie": 9196,
      "unft": 9197,
      "Ġkinh": 9198,
      "lerini": 9199,
      "Ġsalud": 9200,
      "ĠNov": 9201,
      "eszcze": 9202,
      "lage": 9203,
      "èĦļ": 9204,
      "Ġtay": 9205,
      "ĠÑĢÑĥÐºÐ¾Ð²Ð¾Ð´": 9206,
      "Ġig": 9207,
      "à¤²à¤¤": 9208,
      "ä¹Łæľī": 9209,
      "æŁĵ": 9210,
      "ÙĪØ¬Ùĩ": 9211,
      "fang": 9212,
      "unter": 9213,
      "Ġenc": 9214,
      "ä¸įå°ĳ": 9215,
      "ĠÙĥØ«ÙĬØ±": 9216,
      "Ãĩ": 9217,
      "aktu": 9218,
      "Î¹ÎºÎ¿Ïį": 9219,
      "ĠbÃ¶": 9220,
      "Ġabsol": 9221,
      "Ġinterest": 9222,
      "Ġwenig": 9223,
      "ĠtÃ¢m": 9224,
      "åľ£": 9225,
      "ĠÐĶÐ»Ñı": 9226,
      "Ä±sÄ±": 9227,
      "ÙĬØ§Ø¯Ø©": 9228,
      "amt": 9229,
      "Î©": 9230,
      "ĠnÄĥng": 9231,
      "ĠÐ¿ÑĢÐ¾Ð²ÐµÑĢ": 9232,
      "ever": 9233,
      "ĠAg": 9234,
      "ĠEsp": 9235,
      "upa": 9236,
      "angkan": 9237,
      "Ð¸Ð¼Ð¾": 9238,
      "Ġgerade": 9239,
      "Ġappro": 9240,
      "Ġllam": 9241,
      "rot": 9242,
      "Ġloc": 9243,
      "ĠÐ²Ð¾Ð·Ð½Ð¸Ðº": 9244,
      "weg": 9245,
      "EO": 9246,
      "ĠÐ¿ÑĢÐ¾ÑĦÐµÑģÑģ": 9247,
      "ĠÑĤÑĢÑĥ": 9248,
      "ç§Ł": 9249,
      "æĦıè¯Ĩ": 9250,
      "Ġtransp": 9251,
      "inta": 9252,
      "Ġtab": 9253,
      "Ġtoda": 9254,
      "ennt": 9255,
      "Ġaj": 9256,
      "angi": 9257,
      "ĠThat": 9258,
      "ĠFahr": 9259,
      "Ġberk": 9260,
      "Î½Î¿Î½": 9261,
      "æ¥ļ": 9262,
      "ĠseÃ±": 9263,
      "ĠÐ¿ÑĢÐµÐ´Ð»Ð¾Ð¶": 9264,
      "ĠktÃ³ry": 9265,
      "èģĮä¸ļ": 9266,
      "Ġbá»Ļ": 9267,
      "Ã¶ff": 9268,
      "ĠÑģÑĤÐ¾Ð»": 9269,
      "æ¯Ľ": 9270,
      "ĠkaÅ¼": 9271,
      "NG": 9272,
      "oca": 9273,
      "è¡¨çİ°": 9274,
      "ired": 9275,
      "ĠÑģÑĤÐ¾ÑĢÐ¾Ð½Ñĭ": 9276,
      "ÙĪØ¨Ø©": 9277,
      "had": 9278,
      "Ä±mÄ±": 9279,
      "Ġlá»Ľ": 9280,
      "ĠMÃ¶glichkeit": 9281,
      "este": 9282,
      "ä¸Ŀ": 9283,
      "æ¸Ĳ": 9284,
      "Ġbad": 9285,
      "æĮĳ": 9286,
      "ĠØ§ÙĨØª": 9287,
      "Ġsaf": 9288,
      "Ġsimple": 9289,
      "Ġinvestig": 9290,
      "IR": 9291,
      "ban": 9292,
      "çļĦäºĭæĥħ": 9293,
      "ĠÐ¸Ð·Ð±": 9294,
      "earch": 9295,
      "ĠÑģÐ¾Ð¾ÑĤÐ²ÐµÑĤÑģÑĤÐ²Ð¸Ð¸": 9296,
      "ĠÎ¸Îµ": 9297,
      "Ġrealizar": 9298,
      "ĠÑĢÐ°ÑģÑģÐºÐ°Ð·": 9299,
      "ĠLebens": 9300,
      "amu": 9301,
      "imb": 9302,
      "Ø±ÙĬÙģ": 9303,
      "Ġsens": 9304,
      "Î¼Î±Î½": 9305,
      "åıĳå±ķçļĦ": 9306,
      "ross": 9307,
      "å¯¼èĩ´": 9308,
      "æĶ¹åıĺ": 9309,
      "Ð¾Ð²Ð¾Ð³Ð¾": 9310,
      "éģ¿": 9311,
      "ÙģÙĬØ°": 9312,
      "stit": 9313,
      "Ġasp": 9314,
      "ierten": 9315,
      "ä»¥ä¸ĭ": 9316,
      "Ġkonnte": 9317,
      "ĠÐ¿ÑĢÐ¸ÑĪ": 9318,
      "Ġgw": 9319,
      "Î´Î¹Î¿": 9320,
      "åıªèĥ½": 9321,
      "Ø¬ÙĨØ©": 9322,
      "Ø§ÙĩØ±Ø©": 9323,
      "ĠÑģÐ¾ÑģÑĤÐ¾ÑıÐ½": 9324,
      "Ġanak": 9325,
      "ØŃØ§Ø¯": 9326,
      "åĳĺå·¥": 9327,
      "à¥Ģà¥¤": 9328,
      "Ġngo": 9329,
      "sprech": 9330,
      "ĠÑģÐ¾ÑĤÑĢÑĥÐ´": 9331,
      "omb": 9332,
      "ĠÂ¡": 9333,
      "ÏģÎ¹Î¿": 9334,
      "ÑĢÐµÐ´Ð¸ÑĤ": 9335,
      "ĠMer": 9336,
      "ĠØ§ÙĦÙħØ®": 9337,
      "Ø¨Ø¯Ø£": 9338,
      "!\"": 9339,
      "Ġstat": 9340,
      "ÑĭÐ²Ð°ÐµÑĤÑģÑı": 9341,
      "ĠÐ¶Ð¸Ð·Ð½ÑĮ": 9342,
      "itik": 9343,
      "ãĢĮ": 9344,
      "ower": 9345,
      "è¯¢": 9346,
      "ĠProgram": 9347,
      "Ġmuchas": 9348,
      "ĠØ¨Ø§ÙĦØª": 9349,
      "2012": 9350,
      "Ð¸Ð»ÑĮÐ½Ð¾": 9351,
      "bild": 9352,
      "olo": 9353,
      "Ġgeben": 9354,
      "å°Ħ": 9355,
      "å¯»": 9356,
      "Ġparticular": 9357,
      "ÙĩÙĪØ±": 9358,
      "ĠKat": 9359,
      "ots": 9360,
      "ĠFe": 9361,
      "Ð¸ÑĤÐµÐ»Ð¸": 9362,
      "Ġsao": 9363,
      "tenciÃ³n": 9364,
      "á»ĩnh": 9365,
      "44": 9366,
      "èĸ": 9367,
      "usch": 9368,
      "Ġroku": 9369,
      "Ð¾Ð²ÑĭÐµ": 9370,
      "Ã¶ÃŁ": 9371,
      "Ġconoc": 9372,
      "ĠÙĥÙĨØª": 9373,
      "ĠÐ¿Ð»Ð°ÑĤ": 9374,
      "è¡Ĺ": 9375,
      "rank": 9376,
      "Ø§Ø¦ÙĤ": 9377,
      "mes": 9378,
      "ĠÙĪØ¥ÙĨ": 9379,
      "Ġmerc": 9380,
      "unto": 9381,
      "ĠJe": 9382,
      "Ġerk": 9383,
      "ĠØ¨ÙĪ": 9384,
      "Ø²ÙĬØ²": 9385,
      "å¼ĢæĶ¾": 9386,
      "uesta": 9387,
      "çļĦæĥħåĨµ": 9388,
      "ĠØ«ÙĦØ§Ø«": 9389,
      "oo": 9390,
      "Ġelek": 9391,
      "ĠnÃº": 9392,
      "æĬĹ": 9393,
      "Ġdise": 9394,
      "Ġfuncion": 9395,
      "ØªÙĬÙĨ": 9396,
      "Ã³a": 9397,
      "á»ĵng": 9398,
      "falls": 9399,
      "ĠdaÃŁ": 9400,
      "arÃŃa": 9401,
      "ÏĥÎ¼": 9402,
      "Ġunderstand": 9403,
      "Ġwissen": 9404,
      "ĠÙħÙĪÙĤØ¹": 9405,
      "áº¥u": 9406,
      "Ġbuild": 9407,
      "ĠÐ¸ÑģÐ¿Ð¾Ð»Ð½": 9408,
      "ÏĥÎºÎµ": 9409,
      "æľīçļĦ": 9410,
      "prÃ¼": 9411,
      "tember": 9412,
      "ÐµÐ·Ð´": 9413,
      "Ġnumber": 9414,
      "Ġdarauf": 9415,
      "ĠÏīÏĤ": 9416,
      "Î·ÏĥÎ·": 9417,
      "ĠYA": 9418,
      "ĠÐ´ÐµÐ½": 9419,
      "ĠÙĦÙĦØŃ": 9420,
      "ĠÑĦÑĥÐ½": 9421,
      "ĠTa": 9422,
      "Ġorder": 9423,
      "fre": 9424,
      "ĠMy": 9425,
      "ĠÐ¿ÑĢÐ¾Ñģ": 9426,
      "ĠgerÃ§ek": 9427,
      "Ġnghiá»ĩp": 9428,
      "Ġmoney": 9429,
      "Î¸ÎŃ": 9430,
      "ĠØ®Ø§ØµØ©": 9431,
      "ĠÑįÐ½": 9432,
      "Ćą": 9433,
      "Ġped": 9434,
      "ĠGro": 9435,
      "ĠÐ¾Ð±Ð¾ÑĢ": 9436,
      "ĠÎ¾Îµ": 9437,
      "raciÃ³n": 9438,
      "ĠÐºÐ°Ð·": 9439,
      "ÐŀÐ±": 9440,
      "ilar": 9441,
      "ĠMann": 9442,
      "joy": 9443,
      "ĠØ§ÙĦÙħÙĤ": 9444,
      "Ø¤ÙĪÙĦ": 9445,
      "imu": 9446,
      "ĠGeld": 9447,
      "obal": 9448,
      "Ġhem": 9449,
      "ahkan": 9450,
      "Ø·ÙĬØ¹": 9451,
      "å¤ļçļĦ": 9452,
      "ĠÐĸ": 9453,
      "ning": 9454,
      "Ġ2006": 9455,
      "fo": 9456,
      "load": 9457,
      "ĠKont": 9458,
      "ÏĩÎµÎ¹": 9459,
      "Ð¾Ð·Ñı": 9460,
      "ç¬Ķ": 9461,
      "ĠÑģÐºÐ°Ð·Ð°ÑĤÑĮ": 9462,
      "Ġboy": 9463,
      "ĠÃ¶nem": 9464,
      "umu": 9465,
      "ĠÄĳá»ĳi": 9466,
      "ĠÐ¿Ð¾ÑıÐ²": 9467,
      "Ð°ÑĤÐµÐ»Ñı": 9468,
      "ĠÏĢÏģÏİ": 9469,
      "ĠØ§ÙĦØ¬ÙĨ": 9470,
      "Ġoffer": 9471,
      "richt": 9472,
      "ÐºÐ°Ð¼Ð¸": 9473,
      "Ã¤uf": 9474,
      "There": 9475,
      "æł¹æľ¬": 9476,
      "ÑĢÐµÑģ": 9477,
      "ĠÑħÐ°ÑĢÐ°ÐºÑĤÐµÑĢ": 9478,
      "Ġmedio": 9479,
      "Ġmembuat": 9480,
      "Ġà¤Ĳ": 9481,
      "ĠRep": 9482,
      "Ġdenen": 9483,
      "ÏģÎ¿Î½": 9484,
      "ards": 9485,
      "Ġwww": 9486,
      "ention": 9487,
      "ĠÐ¿Ð¾ÑģÑĤÐ°Ð²": 9488,
      "ĠÎ±Îº": 9489,
      "æ´Ĺ": 9490,
      "Ġcourse": 9491,
      "ĠÑģÐ»ÐµÐ´ÑĥÐµÑĤ": 9492,
      "Ð¾ÑģÑĤÐ¾": 9493,
      "ĠØ¶Ø¯": 9494,
      "etim": 9495,
      "Ġtermin": 9496,
      "ĠAuch": 9497,
      "Ø§ÙĦØ¯": 9498,
      "âĢķ": 9499,
      "ĠThema": 9500,
      "ĠØ§ÙĦØ§ÙĤØªØµ": 9501,
      "Ġbal": 9502,
      "è§Ħæ¨¡": 9503,
      "ä¸ĵå®¶": 9504,
      "ĠÙĬØ¤": 9505,
      "å¹´è½»": 9506,
      "è¿ª": 9507,
      "angk": 9508,
      "Ġseinen": 9509,
      "åĮ»çĸĹ": 9510,
      "ĠdeÄŁil": 9511,
      "ĠÑĤÐµÐ¿ÐµÑĢÑĮ": 9512,
      "ĠØ§ÙĦØ£ÙĪÙĦÙī": 9513,
      "æķ¢": 9514,
      "ç½ļ": 9515,
      "ç¬¦": 9516,
      "elas": 9517,
      "Ø¹Ø§Øª": 9518,
      "oba": 9519,
      "ä¿Ŀéļľ": 9520,
      "ĠØ§ÙĦØ¢ÙĨ": 9521,
      "Ġirgend": 9522,
      "Ġavail": 9523,
      "ĠÐ²ÐµÐ´ÑĮ": 9524,
      "ĠÑĤÑĢÐ°Ð½": 9525,
      "ĠGi": 9526,
      "Ġproced": 9527,
      "respon": 9528,
      "ped": 9529,
      "Ġcheck": 9530,
      "Ð½Ð¾ÑģÑĤÐµÐ¹": 9531,
      "ĠÑħÐ¾ÑĤÑı": 9532,
      "Ġwelche": 9533,
      "Ġkan": 9534,
      "Ġmuchos": 9535,
      "ØŃÙĦØ©": 9536,
      "Ġpermit": 9537,
      "ĠÃ¶z": 9538,
      "å¤ı": 9539,
      "éĽ¨": 9540,
      "gew": 9541,
      "çŃĳ": 9542,
      "ĠÐ´ÑĢÑĥÐ³Ð¸Ðµ": 9543,
      "ĠØŃØ§ÙĦ": 9544,
      "Ġley": 9545,
      "rze": 9546,
      "rieben": 9547,
      "èĢĮæĺ¯": 9548,
      "Ġhid": 9549,
      "Ġnet": 9550,
      "ĠÐ¾ÑĤÑģ": 9551,
      "Ġenough": 9552,
      "ĠØ§ÙĦØªÙĤ": 9553,
      "Ġposible": 9554,
      "ÙħÙĬÙĨ": 9555,
      "ebr": 9556,
      "æľĢç»Ī": 9557,
      "ç¤¼": 9558,
      "ĠTH": 9559,
      "ĠÐ¼Ð¾Ð´": 9560,
      "ĠÏĢÎ±Î¹": 9561,
      "ĠØŃÙĬÙĨ": 9562,
      "ĠØ§ÙĦØ®Ø§ØµØ©": 9563,
      "Ġapa": 9564,
      "iny": 9565,
      "ĠØ§ÙĦØ«ÙĦØ§Ø«": 9566,
      "imp": 9567,
      "åħ³éĶ®": 9568,
      "ÏĦÎ¹ÎºÎ®ÏĤ": 9569,
      "Ġfu": 9570,
      "ç»ıè¿ĩ": 9571,
      "ĠpÃ¡": 9572,
      "ØªÙĩÙħ": 9573,
      "ĠÃ½": 9574,
      "èģĶåĲĪ": 9575,
      "Ġdavon": 9576,
      "Ġà¤ķà¤®": 9577,
      "Ġtras": 9578,
      "æł·çļĦ": 9579,
      "Ġless": 9580,
      "Ġnut": 9581,
      "à¤®à¤¨": 9582,
      "Ġzosta": 9583,
      "stÃ¼t": 9584,
      "eti": 9585,
      "ĠNot": 9586,
      "Dies": 9587,
      "ĠÐ¾Ð·": 9588,
      "icaciÃ³n": 9589,
      "ĠÙĦÙĩÙħ": 9590,
      "ÙĤØ¯ÙĬÙħ": 9591,
      "åħ·ä½ĵ": 9592,
      "ĠÎ¤Î¿": 9593,
      "ĠØ´ÙĬØ¡": 9594,
      "ÏĦÎ¹ÎºÎŃÏĤ": 9595,
      "ä½įç½®": 9596,
      "Ð½Ð¸Ðµ": 9597,
      "ĠÑĤÑĥÑĤ": 9598,
      "Est": 9599,
      "ereich": 9600,
      "Ġdesc": 9601,
      "ĠgroÃŁ": 9602,
      "ĠÑģÑĤÐ¾ÑĢÐ¾Ð½": 9603,
      "ĠÑģÐ±": 9604,
      "ĠÑĥÑģ": 9605,
      "ahn": 9606,
      "èĹı": 9607,
      "ÑĢÐ°Ñĩ": 9608,
      "iyorum": 9609,
      "æ¶Īæģ¯": 9610,
      "äººç±»": 9611,
      "Î¹ÎºÏİÎ½": 9612,
      "Ġ=": 9613,
      "æ°ĳæĹı": 9614,
      "ç¯ĩ": 9615,
      "47": 9616,
      "Ð²ÐµÐ´": 9617,
      "ĠÐ¾ÑĨÐµÐ½": 9618,
      "áº¡ch": 9619,
      "uzi": 9620,
      "æĬĵ": 9621,
      "ĠØªØ¨": 9622,
      "Ġnuev": 9623,
      "ĠInformationen": 9624,
      "Ġletzten": 9625,
      "Î¬ÏģÏĩ": 9626,
      "Ġusing": 9627,
      "Ġdic": 9628,
      "ĠÙħØ®ØªÙĦÙģ": 9629,
      "åĲī": 9630,
      "ÑģÑıÑĤ": 9631,
      "ĠØ¨Ø§ÙĦØ¥": 9632,
      "ĠÐ²Ð¾Ð·Ð¼Ð¾Ð¶Ð½Ð¾ÑģÑĤÑĮ": 9633,
      "ä¸¥éĩį": 9634,
      "Ġting": 9635,
      "Ġsei": 9636,
      "ÑĨÐ¸Ð¿": 9637,
      "Ġconsum": 9638,
      "ĠÑĢÐ¾ÑģÑģ": 9639,
      "ĠÐµÐ¹": 9640,
      "æĦıä¹ī": 9641,
      "ĠÑıÐ·Ñĭ": 9642,
      "ĠÑģÑĤÐ°Ð²": 9643,
      "æŀ¶": 9644,
      "Ø¸ÙħØ©": 9645,
      "Wh": 9646,
      "isto": 9647,
      "ç´¯": 9648,
      "åħĪçĶŁ": 9649,
      "ĠÙĪØ¬ÙĪØ¯": 9650,
      "Ġtari": 9651,
      "çĽĸ": 9652,
      "Ã¼nde": 9653,
      "ĠØ§ÙĦØ«Ø§ÙĨÙĬ": 9654,
      "Ġach": 9655,
      "ĠPat": 9656,
      "Ġà¤ªà¤¤": 9657,
      "ĠMag": 9658,
      "istan": 9659,
      "Ø§Ø¹Ø¯Ø©": 9660,
      "Ġperi": 9661,
      "èİ«": 9662,
      "Ġbh": 9663,
      "Ø³Ø³": 9664,
      "Am": 9665,
      "cl": 9666,
      "Ġia": 9667,
      "Ġthough": 9668,
      "ĠtÃ¬nh": 9669,
      "ĠÐ²Ð¼ÐµÑģÑĤ": 9670,
      "leme": 9671,
      "isis": 9672,
      "ĠÐºÐ°ÑĢÑĤ": 9673,
      "è®¯": 9674,
      "Ġfel": 9675,
      "Ġduring": 9676,
[...]
