{
  "version": "1.0",
  "truncation": null,
  "padding": null,
  "added_tokens": [],
  "normalizer": null,
  "pre_tokenizer": {
    "type": "ByteLevel",
    "add_prefix_space": false,
    "trim_offsets": true,
    "use_regex": true
  },
  "post_processor": null,
  "decoder": null,
  "model": {
    "type": "Unigram",
    "unk_id": 0,
    "vocab": [
      [
        "<unk>",
        -15.225521445701482
      ],
      [
        "<s>",
        -27.631021115928547
      ],
      [
        "</s>",
        -27.631021115928547
      ],
      [
        "<pad>",
        -27.631021115928547
      ],
      [
        "Ġ",
        -2.361168573211825
      ],
      [
        ".",
        -3.815979044720696
      ],
      [
        ",",
        -3.8557494369789524
      ],
      [
        "s",
        -4.73793864972633
      ],
      [
        "ï¼Į",
        -4.823632991206577
      ],
      [
        "Ġde",
        -5.06180700583612
      ],
      [
        "Ġa",
        -5.255451650321864
      ],
      [
        "-",
        -5.268190492376803
      ],
      [
        "o",
        -5.41690061703315
      ],
      [
        "t",
        -5.465269288651292
      ],
      [
        "e",
        -5.479221554367011
      ],
      [
        "Ġthe",
        -5.4994855907869775
      ],
      [
        "ĠØ§ÙĦ",
        -5.509718310687601
      ],
      [
        "en",
        -5.578136187345666
      ],
      [
        ":",
        -5.6138690097855815
      ],
      [
        "à¤¾",
        -5.673287772273366
      ],
      [
        "n",
        -5.680875437006796
      ],
      [
        "ãĢĤ",
        -5.760039452615402
      ],
      [
        "Ø©",
        -5.775827317131415
      ],
      [
        "Ġla",
        -5.797483875393274
      ],
      [
        "Ġto",
        -5.810323560945789
      ],
      [
        "a",
        -5.82853535199313
      ],
      [
        "y",
        -5.840378344447789
      ],
      [
        "i",
        -5.869713532779823
      ],
      [
        "Ġy",
        -5.9255653358180504
      ],
      [
        "à¥",
        -5.938087338486061
      ],
      [
        "Ġque",
        -5.959763712526614
      ],
      [
        "Ġin",
        -6.013031011979055
      ],
      [
        ")",
        -6.0316154035712755
      ],
      [
        "m",
        -6.126208547086737
      ],
      [
        "Ġ(",
        -6.152305722328614
      ],
      [
        "à¥ĩ",
        -6.180172085371944
      ],
      [
        "ĠÐ²",
        -6.209140781271245
      ],
      [
        "Ġof",
        -6.2210659524537615
      ],
      [
        "Ġand",
        -6.229305259224548
      ],
      [
        "į",
        -6.23167825912921
      ],
      [
        "Ġen",
        -6.236219602340447
      ],
      [
        "Ġel",
        -6.2414196051181765
      ],
      [
        "es",
        -6.282552091783458
      ],
      [
        "Ġc",
        -6.286978084990873
      ],
      [
        "Ġw",
        -6.288344983551575
      ],
      [
        "Ġm",
        -6.312972137785673
      ],
      [
        "¿",
        -6.313933781265144
      ],
      [
        "?",
        -6.374743874796291
      ],
      [
        "Ġse",
        -6.393910050459248
      ],
      [
        "Ġt",
        -6.405523504728848
      ],
      [
        "ØĮ",
        -6.408736902129346
      ],
      [
        "à¥Ģ",
        -6.4145845843092735
      ],
      [
        "Ġdie",
        -6.422144606461139
      ],
      [
        "ĠI",
        -6.423712802870917
      ],
      [
        "Ġbe",
        -6.471183990660696
      ],
      [
        "Ġund",
        -6.474336475608162
      ],
      [
        "ĠÐ¸",
        -6.489157141976969
      ],
      [
        "ng",
        -6.497925466419885
      ],
      [
        "ĠÙģÙĬ",
        -6.541141910576848
      ],
      [
        "à¤°",
        -6.545229278969185
      ],
      [
        "Ġder",
        -6.548009919907924
      ],
      [
        "er",
        -6.551210016952771
      ],
      [
        "Ġes",
        -6.554872097363003
      ],
      [
        "u",
        -6.56000487239809
      ],
      [
        "\"",
        -6.584013176689646
      ],
      [
        "'",
        -6.590569578324024
      ],
      [
        "ed",
        -6.603007737904028
      ],
      [
        "Ġà¤ķ",
        -6.61554447066411
      ],
      [
        "Ġun",
        -6.62129045731849
      ],
      [
        "ĠÙĪ",
        -6.633919052609044
      ],
      [
        "ing",
        -6.648886336229251
      ],
      [
        "ĠÙħÙĨ",
        -6.654470453484149
      ],
      [
        "Ð°",
        -6.700825297003378
      ],
      [
        "!",
        -6.706861309819435
      ],
      [
        "Ġlos",
        -6.731603705533132
      ],
      [
        "...",
        -6.767307899651396
      ],
      [
        "das",
        -6.808750270285129
      ],
      [
        "ĠÐ½Ðµ",
        -6.810875347341135
      ],
      [
        "Ġcon",
        -6.817008932510763
      ],
      [
        "âĢľ",
        -6.818826832617168
      ],
      [
        "ĠÑģ",
        -6.819440806516211
      ],
      [
        "ãĢģ",
        -6.826175715517664
      ],
      [
        "Ðµ",
        -6.832385891192547
      ],
      [
        "os",
        -6.832634560512026
      ],
      [
        "you",
        -6.846182134513447
      ],
      [
        "ĠÐ½Ð°",
        -6.849866391017147
      ],
      [
        "ÙĬØ©",
        -6.859122501397155
      ],
      [
        "c",
        -6.865588889741168
      ],
      [
        "âĢĻ",
        -6.865918313683369
      ],
      [
        "à¤¨",
        -6.868539886896254
      ],
      [
        "Ġis",
        -6.886780735716133
      ],
      [
        "r",
        -6.886916614118221
      ],
      [
        "Ġg",
        -6.9112292391651
      ],
      [
        "ar",
        -6.920403319917342
      ],
      [
        "/",
        -6.9472100996433745
      ],
      [
        "Ġb",
        -6.974935791147999
      ],
      [
        "Ð¸",
        -6.986211023434314
      ],
      [
        "Ġno",
        -6.989170773770362
      ],
      [
        "Ġfor",
        -6.992839707596193
      ],
      [
        "ĠS",
        -7.017433699380763
      ],
      [
        "à¤¯",
        -7.02044856262308
      ],
      [
        "Ġh",
        -7.023213181849172
      ],
      [
        "hat",
        -7.0248192708727935
      ],
      [
        "à¥ĭ",
        -7.025358957395793
      ],
      [
        "Ġdel",
        -7.0446168716103745
      ],
      [
        "çļĦ",
        -7.047727921213046
      ],
      [
        "ich",
        -7.058587292106202
      ],
      [
        "Ġs",
        -7.059325142230631
      ],
      [
        "Ñĭ",
        -7.069061768617236
      ],
      [
        "an",
        -7.071257955234745
      ],
      [
        "Ġlas",
        -7.075705104650137
      ],
      [
        "Ġl",
        -7.0829773506375595
      ],
      [
        "Ãł",
        -7.091651173489046
      ],
      [
        "1",
        -7.092140653169658
      ],
      [
        "âĢĵ",
        -7.093457924045608
      ],
      [
        "Ø§",
        -7.102251988887105
      ],
      [
        "ĠA",
        -7.104913614929416
      ],
      [
        "Ġpara",
        -7.105345187916321
      ],
      [
        "ĠÄĳ",
        -7.105739979685376
      ],
      [
        "Ġso",
        -7.106722282012764
      ],
      [
        "Ġit",
        -7.114271959220807
      ],
      [
        "à¤¸",
        -7.114483882316909
      ],
      [
        "Ġv",
        -7.123199705476978
      ],
      [
        "Ġth",
        -7.127845257102857
      ],
      [
        "Ġpor",
        -7.129273466128172
      ],
      [
        "I",
        -7.131052501160252
      ],
      [
        "Ġme",
        -7.1336584598153205
      ],
      [
        "ĠØ¨",
        -7.134070612916421
      ],
      [
        "à¤¤",
        -7.1366056225500225
      ],
      [
        "Ġan",
        -7.138126174686466
      ],
      [
        "à¤²",
        -7.144507489111165
      ],
      [
        "Ġein",
        -7.145360579727328
      ],
      [
        "Ġzu",
        -7.147329491043037
      ],
      [
        "Ġ\"",
        -7.148911747767944
      ],
      [
        "2",
        -7.183885310029636
      ],
      [
        "ÑĩÑĤÐ¾",
        -7.186274803560674
      ],
      [
        "de",
        -7.204822028478076
      ],
      [
        "âĢĿ",
        -7.205885198353928
      ],
      [
        "Ġist",
        -7.205928097050276
      ],
      [
        "d",
        -7.209080548039472
      ],
      [
        "our",
        -7.2268412985014345
      ],
      [
        "ÏĤ",
        -7.229266038253753
      ],
      [
        "Ġon",
        -7.231515512535742
      ],
      [
        "Ġal",
        -7.240650821327372
      ],
      [
        "Ġ20",
        -7.240900116750062
      ],
      [
        "ĠÐ¿Ð¾",
        -7.242632211361163
      ],
      [
        "Ġsu",
        -7.2474848940592524
      ],
      [
        "ĠB",
        -7.248805586150512
      ],
      [
        "p",
        -7.256345015063766
      ],
      [
        "ĠØ¹ÙĦÙī",
        -7.257663331723995
      ],
      [
        "ch",
        -7.270859439865928
      ],
      [
        "ģ",
        -7.271142181106669
      ],
      [
        "Ġuna",
        -7.288797170518338
      ],
      [
        "à¤ķ",
        -7.291433405518938
      ],
      [
        "Ñı",
        -7.295064321528456
      ],
      [
        "Ġre",
        -7.304599214223517
      ],
      [
        "Ġna",
        -7.305641720528037
      ],
      [
        "Ġda",
        -7.3111407809251565
      ],
      [
        "ĠÙĬ",
        -7.318939709555366
      ],
      [
        "ciÃ³n",
        -7.322180862477367
      ],
      [
        "Ġdo",
        -7.322678675406686
      ],
      [
        "Ùī",
        -7.327262880838434
      ],
      [
        "3",
        -7.3301795788660336
      ],
      [
        "ĠM",
        -7.331756195437832
      ],
      [
        "te",
        -7.342994499000969
      ],
      [
        "Ġlo",
        -7.367020210699423
      ],
      [
        "Ġdi",
        -7.368351600784672
      ],
      [
        "Ġnicht",
        -7.384540776772357
      ],
      [
        "ly",
        -7.394913355740063
      ],
      [
        "Ġk",
        -7.396849869769463
      ],
      [
        "Ġden",
        -7.398634196513874
      ],
      [
        "with",
        -7.399497756580743
      ],
      [
        "A",
        -7.41783365126822
      ],
      [
        "Ùĩ",
        -7.421531550230186
      ],
      [
        "Ġà¤¹",
        -7.422940175728133
      ],
      [
        "Ñĥ",
        -7.4417666502950475
      ],
      [
        "al",
        -7.441824472220649
      ],
      [
        "as",
        -7.449301613604674
      ],
      [
        ";",
        -7.459714371139068
      ],
      [
        "Ġà¤¸",
        -7.462513915011292
      ],
      [
        "Ġo",
        -7.467287729991138
      ],
      [
        "Ð¾",
        -7.470176601954181
      ],
      [
        "von",
        -7.476707890363185
      ],
      [
        "ĠT",
        -7.478016652076744
      ],
      [
        "k",
        -7.483694559638391
      ],
      [
        "Ġwas",
        -7.49409289858279
      ],
      [
        "ĠC",
        -7.495920302887618
      ],
      [
        "à¤Ĥ",
        -7.498721860875605
      ],
      [
        "nh",
        -7.498905131026388
      ],
      [
        "fÃ¼r",
        -7.501069716147791
      ],
      [
        "Ġà¤®",
        -7.503688872341298
      ],
      [
        "in",
        -7.506128726169551
      ],
      [
        "Ġve",
        -7.514890268659262
      ],
      [
        "Ġwh",
        -7.520051706758937
      ],
      [
        "ÙĩØ§",
        -7.522631174193494
      ],
      [
        "eine",
        -7.530359150656891
      ],
      [
        "Ġya",
        -7.530469163948429
      ],
      [
        "5",
        -7.530968292069536
      ],
      [
        "à¤®",
        -7.534810956214752
      ],
      [
        "Ġmit",
        -7.538709072912246
      ],
      [
        "Ġf",
        -7.543121400984889
      ],
      [
        "ĠØ§ÙĦÙħ",
        -7.54416741689066
      ],
      [
        "ir",
        -7.54449517325163
      ],
      [
        "ĠØ£",
        -7.551483050794693
      ],
      [
        "Ġ201",
        -7.552069671547636
      ],
      [
        "Ġauf",
        -7.5551067298935095
      ],
      [
        "Ùİ",
        -7.5579267652613025
      ],
      [
        "4",
        -7.564796902745096
      ],
      [
        "ĠÑįÑĤ",
        -7.57078705143336
      ],
      [
        "Ġd",
        -7.572967653687679
      ],
      [
        "da",
        -7.573888167582533
      ],
      [
        "z",
        -7.574789022482742
      ],
      [
        "ĠÙħ",
        -7.58911650404364
      ],
      [
        "Ġare",
        -7.600994079914649
      ],
      [
        "ĠØª",
        -7.613833229659683
      ],
      [
        "Ã¡s",
        -7.6142472749307135
      ],
      [
        "Ø§Øª",
        -7.615429641588048
      ],
      [
        "à¤µ",
        -7.621676407467779
      ],
      [
        "åľ¨",
        -7.62435054909328
      ],
      [
        "(",
        -7.6373261092759135
      ],
      [
        "âĢ¦",
        -7.665675524193922
      ],
      [
        "have",
        -7.672880453499545
      ],
      [
        "Â",
        -7.674079094061435
      ],
      [
        "Ġn",
        -7.678024598672657
      ],
      [
        "ĠK",
        -7.68041125837261
      ],
      [
        "Ġdan",
        -7.681330637174083
      ],
      [
        "Ð¾Ð¼",
        -7.682222036530303
      ],
      [
        "à¤¦",
        -7.683916675506484
      ],
      [
        "ĠØ£ÙĨ",
        -7.6902971047647775
      ],
      [
        "åĴĮ",
        -7.690545457433677
      ],
      [
        "Â«",
        -7.695659589480342
      ],
      [
        "à¤¹",
        -7.695846847160708
      ],
      [
        "à¥ĩà¤Ĥ",
        -7.702608135201715
      ],
      [
        "Â»",
        -7.7074570401110165
      ],
      [
        "this",
        -7.711637188493829
      ],
      [
        "âĢĶ",
        -7.720601895187875
      ],
      [
        "ĠE",
        -7.722082199592482
      ],
      [
        "Ùĭ",
        -7.731034857755164
      ],
      [
        "ĠÐº",
        -7.734151907176769
      ],
      [
        "Ġ1",
        -7.738025293029755
      ],
      [
        "re",
        -7.74803927136059
      ],
      [
        "à¤Ĺ",
        -7.755741378107492
      ],
      [
        "Ġcu",
        -7.75835383432529
      ],
      [
        "ĠÙĦ",
        -7.759155331893125
      ],
      [
        "Ġim",
        -7.760093275501317
      ],
      [
        "Ð¾Ð¹",
        -7.7643889235262495
      ],
      [
        "Ġwe",
        -7.764785033045573
      ],
      [
        "8",
        -7.765028892444087
      ],
      [
        "T",
        -7.767520800829462
      ],
      [
        "ÑĤÑĮ",
        -7.776225715670599
      ],
      [
        "Ġi",
        -7.785207100864725
      ],
      [
        "Ġdes",
        -7.786994423134035
      ],
      [
        "do",
        -7.78838982724335
      ],
      [
        "Ġsi",
        -7.791212611835864
      ],
      [
        "Ġp",
        -7.795370344285251
      ],
      [
        "Ġas",
        -7.795427871426581
      ],
      [
        "ĠD",
        -7.798189569764116
      ],
      [
        "7",
        -7.801770766344209
      ],
      [
        "Ġhe",
        -7.803716622261286
      ],
      [
        "auch",
        -7.803845473062072
      ],
      [
        "S",
        -7.804369330369596
      ],
      [
        "Ġ2",
        -7.806589400287995
      ],
      [
        "6",
        -7.810029691532706
      ],
      [
        "Ġpu",
        -7.817197835143557
      ],
      [
        "se",
        -7.821215013838892
      ],
      [
        "ÙĬ",
        -7.822230282147247
      ],
      [
        "Ġab",
        -7.822929089876027
      ],
      [
        "Ġcan",
        -7.829612307906029
      ],
      [
        "Ġman",
        -7.830316114704563
      ],
      [
        "yang",
        -7.831888690035828
      ],
      [
        "Øª",
        -7.832175772896064
      ],
      [
        "ĠSie",
        -7.835897898843668
      ],
      [
        "Ġnot",
        -7.836269791146232
      ],
      [
        "C",
        -7.839171597187959
      ],
      [
        "ĠG",
        -7.840148660116244
      ],
      [
        "ado",
        -7.840190903496783
      ],
      [
        "Ġver",
        -7.841181605868237
      ],
      [
        "äºĨ",
        -7.842998354954177
      ],
      [
        "at",
        -7.853274068330637
      ],
      [
        "Ġat",
        -7.865799086637468
      ],
      [
        "ĠP",
        -7.866096931191784
      ],
      [
        "à¥Ī",
        -7.866289645081368
      ],
      [
        "ĠH",
        -7.869874403186238
      ],
      [
        "Ġsich",
        -7.872207497143578
      ],
      [
        "ĠÙĦÙĦ",
        -7.873493021506091
      ],
      [
        "ould",
        -7.877633376129822
      ],
      [
        "ÑĤÐ¾",
        -7.8785394775514845
      ],
      [
        "à¤¶",
        -7.880075551090267
      ],
      [
        "aciÃ³n",
        -7.892078600921899
      ],
      [
        "w",
        -7.897077182822366
      ],
      [
        "à¤Ł",
        -7.901500245353212
      ],
      [
        "ĠÐºÐ°Ðº",
        -7.9050889196075325
      ],
      [
        "ĠÙĪØ§ÙĦ",
        -7.90596641117942
      ],
      [
        "Ð¾Ð²",
        -7.90796815923283
      ],
      [
        "20",
        -7.913478008316362
      ],
      [
        "Ġor",
        -7.914231579448934
      ],
      [
        "ĠÐ·Ð°",
        -7.914473890448014
      ],
      [
        "ĠâĢľ",
        -7.9149888974712095
      ],
      [
        "B",
        -7.917639460087424
      ],
      [
        "Ġle",
        -7.919112223825845
      ],
      [
        "ĠÐ±Ñĭ",
        -7.920444406083626
      ],
      [
        "Ġha",
        -7.924433044163807
      ],
      [
        "Ġtha",
        -7.925836616982101
      ],
      [
        "Ġwa",
        -7.928178295807089
      ],
      [
        "Ġà¤ª",
        -7.932655754539306
      ],
      [
        "will",
        -7.93287848318613
      ],
      [
        "%",
        -7.936482652216909
      ],
      [
        "à¤ª",
        -7.94738996737331
      ],
      [
        "Ġà¤¬",
        -7.955701178631987
      ],
      [
        "f",
        -7.959502250912192
      ],
      [
        "Ã³",
        -7.959796691336559
      ],
      [
        "Ġ3",
        -7.960564659807515
      ],
      [
        "Ġam",
        -7.961128964873929
      ],
      [
        "à¤ľ",
        -7.9653683021850865
      ],
      [
        "Ùĳ",
        -7.96636314614553
      ],
      [
        "ĠW",
        -7.9689653923477115
      ],
      [
        "em",
        -7.972195462895168
      ],
      [
        "Ġwir",
        -7.973763374158928
      ],
      [
        "ĠÎºÎ±Î¹",
        -7.975573791734736
      ],
      [
        "ĠÑĤÐ°Ðº",
        -7.9772769569446
      ],
      [
        "Ġ19",
        -7.977428994590429
      ],
      [
        "ÐµÑĤ",
        -7.977538662271528
      ],
      [
        "Ġdem",
        -7.992376267700802
      ],
      [
        "Ð¸Ñħ",
        -7.996732010018266
      ],
      [
        "out",
        -8.005786145716451
      ],
      [
        "ï¼ļ",
        -8.0057904246078
      ],
      [
        "ĠØ¹ÙĨ",
        -8.011404131674464
      ],
      [
        "ÙĬÙĨ",
        -8.011654852389448
      ],
      [
        "Ġtr",
        -8.019681191901897
      ],
      [
        "Ġz",
        -8.03033026095488
      ],
      [
        "ÙĪ",
        -8.035137421225892
      ],
      [
        "como",
        -8.035363730744475
      ],
      [
        "ĠØ¥ÙĦ",
        -8.037323813560313
      ],
      [
        "ĠÐ¾ÑĤ",
        -8.039235347125604
      ],
      [
        "The",
        -8.052557140312024
      ],
      [
        "W",
        -8.05552782605062
      ],
      [
        "à¤¬",
        -8.05661280488215
      ],
      [
        "ĠN",
        -8.058662749807128
      ],
      [
        "Ġall",
        -8.059097305334328
      ],
      [
        "h",
        -8.059493138679121
      ],
      [
        "one",
        -8.0642773935797
      ],
      [
        "10",
        -8.083280306210558
      ],
      [
        "ĠÐ¾",
        -8.09830052483306
      ],
      [
        "Ġdu",
        -8.098651870348398
      ],
      [
        "Ġmy",
        -8.100048113461481
      ],
      [
        ").",
        -8.102408692982655
      ],
      [
        "M",
        -8.104863348717153
      ],
      [
        "D",
        -8.110575121848871
      ],
      [
        "á»Ļ",
        -8.117114707597596
      ],
      [
        "Ùĥ",
        -8.1223274076785
      ],
      [
        "æĺ¯",
        -8.126275400883006
      ],
      [
        "Ġbu",
        -8.13025763240215
      ],
      [
        "ando",
        -8.131899706674368
      ],
      [
        "ve",
        -8.134250928187686
      ],
      [
        "[",
        -8.134323333393567
      ],
      [
        "]",
        -8.134722015733677
      ],
      [
        "Ġby",
        -8.136246430599755
      ],
      [
        "ĠV",
        -8.14153940677489
      ],
      [
        "ı",
        -8.143549823197601
      ],
      [
        "kan",
        -8.144240909800809
      ],
      [
        "Ġper",
        -8.147241234335416
      ],
      [
        "Ġke",
        -8.147324747835736
      ],
      [
        "ĠÑĤ",
        -8.148458371847587
      ],
      [
        "st",
        -8.15177864603905
      ],
      [
        "to",
        -8.15329881330049
      ],
      [
        "ten",
        -8.162007322866806
      ],
      [
        "Ġbir",
        -8.16240757031617
      ],
      [
        "ÐµÐ½Ð¸Ñı",
        -8.163440266793241
      ],
      [
        "ĠÐ²ÑģÐµ",
        -8.163722808723891
      ],
      [
        "áº¡",
        -8.16650142281271
      ],
      [
        "æĪĳ",
        -8.16951321918291
      ],
      [
        "Ġtu",
        -8.17035249186982
      ],
      [
        "201",
        -8.171385898721757
      ],
      [
        "áº¥",
        -8.172287770461104
      ],
      [
        "à¥Ĥ",
        -8.177032612470558
      ],
      [
        "Ġfro",
        -8.17710379552926
      ],
      [
        "ÐµÐ¹",
        -8.182692712051704
      ],
      [
        "Ø§ÙĦÙĦÙĩ",
        -8.189616904898042
      ],
      [
        "ĠO",
        -8.194181116056964
      ],
      [
        "dos",
        -8.199699812403496
      ],
      [
        "Ġge",
        -8.20034454453082
      ],
      [
        "Ġaus",
        -8.20145681628582
      ],
      [
        "Ã¡",
        -8.20794085360868
      ],
      [
        "Ġbut",
        -8.217914839790321
      ],
      [
        "Ġbei",
        -8.220184619534862
      ],
      [
        "Ã´ng",
        -8.220776138466585
      ],
      [
        "oder",
        -8.222012315942575
      ],
      [
        "_",
        -8.222472030825584
      ],
      [
        "Ð½ÑĭÑħ",
        -8.222653223014603
      ],
      [
        "sind",
        -8.227143941762813
      ],
      [
        "Ġmi",
        -8.227772145393672
      ],
      [
        "Ġsie",
        -8.228645104906697
      ],
      [
        "idad",
        -8.236059533329268
      ],
      [
        "à¤Ń",
        -8.241622394337895
      ],
      [
        "ÃŃa",
        -8.244151154929027
      ],
      [
        "ĠÙģ",
        -8.244294661973056
      ],
      [
        "à¤¡",
        -8.25130959497155
      ],
      [
        "ÐµÐ³Ð¾",
        -8.251668915030233
      ],
      [
        "ĠÑı",
        -8.251678495530232
      ],
      [
        "ĠThe",
        -8.251895604938284
      ],
      [
        "ĠÏĦÎ¿",
        -8.256571863921312
      ],
      [
        "18",
        -8.26113860032492
      ],
      [
        "Ġte",
        -8.26894144287857
      ],
      [
        "Ð½Ð¾",
        -8.269937202261852
      ],
      [
        "or",
        -8.270342378892689
      ],
      [
        "ï¼Ł",
        -8.279900052189191
      ],
      [
        "si",
        -8.280769968744838
      ],
      [
        "Ġsome",
        -8.281386883116598
      ],
      [
        "Ġkh",
        -8.286609666174014
      ],
      [
        "ÏĦÎ·Î½",
        -8.290095883793875
      ],
      [
        "einen",
        -8.296566694189593
      ],
      [
        "N",
        -8.297131343961592
      ],
      [
        "ĠØ§",
        -8.298216140114077
      ],
      [
        "ÑĮ",
        -8.298296358336696
      ],
      [
        "Ð¾Ð³Ð¾",
        -8.29832257724149
      ],
      [
        "ĠØ§ÙĦØ£",
        -8.300175240292301
      ],
      [
        "Ø§ÙĦ",
        -8.30031258891168
      ],
      [
        "el",
        -8.3017560896918
      ],
      [
        "ĠL",
        -8.30181813225005
      ],
      [
        "l",
        -8.303970342944881
      ],
      [
        "Ġher",
        -8.305192248946506
      ],
      [
        "nya",
        -8.30574462201596
      ],
      [
        "Ġph",
        -8.311697631035928
      ],
      [
        "Ġnh",
        -8.313350061005371
      ],
      [
        "Ġ10",
        -8.314828289077443
      ],
      [
        "·",
        -8.315381098830665
      ],
      [
        "ĠÐ´Ð»",
        -8.315941126722294
      ],
      [
        "era",
        -8.31685656463428
      ],
      [
        "werden",
        -8.318027519929746
      ],
      [
        "Ġà¤ľ",
        -8.318194063606805
      ],
      [
        "áºŃ",
        -8.319417614252652
      ],
      [
        "Ã¬",
        -8.320090152562537
      ],
      [
        "ĠÙħØ¹",
        -8.32045094206465
      ],
      [
        "å¹´",
        -8.320451475372966
      ],
      [
        "ta",
        -8.321425434356
      ],
      [
        "hr",
        -8.322385034352868
      ],
      [
        "Ġpo",
        -8.322502844596647
      ],
      [
        "K",
        -8.325075832696301
      ],
      [
        "ĠÑĥ",
        -8.325674038736665
      ],
      [
        "Ð»Ð¸",
        -8.326538073318918
      ],
      [
        "ãĢĤâĢĿ",
        -8.32737430729563
      ],
      [
        "Ġ4",
        -8.328034807438527
      ],
      [
        "ido",
        -8.328344031991051
      ],
      [
        "ĠÃ¼ber",
        -8.331425797490205
      ],
      [
        "ĠF",
        -8.333008012632767
      ],
      [
        "que",
        -8.333035526323199
      ],
      [
        "El",
        -8.33307508662588
      ],
      [
        "ï¼Ī",
        -8.333594082773233
      ],
      [
        "Ġch",
        -8.337274813511534
      ],
      [
        "na",
        -8.340590654872686
      ],
      [
        "Ġuns",
        -8.341300358649963
      ],
      [
        "th",
        -8.341592011302765
      ],
      [
        "áº£",
        -8.3432034130579
      ],
      [
        "ÙĩØ°Ø§",
        -8.34617441696331
      ],
      [
        "Ġnie",
        -8.348253908566598
      ],
      [
        "thing",
        -8.349522650320509
      ],
      [
        "ĠÙĦØ§",
        -8.350739980460494
      ],
      [
        "Ġti",
        -8.353567038980803
      ],
      [
        "ï¼ī",
        -8.355686475159665
      ],
      [
        "Ġwie",
        -8.356285326246987
      ],
      [
        "Ġ5",
        -8.358326848654702
      ],
      [
        "à¤ĸ",
        -8.359238112290022
      ],
      [
        "Die",
        -8.359657551067812
      ],
      [
        "H",
        -8.360321976102504
      ],
      [
        "á»ĳ",
        -8.362430624583144
      ],
      [
        "b",
        -8.362721655509132
      ],
      [
        "go",
        -8.366153423615877
      ],
      [
        "noch",
        -8.372340480762244
      ],
      [
        "Ġup",
        -8.373628563059542
      ],
      [
        "La",
        -8.3738621321252
      ],
      [
        "à¤ļ",
        -8.374298417038942
      ],
      [
        "g",
        -8.37464535265222
      ],
      [
        "Ġnach",
        -8.377609692008477
      ],
      [
        "ada",
        -8.38401742108688
      ],
      [
        "kann",
        -8.388773635029848
      ],
      [
        "ÙĲ",
        -8.390984888255778
      ],
      [
        "Ġhas",
        -8.391711744238922
      ],
      [
        "ĠÐ²Ñĭ",
        -8.392912721940943
      ],
      [
        "Ġza",
        -8.393900075267405
      ],
      [
        "ĠÐĴ",
        -8.394424980894952
      ],
      [
        "Ġhac",
        -8.394734370450657
      ],
      [
        "ĠÏĦÎ¿Ïħ",
        -8.394773285705291
      ],
      [
        "ĠÎ½Î±",
        -8.403259495295467
      ],
      [
        "Ġne",
        -8.405335407627767
      ],
      [
        "Ġfe",
        -8.406503530944732
      ],
      [
        "Ġesta",
        -8.40707728326067
      ],
      [
        "ll",
        -8.409937415334939
      ],
      [
        "Ġgi",
        -8.411733022095952
      ],
      [
        "á»",
        -8.412897065035917
      ],
      [
        "19",
        -8.413405914609076
      ],
      [
        "ĠØŃ",
        -8.415722425590557
      ],
      [
        "ÐµÑĤÑģÑı",
        -8.41614789629672
      ],
      [
        "ngan",
        -8.417611256977015
      ],
      [
        "more",
        -8.418960230729196
      ],
      [
        "Ġus",
        -8.420539270068817
      ],
      [
        "ÐĴ",
        -8.421845127088893
      ],
      [
        "other",
        -8.422466086253094
      ],
      [
        "ĠÐ¸Ð·",
        -8.423729468764524
      ],
      [
        "Ġson",
        -8.426257261391182
      ],
      [
        "ĠØ§ÙĦØªÙĬ",
        -8.426584289501324
      ],
      [
        "ĠÙħØ§",
        -8.430488454347527
      ],
      [
        "Ġgo",
        -8.433193528319277
      ],
      [
        "ung",
        -8.435188326526795
      ],
      [
        "Ġma",
        -8.435701832715102
      ],
      [
        "ciones",
        -8.436615614869934
      ],
      [
        "ĠU",
        -8.436821825134462
      ],
      [
        "ya",
        -8.43904599568716
      ],
      [
        "als",
        -8.439946971357967
      ],
      [
        "Ð¸Ð»Ð¸",
        -8.4417502233959
      ],
      [
        "Ġum",
        -8.442432772007475
      ],
      [
        "like",
        -8.444811442047676
      ],
      [
        "æľĪ",
        -8.445174161224902
      ],
      [
        "9",
        -8.447418209743336
      ],
      [
        "ĠØ£ÙĪ",
        -8.4492676622324
      ],
      [
        "ever",
        -8.450285943494354
      ],
      [
        "ĠØ¨Ø§ÙĦ",
        -8.453387255456063
      ],
      [
        "Ġpa",
        -8.454349078783945
      ],
      [
        "Ġmen",
        -8.4601401471339
      ],
      [
        "P",
        -8.46138236208538
      ],
      [
        "ĠÐ¿ÑĢÐ¸",
        -8.464802526585755
      ],
      [
        "Ġni",
        -8.467571605897039
      ],
      [
        "einer",
        -8.469038188856223
      ],
      [
        "ce",
        -8.470453630973845
      ],
      [
        "áº¿",
        -8.471826045008939
      ],
      [
        "aber",
        -8.47362023930985
      ],
      [
        "Ð¶Ðµ",
        -8.473774123526221
      ],
      [
        "ĠÐ¾Ð½",
        -8.474365773361118
      ],
      [
        "á»ĭ",
        -8.476351326087283
      ],
      [
        "Ġnu",
        -8.478355611657868
      ],
      [
        "Ð½ÑĭÐµ",
        -8.478559891181819
      ],
      [
        "able",
        -8.480193359059745
      ],
      [
        "ĠY",
        -8.482890292068445
      ],
      [
        "ÙĩÙħ",
        -8.484529826255974
      ],
      [
        "le",
        -8.485176731576978
      ],
      [
        "Ġku",
        -8.485213543322883
      ],
      [
        "à¥ĭà¤Ĥ",
        -8.490457300373983
      ],
      [
        "Ġout",
        -8.490469671915523
      ],
      [
        "Ġwar",
        -8.49518554249811
      ],
      [
        "ment",
        -8.498370210263879
      ],
      [
        "Ġser",
        -8.499106237546304
      ],
      [
        "Ñİ",
        -8.502843943722944
      ],
      [
        "ÏĦÎ·ÏĤ",
        -8.504438982844299
      ],
      [
        "à¤ı",
        -8.504750775564318
      ],
      [
        "time",
        -8.509074392235696
      ],
      [
        "Ġà¤¨",
        -8.51063463452901
      ],
      [
        "any",
        -8.519451829199259
      ],
      [
        "Ġje",
        -8.520592892983053
      ],
      [
        "Ġeste",
        -8.52071096118495
      ],
      [
        "Ùħ",
        -8.52093097879208
      ],
      [
        "ä»ĸ",
        -8.524738821933616
      ],
      [
        "Ġbis",
        -8.538289632128153
      ],
      [
        "ĠR",
        -8.540917924077375
      ],
      [
        "á»ĥ",
        -8.540957389291268
      ],
      [
        "den",
        -8.54161475742653
      ],
      [
        "pero",
        -8.543119184734167
      ],
      [
        "ĠÐ¼Ð¾",
        -8.547397740609318
      ],
      [
        "âĢŀ",
        -8.548067261151234
      ],
      [
        "tos",
        -8.551697744935202
      ],
      [
        "siÄĻ",
        -8.551976904849681
      ],
      [
        "12",
        -8.553839071877581
      ],
      [
        "G",
        -8.554377998511002
      ],
      [
        "Ð¸Ðµ",
        -8.556951938850027
      ],
      [
        "nur",
        -8.557390432205253
      ],
      [
        "Ġho",
        -8.56068703112152
      ],
      [
        "O",
        -8.56187113651061
      ],
      [
        "ple",
        -8.56218651048925
      ],
      [
        "ĠØ¥",
        -8.568980654955602
      ],
      [
        "Ãº",
        -8.569413488608799
      ],
      [
        "Y",
        -8.574139664274998
      ],
      [
        "11",
        -8.576362510555763
      ],
      [
        "ĠDa",
        -8.577572092059329
      ],
      [
        "ĠAn",
        -8.577845094893114
      ],
      [
        "á»§",
        -8.579054864526551
      ],
      [
        "Ġsus",
        -8.581046036773202
      ],
      [
        "ï¼ģ",
        -8.582623424446362
      ],
      [
        "ä½ł",
        -8.58471982495216
      ],
      [
        "tion",
        -8.58639318069252
      ],
      [
        "à¤ķà¤°",
        -8.59195056510385
      ],
      [
        "iá»ĩ",
        -8.592762250535339
      ],
      [
        "ma",
        -8.594225842131056
      ],
      [
        "Ġà¤Ĩ",
        -8.598500958696581
      ],
      [
        "Ø§Ø¡",
        -8.602759650007405
      ],
      [
        "ÙħØ§",
        -8.603540872464553
      ],
      [
        "Ð¹",
        -8.60727198387184
      ],
      [
        "Ø°ÙĦÙĥ",
        -8.610045690913717
      ],
      [
        "com",
        -8.610772722781787
      ],
      [
        "Ġif",
        -8.612641462413167
      ],
      [
        "ÑģÐ»Ð¸",
        -8.612990829049592
      ],
      [
        "haben",
        -8.61474580099131
      ],
      [
        "ÐºÐ¸",
        -8.616567464059395
      ],
      [
        "Ġget",
        -8.618019022932566
      ],
      [
        "Ġdon",
        -8.620110793946878
      ],
      [
        "ĠÑĤÐ¾",
        -8.62073574555447
      ],
      [
        "Ġjust",
        -8.622969296355269
      ],
      [
        "Ã©",
        -8.623750477299703
      ],
      [
        "ĠkÃ¶",
        -8.625133429333154
      ],
      [
        "ÃŃ",
        -8.631260776712514
      ],
      [
        "à¤¥",
        -8.631331917428689
      ],
      [
        "Ĵ",
        -8.633628748753592
      ],
      [
        "Ġhis",
        -8.639689038060082
      ],
      [
        "Ķ",
        -8.643954083681841
      ],
      [
        "ä¸Ń",
        -8.645103799583604
      ],
      [
        "æľī",
        -8.645530524020266
      ],
      [
        "Ġvor",
        -8.6460420522227
      ],
      [
        "å¯¹",
        -8.648219632269898
      ],
      [
        "Ġqu",
        -8.649664483202118
      ],
      [
        "ĠÙĨ",
        -8.650747260000571
      ],
      [
        "know",
        -8.651666353090192
      ],
      [
        "much",
        -8.65517049510803
      ],
      [
        "¢",
        -8.656139817929128
      ],
      [
        "ĠÐ´Ð¾",
        -8.65756902081522
      ],
      [
        "ĠÎ³Î¹Î±",
        -8.658170225148456
      ],
      [
        "ÑĭÐ¹",
        -8.659045705310556
      ],
      [
        "ī",
        -8.659453374015374
      ],
      [
        "Ġmir",
        -8.659628954067568
      ],
      [
        "*",
        -8.661831215296639
      ],
      [
        "Ð¸ÑĤÑĮ",
        -8.663103334011033
      ],
      [
        "ante",
        -8.66455288889954
      ],
      [
        "ĠcÃ³",
        -8.664645993866392
      ],
      [
        "Ġà¤",
        -8.666952602185875
      ],
      [
        "ĠÐ½Ð¾",
        -8.66794821368732
      ],
      [
        "Da",
        -8.668343598308503
      ],
      [
        "Es",
        -8.670268173121453
      ],
      [
        "ĠÑģÐ¾",
        -8.673434404991863
      ],
      [
        "Į",
        -8.675003340518924
      ],
      [
        "siÃ³n",
        -8.676384090949844
      ],
      [
        "ÐµÐ½Ð¸Ðµ",
        -8.676734750564115
      ],
      [
        "ĠBe",
        -8.679379638445903
      ],
      [
        "V",
        -8.683488435027815
      ],
      [
        "ÐºÐ¾ÑĤÐ¾ÑĢ",
        -8.683674334423436
      ],
      [
        "17",
        -8.686836438329262
      ],
      [
        "ted",
        -8.68702665480649
      ],
      [
        "tuk",
        -8.691472593109765
      ],
      [
        "Ġmay",
        -8.692294993351139
      ],
      [
        "nnen",
        -8.695100215191173
      ],
      [
        "L",
        -8.698795543789206
      ],
      [
        "Ġ...",
        -8.69884608449022
      ],
      [
        "ĠDie",
        -8.699031469097275
      ],
      [
        "ÙĩØ°Ùĩ",
        -8.699058665126673
      ],
      [
        "Ð°Ñı",
        -8.706490332711994
      ],
      [
        "ÙĪÙĨ",
        -8.70846827777522
      ],
      [
        "Ń",
        -8.711131710785011
      ],
      [
        "En",
        -8.713393994097121
      ],
      [
        "Ġ6",
        -8.716608243555475
      ],
      [
        "Ġhat",
        -8.716749992878224
      ],
      [
        "E",
        -8.717001755860895
      ],
      [
        "very",
        -8.717302058280422
      ],
      [
        "ĠØ§ÙĦØ§",
        -8.717883523033457
      ],
      [
        "Î±",
        -8.717894221325873
      ],
      [
        "Ð¾Ð»ÑĮÐºÐ¾",
        -8.718065116427065
      ],
      [
        "ÐµÐ¼",
        -8.71901507598812
      ],
      [
        "Ġà¤ħ",
        -8.721246331370141
      ],
      [
        "Ã©s",
        -8.72163669453125
      ],
      [
        "no",
        -8.72164840572978
      ],
      [
        "ĠÎ¼Îµ",
        -8.725924455127037
      ],
      [
        "ÑģÑı",
        -8.726683812740033
      ],
      [
        "Æ°á»Ŀ",
        -8.726906003739364
      ],
      [
        "ne",
        -8.726910161681742
      ],
      [
        "Ġviel",
        -8.727908301102946
      ],
      [
        "ku",
        -8.732337816257983
      ],
      [
        "rÃ¡",
        -8.733607355415446
      ],
      [
        "000",
        -8.734294462552699
      ],
      [
        "ä¸İ",
        -8.740592102763816
      ],
      [
        "ĠLa",
        -8.74076205127186
      ],
      [
        "Ġà¤¦",
        -8.742616014001246
      ],
      [
        "todo",
        -8.74266056886386
      ],
      [
        "ÙĨØ§",
        -8.745327105507029
      ],
      [
        "ĠÐ±ÑĥÐ´",
        -8.745964736847274
      ],
      [
        "Ð½Ð¾Ð¹",
        -8.74771626290628
      ],
      [
        "à¤¼",
        -8.754087689562077
      ],
      [
        "æĹ¥",
        -8.755348028644455
      ],
      [
        "00",
        -8.756879151156411
      ],
      [
        "la",
        -8.757190008246033
      ],
      [
        "so",
        -8.762476708272084
      ],
      [
        "Ġwork",
        -8.76280342113535
      ],
      [
        "Ġja",
        -8.765549336874052
      ],
      [
        "ØŁ",
        -8.76721511964214
      ],
      [
        "Ġmal",
        -8.769780041334252
      ],
      [
        "ÑĭÑħ",
        -8.771318964506715
      ],
      [
        "à¥¤",
        -8.774731012777675
      ],
      [
        "Ñħ",
        -8.776862860063206
      ],
      [
        "Ġsh",
        -8.777775761266568
      ],
      [
        "Ġsobre",
        -8.778308880152187
      ],
      [
        "16",
        -8.778633303807352
      ],
      [
        "Ã´",
        -8.779553386802034
      ],
      [
        "on",
        -8.780789714717793
      ],
      [
        "Ġer",
        -8.780957800536282
      ],
      [
        "Ð¸Ð¼",
        -8.783630143653554
      ],
      [
        "ä¸Ĭ",
        -8.783698431741481
      ],
      [
        "Ġfu",
        -8.783972933857154
      ],
      [
        "there",
        -8.784717047107462
      ],
      [
        "ãĢĭ",
        -8.78573623598953
      ],
      [
        "Ġhad",
        -8.78716086232784
      ],
      [
        "ÑĤÑĮÑģÑı",
        -8.792481979594326
      ],
      [
        "Ġdis",
        -8.794799135890011
      ],
      [
        "Ð»Ð¾",
        -8.79610495903624
      ],
      [
        "ĠEs",
        -8.798642881389771
      ],
      [
        "Ġsin",
        -8.798724635012633
      ],
      [
        "á»Ľ",
        -8.798967760843585
      ],
      [
        "F",
        -8.800375482863652
      ],
      [
        "ÐµÐµ",
        -8.80121292564824
      ],
      [
        "Ġmehr",
        -8.801378641355543
      ],
      [
        "Ġju",
        -8.801485618289973
      ],
      [
        "à¤§",
        -8.80352422603409
      ],
      [
        "),",
        -8.803735728376282
      ],
      [
        "15",
        -8.804301852373857
      ],
      [
        "Ġvo",
        -8.804705596488082
      ],
      [
        "à¤ªà¤°",
        -8.805076408643778
      ],
      [
        "Ð½Ð¾Ð³Ð¾",
        -8.807803323656481
      ],
      [
        "Ãºn",
        -8.813017477774464
      ],
      [
        "Ð±Ñĭ",
        -8.814641822354332
      ],
      [
        "ĠÎ±ÏĢÏĮ",
        -8.81739739799942
      ],
      [
        "Ã±os",
        -8.821752160638116
      ],
      [
        "Ġco",
        -8.822321559735641
      ],
      [
        "Ġba",
        -8.823806441022864
      ],
      [
        "ine",
        -8.82383593895922
      ],
      [
        "Î®",
        -8.824152215524188
      ],
      [
        "Ġpe",
        -8.830560227859547
      ],
      [
        "Ġent",
        -8.830840471630186
      ],
      [
        "quier",
        -8.831978230592384
      ],
      [
        "ados",
        -8.832929170110408
      ],
      [
        "Ð¾Ð³Ð´Ð°",
        -8.83297558533089
      ],
      [
        "äºº",
        -8.832976175048287
      ],
      [
        "ãĢĬ",
        -8.834551773321577
      ],
      [
        "ers",
        -8.835456304447996
      ],
      [
        "how",
        -8.83903375954505
      ],
      [
        "Ġob",
        -8.84220387948201
      ],
      [
        "0",
        -8.842300496169928
      ],
      [
        "æĪĳä»¬",
        -8.843993966129405
      ],
      [
        "Ġhi",
        -8.84507745056745
      ],
      [
        "li",
        -8.847532727611085
      ],
      [
        "ĠÐŀ",
        -8.848254361929833
      ],
      [
        "Ã¡c",
        -8.850715897507348
      ],
      [
        "âĢ",
        -8.853496170865302
      ],
      [
        "ĠÐ¶Ðµ",
        -8.853683001268351
      ],
      [
        "ood",
        -8.854741439515651
      ],
      [
        "Ð´ÑĢÑĥÐ³",
        -8.856425503205624
      ],
      [
        "ĠÙĥÙĦ",
        -8.85697274210262
      ],
      [
        "Ġ7",
        -8.857872148281416
      ],
      [
        "200",
        -8.858449731265079
      ],
      [
        "Ġwen",
        -8.863838362305476
      ],
      [
        "ear",
        -8.864904511573455
      ],
      [
        "à¤«",
        -8.865269253760284
      ],
      [
        "lu",
        -8.865753068803917
      ],
      [
        "Ø§ÙĦØ°ÙĬ",
        -8.866511427825374
      ],
      [
        "Ġvi",
        -8.867984360840675
      ],
      [
        "ĠÐ³",
        -8.869437509891327
      ],
      [
        "Ġex",
        -8.870295616433303
      ],
      [
        "ĠÂ",
        -8.87052111789321
      ],
      [
        "In",
        -8.871126331753967
      ],
      [
        "Ġpod",
        -8.871940160135958
      ],
      [
        "à¥Īà¤Ĥ",
        -8.872980974241404
      ],
      [
        "ki",
        -8.876238677295248
      ],
      [
        "ĠRe",
        -8.878142636862727
      ],
      [
        "á»¥",
        -8.879780551927265
      ],
      [
        "ede",
        -8.88397033253965
      ],
      [
        "encia",
        -8.884439704376017
      ],
      [
        "iene",
        -8.886143579537364
      ],
      [
        "ĠSe",
        -8.88933843080299
      ],
      [
        "Ġ15",
        -8.889423362799608
      ],
      [
        "Ġ12",
        -8.890173239579088
      ],
      [
        "ny",
        -8.892630057021387
      ],
      [
        "ä¸º",
        -8.894722937542936
      ],
      [
        "ÏĮ",
        -8.894826838982524
      ],
      [
        "Ð»Ð°",
        -8.89901664344432
      ],
      [
        "ĠDe",
        -8.899625880381164
      ],
      [
        "ÐºÐ°",
        -8.899895571323059
      ],
      [
        "Ġhabe",
        -8.900016086368133
      ],
      [
        "Ð°Ñħ",
        -8.900629305369373
      ],
      [
        "emos",
        -8.904296544367693
      ],
      [
        "ÑĭÐµ",
        -8.905175289878775
      ],
      [
        "Ġini",
        -8.905583888908236
      ],
      [
        "Ġber",
        -8.908079210437002
      ],
      [
        "nie",
        -8.911145534355818
      ],
      [
        "ĠØ¹ÙĦÙĬ",
        -8.911504443645883
      ],
      [
        "muy",
        -8.911546721634425
      ],
      [
        "lso",
        -8.911647340400187
      ],
      [
        "ĠÐ¿ÑĢÐ¾",
        -8.913503300108347
      ],
      [
        "ÙĤØ§ÙĦ",
        -8.913801821851306
      ],
      [
        "un",
        -8.91436576001584
      ],
      [
        "à¤Ī",
        -8.916620507812477
      ],
      [
        "30",
        -8.918211514078807
      ],
      [
        "ï¼ļâĢľ",
        -8.918495729647896
      ],
      [
        "ĠÐĺ",
        -8.918577390516422
      ],
      [
        "Ð°Ð¼Ð¸",
        -8.919437909817663
      ],
      [
        "à¤·",
        -8.92089763459432
      ],
      [
        "day",
        -8.928040601786675
      ],
      [
        "dÃŃa",
        -8.928837330163903
      ],
      [
        "Ð½Ð°",
        -8.933651184319343
      ],
      [
        "ĠÏĢÎ¿Ïħ",
        -8.933895631679274
      ],
      [
        "Ġscho",
        -8.933918268676882
      ],
      [
        "tÃ¡",
        -8.934951619687078
      ],
      [
        "Ġcho",
        -8.935745789603981
      ],
      [
        "ĠTh",
        -8.936274087015569
      ],
      [
        "ĠØ§ÙĨ",
        -8.93811126146206
      ],
      [
        "antes",
        -8.938446327938252
      ],
      [
        "il",
        -8.938539438641808
      ],
      [
        "lich",
        -8.93914122599616
      ],
      [
        "¯",
        -8.939804091476411
      ],
      [
        "ally",
        -8.940510288145193
      ],
      [
        "áº§",
        -8.941226171402503
      ],
      [
        "å¥¹",
        -8.942177487547506
      ],
      [
        "ser",
        -8.942193831499894
      ],
      [
        "ber",
        -8.942448031664961
      ],
      [
        "è¯´",
        -8.943247176854143
      ],
      [
        "mich",
        -8.943919133478163
      ],
      [
        "zum",
        -8.945823239388867
      ],
      [
        "ÙģÙī",
        -8.946875050723632
      ],
      [
        "ihr",
        -8.947493871368374
      ],
      [
        "100",
        -8.953249939067202
      ],
      [
        "ĠÐ°",
        -8.953631778484324
      ],
      [
        "Ð½ÑĭÐ¹",
        -8.954233868637992
      ],
      [
        "å°±",
        -8.954631531440691
      ],
      [
        "Ð¾Ðµ",
        -8.955507488043587
      ],
      [
        "Ġcas",
        -8.956611135921218
      ],
      [
        "ĠÐ¡",
        -8.959698850543345
      ],
      [
        "here",
        -8.96141943180242
      ],
      [
        "ä¹Ł",
        -8.962053729796564
      ],
      [
        "der",
        -8.962715254760122
      ],
      [
        "ĠÑĢÐ°Ð·",
        -8.963742798289088
      ],
      [
        "Æ°",
        -8.964606624796676
      ],
      [
        "ĠIt",
        -8.964836675824817
      ],
      [
        "Ġgut",
        -8.965151174204744
      ],
      [
        "mente",
        -8.967065715644523
      ],
      [
        "ĠÎµÎ¯",
        -8.96842315397849
      ],
      [
        "ĠØ´",
        -8.970796402286304
      ],
      [
        "iÃ©n",
        -8.971917658512673
      ],
      [
        "ï¼Ľ",
        -8.972517705763213
      ],
      [
        "said",
        -8.973780048157552
      ],
      [
        "Ġtak",
        -8.97970422018001
      ],
      [
        "mbre",
        -8.982765191251064
      ],
      [
        "reat",
        -8.98294937936473
      ],
      [
        "ĠØ¨ÙĬÙĨ",
        -8.98435615579075
      ],
      [
        "Ðļ",
        -8.985973643378882
      ],
      [
        "èĢĮ",
        -8.985978528683814
      ],
      [
        "read",
        -8.986166212402717
      ],
      [
        "mit",
        -8.988061576501753
      ],
      [
        "ird",
        -8.992349396168997
      ],
      [
        "Ð¶ÐµÑĤ",
        -8.993039356406838
      ],
      [
        "peo",
        -8.99497349978298
      ],
      [
        "Äĩ",
        -8.995006256468766
      ],
      [
        "Ġpersona",
        -8.996666678873703
      ],
      [
        "ĠÐļ",
        -8.999042973691173
      ],
      [
        "ĠÙĩÙĪ",
        -8.999556757211268
      ],
      [
        "Ġhay",
        -9.00090215050863
      ],
      [
        "No",
        -9.001859629991673
      ],
      [
        "ia",
        -9.002140781775136
      ],
      [
        "make",
        -9.002783480495815
      ],
      [
        "di",
        -9.002940076447329
      ],
      [
        "Ġcom",
        -9.005231187405005
      ],
      [
        "ÙĪØ§",
        -9.005759929687716
      ],
      [
        "Ġkwa",
        -9.006294703098161
      ],
      [
        "ĠÙĦÙħ",
        -9.007207649583746
      ],
      [
        "ĠLe",
        -9.008013320630829
      ],
      [
        "wa",
        -9.010007270937622
      ],
      [
        "ĠEin",
        -9.010277120899561
      ],
      [
        "us",
        -9.010338647580436
      ],
      [
        "Ġhab",
        -9.015659371346919
      ],
      [
        "Ġca",
        -9.016224447823772
      ],
      [
        "Ð°Ð¼",
        -9.01631307707761
      ],
      [
        "Ġmu",
        -9.017132931569964
      ],
      [
        "ÙĨ",
        -9.01728797185444
      ],
      [
        "Ġ18",
        -9.017378843886656
      ],
      [
        "U",
        -9.019009469517842
      ],
      [
        "um",
        -9.021016661667366
      ],
      [
        "ego",
        -9.023573949412407
      ],
      [
        "14",
        -9.024132050917776
      ],
      [
        "ä»İ",
        -9.024670268520952
      ],
      [
        "ä½Ĩ",
        -9.026439143233333
      ],
      [
        "itu",
        -9.027678739882191
      ],
      [
        "is",
        -9.028385046841045
      ],
      [
        "Ġ8",
        -9.028974104632237
      ],
      [
        "jest",
        -9.029386179733974
      ],
      [
        "Ľ",
        -9.029703115401158
      ],
      [
        "Ġ30",
        -9.030012027551187
      ],
      [
        "ĠÐĲ",
        -9.030030460216135
      ],
      [
        "Æ°á»£",
        -9.030975365990766
      ],
      [
        "âĢĺ",
        -9.033176162092815
      ],
      [
        "mejor",
        -9.03354333002546
      ],
      [
        "ation",
        -9.033889897181911
      ],
      [
        "Ġhier",
        -9.03566907581168
      ],
      [
        "ke",
        -9.03576673234358
      ],
      [
        "æĹ¶",
        -9.03609166265303
      ],
      [
        "jo",
        -9.036361099065275
      ],
      [
        "way",
        -9.037990876316723
      ],
      [
        "Ġpart",
        -9.038214439145285
      ],
      [
        "Ġshe",
        -9.039903120835888
      ],
      [
        "mos",
        -9.040437205978652
      ],
      [
        "ÙĦ",
        -9.042143055171387
      ],
      [
        "09",
        -9.043356686510569
      ],
      [
        "Ì",
        -9.046264103713762
      ],
      [
        "Ġwieder",
        -9.047315852760297
      ],
      [
        "Ġentre",
        -9.049590041651637
      ],
      [
        "Ġpro",
        -9.050224855454921
      ],
      [
        "Ġnos",
        -9.05050351773024
      ],
      [
        "zu",
        -9.050985589161272
      ],
      [
        "©",
        -9.051809389970964
      ],
      [
        "ĠNo",
        -9.052015835475778
      ],
      [
        ".\"",
        -9.0521920392998
      ],
      [
        "Ã¢n",
        -9.05246213134755
      ],
      [
        "Ø¹ÙĦÙĬÙĩ",
        -9.053695355057288
      ],
      [
        "Ġalle",
        -9.053883683686193
      ],
      [
        "Lo",
        -9.054591128474845
      ],
      [
        "iÃ§in",
        -9.056722469375618
      ],
      [
        "Ðŀ",
        -9.056940572606337
      ],
      [
        "ĠÏĦÎ±",
        -9.05916002838869
      ],
      [
        "á»±",
        -9.06003736697674
      ],
      [
        "dari",
        -9.060442240502669
      ],
      [
        "Ġ9",
        -9.061064378965119
      ],
      [
        "Ġweb",
        -9.06156100636301
      ],
      [
        "sein",
        -9.062091200284756
      ],
      [
        "immer",
        -9.063901744950146
      ],
      [
        "hora",
        -9.066406109302925
      ],
      [
        "ĠIn",
        -9.066506886554272
      ],
      [
        "Ġover",
        -9.06707918806657
      ],
      [
        "aÃ±o",
        -9.067469995808748
      ],
      [
        "åĲİ",
        -9.067798410211104
      ],
      [
        "Ġe",
        -9.069552819834252
      ],
      [
        "ĠÑģÐ²Ð¾",
        -9.069698713551702
      ],
      [
        "diese",
        -9.069939538117156
      ],
      [
        "ĠØ¨Ø¹Ø¯",
        -9.071289940577953
      ],
      [
        "Ġdurch",
        -9.071294681446233
      ],
      [
        "Ġbi",
        -9.071723684287772
      ],
      [
        "\".",
        -9.075139644625143
      ],
      [
        "13",
        -9.075369409083129
      ],
      [
        "ĠZ",
        -9.075715308177251
      ],
      [
        "Ġprim",
        -9.075753945405472
      ],
      [
        "ĠØ³",
        -9.07597114005038
      ],
      [
        "Ġsay",
        -9.075993305662585
      ],
      [
        "åĪ°",
        -9.077828376327334
      ],
      [
        "ĠÎ·",
        -9.0783872269965
      ],
      [
        "want",
        -9.079002116025572
      ],
      [
        "Ġ14",
        -9.079818019983437
      ],
      [
        "Î½Î±Î¹",
        -9.087281435445439
      ],
      [
        "ÑĤÑģÑı",
        -9.087587788470934
      ],
      [
        "were",
        -9.089244788982585
      ],
      [
        "ĠÏĥÏĦÎ¿",
        -9.089807872940902
      ],
      [
        "ä¸į",
        -9.091331764986966
      ],
      [
        "áº¯",
        -9.094616402960527
      ],
      [
        "lah",
        -9.09664575515861
      ],
      [
        "çŃī",
        -9.097357037117657
      ],
      [
        "Ġsee",
        -9.097791843810029
      ],
      [
        "ka",
        -9.097995247650962
      ],
      [
        "look",
        -9.09821453690753
      ],
      [
        "ismo",
        -9.098561962180842
      ],
      [
        "Ġki",
        -9.09907426885545
      ],
      [
        "á»Ł",
        -9.100471164247086
      ],
      [
        "ej",
        -9.101379513811528
      ],
      [
        "Ð½Ð¾ÑģÑĤÐ¸",
        -9.1014189704978
      ],
      [
        "Ġnew",
        -9.102059495777468
      ],
      [
        "Ġà¤ļ",
        -9.103174146936215
      ],
      [
        "Ġà¤ķà¤",
        -9.10343083381262
      ],
      [
        "ĠDi",
        -9.104395233835088
      ],
      [
        ".âĢĿ",
        -9.107239230204971
      ],
      [
        "amos",
        -9.10749175555186
      ],
      [
        "ä¸Ģä¸ª",
        -9.107869361185214
      ],
      [
        "Ġac",
        -9.108460761720709
      ],
      [
        "ĠÑģÐ°Ð¼",
        -9.109726185001454
      ],
      [
        "x",
        -9.109933585687072
      ],
      [
        "ales",
        -9.11082473052533
      ],
      [
        "ĠØ§ÙĦØª",
        -9.111283639097207
      ],
      [
        "ibt",
        -9.112895417930826
      ],
      [
        "ario",
        -9.113175977537194
      ],
      [
        "æĿ¥",
        -9.114972641754425
      ],
      [
        "ĠÙĥØ§ÙĨ",
        -9.115545194586495
      ],
      [
        "Ġà¤Ĺ",
        -9.115762977094493
      ],
      [
        "ca",
        -9.11581729781237
      ],
      [
        "Ġproduc",
        -9.11661178219003
      ],
      [
        "ÙĬØ§",
        -9.11776805184355
      ],
      [
        "Ġzur",
        -9.11859361823391
      ],
      [
        "Ã³n",
        -9.119938807744884
      ],
      [
        "ĠÑĢÐ°Ð±Ð¾ÑĤ",
        -9.121323089290502
      ],
      [
        "Ã£",
        -9.121948963187059
      ],
      [
        "Î½",
        -9.123725609573697
      ],
      [
        "Ġcre",
        -9.124062926541027
      ],
      [
        "lar",
        -9.124603123218693
      ],
      [
        "age",
        -9.125392193003181
      ],
      [
        "&",
        -9.125714745904922
      ],
      [
        "Ġmus",
        -9.12755265281511
      ],
      [
        "ity",
        -9.128109968687104
      ],
      [
        "Ġinclu",
        -9.1305343455802
      ],
      [
        "ĠEl",
        -9.135049948930334
      ],
      [
        "ÎµÏĤ",
        -9.137813059243681
      ],
      [
        "him",
        -9.139816904526947
      ],
      [
        "be",
        -9.140077832203213
      ],
      [
        "Ð¸Ð¸",
        -9.14119061931068
      ],
      [
        "ĠÏĥ",
        -9.142383121572879
      ],
      [
        "Ø¨",
        -9.14244626048683
      ],
      [
        "Ġtrabaj",
        -9.142555061509517
      ],
      [
        "ight",
        -9.142891560238217
      ],
      [
        "ĠØ§ÙĦØ¥",
        -9.1462144367946
      ],
      [
        "ĠÐ´Ð°",
        -9.14661676998788
      ],
      [
        "Ã¡n",
        -9.14667886006913
      ],
      [
        "iendo",
        -9.149120118277313
      ],
      [
        "Ð¸Ð¹",
        -9.149693478872138
      ],
      [
        "Ġ:",
        -9.150625549382452
      ],
      [
        "Ġ11",
        -9.15076712013162
      ],
      [
        "Ð½",
        -9.152424114993316
      ],
      [
        "ĠÐ¯",
        -9.153558173860601
      ],
      [
        "Ġà¤¤",
        -9.154527367692062
      ],
      [
        "Ġra",
        -9.155931281092858
      ],
      [
        "ĠVer",
        -9.15664208875275
      ],
      [
        "mo",
        -9.157875077029846
      ],
      [
        "ä¸Ģ",
        -9.15994343034369
      ],
      [
        "ja",
        -9.16028138053535
      ],
      [
        "ĠÐ¿ÑĢÐµÐ´",
        -9.16048761984449
      ],
      [
        "ĠØ¨ÙĨ",
        -9.161131117540787
      ],
      [
        "Ġjed",
        -9.161429040364574
      ],
      [
        "Ð½Ð°Ñı",
        -9.16190012289717
      ],
      [
        "et",
        -9.163232060061837
      ],
      [
        "pada",
        -9.16440459561296
      ],
      [
        "à¤ĩ",
        -9.16582171128887
      ],
      [
        "R",
        -9.166289913527972
      ],
      [
        "hink",
        -9.166295397585326
      ],
      [
        "ĠÏĢ",
        -9.16629689114799
      ],
      [
        "me",
        -9.167039398273277
      ],
      [
        "ang",
        -9.167535286683725
      ],
      [
        "use",
        -9.167993568271102
      ],
      [
        "ĠDu",
        -9.168342585001518
      ],
      [
        "ÐºÐ¾ÑĤÐ¾ÑĢÑĭ",
        -9.168856690468692
      ],
      [
        "Ð¼Ð¾Ð¶Ð½Ð¾",
        -9.169862721224531
      ],
      [
        "+",
        -9.170069381668092
      ],
      [
        "Ġforma",
        -9.170417438718468
      ],
      [
        "Ġneu",
        -9.171894236048574
      ],
      [
        "éĥ½",
        -9.175552108046823
      ],
      [
        "Ð»",
        -9.175994768043827
      ],
      [
        "å¤§",
        -9.176700543251677
      ],
      [
        "idades",
        -9.176800019549088
      ],
      [
        "å°Ĩ",
        -9.177201555323734
      ],
      [
        "ÐµÑģÑĤÑĮ",
        -9.177412523737805
      ],
      [
        "ØªÙī",
        -9.17801762436195
      ],
      [
        "Ġpost",
        -9.178550187806433
      ],
      [
        "eren",
        -9.178988635538724
      ],
      [
        "Ġx",
        -9.179337525466014
      ],
      [
        "ĠÏĥÎµ",
        -9.180782975205595
      ],
      [
        "right",
        -9.184010128612409
      ],
      [
        "Ġjak",
        -9.184414184901275
      ],
      [
        "ĠSo",
        -9.184521747962705
      ],
      [
        "sÃŃ",
        -9.184611597040142
      ],
      [
        "Äĥ",
        -9.185540043576164
      ],
      [
        "Ġnow",
        -9.187780123217422
      ],
      [
        "Ġdid",
        -9.188072871854306
      ],
      [
        "08",
        -9.18976286367139
      ],
      [
        "ÑĥÑİ",
        -9.189915024743733
      ],
      [
        "Î¬",
        -9.191233471173904
      ],
      [
        "åľ°",
        -9.191247394278932
      ],
      [
        "ause",
        -9.191571906030926
      ],
      [
        "Ġback",
        -9.191628012151764
      ],
      [
        "Ð¾Ð½Ð°",
        -9.193977060800545
      ],
      [
        "ØªÙĩ",
        -9.19542972636668
      ],
      [
        "Ġart",
        -9.196984835309543
      ],
      [
        "ĠJ",
        -9.199921266910671
      ],
      [
        "Ġreal",
        -9.20019286061689
      ],
      [
        "è¿Ļ",
        -9.200951196831406
      ],
      [
        "dem",
        -9.201623917045827
      ],
      [
        "Se",
        -9.20183535763915
      ],
      [
        "á»ĵ",
        -9.205026592601419
      ],
      [
        "urde",
        -9.205449490776468
      ],
      [
        "ĠØ§ÙĦØ´",
        -9.206026368208649
      ],
      [
        "ĠAb",
        -9.207063526630414
      ],
      [
        "ĠØ§ÙĦÙĤ",
        -9.207785720354074
      ],
      [
        "ÐĲ",
        -9.208154609339564
      ],
      [
        "á»ĩn",
        -9.211162894105689
      ],
      [
        "than",
        -9.211294531777838
      ],
      [
        "Ġà¤²à¤",
        -9.211392996392672
      ],
      [
        "irst",
        -9.21139674561114
      ],
      [
        "Ġten",
        -9.213741776902944
      ],
      [
        "empo",
        -9.215113793770852
      ],
      [
        "Ġ..",
        -9.216430904153615
      ],
      [
        "ÐµÐ¼Ñĥ",
        -9.216626920429041
      ],
      [
        "è¢«",
        -9.216787830972896
      ],
      [
        "ĠÑħÐ¾",
        -9.218119305739243
      ],
      [
        "Ġbin",
        -9.218625277981122
      ],
      [
        "ses",
        -9.218679312008527
      ],
      [
        "ĠWe",
        -9.219176708098589
      ],
      [
        "Ġad",
        -9.21977580763615
      ],
      [
        "Ùģ",
        -9.220399003781294
      ],
      [
        "ÏĦÎ¿Î½",
        -9.221206339915884
      ],
      [
        "ur",
        -9.223959927765922
      ],
      [
        "rÃŃa",
        -9.2242442642976
      ],
      [
        "iáº¿",
        -9.224605837238537
      ],
      [
        "Ġà¤ĩ",
        -9.224944652943838
      ],
      [
        "ãĢ",
        -9.225472915777862
      ],
      [
        "áº£n",
        -9.22621364229248
      ],
      [
        "ĠÐ¼Ñĭ",
        -9.2269878248559
      ],
      [
        "J",
        -9.229058529074377
      ],
      [
        "ĠZeit",
        -9.229548707120507
      ],
      [
        "ÏĦÏīÎ½",
        -9.230551552729683
      ],
      [
        "Ð¡",
        -9.232632428898032
      ],
      [
        "æĪĸ",
        -9.234322368164262
      ],
      [
        "cada",
        -9.234417769014605
      ],
      [
        "Æ°á»Ľ",
        -9.237312337764502
      ],
      [
        "#",
        -9.237806400772062
      ],
      [
        "â",
        -9.23807012335444
      ],
      [
        "iert",
        -9.24013319093312
      ],
      [
        "Ġwo",
        -9.240816182332948
      ],
      [
        "50",
        -9.241648076831563
      ],
      [
        "ĠAnd",
        -9.242018951824264
      ],
      [
        "ä¸ŃåĽ½",
        -9.242032300758488
      ],
      [
        "ting",
        -9.243013651851868
      ],
      [
        "into",
        -9.245530814901773
      ],
      [
        "echo",
        -9.246064831367876
      ],
      [
        "Ġâ",
        -9.248215129287807
      ],
      [
        "We",
        -9.248514429132664
      ],
      [
        "iÃ³n",
        -9.24853785166744
      ],
      [
        "ĠØ§ÙĦØ³",
        -9.249493138602368
      ],
      [
        "Der",
        -9.250287723551233
      ],
      [
        "tes",
        -9.250353592286814
      ],
      [
        "sa",
        -9.250391909081477
      ],
      [
        "@",
        -9.251300704243285
      ],
      [
        "Ø³",
        -9.25169945060892
      ],
      [
        "tamb",
        -9.255646674432805
      ],
      [
        "It",
        -9.256154867683883
      ],
      [
        "Ġbest",
        -9.25623612699054
      ],
      [
        "ĠYou",
        -9.256982721847772
      ],
      [
        "ĠØ¹",
        -9.258279622664578
      ],
      [
        "Ġunter",
        -9.258974908049247
      ],
      [
        "ĠÎ¿",
        -9.260010428703675
      ],
      [
        "Ġ16",
        -9.260197314892233
      ],
      [
        "$",
        -9.260378799068153
      ],
      [
        "Ð¾ÑĤ",
        -9.262396977512537
      ],
      [
        "Ãª",
        -9.262762983996398
      ],
      [
        "ears",
        -9.263156687734815
      ],
      [
        "Ġà¤²",
        -9.26387018061908
      ],
      [
        "ful",
        -9.266750462710231
      ],
      [
        "á»©",
        -9.268489508378671
      ],
      [
        "ach",
        -9.269610941986146
      ],
      [
        "á»ķ",
        -9.270694340007923
      ],
      [
        "tener",
        -9.273369863130414
      ],
      [
        "à¤¤à¤",
        -9.275986902261186
      ],
      [
        "ÃŃcul",
        -9.277225195657033
      ],
      [
        "So",
        -9.278041285471884
      ],
      [
        "//",
        -9.27864330269024
      ],
      [
        "ere",
        -9.279048919971371
      ],
      [
        "à¤°à¤¹",
        -9.280809247964477
      ],
      [
        "ver",
        -9.281265668163963
      ],
      [
        "Ġà¤ī",
        -9.28200484379694
      ],
      [
        "akan",
        -9.282470806286792
      ],
      [
        "ĠÐ¼ÐµÐ½Ñı",
        -9.283189234949846
      ],
      [
        "Ġr",
        -9.284418772483667
      ],
      [
        "ÙħÙĨ",
        -9.285604871053014
      ],
      [
        "ä»¥",
        -9.28578703784781
      ],
      [
        "á»į",
        -9.28579485016551
      ],
      [
        "ence",
        -9.286529909973943
      ],
      [
        "à¤",
        -9.286969912433324
      ],
      [
        "Ã²",
        -9.287664227444271
      ],
      [
        "ra",
        -9.288967835270078
      ],
      [
        "ase",
        -9.290180068606604
      ],
      [
        "mail",
        -9.290580026460425
      ],
      [
        "Ġ13",
        -9.291305273798727
      ],
      [
        "j",
        -9.292709103124826
      ],
      [
        "even",
        -9.292975573465613
      ],
      [
        "well",
        -9.29504297436942
      ],
      [
        "ĠHe",
        -9.295133440786053
      ],
      [
        "ĠØ§ÙĦØŃ",
        -9.295416634540908
      ],
      [
        "eht",
        -9.295428497771828
      ],
      [
        "ler",
        -9.296471491808342
      ],
      [
        "long",
        -9.296743714857113
      ],
      [
        "å°ı",
        -9.298339989325841
      ],
      [
        "ÐµÐ½Ð¸Ð¸",
        -9.299103259137338
      ],
      [
        "Ģ",
        -9.301341750343491
      ],
      [
        "doch",
        -9.302357703211074
      ],
      [
        "Ġweiter",
        -9.302454733848254
      ],
      [
        "ĠLo",
        -9.303331017161362
      ],
      [
        "otro",
        -9.303584472722092
      ],
      [
        "Si",
        -9.303614764450417
      ],
      [
        "ĠJahr",
        -9.303850117446462
      ],
      [
        "Ġmedi",
        -9.30529222911945
      ],
      [
        "cio",
        -9.30709084431524
      ],
      [
        "Ġimport",
        -9.307392537511994
      ],
      [
        "Ð»Ð¾ÑģÑĮ",
        -9.309079034393086
      ],
      [
        "ÑĥÐ¶Ðµ",
        -9.309332910840482
      ],
      [
        "uch",
        -9.30976928203225
      ],
      [
        "Ð³Ð¾",
        -9.309770006920663
      ],
      [
        "ie",
        -9.31145689000824
      ],
      [
        "iÃªn",
        -9.313173735341222
      ],
      [
        "Ġ25",
        -9.316717759494484
      ],
      [
        "ive",
        -9.316859041119052
      ],
      [
        "ad",
        -9.317870181613582
      ],
      [
        "ough",
        -9.31861000046929
      ],
      [
        "bien",
        -9.31972982537895
      ],
      [
        "Ð½Ð¸Ðµ",
        -9.32107596251572
      ],
      [
        "tidak",
        -9.321351835331054
      ],
      [
        "empre",
        -9.321643681121964
      ],
      [
        "áº¿n",
        -9.321770615047132
      ],
      [
        "sure",
        -9.322830640740627
      ],
      [
        "Ø±",
        -9.323197618435042
      ],
      [
        "Ø®ÙĦØ§ÙĦ",
        -9.323511886545834
      ],
      [
        "im",
        -9.324476682886536
      ],
      [
        "ice",
        -9.325030936355821
      ],
      [
        "estro",
        -9.325217622695948
      ],
      [
        "ry",
        -9.325435229078792
      ],
      [
        "åİ»",
        -9.326059532904635
      ],
      [
        "ÐµÐ±Ñı",
        -9.32688179059403
      ],
      [
        "Ø¨Ø¹Ø¶",
        -9.326994928694324
      ],
      [
        "ÙħÙĪØ¶ÙĪØ¹",
        -9.327361445982175
      ],
      [
        "sigu",
        -9.327822457013923
      ],
      [
        "Ġhasta",
        -9.331278498245737
      ],
      [
        "imiento",
        -9.332069143628306
      ],
      [
        "ÑĢÐµÐ¼Ñı",
        -9.332283914265775
      ],
      [
        "Ġneces",
        -9.332504157721939
      ],
      [
        "Î¯Î±",
        -9.33266972182829
      ],
      [
        "Ġod",
        -9.333099200398848
      ],
      [
        "Ø§ÙĨ",
        -9.333279313370763
      ],
      [
        "à¥Ģà¤Ĥ",
        -9.33377897251082
      ],
      [
        "ÎŃÏĤ",
        -9.334156125321872
      ],
      [
        "ä»ĸä»¬",
        -9.33425558273275
      ],
      [
        "moment",
        -9.33474320635619
      ],
      [
        "Ġproces",
        -9.336363164096468
      ],
      [
        "hre",
        -9.339007304668614
      ],
      [
        "Ð»Ñı",
        -9.339896307603398
      ],
      [
        "aciones",
        -9.339998337104719
      ],
      [
        "ces",
        -9.34113350924584
      ],
      [
        "Ð³Ð¾Ð´Ð°",
        -9.341822244676617
      ],
      [
        "Ġ17",
        -9.343065924759797
      ],
      [
        "ĠÎ¸Î±",
        -9.344447908152857
      ],
      [
        "Ġile",
        -9.345501365375458
      ],
      [
        "ÑĤ",
        -9.346448300036133
      ],
      [
        "Ġsa",
        -9.346761580504856
      ],
      [
        "ge",
        -9.348296407870915
      ],
      [
        "ty",
        -9.34852594974772
      ],
      [
        "Ġhan",
        -9.349522683318341
      ],
      [
        "Ġada",
        -9.350211210796777
      ],
      [
        "mÃ¡",
        -9.350252037013178
      ],
      [
        "man",
        -9.350596927195873
      ],
      [
        "Äħ",
        -9.352358596227685
      ],
      [
        "ĠEr",
        -9.353406861861702
      ],
      [
        "fore",
        -9.353490439865242
      ],
      [
        "Ġplan",
        -9.354376882046513
      ],
      [
        "ÐºÑĥ",
        -9.354479903755143
      ],
      [
        "Ġhu",
        -9.355006707989402
      ],
      [
        "dalam",
        -9.357346037578115
      ],
      [
        "è¦ģ",
        -9.357595317603343
      ],
      [
        "Ġbo",
        -9.358956452892567
      ],
      [
        "á»ģ",
        -9.35906262178235
      ],
      [
        "ieren",
        -9.360988979404308
      ],
      [
        "06",
        -9.361200831531166
      ],
      [
        "á»Ŀ",
        -9.363124386931466
      ],
      [
        "ni",
        -9.365381768101416
      ],
      [
        "ĠÐľ",
        -9.365735703017931
      ],
      [
        "ĠÅ¼e",
        -9.368186037734409
      ],
      [
        "ĠEn",
        -9.368394411641015
      ],
      [
        "Ð´Ðµ",
        -9.368909346127996
      ],
      [
        "ÑĩÐµÐ½ÑĮ",
        -9.369055956853915
      ],
      [
        "ba",
        -9.369281901668248
      ],
      [
        "ual",
        -9.369554952869796
      ],
      [
        "áº¡n",
        -9.37051726279311
      ],
      [
        "take",
        -9.372497643322356
      ],
      [
        "am",
        -9.372697961781004
      ],
      [
        "ĠÐ³Ð¾Ð´",
        -9.37322768700122
      ],
      [
        "ĠÄĲ",
        -9.37384580475475
      ],
      [
        "ĠUn",
        -9.374497581932902
      ],
      [
        "gar",
        -9.374915323299673
      ],
      [
        "rong",
        -9.37539249984854
      ],
      [
        "parte",
        -9.377628330770273
      ],
      [
        "Ġinform",
        -9.380566770807475
      ],
      [
        "ek",
        -9.380772764724739
      ],
      [
        "ĠÐ¿Ð¾Ð´",
        -9.382720207502448
      ],
      [
        "Ġ24",
        -9.383084541512403
      ],
      [
        "80",
        -9.38412443896813
      ],
      [
        "hÃŃ",
        -9.384439214536425
      ],
      [
        "07",
        -9.38636492268129
      ],
      [
        "ther",
        -9.38672155320681
      ],
      [
        "âĢ¦âĢ¦",
        -9.387346264217168
      ],
      [
        "uestra",
        -9.388237356675313
      ],
      [
        "Ø£",
        -9.388388959984244
      ],
      [
        "Ġlu",
        -9.389000548511826
      ],
      [
        "You",
        -9.389808558378084
      ],
      [
        "Ġqui",
        -9.390576246879938
      ],
      [
        "Ð¼Ð½Ðµ",
        -9.392229836405441
      ],
      [
        "Ġter",
        -9.393181784121364
      ],
      [
        "ok",
        -9.393504058241941
      ],
      [
        "Ġinteres",
        -9.39377918847073
      ],
      [
        "Ø¯",
        -9.393851499035744
      ],
      [
        "ä¼ļ",
        -9.39385190663254
      ],
      [
        "kommen",
        -9.39415101829981
      ],
      [
        "ĠAl",
        -9.394469256328984
      ],
      [
        "bar",
        -9.395406773249688
      ],
      [
        "°ÑĨÐ¸Ð¸",
        -9.395920036592718
      ],
      [
        "ye",
        -9.39814582906433
      ],
      [
        "ro",
        -9.398628455202545
      ],
      [
        "Ð±ÑĭÐ»",
        -9.39907660472356
      ],
      [
        "etwa",
        -9.399572115973521
      ],
      [
        "èĩªå·±",
        -9.399621619114804
      ],
      [
        "Ġservi",
        -9.399938393783033
      ],
      [
        "ĠÐ¾Ð±",
        -9.399978327837985
      ],
      [
        "Ġblog",
        -9.401409287168281
      ],
      [
        "ĠØ§ÙĦØ¹",
        -9.401986903566863
      ],
      [
        "Ð¾Ðº",
        -9.402363338477901
      ],
      [
        "ÙĥÙħØ§",
        -9.402721275312345
      ],
      [
        "º",
        -9.40286549478172
      ],
      [
        "å¹¶",
        -9.403469799597373
      ],
      [
        "Ð¾Ð½Ð¸",
        -9.403530049136691
      ],
      [
        "à¤°à¤¤",
        -9.404976202927903
      ],
      [
        "iente",
        -9.405930235407741
      ],
      [
        "ĠCh",
        -9.408179406813238
      ],
      [
        "ĠTo",
        -9.408568033287512
      ],
      [
        "Ð¸Ñı",
        -9.408641253420795
      ],
      [
        "Ġstart",
        -9.40964390887613
      ],
      [
        "Thi",
        -9.410209490550496
      ],
      [
        "Ġmost",
        -9.413880175297884
      ],
      [
        "anto",
        -9.414270354576903
      ],
      [
        "Th",
        -9.414648669791541
      ],
      [
        "å·¥ä½ľ",
        -9.41465540293397
      ],
      [
        "self",
        -9.415699423346094
      ],
      [
        "á»ĩ",
        -9.417087118771834
      ],
      [
        "ĠÐķ",
        -9.42319823269739
      ],
      [
        "vida",
        -9.424405539688493
      ],
      [
        "ones",
        -9.424788503073437
      ],
      [
        "Ð½Ð¸Ñı",
        -9.425136525269783
      ],
      [
        "25",
        -9.425238930142141
      ],
      [
        "Ġproblem",
        -9.425419584657156
      ],
      [
        "ĳ",
        -9.425994510007648
      ],
      [
        "tter",
        -9.42614475205543
      ],
      [
        "two",
        -9.426376389893234
      ],
      [
        "!!",
        -9.427283348226082
      ],
      [
        "ning",
        -9.42903146061385
      ],
      [
        "Ġhere",
        -9.429965275572211
      ],
      [
        "ĠMe",
        -9.430320503633416
      ],
      [
        "co",
        -9.430910809461746
      ],
      [
        "ĠPer",
        -9.431179850646782
      ],
      [
        "ï¼ĮâĢľ",
        -9.431658999657369
      ],
      [
        "Ã³w",
        -9.432793851985679
      ],
      [
        "les",
        -9.434330022685876
      ],
      [
        "Ð»ÑģÑı",
        -9.434658640474625
      ],
      [
        "own",
        -9.43552051095485
      ],
      [
        "è¿Ļä¸ª",
        -9.436579755363518
      ],
      [
        "mal",
        -9.438231300963814
      ],
      [
        "rough",
        -9.438658943518288
      ],
      [
        "ÑİÑĤ",
        -9.440732578591838
      ],
      [
        "fue",
        -9.44084387188893
      ],
      [
        "Ð½Ð¾Ðµ",
        -9.441291883519131
      ],
      [
        "fach",
        -9.442341908156427
      ],
      [
        "Ġà¤µà¤",
        -9.442795179807417
      ],
      [
        "Ġprovi",
        -9.444295558006822
      ],
      [
        "Ġerst",
        -9.44451635538794
      ],
      [
        "Ïİ",
        -9.444686092662545
      ],
      [
        "ĠDo",
        -9.451313222130791
      ],
      [
        "ĠØ¥ÙĨ",
        -9.452447685751812
      ],
      [
        "ÑĤÐ¾Ð³Ð¾",
        -9.454831514324237
      ],
      [
        "çĿĢ",
        -9.455187208700421
      ],
      [
        "åħ¬åı¸",
        -9.455657702893628
      ],
      [
        "ĠØ§ÙĦØ®",
        -9.455776651934023
      ],
      [
        "ÎĹ",
        -9.45903458240051
      ],
      [
        "Ðĺ",
        -9.459346504479454
      ],
      [
        "ientes",
        -9.459841152073974
      ],
      [
        "ĠÐłÐ¾ÑģÑģÐ¸",
        -9.461226333449172
      ],
      [
        "90",
        -9.462481860523663
      ],
      [
        "Ġpas",
        -9.46290173194112
      ],
      [
        "Z",
        -9.464156687430199
      ],
      [
        "ÏīÏĤ",
        -9.465287403703176
      ],
      [
        "Ġapp",
        -9.466339452111061
      ],
      [
        "ary",
        -9.46686764836438
      ],
      [
        "amente",
        -9.467074274927405
      ],
      [
        "v",
        -9.46914273526563
      ],
      [
        "Por",
        -9.47178733880115
      ],
      [
        "ĠÑĤÐ¾Ð¼",
        -9.473224952127824
      ],
      [
        "raz",
        -9.475044557713428
      ],
      [
        "éĩĮ",
        -9.479730177100016
      ],
      [
        "çļĦæĹ¶åĢĻ",
        -9.480204294610145
      ],
      [
        "love",
        -9.481576912821934
      ],
      [
        "www",
        -9.482177148109463
      ],
      [
        "Ġcome",
        -9.482227338693955
      ],
      [
        "arios",
        -9.483445367320384
      ],
      [
        "ä½Ĩæĺ¯",
        -9.483654756663174
      ],
      [
        "http",
        -9.48382300295234
      ],
      [
        "Ġ0",
        -9.484560826764227
      ],
      [
        "ĠSi",
        -9.4850052410294
      ],
      [
        "Ø¥Ø°Ø§",
        -9.48537645762004
      ],
      [
        "ĠÑĤÑĭ",
        -9.485697511475172
      ],
      [
        "ØªÙĩØ§",
        -9.487919429659271
      ],
      [
        "ĠØ§ÙĦØ¹Ø§Ùħ",
        -9.48811228282544
      ],
      [
        "ĠBu",
        -9.48871129216005
      ],
      [
        "æ²¡æľī",
        -9.489582313636133
      ],
      [
        "ÑĤÐ¾Ð¼Ñĥ",
        -9.489956616012876
      ],
      [
        "Ġpresent",
        -9.491939733343482
      ],
      [
        "ÙĬÙĥÙĪÙĨ",
        -9.492177657989684
      ],
      [
        "ĠÐ¢",
        -9.492674490575363
      ],
      [
        "Ġta",
        -9.492916937210818
      ],
      [
        "04",
        -9.49363087989707
      ],
      [
        "ĠÑĩÐµÐ¼",
        -9.494212277454306
      ],
      [
        "03",
        -9.495126546825567
      ],
      [
        "sible",
        -9.496238238137563
      ],
      [
        "ÄĲ",
        -9.497496324580789
      ],
      [
        "å¥½",
        -9.497590203847551
      ],
      [
        "áº·",
        -9.497633026767398
      ],
      [
        "Ð½Ð¸",
        -9.498224200972018
      ],
      [
        "otra",
        -9.49901982144053
      ],
      [
        "Ġdur",
        -9.502396602106538
      ],
      [
        "Ġsegu",
        -9.50263862689051
      ],
      [
        "find",
        -9.503166614724996
      ],
      [
        "Æ°Æ¡ng",
        -9.50413265096529
      ],
      [
        "ÙĦÙī",
        -9.505665459377282
      ],
      [
        "ĠDer",
        -9.505752673590646
      ],
      [
        "ĠÐ¸Ð¼Ðµ",
        -9.506102169991756
      ],
      [
        "Ð²",
        -9.506506313636827
      ],
      [
        "ĠÙĩÙĬ",
        -9.507190642146737
      ],
      [
        "à¤°à¤",
        -9.507500339765766
      ],
      [
        "Ã½",
        -9.508400757584088
      ],
      [
        "Ein",
        -9.509358434343286
      ],
      [
        "åĲ§",
        -9.51036039243509
      ],
      [
        "ĠVor",
        -9.510372546153839
      ],
      [
        "quÃ©",
        -9.51039218379872
      ],
      [
        "ĠØ¹ÙĨØ¯",
        -9.510955831871575
      ],
      [
        "hnen",
        -9.511112140659526
      ],
      [
        "ÙģÙĬ",
        -9.512135635673788
      ],
      [
        "and",
        -9.51315160982198
      ],
      [
        "Un",
        -9.51322792495827
      ],
      [
        "Ø§ÙĦÙĬÙĪÙħ",
        -9.514110482110476
      ],
      [
        "Ġdeb",
        -9.515789115115998
      ],
      [
        "ĠÐŃ",
        -9.516391587478
      ],
      [
        "ÐµÑīÐµ",
        -9.516543986919977
      ],
      [
        "à¤ıà¤ķ",
        -9.51745356523446
      ],
      [
        "after",
        -9.51804883164258
      ],
      [
        "Ġcontra",
        -9.51923315088311
      ],
      [
        "ah",
        -9.520673481071928
      ],
      [
        "Î¹",
        -9.520684007834218
      ],
      [
        "anz",
        -9.521619366220456
      ],
      [
        "Ġbec",
        -9.522639715978325
      ],
      [
        "ÃŃs",
        -9.522994822210773
      ],
      [
        "amiento",
        -9.523410964659671
      ],
      [
        "ter",
        -9.524462227644255
      ],
      [
        "bei",
        -9.524717340400219
      ],
      [
        "ï¼ŁâĢĿ",
        -9.52495820903869
      ],
      [
        "ktÃ³r",
        -9.525226486023056
      ],
      [
        "Ġfin",
        -9.525436960875105
      ],
      [
        "Ø¬ÙħÙĬØ¹",
        -9.525491253840016
      ],
      [
        ">",
        -9.525717886700413
      ],
      [
        "Ġmis",
        -9.525751328030276
      ],
      [
        "enn",
        -9.52630863393015
      ],
      [
        "des",
        -9.526427738838185
      ],
      [
        "Ġà¤¦à¤",
        -9.527749915310318
      ],
      [
        "Ġj",
        -9.52884767442232
      ],
      [
        "ĠÙĤØ¯",
        -9.528996952994541
      ],
      [
        "ĠÑĩÐµÐ»Ð¾Ð²ÐµÐº",
        -9.529037856944536
      ],
      [
        "ĠÐ²Ð¾",
        -9.53250720288829
      ],
      [
        "ÑĥÑĤ",
        -9.53303062989924
      ],
      [
        "ways",
        -9.533518403650115
      ],
      [
        "éĤ£",
        -9.533979421464423
      ],
      [
        "24",
        -9.534180853278633
      ],
      [
        "Ġresult",
        -9.534579999006192
      ],
      [
        "puesto",
        -9.535323745769778
      ],
      [
        "nia",
        -9.537353800840679
      ],
      [
        "Ġop",
        -9.537726734752928
      ],
      [
        "Ø§ÙĦÙī",
        -9.538241671163803
      ],
      [
        "Ġgan",
        -9.538474204992035
      ],
      [
        "ĠÐĿÐ¾",
        -9.539275885234822
      ],
      [
        "Î´ÎµÎ½",
        -9.54000641737711
      ],
      [
        "ĥ",
        -9.540135908991676
      ],
      [
        "gi",
        -9.541304970357643
      ],
      [
        "ÐºÐµ",
        -9.54175517131999
      ],
      [
        "Ġ21",
        -9.5425917967687
      ],
      [
        "05",
        -9.54262530833806
      ],
      [
        "io",
        -9.54422138258181
      ],
      [
        "cciÃ³n",
        -9.544344280127156
      ],
      [
        "ÙĥÙħ",
        -9.544356325186373
      ],
      [
        "id",
        -9.545051856432465
      ],
      [
        "ero",
        -9.545626948478287
      ],
      [
        "Â».",
        -9.545806812429106
      ],
      [
        "ÙĬÙħÙĥÙĨ",
        -9.546729215972105
      ],
      [
        "ħ",
        -9.546753109755743
      ],
      [
        "Ð½Ð¾ÑģÑĤÑĮ",
        -9.546974403295117
      ],
      [
        "tas",
        -9.547140525533406
      ],
      [
        "Æ¡",
        -9.547221892122115
      ],
      [
        "ant",
        -9.54766441773224
      ],
      [
        "ĠÐ½ÑĥÐ¶",
        -9.548067335477125
      ],
      [
        "Ġpi",
        -9.550354986200258
      ],
      [
        "åĲĹ",
        -9.553146524433016
      ],
      [
        "Ø¬Ø¯ÙĬØ¯",
        -9.553450762910561
      ],
      [
        "Ġ50",
        -9.554271511755465
      ],
      [
        "ÙĩÙĦ",
        -9.55450372371752
      ],
      [
        "the",
        -9.554643737332215
      ],
      [
        "02",
        -9.556566731263825
      ],
      [
        "åı¯ä»¥",
        -9.557490620693011
      ],
      [
        "life",
        -9.55842142746262
      ],
      [
        "Ġexperi",
        -9.558706519542318
      ],
      [
        "Ġtip",
        -9.558754104158531
      ],
      [
        "site",
        -9.559180012253893
      ],
      [
        "Ġrec",
        -9.560060485174791
      ],
      [
        "áº",
        -9.560371153871847
      ],
      [
        "dy",
        -9.562179163707903
      ],
      [
        "ÏĦÎ¿ÏħÏĤ",
        -9.562311774735846
      ],
      [
        "Ġmeng",
        -9.56255979941092
      ],
      [
        "Ġsuper",
        -9.562798848978968
      ],
      [
        "70",
        -9.563273007045883
      ],
      [
        "Ġcha",
        -9.564315550818701
      ],
      [
        "Ġchá»",
        -9.566591351152967
      ],
      [
        "åĳ¢",
        -9.567254570919637
      ],
      [
        "Ġngh",
        -9.567693837785644
      ],
      [
        "è¿ĺ",
        -9.567856870153086
      ],
      [
        "Ġpersonal",
        -9.568163337380101
      ],
      [
        "Ġhel",
        -9.568643508052135
      ],
      [
        "ĠØ£ÙĬ",
        -9.571940261187889
      ],
      [
        "ÏĥÎ·",
        -9.572326157406382
      ],
      [
        "Ġday",
        -9.572655883487478
      ],
      [
        "De",
        -9.573767840886703
      ],
      [
        "ä¸ĭ",
        -9.574721888938909
      ],
      [
        "21",
        -9.574735465987585
      ],
      [
        "leri",
        -9.577476459491162
      ],
      [
        "45",
        -9.57826349408584
      ],
      [
        "å°±æĺ¯",
        -9.578750060559365
      ],
      [
        "place",
        -9.58305900145459
      ],
      [
        "ĠØ¹Ø§Ùħ",
        -9.584239735533146
      ],
      [
        "ĠÐ²Ð¾Ð¿ÑĢÐ¾Ñģ",
        -9.585075466427451
      ],
      [
        "Wir",
        -9.585411534183281
      ],
      [
        "Äĥn",
        -9.58615427183779
      ],
      [
        "Ã¹",
        -9.586184782281917
      ],
      [
        "ÄĻ",
        -9.586906646818399
      ],
      [
        "ak",
        -9.587569529175436
      ],
      [
        "atika",
        -9.587676381064938
      ],
      [
        "Ġoff",
        -9.587983856265652
      ],
      [
        "Ðķ",
        -9.588112311118355
      ],
      [
        "orang",
        -9.588785765901106
      ],
      [
        "To",
        -9.589787862620737
      ],
      [
        "dapat",
        -9.589820936076924
      ],
      [
        "35",
        -9.589963108954597
      ],
      [
        "ĠÙĤØ¨ÙĦ",
        -9.58998205264593
      ],
      [
        "è¿Ľè¡Į",
        -9.590175079483961
      ],
      [
        "Ġli",
        -9.590673616920865
      ],
      [
        "her",
        -9.591682304117128
      ],
      [
        "eden",
        -9.592078602745042
      ],
      [
        "ji",
        -9.592258738427027
      ],
      [
        "ĠÙĪÙĬ",
        -9.592902325664857
      ],
      [
        "tu",
        -9.593096450671336
      ],
      [
        "side",
        -9.593336620638308
      ],
      [
        "X",
        -9.594096425595678
      ],
      [
        "ÙĬØ«",
        -9.5944085978252
      ],
      [
        "Re",
        -9.594535807450102
      ],
      [
        "Ã¡ch",
        -9.595337027233734
      ],
      [
        "iá»ģ",
        -9.595537441559312
      ],
      [
        "Ð½ÑĭÐ¼",
        -9.597176840714708
      ],
      [
        "ÙħØŃÙħØ¯",
        -9.597306629315945
      ],
      [
        "!!!",
        -9.598291567943146
      ],
      [
        "tar",
        -9.598478098138779
      ],
      [
        "ÙĬÙĪÙħ",
        -9.598633446958974
      ],
      [
        "end",
        -9.59906826913207
      ],
      [
        "ĠÙĦÙĩ",
        -9.599143439231973
      ],
      [
        "Al",
        -9.599340908467473
      ],
      [
        "à¤£",
        -9.59967098561063
      ],
      [
        "dan",
        -9.602356289235555
      ],
      [
        "Ġci",
        -9.602789265992227
      ],
      [
        "He",
        -9.603143797073106
      ],
      [
        "ÐµÐ±Ðµ",
        -9.60362283959954
      ],
      [
        "Ġtra",
        -9.604554848632397
      ],
      [
        "rÃ¡n",
        -9.605407815139724
      ],
      [
        "ĠØ¬",
        -9.606964226733451
      ],
      [
        "round",
        -9.607222550818008
      ],
      [
        "åıĬ",
        -9.608394988491982
      ],
      [
        "Ġsistem",
        -9.609603180314528
      ],
      [
        "ĠÄ°",
        -9.611627839446998
      ],
      [
        "ound",
        -9.612058456863663
      ],
      [
        "§",
        -9.612089241424252
      ],
      [
        "Ġ22",
        -9.612106548719659
      ],
      [
        "ĠÑģÐ»ÑĥÑĩÐ°",
        -9.61312869011519
      ],
      [
        "Ġidea",
        -9.613731101411119
      ],
      [
        "22",
        -9.613901665208497
      ],
      [
        "cie",
        -9.613953730446624
      ],
      [
        "åĽłä¸º",
        -9.614261776890363
      ],
      [
        "Ġtan",
        -9.614653179529528
      ],
      [
        "ible",
        -9.616568868255344
      ],
      [
        "ĠÐ±ÐµÐ·",
        -9.617228570699565
      ],
      [
        "Ĥ",
        -9.617270159481572
      ],
      [
        "ĠJa",
        -9.61803749894988
      ],
      [
        "ÐµÐ½Ð¸Ð¹",
        -9.618869083345635
      ],
      [
        "»¯",
        -9.619405250247242
      ],
      [
        "ĠAus",
        -9.620174164205956
      ],
      [
        "Ãłn",
        -9.620237246689513
      ],
      [
        "Å¼",
        -9.621217864599807
      ],
      [
        "Ð»Ð°ÑģÑĮ",
        -9.621476230325795
      ],
      [
        "Ġactual",
        -9.622995428943106
      ],
      [
        "ved",
        -9.623234863549774
      ],
      [
        "llte",
        -9.625253737906773
      ],
      [
        "ä¸ª",
        -9.625262039584236
      ],
      [
        "Ð½ÑĥÑİ",
        -9.626388915704652
      ],
      [
        "undo",
        -9.626566779777832
      ],
      [
        "ĠØµ",
        -9.627123810450453
      ],
      [
        "åı¯",
        -9.627576057527541
      ],
      [
        "idos",
        -9.62769772300466
      ],
      [
        "ÙħØ«ÙĦ",
        -9.630030689241524
      ],
      [
        "Ġpre",
        -9.63022941668412
      ],
      [
        "ries",
        -9.63079967715069
      ],
      [
        "Î¿ÏĤ",
        -9.63155038055412
      ],
      [
        "ĠDan",
        -9.631752583774597
      ],
      [
        "Ġrela",
        -9.633076899578137
      ],
      [
        ":)",
        -9.633789755666266
      ],
      [
        "ĠÐŁÐ¾",
        -9.633793225954062
      ],
      [
        "tions",
        -9.6344314983217
      ],
      [
        "Ġsea",
        -9.63449085193759
      ],
      [
        "Ġcar",
        -9.635308307007445
      ],
      [
        "Ġdar",
        -9.635465844349277
      ],
      [
        "å¦Ĥæŀľ",
        -9.635489411030765
      ],
      [
        "tivo",
        -9.636074521132528
      ],
      [
        "ÙĪÙĬ",
        -9.636157865990485
      ],
      [
        "ÙĬØ§Øª",
        -9.636349071173898
      ],
      [
        "âĢĿ.",
        -9.636370929542512
      ],
      [
        "Ġpos",
        -9.637289036389978
      ],
      [
        "cias",
        -9.638211190289073
      ],
      [
        "Ġng",
        -9.638566048436404
      ],
      [
        "å¤ļ",
        -9.639158531001009
      ],
      [
        "Ð»Ð¸ÑģÑĮ",
        -9.63942302965181
      ],
      [
        "ĠÐĿÐµ",
        -9.640489400302291
      ],
      [
        "ĠÐ½Ð¸",
        -9.64055493805068
      ],
      [
        "Ġgran",
        -9.640885106700837
      ],
      [
        "Ð°Ðº",
        -9.641162559448148
      ],
      [
        "ĠÙĪÙĦØ§",
        -9.642672326656028
      ],
      [
        "but",
        -9.643398558218845
      ],
      [
        "ĠX",
        -9.647361859449488
      ],
      [
        "ĠÏĦÎ¹",
        -9.648644612670413
      ],
      [
        "ĠÐ»Ð¸",
        -9.64991802726643
      ],
      [
        "Ġvisit",
        -9.650174345919728
      ],
      [
        "01",
        -9.650214849766867
      ],
      [
        "à¤Ĩ",
        -9.650297885022278
      ],
      [
        "hÆ°",
        -9.650389760691207
      ],
      [
        "Ġfinal",
        -9.650843849000717
      ],
      [
        "Ð¸Ð»",
        -9.650879328152977
      ],
      [
        "Ø±ÙĥØ©",
        -9.651444387089906
      ],
      [
        "ought",
        -9.652076531439393
      ],
      [
        "main",
        -9.652186622875533
      ],
      [
        "ĠÎº",
        -9.654686686439613
      ],
      [
        "Ġplay",
        -9.654912174839172
      ],
      [
        "ĠÙĥ",
        -9.655443918908068
      ],
      [
        "eÅĦ",
        -9.655465482848706
      ],
      [
        "500",
        -9.65552252269925
      ],
      [
        "ĠØ§ÙĦØ±",
        -9.659824036090463
      ],
      [
        "Ġst",
        -9.66007255574934
      ],
      [
        "ÑİÑĤÑģÑı",
        -9.660603953499127
      ],
      [
        "ĠØºÙĬØ±",
        -9.660726447351891
      ],
      [
        "Ġdir",
        -9.660964435920807
      ],
      [
        "çĶ¨",
        -9.663165334866113
      ],
      [
        "ĠZu",
        -9.663787157975875
      ],
      [
        "still",
        -9.663882986838624
      ],
      [
        "ĠØ§ÙĦØ¬",
        -9.664029254672835
      ],
      [
        "Ø´ÙĥÙĦ",
        -9.664179274888806
      ],
      [
        "nin",
        -9.664391184564503
      ],
      [
        "sten",
        -9.664835378083737
      ],
      [
        "alles",
        -9.664896862717224
      ],
      [
        "same",
        -9.66571274484696
      ],
      [
        "Ġmas",
        -9.66581895018041
      ],
      [
        "ida",
        -9.66620515629864
      ],
      [
        "ĠHo",
        -9.669119690771298
      ],
      [
        "Ã¢y",
        -9.669368095872505
      ],
      [
        "ĠÑĢÐµÑĪ",
        -9.670191452373759
      ],
      [
        "Ð¼",
        -9.670487904180058
      ],
      [
        "ÐŁ",
        -9.670583838344976
      ],
      [
        "enta",
        -9.670932300109682
      ],
      [
        "Ø°",
        -9.671169182908864
      ],
      [
        "åıĪ",
        -9.671515287329573
      ],
      [
        "point",
        -9.671710372688509
      ],
      [
        "=",
        -9.67180732773699
      ],
      [
        "æīĢä»¥",
        -9.672335600108052
      ],
      [
        "Me",
        -9.672491767854114
      ],
      [
        "Ġest",
        -9.672996129546908
      ],
      [
        "jadi",
        -9.673102133279126
      ],
      [
        "Ãªn",
        -9.674443071540495
      ],
      [
        "Ġsocial",
        -9.67492005318512
      ],
      [
        "æĸ°",
        -9.67511938602323
      ],
      [
        "Ġcrea",
        -9.676522665482164
      ],
      [
        "ĠQu",
        -9.677278836357857
      ],
      [
        "Ġ23",
        -9.677751898178451
      ],
      [
        "Qu",
        -9.677837122165446
      ],
      [
        "Bu",
        -9.677864877593633
      ],
      [
        "ĠÏĦÎ·",
        -9.678040909596266
      ],
      [
        "ĠØ§ÙĦØ¹ÙħÙĦ",
        -9.678486788086552
      ],
      [
        "tau",
        -9.678642888783704
      ],
      [
        "ÑģÑĮ",
        -9.67920746250139
      ],
      [
        "Ġgeh",
        -9.67946039407045
      ],
      [
        "ĠÐ·Ð½Ð°",
        -9.679675298493823
      ],
      [
        "made",
        -9.680610399382811
      ],
      [
        "ance",
        -9.681205563470623
      ],
      [
        "mu",
        -9.682997586639067
      ],
      [
        "ÑĮÑİ",
        -9.683000170347892
      ],
      [
        "Ġkon",
        -9.683118318852879
      ],
      [
        "Ġtá",
        -9.683543557949822
      ],
      [
        "åķĬ",
        -9.683664363836245
      ],
      [
        "Ġhome",
        -9.68599551530619
      ],
      [
        "An",
        -9.686338877514107
      ],
      [
        "Ġag",
        -9.686904020176252
      ],
      [
        "Ġva",
        -9.686942625359727
      ],
      [
        "many",
        -9.686994724043462
      ],
      [
        "ous",
        -9.687039665701388
      ],
      [
        "ĠÙĪØª",
        -9.687679911104338
      ],
      [
        "¾",
        -9.687765150541953
      ],
      [
        "ron",
        -9.688065221111621
      ],
      [
        "cuent",
        -9.68948540917784
      ],
      [
        "ĠÐ½ÐµÑĤ",
        -9.689800311035974
      ],
      [
        "æĬĬ",
        -9.690088577195073
      ],
      [
        "ze",
        -9.690368338611025
      ],
      [
        "by",
        -9.6904067538363
      ],
      [
        "Ġsal",
        -9.691046412396007
      ],
      [
        "edad",
        -9.691275292467964
      ],
      [
        "Wh",
        -9.691967711195488
      ],
      [
        "å·²ç»ı",
        -9.692495647595917
      ],
      [
        "40",
        -9.692851623003902
      ],
      [
        "machen",
        -9.694379950528578
      ],
      [
        "Ġpoc",
        -9.694619975875414
      ],
      [
        "view",
        -9.69493103836617
      ],
      [
        "ÙĨÙĬ",
        -9.69558630910937
      ],
      [
        "Ġgot",
        -9.695697605352155
      ],
      [
        "éģĵ",
        -9.696103358345125
      ],
      [
        "ext",
        -9.69778466382294
      ],
      [
        "rincip",
        -9.697823471469135
      ],
      [
        "information",
        -9.698385178122642
      ],
      [
        "Ġdown",
        -9.700040838876303
      ],
      [
        "res",
        -9.700453237091013
      ],
      [
        "Ĺ",
        -9.700553776536854
      ],
      [
        "Ø£ÙĥØ«Ø±",
        -9.701204709015897
      ],
      [
        "23",
        -9.702098924699154
      ],
      [
        "evo",
        -9.703006798975437
      ],
      [
        "--",
        -9.703462714825
      ],
      [
        "ä¼ģä¸ļ",
        -9.704291897368272
      ],
      [
        "ven",
        -9.704424201340561
      ],
      [
        "Ð»ÑİÐ´",
        -9.704949543078577
      ],
      [
        "ÙĦØ§",
        -9.705533398872653
      ],
      [
        "Ġgra",
        -9.706031185243642
      ],
      [
        "ÙħØ©",
        -9.707278062973245
      ],
      [
        "Ġset",
        -9.70777690383629
      ],
      [
        "ĠÑĤÐµÐ¼",
        -9.709005403716601
      ],
      [
        "Ø±Ø©",
        -9.709716610997189
      ],
      [
        "ï¼ģâĢĿ",
        -9.710297126891362
      ],
      [
        "ĠTr",
        -9.710511946029282
      ],
      [
        "nun",
        -9.711457963406845
      ],
      [
        "Ġsab",
        -9.711796199744366
      ],
      [
        "ç¾İåĽ½",
        -9.712898422293245
      ],
      [
        "cios",
        -9.713196469385313
      ],
      [
        "tros",
        -9.713812218343095
      ],
      [
        "¹",
        -9.714056071213822
      ],
      [
        "je",
        -9.71421909069294
      ],
      [
        "çļĦäºº",
        -9.716053926017798
      ],
      [
        "Ð½Ðµ",
        -9.718199282631293
      ],
      [
        "aje",
        -9.718788602905821
      ],
      [
        "Ð¾Ð²Ð°Ð½Ð¸Ñı",
        -9.718849125208072
      ],
      [
        "ana",
        -9.721085964573172
      ],
      [
        "ĠCo",
        -9.72183466095471
      ],
      [
        "such",
        -9.722361591469422
      ],
      [
        "ding",
        -9.724778816666417
      ],
      [
        "Ġdeci",
        -9.726517733667128
      ],
      [
        "Å",
        -9.72693543099931
      ],
      [
        "ÙĥØ§ÙĨØª",
        -9.727225613899554
      ],
      [
        "hose",
        -9.728899785892626
      ],
      [
        "Ġpr",
        -9.72907217715197
      ],
      [
        "Ġinforma",
        -9.729297650826227
      ],
      [
        "Ð¾Ð¼Ñĥ",
        -9.73089311925521
      ],
      [
        "ĠÐ»ÑİÐ±",
        -9.733404977349393
      ],
      [
        "°",
        -9.73355933553639
      ],
      [
        "ÑģÐºÐ¾Ð¹",
        -9.734443330426691
      ],
      [
        "high",
        -9.7344852044618
      ],
      [
        "å¤©",
        -9.734651877986117
      ],
      [
        "less",
        -9.734817099211286
      ],
      [
        "ko",
        -9.734914279509054
      ],
      [
        "ĠÐ£",
        -9.735489560827444
      ],
      [
        "à¤¨à¤",
        -9.736182529484775
      ],
      [
        "Ġactiv",
        -9.737061174753405
      ],
      [
        "ga",
        -9.737067574695741
      ],
      [
        "esto",
        -9.738496540554088
      ],
      [
        "Ġtru",
        -9.739818569827202
      ],
      [
        "Ġpublic",
        -9.74087848181249
      ],
      [
        "ÑĨÐ¸Ð¸",
        -9.742389001717132
      ],
      [
        "udah",
        -9.742576953779784
      ],
      [
        "quÃŃ",
        -9.744547239259461
      ],
      [
        "nde",
        -9.745832960410382
      ],
      [
        "»«",
        -9.745851230754983
      ],
      [
        "ÙĬÙĩ",
        -9.745919240309936
      ],
      [
        "ÐĿÐ°",
        -9.746808412483217
      ],
      [
        "äºİ",
        -9.747203495917663
      ],
      [
        "Ðº",
        -9.74772900935698
      ],
      [
        "pm",
        -9.74793461052964
      ],
      [
        "til",
        -9.74842014386412
      ],
      [
        "gain",
        -9.748929063668138
      ],
      [
        "Ã¢",
        -9.749557646049187
      ],
      [
        "Ġcomplet",
        -9.750295985996804
      ],
      [
        "show",
        -9.750600041614637
      ],
      [
        "ite",
        -9.751428931910395
      ],
      [
        "each",
        -9.753257914863081
      ],
      [
        "Ø§Ø±Ø©",
        -9.75421422621404
      ],
      [
        "ĠØ§ÙĦØ£ÙĪÙĦ",
        -9.754573425505757
      ],
      [
        "ĠØ¹Ø¨Ø¯",
        -9.754615091678952
      ],
      [
        "ÙĥØ¨ÙĬØ±",
        -9.755400566846065
      ],
      [
        "ienen",
        -9.755524223713067
      ],
      [
        "ÐºÑĤÐ¾",
        -9.755655835719663
      ],
      [
        "ĠØ§ÙĦØ¯ÙĪÙĦ",
        -9.75630703431313
      ],
      [
        "ĠÐ±Ð¾Ð»Ðµ",
        -9.756845878513882
      ],
      [
        "ĠØ±Ø¯",
        -9.7577029391437
      ],
      [
        "algo",
        -9.757900092504455
      ],
      [
        "ĠÐ»ÐµÑĤ",
        -9.758018921571745
      ],
      [
        "Ġdos",
        -9.758070190676596
      ],
      [
        "inem",
        -9.759017481135094
      ],
      [
        "à¤µà¤",
        -9.759426903283723
      ],
      [
        "Ġbar",
        -9.760057297228132
      ],
      [
        "eute",
        -9.760375205422033
      ],
      [
        "Ļ",
        -9.760933504836695
      ],
      [
        "ember",
        -9.76101910045077
      ],
      [
        "ischen",
        -9.761567921051585
      ],
      [
        "ĠÐ¾Ð±ÑĢÐ°Ð·",
        -9.761683486971974
      ],
      [
        "Ġsent",
        -9.762397709868653
      ],
      [
        "ĠDE",
        -9.762848206921966
      ],
      [
        "ĠØ§ÙĦÙĨ",
        -9.762861273906248
      ],
      [
        "ÙĬØ±Ø©",
        -9.763692358107079
      ],
      [
        "ĠcÃ¡",
        -9.763732302079106
      ],
      [
        "ÑĭÐ¼",
        -9.763779621090134
      ],
      [
        "ØªÙĥÙĪÙĨ",
        -9.763793037890496
      ],
      [
        "ĠÐ¶Ð¸Ð·Ð½",
        -9.764318348965604
      ],
      [
        "ĠØ¹ÙħÙĦ",
        -9.764948922203917
      ],
      [
        "ĠÐĿÐ°",
        -9.766736019533548
      ],
      [
        "ugar",
        -9.766943110019412
      ],
      [
        "çİ°åľ¨",
        -9.768537393098994
      ],
      [
        "low",
        -9.768562486802955
      ],
      [
        "finden",
        -9.768860090763898
      ],
      [
        "ittle",
        -9.768920487459642
      ],
      [
        "á»£",
        -9.768947556347594
      ],
      [
        "Ø¯Ùī",
        -9.769393697217756
      ],
      [
        "ĠÐ¿ÐµÑĢÐµ",
        -9.770442648429793
      ],
      [
        "ĠVi",
        -9.77071307572169
      ],
      [
        "ayuda",
        -9.771141477849401
      ],
      [
        "Ġcambi",
        -9.771208325973552
      ],
      [
        "yo",
        -9.771360315733945
      ],
      [
        "60",
        -9.771505558213537
      ],
      [
        "Ġtotal",
        -9.772298347177017
      ],
      [
        "change",
        -9.773831845253534
      ],
      [
        "aja",
        -9.77421402496958
      ],
      [
        "chen",
        -9.77470914561286
      ],
      [
        "ig",
        -9.775342824217224
      ],
      [
        "sem",
        -9.775727256912182
      ],
      [
        "up",
        -9.775792932005785
      ],
      [
        "Ġinter",
        -9.776076094491266
      ],
      [
        "Ġthu",
        -9.776103516360026
      ],
      [
        "fern",
        -9.776974463468415
      ],
      [
        "ĠÐ´Ð¾Ð»Ð¶Ð½",
        -9.777421436862676
      ],
      [
        "Ġperson",
        -9.777860694068611
      ],
      [
        "aya",
        -9.7780760081839
      ],
      [
        "ĠØ³ÙĬ",
        -9.779260718274077
      ],
      [
        "ĠÐ¼ÐµÑģÑĤ",
        -9.779851372095374
      ],
      [
        "ĠThi",
        -9.780820433521509
      ],
      [
        "ÙĪÙĦÙĥÙĨ",
        -9.78248927492446
      ],
      [
        "Ġobje",
        -9.782566663483522
      ],
      [
        "online",
        -9.782944282449439
      ],
      [
        "orden",
        -9.783324612416036
      ],
      [
        "Ðľ",
        -9.7836183560472
      ],
      [
        "follow",
        -9.783855664061852
      ],
      [
        "arse",
        -9.78452010296163
      ],
      [
        "Ġfun",
        -9.78586919767625
      ],
      [
        "cil",
        -9.78734313073185
      ],
      [
        "Ġwy",
        -9.787487110417779
      ],
      [
        "à¤¸à¤®",
        -9.787566519302352
      ],
      [
        "ĠÎ¼Î±",
        -9.789229245137554
      ],
      [
        "à¤ģ",
        -9.789422253140824
      ],
      [
        "ÐµÑĤÐµ",
        -9.790171866959534
      ],
      [
        "è¿ĺæĺ¯",
        -9.791409007063008
      ],
      [
        "á»ģn",
        -9.794798826254441
      ],
      [
        "alidad",
        -9.795425900486421
      ],
      [
        "ĠÃ§o",
        -9.797087994196433
      ],
      [
        "lichen",
        -9.7972631979561
      ],
      [
        "asi",
        -9.797434458216538
      ],
      [
        "Ù",
        -9.79833185752239
      ],
      [
        "ÐĶ",
        -9.7983758011351
      ],
      [
        "Ð¸ÑĤ",
        -9.798801877782315
      ],
      [
        "Ð¯",
        -9.798958698878723
      ],
      [
        "ĠFrag",
        -9.799428319841235
      ],
      [
        "leicht",
        -9.799479405109993
      ],
      [
        "ĠPa",
        -9.799990078689476
      ],
      [
        "Ġpar",
        -9.800519028592952
      ],
      [
        "ÐŁÐ¾",
        -9.801004355156325
      ],
      [
        "Ch",
        -9.80180079108688
      ],
      [
        "à¤ħà¤ª",
        -9.802803612184679
      ],
      [
        "ÐµÐ½",
        -9.803182843555971
      ],
      [
        "come",
        -9.803414183583502
      ],
      [
        "26",
        -9.803865712196094
      ],
      [
        "28",
        -9.804700608964376
      ],
      [
        "Ġru",
        -9.805247498116717
      ],
      [
        "Las",
        -9.805442525136224
      ],
      [
        "ania",
        -9.807134498177202
      ],
      [
        "differen",
        -9.807327783644485
      ],
      [
        "ĠÐ§",
        -9.807941105587611
      ],
      [
        "tor",
        -9.8082489712868
      ],
      [
        "Ġsp",
        -9.808481247002382
      ],
      [
        "hile",
        -9.80869756680078
      ],
      [
        "Ġlot",
        -9.808787436781168
      ],
      [
        "ĠÎ¿Î¹",
        -9.809434649776106
      ],
      [
        "27",
        -9.809592089911606
      ],
      [
        "ä»¥åıĬ",
        -9.809799261767692
      ],
      [
        "quir",
        -9.810157549989881
      ],
      [
        "weil",
        -9.81020390511504
      ],
      [
        "ĠØ§ÙĦØ¹Ø§ÙĦÙħ",
        -9.810381670953994
      ],
      [
        "And",
        -9.810569472214537
      ],
      [
        "è¿ĩ",
        -9.811110298933809
      ],
      [
        "Ġsol",
        -9.811313018984208
      ],
      [
        "ĠÑģÐ»ÐµÐ´Ñĥ",
        -9.811665237303306
      ],
      [
        "tzt",
        -9.813155902976504
      ],
      [
        "ol",
        -9.813353363943573
      ],
      [
        "Ø¹Ø¯Ø¯",
        -9.813550056221787
      ],
      [
        "ÑĤÐµÐ»ÑĮÐ½Ð¾",
        -9.814188639567401
      ],
      [
        "juga",
        -9.8143894347253
      ],
      [
        "ÐµÐ½Ð¸Ñİ",
        -9.815083510422701
      ],
      [
        "ĠgroÃŁ",
        -9.815790310145047
      ],
      [
        "Ø·Ø±ÙĬÙĤ",
        -9.816069247650733
      ],
      [
        "ĠJu",
        -9.816564312186138
      ],
      [
        "ella",
        -9.816606405813717
      ],
      [
        "à¤ĺ",
        -9.817136398802
      ],
      [
        "âĢĿï¼Į",
        -9.818804879416563
      ],
      [
        "Ġsub",
        -9.818887546944648
      ],
      [
        "ĠMenschen",
        -9.81961461952827
      ],
      [
        "Ø¹Ø©",
        -9.820063139036373
      ],
      [
        "Ø±Ø¦ÙĬØ³",
        -9.820292565697562
      ],
      [
        "ÑģÐºÐ°Ð·Ð°Ð»",
        -9.820473801073279
      ],
      [
        "áº©",
        -9.821620521032283
      ],
      [
        "Ġpreci",
        -9.82215690510344
      ],
      [
        "tÃ¡n",
        -9.822226798097558
      ],
      [
        "ÙĦÙĩØ§",
        -9.822372185873256
      ],
      [
        "Ã§",
        -9.822493618738589
      ],
      [
        "tan",
        -9.822764527104926
      ],
      [
        "Ġconsider",
        -9.823197592343407
      ],
      [
        "ĠÐ¿ÐµÑĢÐ²",
        -9.824246722946313
      ],
      [
        "éĢļè¿ĩ",
        -9.824289615688155
      ],
      [
        "solo",
        -9.8246355220236
      ],
      [
        "red",
        -9.825793441431628
      ],
      [
        "å®ĥ",
        -9.825907803918565
      ],
      [
        "Ġgeneral",
        -9.82685228307641
      ],
      [
        "business",
        -9.827052076140928
      ],
      [
        "nte",
        -9.828852183623326
      ],
      [
        "ĠÐĴÑĭ",
        -9.828951911755563
      ],
      [
        "ĠSt",
        -9.829160417390707
      ],
      [
        "à¤²à¤",
        -9.829521370538362
      ],
      [
        "Â¡",
        -9.830295861858477
      ],
      [
        "çĤ¹",
        -9.830394433750154
      ],
      [
        "cy",
        -9.830658541017506
      ],
      [
        "ĠNam",
        -9.830912045053534
      ],
      [
        "ĠKe",
        -9.832722371397747
      ],
      [
        "åħ¶",
        -9.832819564161785
      ],
      [
        "ĠØ§ÙĦØ¹Ø±Ø¨",
        -9.83283516960417
      ],
      [
        "ÑģÑĤÐ²Ð°",
        -9.83290343107843
      ],
      [
        "à¤ķà¤",
        -9.833108953321076
      ],
      [
        "it",
        -9.833763922838685
      ],
      [
        "ÎŁ",
        -9.834302681599281
      ],
      [
        "ĠJahre",
        -9.835131211076963
      ],
      [
        "ities",
        -9.835579392177772
      ],
      [
        "dad",
        -9.835716380924339
      ],
      [
        "Ġselbst",
        -9.836860671788955
      ],
      [
        "world",
        -9.838281934839733
      ],
      [
        "them",
        -9.83832907034238
      ],
      [
        "leh",
        -9.838867368801917
      ],
      [
        "Ø¹",
        -9.839909443238874
      ],
      [
        "Ã»",
        -9.84025354111432
      ],
      [
        "Ã±o",
        -9.840882324593611
      ],
      [
        "è¿ĻäºĽ",
        -9.841465920295896
      ],
      [
        "dla",
        -9.841577739659485
      ],
      [
        "Ġeigen",
        -9.841617789128694
      ],
      [
        "lick",
        -9.841895115718463
      ],
      [
        "Ġdirec",
        -9.84217591489931
      ],
      [
        "Ġlist",
        -9.842300701067323
      ],
      [
        "ÙĪØ£",
        -9.84290730824246
      ],
      [
        "ĠMar",
        -9.843618723960644
      ],
      [
        "Ã¼rde",
        -9.843767117670184
      ],
      [
        "ĠÐ¸ÑģÐ¿Ð¾Ð»ÑĮÐ·",
        -9.843989220626202
      ],
      [
        "Ġfi",
        -9.844070514245464
      ],
      [
        "ĠÙħØµØ±",
        -9.844457800946474
      ],
      [
        "ĠGe",
        -9.84550155386103
      ],
      [
        "Cu",
        -9.845823797352958
      ],
      [
        "ĠTag",
        -9.846127841339982
      ],
      [
        "ely",
        -9.84618625442443
      ],
      [
        "los",
        -9.846244221959351
      ],
      [
        "lo",
        -9.846569381776824
      ],
      [
        "ĠÐł",
        -9.846580709203941
      ],
      [
        "æĪĸèĢħ",
        -9.846705711740055
      ],
      [
        "larak",
        -9.847500446332381
      ],
      [
        "Ġrespons",
        -9.847865097545222
      ],
      [
        "ĠÐ½Ð°Ñģ",
        -9.848408675299499
      ],
      [
        "guna",
        -9.849194789377005
      ],
      [
        "Ĳ",
        -9.84946363134464
      ],
      [
        "Ġ28",
        -9.849680009189907
      ],
      [
        "Ġcontinu",
        -9.850792170583107
      ],
      [
        "keep",
        -9.852373049213849
      ],
      [
        "ÙĪØ§ØŃØ¯",
        -9.85311182880901
      ],
      [
        "service",
        -9.853155055079272
      ],
      [
        "Ð¸Ñİ",
        -9.853173839476286
      ],
      [
        "mas",
        -9.85395029748632
      ],
      [
        "åŃĲ",
        -9.855819162758731
      ],
      [
        "ĠØ§ÙĦÙģ",
        -9.856523439836554
      ],
      [
        "Ġnada",
        -9.856783453231897
      ],
      [
        "åģļ",
        -9.857263812058001
      ],
      [
        "tiva",
        -9.85782669856396
      ],
      [
        "las",
        -9.858325222835736
      ],
      [
        "Ø³Ø¨Ø¨",
        -9.859418081411285
      ],
      [
        "Ø±Ø§Ø¡",
        -9.859542132300232
      ],
      [
        "Ġsur",
        -9.861097528262555
      ],
      [
        "Ø¥ÙĨ",
        -9.861229152373996
      ],
      [
        "å¯¹äºİ",
        -9.861477611081485
      ],
      [
        "Ñģ",
        -9.862629521375604
      ],
      [
        "ĠFor",
        -9.863189411289635
      ],
      [
        "Ð½ÐµÐµ",
        -9.86323940158714
      ],
      [
        "«",
        -9.86327713045178
      ],
      [
        "Ġmie",
        -9.863373549508744
      ],
      [
        "sehen",
        -9.864604610379379
      ],
      [
        "ĠÐ¿ÑĢÐ¾ÑģÑĤÐ¾",
        -9.864863735820746
      ],
      [
        "æĢ§",
        -9.865896233930032
      ],
      [
        "ise",
        -9.866552749794398
      ],
      [
        "friend",
        -9.867112499374391
      ],
      [
        "Ġvari",
        -9.868845889269952
      ],
      [
        "ÙĢ",
        -9.869530862531956
      ],
      [
        "ĠÙĪØ£",
        -9.870427269301588
      ],
      [
        "ÑģÑĤÐ²Ð¾",
        -9.871001240863654
      ],
      [
        "è®©",
        -9.871078061728388
      ],
      [
        "Hi",
        -9.871649206318923
      ],
      [
        "ĠÐ¿",
        -9.87186444965079
      ],
      [
        "Ð½ÑĭÐ¼Ð¸",
        -9.871989477359309
      ],
      [
        "Ġprogram",
        -9.872600134189348
      ],
      [
        "ÎŃÎ½Î±",
        -9.872626703550527
      ],
      [
        "puesta",
        -9.872850455894136
      ],
      [
        "åĲĳ",
        -9.87377139799354
      ],
      [
        "light",
        -9.874071216814977
      ],
      [
        "ÙħØ¨Ø±",
        -9.874307982366732
      ],
      [
        "ĠÐ´ÐµÑĤ",
        -9.875029884792395
      ],
      [
        "ĠPh",
        -9.875271316889497
      ],
      [
        "á»ı",
        -9.87566369827448
      ],
      [
        "Ġ26",
        -9.87578326245507
      ],
      [
        "Per",
        -9.876128482989326
      ],
      [
        "bu",
        -9.876470864088107
      ],
      [
        "entes",
        -9.876556615942917
      ],
      [
        "ÙħÙĪÙĤØ¹",
        -9.876675826881456
      ],
      [
        "Ġpass",
        -9.876900820788736
      ],
      [
        "ĠØ£ÙĨÙĩ",
        -9.87691520323957
      ],
      [
        "Ð´ÐµÐ»Ð°ÑĤÑĮ",
        -9.877204649193633
      ],
      [
        "sen",
        -9.877462931393985
      ],
      [
        "sion",
        -9.877614042066904
      ],
      [
        "Ð½Ð¸Ð¸",
        -9.878030514205207
      ],
      [
        "Ð½Ð¸Ñħ",
        -9.878112187333173
      ],
      [
        "Ġllev",
        -9.87843524224466
      ],
      [
        "ĠMa",
        -9.880376601637012
      ],
      [
        "bre",
        -9.881329552681912
      ],
      [
        "à¤ħ",
        -9.881767424154237
      ],
      [
        "Ġhuman",
        -9.882320133088632
      ],
      [
        "lassen",
        -9.88236188336801
      ],
      [
        "ĠÎŃ",
        -9.882630581391796
      ],
      [
        "åīį",
        -9.88343301546216
      ],
      [
        "Ð²Ð°Ñģ",
        -9.884156431539402
      ],
      [
        "éľĢè¦ģ",
        -9.884300828242301
      ],
      [
        "ÙĬØ±",
        -9.884375347751654
      ],
      [
        "Îł",
        -9.884472901740363
      ],
      [
        "Ġ40",
        -9.88459396523524
      ],
      [
        "âĢı",
        -9.885921195203705
      ],
      [
        "ÙĥÙĬÙģ",
        -9.885968911114952
      ],
      [
        "ÙħØ¬ÙĦØ³",
        -9.88625626616305
      ],
      [
        "ØŃØ©",
        -9.888290564193426
      ],
      [
        "Ġcost",
        -9.88933504216437
      ],
      [
        "ÏİÎ½",
        -9.889922373916209
      ],
      [
        "die",
        -9.89010343212979
      ],
      [
        "36",
        -9.89340740048313
      ],
      [
        "geben",
        -9.893409547086177
      ],
      [
        "Ġcontrol",
        -9.893907070243069
      ],
      [
        "Ø¹ÙĦÙī",
        -9.895218791028315
      ],
      [
        "ĠØ¨Ùĩ",
        -9.896392567272114
      ],
      [
        "éĹ®é¢ĺ",
        -9.897025858243095
      ],
      [
        "Und",
        -9.897328630888584
      ],
      [
        "ç»Ļ",
        -9.898252264759943
      ],
      [
        "mpresa",
        -9.898429025140135
      ],
      [
        "room",
        -9.898704207484018
      ],
      [
        "æľįåĬ¡",
        -9.899904303500762
      ],
      [
        "ying",
        -9.900201738003553
      ],
      [
        "ä¸ī",
        -9.900784182383124
      ],
      [
        "Ħĸ",
        -9.901977923986475
      ],
      [
        "ĠÙĪÙĩÙĪ",
        -9.902323398339167
      ],
      [
        "Ã¡ng",
        -9.90316456352027
      ],
      [
        "Ġgegen",
        -9.90344967291221
      ],
      [
        "Ġmon",
        -9.904378483623228
      ],
      [
        "ores",
        -9.90508977752723
      ],
      [
        "çĶ±",
        -9.90566516838872
      ],
      [
        "Ġchu",
        -9.906077109137184
      ],
      [
        "ena",
        -9.906377534930707
      ],
      [
        "Ð¾Ð²Ð°ÑĤÑĮ",
        -9.906669348250945
      ],
      [
        "ture",
        -9.907960903031155
      ],
      [
        "29",
        -9.908326495279953
      ],
      [
        "ake",
        -9.908756923357329
      ],
      [
        "osas",
        -9.908830563297032
      ],
      [
        "chas",
        -9.90883680863178
      ],
      [
        "Î·",
        -9.909373397548665
      ],
      [
        "ate",
        -9.909885556439784
      ],
      [
        "ow",
        -9.909947637424485
      ],
      [
        "meine",
        -9.909994712053185
      ],
      [
        "Ġrealiza",
        -9.910797470765095
      ],
      [
        "ĠWeb",
        -9.911276471028215
      ],
      [
        "book",
        -9.911606059256814
      ],
      [
        "éĤ£ä¹Ī",
        -9.912510286416245
      ],
      [
        "edes",
        -9.91309645144508
      ],
      [
        "ccess",
        -9.914040768936758
      ],
      [
        "Do",
        -9.914320433065997
      ],
      [
        "ĠNa",
        -9.914830518851065
      ],
      [
        "Ġdesarroll",
        -9.915545682630647
      ],
      [
        "debe",
        -9.91598048086147
      ],
      [
        "ÑĩÐ°Ñģ",
        -9.91649066078832
      ],
      [
        "ave",
        -9.917016453738325
      ],
      [
        "men",
        -9.918623349530927
      ],
      [
        "ste",
        -9.918808467377522
      ],
      [
        "tahu",
        -9.918930832839568
      ],
      [
        "Ġ27",
        -9.918983934563485
      ],
      [
        "Ġsimpl",
        -9.919858813583591
      ],
      [
        "Ø³ÙĦÙħ",
        -9.920389534655694
      ],
      [
        "åĽ½å®¶",
        -9.920834671476001
      ],
      [
        "ĠØ§ÙĦØ¨",
        -9.921171308596204
      ],
      [
        "å®¶",
        -9.92154854978883
      ],
      [
        "anks",
        -9.921577104942259
      ],
      [
        "Para",
        -9.921675467688706
      ],
      [
        "ÑıÑħ",
        -9.922242792827884
      ],
      [
        "ÐµÑģÑĮ",
        -9.92236323389416
      ],
      [
        "Ð·Ð°",
        -9.922453076949688
      ],
      [
        "ĠCom",
        -9.922493580518998
      ],
      [
        "finde",
        -9.922632418302287
      ],
      [
        "Ĩ",
        -9.923009353719674
      ],
      [
        "bih",
        -9.92357297349376
      ],
      [
        "eza",
        -9.923789643512288
      ],
      [
        "Ġtema",
        -9.923862541849129
      ],
      [
        "ĠÐ¿Ð¾ÑģÐ»Ðµ",
        -9.925306985930483
      ],
      [
        "try",
        -9.925513122780822
      ],
      [
        "ĠÎ¼ÎŃ",
        -9.925993749750146
      ],
      [
        "ik",
        -9.926083611696066
      ],
      [
        "èĥ½",
        -9.926384519302285
      ],
      [
        "line",
        -9.92680263178677
      ],
      [
        "èĢħ",
        -9.927481009420081
      ],
      [
        "Ġpes",
        -9.927860951883439
      ],
      [
        "zi",
        -9.927945639089492
      ],
      [
        "mana",
        -9.928451867766265
      ],
      [
        "ĠÐ±Ð¾Ð»ÑĮÑĪÐµ",
        -9.928795158851953
      ],
      [
        "Ġalg",
        -9.92902468570693
      ],
      [
        "kommt",
        -9.92938753637053
      ],
      [
        "igen",
        -9.930056562068769
      ],
      [
        "yn",
        -9.930605415037526
      ],
      [
        "ÑģÐºÐ¾Ð³Ð¾",
        -9.930861384927297
      ],
      [
        "ĠØ¨ÙĩØ§",
        -9.931985984687127
      ],
      [
        "Ġestudi",
        -9.932401579971316
      ],
      [
        "Ä±",
        -9.93287265428483
      ],
      [
        "Ð³",
        -9.935058942977225
      ],
      [
        "Ġmem",
        -9.93530851667631
      ],
      [
        "order",
        -9.935527526177117
      ],
      [
        "nych",
        -9.935765232222085
      ],
      [
        "ÐµÐ½Ð¸ÐµÐ¼",
        -9.935820484848207
      ],
      [
        "Ġkita",
        -9.9370741635413
      ],
      [
        "andere",
        -9.937244025396803
      ],
      [
        "ohne",
        -9.937356146169398
      ],
      [
        "ĠÎ£",
        -9.937712161526276
      ],
      [
        "âĢĶâĢĶ",
        -9.937746794458542
      ],
      [
        "ĠÐŁ",
        -9.937800698585464
      ],
      [
        "Ġseb",
        -9.937894682263826
      ],
      [
        "II",
        -9.938372512493947
      ],
      [
        "we",
        -9.939215552258373
      ],
      [
        "ĠÐ³Ð¾ÑģÑĥÐ´Ð°ÑĢ",
        -9.939556095614572
      ],
      [
        "Ø§Ø°Ø§",
        -9.94057847641298
      ],
      [
        "ctor",
        -9.940610641020866
      ],
      [
        "agai",
        -9.941065857656067
      ],
      [
        "anza",
        -9.941395774431147
      ],
      [
        "oja",
        -9.941555569350196
      ],
      [
        "Ġsitu",
        -9.94237963943004
      ],
      [
        "à¤ł",
        -9.942464171704517
      ],
      [
        "event",
        -9.942568947259627
      ],
      [
        "Ġextra",
        -9.943007868165806
      ],
      [
        "199",
        -9.943677668218207
      ],
      [
        "Ġviv",
        -9.94571701033864
      ],
      [
        "udad",
        -9.945739199679524
      ],
      [
        "iÃ³",
        -9.945919454065208
      ],
      [
        "equip",
        -9.946582264688663
      ],
      [
        "Ø³ÙĨØ©",
        -9.947046133952014
      ],
      [
        "eres",
        -9.948637800594016
      ],
      [
        "ollen",
        -9.948803319131393
      ],
      [
        "ÐµÑĪÑĮ",
        -9.948968407948788
      ],
      [
        "Ð²Ð°Ð¼",
        -9.949120246866345
      ],
      [
        "stehen",
        -9.949586192110104
      ],
      [
        "Ð£",
        -9.95016021390896
      ],
      [
        "ward",
        -9.950233331986366
      ],
      [
        "irklich",
        -9.950401826402777
      ],
      [
        "za",
        -9.95278935926673
      ],
      [
        "99",
        -9.953421756506664
      ],
      [
        "mÃ¶glich",
        -9.953825749958478
      ],
      [
        "stellen",
        -9.95468397433137
      ],
      [
        "Ġcare",
        -9.954974995202758
      ],
      [
        "Ġvideo",
        -9.95513488713304
      ],
      [
        "mÃ¶",
        -9.955295778002544
      ],
      [
        "Ġask",
        -9.955681033615765
      ],
      [
        "Ġpasa",
        -9.956478747371902
      ],
      [
        "Ø¨ØŃØ«",
        -9.956748509047296
      ],
      [
        "Ø¯Ø©",
        -9.957102440146729
      ],
      [
        "ving",
        -9.958467812848443
      ],
      [
        "ä¹ĭåĲİ",
        -9.958532383807013
      ],
      [
        "Ø±Ùī",
        -9.959507865911103
      ],
      [
        "ä½¿çĶ¨",
        -9.959733043291308
      ],
      [
        "Ø´ÙĩØ±",
        -9.959856755379487
      ],
      [
        "estos",
        -9.959907117291335
      ],
      [
        "Ġpunt",
        -9.961649822154007
      ],
      [
        "é«ĺ",
        -9.961903737896067
      ],
      [
        "ÃŃas",
        -9.961940656097601
      ],
      [
        "à¤°à¤ķ",
        -9.961992020855867
      ],
      [
        "ĠÐ¸Ð³ÑĢ",
        -9.962128803823436
      ],
      [
        "NG",
        -9.96223422065711
      ],
      [
        "Ġsite",
        -9.962351946775675
      ],
      [
        "atu",
        -9.962474893859374
      ],
      [
        "Ġgen",
        -9.962801155095155
      ],
      [
        "Ð¾ÑģÑĤÐ¸",
        -9.96304401829375
      ],
      [
        "Ø¡",
        -9.964048397207003
      ],
      [
        "æĹ¶éĹ´",
        -9.964296322709565
      ],
      [
        "aba",
        -9.965639991458932
      ],
      [
        "£",
        -9.965960042455492
      ],
      [
        "Ja",
        -9.96614361814302
      ],
      [
        "Ã³lo",
        -9.967219279864404
      ],
      [
        "Ġgel",
        -9.96742714669424
      ],
      [
        "Ġutiliz",
        -9.968700856751694
      ],
      [
        "åĩº",
        -9.97010810765265
      ],
      [
        "ĠUnd",
        -9.97017653621039
      ],
      [
        "its",
        -9.970645565371056
      ],
      [
        "Ġusu",
        -9.97106058598022
      ],
      [
        "wie",
        -9.97160637760508
      ],
      [
        "ĠÏĥÏĦÎ·",
        -9.972555516613898
      ],
      [
        "Facebook",
        -9.973900008090475
      ],
      [
        "éĥ½æĺ¯",
        -9.973973414786231
      ],
      [
        "Ġyo",
        -9.974425148776486
      ],
      [
        "à¤¹à¤",
        -9.974471002604718
      ],
      [
        "ments",
        -9.975249761751419
      ],
      [
        "Ġconoc",
        -9.975531746767698
      ],
      [
        "ĠAuf",
        -9.975796001342617
      ],
      [
        "Ġhand",
        -9.976332727105328
      ],
      [
        "anh",
        -9.976370203871074
      ],
      [
        "à¤µà¤°",
        -9.976662315287165
      ],
      [
        "ĠØ«Ùħ",
        -9.978554999362505
      ],
      [
        "ĠBut",
        -9.979781697444876
      ],
      [
        "ÙĦÙĥÙĨ",
        -9.980094615140768
      ],
      [
        "uno",
        -9.981106250617605
      ],
      [
        "dir",
        -9.981946848386933
      ],
      [
        "è¯¥",
        -9.981973866634492
      ],
      [
        "áº¹",
        -9.981990582049022
      ],
      [
        "gehen",
        -9.982360567581253
      ],
      [
        "ĠMo",
        -9.982992353669154
      ],
      [
        "Ä±n",
        -9.983675042253031
      ],
      [
        "å¾Ĺ",
        -9.98490208396845
      ],
      [
        "chte",
        -9.985111585399125
      ],
      [
        "ÑĩÐµÐ³Ð¾",
        -9.986169682882075
      ],
      [
        "hatte",
        -9.986805098538108
      ],
      [
        "ä¸ĢäºĽ",
        -9.986851224174192
      ],
      [
        "halb",
        -9.986903747611882
      ],
      [
        "Ġpermit",
        -9.986979261753463
      ],
      [
        "åĨį",
        -9.987454594842237
      ],
      [
        "jos",
        -9.988241592878737
      ],
      [
        "Ġmar",
        -9.988849232015323
      ],
      [
        "Google",
        -9.989033135946793
      ],
      [
        "su",
        -9.989379218848237
      ],
      [
        "lÃŃ",
        -9.989595554738933
      ],
      [
        "Wen",
        -9.990288047742311
      ],
      [
        "po",
        -9.990419306587404
      ],
      [
        "etc",
        -9.990550043502319
      ],
      [
        "çľĭ",
        -9.990764368429062
      ],
      [
        "siones",
        -9.990966902686537
      ],
      [
        "Wie",
        -9.991091212730284
      ],
      [
        "medio",
        -9.991287096241493
      ],
      [
        "ĠÐĶ",
        -9.991784319909494
      ],
      [
        "spect",
        -9.992278187240622
      ],
      [
        "cent",
        -9.99238287960008
      ],
      [
        "Ġmo",
        -9.992479727807897
      ],
      [
        "ts",
        -9.992658181525366
      ],
      [
        "Ġklein",
        -9.993442050220116
      ],
      [
        "ĠÙĤ",
        -9.9938830773305
      ],
      [
        "Ð½Ð¾Ð¼",
        -9.994129164035055
      ],
      [
        "ĠUni",
        -9.994205995693195
      ],
      [
        "proyect",
        -9.994542984342615
      ],
      [
        "ĠAs",
        -9.995006682285524
      ],
      [
        "Ġcab",
        -9.995394472720507
      ],
      [
        "ĠÐĶÐ°",
        -9.995833445013142
      ],
      [
        "und",
        -9.995995624404719
      ],
      [
        "gen",
        -9.996594196933076
      ],
      [
        "ĠWir",
        -9.996948897046304
      ],
      [
        "gia",
        -9.997258040274444
      ],
      [
        "ØªÙĬ",
        -9.997738516719876
      ],
      [
        "enden",
        -9.998873832055663
      ],
      [
        "Ġseg",
        -9.999181110495506
      ],
      [
        "æ¯Ķ",
        -9.999369858368224
      ],
      [
        "Ø¯ÙĬÙĨØ©",
        -9.99955710073825
      ],
      [
        "?âĢĿ",
        -9.999637854320465
      ],
      [
        "Con",
        -10.000837260568417
      ],
      [
        "ĠMi",
        -10.000998224597506
      ],
      [
        "æľĢ",
        -10.00107998298849
      ],
      [
        "Ġfavor",
        -10.001165514418611
      ],
      [
        "ĠÄĳáº",
        -10.001298455040631
      ],
      [
        "Ho",
        -10.001306415592895
      ],
      [
        "âĢĿãĢĤ",
        -10.003095449178549
      ],
      [
        "Ġles",
        -10.003696730468778
      ],
      [
        "ein",
        -10.004271562254726
      ],
      [
        "upport",
        -10.005110525659676
      ],
      [
        "ĠInternet",
        -10.005823201372321
      ],
      [
        "saya",
        -10.006702678342965
      ],
      [
        "ĠMan",
        -10.006882178516545
      ],
      [
        "Ð¤",
        -10.007061664122508
      ],
      [
        "48",
        -10.00751699139859
      ],
      [
        "Ã¡l",
        -10.007766227238166
      ],
      [
        "ĠÎ¼Î¿Ïħ",
        -10.008094197007336
      ],
      [
        "aron",
        -10.008724102582176
      ],
      [
        "ĠTa",
        -10.00894395040016
      ],
      [
        "å¸Ĥåľº",
        -10.009216017690754
      ],
      [
        "ÙĨØ¸Ø§Ùħ",
        -10.009309567841017
      ],
      [
        "ĠUm",
        -10.009512384396329
      ],
      [
        "Ø§ÙĦØ«Ø§ÙĨÙĬ",
        -10.009695343680526
      ],
      [
        "Ð½Ð¸Ð¹",
        -10.00985973225251
      ],
      [
        "Ġaplic",
        -10.010943884634633
      ],
      [
        "Ġ29",
        -10.011292089735347
      ],
      [
        "Ð°ÑĤÑĮ",
        -10.01192528307624
      ],
      [
        "land",
        -10.012078577001162
      ],
      [
        "Ġfree",
        -10.012773876469522
      ],
      [
        "ØŃÙħØ¯",
        -10.01291725554122
      ],
      [
        "umber",
        -10.012966552066384
      ],
      [
        "ĠKinder",
        -10.013033603017602
      ],
      [
        "ĠÑģÑĤÑĢÐ°Ð½",
        -10.013820537172952
      ],
      [
        "Ã©l",
        -10.013848117002494
      ],
      [
        "Ð¾ÑĤÐ²ÐµÑĤÑģÑĤÐ²",
        -10.01427506408225
      ],
      [
        "eva",
        -10.014630824519427
      ],
      [
        "oraz",
        -10.01474412437476
      ],
      [
        "Ġtrav",
        -10.015716793374127
      ],
      [
        "schÃ¶n",
        -10.015737275294216
      ],
      [
        "ez",
        -10.01596674563647
      ],
      [
        "mand",
        -10.016192366688944
      ],
      [
        "Ġins",
        -10.016299182392311
      ],
      [
        "Ġvar",
        -10.016385889679166
      ],
      [
        "Ġzwei",
        -10.018408766660738
      ],
      [
        "zar",
        -10.01856869634922
      ],
      [
        "¤",
        -10.018653837269195
      ],
      [
        "Æ¡n",
        -10.018717966046038
      ],
      [
        "Ġale",
        -10.01880051538425
      ],
      [
        "å¾Ī",
        -10.019207439262864
      ],
      [
        "tlich",
        -10.020098273069056
      ],
      [
        "ÎµÎ¯",
        -10.021125653575737
      ],
      [
        "ÏĮÏĦÎ¹",
        -10.021222180308015
      ],
      [
        "cho",
        -10.021542216047509
      ],
      [
        "ä¸įè¿ĩ",
        -10.021547646995115
      ],
      [
        "ÙĨÙĬØ©",
        -10.022655831203101
      ],
      [
        "ĠÐ±Ð¾Ð»ÑĮÑĪ",
        -10.022770068215907
      ],
      [
        "Sie",
        -10.022992665705804
      ],
      [
        "ŀ",
        -10.02322912543948
      ],
      [
        "ĠØ§ÙĪ",
        -10.023887097185645
      ],
      [
        "Ġexp",
        -10.024177303429385
      ],
      [
        "ĠÐ¾Ð±Ð»Ð°ÑģÑĤ",
        -10.02536987605167
      ],
      [
        "nque",
        -10.025741500354073
      ],
      [
        "ĠØ§ÙĦÙĦ",
        -10.026134283771334
      ],
      [
        "ÎµÎ¹",
        -10.026556263601726
      ],
      [
        "tivos",
        -10.027812818689863
      ],
      [
        "Ø®Ø§Øµ",
        -10.027874822729007
      ],
      [
        "ÐºÐ¾Ð¹",
        -10.029646541834378
      ],
      [
        "ĠLi",
        -10.029789627468926
      ],
      [
        "ÐµÐ½Ð½ÑĭÑħ",
        -10.029859348313106
      ],
      [
        "search",
        -10.029910056288967
      ],
      [
        "Ġnatural",
        -10.030120317645299
      ],
      [
        "ÙĩÙĨØ§",
        -10.030148234235156
      ],
      [
        "must",
        -10.030382127120436
      ],
      [
        "ello",
        -10.030617006286418
      ],
      [
        "Ġautor",
        -10.030769660291925
      ],
      [
        "è¡¨ç¤º",
        -10.030894009172833
      ],
      [
        "tÃ©",
        -10.03124533679046
      ],
      [
        "daha",
        -10.03148322912057
      ],
      [
        "arÃ¡",
        -10.031801817322362
      ],
      [
        "cha",
        -10.031844914055533
      ],
      [
        "ĠAm",
        -10.032223332530366
      ],
      [
        "å½ĵ",
        -10.032244321759286
      ],
      [
        "ĠÐ´",
        -10.032420582508244
      ],
      [
        "ley",
        -10.032450680952133
      ],
      [
        "enye",
        -10.032853908045166
      ],
      [
        "Ent",
        -10.033040781647486
      ],
      [
        "Ġange",
        -10.03311343167612
      ],
      [
        "ÙĪÙĬØ©",
        -10.033705846232564
      ],
      [
        "Ġro",
        -10.033768686723649
      ],
      [
        "yone",
        -10.034240808987827
      ],
      [
        "Ġmodel",
        -10.034549176376057
      ],
      [
        "ĠEsta",
        -10.034704622374226
      ],
      [
        "game",
        -10.035650988801057
      ],
      [
        "Ġgrup",
        -10.0371356803952
      ],
      [
        "educa",
        -10.03804305330448
      ],
      [
        "Ġunder",
        -10.039710623007725
      ],
      [
        "ungen",
        -10.03976484733549
      ],
      [
        "gust",
        -10.039779366869483
      ],
      [
        "áº½",
        -10.039814519731314
      ],
      [
        "38",
        -10.03987418661251
      ],
      [
        "gente",
        -10.040377743117514
      ],
      [
        "ÃŃan",
        -10.040390191000215
      ],
      [
        "ĠÎĳ",
        -10.040689113228298
      ],
      [
        "ĠYa",
        -10.040937117929165
      ],
      [
        "ÙĬÙĦ",
        -10.041988952928584
      ],
      [
        "larÄ±",
        -10.041998457853131
      ],
      [
        "aria",
        -10.042101451769438
      ],
      [
        "Ġmil",
        -10.042511768450849
      ],
      [
        "Ġu",
        -10.042823042407804
      ],
      [
        "live",
        -10.043069046877287
      ],
      [
        "39",
        -10.043681808781216
      ],
      [
        "arena",
        -10.044152151557201
      ],
      [
        "ØŃÙĪÙĦ",
        -10.044629805067505
      ],
      [
        "Ġprop",
        -10.04564947993845
      ],
      [
        "eben",
        -10.045748052447788
      ],
      [
        "æıĲä¾Ľ",
        -10.046562212170265
      ],
      [
        "elp",
        -10.046617007206848
      ],
      [
        "lik",
        -10.047127840426768
      ],
      [
        "Ã©c",
        -10.047185004269961
      ],
      [
        "à¤¹à¤°",
        -10.047194430765986
      ],
      [
        "æīĢ",
        -10.047346326678216
      ],
      [
        "old",
        -10.047982579296418
      ],
      [
        "ri",
        -10.048003235531109
      ],
      [
        "à¤¹à¤®",
        -10.049177478305632
      ],
      [
        "Ġhal",
        -10.049470459855451
      ],
      [
        "mak",
        -10.049761534646747
      ],
      [
        "Ð¸ÑĤÑĮÑģÑı",
        -10.049870412323104
      ],
      [
        "Ãºl",
        -10.0500400984832
      ],
      [
        "richtig",
        -10.050063434920759
      ],
      [
        "Ġprob",
        -10.050550410785405
      ],
      [
        "Ġcontact",
        -10.05110326901214
      ],
      [
        "ÙĬØ¬Ø¨",
        -10.051590436706887
      ],
      [
        "ador",
        -10.051632814790612
      ],
      [
        "Ġà¤®à¤",
        -10.05197063473686
      ],
      [
        "ĠFe",
        -10.05205324190738
      ],
      [
        "call",
        -10.052900786590778
      ],
      [
        "liche",
        -10.053454301453314
      ],
      [
        "ĠArt",
        -10.0539816810895
      ],
      [
        "Ġkuwa",
        -10.054220116341108
      ],
      [
        "local",
        -10.054609961834663
      ],
      [
        "ĠÐ¼Ð¾Ð³",
        -10.055072325787583
      ],
      [
        "æĽ´",
        -10.05524627094177
      ],
      [
        "ĠÎļ",
        -10.055345623938493
      ],
      [
        "è¦ģæ±Ĥ",
        -10.05575826345009
      ],
      [
        "ĠCon",
        -10.055788014288808
      ],
      [
        "Ġolan",
        -10.056272637342094
      ],
      [
        "ĠÐ¾Ð¿ÑĢÐµÐ´ÐµÐ»",
        -10.058426143009179
      ],
      [
        "au",
        -10.05845225577528
      ],
      [
        "estar",
        -10.058850691001542
      ],
      [
        "Ġà¤¨à¤",
        -10.060370733650949
      ],
      [
        "Ġmember",
        -10.060594888842509
      ],
      [
        "ĠYA",
        -10.060746906343258
      ],
      [
        "Ø§ÙĦØ³ÙĦØ§Ùħ",
        -10.06104274882185
      ],
      [
        "ru",
        -10.061306987788452
      ],
      [
        "ĠÐºÐ°Ð¶",
        -10.062338271554658
      ],
      [
        "poder",
        -10.062499691340372
      ],
      [
        "ton",
        -10.062541224918665
      ],
      [
        "Ġbit",
        -10.063672068684964
      ],
      [
        "ych",
        -10.063777659794573
      ],
      [
        "Ma",
        -10.06457006160034
      ],
      [
        "èĩª",
        -10.064831511804988
      ],
      [
        "Ġsystem",
        -10.065435917682434
      ],
      [
        "Î±ÏĤ",
        -10.065865842890114
      ],
      [
        "Ø§ÙĦØ³Ø¹ÙĪØ¯ÙĬ",
        -10.066197734731931
      ],
      [
        "Ġdefini",
        -10.066859711147806
      ],
      [
        "ÑģÐºÐ¸Ð¹",
        -10.06694181332298
      ],
      [
        "37",
        -10.066988267410808
      ],
      [
        "äº§åĵģ",
        -10.067176251915331
      ],
      [
        "ï¼",
        -10.067884716217227
      ],
      [
        "Ø¨Ø±ÙĨØ§ÙħØ¬",
        -10.068031575971053
      ],
      [
        "lear",
        -10.069549526250828
      ],
      [
        "almente",
        -10.06995171045198
      ],
      [
        "ĠJe",
        -10.070003212035456
      ],
      [
        "31",
        -10.070238893266286
      ],
      [
        "ÙĤ",
        -10.070373914132459
      ],
      [
        "portun",
        -10.070398997431921
      ],
      [
        "æ°´",
        -10.070546827832619
      ],
      [
        "å¼Ģå§ĭ",
        -10.070815945822687
      ],
      [
        "est",
        -10.070836780115267
      ],
      [
        "ĠÑĥÑĩÐ°ÑģÑĤ",
        -10.070913366426439
      ],
      [
        "Ð¸Ð¼Ð¸",
        -10.071208156684005
      ],
      [
        "Ġorganiza",
        -10.071630050435816
      ],
      [
        "ĠÐ¾ÑĤÐ²ÐµÑĤ",
        -10.072130037044195
      ],
      [
        "son",
        -10.072426412109374
      ],
      [
        "word",
        -10.072527277045138
      ],
      [
        "ĠÑĢÐ°Ñģ",
        -10.073390629096526
      ],
      [
        "åĪĨ",
        -10.07447812041069
      ],
      [
        "à¤ľà¤¨",
        -10.074567422815676
      ],
      [
        "Ã¡t",
        -10.075064316493226
      ],
      [
        "Be",
        -10.075350156004538
      ],
      [
        "İ",
        -10.075575868766345
      ],
      [
        "Î®ÏĤ",
        -10.076229651536817
      ],
      [
        "Î¤Î¿",
        -10.077140981943655
      ],
      [
        "ona",
        -10.07728361911703
      ],
      [
        "dich",
        -10.077469943809321
      ],
      [
        "Ã¼ssen",
        -10.07773846369189
      ],
      [
        "Was",
        -10.077970405106429
      ],
      [
        "Ġestablec",
        -10.078618493889259
      ],
      [
        "ded",
        -10.07870078856142
      ],
      [
        "ÙģÙĬÙĩ",
        -10.079163322550976
      ],
      [
        "à¥ľ",
        -10.079800921922429
      ],
      [
        "Ġfuncion",
        -10.080466222502041
      ],
      [
        "elche",
        -10.080629643080947
      ],
      [
        "Ð´",
        -10.081080309993764
      ],
      [
        "ies",
        -10.08138139349618
      ],
      [
        "ÙĬØ¶Ø§",
        -10.082093371037578
      ],
      [
        "ÐºÐ¾Ð¼",
        -10.082103838657716
      ],
      [
        "ĠÐ¼Ð½Ð¾Ð³Ð¾",
        -10.082288207901202
      ],
      [
        "eines",
        -10.083231572570847
      ],
      [
        "ci",
        -10.083658835424307
      ],
      [
        "ĠÙĦÙĥ",
        -10.083838195289033
      ],
      [
        "once",
        -10.08435562433826
      ],
      [
        "arga",
        -10.084618270771296
      ],
      [
        "enes",
        -10.085063664506382
      ],
      [
        "of",
        -10.085234501722928
      ],
      [
        "à¤ĵ",
        -10.085796951788089
      ],
      [
        "Ġmov",
        -10.085898693827803
      ],
      [
        "bi",
        -10.08675820262678
      ],
      [
        "75",
        -10.086880299570716
      ],
      [
        "ourse",
        -10.087158096338587
      ],
      [
        "ĠWelt",
        -10.087430770655095
      ],
      [
        "Ð²ÑģÐµÐ¼",
        -10.088335062212188
      ],
      [
        "à¤¤à¤°",
        -10.088677003422527
      ],
      [
        "ĠÐ³Ð¾ÑĢÐ¾Ð´",
        -10.089382997371672
      ],
      [
        "dul",
        -10.089557453728386
      ],
      [
        "Ð´ÐµÐ½ÑĮ",
        -10.089951987998864
      ],
      [
        "55",
        -10.090116857785313
      ],
      [
        "Ø¹Ø¯Ùħ",
        -10.091442183943915
      ],
      [
        "ĠTer",
        -10.091911041861582
      ],
      [
        "he",
        -10.092013658817356
      ],
      [
        "pe",
        -10.092056574373215
      ],
      [
        "à¤¡à¤",
        -10.09225647996996
      ],
      [
        "ÐĿÐµ",
        -10.09294389187176
      ],
      [
        "Ġexce",
        -10.093715266228848
      ],
      [
        "ooking",
        -10.09425185489008
      ],
      [
        "å¸Ĥ",
        -10.094517735311157
      ],
      [
        "lain",
        -10.094552605128264
      ],
      [
        "ä¹ĭ",
        -10.094911714992708
      ],
      [
        "Ã¤re",
        -10.095098622806367
      ],
      [
        "ick",
        -10.095181005936936
      ],
      [
        "libr",
        -10.095408004683167
      ],
      [
        "ĠÙĦÙĬ",
        -10.095543492692373
      ],
      [
        "à¤°à¤¨",
        -10.095767726127576
      ],
      [
        "èĻ½çĦ¶",
        -10.095860516149033
      ],
      [
        "è¿Ļç§į",
        -10.095884074208579
      ],
      [
        "âĢĿ,",
        -10.096298054065935
      ],
      [
        "å¦Ĥ",
        -10.096628257031808
      ],
      [
        "ĠmÃŃ",
        -10.097717412506304
      ],
      [
        "cara",
        -10.097936391465916
      ],
      [
        "yÃªn",
        -10.098125490828803
      ],
      [
        "erer",
        -10.099272001791103
      ],
      [
        "cover",
        -10.100053534971869
      ],
      [
        "ÙģÙĬÙĩØ§",
        -10.100307744410765
      ],
      [
        "ĠHa",
        -10.100338760279298
      ],
      [
        "Ð¹ÑĤÐ¸",
        -10.100586688162625
      ],
      [
        "Ġspe",
        -10.10109219650386
      ],
      [
        "mi",
        -10.101872196072657
      ],
      [
        "Ġform",
        -10.101966756991999
      ],
      [
        "erne",
        -10.102041717750621
      ],
      [
        "Ġhá»",
        -10.102983850802392
      ],
      [
        "ĠGi",
        -10.10310893005901
      ],
      [
        "à¤ªà¤ķ",
        -10.103247241692598
      ],
      [
        "Ĥ¬",
        -10.103281395325629
      ],
      [
        "nehmen",
        -10.103405479017676
      ],
      [
        "Ġlang",
        -10.103576602180912
      ],
      [
        "spu",
        -10.103709419535349
      ],
      [
        "ä½ľä¸º",
        -10.103812668162893
      ],
      [
        "sagen",
        -10.104151094963017
      ],
      [
        "cia",
        -10.10471279986089
      ],
      [
        "ellos",
        -10.10558339674722
      ],
      [
        "Ġtri",
        -10.105611932469463
      ],
      [
        "æľ¬",
        -10.105861840315637
      ],
      [
        "å¾Īå¤ļ",
        -10.105942698001279
      ],
      [
        "Ġrealiz",
        -10.106011130952451
      ],
      [
        "tive",
        -10.106053103555462
      ],
      [
        "apa",
        -10.106631499045866
      ],
      [
        "gusta",
        -10.10773245578902
      ],
      [
        "ion",
        -10.107833709150936
      ],
      [
        "åį´",
        -10.107980243041009
      ],
      [
        "text",
        -10.108042722467193
      ],
      [
        "ä¹Łæĺ¯",
        -10.10816435287199
      ],
      [
        "Ġpol",
        -10.108810791791669
      ],
      [
        "æ´»åĬ¨",
        -10.109229201900625
      ],
      [
        "zwischen",
        -10.109515764952688
      ],
      [
        "Ã¡p",
        -10.109594267681203
      ],
      [
        "gan",
        -10.110269470080851
      ],
      [
        "tal",
        -10.110278819031459
      ],
      [
        "cji",
        -10.110337262437369
      ],
      [
        "Q",
        -10.1104704561103
      ],
      [
        "Ġthá»",
        -10.110599625715583
      ],
      [
        "ha",
        -10.111174349909554
      ],
      [
        "ship",
        -10.11120635317996
      ],
      [
        "eros",
        -10.111301643070055
      ],
      [
        "freu",
        -10.111355770366776
      ],
      [
        "Îķ",
        -10.11181845758348
      ],
      [
        "Ø§ÙĦØ®Ø§Øµ",
        -10.111935454718262
      ],
      [
        "Ø§Ø³ØªØ®Ø¯Ø§Ùħ",
        -10.112346053629944
      ],
      [
        "ĠÐ¼",
        -10.112811567102218
      ],
      [
        "But",
        -10.112870178338776
      ],
      [
        "my",
        -10.112939892440815
      ],
      [
        "ÑģÑĢÐµÐ´ÑģÑĤÐ²",
        -10.113570560483238
      ],
      [
        "ason",
        -10.11388112097186
      ],
      [
        "Ġput",
        -10.113985081728355
      ],
      [
        "aking",
        -10.114458425693416
      ],
      [
        "Na",
        -10.114522296816693
      ],
      [
        "Ġmill",
        -10.114947597956112
      ],
      [
        "Ø³Ø¨Ø©",
        -10.115608837719023
      ],
      [
        "Ġend",
        -10.116371940654117
      ],
      [
        "ĠÑħÐ¾ÑĢÐ¾ÑĪ",
        -10.116595833087887
      ],
      [
        "genau",
        -10.116599822012338
      ],
      [
        "night",
        -10.116925453983471
      ],
      [
        "æĤ¨",
        -10.117319449475204
      ],
      [
        "è¿Ļæł·",
        -10.118172636231174
      ],
      [
        "Ð³Ð´Ð°",
        -10.11821159630223
      ],
      [
        "ç¬¬",
        -10.120125826775343
      ],
      [
        "Ð´Ð¾ÐºÑĥÐ¼ÐµÐ½ÑĤ",
        -10.120590338130748
      ],
      [
        "Ġdia",
        -10.121733712923099
      ],
      [
        "aÄĩ",
        -10.121842597306832
      ],
      [
        "icio",
        -10.121958598313638
      ],
      [
        "®",
        -10.122138940804621
      ],
      [
        "days",
        -10.122175546592661
      ],
      [
        "åıĳå±ķ",
        -10.122277112162953
      ],
      [
        "cal",
        -10.1234556729123
      ],
      [
        "adores",
        -10.123678532568848
      ],
      [
        "jar",
        -10.123729942963916
      ],
      [
        "ĠÏĢÏģÎ¿",
        -10.124079169329846
      ],
      [
        "khi",
        -10.12455393366782
      ],
      [
        "Ø·ÙĦØ¨",
        -10.124701287370364
      ],
      [
        "æĹł",
        -10.125237652868945
      ],
      [
        "Ġrun",
        -10.125493405423445
      ],
      [
        "dpowiedzi",
        -10.125614857146486
      ],
      [
        "ĠLu",
        -10.126408457266145
      ],
      [
        "Ð§",
        -10.126475504218224
      ],
      [
        "job",
        -10.126882238988028
      ],
      [
        "Ð¸ÑĤÐµÐ»ÑĮ",
        -10.12693183591011
      ],
      [
        "Ġgar",
        -10.127269851469416
      ],
      [
        "ami",
        -10.128552610775328
      ],
      [
        "As",
        -10.128790346754254
      ],
      [
        "twe",
        -10.128802946402416
      ],
      [
        "ĠÎµ",
        -10.129232265611357
      ],
      [
        "Ġnormal",
        -10.129773873933342
      ],
      [
        "Ġau",
        -10.129963836378414
      ],
      [
        "ĠFall",
        -10.130286805341722
      ],
      [
        "product",
        -10.130522215978397
      ],
      [
        "ndo",
        -10.130588121950154
      ],
      [
        "Ġcompet",
        -10.130962773205104
      ],
      [
        "Ġhistori",
        -10.131403942095032
      ],
      [
        "å¿ĥ",
        -10.131918911847732
      ],
      [
        "Ġnhá",
        -10.132284488820932
      ],
      [
        "Ġembar",
        -10.132539599227359
      ],
      [
        "Ð¸Ð»Ð°",
        -10.133345196667698
      ],
      [
        "ĠÑģÐ¸ÑģÑĤÐµÐ¼",
        -10.133712829475664
      ],
      [
        "yÅĽwietl",
        -10.133959731932329
      ],
      [
        "gos",
        -10.13496039630291
      ],
      [
        "ØŃØ¯ÙĬØ«",
        -10.13496056403362
      ],
      [
        "ster",
        -10.135223930029888
      ],
      [
        "vor",
        -10.13617429643124
      ],
      [
        "dor",
        -10.13687233965329
      ],
      [
        "ØŃ",
        -10.137244384532647
      ],
      [
        "Ø¨ÙĬØ¹",
        -10.137303988813276
      ],
      [
        "hank",
        -10.137397134829023
      ],
      [
        "ĠDr",
        -10.13774150357125
      ],
      [
        "Ġese",
        -10.137837482487251
      ],
      [
        "èĢģ",
        -10.138183333006403
      ],
      [
        "Du",
        -10.139076991227096
      ],
      [
        "æĥ³",
        -10.139678283877886
      ],
      [
        "Ġpur",
        -10.139680724292846
      ],
      [
        "seguir",
        -10.140554539827054
      ],
      [
        "Ġkam",
        -10.140781008400168
      ],
      [
        "obier",
        -10.142207608181703
      ],
      [
        "Ġ60",
        -10.14272081535318
      ],
      [
        "ĠÐ½ÐµÐ³Ð¾",
        -10.142839239588112
      ],
      [
        "tain",
        -10.143575629192837
      ],
      [
        "ist",
        -10.143681930359364
      ],
      [
        "Ġaku",
        -10.14385279876064
      ],
      [
        "perti",
        -10.145614136111178
      ],
      [
        "Ġpri",
        -10.147185263840504
      ],
      [
        "Ġpay",
        -10.147566195016312
      ],
      [
        "baik",
        -10.147760153377783
      ],
      [
        "ĠTi",
        -10.147890682810068
      ],
      [
        "izaciÃ³n",
        -10.148473510838832
      ],
      [
        "ical",
        -10.148882598161421
      ],
      [
        "tym",
        -10.149053730611
      ],
      [
        "ÙĪØ¯",
        -10.149461713774443
      ],
      [
        "ina",
        -10.149738572387811
      ],
      [
        "Ð²Ð»ÑıÐµÑĤÑģÑı",
        -10.150103172388704
      ],
      [
        "Ġlet",
        -10.150607333344075
      ],
      [
        "Ø§Ø¯Ø©",
        -10.151117272657334
      ],
      [
        "Ø³Ø¨Øª",
        -10.1513084632873
      ],
      [
        "Ġespeci",
        -10.151975699857598
      ],
      [
        "fast",
        -10.152843955884197
      ],
      [
        "çİĭ",
        -10.153436806554462
      ],
      [
        "Ø§Ø¦ÙĬØ©",
        -10.153718291076
      ],
      [
        "éĢīæĭ©",
        -10.153982259768823
      ],
      [
        "ÙĨØ§Ùĥ",
        -10.15440903685212
      ],
      [
        "çļĦè¯Ŀ",
        -10.15461542595857
      ],
      [
        "é¡¹çĽ®",
        -10.155279016594733
      ],
      [
        "sas",
        -10.15586350222242
      ],
      [
        "Ġexist",
        -10.156046045716979
      ],
      [
        "ihn",
        -10.156334800965883
      ],
      [
        "300",
        -10.157342810874091
      ],
      [
        "Ġdr",
        -10.157409100216356
      ],
      [
        "cu",
        -10.157577424144803
      ],
      [
        "team",
        -10.15884287823753
      ],
      [
        "¬",
        -10.159190901384969
      ],
      [
        "^",
        -10.160665192880893
      ],
      [
        "using",
        -10.161102336480411
      ],
      [
        "ĠØ§ÙĦÙĩ",
        -10.161176984584802
      ],
      [
        "è¯·",
        -10.161399390534328
      ],
      [
        "Ġprev",
        -10.16174349788449
      ],
      [
        "ĠÐ½Ð¸Ðº",
        -10.162457590723356
      ],
      [
        "ree",
        -10.162954162533747
      ],
      [
        "Ð¿ÑĢÐ¾Ð³ÑĢÐ°Ð¼Ð¼",
        -10.16385326814955
      ],
      [
        "mind",
        -10.164203478497114
      ],
      [
        "Ø¯ÙĬ",
        -10.164764398091467
      ],
      [
        "vi",
        -10.164881252954318
      ],
      [
        "lama",
        -10.164924396449418
      ],
      [
        "ÑĤÐµÐ»ÑĮÑģÑĤÐ²Ð°",
        -10.16531308450791
      ],
      [
        "encias",
        -10.165646435391043
      ],
      [
        "è¿Ļæĺ¯",
        -10.165921390512223
      ],
      [
        "ĠDeutschland",
        -10.165982989841645
      ],
      [
        "ÑıÑĤ",
        -10.167316639051226
      ],
      [
        "ĠÐ¾ÑĢÐ³Ð°Ð½",
        -10.167462192376131
      ],
      [
        "Ġhard",
        -10.168770159363454
      ],
      [
        "mplo",
        -10.168911023346785
      ],
      [
        "oney",
        -10.169207080732075
      ],
      [
        "èĢĮä¸Ķ",
        -10.16940919854934
      ],
      [
        "ĠÙĪÙħÙĨ",
        -10.170244326709916
      ],
      [
        "ÑģÐµÐ¹",
        -10.170330980968435
      ],
      [
        "positiv",
        -10.170440583143815
      ],
      [
        "laciÃ³n",
        -10.171083580129363
      ],
      [
        "ĠLeben",
        -10.171185742119043
      ],
      [
        "ĠÐ¾Ð´Ð¸Ð½",
        -10.171218838959245
      ],
      [
        "ucho",
        -10.17132557104091
      ],
      [
        "cir",
        -10.171492245028887
      ],
      [
        "ĠRo",
        -10.171859292599537
      ],
      [
        "ran",
        -10.171998934113644
      ],
      [
        "Ġpropi",
        -10.172099744770208
      ],
      [
        "49",
        -10.17260485712488
      ],
      [
        "times",
        -10.173510378354102
      ],
      [
        "check",
        -10.17400114003594
      ],
      [
        "åĲį",
        -10.17404467749679
      ],
      [
        "ĠDaten",
        -10.174126535069496
      ],
      [
        "âĸ",
        -10.17416578823984
      ],
      [
        "à¤®à¤",
        -10.174778244761315
      ],
      [
        "Ġgu",
        -10.175752502648105
      ],
      [
        "åıĳ",
        -10.175967366942656
      ],
      [
        "Ġih",
        -10.175996045777527
      ],
      [
        "Ġprzy",
        -10.176021968634487
      ],
      [
        "casa",
        -10.17743867468515
      ],
      [
        "hren",
        -10.177526644177949
      ],
      [
        "ck",
        -10.177992243007933
      ],
      [
        "»Ń",
        -10.17829532598648
      ],
      [
        "ieron",
        -10.178325185781963
      ],
      [
        "ĠØªÙħ",
        -10.17869196871594
      ],
      [
        "Di",
        -10.179014387441521
      ],
      [
        "ile",
        -10.179142200231034
      ],
      [
        "à¤Ŀ",
        -10.179448285062334
      ],
      [
        "sonder",
        -10.18034440710144
      ],
      [
        "efect",
        -10.181122244620193
      ],
      [
        "ØªÙĥ",
        -10.181314123093713
      ],
      [
        "æĬĢæľ¯",
        -10.181504420100351
      ],
      [
        "Ġ31",
        -10.181663974488059
      ],
      [
        "school",
        -10.181907098765423
      ],
      [
        "Ġtrat",
        -10.18211172017994
      ],
      [
        "æł¹æį®",
        -10.18226198445494
      ],
      [
        "Î£",
        -10.183136558923927
      ],
      [
        "å¼ł",
        -10.183237389956833
      ],
      [
        "Ø¢Ø®Ø±",
        -10.183352609899014
      ],
      [
        "ĠÑģÑĤÐ¾ÑĢÐ¾Ð½",
        -10.18357520184869
      ],
      [
        "åĮº",
        -10.184191421925792
      ],
      [
        "etzt",
        -10.184291740971409
      ],
      [
        "cuerd",
        -10.18441200577947
      ],
      [
        "ĠBa",
        -10.184713595225952
      ],
      [
        "health",
        -10.18517297909656
      ],
      [
        "ÙĪÙĦØ©",
        -10.185449938398426
      ],
      [
        "ÙĨÙĬÙĨ",
        -10.185552275281767
      ],
      [
        "ĠCu",
        -10.185555336108493
      ],
      [
        "mero",
        -10.185592546687777
      ],
      [
        "ection",
        -10.18631023326354
      ],
      [
        "lÄ±",
        -10.186639144259948
      ],
      [
        "ĠÐ¿ÑĢÐ¾Ð±Ð»ÐµÐ¼",
        -10.187100658798682
      ],
      [
        "à¤ķà¤¤",
        -10.187153709317798
      ],
      [
        "65",
        -10.187369669003294
      ],
      [
        "Ġmedia",
        -10.187505758386248
      ],
      [
        "ĠÐ¾ÑģÐ½Ð¾Ð²",
        -10.188265725828236
      ],
      [
        "tail",
        -10.188485005553598
      ],
      [
        "åĨħ",
        -10.189605990806546
      ],
      [
        "Ø§ÙĦØ±Ø¦ÙĬØ³",
        -10.190034883164659
      ],
      [
        "Ð¢",
        -10.19023416964515
      ],
      [
        "phone",
        -10.191230304799918
      ],
      [
        "halten",
        -10.192101984309565
      ],
      [
        "ard",
        -10.19249942749365
      ],
      [
        "Ġcomi",
        -10.19294757531322
      ],
      [
        "Ð½Ñĭ",
        -10.193010444416489
      ],
      [
        "saat",
        -10.193289476108667
      ],
      [
        "ĠÐ´ÐµÐ»Ð°",
        -10.193606503465869
      ],
      [
        "lakukan",
        -10.193911103114099
      ],
      [
        "For",
        -10.194123080489147
      ],
      [
        "ÐºÐ¾",
        -10.195308489873286
      ],
      [
        "valor",
        -10.195527205818252
      ],
      [
        "ness",
        -10.195578488102763
      ],
      [
        "43",
        -10.196656220505961
      ],
      [
        "elah",
        -10.198007024313503
      ],
      [
        "42",
        -10.198224625274149
      ],
      [
        "urso",
        -10.198276450362219
      ],
      [
        "åı·",
        -10.19830702293397
      ],
      [
        "µ",
        -10.198576409873676
      ],
      [
        "ĠÎ®",
        -10.198625767833741
      ],
      [
        "à¤ī",
        -10.198630272337814
      ],
      [
        "ĠÙĪØ§",
        -10.199351937394471
      ],
      [
        "³",
        -10.199402893823882
      ],
      [
        "ĠEuro",
        -10.200230484184988
      ],
      [
        "mein",
        -10.200697807119314
      ],
      [
        "Ã¡m",
        -10.201011522365263
      ],
      [
        "ince",
        -10.201090905205366
      ],
      [
        "ÙĪØª",
        -10.201356801065954
      ],
      [
        "perfect",
        -10.202522908143653
      ],
      [
        "ÙĥØ«ÙĬØ±",
        -10.202917746833434
      ],
      [
        "wszy",
        -10.203323974396078
      ],
      [
        "æ³ķ",
        -10.203505766324803
      ],
      [
        "ĠWh",
        -10.203556848848592
      ],
      [
        "una",
        -10.203658940935064
      ],
      [
        "page",
        -10.2043574541201
      ],
      [
        "ut",
        -10.204416724434191
      ],
      [
        "fact",
        -10.204503787987285
      ],
      [
        "Ġpen",
        -10.204691351720305
      ],
      [
        "©c",
        -10.204969736748534
      ],
      [
        "ä¸įæĺ¯",
        -10.205392186053245
      ],
      [
        "ĠSu",
        -10.206003046463206
      ],
      [
        "parece",
        -10.206148330746323
      ],
      [
        "ÑģÑĤÐ°ÑĤÑĮ",
        -10.206172291449448
      ],
      [
        "95",
        -10.206626539627583
      ],
      [
        "Ġbig",
        -10.206884759662367
      ],
      [
        "ĠÏĦ",
        -10.20717942279408
      ],
      [
        "ner",
        -10.20746650563258
      ],
      [
        "sam",
        -10.207775515672484
      ],
      [
        "familia",
        -10.208101129283529
      ],
      [
        "Ġty",
        -10.208106381432149
      ],
      [
        "engo",
        -10.208766127214354
      ],
      [
        "ĠHi",
        -10.208849446922509
      ],
      [
        "ĠÃĸ",
        -10.209109998658626
      ],
      [
        "ĠØ±",
        -10.209117912071871
      ],
      [
        "ÏĥÎ·ÏĤ",
        -10.209472487583193
      ],
      [
        "ĠTe",
        -10.210809331025668
      ],
      [
        "aracter",
        -10.21108890453505
      ],
      [
        "data",
        -10.211371305069878
      ],
      [
        "name",
        -10.211509398863818
      ],
      [
        "ł",
        -10.21158297301013
      ],
      [
        "offer",
        -10.211601594350025
      ],
      [
        "ĠÐ·Ð°ÐºÐ¾Ð½",
        -10.211795828548489
      ],
      [
        "Ġinternet",
        -10.212412917214927
      ],
      [
        "ĠÐ¿Ð¾Ð»",
        -10.212522568730124
      ],
      [
        "seit",
        -10.213180744386388
      ],
      [
        "cept",
        -10.213690261494962
      ],
      [
        "reka",
        -10.213802763474803
      ],
      [
        "Ġturn",
        -10.213957305642552
      ],
      [
        "Ð²Ð¾ÑĤ",
        -10.214039066644961
      ],
      [
        "house",
        -10.214293914145232
      ],
      [
        "cerca",
        -10.214520377512304
      ],
      [
        "tell",
        -10.214784650346326
      ],
      [
        "Ġnaj",
        -10.21500635047598
      ],
      [
        "vel",
        -10.215056408995785
      ],
      [
        "ĠÐ´Ð°Ð½",
        -10.215176614469335
      ],
      [
        "nt",
        -10.21565607787317
      ],
      [
        "ĠJo",
        -10.215893263563638
      ],
      [
        "è¿ĺæľī",
        -10.216545421306334
      ],
      [
        "ount",
        -10.216609593818921
      ],
      [
        "open",
        -10.217422823982792
      ],
      [
        "talk",
        -10.218931077475654
      ],
      [
        "sde",
        -10.219382183246278
      ],
      [
        "ĠProblem",
        -10.219498815713509
      ],
      [
        "éķ¿",
        -10.219866978622544
      ],
      [
        "Ġczy",
        -10.220366455986097
      ],
      [
        "ĠInformation",
        -10.220483592460512
      ],
      [
        "Ã¢m",
        -10.220512848908351
      ],
      [
        "ĠPor",
        -10.220515415614534
      ],
      [
        "ÙģØ±ÙĬÙĤ",
        -10.220577342021008
      ],
      [
        "Ġres",
        -10.220898831916031
      ],
      [
        "ĠNew",
        -10.220901031734703
      ],
      [
        "ÐµÑĢÑĮ",
        -10.221045906011174
      ],
      [
        "ĠSa",
        -10.221587433067828
      ],
      [
        "sere",
        -10.221711464798066
      ],
      [
        "Ġminu",
        -10.222216421183498
      ],
      [
        "Ġreport",
        -10.22250667559535
      ],
      [
        "ĠHer",
        -10.222535792980546
      ],
      [
        "develop",
        -10.22329265265042
      ],
      [
        "estado",
        -10.224381684066346
      ],
      [
        "Î¼Î±",
        -10.224750397224637
      ],
      [
        "ÙĨÙģØ³",
        -10.225188637088474
      ],
      [
        "ĠÑĨÐµÐ»",
        -10.225948331829603
      ],
      [
        "ÙĥØªØ¨",
        -10.226099840036184
      ],
      [
        "Ø¯Ø§Ø±Ø©",
        -10.226871403773533
      ],
      [
        "ª",
        -10.226909024377306
      ],
      [
        "euch",
        -10.226934216345324
      ],
      [
        "Ġpodr",
        -10.227050516994787
      ],
      [
        "Ġopera",
        -10.227352027614849
      ],
      [
        "oca",
        -10.227513237766347
      ],
      [
        "nÃº",
        -10.22753660059159
      ],
      [
        "ĠÎ±ÏħÏĦ",
        -10.227908992465327
      ],
      [
        "æīĵ",
        -10.228070485164233
      ],
      [
        "Ġdiferen",
        -10.228351604917293
      ],
      [
        "rante",
        -10.228602274433594
      ],
      [
        "ud",
        -10.229504458048599
      ],
      [
        "ĠEst",
        -10.229620239867131
      ],
      [
        "schnell",
        -10.229849526738466
      ],
      [
        "ben",
        -10.229932072484923
      ],
      [
        "gu",
        -10.23003543862388
      ],
      [
        "âĢĭ",
        -10.230117682178221
      ],
      [
        "ĠÑĢÐµÐ·ÑĥÐ»ÑĮÑĤ",
        -10.230297480320443
      ],
      [
        "ĠÐ²Ð¾Ð·Ð¼Ð¾Ð¶",
        -10.230421419357127
      ],
      [
        "ĠWa",
        -10.230674432529085
      ],
      [
        "Ġtin",
        -10.230722210945595
      ],
      [
        "å¼Ģ",
        -10.230804857170842
      ],
      [
        "ĠÙĪÙħ",
        -10.23087741233431
      ],
      [
        "ĠRa",
        -10.23093264003129
      ],
      [
        "ista",
        -10.231773169310097
      ],
      [
        "ĠÐ¿Ð¾Ð»ÑĥÑĩ",
        -10.232258088924976
      ],
      [
        "ĠPe",
        -10.232273958501109
      ],
      [
        "Ø¬",
        -10.232739319704415
      ],
      [
        "ÏĥÎ±ÏĤ",
        -10.232758949767133
      ],
      [
        "Î¯Î±ÏĤ",
        -10.233695702830138
      ],
      [
        "Ġrecib",
        -10.233831119562415
      ],
      [
        "Ð¿ÑĢÐ¾Ð¸Ð·Ð²Ð¾Ð´",
        -10.2338432476301
      ],
      [
        "Øµ",
        -10.233877793336921
      ],
      [
        "Î¿",
        -10.234164420837388
      ],
      [
        "Ġdocument",
        -10.234384834043075
      ],
      [
        "ĠÑĤÑĢÑĥÐ´",
        -10.23482954634867
      ],
      [
        "Ġcount",
        -10.234910547152152
      ],
      [
        "dores",
        -10.23505409890249
      ],
      [
        "zo",
        -10.235105155588004
      ],
      [
        "åĲĮæĹ¶",
        -10.235131790007873
      ],
      [
        "asih",
        -10.235544773943662
      ],
      [
        "TV",
        -10.235802134100128
      ],
      [
        "folgen",
        -10.235839532732621
      ],
      [
        "ated",
        -10.236225174912294
      ],
      [
        "47",
        -10.236785087191185
      ],
      [
        "ini",
        -10.23747086367368
      ],
      [
        "nnte",
        -10.237536887656411
      ],
      [
        "Î¿ÏħÏĤ",
        -10.237560924325335
      ],
      [
        "nda",
        -10.237923091776832
      ],
      [
        "Ġpast",
        -10.23821995805339
      ],
      [
        "ĠyÄ±l",
        -10.238470891359785
      ],
      [
        "ĠÑĢÑĥÐ±",
        -10.238605513635672
      ],
      [
        "ĠØ§ÙĦØµØŃ",
        -10.23991086913984
      ],
      [
        "éĩĳ",
        -10.24017691873019
      ],
      [
        "oth",
        -10.240628292699595
      ],
      [
        "Ä°",
        -10.241092925133033
      ],
      [
        "èĩ³",
        -10.242346453101907
      ],
      [
        "Ġpres",
        -10.242669743207701
      ],
      [
        "Ð²Ð°ÑĪ",
        -10.242712778863751
      ],
      [
        "Ġhaber",
        -10.242764814220411
      ],
      [
        "alta",
        -10.242864309774054
      ],
      [
        "ern",
        -10.242927194502323
      ],
      [
        "Î·ÏĤ",
        -10.242934383210683
      ],
      [
        "Ġdecid",
        -10.243153977801935
      ],
      [
        "Ġmaterial",
        -10.243812412737373
      ],
      [
        "Ġgrand",
        -10.24456994349633
      ],
      [
        "eÃ±o",
        -10.244754175509948
      ],
      [
        "åĮħæĭ¬",
        -10.24498255563504
      ],
      [
        "nacional",
        -10.245281670712814
      ],
      [
        "Ġtun",
        -10.245719204845688
      ],
      [
        "enia",
        -10.245890098634497
      ],
      [
        "Ã¼rkiye",
        -10.246135793907797
      ],
      [
        "Ġdij",
        -10.246260428287165
      ],
      [
        "ä¿¡æģ¯",
        -10.246520303571145
      ],
      [
        "czas",
        -10.248177545661658
      ],
      [
        "Ġacce",
        -10.248438753444466
      ],
      [
        "Ġterse",
        -10.248572591696352
      ],
      [
        "Ġdesign",
        -10.248580843085236
      ],
      [
        "oÅĽci",
        -10.248714792696882
      ],
      [
        "çĦ¶åĲİ",
        -10.249111264118849
      ],
      [
        "Ġkad",
        -10.249491361674178
      ],
      [
        "zeit",
        -10.2496975885023
      ],
      [
        "ÙĨÙī",
        -10.250133859841128
      ],
      [
        "ĠSep",
        -10.250617363878215
      ],
      [
        "Ġhast",
        -10.250716871727448
      ],
      [
        "ÐºÐ¾Ð²",
        -10.250893164575231
      ],
      [
        "±",
        -10.251039764897937
      ],
      [
        "ĠÎĶ",
        -10.251144745272743
      ],
      [
        "base",
        -10.251399473040726
      ],
      [
        "ic",
        -10.251573012172935
      ],
      [
        "ĠShe",
        -10.25161110164345
      ],
      [
        "ÐºÐ°Ð·Ð°ÑĤÑĮ",
        -10.251674416330225
      ],
      [
        "ÎŃÏĩÎµÎ¹",
        -10.251697637763794
      ],
      [
        "sos",
        -10.251968505312993
      ],
      [
        "ÑģÑĤÐ¾Ð¸ÑĤ",
        -10.252003218913195
      ],
      [
        "ä»Ģä¹Ī",
        -10.25218051526043
      ],
      [
        "appen",
        -10.253875517882475
      ],
      [
        "Ġkw",
        -10.254118250356512
      ],
      [
        "lgun",
        -10.254150097526686
      ],
      [
        "Ġcolor",
        -10.254439263465393
      ],
      [
        "è½¦",
        -10.25476361562688
      ],
      [
        "ÃŃch",
        -10.25486950852832
      ],
      [
        "Ð¿Ð¾Ð¼Ð¾Ñī",
        -10.254930185423751
      ],
      [
        "blic",
        -10.255273464177506
      ],
      [
        "ĠTu",
        -10.255724936371156
      ],
      [
        "Î¿Ïħ",
        -10.255778143301487
      ],
      [
        "Ġhaya",
        -10.256452431757797
      ],
      [
        "32",
        -10.25655401710427
      ],
      [
        "33",
        -10.256590285430395
      ],
      [
        "eek",
        -10.256893229815983
      ],
      [
        "inde",
        -10.257008798874624
      ],
      [
        "ĠSan",
        -10.257549581420193
      ],
      [
        "Ġfamil",
        -10.257633842240303
      ],
      [
        "Ġsicher",
        -10.25766027036211
      ],
      [
        "ç³»ç»Ł",
        -10.257848575828273
      ],
      [
        "Ġtend",
        -10.257894970872023
      ],
      [
        "ä¸ĩ",
        -10.258680428468201
      ],
      [
        "Ø¹Ø±Ø¶",
        -10.258698451262036
      ],
      [
        "Ð¼ÐµÐ½Ð½Ð¾",
        -10.25957763381822
      ],
      [
        "ĠÎł",
        -10.259689897143419
      ],
      [
        "ÑģÑĤÑĮ",
        -10.259781014016152
      ],
      [
        "ibi",
        -10.260919298543422
      ],
      [
        "Com",
        -10.260978850890798
      ],
      [
        "46",
        -10.261532200664464
      ],
      [
        "dzie",
        -10.26163592413675
      ],
      [
        "ĠÎ¤",
        -10.261733111929235
      ],
      [
        "Ġfar",
        -10.261868081856186
      ],
      [
        "æĿİ",
        -10.261953544985719
      ],
      [
        "ger",
        -10.262162834074523
      ],
      [
        "ØªÙĦÙĥ",
        -10.262434074506013
      ],
      [
        "äºĮ",
        -10.263298422450186
      ],
      [
        "lum",
        -10.26406789379097
      ],
      [
        "ĠÐ»Ð¸ÑĨ",
        -10.264101541418263
      ],
      [
        "Ġmeno",
        -10.264352451180383
      ],
      [
        "Ġacu",
        -10.26457788567864
      ],
      [
        "ĠJan",
        -10.264983076918655
      ],
      [
        "ĠMu",
        -10.26508657864238
      ],
      [
        "anyak",
        -10.265607513036239
      ],
      [
        "ĠKu",
        -10.265621389954509
      ],
      [
        "came",
        -10.266145007518508
      ],
      [
        "Ãºc",
        -10.26641211759621
      ],
      [
        "ige",
        -10.266567919758991
      ],
      [
        "ertain",
        -10.267014554658942
      ],
      [
        "ĠÙĪØ§ÙĦÙħ",
        -10.267096148007052
      ],
      [
        "Ġrece",
        -10.267438311519543
      ],
      [
        "Est",
        -10.268044334535743
      ],
      [
        "ĠÎ¼",
        -10.268966239223447
      ],
      [
        "çĶŁ",
        -10.269598279508228
      ],
      [
        "ĠnÃ¤",
        -10.26995359109939
      ],
      [
        "ĠÏĩÏģ",
        -10.27092313379758
      ],
      [
        "ĠÑĤÐ°Ð¼",
        -10.270946887497024
      ],
      [
        "om",
        -10.271084813851632
      ],
      [
        "agua",
        -10.271205545288428
      ],
      [
        "Ġhead",
        -10.271814590167551
      ],
      [
        "æ²¡",
        -10.271922967690996
      ],
      [
        "ĠâĢ¦",
        -10.272025841716696
      ],
      [
        "ose",
        -10.272155195206194
      ],
      [
        "ĠÙĪØ¨",
        -10.272514549353568
      ],
      [
        "all",
        -10.272568068229885
      ],
      [
        "Ġapa",
        -10.272591322107193
      ],
      [
        "ÑĥÐ´Ð°",
        -10.272617252440975
      ],
      [
        "ope",
        -10.272744469852768
      ],
      [
        "agt",
        -10.272998065781348
      ],
      [
        "ĠÐ¾Ð´Ð½Ð¾",
        -10.273049621200046
      ],
      [
        "ĠNg",
        -10.273353650746966
      ],
      [
        "ĠðŁ",
        -10.273871341414155
      ],
      [
        "ç®¡çĲĨ",
        -10.274202852955046
      ],
      [
        "sed",
        -10.274302330824383
      ],
      [
        "Er",
        -10.27435415135585
      ],
      [
        "Ĉï¼Į",
        -10.274683539419838
      ],
      [
        "Ġcumpl",
        -10.274908484031407
      ],
      [
        "æŀĹ",
        -10.275324498130894
      ],
      [
        "Ð¸Ð±Ð¾",
        -10.275554120320285
      ],
      [
        "hrer",
        -10.275678115751555
      ],
      [
        "uerte",
        -10.275766602164554
      ],
      [
        "rge",
        -10.275821415441294
      ],
      [
        "zw",
        -10.276248273889124
      ],
      [
        "ather",
        -10.276478184716126
      ],
      [
        "Ã©r",
        -10.277132501606122
      ],
      [
        "vo",
        -10.277364497537878
      ],
      [
        "Ġenerg",
        -10.27863318543508
      ],
      [
        "ç¾İ",
        -10.27864342674302
      ],
      [
        "sue",
        -10.279069821830273
      ],
      [
        "Ġpag",
        -10.279347328231708
      ],
      [
        "ĠÐµ",
        -10.279539082060648
      ],
      [
        "Î¼Î¹Î±",
        -10.279885769817627
      ],
      [
        "cond",
        -10.28001372780325
      ],
      [
        "ĠÐ¸Ð½ÑĦÐ¾ÑĢÐ¼Ð",
        -10.280016712443137
      ],
      [
        "Ñĩ",
        -10.280297042842658
      ],
      [
        "34",
        -10.280554837336677
      ],
      [
        "Ġbas",
        -10.280617093385324
      ],
      [
        "ĠÎºÎ¬",
        -10.280651369680871
      ],
      [
        "ĠKi",
        -10.281162597625528
      ],
      [
        "ÙĬØ¦Ø©",
        -10.281279977051799
      ],
      [
        "ä¸Ģæł·",
        -10.281503036702446
      ],
      [
        "ĠØ¨Ø£ÙĨ",
        -10.281954627918898
      ],
      [
        "Ð¼Ð¸",
        -10.282112440327221
      ],
      [
        "Ġkind",
        -10.282291003207755
      ],
      [
        "ridad",
        -10.282633671953363
      ],
      [
        "tura",
        -10.28281049565114
      ],
      [
        "Ġlea",
        -10.282835941585587
      ],
      [
        "Ġfa",
        -10.282843366204515
      ],
      [
        "Ġcli",
        -10.283592010987984
      ],
      [
        "owych",
        -10.283853551994467
      ],
      [
        "Î¤",
        -10.284353834202657
      ],
      [
        "besser",
        -10.284397739464753
      ],
      [
        "ÙĤØ©",
        -10.284512618528185
      ],
      [
        "Ø¨Ø¯Ø£",
        -10.285007293693278
      ],
      [
        "ÑĤÐ°",
        -10.285525383373907
      ],
      [
        "build",
        -10.285722667672644
      ],
      [
        "Î¹Î¬",
        -10.286506249507875
      ],
      [
        "aÃ±a",
        -10.287294885204076
      ],
      [
        "ĠsÃŃ",
        -10.287377706408373
      ],
      [
        "Ġtop",
        -10.287696419685075
      ],
      [
        "Ġcamp",
        -10.287952503709503
      ],
      [
        "åŃ¦ä¹ł",
        -10.28812372556555
      ],
      [
        "remos",
        -10.28819586544166
      ],
      [
        "Ġadv",
        -10.288634688064176
      ],
      [
        "çĶ¨æĪ·",
        -10.288911986778581
      ],
      [
        "via",
        -10.289294310514757
      ],
      [
        "ĠÎ±ÏĢÎ¿",
        -10.289367422614662
      ],
      [
        "du",
        -10.289517407838323
      ],
      [
        "èµ·",
        -10.289540228516213
      ],
      [
        "ndonesia",
        -10.289970921968152
      ],
      [
        "ord",
        -10.291040136137472
      ],
      [
        "Ġproced",
        -10.291496577207612
      ],
      [
        "onder",
        -10.292012336819749
      ],
      [
        "ĠÐ½Ð°Ð´Ð¾",
        -10.294341677880828
      ],
      [
        "Ġec",
        -10.29493442501583
      ],
      [
        "unca",
        -10.295151346647444
      ],
      [
        "ĠÃĩ",
        -10.295418050767317
      ],
      [
        "à¤«à¤",
        -10.295640666636297
      ],
      [
        "pÃ¡",
        -10.296048453115365
      ],
      [
        "problema",
        -10.296476656746563
      ],
      [
        "bring",
        -10.296527373134166
      ],
      [
        "uso",
        -10.296578731319062
      ],
      [
        "Ø°ÙĬÙĨ",
        -10.296597881762482
      ],
      [
        "å·²",
        -10.296742685661956
      ],
      [
        "ĠØµÙĦ",
        -10.296809815798607
      ],
      [
        "ym",
        -10.297122368527583
      ],
      [
        "nterior",
        -10.297163825279503
      ],
      [
        "ĠÐ·Ð´",
        -10.297365271209665
      ],
      [
        "Ġà¤¸à¤",
        -10.297797666173661
      ],
      [
        "æĸĩ",
        -10.297938405417694
      ],
      [
        "41",
        -10.298367285724773
      ],
      [
        "llega",
        -10.298755649933753
      ],
      [
        "Ġchi",
        -10.298809439454205
      ],
      [
        "Ø±Ø³ÙĪÙĦ",
        -10.298856174590739
      ],
      [
        "Ġstro",
        -10.299242409679437
      ],
      [
        "mer",
        -10.299258279141746
      ],
      [
        "Ġespa",
        -10.299481129316781
      ],
      [
        "lang",
        -10.299515041612754
      ],
      [
        "Ġexa",
        -10.299631483532675
      ],
      [
        "ĠWi",
        -10.300325620843376
      ],
      [
        "ĠsÄħ",
        -10.300338091303509
      ],
      [
        "ÙħØ±Ø©",
        -10.300615711852751
      ],
      [
        "Ġcompa",
        -10.300656370983944
      ],
      [
        "ĠØ¢",
        -10.301120690745721
      ],
      [
        "Ġprograma",
        -10.301650280207237
      ],
      [
        "hin",
        -10.302429539003604
      ],
      [
        "ĠUS",
        -10.302470595340973
      ],
      [
        "xim",
        -10.302915506406013
      ],
      [
        "ama",
        -10.303087805175752
      ],
      [
        "Ä±ndan",
        -10.304069208913022
      ],
      [
        "ćï¼Į",
        -10.305665596784609
      ],
      [
        "Ø¬Ø¯Ø§",
        -10.305843004726851
      ],
      [
        "Ġprote",
        -10.30643023801392
      ],
      [
        "state",
        -10.30673731301646
      ],
      [
        "dren",
        -10.306847641247922
      ],
      [
        "ierto",
        -10.30687877150333
      ],
      [
        "à¤®à¤¨",
        -10.307198319449334
      ],
      [
        "§u",
        -10.30723262150225
      ],
      [
        "sama",
        -10.307706431406343
      ],
      [
        "æŃ£",
        -10.308837815907541
      ],
      [
        "Ġmak",
        -10.308874261829331
      ],
      [
        "ĠØ§ÙĦØµ",
        -10.309196738711737
      ],
      [
        "Art",
        -10.309295090798864
      ],
      [
        "Ð¶ÐµÑĤÐµ",
        -10.309361125764779
      ],
      [
        "à¤¸à¤°",
        -10.309820832737703
      ],
      [
        "Ã³i",
        -10.310060713716434
      ],
      [
        "ĠBuch",
        -10.310147453070588
      ],
      [
        "ÑĥÑģÐ»ÑĥÐ³",
        -10.310185880438992
      ],
      [
        "ĠÐ¸Ð½ÑĤÐµÑĢÐµÑģ",
        -10.310252274079692
      ],
      [
        "ilt",
        -10.311089411318205
      ],
      [
        "ÙħÙĨÙĩØ§",
        -10.311321441803553
      ],
      [
        "sh",
        -10.311346331717946
      ],
      [
        "Ġtest",
        -10.31232379531615
      ],
      [
        "ĠÙĬØªÙħ",
        -10.31277673256052
      ],
      [
        "Ø²ÙĬØ¯",
        -10.312953611451146
      ],
      [
        "onÃ³mic",
        -10.312999234864446
      ],
      [
        "Ġconsum",
        -10.313485232003238
      ],
      [
        "ĠÑģÑĥÐ´",
        -10.314232931240792
      ],
      [
        "rÃ©",
        -10.31465597090311
      ],
      [
        "lan",
        -10.314763348653267
      ],
      [
        "Ġyap",
        -10.314798855456928
      ],
      [
        "ØŃØ³ÙĨ",
        -10.315564168402437
      ],
      [
        "à¤¹à¤²",
        -10.316185193057036
      ],
      [
        "tego",
        -10.316303673701608
      ],
      [
        "à¤¬à¤°",
        -10.316371619627517
      ],
      [
        "Ġadministra",
        -10.316657965629798
      ],
      [
        "Ġprzez",
        -10.316713102175859
      ],
      [
        "ÙĬÙĬÙĨ",
        -10.317591171948619
      ],
      [
        "ĠØ£ØŃØ¯",
        -10.317824107250754
      ],
      [
        "Ġpolic",
        -10.317863726680963
      ],
      [
        "gui",
        -10.318923346773028
      ],
      [
        "nik",
        -10.318939763100888
      ],
      [
        "depend",
        -10.31911743915219
      ],
      [
        "çĽ®åīį",
        -10.319358566669804
      ],
      [
        "rece",
        -10.319497894074084
      ],
      [
        "Ïī",
        -10.320177921639045
      ],
      [
        "ĠÐ±",
        -10.32042324860539
      ],
      [
        "nego",
        -10.32062903200411
      ],
      [
        "Ġfinanci",
        -10.321217180466288
      ],
      [
        "ÎµÏĦÎ±Î¹",
        -10.321268246312925
      ],
      [
        "ØµÙĪØ±",
        -10.321278443649883
      ],
      [
        "ably",
        -10.321310119073935
      ],
      [
        "Ø¨Ø¹Ø¯",
        -10.321754425001373
      ],
      [
        "æķĻèĤ²",
        -10.321929663515442
      ],
      [
        "ĠSch",
        -10.32199235685936
      ],
      [
        "Ġincre",
        -10.322162048362776
      ],
      [
        "å¤´",
        -10.322283565718708
      ],
      [
        "face",
        -10.32233040799676
      ],
      [
        "empat",
        -10.322591369175512
      ],
      [
        "satu",
        -10.322991356749165
      ],
      [
        "ÙĩÙħØ§",
        -10.323267456959673
      ],
      [
        "led",
        -10.323333667329898
      ],
      [
        "abilidad",
        -10.323603611535146
      ],
      [
        "ĠÙĪÙĩÙĬ",
        -10.325047610315966
      ],
      [
        "ØŃØ¯Ø«",
        -10.325689872989877
      ],
      [
        "ä¸ĸçķĮ",
        -10.325793496009167
      ],
      [
        "ĠÐ¢Ð°Ðº",
        -10.326833314552717
      ],
      [
        "å¤ĸ",
        -10.326867550386725
      ],
      [
        "weiÃŁ",
        -10.327403136561404
      ],
      [
        "nos",
        -10.327488540728845
      ],
      [
        "Ġko",
        -10.327633924575267
      ],
      [
        "ĠÐ´ÐµÑıÑĤÐµÐ»",
        -10.327822138409518
      ],
      [
        "Î¼Î±ÏĦÎ±",
        -10.327943714945993
      ],
      [
        "kah",
        -10.328004026703937
      ],
      [
        "èĥ½å¤Ł",
        -10.32808776910151
      ],
      [
        "nÄ±n",
        -10.328320612332284
      ],
      [
        "56",
        -10.328423498473375
      ],
      [
        "éĿŀå¸¸",
        -10.328471545099559
      ],
      [
        "ÑĢÑıÐ´",
        -10.328741815629575
      ],
      [
        "Ġyet",
        -10.32910749756038
      ],
      [
        "ĠAr",
        -10.329516033086982
      ],
      [
        "rauf",
        -10.329631263955688
      ],
      [
        "Ġsau",
        -10.329662215748835
      ],
      [
        "ÑģÑĳ",
        -10.32982282899365
      ],
      [
        "åıªæĺ¯",
        -10.330338040632466
      ],
      [
        "ienda",
        -10.330498353468283
      ],
      [
        "lesen",
        -10.33067387778233
      ],
      [
        "Ġadd",
        -10.330826767566199
      ],
      [
        "é©¬",
        -10.331149891243793
      ],
      [
        "cer",
        -10.3314101662363
      ],
      [
        "ĠDir",
        -10.331702848606193
      ],
      [
        "dar",
        -10.331765128695155
      ],
      [
        "ä½łä»¬",
        -10.331928705792269
      ],
      [
        "Ð¾Ð±ÑħÐ¾Ð´Ð¸Ð¼Ð¾",
        -10.33201967223036
      ],
      [
        "uh",
        -10.33220485747554
      ],
      [
        "Ġeje",
        -10.332700799602902
      ],
      [
        "Allah",
        -10.33298721629581
      ],
      [
        "ves",
        -10.333308850156243
      ],
      [
        "ĠØ¯ÙĪÙĨ",
        -10.33384391928626
      ],
      [
        "Ġfilm",
        -10.333854304046799
      ],
      [
        "encu",
        -10.333879894579823
      ],
      [
        "away",
        -10.33399951040759
      ],
      [
        "52",
        -10.33433815908378
      ],
      [
        "Ø±ÙĤÙħ",
        -10.334341154276846
      ],
      [
        "adas",
        -10.334758569971202
      ],
      [
        "ÙĦØ©",
        -10.334874402557794
      ],
      [
        "Ġamba",
        -10.334996075450901
      ],
      [
        "Ð½Ð¸ÐºÐ°",
        -10.3350819565929
      ],
      [
        "mall",
        -10.335567669259705
      ],
      [
        "Ġtam",
        -10.335684765657337
      ],
      [
        "Ġzaman",
        -10.33644440021383
      ],
      [
        "Ã¼r",
        -10.336471724910616
      ],
      [
        "terior",
        -10.336847350917523
      ],
      [
        "bra",
        -10.337411500593904
      ],
      [
        "ÙģØ¶ÙĦ",
        -10.337416479196806
      ],
      [
        "Ġmes",
        -10.338118894146124
      ],
      [
        "ĠÐºÐ¾",
        -10.338178281250249
      ],
      [
        "æĪĲä¸º",
        -10.338599808569667
      ],
      [
        "Ø¹Ø§Ø¯Ø©",
        -10.338983001133881
      ],
      [
        "ath",
        -10.33930934239005
      ],
      [
        "erta",
        -10.339550846498927
      ],
      [
        "Ø§ÙĦØ¬ÙħØ¹",
        -10.339877137674979
      ],
      [
        "à¤Łà¤°",
        -10.34023322371091
      ],
      [
        "Im",
        -10.340626041894703
      ],
      [
        "Ð½Ð¸Ð¼",
        -10.340730963817228
      ],
      [
        "åħ³äºİ",
        -10.340815100198645
      ],
      [
        "Am",
        -10.340920661904432
      ],
      [
        "mean",
        -10.341094682201279
      ],
      [
        "Ŀ",
        -10.34117078325321
      ],
      [
        "ĠÑĢÐ°Ð·Ð²Ð¸ÑĤ",
        -10.341498328833772
      ],
      [
        "åĽłæŃ¤",
        -10.341609820211877
      ],
      [
        "mon",
        -10.34188670294931
      ],
      [
        "Ø£ÙģØ¶ÙĦ",
        -10.342471600656001
      ],
      [
        "Î¿Î¹",
        -10.343006454592341
      ],
      [
        "zona",
        -10.34310175049202
      ],
      [
        "Ð¾ÑĤÐ½Ð¾ÑĪÐµÐ½Ð¸",
        -10.343604821834582
      ],
      [
        "ĠØ¨Ùħ",
        -10.343686646258126
      ],
      [
        "especial",
        -10.343805660603971
      ],
      [
        "ntro",
        -10.344287785004079
      ],
      [
        "Bei",
        -10.344446829251652
      ],
      [
        "ĠÑĢÑĥÐº",
        -10.344604857515012
      ],
      [
        "Ġlink",
        -10.344640905724942
      ],
      [
        "à¤§à¤",
        -10.345323267847512
      ],
      [
        "ĠNe",
        -10.345964256151063
      ],
      [
        "Ġold",
        -10.346021029352185
      ],
      [
        "erra",
        -10.346165160623855
      ],
      [
        "Ġgleich",
        -10.346450968066247
      ],
      [
        "profesional",
        -10.34676592135013
      ],
      [
        "ĠÑį",
        -10.347636813801069
      ],
      [
        "ØªØ§Ø±ÙĬØ®",
        -10.348090944106406
      ],
      [
        "ÅĤo",
        -10.34814912077365
      ],
      [
        "Ã±a",
        -10.34849502953349
      ],
      [
        "water",
        -10.348593863871596
      ],
      [
        "lieg",
        -10.34868544252747
      ],
      [
        "oÅ¼e",
        -10.349709111345895
      ],
      [
        "natÃ¼rlich",
        -10.349889607512406
      ],
      [
        "ĠØ§ÙĦØ¯",
        -10.349970833060835
      ],
      [
        "åĽ½éĻħ",
        -10.350161854586952
      ],
      [
        "ĠÐ¼ÐµÐ¶Ð´Ñĥ",
        -10.350635498685849
      ],
      [
        "åħ¶å®ŀ",
        -10.350732213173753
      ],
      [
        "Ġsoci",
        -10.350940094518045
      ],
      [
        "ÙĬØ¡",
        -10.351641210493208
      ],
      [
        "ĠWie",
        -10.351697395995805
      ],
      [
        "ĠNov",
        -10.351907145141169
      ],
      [
        "get",
        -10.352136267933377
      ],
      [
        "group",
        -10.352325091584618
      ],
      [
        "ĠGrund",
        -10.352507378493552
      ],
      [
        "Ġpromo",
        -10.352668675990456
      ],
      [
        "ÙĥØ¨Ø±",
        -10.352874750721774
      ],
      [
        "ĠTeil",
        -10.352897341620672
      ],
      [
        "æĭī",
        -10.353126185365895
      ],
      [
        "58",
        -10.353335586406288
      ],
      [
        "Ġple",
        -10.353468195601081
      ],
      [
        "ĠÐ¼Ð¾Ð³Ñĥ",
        -10.353755230816455
      ],
      [
        "fa",
        -10.354826463541505
      ],
      [
        "åıªæľī",
        -10.355707182199014
      ],
      [
        "å±±",
        -10.356145199679837
      ],
      [
        "Ø§ÙĦÙħØªØŃØ¯",
        -10.356327701534273
      ],
      [
        "ables",
        -10.35702862621941
      ],
      [
        "rry",
        -10.357108260452053
      ],
      [
        "ĠÐ¿Ð¾ÑģÐ»ÐµÐ´",
        -10.357411091162787
      ],
      [
        "ologÃŃa",
        -10.357703073660083
      ],
      [
        "ĠLas",
        -10.357710927888872
      ],
      [
        "Ġhin",
        -10.357909590871188
      ],
      [
        "Ġze",
[...]
