#version: 0.2
á Ģ
à ®
à ´
á ĥ
à ¸
à °
à ¤
à ¦
à ª
à ¯
à µ
áĢ ¹
Ġ áĢ
áĢ¹ áĢ
áĢ ¬
áĢ º
Ġ Î
à¯ į
àµ į
áĢ ¸
Ð °
Î ±
à ±
áĢ ¯
áĥ Ĳ
à ¹
à ¥
Ġ à®
áĢ Ń
Ï Ħ
Ġ à´
à §
Ġ Ð
áĢ Ģ
Ġ áĥ
à «
Î ¿
± áĢ
áĢ Ħ
à¯į à®
àµį à´
Ġ à°
Ð° Ð
à¸ ²
á ģ
Î ¹
Ġ à¤
áĢ¸ áĢ
Ð ¾
Ġ à¦
áĥĲ áĥ
à¸ Ļ
Î ½
à¯ ģ
áĢ Ĳ
Ġ Ø
Ġ Ñ
áĢŃ áĢ¯
à´ ¿
Ġ àª
à± į
à¸ £
Î µ
áĢ ķ
à® ¿
Ġ .
ä ¸
à¤ ¾
áĥ ĺ
áĢ ¼
Ð° Ñ
à¸ Ń
Û Į
à´¿ à´
à¦ ¾
Ï ģ
áĢ Ļ
Ð µ
à±į à°
à¹ Ģ
á Ĥ
áĢ Ķ
à®¿ à®
Ï ĥ
àµ ģ
à¹ Ī
Ð ½
áĢĦ áĢ¹áĢ
áĢ ±áĢ
ã Ģ
ä º
Ġ å
ï ¼
Ġ ï¼
à¤¾ à¤
à° ¿
Ø §
áĥ Ķ
Ġ áģ
à§ ĩ
Ï Ģ
àª ¾
áĢ ½
à¯ģ à®
Ñ ĭ
Ġ à¸
à´ ¾
à¸² à¸
áĢ ·
Ï Ĥ
Ġ Ù
Ð ¸
Ġ ãĢ
å ı
à¥ į
Ñ ĸ
à° ¾
à¦¾ à¦
àµģ à´
áĢ ²
à® ¾
à¸£ à¸
áĢ ħ
áĥĶ áĥ
Î ·
àª¾ àª
áĢ Ľ
Ñ Ģ
à¹Ģ à¸
à®¾ à®
Ú ©
â Ģ
Ï ħ
à´¾ à´
áĢ ®
à± ģ
à§ į
à¥į à¤
áĢ Ĭ
Ñ Ĥ
à¹ ī
à¯įà® ķ
Î »
àµ Ĩ
áĥĺ áĥ
à« ĩ
áĢ ±
Ð º
Ø ±
à¸Ļ à¸
Ġ ÏĦ
à® °
à¥ ĩ
à°¾ à°
àµį âĢ
¨ àµįà´
Ð »
à§į à¦
áĢ ļ
Î º
Ġ ×
áĢ ŀ
á »
à¯ Ī
à¸Ń à¸
à´ ¤
Ñ ı
à« į
Ù Ī
Î ¯
áĥ Ŀ
à°¿ à°
áĢ ľ
àµįâĢ į
à® ¤
ķ àµįà´
Ġà¤ ķ
Ñ ĥ
ģ à¸
ĠáĢ ¡
à¦ ¿
Î ¼
à´ °
áĢ¬ áĢ¸áĢ
à¯įà® ¤
Ñ ģ
à«į àª
Û ģ
âĢ ĭ
ķàµįà´ ķ
Ġ c
Ġï¼ Į
å ®
æ ľ
o m
w w
ç ļ
Ġc om
çļ Ħ
å Ī
Ġ æ
Ħ à¸
ĩ à¸
å ¤
ç ½
äº ļ
å ħ
à¥ Ģ
Ĥ à°
áĥĿ áĥ
Ï Į
Ñ Ĩ
áĢĦ áĢº
Ù Ħ
à® ©
¨àµįà´ ¨
® à¯į
Î ¬
ĠÐ ¿
à¤ ¿
Ġà´ ª
à¦ °
à« Ģ
£ áĥ
á º
à±ģ à°
à´ ¯
à® Ł
áĢ ģ
Î¿ Ïħ
Ñ Į
à¸ µ
Ð ´
àµįà´ ¤
å ½
à ¨
± à¸
Ġ ç
å Ľ
ç½ ĳ
a g
ä »
à¹Ī à¸
æ Ĺ
æ Ī
Ġ 2
áĢ «
ä ¹
à¤ °
Û Ĵ
Ġà® ª
Ġ ÏĢ
áĥĺáĥ ¡
áĢ ¶
à° ¨
à´ Ĥ
É Ļ
× Ļ
àª ¨
à¦¿ à¦
Ġ ,
áĢ »
Ù Ĩ
àµ ĭ
à® ³
Ï ī
Ð ²
n g
Ġ ag
æ ¸
æ ĸ
Ĥ à¤
à° Ĥà°
Ġà´ ķ
ĠÎ º
Ð ¼
áĢ °
áĥĶáĥ ĳ
Ġà® ķ
à´ Ł
à¸ ´
áĢĢ áĢ¹áĢ
Ġáģ ĭ
à« ĭ
à§ĩ à¦
á» į
Î Ń
Ġ d
ã ģ
Ñ į
Ġ è
å½ ©
å ľ
ww w
ĠãĢ Ĥ
Ġ www
ãĢ Ĳ
åı ĳ
Ġ 1
åĪ Ĩ
à¥įà¤ ¯
à± ĩ
áĢĦáĢ¹áĢ ¸
áĢ ¡
àµ ĩ
Ù Ĭ
Ð°Ñ Ģ
¡ à¸
à¯įà® ª
à¤¿ à¤
Ù ĩ
Ġ Ïĥ
ł áĥ
áĢĶ áĢ¹áĢ
Ġ âĢĭ
à´¿à´ ²
ĠáĢ ±áĢ
áĢ² áĢ·
¥ à¸
Ġ t
Ġ Ú©
à° °
áĤ Ķ
áĢĢ áĢº
Ġ ì
Ð ·
à¦ ¨
àµįà´ Ł
ķ à¯įà®ķ
àª °
ĠÎ ±
à¹ Ħà¸
Ġáĥ Ľ
à´ ®
e s
Ð°Ð ´
× ķ
à¥ ĭ
à® ²
áĢ ¾
à¹ ģà¸
à¦¾à¦ °
à± ĭ
Î ³
à´ ³
ĠÑ ģ
áĥ ķ
Ġ a
à¯Ī à®
Ġà´ µ
ª à¸
Î ®
ĠÐ ½
àª ¿
Ġ Ä
à§ ģ
à° ²
áº ¹
ĠØ §
à¥ĩ à¤
àµģà´ Ĥ
à¹ī à¸
Ð ³
áĥ £áĥ
áĢ± áĢ¬
Ã «
Î± Î¹
à¯įà® Ł
Ð°Ð ½
à´ ¨
à§ Ł
à± Ģ
¢ à¸
Ã ©
à« ģ
Ï ĩ
Ġà´ ¸
Ġ ë
Ġáĥ ¡
Ä ±
n h
Ġà® µ
à¤ ¨
Ġà¦ ķ
à° ķ
Ø ª
Ð°Ð »
l e
áĢ ĸ
à´¤ àµįà´¤
§ à¸
à«ĩ àª
ĠÎ µ
áĥĲáĥ ľ
Ġà® ®
ĠáĢ Ģ
Ò Ľ
Ð°Ñ ģ
Ġ n
à´ µ
Ġà¦ ¸
Ġà° ª
Ġà¤ ¸
ĠáĢ Ļ
e r
à¹ Į
×ķ ×
Î¹ Îº
ĠÐ ·
ĠáĢ ŀ
àª Ĥ
Ġáĥ ĵ
Ù ħ
à´ ²
à¯ ĩ
ĠÄ ĳ
à¸´ à¸
à± Ĩ
ì Ŀ
Ġà¦ ¬
áĢĬ áĢ¹áĢ
áĢħ áĢ¹áĢ
áĢ¬ áĢ¸
Ò ³
å ¹
è ½
ĳ ãĢĲ
ä ½
æ¸ ¸
å Ĭ
æ ī
å Ĳ
ç Ķ
Ġ -
ĠãĢ ĳãĢĲ
å į
å® ĺ
æ ĺ
è ¿
è µ
Ġ âĢ
è ®
Ġ :
ĠÎ ¼
İ ¯
à¹ ĥ
å ¿
ä¸ ĭ
æĹ ¶
Ġå ¤
ä¸ Ģ
İ¯ äºļ
äº º
Ġ é
ç «
ç »
ç ī
å ¼
Ķ à¸
ĠãĢ ģ
ä ¼
ļ à¸
åĽ ½
à¤ ¤
Ġ i
Ġà´ ®
Ġà® ħ
Ñ ĩ
Ġà° ķ
àª ¤
Ĳ áĢ¬
áĢĢ áĢŃáĢ¯
áĥ ¡
àµįà´ °
Ï į
Ġ o
Ð°Ð ²
ĠÙ ħ
à¦ ²
ĠáĢ ľ
Ġà® ¤
Ã ł
à±įà° °
§ åıĳ
Ĺ à¸µ
° à¸
à¤ ²
áĤ ı
ĠáĢ Ĳ
Ġà´ ¨
e n
Ð°Ð ¼
áĥ ł
Î ´
Ġàª ķ
áĢ® áĢ¸áĢ
à¦ ķ
Ġà® ļ
Ã ¼
Ġ ê
Ġà´ ħ
à°¾à° °
Ġ b
Ĳ áĢ¼
¾ áĢĢ
áĢ¯ áĢŃ
áĢĲ áĢ¹áĢ
áĢ Ĩ
Ġà¤ ¹
Ð ¿
Îµ Î¹
Ú º
áĢķ áĢ«
Ġ áĥĲáĥ
à® µ
à´ £
Ġà¦ ª
ĠÐ ´
àª ķ
Ġà° µ
å °
é Ģ
æľ º
é Ļ
è ¯
Ġ 0
è §
è½ ½
ä¸ĭ è½½
á ŀ
ä¸ Ń
Ġå¤ §åıĳ
å Ĩ
æĺ ¯
äºļ æ¸¸
ç ¥
å İ
å®ĺ ç½ĳ
Ī à¸
å¿ «
à¤ ķ
Î¹ Î±
áĢĦ áĢ¹
ĠáĢ ķ
í ķ
ĠÐ ³
à´¿à´ ¯
Ġd e
áĢĶ áĢº
áĥ ļ
à¯ģà® ®à¯į
Ã ¡
à±ĩ à°
×Ļ ×
Ï Ĩ
Ġ k
Ø ¯
Ñ ŀ
à§ĩ à¦°
ĠÐ ²
à´ ¨àµįà´¨
å º
æī ĭ
å ·
Ĺ à¸
å¤ §
æ Ŀ
åľ ¨
å ¸
é ĩ
à¹ĥ à¸
Ĥ à¸
å Ń
à¥ ģ
àª ®
Î ¸
Ġáĥ Ĵ
à´ ±
Ġà° ®
à®¿à® ²
áģ ¾áĢĢ
áĢļ áĢ¹áĢ
áĢķ áĢ¹áĢ
áĢļ áĢ¹
Ġáģ Ĭ
ÉĻ r
æ Ĭ
æ ³
« à¸
ç ľ
æľ ī
å¹ ³
ç º
å ¥
à¸µ à¸
Ġ à¨
¸ à¸
Ġà¤ Ĩ
ë ĭ
Ä ĥ
à§ ĭ
Ø ³
áĢ ³
ĠáĢ Ľ
ĠÏĦ Î·
ĠÑ ĸ
o n
à´ ¸
Ðµ Ð½
áĥĶáĥ ļ
àª µ
áĢĬ áĢº
Ġà° ħ
à®¿à® ¯
l a
Ï İ
Æ °
ĠÐ ±
àµįà´ ¯
à¦ ¤
Ġ 3
Ġà¤ ª
áĥĲáĥ Ľ
i e
Ġà° ¸
ÏĦ Î±
Ġ Ûģ
ì ŀ
Ñ ħ
àµįà´ ª
Ġà® ĩ
Ġàª ª
áĥ ĵ
åı °
à¥įà¤¯ à¤¾à¤
ì Ĺ
à¦ ¬
á»į n
Ġt h
Ïģ Î¿
Ð°Ñ ŀ
Ġà¤ ®
Ð ¹
áĢ ĳ
à´ ª
à° Ĥ
à¯ Ĩ
Ġ e
áĥ Ľ
» áĢķ
áĢ® áĢ¸
Ġàª ¸
ÏĦ Î¿
Ġt i
Ġ p
Ñ Ī
áĢĻ áĢº
àµ Ģ
Ġ í
à§įà¦ °
Ø§ Ø
à±įà° ¨
× Ķ
¨ à¯įà®¤
áĢ½ áĢ¬
à¥ Ī
áĥ ľ
ĠáĢ ħ
ĠÎ ´
àµįà´ ļ
Ñģ ÑĤ
i n
à° ®
áĤ ķ
áĢĻ áĢ¹áĢ
ķ áĢ«
Ġ à¹Ģà¸
à¤ £
ã Ĥ
ìĿ ´
áĢħ áĢº
àµģà´ ¨àµįà´¨
àª¾àª Ĥ
Ġ v
ģ à¸²
Ġà® ¨
à¦ ®
a n
ĠÐ º
áĥ ¢
ÛĮ Úº
ĠÎº Î±Î¹
Ġà° ļ
Ïģ Î±
ìŀ ¥
w á»įn
à´ ķàµįà´ķ
à¥ĭ à¤
áĥĲáĥ ĵ
ÑĢ Ñĭ
ëĭ ¤
à¸£à¸ µ
ª à¯įà®ª
ĠØ§ ÙĦ
à¥ ¤
ŀ à¸
Ġàª ®
à° ¤
áĢĶáĢ¹áĢ ¸
áĢļ áĢº
Ġ w
ÏĦ Î·
ĠØ ¨
Ð¸ Ð½
× ¨
ĠÐ ¼
à´ ķ
h o
à¹ Ĥà¸
áĢĢ áĢ¹
áģ Ģ
áĥĲáĥ łáĥ
8 8
ä¸ į
å ĩ
æĸ ¹
å ¾
0 1
p p
é Ľ
è ¡
æīĭ æľº
ç Ľ
å Į
Ġï¼ ļ
Ġ 5
áģ ¿
áĢĦáĢ¹áĢ ·
áĢĦáĢº áĢ¸áĢ
à ©
äº Ĩ
è ´
à¤ ¸
à°¾à° ²
à® £
ÏĦ Îµ
ê ³
Ġ à¥¤
àª¾àª °
t i
Ġ l
ķ à¸
Ļ àµįà´
Ð½ Ñĭ
Ġáĥ ł
ĠØ ³
ì §
à® ®
Ġà° ¨
¿ ½
ï ¿½
ÏĢ Î¿
à¹Ī à¸²à¸
áĢŃáĢ¯ áĤĶ
áĢ¯ áĢ¶
a pp
à¥įà¤ °
à§įà¦ ¯
Ðº Ñĸ
à´¾à´ ¯
áĥĶáĥ ľ
à«ĭ àª
Å Ĥ
ë Ĭ
Ġ Ã
Ð¾ Ð²
âĢ Į
à® ±
Ġ h
áĢĢ áĢ¼
Ïĥ Î·
à¸Ńà¸ ĩà¸
à°¿à° Ĥà°
å¹³ åı°
á ł
å Ŀ
Ġç İ¯äºļ
W W
æ Ģ
Ġ äºļæ¸¸
à¤¾à¤ °
áĥĲáĥ ķ
Ð ±
Ġà´ ¤
ĠÏĦ Î¿
Ú ¾
Ġàª ľ
Ġ× Ķ
à¹ ĩ
Ġà¦ Ĩ
áĢĬ áĢ¹
áĢ±áĢ Ķ
áĢ¬ áĢĢáĢ¹áĢ
áĢĬáĢ¹áĢ ¸
áĢ¬ áĢĦáĢ¹áĢ¸
ĠáĢ Ĩ
ì Ħ
Ð°Ñ Ĩ
à´¿à´ ķàµįà´ķ
áĢĲ áĢļáĢ¹
áĢ±áĢ Ľ
à±įà° ¯
Ġ s
Ïī Î½
áĥĲáĥ ¡
ä¸ ī
Ġ C
å ±
å¼ Ģ
à¤ Ĥà¤
áĢĲ áĢº
à¯įà® ±
à¸Ńà¸ ĩ
Ð¸ Ð»
ĠÑ ŀ
à¦¾à¦ ¨
ê °
Î¯ Î±
Ġàª ¤
Ĺà¸µ à¹Īà¸
ļ àµįà´ļ
Ð¾ Ð½
Ú ¯
à° µ
ļ áĥĺ
Õ ¡
Å Ł
ç İ
Ġà¤ ¤
áĢ¶ áĢ¯
áĢ· áĢº
ëĬ Ķ
ĠÏĦ Î¿Ïħ
Ġà´ İ
Ġ m
Ð°Ð ³
à§ Ģ
Ġà® İ
à¹Į à¸
à° ¸
Ġáĥ ĺ
à´ Ļàµįà´
ĠÐ ¸
Î¼ Î±
à«įàª ¯
Ø ©
à¹ ĩà¸
Ä ģ
ĠÙ ¾
à¤ ¹
Ð°Ð ¹
à¯ ĭ
o w
¶ ľ
à° Ł
ì ł
Ġ Â
i á»
Ġà¦ ®
à¸£ à¸²à¸
àµ Ĥ
ĠÎ ½
× ľ
Ġáĥ ¨
Ł à¸£à¸µ
ģà¸² à¸£à¸
c h
ĠáĢ ģ
Ġàª Ĩ
ì ķ
ç Ļ
Ġc n
è Ģ
0 0
ä¹ Ĳ
ä¸ Ĭ
ï¼ Į
æ ķ
ç« Ļ
ĥ ½
æ ŀ
é Ĺ
éĽ Ĩ
å Ĵ
å ¯
æ ´
Ġà¤ µ
à° ¦
Ġà¦ ı
à¯įà®ķ à®³
ĠÙ Ĩ
ĠÑ Ĥ
o s
àµįà´ ±
áĢķ áĢº
Ġ à¹ģà¸
Î½ Î±
Ġì Ŀ
áĥĲáĥ ł
Ġn i
´ à¸
Õ¡ Õ
Ġ Õ
Ä± n
àª¿ àª
Ġt r
ĠÐ ¾
à° ª
ĠÎ ¿
Ð°Ð º
Ø ¨
æĪ ·
ç İ¯äºļ
æ µ
ç Ĳ
åĽ ¢
ä ¿
æ Ķ
à¤ µ
u n
áĢ ĺ
áĥ ®
à®¿à® °
à´° àµįâĢį
Ľ à¸
à´¾à´ £
¶ľ ìŀ¥
ë §
ĠáĢ Ķ
Ġà¦ ¨
Ġà¤ ¬
Ïģ Î¹
Ġ le
Ð½ Ñĸ
à±įà° ¤
Ġ â
ì§ Ģ
ã ĥ
¹ à¸
á ¹
à´ ¨àµįà´
ĠáĢ Ĵ
áĥĿáĥ Ľ
ĠÚ© ÛĮ
Ġ z
Ġàª ħ
Ġc h
áĤ Ī
áĢ Ŀ
à®¤ à¯įà®¤
ìĹ Ĳ
± à¸Ļà¸
Ð°Ñ Ĥ
ĠÎ ³
à´¿à´ °
à¦ ¸
Ġà° ¤
áĢĲ áĢ¬
ŀ ×
áĢĻáĢ¹áĢ ¸
áĢ± áĢ¸áĢ
á¹ £
Ĭ à¸
Ġà¤ ħ
ĠØ ¯
à´¿à´ ¨
Ġáĥĵ áĥĲ
· à¹Ī
Î ²
à® ®à¯į
ĠÑ Ģ
i r
à±įà° ²
Ġ nh
Ġà¦ ¹
Ġ (
áĢŃáĢ¯ áĢ·
g b
à«įàª °
íķ ĺ
Î ĳ
ï¿½ ï¿½
ĠÎ ĳ
r e
à´¾à´ °
³ à¸
Ġáĥ¡ áĥĲáĥ
ÑĨ ÑĮ
à®¿à®² à¯į
Ġà¤¹ à¥Ī
ĠÎ¼ Îµ
à° ¡
Ã ¤
à´¾à´ ¨
ç §
æ İ
åĴ Į
à¥įà¤¯ à¤¾
Ä Ļ
Ð½ Ð¾
à¸£à¸ ±à¸
ĠØ ª
Ġà¦ ¦
áĥĺáĥ Ĺ
áĢŃáĢ¯ áĢĦáĢ¹áĢ
Ġ )
áĢĸ áĢħáĢ¹áĢ
áĢ±áĢ ĲáĢ¬
áĢ½ áĢŃ
áĢ² áĤĶ
áĢĲ áĢ²áĢ·
ĠáĢ ĳ
Ã ³
Î½ Î¿
Ĥ ¬
à´Ļàµįà´ Ļ
áĢ±áĢ ĲáĢ¼
áĢŃ áĢ³
áĢŃáĢ¯ áĢ¸áĢ
Ð» Ð¸
ÉĻ n
t s
à¸£à¸ °à¸
Ð°Ð ±
à® ķ
àª¨ à«ĩ
à°¿à° ¨
ÏĦ Î¹Îº
áĢĶ áĢ¹
áĤı áĢ½
áĢģ áĢº
áĢķ áĢ¼
áĥĿáĥ ĳ
Ġ à§
ë ¡
à¹ī à¸²à¸
à´¿à´² àµįâĢį
àµįà´ ²
à§įà¦ ¤
Ġà¤ķ à¥ĩ
ĠÎ½ Î±
å½© ç¥
å¹ ´
æĪ ı
éĻ ħ
ç½ĳ ç«Ļ
ä¸ º
çī Ī
é Ŀ
é ¢
à¤ ®
Æ° á»
× ª
t e
ÙĪ Ø±
Ð» Ð°ÑĢ
à°¾à° ¨
Ð´ Ð°
ĠÑ ı
à¹Ī à¸²
à¯ Ĭ
Ġà´ ĩ
Ġáĥ Ļ
áĢĻ áĢ¾
Ġàª µ
ìĿ ĺ
Ġ y
ĠÎ ķ
Ø ¹
Ġà¦ķ à¦°
Ġà´ ļ
à¹Ħà¸ Ķ
ĠÎ ł
o u
áĥĲáĥ ļ
Î Ł
Î ¾
Ð ¶
æ °
Ġ 4
Ġ |
æ¸¸ æĪı
æ ł
éĽĨ åĽ¢
æ ĭ
æ Ń
å ĳ
åĿ Ģ
åĽ½ éĻħ
ä¼ ļ
à¤¾à¤ Ĥà¤
Ã© s
à®¤ à¯ģ
à° ¯
Ð¸ ÑĢ
Ä «
Ġt Ã«
áģ¿ áĢķ
áĢĽ áĢ¬
à¹ī à¸²
àµģà´ Ł
ì ĭ
Î Ļ
Î¼ Îµ
áĥ Ĺ
Ġa wá»įn
áº ¡
áĢ Ł
Ġ A
Ġà¦ ¤
Ħ à¸£à¸
Ġàª Ľ
Ñ İ
ĠÎ Ń
Ĺà¸µ à¹Ī
à°¿à° ķ
Ġì ŀ
a r
à´¿à´ ļàµįà´ļ
Ð¾ ÑĢ
ĠâĢ Ŀ
çľ Ł
å®ĺ æĸ¹
æĸ °
ä¸ ª
åħ ¬
å ¨
çĶ ¨
Ġà¤ ¨
Ø§ ÙĨ
áĢŃáĢ¯ áĢĦáĢº
Ġ×Ķ ×
Ġ f
Ġáĥ Ĺ
à®¿à® ©
àµģà´ ķ
ÏĢ ÏĮ
à¦ ¦
ľ à¸
ĠÐ¿ ÑĢ
2 0
æĹ¶ å½©
O M
åľ °
ĠâĢ ľ
å½©ç¥ ¨
à¤¾à¤ ¤
Ä ħ
ìĿ Ħ
à¸Ń à¸Ļ
à±įà° Ł
àª¾àª ¨
áĥ łáĥ
ĠáĢ »
áĢĲ áĢ½
áº ¿
Î» Î¿
± à¸Ļ
Ġ I
Ġà¦ ħ
Ð» Ñĸ
Ġ ÒĽ
ĠÚ© ÛĴ
r i
àµ ½
ģà¸² à¸£
à± Ĥà°
à®¾à® °
ĠÙ Ī
ÏĦ Î¹
i l
Ġ Ò³
áĥĶáĥ ¡
è Ī
å ĵ
çĻ »
ä» ¥
äº ¬
Ġ2 01
æĹ¶ æĹ¶å½©
ä¸ ļ
ĠC OM
çº ¿
æ ¬
è¡ Į
åİ ħ
¦ ģ
åĪĨ å½©
å® ¶
à¤ ļ
l u
ê ¸
Ð» ÑĮ
Ġa ti
ļ à¸Ńà¸
° à¹Ģà¸
Ġ j
à«ģ àªĤ
áĢ» áĢķ
ĠáĢ ĺ
ĠÎº Î±
à±ģà° ²
à¥ĩà¤ Ĥ
à§ĩà¦ ¨
áĢ¬ áĢĦáĢ¹áĢ
áĢ Ĵ
´ ë
à¯Īà® ¯
¨ áĥĺ
¡ à¸²à¸
å¤ ©
1 0
è½ ¦
å® ¢
9 9
± ä¹Ĳ
æĿ ¥
à¥ Ĥà¤
Ð¸ ÑĪ
Ã ´
áĢ¯ áĢķáĢ¹áĢ
áĢ±áĢ¬ áĢĦáĢº
Ðµ ÑĢ
Ġ la
ĠÏĦÎ· ÏĤ
Ġ× ľ
Ġà° °
Ġ á»į
à¦ ª
Ġàª ¹
ĸ à¸
Ù Ĥ
àµ ¼
áĢ±áĢ ľ
ì ¶ľìŀ¥
ì Ĭ
Ö Ģ
la r
áĢĻ áĢ½áĢ¬
áĢĲ áĢ¼
áĢľ áĢŃáĢ¯
ĠÑ ĥ
Îµ Î¯
ãģ ®
áĥĺáĥ ľ
è Ĥ
Ġà¤ ¯
à¯ģà® ķà¯įà®ķ
à± Ī
Ġ T
áĢ¸áĢ ±áĢ
áĤ Ģ
ĠáĢ ĸ
à¹Ħà¸ ¡
Å ĳ
Ð´ Ð¸
à¦ Ł
Ġs i
Îµ ÏĤ
Ġà¸ ªà¸
Ð°Ð ·
áĤĢ áĢĢ
áĢĻ áĢ»
l o
ç ¾
æ³ ¨
çĶ Ł
å¿« 3
Ľ à¹ĩ
çĶ µ
6 6
Ġ /
å¨ ±ä¹Ĳ
è ĩ
é ģ
è ¾
å¿« ä¸ī
Ġ ;
à¤° à¥įà¤
Ġáĥ Ķ
Ġ g
Ġàª ¨
à® ¯
íķ ľ
à°Ĥà° ¦
Ø ²
Ġ á¹£
Ð°Ð µ
ĠÎ £
§ à¸²à¸
áĥĶáĥ ł
Ġ O
Î¿ Ïį
Ġà´ Ĩ
Ġ N
Ġì ł
à±į âĢĮ
Ġ× ĳ
Ġà¦ ľ
Ð» Ñı
à¤ ª
à¸Ļà¸ µ
Ġ r
à¯ģà® ¤
à«Ģ àª
Ġà° Ĩ
áĥĶáĥĳ áĥĺáĥ¡
ĠÎ ļ
Ð³ Ð°
Ð¸Ð½ Ð³
ĠØ ¬
Ð³ Ð°Ð½
Ñĥ Ð½
±áĢ ĲáĢ¬
ģ áĢº
áĢĦ áĢ·áĢº
Î £
ĠÏĦÎ· Î½
Ġ S
à´Ł àµįà´Ł
à¸Ļ à¹Ģà¸
ì ļ
Ġag çİ¯äºļ
èµ Ľ
æ ²
è ĥ½
ä½ ľ
å½ ķ
è® ¡
é Ĵ
ãĢ Ĥ
Ġà¤ ¦
à¦¿à¦ ķ
Ð¾ Ð´
ar a
à±ģà° ¨
Ġ M
Î ¶
àµ Ĭ
à®Ł à¯įà®Ł
p a
à¹ĥà¸ «
ĠàªĽ à«ĩ
Ġáĥ ŀ
ë ı
Ù ĥ
Ã ¶
à± Ĭ
Ġ gb
Ð½ Ñı
à´ª àµįà´ª
éĢ Ł
åĪ °
å Ł
åĽ ¾
åį ķ
çĲ Ĩ
åĩ º
è ¦ģ
æ Į
é ¡
æľ Ģ
æ ¯
Ġå ħ
ç½ĳ åĿĢ
ç« ¯
2 2
ä ¾
æĹ ¥
ä½ ĵ
Ġå °
ç ł
èµ °
æ ĥ
ç Ń
Ġ WW
åĬ ¿
ĠWW W
Ġå ı
æĪ Ĳ
« ĺ
è ī
Ĺ äº¬
Ġå ½
çľŁ äºº
å ī
å®¢ æĪ·
Ġè ¿
çĻ» å½ķ
Ġà¤ ľ
ĩ à¹Ģà¸
Ïİ Î½
ÑĤ Ð¸
à¦¾à¦ ²
Ã ª
c z
ë¡ ľ
áĥĲáĥ ª
Ġla ti
Ñģ Ðº
à¹ Ĥ
Ø§ Ø±
Î± Î½
y e
ĠáĢŀ áĢ°
à®¾à® ©
áĢ¸áĢ Ļ
àµĩ à´
Ð°Ñ ı
Ġà¸ ª
Ġw a
à±ģà° Ĥà°
Ġà¦ª à§įà¦°
ģ à¸£à¸
j u
Ġ× Ĳ
d i
ĠÐ² Ð°
áĥĺáĥ ļ
áĢ±áĢ ŀ
Ġàª ¬
æ ±
Ġ 7
5 5
åĲ Ī
Ġ 6
é ĺ
æ³ ķ
æ´ ²
Ġå Ī
å¸ Ĥ
åħ ¨
é ĥ
å Ģ
à¤ ¦
Ġ B
Ð¾ Ñŀ
à¹Ħà¸Ķ à¹ī
ĠÎ ¤
ê³ ł
Ġ áº¹
áĢ±áĢ ķ
à´¿à´ ķ
±áĢ Ķ
áĢ¬ áĢ¹áĢ
áĢ±áĢ¬ áĢĢáĢº
à±ģà° ķ
à¦¿à¦ ¨
ĩà¸ ´
áº £
Ħà¸ §à¸²à¸
Î¯ Î½
Û Ķ
Ġ Ð°Ð´
à® Ļ
áĥĶáĥĳ áĥĲ
t o
å®¢æĪ· ç«¯
. .
å¤ ļ
å® ī
ç ®
åŃ Ĳ
à¥ĩà¤ ²
Ñĥ ÑĢ
b a
ê° Ģ
i s
à´³ àµįâĢį
Ġà°ª à±įà°°
à¹ĥ à¸Ļà¸
à´¾à´£ àµį
àªĤ àª
à¦ Ĺ
áĢĻ áĢ½
áĢĸ áĢ¼
Ġn a
Ø ´
Î ķ
ĠÎ ľ
áĥ Ĵ
Ġf un
t a
ĠÐ Ĳ
Ġ ÏĮ
à´ ¦
ê ²
r a
åĬ ¨
à¤¾à¤ ²
Ð°Ð ¿
à® ¨à¯įà®¤
à¹Ī à¸Ļ
ģ áģ
Ġk h
Ġà¦ °
Ĺ à°¾
Ð°Ñ Ī
ãģ Ħ
¡ à¸µà¸
áĢŀ áĢĬáĢ¹
Ĳ áĢ²áĢ·
Ġàª °
áĢ ¥
áĢ² áĤķ
ĠáĢĢ áĢŃáĢ¯
ĠÎ³ Î¹Î±
ë ¦
Ġà´ °
áĢ±áĢ¬ áĢº
× ĳ
áĥĶáĥ Ľ
b i
è ģ
Ġå ĩ
Ġæ Ī
ä¹ ĭ
& #
å· ¥
Ġï¼ ī
ç ¨
çİ °
ç Ĥ
Ġ 8
Ġå Į
èµ° åĬ¿
à¤ ¯
à¦¾à¦ ®
Ð¸ Ð·
à®¾à® ķ
ĠÎ± ÏĢÏĮ
r o
Ġà´ª àµįà´°
ĠÐ² Ñĭ
Ķ à¸´à¸
Ġ Ò
d e
· à¸Ńà¸
Ġáģ ı
à¦° à§įà¦
Ġáĥ ¬
Ġ ÛĶ
à°¿à°Ĥà° ļ
k o
à¨ ¾
é «ĺ
è ¶
äº İ
åľ º
åı ¯
åŃ ¦
à¸Ńà¸ ¢
åĪ Ĵ
åĨ Į
æľ ¬
Ġ 9
å ģ
à¹ Ĩ
è ·
éĥ ¨
à¹Īà¸ ĩà¸
à¤¾à¤ ¨
ì ĥ
l ÉĻr
àª ²
Ù ģ
Ġ P
ĠÐ Ł
Î» Î»
à´£ àµįà´Ł
Ġá¹£ e
Ġê °
Ġ ng
áĢ¼ áĢ¬áĢ¸áĢ
y i
áĥĿáĥ ¡
w o
ÑĤ Ñĭ
Ġ Ïĩ
áĢģ áĢ²áĢ·
à¯ Ģ
Ġl o
Ġà¦ ¶
á Ł
Ġï¼ Ī
1 1
ä¹ Ī
æĹ Ĺ
ç¥ ŀ
æ Ħ
äºļ æ´²
åľ¨ çº¿
à¤¾à¤ ¹
àµģà´ ¤
à°¾à°° à±ģ
á¹£ áº¹
Ñ Ħ
Ī ëĭ¤
Ġ E
áĥĶáĥĳ áĥĺ
ĠÎ ·
àª £
Ġt o
áĢ Ĥ
ĠÐ ĵ
àµĨ à´¯
à¦¾ à§Ł
× Ĳ
à°¨ à°¿
ä¸ »
æ³¨ åĨĮ
æľ Ī
å° ı
Ġ; &#
è§ Ĩ
æ Ļ
Ġ2 0
æīĭæľº çīĪ
å¯ ¹
à¤¾à¤ µ
Ð¾ Ð¼
Ġ K
áĢŀ áĢĬáĢº
à®° à¯į
Ġ L
Ġ à¹Ĥà¸
Ø§ ÛĮ
ĠÎ ¸
ĠÐ½ Ðµ
Ġà¦ ¯
Ġ G
Ġáĥ £áĥ
ļ à¸²à¸
l áº¹
e t
èµĽ è½¦
èĪ °
Ġ ä»
Ġà¤ °
àµįâĢ Į
ļà¸Ńà¸ ¥
¥à¸ °à¸
Ġà° ¬
ãĥ ¼
ĠØ§ÙĦ Ø
ÏĦ Î¬
àª ¹
à®¿à® ±
Ð½ Ðµ
àµģà´ ®
á» Ļ
áĥĿáĥ ľ
d ÉĻ
é ¾
à¤¾à¤ ļ
ĭ à¸
ë ¥
à°° à±įà°
k á»į
ĠÙħ ÛĮÚº
Ð½ Ð¸
Ïģ Î¬
ĠÐ½ Ð°
à´¤ àµį
Ñģ Ð¸
à¦ ¼
±à¸ ĩà¸
Ġàª ı
Ġk i
áĥ£áĥ ł
u l
ä¹ Ł
åı Į
Ġà¤Ĩ à¤¹
ĠÏĥ Ïħ
à¯įà® ļ
m á»į
Ġà° ¦
à´ ķàµįà´
ÑĨ Ð°
q u
ĠÑ Ī
ãģ §
Ī à¸²à¸
d a
×ķ× ª
Ġà¤ ²
ï¿½ï¿½ ï¿½ï¿½
w a
ìĿ ¼
ĠÏĢ Î¿Ïħ
áĢ¬ áĢĽ
ĠA wá»įn
d o
áĥ §
Ġr áº¹
Ù ¹
à´¿à´ Ł
ì ľ
à¸£à¸ ´à¸
à® ªà¯įà®ª
àª ª
Ġ J
±áĢ ĲáĢ¼
áĢ¸ áĢĢ
Ġj áº¹
Ġà° ĩ
Ø³ Øª
à¹ī à¸Ńà¸
àµįà´ ³
Î¹ Ïĥ
áĢ¸áĢ ŀ
Ġk o
áĥĺáĥ ĵ
7 7
æĹĹ èĪ°
¶ à¸
é ľ
ģà¸ ±à¸
ç ¤
Ġå ľ
è®¡ åĪĴ
é ķ
èµ°åĬ¿ åĽ¾
é¾ Ļ
¡ à¸²
à¤¿à¤ ķ
ĠÑ į
Ġ F
Ġ D
Ð´ Ð°Ð½
Ġë °
p á»į
±áĢ Ľ
áĢ¯ áĢķáĢº
àª ¸
ÎŃ ÏĤ
² à±ĭ
à® ļ
à´ Ĺ
s i
áº ¥
Ø§ ÙĦ
Ġáĥ ķ
Ð½ Ð°
à¦¿à¦ ¤
p o
n i
Ġå½ ©
ä» £
éĩ ĳ
à¥Ĥà¤ ¨
ĠÑ ħ
ê¸ °
ĠáĢ »áĢķ
ģ áĢ²áĢ·
Ġáĥ ĳ
Ïģ Î¯
o o
Ðµ ÑĤ
Ġk an
Ġà° ī
Ġà®İ à®©
áĢ±áĢĲáĢ¬ áĢ·
ĠáĢ ±
áĢĨ áĢŃáĢ¯
Ġà´ Ĵ
ãģ Ĺ
k e
Ġàªķ àª°
¥ à¸²à¸
Ġà¤® à¥ĩà¤Ĥ
k an
áĤı áĢŃáĢ¯áĢĦáĢ¹áĢ
áĢŀ áĢ°
à¦¿ à§Ł
à¹Ģà¸ Ľà¹ĩ
å¥ ½
äº §
è¿ Ľ
å® ŀ
Ġà¤ ¶
ĠáĥĲáĥ ł
Ä ĵ
ĠÎ Ķ
Ġì ķ
ÏĦ Î±Î¹
ĠÃ ®
áĢĽ áĢ¾
l i
Ġà® ī
Ġp h
Ð°Ð³ Ð°
h un
à¦ ¹
áĥĶáĥ ķ
Ð¾ Ð¸
w á»į
×Ļ× Ŀ
âĢĭ âĢĭ
à´¾à´ ¤
Ú Ĩ
ĠÐ¿ Ð¾
é £
é ¦
Ġ ä½
åĲ İ
åħ ¥
3 3
æĬ Ģ
ä» ¶
à¤ ¡
Ľ à¸£à¸°à¸
Ġà° Ĺ
Ð°Ð» Ñĸ
áº¹ lu
Ġb a
ÎŁ Î
Î¹ Î¿
Ġ "
gb a
áĥĶáĥ Ĺ
Ġp e
ìĦ ľ
e l
à¦¾à¦ ķ
ĠÏĢ ÏģÎ¿
àª® àª¾àªĤ
Ġ R
àµģà´Ł àµĨ
Ñĩ Ñĭ
Ø Ń
· à¸Ń
Ġl áº¹
áĢ¬áĢ¸áĢ Ļ
w e
Ġt a
ä¿ ¡
ç¾ İ
éĿ ¢
åĬ Ľ
æ ı
è °
à¹ī à¸Ļà¸
ç» ı
æŀ ľ
äº ĭ
Ġå Ľ
åº ¦
å §
å° ±
å ¦
è Ĳ
à¹īà¸ §à¸
è§ Ħ
à¥įà¤ ¤
à¯ģà® ķ
áĥĺ áĥĲ
Ġb i
Îµ Î½
à±įà° ª
Ġà´ ¬
Ġ W
Ġà¦ Ĺ
Ð· Ðµ
Ġáģ Ĥ
y a
ì Ľ
áĢ¬áĢ¸áĢ ŀ
áĥĲáĥ ®
j a
Ã ¢
ĠÎµ ÏĢ
in u
àª¨ àª¾
er e
ÑĤ Ð¾
ĠåĮ Ĺäº¬
å »
èĩ ª
åĮ ĸ
p k
ģ éĢŁ
å® ļ
à¥ģ à¤
± àµĨ
ĠØ ±
Ġ ?
gb o
en t
Į Ģ
à°¨ à±įà°¨
Ľ à§ĩ
Ġp áº¹lu
Ġp a
Ġáĥł áĥĿáĥĽ
à¸£à¸µ à¸
r in
Ïģ ÏĮ
áĢĬáĢ¹áĢ ·
áĢħ áĢ¹
áģ¿áĢķ áĢ®áĢ¸
ĠáĢĴ áĢ®
à¥įà¤ ¹
áĢĲ áĢļáĢº
àµ »
à¯ Ĥ
áĢ° áĢ¸áĢ
á» ĳ
ĵ à¸
b o
à§ģ à¦
ê µ
Ð° Ò³
à° Ĺ
ĠN i
Ñ ĳ
áĢľ áĢ¬
r u
Î® ÏĤ
k i
àª¨ à«Ģ
§ à¸´à¸
ãģ «
áĥ£áĥ ļ
k a
áĢŃáĢ¯ áĢĦáĢ¹áĢ¸
áĢĲ áĢ¹
áĢĽ áĢ½áĢŃ
áĢ± áģ¾áĢĢ
áĢĶáĢ¹áĢ Ļ
ĠáĢ±áĢ Ľ
áĢ¬áĢ¸áĢ ľ
ĠÙ Ħ
à¦¾à¦ ¦
ì ĸ
Ġd i
Î Ĺ
ĠÏĥ ÏĦÎ¿
ĠáĢľ áĢ°
± à¹īà¸
Ġà° İ
á» Į
æ Ľ
è¿ ĩ
æĪ ĳ
å¥ ĸ
æ į
Ġå į
ä¸Ń åĽ½
Ġäºļæ¸¸ éĽĨåĽ¢
Ġå ®
è £
Ġà¤ Ĺ
Ñĭ Ñı
p e
»áĢķ áĢ¬
áĢķáĢ« áĢĲáĢļáĢ¹
áĢģ áĢ»
à®¿à® Ł
n a
Ġà¦ ļ
ÐµÐ½ Ð¸
Ġ H
áĥĲáĥ ¢
Î¿Ïħ Î½
h e
Ġ wá»įn
à¹ĥà¸ Ĭ
Ġ× ©
ĠÐ ¡
ĠØ¯ Ø±
à°ķ à±įà°
à´ ´
Ĥ à¸Ńà¸ĩà¸
åįķ åıĮ
æĸ ĩ
ä» ¬
¯ åıĳ
åĵ ģ
è¿ Ĳ
Ġà¤ª à¥įà¤°
ë Ĥ
á¹£ e
à§įà¦ Ł
àª¾àª ®
r á»į
ĠÐ »
áĥĲáĥ Ĺ
áĢŃáĢ¯ áĢĢáĢ¹áĢ
áĢ ı
à®¾à® ²
Ã Ń
à´¿ àµ½
Ħ áĢ¶
ĠáĢ ļ
ĠÚ© Ø±
ì Ĥ¬
Ïģ Î³
ł à¸²à¸
à°¾à° ¯
ĠÐ ĳ
áĢģ áĢ¼
¬ ¬
å¿ ĥ
ä¸ İ
à¹ī à¸Ļ
Ġ1 0
Ġå ¹
åı ¸
Ġag åĽ½éĻħ
ç ķ
æĹĹèĪ° åİħ
à¥ĩà¤ ¤
ĠÙ ģ
Ïĥ ÎµÎ¹
Ð°Ñ ĩ
ì ²
áĥ£áĥ ļáĥĺ
¯ à¦¼
à¤ Ĥ
iá» ĩ
à« Ĥ
ë ĵ
u r
Î¼ Î¿
à®© à¯į
ĠáĢķ áĢ¼
ĠA G
Ġà¤ħ à¤¸
ĠÐ ľ
¦ à°¿
à¸Ń à¸²à¸
áĥ ĳ
Ðº Ð°
Îĳ Î
ĠÏĦ Î±
Ð¸ Ð¼
Õ ¸
m a
áĢ° áĢ¸
ĠÐ ļ
áĢĶ áĢ²áĤĶ
áĢ±áĢ Ļ
Ã ¬
à¯įà® ²
à¸Ń à¸£
Ġà´ ī
» áĢģ
áĢ¯ áĢĲáĢ¹áĢ
áĥĲáĥłáĥ Ĺ
áĢľ áĢĬáĢ¹áĢ¸
áĢ¯áĢŃ áĢĦáĢ¹áĢ
áĢģ áĢ¯
ìĿ Ģ
Ġàª ¦
Ð°Ñ ħ
ÙĪ Úº
à¸² à¸Ļà¸
Ġà° ľ
ĠÎ ²
Å ¼
éĩ į
Ġå Ĳ
Ġ ä¸Ģ
Ł ¥
åĬ ł
åħ ³
åī į
è§ £
è¿ Ļ
à¤¿à¤ ¤
áĢ¸áĢ Ľ
áĥĶáĥ łáĥ
ĠáĢ±áĢ Ķ
áĤ Ĳ
áĢ±áĢ «
Ġ '
Ð¾ Ð»
Ãª n
¨ à¸
ÛĮ ÙĨ
ĠØ £
Ġà´ ľ
à°Ĥà° Ł
× ©
ĠÏĥ ÏĦÎ·
áĥĶáĥ ĵ
ãģ ¦
à® ´
àª° à«įàª
Õ ¥
Õ ¶
Ä Ł
åĬ ¡
å ķ
èĢ ħ
Ġåľ ¨
à¨¾ à¨
Ġ Ĉ
Ġåĩ ¯åıĳ
çľ ĭ
à¤ §
Ġà¦¬ à¦¿à¦
áĢ» áĢĸáĢħáĢ¹áĢ
áĢģ áĢ¶
Ð¸Ð½ Ð¸
Ġà¸ Ħ
à´¾à´ ²
ĩà¸´ à¸Ļà¸
Ó £
s z
à¸Ļ à¹Į
áģ ļ
ķ áĢ¼
Ħà¸ ¸à¸
Î» Î·
£ ¼
Ñį Ð½
Ġà¤ķ à¥Ģ
Ġáĥ ľ
àµ ¾
» áĢĻ
áĢķ áĢ²
áĢĻáĢº áĢ¬áĢ¸
Ģ áĢŃáĢ¯
áĢ¸áĢ Ĳ
Ã´ ng
Ġà¸ ŀ
à±ģà°¨ à±įà°¨
Ġ ÏĨ
Ł à¸
ìĬ ¤
à® ķà¯įà®ķ
à¦¾à¦ ¤
Ġà¸ Ĺà¸
ĠÑ ĩ
Ġà°ļ à±ĩà°
à¹ī à¸Ńà¸ĩà¸
i t
áĢ¬áĢ¸áĢ ¡
ĸ áĥĶ
Ġàª ²
Ġ q
à¹Ħà¸ ¥
Î± ÏĤ
« à¸Ļ
Ġç Ķ
çŃ ī
Ġ %
æĬ ķ
Ġà¤Ĩà¤¹ à¥ĩ
ĠÙ ĩ
ĠáĢ» áĢĻ
áĢķ áĢ¹
Ļ áĢº
ĠáĢĢ áĢº
ĠáĢ¡ áĢŀ
à§įà¦ ¬
Ġê ²
Ð°ÑĨ ÑĮ
ĠÛģ ÛĴ
Æ ¡
à¯įà®ķà®³ à¯į
Ĺà¸ ¢
à¥ĭà¤ Ĥ
à°¿à° ¤
±áĢ ķ
ķáĢ« áĢĲáĢļáĢ¹
áĢŃ áĢĲáĢ¹áĢ
ĠÏĢ Î±
áĢĶ áĢ¾
Ġà¸ ķ
à¸Ļ à¸²à¸
áĥĿáĥ ķ
g y
Ġ ãĥ
Ġàª ¶
ÑĨ Ñĸ
ĠÃ® n
ģ à¹Ģà¸
2 01
ç ³
è ĭ
ãĢ ĳãĢĲ
åĲ Į
åĮ º
pk 10
éĴ Ł
Ġà¤ķ à¤°
ĠÎ Ł
à±įà° µ
à¦¿ à¦°
r z
Ġì Ĺ
Ò ĵ
× ł
Ġ un
á» §
Ġà´µ à´¿à´
±à¸ ģà¸
áĥ ª
áĢ¸áĢ ¡
Ð³ Ð¾
ĠØ ´
l ÉĻ
Î¼ ÎŃ
ĠáĢ Ł
à®¿à® ķ
Ðº Ð¸
Ð· Ñĸ
¸ à±įà°¤
àµģà´ ³
à¹ĥà¸« à¹īà¸
Ġàª Ĺ
áĢĦ áĢ·
Ġáģ ģáģ
à¦ ľ
ĠÐ¼ Ñĥ
ë§ Ī
ĠæĪ ĳ
æ¯ Ķ
Īà¸ °à¸
é Ĥ
Ġæ ī
å¾ Ĺ
çĤ ¹
å± ķ
Ġæ ĸ
éĢ ļ
æľ Ł
à¤¾à¤ ¸
áĥ Ļ
ìĿ ¸
ĠáĢ ¥
ĠÏĥ Îµ
ĠáĢ» áĢĸáĢħáĢ¹áĢ
áĢĦáĢº áĢ¸
ĠØ ¹
¡ à±ģ
ÑĨ ÑĨÐ°
à«ģ àª
áĥ ¥
à¦ ĩ
Ð¸ Ñı
áº Ń
à¸£à¸±à¸ ļà¸
Ġs z
Ġà´ ²
áĢ± áĢĢ
s t
Ŀ ¼
ãģ ¨
áĢ¸áĢ ľ
Î½ Î·
à°Ĥà° ¤
±áĢ ľ
áĢ¬ áĢŀ
Ġå½© ç¥ŀ
Ġ ï¿½
äº Į
æ° ĳ
éĩ ı
æ ¶
éģ ĵ
äº Ķ
å¤ ĸ
éĹ ¨
åĳ ĺ
å ĸ
éķ ¿
« à¸Ļà¸
æĢ §
à¹Ħà¸Ķ à¹īà¸
Ġæ ŀ
Ġ ä¸
åħ ĭ
æŃ £
èĤ ²
å ¢
è® ¯
§ à¹Īà¸²
Ġæ ĺ
ä¿ Ŀ
æķ °
çĲ ĥ
å¼ ı
Ġ çļĦ
Ġ à¥
à¯ģà® µ
Ð°Ð´ Ð¸
ti on
ĠÐ± Ð¾
à´± àµįà´±
Ġçİ¯äºļ ag
åĪĨ éĴŁ
èµ Ħ
åĪ ¶
à¹Ħà¸¡ à¹Īà¸
ĠãĢ ĭ
çł ģ
æ ģ
§ à¹Īà¸²à¸
å®ĺæĸ¹ ç½ĳç«Ļ
ķà¸ ±à¸
å» º
á Ī
Ġà¤¤ à¥įà¤¯à¤¾à¤
Î¿ Î»
m ÉĻ
áĢ¬ áĢĦáĢ¹
áĢ¬áĢ¸áĢ Ľ
Ã ½
à¦¾à¦ ¬
áĥĺáĥ ł
Ī ĺ
¥ à«Ģ
ĠØ Į
Ġà°µ à°¿à°
Ð°Ð» ÑĮ
áĢĽáĢ¾ áĢŃ
Ġv Ãł
à¤¿à¤ ¯
Ġ Ïħ
Å Ľ
à° ļ
ĠÐ Ĵ
Ġe t
à¦¾à¦ ¸
Ġà® Ĩ
Ġ× ŀ×
ĠÎ »
áĥĿáĥ ĵ
àµĨ à´¨àµįà´¨
Ġì ĺ
ĠÑģ ÑĤ
Ã¡ s
Ð»Ð°ÑĢ Ð¸
ĠÑ Ħ
åĪ ©
ç³ »
Ġà¤ ļ
àª¾àª µ
à´¨ àµįâĢį
Ġun d
à´¾à´¯ à´¿
ŀ áĢ°
a re
áĢ¯áĢŃ áĤĶ
áĢ¸áĢ ħ
ĠÎ± Î½
à±ģà° ¤
à¦¾à¦ ĩ
áĤ Ĭ
áĢ±áĢ¬ áĢĦáĢºáĢ¸áĢ
Ġáĥ ®
ë¦ ¬
app ä¸ĭè½½
Ĥ à¸Ńà¸ĩ
è¡ ¨
ģ à¹ĩà¸
çĽ ´
éĹ ´
è® ¾
Ġè¿ Ļ
ç ©
å¼Ģ æĪ·
à¥Ģ à¤²
Ð¸ Ð±
Ø ¦
Ã §
Ð¼ Ñĸ
Ïī ÏĤ
Ġàªħ àª¨à«ĩ
à°¨ à±ģ
à´¿à´ ¨àµįà´
ĠÐ´ Ð°ÑĢ
à®£ à¯įà®Ł
ĠÄĳ á»
à¦ Ĥ
ou r
áĥ ¨áĥĺ
áĢ¬ áĢĢáĢ¹
áĢ±áĢ ¡
Ã¡ l
Ð¸ ÑĤ
Ðº Ñĥ
ëı Ħ
áĢ±áĢ ·
i a
ÏĦ Î®
é ĥ½
åħ¬ åı¸
2 8
à¤ Ĺ
u ng
Ġà´İ à´¨àµįà´¨
ÙĨ Ø¯
Ã« r
Ġà° ²
áĥĺáĥ ª
Î¬ Î½
à¤ ¶
Ñģ Ñı
Å ¡
áĢ» áĢĸ
áĢ¬ áĢľ
ì ĺ
à®¿à® ¤
à¸Ń à¸Ńà¸Ļ
ãģ ª
à¹ĩ à¸Ńà¸
àª ¯
à¸Ńà¸Ńà¸Ļ à¹Ħà¸¥
ľà¸ ¹
Ļ áĢ½áĢ¬
áĤıáĢ½ áĢĦáĢ¹áĢ·
áĢļáĢ¹áĢ ľ
ĠáĢ Ŀ
àµģà´¨àµįà´¨ àµģ
ĠâĢ Ļ
Ġi á¹£áº¹
ĠáĢ Ħ
Ù ī
Ġë §
y an
Ïģ Îµ
l á»į
ĠØ§ ÙĪØ±
È Ľ
Ġe in
Ñį ÑĤ
à¤ ľ
ªà¸ ¸à¸
× ĵ
áĥķ áĥĶáĥļ
Ġà¦ ī
Õ «
Ö Ĥ
Ġv ÉĻ
à®¿à®© à¯į
b e
à°ķ à±ģ
Ġv á»
Ħà¸§à¸²à¸ ¡à¸
gb e
à«įàª Ł
Ġáĥ ¤
Ļ áĢ½
Ġà´ ¯
Ġf i
ĠáĢ¡ áĢħ
ÏĦ ÏĮ
c i
Ð½ Ð¸Ð½Ð³
ĠÐ± Ñŀ
Ð°Ð½ Ð´
» áĢĸ
áĢŁ áĢ¬
ë ħ
áĢ¥ áĢ¹áĢ
ĠáĢŀ áĢŃ
à¸² à¸£
æı Ĳ
à¤¾à¤ ¯
ĠáĢĢ áĢ¼
t á»į
àµ Ī
ĠÐ Ŀ
Ġà¦ ĵ
à±Ĩ à°²
à¹Ī à¸Ļà¸
Ġni pa
ê ±
Ġa z
Ġy i
áĢĽ áĢ½
ĠÏĦ ÏīÎ½
o r
Ġáĥ ¥
Ġlo ri
ĠáĢĴ áĢ«
ÑĨ Ñĭ
Ø§Ø ¦
Ġà¦ Ń
áģ ¼
ĸ áĢ¼
4 4
Ġé ĩ
èī ²
Ġ201 9
é Ķ
æ £
ç¨ ĭ
æ° ´
åĪĨ å¿«3
æ Ĵ
æĬ ¥
à¹Ħà¸¡ à¹Ī
à¥ Ĥ
j á»į
ìĭ ľ
àª Ĺ
à±įà° ļ
áº §
à®¿à® ķà¯įà®ķ
ãģ Ł
à¹Īà¸ ĩ
Ðµ Ð¼
Ïĥ Îµ
à´¿à´ ¤
áĥĿáĥ ļ
m i
ĠØ¨ Ùĩ
Ġm i
Ġì ĭ
Ġo hun
à°ª à±įà°ª
Ġà¤ ī
ĠáĢ¡ áĢľ
ĠÐ¿ ÑĢÑĭ
à´¨àµįà´ ¤
Ľ à¸£à¸
ŀ Į
r an
à¦ £
àª¾àª ¯
Ì £
áĢ¬ áĢĶ
Ġáĥ ©
Î¯Î½ Î±Î¹
à´² àµįà´²
áĢĻ áĢ¼
Ġ Ãł
à¯įà® ³
à°² à±ģ
ª à¸´
Ø ¬
ĠÐ £
× ¢
Ġ qu
Ĭ é¾Ļ
å¤ §åıĳ
Ġà¤ Ń
Ðµ Ð´
áĥĿáĥ ł
d d
ë °
à¸Ļà¸µ à¹ī
Ġà´ ¶
áĢĴ áĢ®
àª ¦
ÎĻ Î
Î» Îµ
áĢĻáĢ¾ áĢ¬
à°² à±ĭ
à¹Īà¸ §à¸
à§ĩà¦ ķ
t en
áĢĻáĢ¾ áĢ¯
áĥ ¬
ìķ Ī
d z
åĨ ħ
æĥ ħ
ä½ į
ç® ¡
Ġ1 1
à¸µà¸ ¢à¸
å· ŀ
åı ·
è Ĭ
ĠåĮĹäº¬ èµĽè½¦
ç Ŀ
Ġ1 2
à© Ģ
åı £
ä¸ ĩ
é ĵ
æīĭæľº å®¢æĪ·ç«¯
é ļ
å¼Ģ å¥ĸ
å° Ĩ
à¸Ńà¸ ¢à¸
7 0
Ġ áł
åħ ĥ
æ ¡
âĢ ľ
åı Ĭ
äº ¤
é ª
æ¬ ¡
Ġ ä¸į
Ġag äºļæ´²
æľ į
æĪ ĺ
ãĢ ģ
ç Ī
é ©
åĲ Ĺ
Ġå ¾
à¤ Ł
l Ä±
àµįà´ ŀ
Î» Î±
Ġì Ħ
Ð° ÒĽ
à®¾à® ¤
Ñĥ Ñģ
àª ľ
ĠÑ Ĩ
Ġ x
Î¿ Î½
t t
àµģà´³ àµįà´³
áĥĶáĥĳ áĥ¡
à°¿à°ķ à°¿
à§ ľ
Ġ Ú¯
è ¢
Ġ ć
åŁ İ
ç ´
Ġæ Ĺ
à¸Ń à¸Ļà¸
Ġæŀ ģéĢŁ
à© ĩ
æĶ ¿
è¯ ´
Ġag çľŁäºº
à¸Ńà¸¢ à¹Īà¸²à¸
à¸£à¸±à¸ ļ
äº ī
å Ļ
æĺ İ
Ġå¤§åıĳ å¿«ä¸ī
é »
¡ à¸µ
åĲ į
à¤¿à¤ ²
Ñ ī
í Ĭ
Ä Ľ
à® ª
áĢķáĢ« áĢĲáĢļáĢº
Ð°Ñģ Ð¸
áĢ» áĢģ
àª ¡
áĢĸáĢ¼ áĢħáĢº
à¦¿à¦ ²
Ñ ĵ
ĠâĢ Ķ
Ð°Ñ Ĭ
Ġï¼ Ł
Ġà¤¹ à¥ĭ
Îº Îµ
ë¥ ¼
Ø§ Øª
s h
ĠáĥĲáĥ Ľ
ÑĢ Ñį
Ã¡ c
à°¿à° ¯
Ã¼ n
ŀ àµįà´ŀ
Ġp o
à«ĩàª ²
× Ĺ
a s
Ð°Ð ¸
áĥĿáĥ Ĵ
ĠÏĢ Îµ
à¥įà¤ Ł
áĢĢ áĢ»
Ð°Ñģ ÑĤ
à¯įà® µ
àµįà´ µ
Ã¡ r
à§ģ à¦²
ĠÐ ¶
ì ¹
áĥĿáĥ łáĥ
áĢŃ áĢĻáĢ¹áĢ
±áĢ ŀ
áĢ±áĢ¬ áĢ·
ª àµįà´ª
Ġàª Ń
ĠÎµ Î¯Î½Î±Î¹
ĠÂ «
áĤıáĢ½ áĢħáĢ¹áĢ
ĠáĢĸ áĢ¼
éĩ Į
é¢ ĺ
ª à¸²à¸
èĢ ĥ
ç ±
à¹Ģà¸ Ĥ
à¨ ¿
¥ ¿
çİ ©
ç ²
ç Ħ
è· ¯
èµ ·
æİ ¥
è£ ħ
æ º
å¤ ĩ
à¸Ļà¸ ±
à¤¾à¤ ľ
ÑģÑĤ Ð²
à¯ģà® ®
Ġl Ãł
íķ ´
Ġ en
¥à¸ °
à¤¾à¤ ®
à´ ¶
à°¿à° ª
áĥĺáĥ ¢
àª¾àª ¤
áĢĲáĢ¼ áĢĢáĢ¹
áĢ¯ áĢĲáĢº
e g
ÙĬ Ø©
ãģ Ļ
à§ĩà¦ ²
Ð°Ñ İ
Î ¡
Î¯Î± ÏĤ
à°Ĥà° ¡
Ġn inu
Ġáĥĵ áĥĲáĥ
Õ¸ ÖĤ
ÉĻ t
Ġ ho
k un
Ġà®ļ à¯Ĩ
Ġê ³
ĠØ ¢
áº¹ n
Å «
àµįà´ ®
j i
à¹Ģà¸Ľà¹ĩ à¸Ļà¸
Ġ. ..
åº Ķ
æ ¼
±à¸ ĩ
å £
ç» ĵ
à¤ ³
Ġàªª à«įàª°
à§ĩà¦ ¶
Ġ á»Į
Ï Ī
Ġd er
ĠáĢĢ áĢ»
Ð°Ð¼ Ñĸ
Ġa la
Ġ× ķ
Ġi le
àµģà´ µ
à±įà° ¸
Ġà¤ķ à¥ĭ
f i
áĥĵ áĥĲ
Ðµ Ð»
Î¿Ïħ ÏĤ
áĢ¬áĢ¸áĢ Ĳ
ë ³
m u
Ġm a
ĠÐ Ķ
§ à§
à´² àµįâĢį
à¤¾à¤ Ĺ
à´Ļàµįà´Ļ à´³
Æ°á» Ŀ
à®² à¯į
áĤĢáĢĢ áĢ®áĢ¸áĢ
áĢľ áĢ²
áĢĻ áĤĪ
áĢ½ áĢĶáĢº
à§ģ à¦°
ë ¶
ĠÎ ĵ
Ñĥ Ð´
àª ³
à±įà° ®
ĠáĥĴ áĥĲáĥĽ
Ù ¾
Ġi n
ĠÎ± Ïħ
Ġd a
à± Ĥ
à§įà¦ ·
çī ©
à¥įà¤ µ
ĠÑĪ ÑĤÐ¾
Ġm áº¹
à¸µà¸ ¢
à´ ¹
áĢĻ áĢŃ
ì £¼
à° ¹
ÏĥÎ· ÏĤ
Ġl á»į
ĠáĢķ áĢ«
«à¸ ¥à¸
áĥĺáĥ Ļ
à®¾à® Ł
Ġàª¹ àª¤
ĠØ§ÙĦ Ùħ
Ð¾ Ð¹
±áĢ Ĩ
áĢ ĩ
àµģà´ £
í Ļ
Ã¡ n
Ġd es
à° ľ
Ġ. .
ĠáĢĨ áĢŃáĢ¯
¥ à¹ĩà¸Ńà¸
Î ¤
Ïģ Î·
à¹ ģ
åį ļ
åķ Ĩ
è´ ¹
à¥įà¤ ·
× §
áĢ ´
ĠáĢ Ĺ
à¦ ¶
Ä ĩ
Ġáĥ Ŀ
ĠØ ®
íĬ ¸
t Ã«
áĢŃáĢ¯ áĢĢáĢº
Ġth á»
à´ ·
ķ à¸´à¸
Ġy oo
a l
à°¾à° Ĥà°
ê ŀĮ
s áº¹
à¯įà® ©
ĠÎ ¬
ë ł
Ġ Ð°Ð±
ãĥ ³
Ð¾ ÑĤ
t u
Ġàª ¥
à¸£ à¸£à¸
à¹Ģ à¸£à¸
Ġå Ĭ
è¯ ķ
à¹ģà¸ ¥
æµ ·
æĦ ı
à¤¾à¤¹ à¥Ģ
à¦¾à¦ ľ
ĠâĢĭ âĢĭâĢĭ
Ġà´Ĵ à´°
áĥłáĥ Ĺ
s e
à ¶
Ġà¤¸ à¥ĩ
ĠáĢĲ áĢħáĢ¹áĢ
áģ ½
áĢ¸ áĢĢáĢŃáĢ¯
à¯ģà®¤ à¯įà®¤
Ġ Y
d u
Ġà¦ª à¦°
Ġ ï¿½ï¿½ï¿½ï¿½
Ġgb a
±áĢĲáĢ¬ áĢ·
áĢ±áĢ Ĩ
Ïģ Ïī
à±ģà°² à±ģ
ĠáĢĻ áĢŃ
Ñĥ Ð¼
Ġà¤Ĩ à¤£
Ġì §
áĢĽ áĢŃ
áĥĺáĥ ķ
Ø§ Ùħ
àª ¥à«Ģ
Ġa ye
Ġs o
Î Ŀ
ĠÏĦ Î¹
Ġáģ į
Ġgb o
ĠÂ »
Ð¾ Ð±
à°¾à° ¤
k u
à´¾à´ µ
à¯ģà® Ł
Ġt á»įn
Ġd ara
Ľ i
áĤı áĢ¯áĢŃáĢĦáĢ¹áĢ
áĢ¬áĢ¸ áĢĢáĢŃáĢ¯
in i
áĥĶáĥ ¢
an i
Ġà¦ı à¦ķ
Ķ à¹Ģà¸
Ġa ra
ĠìĿ ´
ĠÎ¸ Î±
ĠÃ ·
w y
e m
à«įàª ¤
à¸² à¸Ļ
Ġà´ Ł
á»įn a
r áº¹
Ġà¤ ĩ
× ¤
à°¿à° ²
Ñĭ Ñħ
ĠØ³ ÛĴ
Î¹ Î¬
Ġ U
Ĺ à¸²à¸
áĥĺáĥ Ľ
Ġi á¹£
Ġgbo gbo
Ð°ÑĤ ÑĮ
à®² à¯įà®²
à´¿à´¨àµįà´ ±àµĨ
áĢŃáĢ¯áĢ¸áĢ Ľ
ĠÐ ¢
a m
ãģ Į
ĠáĢ±áĢ »áĢķáĢ¬
áĢĲ áĢŃ
Ġta bi
à°¿à° °
ar i
à¦¤ à§ĩ
ÙĪ Ø¯
Ġë Ĥ
ĠÏĦÎ¿ Î½
b ara
b áº¹
áĢ¬ áĢ¡
Ð¸ Ð¹
Ò ·
áĥķ áĥĺáĥ¡
Ã© g
àª ¶
ĠÐ¿ Ð°Ð´
ľ áĢ¬
Ġt á»
à´¿à´² àµįà´²
áĤıáĢŃáĢ¯áĢĦáĢ¹áĢ ĦáĢ¶
áĢŃáĢ³ áĤķ
áĢ Ĺ
à¹ĥ à¸Ļ
Ġna a
åĪĨ åĪĨå½©
æĢ »
à¤¾à¤Ĥà¤ ļ
y in
Å ¾
áĢĺ áĢ°áĢ¸
ĠâĢ ¦
ģ áĢ¼
Ġo ri
à¤¨ à¥ĩ
Ġà®ĩ à®°
ëĭ Īëĭ¤
à°Ł à±įà°Ł
ĠÏĥÏĦÎ· Î½
à´ ¬
Ġs á»į
áĥĶáĥ Ĵ
Ø ·
à¹Ħà¸ Ĺà¸¢
à¸Ńà¸Ńà¸Ļà¹Ħà¸¥ à¸Ļà¹Į
ģ à¸²à¸
Ð½ Ð°Ð¹
àª¿ àªķ
Ġà¦ ²
Ĩ áĢŃáĢ¯
à° ¬
es e
áĢĬ áĢ·áĢº
Ġa n
Ġn u
Ġd o
ĠÎ Ĺ
Ġe yi
åĻ ¨
ç ĥ
æĢ İ
Ġå ¥
à¤² à¤¾
a t
Ã ¨
à´ ļàµįà´ļ
Ð¾ Ñģ
à¹ģà¸ ¥à¸°à¸
Ġà¦ ¥
Ġáĥ ¢
u y
Ð°ÑĢ Ñĭ
à¤Ĥà¤ ¤
à®Ļ à¯įà®ķ
à´ Ń
Î± Ïĥ
à°Ĥà° ²à±ĭ
Ð»Ð¸ Ðº
Ð¾ Ò³
Ĭà¸ ±
× ŀ×
·à¹Ī à¸Ńà¸
Ġàª ļ
Ðµ Ð¹
Î¸ Î·
à´¾à´ ķàµįà´ķ
áĥĶáĥļ áĥĺ
à¦ Ń
çī ¹
à¹Ħà¸ Ľà¸
çĽ ¸
Ġå° Ĭé¾Ļ
ç» Ł
æī Ģ
ĠAG çİ¯äºļ
é ħ
çī Į
ä¼ ł
à¹Ħà¸ Ľ
ç ¼
Ġè Ģ
Ġà¤ ı
à°¾à° ®
Ð½Ñĭ Ñħ
ĠÚ© ÙĪ
à®± à¯įà®±
Ġàª® àª¾àª
d Ä±
ĠÏĦÎ¿Ïħ ÏĤ
Ġà° Ī
ìŀ Ĳ
áº¥ t
Ġ Ã©s
áĥ ¨
àµĨ à´Ł
Ø µ
Ð¸ Ðº
ãĤ ĭ
áĢ±áģ¾áĢĢ áĢ¬áĢĦáĢ¹áĢ¸
Ļ áĤĪ
áĢĦáĢº áĢ·
áĢĬáĢº áĢ¸
Ð½ Ñĥ
ĠÎ´ Î¹Î±
à°¾à° Ł
Ð¸ ÒĽ
Ġy n
ìľ ¼
à¦ ļ
Ġd ie
ķ à¹Ī
ģà¸±à¸ ļà¸
à¨ °
éĢ ī
å½ ±
Ķ à¹īà¸§à¸
Ġï¼ ģ
ç¾ ¤
é¡ µ
ä» ĸ
æ ¢
æµ ģ
ä¸Ģ ä¸ª
Ć Ĉ
èµ Į
è į
çĽ ®
ĠåĪ Ĩ
é¦ ĸ
å± Ģ
Ġæĸ °
æµ ĭ
Ġà¤ ĺ
ĠáĥĴ áĥĲáĥľ
àµģà´ ±
ĠáĢ»áĢĻ áĢĶáĢ¹áĢĻ
ĠáĢ Ĥ
ĠÐ± Ð°
Ã³ w
àª Ł
Ðµ Ð»Ð°ÑĢ
ĠÐ± Ñĭ
ĠM o
j o
à° £
Æ°á» £
á¹ ¢
µ à¸
Ġè ¯
Ġà¤µ à¤¿à¤
áĥĲáĥ Ĵ
áĢ¯áĢ¶ áĢ¸áĢ
Õ¡Õ ¶
ÉĻ s
Î¹Îº ÏĮ
j e
à¦¨ à§įà¦
Ġà´ ¦
n u
Ø§ Ø¯
È Ļ
Ð· Ñı
ĠàªĨ àªµ
d un
Ġë ĭ
Ġl es
áĥĺ áĥĲáĥľ
ÏģÎ¹ Ïĥ
ĠT i
Ġo f
áĢ¬áĢ¸áĢ ħ
à´¾à´¨ àµįâĢį
Ġ× ¢
à´ķàµįà´ ·
Ġo lu
à¦ §
Ġm u
Ġà® Ĵ
éĿ ŀ
Ġà¤Ĩà¤£ à¤¿
Ġ á¹¢
à°¾à° ķ
h in
r un
b u
à ·
Ġà¤ Ķ
Ã© n
Ñĭ Ð¼
i g
áĢ±áĢ ħ
Ġá¹£ i
Î¸ Îµ
t un
±áĢĲáĢ¬ áĢ¹áĢ
áĢ¼ áĢĢáĢ¹áĢ
áĢ¬ áĢĦáĢ¹áĢ·
áĢŀ áĢŃ
áĥĺáĥ Ŀ
Ã º
àµģà´¤ àµįà´¤
ĠÐ¾ ÑĤ
ĠáĢ¡ áĢ²
áģ ĭ
à°ķà±įà° ķ
áĢ±áĢŀ áĢ¬
áĢ¯ áĢĽ
à¹ĥà¸Ĭ à¹īà¸
àª §
ë Ŀ¼
ĠÎ Ŀ
Ġà¦¸ à¦®
ĠáĢ ·
áĢ³ áĢŃ
áĢĲ áĢ±áĢ¬áĢº
Å Ĩ
Ġà´ħ à´µ
¡ à¹Ģà¸
Ð½Ñĭ Ñı
Î¿ ÏĤ
áĥ ŀ
d ir
áĢ±áĢ ķáĢ«
ĠÙ Ĭ
ĠÒ³ Ð°Ð¼
ģ áĢ¶
áĢ½ áĢ²
© à¸
Îº Î±
Ðµ Ðº
ìĽ Ĳ
Ġàª «
ÛĮ Ø¯
à®³ à¯į
Ġà° Ń
à´ ¡
ĠÐ ł
áĥĺáĥ ļáĥĺ
ĠâĢ ķ
æ ·
âĢ Ŀ
æĴ Ń
1 2
3 6
è ĥ
åº Ĩ
åį ģ
à¤¾à¤Ĥà¤ ¨
Ġê ·
áº¡ i
Ġà¦¹ à§Ł
Ġp rz
ÏĥÎµÎ¹ ÏĤ
Ġà¸ ģà¸
ĠÑı Ðº
ĠØ§ Ø³
áĢ± áĢ¸
z i
Ġà¤Ķ à¤°
à¸£à¸²à¸ Ħ
Ġà° ¶
¡à¸ ŀà¸
× ŀ
Ġà¸ Ħà¸
Î¿ Î¹
áĥ ¦
ãģ ¯
Ð¾ Ð¶
c e
Ġàªª àª°
Ġ20 20
Ġç »
è¢ «
åľ° åĿĢ
Ġ á
ç ¬¬
ç ģ
Ġà¤¹à¥ĭ à¤¤
Ķ áĢ²áĤĶ
ĠáĢ¡ áĢĽ
Ħà¸£à¸ Ķà¸´à¸
à¹Ĥ à¸£à¸
à¦¾à¦ ¹
àµģà´£ àµįà´Ł
Ġáģ ¿
áĢĶáĢ¹ áĤĶ
áĢ¬ áĢĻ
ĠÎ± ÏĢÎ¿
Ġa u
à±ģà° °
à¹Ģà¸ ¥
à¯ģà® ±
Õ¥ Õ
d ÉĻn
Ġì Ĥ¬
ĠáĢĻ áĢ¼
Ġg i
áĥ £
à§ĩà¦ Ľà§ĩ
¥à¸ ĩà¸
à´ķàµįà´ķ àµį
æľĢ æĸ°
à¹ĥà¸« à¹ī
æ¬ ¢
å ŀ
ĠãĢ Ĭ
å¾ Ī
åĽ ŀ
è Ļ
ç¤ º
ķ à¹Īà¸
ç§ į
çĿ Ģ
à¥įà¤¯à¤¾à¤ ļ
à°Ĥà° Ĺà°¾
Ð¾ ÑģÑĤ
Î¹Îº Î®
áĢĢ áĢ¯áĢŃ
áĢĲ áĢ®
ie m
e k
à«ĩàª ®
áĢĶ áĢŃáĢ¯áĢĦáĢº
Ø ®
Ð°Ð² Ñĸ
ĠÂ Ń
Ġáĥ ª
Ñ Ĭ
Ġà¦ ĩ
Ïģ Ïĩ
Ĥ °
å¦ Ĥ
åħ ¶
äº Ľ
ä¸ ľ
æł ·
è¶ ³
è ¥¿
è¯ ·
Ġ2 5
æĽ ´
à¹Ģ à¸£
Ġ0 2
à¤¾à¤ £
ĠÑģ Ð²
Ġc á»§
à®¿à® µ
ì Ĩ
à´¿à´ µ
Ġn Ã«
ÏĢ Î±
Ġàªķ à«ĩ
áĥĲáĥ ĺ
Ħ à¸£
ÖĢ Õ
Õ¸ÖĤ Õ
ÉĻ k
Ġà° ¹
Ġà¦ «
Ð°ÑĤ Ð¸
ĠáĢ±áĢ ľ
» áĢĸáĢħáĢ¹áĢ
ĠáĢ±áĢ Ļ
áĢĳ áĢ¬áĢ¸áĢ
Ð°Ð² Ð°Ð½
Ġ à¸Ńà¸
Ġk a
ĠÎ ®
áĢĲ áĢŃáĢ¯áĢ·
Ġë ª
Ġà¤ķ à¤¾
d er
Īà¸ ±à¸
ÛĮ Ú©
èģ Ķ
ç§ ĳ
æĢİ ä¹Ī
Ġæ Ŀ
é¢ ĳ
éĻ ¢
Ġ2 2
à¤¾à¤ ł
Ġ es
áĥĺáĥ £áĥ
àµįà´ ¥
à°° à±į
Ġà®ª à¯ĭ
áĢ» áĢĻ
ĠÐ¾ Ð±
ĠáĢ± áĢĢáĢº
ĠáĢģ áĢº
ĠáĢľ áĢĢáĢ¹áĢ
ĠáģĤ áģĢ
× Ľ
ĠÂ ¬
y n
¢ à¸²à¸
à§ ¦
ĠÐ¿ ÐµÑĢ
áĢģ áĢ«
ÏĢ Îµ
Ġàª ĸ
ë ©
áĢķáĢ¼ áĢ®áĢ¸
Ġà§ ¨
¥à¹ĩà¸Ńà¸ ķ
Ĭ à¸²à¸
áĥĲáĥ ¨áĥĺ
ĠÙģ ÙĬ
à§ ĥ
à°¾à°² à±ģ
Ð¸ Ð´
Ã© r
Ġcá»§ a
à´¸ àµį
y ch
à®¾à®° à¯į
Î¼ ÏĮ
Ð¾ Ð»ÑĮ
ĠãĢ ĳ
æķ Ļ
èĢ ģ
åİ »
åĪ Ĺ
æİ Ĵ
1 8
ĳ åħĭ
å¸ ¸
Īà¸²à¸ ģà¸
Ł ³
è Ħ
å¯ ¼
« à¸£à¸
à¸Ńà¸ ļà¸
å¾ ĭ
Ġ1 9
à¸Ńà¸¢à¸ ¹
ä½ĵ èĤ²
éĹ ®
« à¸²à¸
à¹Ģà¸ ¥à¸
æ ¨
æĮ ģ
æľ ¯
æº Ĳ
à¹īà¸ §
Ġè ®
å§ Ķ
çľ ģ
Ġ1 3
Ġå¤ §
æĹ ł
Ĵ áŀ
ä» ·
Ġä½ Ĩ
æĺ Ł
æ´ »
éľ ¸
çº §
à¥Ģ à¤ļ
Ġà¤ª à¤°
Ġáģ ¾áĢĢ
áĢļáĢ¹áĢ ·
áĢ¼ áĢ¸áĢ
áĢŃáĢ¯ áĢĦáĢºáĢ¸áĢ
ĠÐ ¹
ĠÒĽ Ð¸Ð»
Ð¾Ð½ Ð¸
Ġm Ã¼
c k
àª¿àª ¯
Ġt un
Ġs e
à°ļ à±įà°ļ
à´¿à´Ł àµįà´Ł
à§ Ĥ
ĠÎ´ ÎµÎ½
áĥļ áĥĺáĥ¡
Ġê ¸
ĠÑģ Ð¿
Ġà®ħ à®µ
à´¾à´° àµįâĢį
Ġà´¨ à´¿à´
ĠÎµ Î½
Ġde l
áĢĶ áĢ¬
ĠÚ© Ø§
Ġe l
à°¾à° µ
áĢ½ áĢº
áĢ¼ áĢĶáĢ¹áĢ
áĢĻ áĢ¬
ĠØ§ Ø²
ŀ áĢĬáĢ¹
Ġáģ ģ
t Äģ
Ġáĥ §
å¸ Ī
å¼ º
åŁ º
«à¸ ¡à¸
ç ¡
Ġé Ģ
åĢ ¼
ä» »
º «
Ķ à¸µ
çĦ ¶
7 8
åĸ ľ
å· §
Īà¸ °
è® º
å° ĳ
è½ ¯
Ġ ä¸Ń
ä½ ¿
ģ à¹ĩ
åį Ĺ
Ġà¤ ĸ
i yan
ÑĢ Ñĥ
áº ¸
áĢ¯ áĢĶáĢº
d á»į
Ä į
Ġà¦ ĸ
ì² ľ
ĠÃ §
Ġàª¤ à«ĩ
Ġì ¹
à®¿à®¤ à¯įà®¤
Ġn á»į
Ġm o
Ñĥ Ð»
Ïĥ Î±
Ġc Ã³
à±ģà° µ
ow o
t áº¹
áĥĲáĥ Ļ
Ġë ³
ĠÐ Ĺ
p in
ĠáĢ±áĢ ĲáĢ¼
áĢĲ áĢħáĢ¹áĢ
ĠáĢ±áĢ Ĩ
ĠáĢ»áĢĻáĢĶáĢ¹áĢĻ áĢ¬
áĢĲ áĢŃáĢ¯áĤĶ
Ġáģ ĥ
× Ŀ
Ġa ko
à´¾à´ ¸
çī ĩ
åĲ ĳ
ä¼ ģ
æ »
áŁ Ĵáŀ
åĪĨ æĹ¶æĹ¶å½©
à¤² à¥Ģ
Ã ²
ĠÎµ Îº
à®© à¯įà®±
áĢĢ áģ
áģ¿ áĢĻ
áĢĲ áĢ°
à§ĩà¦ ĩ
Ð°Ð» Ð°ÑĢ
Ó ¯
a u
Ġáģ Ģ
Ð½Ñĸ Ðº
æĶ ¶
æį ®
åı ª
¦ Ĥ
ç» Ħ
éĻ Ĳ
201 9
è¿ ĺ
Ġ2 22
Ġà¤¸ à¤Ĥà¤
Ľ áĢ½áĢŃ
áĢĢáĢ¹áĢ Ģ
Ġáĥŀ áĥł
ĠÎ¿ Î¹
áĢĲ áĢ±áĢ¬áĢ·
Ġà´¸ à´Ĥ
áĢ¼ áĢ¬
áĢĲáĢ¼ áĢĦáĢ¹
áĢŀ áĢ¬
à¦Ł à¦¿
Ġàª ī
ĠÚ© Ûģ
o l
à° ³
à®¾à®© à¯į
ĠÙħ ÙĨ
áĢ ī
Ð² Ñĸ
ë ¬
Ġáĥĺ áĥ¡
Ġz a
à¯ģà® ³
à´¿à´² àµĨ
ĠÎ Ĵ
æł ĩ
à¤¿à¤ µ
Ðµ Ð»ÑĮ
Ġt ÉĻ
v e
à±Ī à°¨
Ñģ ÐºÑĸ
ĠÏĦÎ¹ ÏĤ
à¤² à¥ĩ
Ġì Īĺ
Ġ à«
àªµ àª¾
s ch
áĤĢáĢĢ áĢ®áĢ¸
áĢĢ áĢ¬
áĥ£áĥł áĥĺ
à´¾à´ Ł
ĠÐ´ Ð°
Î´ Î¿
à®¾à®² à¯į
Ð¸ Ðµ
Ġà´ ±
áĢĳ áĢŃ
ou s
Ġw y
à¤ ¬
Ġ ãĤ
ÑĨ Ðµ
ĠáĥĽ áĥĿáĥ
Ïģ Ïİ
áĢ¯ áĢĶáĢ¹áĢ¸
áĢľ áĢ¯áĢķáĢ¹áĢ
áģ µ
áĤ ĩ
± áģ¾áĢĢ
ĠáĢģ áĢ¯
ÑģÑĤ Ð¾Ð½
Ġn o
ÛĮ Ø§
à° §
Ġà¦Ĩ à¦®
Ð Ĳ
ĠÄ Ĳ
à´¿à´ķàµįà´ķ àµģà´¨àµįà´¨
ģ áĢ»
Ġ Ã¼
Ð¾ ÒĽ
Ïģ ÎŃ
ļà¸²à¸ Ĺ
Ġà¸ Łà¸£à¸µ
Ľ à¸£
Ġê µ
à¹Īà¸ ĩà¹Ģà¸
à¦¾à¦ ª
ÑĢ Ð¸
Ġm eg
àª ¬
áĥĶáĥ ¥
ç ¦
è® °
äºī éľ¸
à¥įà¤¯à¤¾à¤ ¤
Ġ× Ľ
Ġâ ķ
ĠâĢ ĵ
Ġà®ķ à¯Ĭ
Ð°ÑĨ Ñĭ
ĠáĢľ áĢ¯áĢķáĢ¹áĢ
áĢĽ áĢ²áĤķ
áĢ¡ áĢħ
ĠÏĥÏħ Î½
à¸£à¸ §à¸
Ã £
à°¿à°Ĥà° ¦à°¿
Ġáĥ ļ
Ġ Ã©
Ð» Ð°Ð´
áĢĦáĢ· áĢ¹
áĢ¬ áĢ¹
áĢĻáĢº áĢŃáĢ³
ĠáĢĲ áĢĽ
Ġà¦ Ľ
Ġå ¯
Ġ !
5 0
à¸µ à¹Īà¸
æł ¼
ģà¸ ±à¸Ļ
Ġ1 8
Ġå¤ ©
å± ±
ä½ ł
è ±
à¹Īà¸ §
Ġà¤ķ à¥ĩà¤²
áĢ±áĢ« áĢº
àµĭ à´Ł
ÙĬ ÙĨ
Ð¾ Ð³
ì Ĥ°
Î¼ Î¬
à¤ ¼
áĥĲáĥ ļáĥĺ
ĠØ¨ Ø±
ìĸ ´
ĠÐº Ð¸
àª¨ à«įàª
n ie
ÉĻ l
h r
Ġà´ Ń
à¯ģà® ¨à¯įà®¤
à±ģà° Ĺ
Ġ ri
ĠÎŃ Ïĩ
Ġw i
Ġc u
à§įà¦ ª
Ð°Ð ¶
w on
áĥĽ áĥĲ
à° Ń
à¸Ń à¸Ńà¸
Ġï¼ Ľ
ç ĸ
Ġå ¼
å ²
å·¥ ä½ľ
æĬĢ å·§
88 8
à¹ĥà¸ «à¸
Ġå ¿
å½ ĵ
çĻ ¾
å¥ ³
æİ ¨
æĥ ³
ķà¸±à¸ §
ķ à¸²à¸
ĠagåĽ½éĻħ äºļæ¸¸
ä» Ģ
Ġà¤¯ à¤¾
ĠáĢ±áĢ ĲáĢ¬
ĠáĢ Ĭ
Ġ =
ÏĦÎ± Î½
Ïĥ ÏĦÎµ
Ġ &
ĠÎ¼ ÎŃ
ĠÂ °
Ġa r
áĢĦ áĢ¶
Ġà´ Ĺ
í Ķ
ĠÐ³ ÑįÑĤ
à°¨ à±į
ç¤ ¾
éĴ ±
å ł
å½©ç¥ ŀ
Ġéĩ į
æĶ ¾
å¤ Ħ
åı¯ ä»¥
åŀ ĭ
è´ ¨
æģ ¯
à¹ī à¸Ńà¸ĩ
Ĥà¸ ¶
Ļ Ģ
ä½ ķ
à¤° à¥Ģ
Ġàªª àª£
s o
ĠÛģ ÙĪ
áĥĺáĥ łáĥ
? ?
on u
à¯Īà® ķ
Ġ V
ĠáĢĻ áĢº
áĢļ áĢ°
Ð¸ Ð¸
t an
à§įà¦ ¥
à´¿à´ ªàµįà´ª
Ġi f
s a
Ķ áĢ¾
àª¾àª® àª¾àªĤ
Ðµ Ñģ
¾ ³
áŀ ¶
å¸ ĥ
±à¹īà¸ ĩà¸
ä¸ ¤
Ġ æľī
ĸà¸ ¶à¸
à¥ĩà¤ µ
Ġo n
×ķ× ¨
á» ĭ
Ġa a
ir an
ir i
ÛĮ Ø±
áĥĶáĥĳ áĥ£áĥļáĥĺ
à´ §
à°° à°¿à°
ãģ ¾
Ð½ Ð°Ð³Ð°
¹ Ħ
Ġ re
Ø ¶
ĠM a
Ġà¦¬ à¦²
6 8
è ¨
à¹ģà¸ ļà¸
é¢ Ħ
ä¾ Ľ
Ġ à¸Ļ
è º«
à¸Ļà¸µ à¹īà¸
å· ²
æ Ł¥
Ġå Ĩ
æĪ ĸ
æ° Ķ
Ġ2 3
Ġ1 5
Ġç İ
Ġà¤ Ŀ
Ġo wo
m o
Ñį ÑĢ
áĢ¶áĢ¯ áĢ¸áĢ
áĢ¶áĢ¯ áĢ¸
áĢĲáĢ½ áĢĦáĢº
ĠÎ± Î½Î±
à¯ģà®ķà¯įà®ķ à¯ģ
à°¾à° ¦
ul á»į
Ġi d
Ġm e
à´¾à´ Ĥ
ÐµÐ½Ð¸ Ñı
áĥĶáĥĳ áĥĺáĥĹ
Ġì ¶ľìŀ¥
ë§ Į
Ñ Ĺ
w u
à¦¿à§Ł à§ĩ
àª¨ à«ĭ
Ġk u
Ġj u
ç² ¾
4 5
è½¯ ä»¶
Ġ ]
ç ĭ
åĳ Ĭ
è° ĥ
è§Ĩ è®¯
ç« ĭ
åĨ Ľ
Ġ +
æī ĵ
æ² ¡
Ħà¸¸à¸ ĵà¸
æ± Ĥ
Ġæ Ń
±à¹īà¸ ĩ
Ġå¤§åıĳ æĹ¶æĹ¶å½©
à¤¾à¤ ª
ĠÑı ÐºÑĸ
Ã¬ nh
ÏĦ Î¯
Ġà° ı
Ġo ju
Ġà¦ Ł
Ġà´Ĵà´° àµģ
Ã¡ t
Ġo l
Ġà®İà®© à¯įà®±
í ĸ
ĠÎ Ļ
ĠÐ ŀ
Ġà° Ł
áĥĶáĥľ áĥ¢
h an
Ñĥ Ð¿
Ġà¦ħ à¦¨
Ã ¹
Ïĥ Î¹
àª¾àª ¸
à¹Ģà¸ ģà¸
à¨¿ à¨
èĢ Į
æĭ ¿
å Ķ
ĠåĽ ½
Ġ2 1
Ĺà¸ ³
å ĭ
åħ ī
Ĥ à¸²à¸
ä¸ ĸ
Ġ0 1
à¤¾à¤ł à¥Ģ
ÙĦ Ùī
Ð» Ð°
Ġ u
ĠÙħ ÛĮ
à®¾à® µ
Ġáĥ¡ áĥĲáĥĽ
á ½
Î Ľ
Î»Î¿ Î³
à°¿à° µ
áģ ¢
áĢŃ áĢĻáĢº
à´® àµįà´®
ĠÎ ¹
Ð½Ñĭ Ðµ
ĠÑĤ Ð°Ðº
áĥ£áĥ łáĥ
Ð¾ Ð·
Ġà§ §à§
¯ ¸
× ĺ
ch t
Ġà° Ĵ
æĸ ¯
çķ Į
à¸² à¸£à¸
Ġç Ľ
åģ ļ
é¡ ¹
èĤ ¡
åĮ Ĺäº¬
Ġà¤ «
áĢĲáĢ½ áĢĢáĢº
àµĩ à´°
Å £
ent ru
Ġà®ħ à®¤
à«įàª µ
à¦¿à¦ ¬
la n
áĥ® áĥķ
Î ł
ĠÎµÏĢ Î¹
àµ ĥ
ĠØ Ń
Ġìŀ Ī
ĠÐ Ľ
b b
áº ¯
à¦ ¯à¦¼
Ľà¹ĩ à¸Ļà¸
åį İ
Ć ć
Ġ ą
æŃ ¤
èģ Į
åıĳ å±ķ
į à¸
Ġç §
å¤ ´
åĪ Ľ
/ /
ä¸ ĵ
·à¹Ī à¸Ń
à¥ĩà¤ ļ
Ð½ Ð°Ñģ
Ġp our
ĳ áĢ¬áĢ¸áĢ
à´¾à´ ®
ÏĨ Î¿
Ð°Ñ Ħ
áĢī áĢº
ÅĤ a
Ġà®ļà¯Ĩ à®¯
Ġà°ļ à±Ĩ
áĥĲáĥ ¨
àª¿ àª¤
Ġà¤¹à¥Ī à¤Ĥ
ç Ł¥
é£ İ
20 20
ç« ŀ
å¢ ŀ
ä»Ģ ä¹Ī
Ġ0 4
à¤¿à¤ Ĥà¤
à´Ļàµįà´ ķ
Î´ Î±
à°Ĥà° Ĺ
c a
áĥĲáĥ ĸ
ĠÑĢ Ð°Ð·
d en
áº¿ t
à°¾à° Ĺ
Î»Î» Î¬
ĠÙ¾ Ø±
il áº¹
v i
áĢģáĢº áĢŃ
áĢŃáĢ¯ áĤķ
áĢ¬áĢ¸ áĢĢ
gb á»įn
Ġnipa sáº¹
j áº¹
à¯įà® ®
Î· ÏĤ
ĠÐº Ñŀ
Ð ĺ
ĠÐ¸ Ð½
áĥĲáĥ ¥
Ð½ Ð°Ñı
àª° à«Ģ
Ġá»į má»į
Ġë ĮĢ
ÏĦ ÎŃ
¡ à°¾
Ġd ÉĻ
áĢŀ áĢ±áĢ¬
Ġm á»į
à´¾à´ ±
ĠÐ ¯
Ñ ĺ
ag y
æ Ĥ
è¿ ĳ
Ġ0 0
Ġag æĹĹèĪ°åİħ
Ġç ľ
Ķà¸ ¢
Ġà¤ı à¤ķ
Î ľ
Îµ ÏĦÎ±Î¹
Å ¥
à®¾à® ¯
m e
áĥ ĸáĥĶ
à±ĩà° ¦
Ð ĵ
ĠÐ¿ Ð°
in e
Ġb o
Ì£ n
t y
Ġì ĥ
á» ¯
Ġà´ļ àµĨà´¯
Ġo ni
àª ļ
ÏĢ Î¿Ïħ
Ġ× Ļ
ĠB a
à®Ļ à¯įà®ķà®³
Ġen iyan
ĠÑ ĳ
Ġj ulá»į
áº¹ ráº¹
Ù İ
ĠÐ µ
Ġh e
Ġi gb
Ä ¼
Ġ á»įna
Ġy in
Ġáº¹ rá»į
Ġdi áº¹
Ġi di
ĠÙ ĥ
à¦ ¥
Ġi we
Ġæĺ ¯
§à¸ ±à¸
åĬ ŀ
çİ ĩ
Ġ ä¸ŃåĽ½
ĠèĢ Į
éĢ ł
æĮ ĩ
à¤¾à¤ ¦
Ġ om
áĥĶáĥ Ŀ
ÏĦÎ¹Îº ÏĮ
à±įà° ¦
ë ĮĢ
à«ĩàª µ
Ġk á»į
Î¼Î± ÏĦÎ±
ĠØ§ Ø³Øª
à´¾à´¯ à´¿à´°
ĠâĢ ļ
ĠÑĸ Ð½
áģ¿áĢķ áĢ®áĢ¸áĢ
áĢ»áĢģ áĢĦáĢ¹áĢ¸
ĠáĢ ĩ
ĠÐ± Ð¸Ð»
Ð¸ Ð´Ð°
à¤ Ń
Æ ı
ÃŃ t
Ľ áĢ¬
c u
ĠáĢĸáĢ¼ áĢħáĢº
à®¾à® ³
Ð» Ð°Ð½
ĠØ§ ÙĨ
ë ª
à§ĩà¦ Ľ
áĥĺáĥ ĸ
Ġà°¤ à±Ĩà°²
Îº Î¿
Ġ Ð°Ð·
Ġn ie
Ġç ¬¬
·à¹Ī à¸Ńà¸ĩà¸
ģà¸±à¸ ļ
åĸľ æ¬¢
±à¸ ļà¸
è§ ģ
à¹Ģ à¸£à¸²à¸
åĬ ©
ç ı
à¥ ī
Ñĩ Ðµ
lar Ä±n
wa ju
á¹£ i
Ġà´ħ à´¤
à°Ĥà°¦ à°¿
k áº¹
Ġà® °
ÐµÐ»Ð°ÑĢ ÑĥÑģ
ĠÐ Ĩ
h a
Ġàªı àªķ
áģ ¥
áĢ¼ áĢ²
áĢŃáĢ¯ áĢľ
f áº¹
Î ¥
Î¼ Î²
ê± ¸
ìł ķ
Ġp ar
Ã¢ n
áĥĿáĥ ¤
t er
ĠÑĢ Ñį
áĢ¾ áĢŃ
à°¾à° ľ
Ġà´ª àµĭ
Ġd á»į
ĠÎŃ Î½Î±
Ġà®ª à¯Ĩ
Ñĸ Ð´
il o
os o
Ġt áº¹
í ĺ
Ð½Ñĭ Ð¹
à±Ĥà° °
y áº¹
Ú Ī
áĥĺáĥ ¨
å¾ ·
Ġà¹ģà¸ ¥à¸°à¸
Ġ >
æ Ł
éľ Ģ
åı Ĺ
åħ ±
Ġh g
é£ ŀ
è İ
Ġ2 4
à¥ģ à¤°
à¦¬ à§ĩ
Ġk Ã¶
× ¡
àªĤàª Ĺ
gb áº¹
Ġà´ª à´±
Ġà°ħ à°¨
ÏĦÎ¹Îº Î®
ê² Į
ĠØ ¥
áĢ±áĢ Ĵ
Ð½Ð¾ Ð¹
á» ±
Ñģ Ñĸ
áĢĶáĢ¹áĢ Ģ
ĠáĢ±áĢ ŀ
áĢ¾ áĢ¬
Ġp Ã«r
ãĤ Ĵ
Îº ÏĮ
à´ ŀàµįà´ŀ
æ¡ Ī
ĠåĬ ł
Ġ1 6
è§ Ĥ
åºĨ æĹ¶æĹ¶å½©
áŀ¶ áŀ
Ġag å¹³åı°
åı ĺ
ä¼ ĺ
Ġk 8
Ġ1 7
b et
Ġ ä»¥
æĶ ¹
à¥ĩà¤ ¶
es i
à®¿à®Ł à¯įà®Ł
áĥķ áĥĶáĥľ
a a
v a
ĠL a
Ġà¦ķà¦° à§ĩ
ĠI n
ĠB i
Ġi gba
ĠáĢ±áĢ Ĵ
áĢĲ áĢĦáĢ¹áĢ¸
Ĳ áĢļáĢ¹
»áĢģ áĢĦáĢ¹áĢ¸
áĢĳ áĢ²
n e
Ð½Ñĭ Ð¼
Ł à«ĩ
áĢ±áĢĲáĢ¬ áĢ¹áĢ
áĢ¸áĢ±áĢ ĲáĢ¼
áĢ±áĢĽ áĢ¸
ĠáĢĽ áĢ½áĢŃ
áĢĦáĢ· áĢ¹áĢ
ĠáĢ»áĢķ áĢĬáĢ¹áĢ
áĢ¯áĢ¶ áĢ¸
à ²
Ġyi i
Ġáĥ¡áĥĲáĥ ¥
ĠT o
àµĤ à´Ł
is i
à®¾à® ®
Ġa ká»į
ĠáĥĶ áĥłáĥĹ
Ġë ¶
Ġà°ķ à±Ĭ
ĠÏĮ ÏĦÎ¹
g un
Ð°Ð³ Ð¸
Ð¸ Ñģ
áĢŃ áĢĶáĢº
à¤ķ à¥įà¤·
Ġà®µ à®°
á¹£ a
ÑĤ Ñĥ
h i
Ġj i
à¦¿à¦ ¸
on i
Î» ÎŃ
Ġ Û
Ø§ Ùĩ
áĥ ĸ
Ġ áº¸
à±įà°² à±ĭ
Ġj a
Ñı ÑĢ
à´¾à´ ³
Ġpa ta
s u
í Ĩ
1 5
3 0
tt p
ä»£ çĲĨ
ľà¸¹ à¹īà¸
æĦ Ł
æĭ Ľ
Ķ à¸µà¸
à¥ĩà¤ ķ
ģ áĢ«
ĠáĢ¥ áĢ®áĢ¸áĢ
ĳ áĢ²
ÙĨ ÛĴ
ÏĦÎ¿ ÏĤ
Ġb e
Ġàª¸ àª¾àª
Ġy a
à´Ļàµįà´Ļ à´³àµįâĢį
Ġà®Ĵ à®°
ĠáĢ±áĢ ķ
áĢ±áĢĢ áĢ¬áĢĦáĢ¹áĢ¸
ĠáĢ±áĢ ¡
ĠáĢ ¦
Ġà´¨ à´Ł
Ò³ Ð¾Ð¸
g o
y á»į
à°¿à° ®
áģ ģáģ
Ľ áĢ½
m áº¹
áĢ ĵ
ìķĪ ë§Ī
Ġê· ¸
w he
Ġni gba
Ð´ Ð·Ðµ
Î¹Îº Î¬
áº¿ n
Ġà´ ¹
k oso
ÑĢ Ðµ
Ġp u
à¦ķ à§ĩ
à° ·
áĢĲáĢ½ áĢ±
Ãł n
ĲáĢ¼ áĢĦáĢ¹
áĢĬ áĢ¬
áĥĲáĥł áĥĺ
áģ ¤
áĢĲáĢ¼ áĢĦáĢ¹áĢ¸
ĠáĢ¡áĢ² áĢĴáĢ®
±áĢ ¡
ģ áĢ¯
áĢĻáĢ» áĢ¬áĢ¸
× Ĵ
Ġàªµ àª¿àª
Î· Î½
ÑĤ Ð°ÑĢ
à°¾à°¨ à°¿à°ķà°¿
ÙĬ Ø±
Ġáĥ¨ áĥĶáĥĽ
à´ ľ
à¦ ĸ
èĲ ¥
ģà¸ ¥à¸
Ġ1 4
è® ®
ĻĢ â
æ ®
åİ Ł
Ħà¸§à¸²à¸ ¡
á ī
à¸´ à¸Ļà¸
èĩ ³
è¾ ¾
åħ į
ī à¸
åħ Ī
ä¼ģ ä¸ļ
åİ ¿
è§Ĩ é¢ĳ
Ġag è§Ĩè®¯
ç ħ
3 8
æī ĳåħĭ
åĲ Ħ
Ġå ¦Ĥ
è¯ ģ
æ² »
Ġ0 8
ç© º
ä¹ ¦
Ġå ·
åı Ĥ
à¥įà¤ ¥
Î ©
Î» Î¬
Ð» ÐµÐ½
Ã¼ l
Ø§Ø ²
y f
ÏĦÎ± ÏĤ
Å¡ an
áĢŃ áĢĲáĢº
ê³ ¼
à®³ à¯įà®³
àµģà´ ķàµįà´ķ
ĠÐ´ Ð»Ñı
Î» Î®
àª¾àª ľ
áĥ ¤
Ļ à§įà¦
Ġes t
Ġ: //
åĵ ª
ï¼Į ãĢĳãĢĲ
è Į
é¢ Ĩ
à¥ ĥ
áĢĢáĢ¹áĢ ŀ
áĢ±áĢ¬áĢĦáĢº áĢ¸
Ð» Ðµ
Ġz u
ĠÎº Î¬
à°¿à° ¸à±įà°¤
Ġw áº¹
£áĥ ļ
àª¾àª ²
pá»į lá»į
àµįà´± àµįà´±
à§ĩà¦ ĸ
il i
Ġako ko
Ġy e
ìĦ ±
on a
Ġt e
Ġw on
áĢĽ áĢĦáĢ¹
áĢĬ áĢ·
áĢľ áĢ¯áĢķáĢº
Ñĥ Ðº
Æ°á»£ c
ĠÎ §
ÑĪ Ñĭ
Ġà¤ Ł
áĥĺ áĥĺáĥ¡
Ð¾ Ðº
à±Ģ à°¸
ĠØ§ ÛĮÙĨ
Ġi pa
Ġàª Ł
à®¿à® ªà¯įà®ª
á¹£ u
Ġgb e
ìĹĲ ìĦľ
ÎŁÎ ¥
Îµ Ïħ
ĠÙĨ ÛĴ
à´£ à´Ĥ
Ġá»į ká»į
à¦ ĵ
§ à¹ĩà¸
à¹ ģà¸£à¸
áĢ¯áĢŃ áĢĦáĢ¹áĢ¸
Ł áĢ¬
áĢħ áĢ¯
Ïį Î½
ĠØ§ÙĦ Øª
ĠÐ³ Ñĵ
ĠÐ· Ð°
Ġi s
à°¾à°¯ à°¿
Ġi r
Ġ222 70
Ġä» ĸ
à¤§ à¥įà¤¯
y m
« áĥļ
áĢħ áģ¥
áĢ±áĢ Ĳ
àµįà´ ¸
f e
Ġá»į já»į
Ð°Ðµ ÑĤ
Ġ× ŀ
ł à¸
Ġ ï¿½ï¿½
a d
à«ĩàª ¶
f a
Ð°Ð» Ðµ
Ġà®µ à¯ĩ
áĢĦáĢ¹áĢ ľ
áĢ±áĢ ĺ
áĢĬ áĢ®
Ġf áº¹
Ïĥ Î¿
ãģ ĭ
Ķà¸´à¸ ¡à¸ŀà¸
§à¸ ±à¸Ļ
à¤¿à¤ ı
d ara
Ġpata ki
t re
j ara
à¦¨ à§įà¦¤
Ġà´ª à´°
Ġag be
± áĢĢ
áĢĸ áĢ½
ÑĤ Ð¸ÑĢ
to ri
o ng
Ú¾ ÛĮ
Īà¸²à¸ ģ
Ġi p
Ñģ Ð¿
Ġáĥ ĸ
Ġag bara
ĠÏĢ Î¿Î»
u gbá»įn
ĠN a
Ġk e
Ð³ Ð¸
à°¾à° ¡à±ģ
Ġà¦ľ à¦¨
ëĵ ¤
ĠØ¨ Ø§
áĢ¯áĢŃ áĢĢáĢ¹áĢ
ĠáģĤ áģ
à¯ģà® ªà¯įà®ª
Ġà´ «
Ġi má»į
ĠÐ ĺ
Ġf a
áĢĶáĢ¹áĢ Ĳ
Ķà¸ ¥
Ð² Ð°
à¸Ńà¸£ à¹Į
àªµ àª¾àª¨
áĢ±áĢ ĳ
pá»įlá»į pá»į
g i
Î± Ïģ
à°¾à° ¸
re e
É Ľ
ĠO lu
lu jara
Ġi bi
Ð ł
áĢħ áĢ¬
ÑĤ ÑĮ
Ð°Ñ ĸ
åĩ Ĩ
æķ Ī
å¹ ¿
Ħ à¸Ļà¸
ä» İ
¢ à¸Ļ
åħ ļ
à¹Ģà¸ Ķ
ç Į
±à¸ ļ
æĪ ¿
à¹īà¸² à¸Ļà¸
Ġà¨ ¦
¡à¸²à¸ ģà¸
Ġæ Ĭ
¥ à¸²
à¹Īà¸ ¡à¸
åĪ «
ķ à¹īà¸Ńà¸ĩà¸
Ġ [
9 8
å® ¹
ĠãĢĳãĢĲ ï¼ĮãĢĳãĢĲ
ç ª
ĠãĢ Ĳ
éĤ Ģ
ç± »
¥ à¸´à¸
à¸£à¸ ¹
à¹Ģ à¸£à¸µà¸
æķ ´
ĠãĢĤ ãĢĤ
æľį åĬ¡
Ġå ¸
à¹ĥà¸ Ī
æŃ ¥
¡à¸² à¸£à¸
Ĺà¸ ³à¸
00 0
Ġæ ¯
Ġå ĳ
å¸ ¦
Ġåı ¯
æ ¹
6 0
Ġag èµĮ
à¤¤ à¤¾
áĢ¸áĢ ķ
Ïĥ ÏĦ
Ø °
Ġa i
áĢľ áĢ½
Ġá»į rá»į
áĥĲáĥłáĥĹ áĥķáĥĶáĥļ
ĠáĥĶ áĥ¡
Ì Ģ
ĠÐ±Ñŀ Ð»
ÐºÐ¸ ÑģÑĤÐ¾Ð½
Ġà®ĩ à®¨à¯įà®¤
Ġà°ª à±Ĩ
Ð¾ Ð»Ð¸
à´¿à´¨ àµį
áĢ¡ áĢĲáĢ¼áĢĢáĢ¹
ĠáĢ± áĢĢ
ĠáĢĻ áĢ½
áĢĢáĢ¼ áĢ®áĢ¸áĢ
Ġe gy
Ñĥ Ð»ÑĮ
á» ¥
à§ĭ à¦¨
ĠÎµ Î¾
à«ĭ àªķ
Ġà°¸ à°Ĥà°
Ġà¤Ŀ à¤¾à¤²
ĠÄ °
áĥĺáĥ¡ áĥ¢
áĢŀ áĢ½
Ð» Ð°Ñģ
ª à¯į
Å Ļ
Ġ íķ
×Ļ× ª
Ïĩ Îµ
b er
Ø± ÛĮ
áĥĲáĥ ¤
é© ¬
à¤¿à¤ ¸
à´¿à´ļàµįà´ļ àµģ
ĠÐ¼ Ðµ
Ġà¦¬ à§įà¦¯
Ġsi ÄĻ
Ġd u
ĠáĢ¡ áĢĨ
Ġb ir
Ġàª° àª¹
à±ģà° ¡à±ģ
ãģ £
ÎµÎ¹ Î±
Ġáģ Ħ
ÑĢ Ð°Ð¼
áĥĲáĥ ĳ
Ġà´ķ àµĬ
áĢľ áĢĬáĢºáĢ¸
Ø £
á» ©
Ġà¤® à¤¹
à¯Īà® ķà¯įà®ķ
à´¿à´ ¸
áĥĿáĥ ª
Î¿Ïħ Î¼Îµ
Ġà° «
Ġàª®àª¾àª Łà«ĩ
Î¬ Î»
ÈĽ i
Ġà¦¨ à¦¾
Ġ #
¹à¸ ģà¸
à¸Ńà¸ µà¸
æĸ Ļ
éĺ Ł
æĭ¿ å¤§
Ġ0 9
çĽ´ æĴŃ
éĻ Ĩ
Ĭ à¹Īà¸§à¸
³à¸ «
å½© åĸľæ¬¢
çĪ ±
ĠCOM å½©åĸľæ¬¢
¸ è¿Ĳ
æĺ ĵ
æ¢ ¦
Ġ3 0
ç½ ®
¾³ éĹ¨
åħ ·
åį ĩ
à¤¾à¤ ³
ĠáĢĦ áĢ«
ÑĤ Ð°
Å ±
áĢļ áĢ¬
ìľ¼ ë¡ľ
áĥĹ áĥĲáĥľ
ĠÎ ¦
Äģ s
Ã¼ r
ŀ áĢ¼áĢ¬áĢ¸áĢ
Ġáģ Į
ĠÐ» Ñĸ
à´¯ àµģà´Ĥ
Ïģ Î®
à§ģ à¦¨
an s
ç® Ĺ
éĤĢ è¯·
Ġà¤ķà¤° à¤£
Ġ ÚĨ
à¯ĩ à®°
áĢŃáĢ¯ áĢĦáĢ¹
áĢı áĢ¹áĢ
à°ķà±įà° ·
áĢŃáĢ¯ áĢ¸
áĥĲáĥ ĸáĥĶ
Ġc Ã¡c
ÎŃ Ïģ
ÑĨ Ñı
áĢľ áĢ°
Ġs h
y d
±áĢ ħ
áģ¿áĢĻ áĢŃáĢ³áĤķ
ĠáĢĽ áĢ½
à§įà¦ ²
à±ĩà° ¶
Ð³ Ñĵ
Ñĸ ÑĢ
áĢħ áĢ¬áĢ¸áĢ
Ġho gy
ãĥ¼ ãĥ
ÙĪ ÙĦ
Î» Î¯
àª¾àª £
Ġà´ ¡
áĢŃ áĢĻáĢ¹áĢ¸
±áĢŀ áĢ¬
ĠáĢ¡ áĢģáĢ¯
áĢ±áĢ »áĢķáĢ¬
áĢĢáĢ¹áĢ ľ
ĠáĢĶ áĢ¾
à¤¿à¤¯ à¤¾
eg o
ìķ Ħ
ĠÐ¸ Ð·
à®¿à® ´
×ķ× ľ
ĠáĥĲáĥ ĵ
li ch
Ñĥ ÑĤ
ĠÎ Ľ
Ġà¦¬ à¦¾à¦
à´µ àµģà´Ĥ
à¯ģà®³ à¯įà®³
ÏĦÎ¹Îº Î¬
Ġà¦ ¡
å® Į
åı ĸ
á ĭ
ä¹ ħ
à¹Ģà¸Ľà¹ĩ à¸Ļ
à¹ģà¸¥ à¹īà¸§
Ġ ä¸º
çł Ķ
å¥ ĩ
æ£ ĭ
ä¹ °
§à¸ ±à¸Ļà¸
á Ĭ
çº ¢
è½ ¬
¸à¸ ģà¸
æ¨ ¡
Ġäºļæ¸¸ å®ĺç½ĳ
Ġ äºº
Ġ 99
æ¶ Ī
Ġh ttp
Ġ ä¹Ł
é» ĳ
åĽ Ľ
ĭà¸ ¶
à¹Ģà¸ ª
Ġ0 7
åį ĵ
Ġà¤® à¥įà¤¹
à±įà°² à±ģ
o v
àª Ń
qu e
ķáĢ¼ áĢ²
áĢĲ áĢħáĢº
Ð· ÐµÐ½
á»Ļ t
ĠÎµ Î¯
à§Ģ à¦°
ë ŀ
Ġáĥ «
Ġ Ð°
æľ ª
æ¸ ħ
Ġà¤¨ à¤¾à¤¹à¥Ģ
àµĨ à´Łàµįà´Ł
b an
à®ªà¯įà®ª à®Ł
àª¾àª ¦
Ġà° ¯
Ġg Ã¶
Ð°Ñĩ Ñĭ
Ġi z
Ġà¦¤ à¦¾à¦°
áģ¼ áĢº
áģ¿áĢķ áĢ®
áĢ³ áĢķáĢ¹áĢ
áĢħ áĢ®
ÑĢ Ð¾
Î¼ Î·
áĥĿáĥĳ áĥĺáĥ¡
Ġà¤ĩ à¤¸
j Äħ
áĢŃ áĢķáĢ¹áĢ
ĠÙ Ĥ
ļ áĢ°
àª¤ àª¾
èĬ Ĥ
æ¬ ¾
Ġå¯ ¹
æ± Ł
ç½ĳ ä¸Ĭ
è ª
éĢ ģ
åĬ Ł
ç» Ļ
1 9
åĽ ł
Ġ201 8
åŃ ĺ
è ı
å Ħ
çł ´
æĿ ¡
åĮ ħ
Ġæ ²
Ġà¨ ķ
ç Ĺ
ä¹ ł
Ľà¸ ¥
æŀ ģéĢŁ
Ń ¦
æµ İ
à¤¾à¤ ķ
áĢº áĢ¬
áĢĶ áĢ²áĢ·
àµĩà´ ·
áĢŀ áĢ¼áĢ¬áĢ¸áĢ
áĤıáĢ¯áĢŃáĢĦáĢ¹áĢ ĦáĢ¶
Į áĢ¬áĢĶ
áĢ¸áĢ Ĩ
Ġê° Ģ
Ġd as
Ġc on
Ñĸ Ð½
ĠÎ ĺ
à®¤à¯įà®¤ à®¿à®²à¯į
Ġáĥ¨ áĥĶáĥ
áĢ±áģ¾áĢĢ áĢ¬áĢĦáĢ¹áĢ·
Ġáģ ħ
Î¹ Î½
5 8
è¶ ħ
çĥ Ń
è¶³ çĲĥ
Ġn et
à¥įà¤¯à¤¾à¤ Ĥà¤
à§ĩà¦ķ à§ĩ
ĻáĢº áĢ¬áĢ¸
áĢ±áĢ »áĢģ
áĢķ áĢ±áĢ¸áĢ
ĠÑģ Ðº
Ġà´ Ī
à± ĥ
in in
t h
Ä ¾
à«ĩàª Ł
ĠÏĢÏģÎ¿ Ïĥ
áĥ£áĥ ľ
áĢŁ áĢ¯
å· ±
ĩ à¸²à¸Ļà¸
ģà¸ ¥
ļ à¸£à¸´à¸
æĶ ¯
æ Ĳ
ä¼ Ĺ
éª Į
à¤¤ à¥Ģ
Ñĥ Ñİ
à®° à¯įà®ķà®³
à´¦ àµįà´
Ã©s z
Î¼ ÏĢ
Ġ×© ×ľ
Ġì ľ
à¦ķ à§įà¦·
Ġà°ļà±ĩà° ¸
Ġd in
á» ĩ
ĠáĢ ĲáĢ¬
áĢ¼ áĢļáĢ¹áĢ
ĠáĢħ áĢħáĢ¹áĢ
áĢĲáĢ¹áĢ ŀ
áĢľ áĢŃáĢ¯áĢ·
ĠÚ© Ùĩ
ĠáĥĹ áĥĲáĥķ
ja s
ĠÐĳ ÐµÐ»Ð°ÑĢÑĥÑģ
Ñĥ Ð±
áĢĦáĢ¹áĢ Ĳ
áĢĶáĢ¹áĢ ľ
ĠáĢĢ áĢ¯
± áĢĢáĢº
ĠáĢĢ áģ½
áĢ±áĢķ áģļ
áĤ Ĩ
áĢ¸áĢ ķáĢ«
æŀ Ĳ
éĤĢè¯· çłģ
Ġæ ķ
à¤¿à¤ ¨
j Ã«
Ð°Ð» Ð°
Ġ ÅŁ
áĢ±áĢĲáĢ¼ áĢĢáĢŃáĢ¯
áĢĽ áĢ±áĢ¸áĢ
ÎĻÎ ļ
Ġá ¼
ĠÏĥ ÏĦÎ±
Ġ ÛĮ
m ent
à´ķ à´°
à®® à¯įà®ª
ĠàªĨ àªª
Ġm it
à°¤ à±įà°¤
ĠÙĪ Ø§ÙĦ
Ġáĥĺ áĥľ
ÑĢÑĭ Ð¼
ļ áĢ¬áĢĢáĢ¹áĢ
áĢ½ áĢ±
ÏĦÎµ ÏĤ
Ã© l
z y
Ġkh Ã´ng
Ļà§įà¦ Ĺ
ĠÎ ¾
ĠÏĥ Î±ÏĤ
ĠÎ¤ Î¿
et h
áĢĲáĢ²áĢ· áĢ¡
áĢŃáĢ¯áĢĦáĢº áĢĦáĢ¶
1 6
éĹ® é¢ĺ
· à¥įà¤Ł
à´® à´¾à´¯
ĠÐ± Ð°ÑĢ
à«ĩ àª°
à®° à¯įà®ķà®³à¯į
Ġà° ¡
Ġáĥĺ áĥĽ
à¦ Ľ
on e
Ð°ÑĤ Ñĭ
ĠáĢ±áĢĶ áĢ¬áĢĢáĢ¹áĢ
áĢĦáĢ¹áĢ Ģ
ĠáĢĺ áĢ¬
ãĤ Ĭ
áĢŃ áĢĻ
íĻ Ķ
Ð½Ð¾ Ð³Ð¾
áģĢ áģĢ
Ġv on
Ñĥ Ñĩ
Äģ r
à§įà¦ ®
åĪĨéĴŁ å¿«ä¸ī
Ķà¹īà¸§à¸ ¢à¸
åĳ ¨
à¸Ńà¸ ļ
è¯ Ŀ
Ġå¾ ·
Ġ0 5
åİ Ĩ
æł ¡
å®ī è£ħ
æİ §
è¿Ľ è¡Į
ç»ĵ æŀľ
æ£ĭ çīĮ
à¹īà¸Ńà¸ ¡à¸
åĨ ³
Ġ ä¸Ĭ
Ġ áŀ
Ġ0 6
¢ à¸Ļà¸
è ĳ
çĶµ æ¸¸
ł áł
æ ĵ
Ġç ¾
P P
æ ¥
à© °
à¤¾à¤Ĥà¤¨ à¥Ģ
Ġj e
Ġà°® à±Ģ
ĠáĢħ áĢ¬
y y
Ġc ho
ÑĪ Ñĩ
áĢĻáĢº áĢ¬áĢ¸áĢ
áĢĻ áĢļáĢ¹
ĠáĢĺ áĢ¯áĢĽ
àª¾àª° à«ĩ
à®¾à® ®à¯į
ì ½
Ø «
ĠáĥĴ áĥĲáĥĵ
áĢĽ áĢ²áĢ·
ĠáĢ¡ áĢĶ
Ġc a
à´¤àµįà´¤ à´¿à´²àµįâĢį
àµģà´ °
à§ĩà¦ Ł
ë ²
Ġ2 8
Ġà¨ ¸
æĹ¶ éĹ´
à¹ĥà¸ Īà¸
´à¸ Ķà¸
æĢ ģ
å½ ¢
æ¸¸æĪı å¹³åı°
à¤¾à¤° à¥Ģ
Ð» Ð¾
à´¾à´ ķ
ĠáģĤáģĢ áģģáģ
à¯ģà® °
áĤ ī
ĠáĢ¡ áĢĳ
b en
Ħ à¸£à¸±à¸ļ
ģ à¸£à¸°à¸
Ġ äºļæ´²
å°± æĺ¯
Ġå İ
Ġ0 3
éĽĨåĽ¢ å®ĺç½ĳ
ģ à¹Ī
Ġæ µ
à¤°à¥įà¤ µ
áĥĿáĥĳ áĥĲ
ir e
Ġà¦ı à¦¬
ĠÏĢ Î¿
ÑģÐº Ð°Ð¹
áĢ½ áĢĦáĢº
Ñĸ Ð²
à±ģà°Ĥà° ¦à°¿
ìĥ µ
ë¶ Ģ
à«įàª¯ àª¾
Ð¾ Ñı
à´¿à´ ®
Ã¤ Ã¤
à¤¹ à¥Ģ
Ñĸ Ñı
Ġà® ı
× ¦
Ãł y
áĥĲáĥ ¦
ĠÎ¼ Î±ÏĤ
Ġ ÉĻ
k s
ĠÏĥ ÏĦÎ¹
lu i
à´¿à´² àµģà´Ĥ
Ø§Ø ¨
w i
Ñĸ Ñģ
Ð½Ð¾ ÑģÑĤ
Î³ Îº
à«įàª ²
áĥĶáĥł áĥĺ
ìł ľ
Ñı Ð´
Ã© k
à®¾à®Ł à¯įà®Ł
æĿ ĥ
å ĥ
2 3
Ġéĩį åºĨæĹ¶æĹ¶å½©
à¥įà¤¯à¤¾à¤ ¸
Ġun e
Ġà¤¨ à¥ĩ
Ġ áĥĲáĥľ
à±įà° ķ
ĠÐ± ÑĥÐ´
Ġs a
áĢľ áĢŃáĢ¯áĤĶ
áĢ¼ áĢĶáĢ¹áĢ¸
áĢ¶ áĢ·
àµģà´ķ à´³
ìĥ ģ
ĠÏĢÎµ ÏģÎ¹
à«ĩàª ķ
áĢŃ áĢĶáĢ¹áĢ¸
áĢĻ áĢ®áĢ¸áĢ
áĢ»áĢĸ áĢħáĢ¹
Ġ áĤıáĢ½áĢħáĢ¹áĢ
áĢ¡ áĢŀ
Ð°Ñİ ÑĨÑĮ
Ġp er
Ġà®µ à¯Ĩ
ĠÛģ ÛĮÚº
Ð¸Ð½ Ð¸Ð½Ð³
ĠÐ± Ð¸ÑĢ
Ð» Ð°ÑĪ
Ñĥ Ð²
Ã¡ g
áĢĿ áĢĦáĢº
Å¼ e
iá» ģ
ĠÎ¼ Î¹Î±
ÏĦÎ¹Îº ÎŃÏĤ
Ġ \
Â µ
y dd
Ġd en
ĠáĥĲáĥ ¡
ĠÐ İ
ĠÐ¸ ÑĪ
Ġà°® à°°
Ñĩ Ð¸
ĠÐ±Ð¸Ð» Ð°Ð½
Ð¾ ÑĪ
ìł Ħ
Ġàª¤ à«ĭ
à¤¨ à¤¾
Ġà¦¨ à¦¿à¦
Ġ× ł
n ÃŃ
Ġ Ð°Ñģ
áĢ±áĢ ĸ
à© ĭ
à¹īà¸² à¸Ļ
ç ¬
à¨ ¤
åĮ Ĺ
Ĉ Ĉ
1 3
æĸ ½
Ġåħ ¶
Ġà¤¤à¥įà¤¯à¤¾à¤ Ĥà¤
ÙĪ ÙĨ
ĠáĢħ áĢŃáĢĲáĢ¹áĢ
áĢľ áĢ¬áĢ¸
àµģà´ ª
áĢŁ áĢ¯áĢĲáĢ¹áĢ
áĢ±áĢĽ áĢ¬
à®Ł à¯ģà®¤à¯įà®¤
Ġàª ¡
ĠâĢ ŀ
ĠÑĩ ÑĤÐ¾
ëĤ ĺ
ÎµÎ¹ ÏĤ
à¦ķ à§įà¦¤
Ð ĥ
ĠÐ³ÑįÑĤ Ð°
á» Ł
ĠÃ ¶
à´¾ àµ»
ĸ áĢŃáĢ¯áĤĶ
ĠáĢĳ áĢŃáĢ¯
ãĤ Ĥ
Î³ ÏģÎ±
àª¿ àªµ
Ġáĥ¨ áĥĶáĥ¡
áĢŀ áĢĬáĢ¹áĢ·
áĢ» áĢ¾
à¤§à¥įà¤¯ à¥ĩ
Ġà®Ĵà®° à¯ģ
m s
ĠS e
ĠÎļ Î±
ĠÐ¿ÑĢ Ð°ÑĨ
ÈĻ i
Ġà¤ ¥
Ġd he
ĠÎ ¶
Ð°Ñ ĳ
±áģ¾áĢĢ áĢ¬áĢĦáĢ¹áĢ¸
áĢĦáĢ¹áĢ Ļ
áĢĽ áĢ®áĢ¸áĢ
í ĥ
à§ĭ à¦Ĺ
à«įàª¯ à«ĭ
t Ã©
Å Ħ
áĥĲáĥ ¬
Ġqu e
Ð°ÑĨ ÑĭÑı
ch en
ĠÏĢÎ± ÏģÎ±
ÛĮ Ùħ
Ġà°ķ à±ĭ
in dÉĻ
áĢ±áĢ¬ áĢĦáĢ·áĢº
Ġn em
ĠÎºÎ± ÏĦÎ±
Ïĥ ÏĦÎ·
ĠÎ± ÏĢ
ÏĢÎ¿ Î¹
ÏĮ ÏĦÎµ
Ïģ ÎµÎ¯
Î´ Î¹Î±
ĠÎ±Ïħ ÏĦÏĮ
Ġ <
ĠÎ¼ Î±
Ïģ Î¹Î±
Î³ Î¿
ĠÎ¼ ÏĢÎ¿
f f
ĠÑĤ Ñį
ÐµÐ½Ð¸ Ðµ
áĥł áĥĿ
Ġàª¸ àª®
à¦¾à¦ Ĺ
ĠÐ ¨
ëħ ¸
à°¾à° ¡
Ġv i
Ġì¹ ´
Ġà´ ķàµįà´
Ð² Ð°Ðµ
ë į
Ġ× Ĺ
à®¿à® ļ
ĠØ± Ø§
ĠÒ ·
ÅĽ ci
áĢģáĢ» áĢĢáĢº
ãĤ ¹
ÏĢ Î¬
Î¼ÎŃ Î½
y s
à±įà°¨ à°¿
ĠáĥĲáĥ ¦
ĠÐ½ Ð°Ð²
Ð¾ Ð³Ð¾
Ùĩ Ø§
à´¤àµįà´¤ àµĨ
à¹ī à¸Ń
åı ²
è´ Ń
à¹Ģà¸£ à¸²
à¥įà¤ ķ
áº ·
à¦¦ à§ĩà¦°
Ã³ l
Ġ" :
Ġë ı
d an
Ġà¸ ļà¸Ńà¸¥
ĺ à¸
à®© à¯įà®©
Ġa l
áĢ¯ áĢķáĢ¹
ĠáĢ¡ áĢģ
Ġàª¤ àª®
ŀ à¸Ļà¸
Ķà¸´à¸¡à¸ŀà¸ ±à¸Ļà¸
¸à¸ ķà¸
ĠÐ´ Ð·Ðµ
ªà¸¸à¸ Ķ
Ġp re
Ġà®¨ à®Ł
áĥķ áĥļ
à´¾à´ §
à±įà° ¥
à¹Ĥà¸ ¡à¸
Ġà¦¸ à¦Ĥ
ĠáĢŁ áĢ¯
Ðµ Ð·
çĶ ±
1 4
ç İ¯
è§Ħ å¾ĭ
åĪĨ pk10
ŀ à¸´
ãĢ Ĭ
Ġé Ļ
Īà¸ °à¹Ģà¸
à© ±
åŃ Ĺ
Ġé Ĥ
æĬĢ æľ¯
Ġà¸ Ĺà¸µà¹Īà¸
å® Ŀ
à¥įà¤ ª
áĢĢáĢ¹áĢ ¡
ĠáĢĲ áĢħáĢº
Ġà®¤ à¯Ĭ
Ġáĥ ¯
Ð² Ñĭ
Ïį ÏĦÎµ
Î¸ ÎµÎ¯
ÏĦ Ïħ
ĠÎ¿ ÏĢÎ¿
ÏĦ ÏģÎ¿
ÏĮ Î½
Î´ Î¹
ĠÎ¼ Î¿Ïħ
ĠÎ¾ Îµ
Ïİ ÏĤ
Ïħ Î½
Ïĥ Ïī
w n
í ı
Ġu z
Ġà´ ĵ
à«įàª¯ à«ģàªĤ
na k
Ġà¤Ń à¥Ģ
×Ļ× ¨
Ø¦ ÛĴ
Ñĭ ÑĤ
Ġà¦ı à¦ĩ
Ġà°¸ à°®
áĥĹ áĥķáĥĺáĥ¡
ĠØ§ÙĦØ £
çĶµ åŃĲ
æľī éĻĲ
Ġå½©ç¥ŀ äºīéľ¸
Ĥ à¹īà¸²à¸
à¸Ńà¸¢à¹Īà¸²à¸ ĩà¸
9 6
åİ ĭ
à¥įà¤° à¥Ģ
áĢ± áĢĢáĢº
áĢŀ áĢĬáĢ¹áĢ
áĢĢáĢ¹áĢ Ĳ
Ħ áĢ¼
»áĢķ áĢ³
ĠáĢĨ áĢĽáĢ¬
áĢĢáĢ¹áĢ ħ
áĢĶ áĢļáĢº
Ġìķ Ħ
Ð°Ð¼ Ñĥ
Ġ áĤıáĢŃáĢ¯áĢĦáĢ¹áĢĦáĢ¶
áĢ¾ áĢ¯
ĠÄĳ Æ°á»£c
ĠâĢĭ âĢĭ
Ļàµįà´ Ļ
à¯Īà®¯ à®¿à®²à¯į
le n
Ð¸ÑĤ ÑĮ
àª Ī
Ñį ÑĤÑĭ
Ġæ ±
Ġå¹ ¶
Ġ ä¸ī
·à¹Ī à¸Ńà¸ĩ
Ġè ´
å¹ ²
Ī à¸£à¸´à¸
æ ĳ
Ġà¤®à¥įà¤¹ à¤£
Ã« n
à¦ «
ĠáĥĲáĥ łáĥ
ÅĤ o
Ð°ÑĤ Ð°
Ä± r
Ġ ãģ
ag ba
à° Ĺà°¾
Ġa won
à®ªà¯įà®ª à®Łà¯įà®Ł
ĠÑĥ Ñĩ
ĠÒ ļ
Ġ Ð°ÑĢ
±áĢĽ áĢ¸
áĢ»áĢķ áĢ³
áĢļáĢ¹áĢľ áĢŃáĢ¯áĤĶ
ĠáĢķ áĢŃáĢ¯
k y
àª¿àª ²
Ġê¸ °
Ġà¦¥ à§ĩà¦ķà§ĩ
Ġáĥ£áĥ ľ
Ġà´ ı
Ġà¹ģà¸ ¥à¸°
Ġ 88
Ć ą
ŀ à¸£à¸²à¸
Ġäºļæ¸¸ åĽ½éĻħ
Ġè µ
è ħ
æ¼ ı
Ġà¤ ¡
Ñĸ Ðº
t Ã¤
ī áģ
Ä« ba
Ð¾ÑĢ Ð¸
à° ¶
Ġg a
àª¾àª ³
Ñĸ ÑģÑĤ
Ġna do
Ġw h
b á»į
áĢ ¦
ĠÐ¿ Ð¾Ð´
à¸Ńà¸£ à¹Įà¸
Ġáĥ¡áĥĲáĥ ®
Ú ĳ
Ġmi iran
Ġe lo
Ġá¹£ a
Ġ ere
ç®¡ çĲĨ
Ġè ĩ
ªà¸²à¸ ¡à¸²à¸£à¸
Ġà¹ģà¸ ķà¹Īà¸
Ġç º
à¥ģ à¤ķ
Ö ģ
z ÉĻr
Ġaa ye
Ġi po
Ġa pa
Ĳ áĢŃáĢ¯áĤĶ
±áĢĨ áĢ¬áĢĦáĢ¹áĢ
áĢ±áĢķ áĢĻ
ĳ áĢ¬áĢĦáĢ¹áĢ
áĢĢ áĢ±áĢĲáĢ¬áĢ·
áĢĦáĢ¹áĢ ŀ
ĠáĢ±áĢ ħ
áĢĲáĢ¹áĢ ľ
áĢĲ áģ
áĢ¯ áĢĴ
à°° à±ģ
Ġ er
Ð² Ð°Ð½
¡ °
Ġà¦Ĩ à¦°
ĠáĢ ĵ
Ġáĥ¨ áĥĶ
à¯Ī à®¤à¯įà®¤
ĠT h
àµĨà´¨àµįà´¨ àµį
áĢ¬áĢ¸áĢĻ áĢº
áĢ»áĢķ áĢĬáĢ¹áĢ
áĢĶáĢ¾ áĢħáĢº
Ñĩ Ð°
Ð°ÑĢ Ð¸
v o
× Ł
Õ¸ Õ
ÉĻ m
è® ¤
æŀ Ħ
ä¹ ī
à¹Ģ à¸Ļà¸
å®ī åįĵ
æ¯Ķ åĪĨ
ĠagåĽ½éĻħ åİħ
«à¸ ¥
Ġå¿ «
å¢ ĥ
åı ĭ
èĩª å·±
§à¸ ¥à¸²
- -
Ľà¸£à¸ °à¹Ģà¸
ķ à¸£à¸
Ġ2 6
Ĺ à¹Īà¸²
à¤Ĥà¤ ¦
i ng
à«ĭàª ²
Ð¾Ð² Ñĭ
s un
ow a
Ġaye lujara
Ø¯ Ùĩ
Ġs u
à§ĩ à§Ł
s an
ë Ł
à® ¸
ÙĦ ÙĬ
Ġsi i
Ġan d
Ġth e
àµįà´ ķàµįà´ķ
Ġi rin
ĠÐ½ Ñı
áĢ½ áĢĢáĢº
à¦¾à¦ ¶
à¥įà¤ ¸
à°¿à° Ĺ
Ġáĥ¡áĥĲáĥ¥ áĥĲáĥłáĥĹáĥķáĥĶáĥļ
Ġáĥĺ áĥ§
Ð¸ÑĪ Ð¸
Ġï¿½ï¿½ï¿½ï¿½ ï¿½ï¿½ï¿½ï¿½
Ġy áº¹
Ðº Ð°Ð½
Ð¿ ÑĢ
w áº¹
à«įàª ¸
àµĭ à´Ĺ
Ġa p
ãģ Ĩ
áĢĻáĢ» áĢŃáĢ¯áĢ¸áĢ
Ø§ Ûģ
ĠÏĦ Îµ
Î± Î»
Î¯ Î¶
ĠÎºÎ± ÏĦÎ¬
ĠÎ´ Î·
it h
bo gbo
ĠÑŀ Ð·
Ñĥ Ð·
Ġi la
z t
Ġw o
Æ° Æ¡
à®Ļ à¯įà®ķà®³à¯į
Ġi ba
Ġáº¹ gbáº¹
à¦² à§ĩ
áĢĽ áĢĦáĢº
ìĨ Į
ĠáĢľ áĢŃáĢ¯
ĠÐ¿ÑĢ Ð¾
ĠáĥłáĥĿáĥĽ áĥĶáĥļ
Ġe to
ĠÑĢ Ð°Ñģ
ĠI le
Ġàªķàª° à«Ģ
g a
à±įà° ¡
áĢĤ áĢ«
àµĩà´ ¶
Ġá»į kan
dÄ± r
es u
á¹£ á»į
à¦¾à¦¦ à§ĩà¦°
ë Ĳ
ar in
áĢħáĢ¹áĢ ħ
Ø§Ø ¡
ģà¸ ±à¸Ļà¸
Ġåħ ¨
ĠâĢ ĺ
à¥ ¦
Ð°Ð´ Ñĭ
ĠÃ ¬
à ¬
Ġà¤ķ à¤¿
Å ¯
Ġs ur
áº§ n
×ķ× ĵ
ĠÐº Ð°Ð½
áĢĢáĢ¼ áĢ±áĢ¬áĢĦáĢºáĢ¸
o k
Ġà° ²à±ĭ
ĠáĥĽ áĥĺáĥ¡
Ġà¤Ĩ à¤ª
ĠÒ ²
ĠÙĨ Ûģ
Ø§Ø ´
Ġà´¸ àµįà´µ
àª¾àª Ĺ
à§ĩà¦ ¤
es t
Ġà®ķ à¯Ĥ
ÑĤ ÑĢ
ĠáĢĢáĢŃáĢ¯ áĢļáĢ¹áĢ
áĢ® áĢľ
s Ä±n
ç» Ń
æ· ±
2 4
éĤ £
äº ĳ
Ġæ İ
ä¿¡ æģ¯
è¾ ĵ
äº ¿
æ²¡ æľī
à¸Ńà¸¢à¹Īà¸²à¸ ĩ
Ġæ ³
áł łáł
Ġæ ¾³éĹ¨
ç¥ ¨
åº Ĺ
é¦ĸ é¡µ
5 6
±à¸ ģ
å¹ ¶
èī ĩ
Ġå¤© å¤©
åĽ½ å®¶
à¥ ħ
Ã« s
áĥł áĥĺ
à´ ļ
Ð ¡
ÑģÐº Ð°Ð³Ð°
Ġà°ķ à±Ĥà°
ÏĦÎ· ÏĦÎ±
Î¬ Ïģ
ÏĦ Ïī
l y
áĢĴ áĢ«
ÑĩÐµ ÑģÐº
áĢ¬áĢ¸áĢ ±áĢĲáĢ¼
áĢ» áĢĢáĢº
ĠÐ¿ Ð°Ñģ
g e
Ġà¦ªà§įà¦° à¦¤
Ġn e
àª¾àª° à«Ģ
ãĥ ĥ
áĥĲáĥ Ŀ
Æ°á» Ľ
à®¿à® ®
Ġà´ ŀ
ĠÐ±Ð¾ ÑĪ
Ġìł Ħ
à°¿à° ¸
Ø§ Ú©
Ġà´® àµģà´
Ġ Ð°Ð¿
ĠáĢĴ áĢ¯
ĠØ§ÙĦ Ø¹
áĢ¡ áĢ±áĢĶ
áĤı áģ
áĢĸáĢ½ áĢ²áĢ·
à´ «
Ġ× ª
c y
Ò³ Ð¾
àª¾àª Ī
Ġà¦ §
Ð°Ð» Ñı
Ñģ Ðµ
Ġ Ô
s Ä±
ĠáĥĲáĥ ®
áĢĺ áĢ²
ÙĦ ÛĮ
Ġm in
áĢĢ áĢ¯
à®± à¯įà®ķ
à°Ĥà° ļ
áĢ¬ áĢ·
à¥ Į
Ġd Ã©
à´¿à´ķ à´³
àªĤ àª¤
c o
Ġ íķĺ
áĢĨ áĢ±áĢ¬áĢĦáĢº
áĥĲáĥ £áĥ
ĠÐ» Ñİ
å£ «
Ħ à¸Ļ
¹ æŀľ
ĩ à¸²à¸Ļ
Ġç¾ İ
à¸Ļ à¹īà¸
à¨ ¨
å¾ ®
æĢ Ŀ
¶à¸ ģà¸
Ġäºļæ¸¸ ag
9 0
à¹Ģà¸ ŀà¸
Ġå° ±
ç§ °
à¤¾à¤ Ł
à¦¿à¦ ¶
iá»ĩ n
Ġi st
Ġà´¸ à´®
A PP
Ġ 66
ä½ İ
Ġ ï
à¤¿ à¤°
ĠÑĩ Ð°Ñģ
Ġq Ã«
Ġp r
Ġà°µ à±Ĩ
áĢĶáĢ¾ áĢĦáĢ·áĢº
áĥĺáĥĵ áĥĲáĥľ
Ø± ÙĬ
àª «
Ã© p
Ġp entru
ĠÎ± Î»Î»Î¬
Î´ Î·
ĠÎµ Ïħ
ĠÎŃÏĩ ÎµÎ¹
Ïĥ ÏĦÎ¿
Î¸ ÎŃ
w r
Ġà®ħ à®°
Ġ Q
ĠØ µ
Ġà¦ ĺ
Ð¾Ð² Ð°Ð½
ľ ê±¸
í ħ
Ġprz e
ĠÐ ¥
ãĤ Į
Ġà¨ ¹
à¸Ńà¸¢à¸¹ à¹Ī
å¤ į
åĩ ¡
å¿ ħ
åħį è´¹
éħ į
Ķà¸ ¹à¸
åı į
ç Ĭ
åĪ Ļ
ķ à¸´
Ġà¸ ¡à¸
æĪĳ ä»¬
Ħà¸¸à¸ ĵ
åĨ į
ç» ľ
çİ ĭ
±à¸ įà¸
«à¸ ¥à¸²à¸
çī Ľ
Ĺà¸µ à¸
ªà¸ ¡à¸
à¥įà¤ ²
à´¾à´¤ àµįà´°
à±ĩà° ¸
t ta
Ð½ Ð°Ðµ
à¯Īà® µ
×ķ× Ł
ìł ģ
áĥĿáĥ Ĺ
lÉĻr i
àª¨ à«ģàªĤ
à°¾à° ª
j Äģ
Ð°ÑĨÑĭ Ñĸ
Ø¦ ÛĮ
Ġà¦ıà¦¬ à¦Ĥ
Ġtr ong
àµįà´ £
¡à¸²à¸ ģ
Ķà¹īà¸§à¸ ¢
è¿ ŀ
çĻ» éĻĨ
«à¸£à¸ ·à¸Ń
ķ à¸£
1 7
æ ļ
ç»ı æµİ
Ġç «
èĻ İ
é Ł³
æ ħ
æĬ ¤
à¤ļ à¥įà¤¯à¤¾
Ð°Ð¼ Ð°
c s
áĢ»áĢĸ áĢĦáĢ¹áĢ·
ĠáĢŀáĢŃ áĢĽ
áĢ¬áĢ¸áĢ Ķ
áĥļ áĥĶáĥĳ
n Ã©
Ġ Z
Ġà®® à¯ģà®
Ð¸ Ñħ
à°¾à° ¬
Ð°Ð² Ð°ÑĨÑĮ
à´± à´¿à´¯
áģ ¸
ĠáĢ±áĢ ĸ
áĢ¡ áĢĽ
Ġà¤² à¤¿à¤ı
à«įàª ·
ĠÐ² Ð¾
Ġà°Ĵ à°ķ
Ġc are
ÑĨ ÑĭÑı
ĠáĢ¡ áĢ±áĢĻ
áĢĦáĢºáĢ¸áĢ Ļ
Ġáĥ§ áĥķáĥĶáĥļ
ĠÏĢ ÏģÏĮ
Ġe i
ĠØ¨ Ú¾ÛĮ
Ġm ÉĻ
êµ Ń
ĠÑı Ð³Ð¾
4 0
łà¸²à¸ ŀà¸
åģ ĩ
Ġà¸ Ĥ
à¥ģà¤ ³
ĠØ¹ ÙĦÙī
ĠØ ²
Ļ à¯įà®ķ
Ã© t
ow an
à´¿à´ ±
ĠÐ´ Ð°Ð²
áĥĶáĥĳ áĥ£áĥļ
Ġf Ã¼r
×ķ× ĳ
Ġàª ¯
ĠáĢŀ áĢĲáĢĦáĢ¹áĢ¸
áĢ¸áĢ Ķ
Ñĥ ÒĽ
ĠÐ¿ Ð°ÑĢ
à¯įà® £
Ġn jÃ«
Ġ3 6
å®ī åħ¨
à¸Ļà¸± à¹īà¸Ļ
æľīéĻĲ åħ¬åı¸
æĿ ¿
åĪĨ æŀĲ
Ġç ī
æī į
åĵ į
ĻĢâ ĻĢâ
ç¡ ®
å¼ ķ
à¤ ĸ
Ġa t
Ġë ¬
àµįà´¯ à´Ĥ
áĢĻ áĢĬáĢº
áĥ£áĥ Ľ
à¯įà®¤ à¯įà®¤
Æ°á»Ŀ i
ĠÑģ Ñı
Ã¤ n
à°¤ à±ĭ
Ðµ Ð²
à´¨àµįà´ ¦
z et
ĠÐ´ Ð·Ñı
à¯Ĩ à®°
ÉĻ b
Ð± Ðµ
Ġàª ĺ
Ġé ĺ
ä¸ ¾
Ġæ Ķ
è¶ Ĭ
çħ §
à¤¾à¤ ¬
Ġo d
ĠÑĤ Ñŀ
ĠÒĽ Ñŀ
Ð¸Ð» Ð³Ð°Ð½
ĠÐİ Ð·
ĠÑį ÑĤ
Ð¸ Ñĳ
Ġi l
ĠáĥĲáĥ ¥
à´¾à´¯à´¿à´° àµģà´¨àµįà´¨àµģ
áĢ½ áĢ±áĢ¸áĢ
ĠÐŁ ÑĢ
Ġà°ī à°¨à±įà°¨
à¤¾à¤ļ à¥įà¤¯à¤¾
à¦ ¡
êµ ¬
ĠÑģ Ð»
Ã³ n
Ġc e
Ã Ł
áĢĶ áĢ·áĢº
áĥĺáĥ Ĵ
Øª Ø±
àµįà´¯ à´®
Ġ Ð°Ðº
à¥ĭà¤ Ĺ
à®¾à® £
ĠÐ¿ÑĢ Ð°Ð²
Ġh a
Ġì ļ
Ġ× ¨
Ġàª¤ à«ĩàª®
£áĥ ļáĥĺ
áĢĦáĢ¹áĢ ¡
áĢ® áĢĻ
à´ªàµįà´ª àµĭ
áĢĦ áĢļáĢ¹áĢ
áĢ¸áĢ±áĢ Ķ
áĢľáĢŃáĢ¯ áĢĢáĢ¹áĢ
ĠáĢĢáĢº áĢ±áĢĶ
áĢĲ áĢļáĢ¹áĢ
áĢĿ áĢº
áĤıáĢ½ áĢħáĢ¹
ģáģ ļ
áĢĦáĢ¹áĢ ±áĢ
áĤ ĥ
áĢŃ áĢĢ
ĠÐ¼ Ð¾Ð¶
ĠÑ İ
ĠÐ¹ Ð¸Ð»
Ñĥ ÑĪ
à¦¦ à§įà¦
ĠÛĮ Ûģ
Ġáģ Ĩ
Ġà®ª à®Ł
a i
à°¦ à±įà°¦
èĬ ±
Ġå¥ ½
Ġé Ŀ
Ġà¤ ł
ĠáĢ» áĢĸ
ĸáĢ¼ áĢħáĢº
áĥĺáĥļ áĥĺáĥ¡
k ie
ĠÐ¾ Ð»
Ġi lu
Ð´ Ð°Ð³Ð¸
Ð» Ð°ÑĤ
Ġà´ĩ à´¤
ĠÑĤ Ð°ÑĢ
áĥĲáĥĵ áĥĴ
ho va
p u
Ġàª §
Ġì ĸ
Ġáº¹ ni
· à§įà¦Ł
Ġà´ªàµįà´° à´¤
äº§ åĵģ
æķ° æį®
à¹ĥà¸«à¸ ¡
à¤² à¥ĩà¤²
à¤¹à¥Ģ à¤Ĥ
à¯įà® ¯
ĠÐ §
Ġï¿½ï¿½ï¿½ï¿½ ï¿½ï¿½
an a
Ø º
Ġà°µ à±įà°¯
Ġl i
Ġá»į ja
ĠK o
Ġag ba
ĠÐ¿ÑĢ Ð°Ð´
Ã³ Ì£n
Ġau f
Ã½ ch
áĢ¬áĢĽ áĢ®
ĠÐ± ÐµÑĢ
à´¾ àµ¼
Ġgb i
áĥķ áĥĶáĥ
e dd
ĠJ i
ĠR e
ĠÐ ¤
Ġp i
à«ĭàª ¡
á» ĵ
Ġe de
ĠáĢķáĢ¼ áĢ±áĢ¬
Ġà® Ł
à¦¨ à§ĩ
Ġà°ª à±ĭ
Ġf el
Ġ2 00
s á»į
Ħ à¹Īà¸
Ġà¨ ¨
æĬķ æ³¨
éĺ ³
Ġà¤ §
ļ Į
ãĤ ¤
áĢģ áĢĦáĢº
Ð Ĩ
ĠÑıÐºÑĸ Ñı
Ġg ig
Ð¸ ÑĦ
fi han
Ġp ro
ĠáĢ¡ áĢ¬
Ġr á»į
Øª ÛĴ
à±ĩ à°ķ
×Ļ× ł
ÙĪ Ø²
à¦ķ à¦¾à¦°
Ñ Ķ
ĠA n
Ġi da
ĠF un
Ð¾ Ñĩ
ë³ ´
áĢĲ áĢŃáĢ¯áĢĦáĢ¹áĢ¸
»áĢķ áĢ¬áĢĦáĢ¹áĢ¸
áĢ¥ áĢ¹
ĠáĢľ áĢ½
Ġm á»Ļt
ĠA ti
Ġá»į pá»įlá»įpá»į
U N
Ġf o
àª¾àª° àª¾
à¤¤ à¥ĩ
áĥĲáĥľ áĥĺ
Ġ= "
pa da
Ġ201 7
A N
Ġaká»į ká»į
Ġ áĤı
Ġ áĤĲ
áĢĻ áģ¼
áĢĢáģ ł
áĢĲ áĢĦáĢº
Ì ģ
ÎĹ Î£
Ïģ Î¿Ïħ
ÑĢ Ð°Ð½
ìļ Ķ
Ġà®İà®©à¯įà®± à¯ģ
à°¾à°¨ à±įà°¨à°¿
Ġb u
Î ļ
ĠÎł Î±
à¦¿à¦ Ł
àµģà´£àµįà´Ł àµį
áĥĶáĥ¥ áĥ¢
áĤĢáĢĢ áĢŃáĢ³
áĢ±áĢĨ áĢ¬áĢĦáĢ¹áĢ
áĢŀ áĢŃáĢ¯áĢ·
àª ĸ
Ð³ Ñĸ
Îĳ Î£
ÎŁ Î£
Îµ Ïģ
ĠÑĤ Ð°ÑĬ
Ùĩ Ø§ÛĮ
Ġìĭ ľ
Ġä½ ł
à¹ Ĭà¸
Ġç Ļ
ç½ĳ ç»ľ
åĽ Ń
« à¹ĩ
Ł ©
æİĴ åĪĹ
å¸Ĥ åľº
ć Ĉ
åħ Ń
ä¾ ¿
Ġà¤¤ à¤°
ĠáĥĽ áĥĲáĥĴ
à®¤ à¯į
Ġd ans
ĠÙĦ ÙĦ
ĠÐ± Ñĥ
Î¹Îº Î¿
áĥ£áĥ Ĺ
à©± à¨
å° Ķ
à¥Ģ à¤¤
Ġà´ķ àµĭ
Ġà§¨ à§¦
àª¶ à«ĩ
Ñı Ð»Ñĸ
à°¦ à°¿
à¦¨ à§ĩà¦°
Ķà¸¥ à¸Ńà¸ĩ
Ġà¸ ģà¸²à¸£à¸
le t
Ġp ie
áģ¾áĢĢ áĢ®áĢ¸áĢ
ķ áĢ²
áĢĦáĢ¹áĢ¸ áĢŀ
Ġáģ¿ áĢķ
ľ áĢĬáĢ¹áĢ¸
ĠáĢľ áĢĢáĢº
ãĤ ī
Ï Ĭ
Ð ŀ
Ġà¤¹ à¥ĩ
ĠÑĢ Ðµ
Ġà´¨à´¿à´ ¨àµįà´¨
Ġáĥł áĥĿáĥĴ
Ä± ÅŁ
Ñĭ Ð½
Ġà¹Ĥà¸ Ľà¸£
¥à¸ĩà¸ Ĺà¸
c ie
Ġàª¹ à«ĭàª
Ġà¹Ģà¸ Ķà¸´à¸¡à¸ŀà¸±à¸Ļà¸
Łà¸ ¸à¸ķà¸
°à¹Ģà¸ ļ
Ġv er
ĠÐ´ Ðµ
Ġà®ļ à¯Ĭ
´ Ģ
Î¾ Î·
Ð³ Ð°ÑĢ
áĢĲáĢ¹áĢ Ĳ
à§įà¦ ¨
à¹Ĥ à¸Ļ
s Ã©g
Ħà¸£à¸Ķà¸´à¸ ķ
à¸µà¸¢ à¸Ļà¸
áĢ¬áĢŀ áĢ¬
Ġ ÈĻi
à®¾à® ±
ÛĮ Ø³
Ġà¹Ģà¸ ¥
Ĭà¸± à¹Īà¸Ļ
ĠÐ¶ Ñĭ
áĥĲáĥłáĥ ĵ
Ġà¸Ĺà¸ Ķà¸¥à¸Ńà¸ĩ
Ġà¸ Ľ
Ġà¤° à¤¹
Ïħ Ïĥ
Ã« sh
à´¾à´² àµįâĢį
Ġà´µ à´°
ÑĤ Ðµ
à°¸ à±įà°¤
ĠÐ ¦
ĩà¸´ à¸Ļ
×ķ× ł
ļà¸Ńà¸ ¥à¸
áĢ±áĢĶ áĤĶ
áĢĢáĢ¹áĢ ±áĢĶ
ĠáĢĺ áĢļáĢ¹áĢ
áĢķáĢ¹áĢ Ļ
áĢ±áĢĽ áĢ¸áĢ
áĢĺ áĢ¬
Ġà¹Ģà¸ §à¹ĩà¸
Ġ à¸£
Ð¾ ÑĢÑĭ
áĥĲáĥłáĥ Ľ
áº¡ n
áĢĬáĢ· áĢ¹áĢ
áĢŀ áĢĬáĢ·áĢº
Ø§Ø ¹
Ġà¹Ģà¸Ķà¸´à¸¡à¸ŀà¸±à¸Ļà¸ Łà¸£à¸µ
ģà¸ ¡à¸
à¦¾à¦ ļ
Ĥà¸¶ à¹īà¸Ļ
ĠåĽ ł
åĦ ¿
Ġåĳ ¨
å¤ ª
éĺ ²
Ĺà¸²à¸ ĩà¸
ä¾ ĭ
ä» Ĭ
å®ĺç½ĳ ä¸ĭè½½
æĬ Ĭ
Ġà¤¸ à¤®
ĠÎ ¥
ìĹ ħ
à´¾à´ ª
à°¿à° Ł
u s
ĠÏĥÏĦÎ¹ ÏĤ
ì§Ģ ëħ¸
à¯Īà® ªà¯įà®ª
à«ĩàª ¸
, "
Ġì§ Ģ
ÐĲ Ð
Ð¾Ð² Ð°
Ġr o
Ġà¦ª à¦¾à¦°
ĠÐ¿ÑĢ Ð¸
Ã¡ k
ÏĮ ÏĤ
àµģà´¨àµįà´¨ à´¤
ĠÐ¿ Ð°Ðº
Ðĺ Ð
ĠÐ¾ Ð½
áĥł áĥĲáĥĽ
an t
à±ģà° ª
àª¾àª ķ
Ġæ Ģ
æĭ ī
æĺ ¾
à¥ĭ à¤ķ
Õ µ
Ö Ħ
lar Ä±
áĥĶáĥĳ áĥļ
ĠÐ³ Ð¾Ð´
ĠÎ Ī
v Äĵ
Ġà®ķ à®Ł
ĠÐº ÑĢ
ĠØ ·
à±ĩà° µ
à´¾à´ Ĺ
l Ã¤
Î¼ Î®
Ġáĥ ¦
Ġvá» Ľi
à¦¾à¦ Ł
Ġí ĺ
Ġng a
à¤¾à¤² à¤¾
¥ à«ĩ
ãĥ Ī
d y
à¹Īà¸ĩà¹Ģà¸ ĩà¸´à¸Ļà¸
ļà¸²à¸Ĺ à¹Ħà¸Ĺà¸¢
Ġà¸ª à¹Īà¸ĩà¹Ģà¸ĩà¸´à¸Ļà¸
¥à¸ĩà¸Ĺà¸ °à¹Ģà¸ļ
ĠÐ³ ÑįÑĤÑĭ
Ġà¸ Īà¸
à±ģà°Ĥà° Ł
te l
ĠÏħ ÏĢÎ¿
Ù Ģ
Ġà®ĩ à®¤
Ġà¸ ŀà¸
ĠØ§ÙĦ Ø³
áĥĶáĥĿ áĥĳ
à°® à±įà°®
Ð¾Ð»ÑĮ ÐºÑĸ
r es
à´¿à´ļàµįà´ļ àµį
Ġà¤ħ à¤ª
ĠÐº Ð°Ðº
ba y
Ġà¦ľ à¦¾à¦¨
à±ģà° ¡
Ġà¸ ļ
bay c
Î¹Îº Î®ÏĤ
à¯Īà®¯ à¯ģà®®à¯į
Õ¥ ÖĢ
Õ¡Õ ¯
Ġ Æı
Ħ áĢĶáĢ¹áĢ¸
áĢĻáĢº áĢ³áĢŃ
ĠáĢľ áĢ¯áĢķáĢº
Ħà¸£à¸ ·à¹Īà¸Ńà¸ĩà¸
àª¾àª¨ à«Ģ
Ã¡ z
å§ ĭ
åĩ ł
à¹Ģ à¸Ń
Ġ5 5
åº ľ
èĭ ¹æŀľ
èµ ¢
å¤§åıĳ å¿«ä¸ī
ç ¢
ĠåĬł æĭ¿å¤§
à¤¤ à¥įà¤¤
ÏĦ ÏīÎ½
Ð°Ð² Ðµ
×Ļ× Ķ
bayc an
ìļ ©
áĢĽ áĢĶáĢº
Ġáĥ¡áĥĲáĥ Ļ
ĠA zÉĻr
Î¯ ÎµÏĤ
ĠÏĥÏĦÎ¿ Î½
Îµ ÏĦÎµ
ĠÎ¸ ÎŃ
Ïģ ÎµÏĤ
er s
à¦¾ à§ľ
y ÉĻ
à¸£à¸²à¸Ħ à¸²
Ġà°ķà±Ĥà° ¡à°¾
à´¾à´ ľ
ªà¸ ³à¸«
Î¼ÎŃ Î½Î¿
ÏģÎ¹ ÏĦÎ¹ÎºÎŃÏĤ
ÏĢ ÎµÎ¹
ĠÎ´ Î¹
Ïĥ ÏĦÎ±
Ġa c
ĠÐ¼ Ñĸ
in Äģ
iá»ģ u
Ġà¦ī à¦ª
Ġà®ħ à®®
¥à¸ĩà¸Ĺà¸°à¹Ģà¸ļ à¸µà¸¢à¸Ļà¸
Ġ à¸Ļà¸
ĠÑĤ Ð°ÑĪ
áĥĶáĥ ª
à°ķ à°¿
ĠãĢĤ ï¼Į
ć ï¼Į
ķ à¹Īà¸²à¸
å®¢æĪ·ç«¯ ä¸ĭè½½
à¤¦ à¥įà¤
Ñī Ðµ
t Ã³
ĠØª Ú¾
Ġi m
à«įàª ®
Ñģ Ñĳ
ĠÐºÑŀ ÑĢ
ĠÑĥÑĩ ÑĥÐ½
ĠÐ± Ð¾ÑĢ
¤ ĳ
à´ªàµįà´ª àµĨà´Ł
áĥĶáĥĳ áĥĲáĥ¡
à°¡ à°Ĥ
Ġàª¶ àªķ
ÙĬ Ø¯
ĠÄ į
Ð±Ðµ ÐºÐ¸ÑģÑĤÐ¾Ð½
Ñģ Ð°
à®¿à®± à®¤à¯ģ
Ùģ Øª
à¦¿à¦¤ à§ĩ
in en
äºº æ°ĳ
Ġc c
èĲ Ħ
Ķà¸ ¹
¢ à¸Ńà¸
ç³» ç»Ł
ç© ¶
Ġæ Ľ
Ġ2 7
èĪ ª
à¥įà¤ ¨
ĠÐº Ð°ÑĢ
áĢ®áĢ¸áĢ ķ
Ã¶ v
d h
Ł áĢ¯
Ġáĥ łáĥ
áĢ» áĢ¬áĢ¸
áº£ i
à¤ Ī
Ð Ĥ
ĠÐº Ð°Ð¼
t Ä«
à´¿à´¨ àµĨ
Ġa m
ëı Ļ
ĠÑį ÑĤÐ¾
Ā Ā
ãĤ ĵ
áĥĲáĥĽ áĥĵ
Ġà¹Ĥà¸ Ķà¸¢
è® ©
¢à¸ §à¸
Ġæ °
ĸà¸¶à¸ ĩà¸
à¨ Ĥ
ä½¿ çĶ¨
é¢Ħ æµĭ
æŃ£ è§Ħ
ä» ½
ä¸Ń å¿ĥ
2 5
Ġå¤§åıĳ å½©ç¥ŀ
Ġè §
é ¥
à¸£à¸¹ à¹īà¸
éĿ Ĵ
Ġ äºļ
Ġà¸ ĭà¸¶
Ĺà¸ ±à¹īà¸ĩà¸
å ¡
à¸£ à¹īà¸²à¸
«à¸Ļ à¹īà¸²à¸
çĽ ĳ
æīĭæľºå®¢æĪ·ç«¯ ä¸ĭè½½
à¥ĩà¤ Ĥà¤
à¦¾à¦ §
àµģà´¨àµįà´¨ à´¤àµį
Ġà°ħ à°µ
ĠÐ¿ÑĢ Ð°
Ġ": "
Ġí Ļ
ĶáĢ¾ áĢĦáĢ·áĢº
àª¾àª ĩ
Ġà®ª à®¿à®°
Ñĥ Ñħ
Õ¡Õ µ
Ġi lÉĻ
è´ £
Ġ5 0
ä¸ĸ çķĮ
ŀ å½©
åŁ Ł
à¥ĩà¤ £
ch e
à´¿à´ ¨àµįà´¨
ĠáĥĹ áĥ£
Ð½Ñĥ Ñİ
Ġ× ¤
ĠÙĩ Ùħ
n o
ĠØ§ ÛĮÚ©
ì Īĺ
Æ°á»Ŀ ng
Ã¡n y
àµĨ à´Ļàµįà´ķ
à¦¿à¦ ®
ĠØ£ ÙĨ
Ġà°¨ à°¿à°°
Ñģ ÑĮ
is ta
l es
áĥ ¯
Ñĸ Ñĩ
à®® à®¾à®ķ
àªĤàª ¦
Ġ íķľ
åĮ »
à¸´à¸ Ķà¸
à¤ķ à¤¾à¤°
Ð°Ð¼ Ð¸
r Äģ
Ð² Ðµ
in ÉĻ
Ġm Ã«
áĥĺ áĥĶáĥł
à¦ Ļà§įà¦Ĺ
áĢĿ áĢĶáĢº
Ġà°¨ à±ģà°Ĥà°
ÐµÐ»Ð°ÑĢ Ñĥ
ÑĢ Ð°Ð±
ĠSe x
Ġma i
ĠS z
à«ĭ àª¤
áĢĶ áĢĬáĢ¹áĢ¸
áĢģáĢ¼ áĢĦáĢºáĢ¸
Ġå¹ ¸è¿Ĳ
å¤ ±
ç¨ ³
è¾ ĥ
çº ¦
Ġà¤® à¥ģ
g en
à§ĩà¦ ĵ
Ġë ĵ
Ø± Ø¯
to r
ĠÑĸ Ñħ
Ġà´µ àµĢ
ãģ ı
áĥĲáĥķ áĥļ
Ð¸Ð» Ð°ÑĢ
ĠÒĽ Ð°ÑĢ
à¤Ĥà¤ Ĺ
Æ°Æ¡ ng
ow e
à´¤àµįà´¤ àµį
Ġàª¸àª¾àª ¥à«ĩ
Ġà® ľ
í Ħ
ĠkÃ¶ z
áĢĦáĢ¹áĢ Ĩ
áĢĲ áĢĽ
Ð»Ð°ÑĢ Ð½Ð¸
ĠÐİÐ· Ð±ÐµÐºÐ¸ÑģÑĤÐ¾Ð½
Ð¾ Ò·
Ġà¦ķà¦° à¦¾
Î» ÏĮ
Î½ Ïī
Î³ Î³
ĠÎ Į
ĠÎľ Îµ
ÎŃ Î½
ĠÎ¼Îµ Î³
l l
Ðº Ð°Ð¹
ĠáĢ¡áĢħ áĢŃáĢ¯áĢ¸áĢĽ
Ð¾ ÑĤÐ¸
ag e
à°¿à°¨ à°¿
ĠáĢ¡ áĢŃáĢĻáĢ¹áĢ
ĠáĢģ áĢ¶
mÉĻ k
Ġà¤¨ à¤¹à¥Ģà¤Ĥ
à¹Ģà¸ ¡à¸
Ġà¥ §
áĢ¼ áĢ¬áĢ¸
áĢ±áĢĲáĢ¬ áĢ¹
áĢĢáĢ¹áĢ Ĩ
áĢĸ áĢŃáĢ¯áĢ·
Ðº Ð¾
Ġ×Ĳ ×ª
ģáĢ« áĢĦáĢ¹áĢ¸
áģ Ĥ
Ġ Å¡
.. ..
»áĢķ áĢ®áĢ¸
áĢĢáģ ¡
áĢ±áĢľ áĢ¸
Ĳ áĢħáĢ¹áĢ
áĢĢáĢ¼ áĢ®áĢ¸
Ð» Ñİ
áĥĲáĥķ áĥ¡
àµĨà´¯ àµģà´Ĥ
æ¸ ¯
Ġ2 9
åĳ ½
é£ŀ èīĩ
Ġå¤§åıĳ å¿«3
¾ è®¯
åł Ĥ
ç± ³
2 6
èĭ ±
åį ı
Ġå½ ĵ
A G
Ġä» İ
Ķà¸ ¢à¸
èĲ ½
à¹Īà¸²à¸ ¢
à¥Ģ à¤¨
ci Ã³n
Ġìł ľ
à«ĭàª Ł
áĢĶáĢ¹áĢ ¡
áĢĨ áĢ¯áĢŃ
áģ¾áĢĢ áĢ¬áĢ¸áĢ
áĢ¥ áĢ®áĢ¸áĢ
ĠáĢ± áģ¾áĢĢ
áĢľ áĢ¯áĢŃ
Ġáģı áģĭ
áĢĻáĢ» áĢ¬áĢ¸áĢ
rz e
à®ª à¯į
iá» ĥ
Ð¾Ð´ Ð·Ñĸ
Ġpa s
à±ģà°ķ à±ĭ
ĠØ§ Ù
Ġt Ã¶
ÑĤ Ð³Ð°Ð½
Ð¼ Ð¸
Ø§ Ø³
Ġe a
Ġg o
Ġt se
ĠçĶ µ
çİ° éĩĳ
ĠåĪ ©
Ġå° ı
å¤§ å°ı
à¹ģà¸¥ à¹īà¸§à¸
à¹Ģà¸ ķ
ç¦ ı
à¨ ¹
å ©
Ġæī ĭ
çĻ ½
æ£ Ģ
åĨ µ
è Ľ
à¹Ħà¸ §
à¸Ńà¸²à¸ «
2 7
ä¿ ®
ģà¸ §à¹Īà¸²
ĠåĲ Į
ªà¸ ¹à¸
ç» ´
ç ¯
à¥įà¤ ®
à¦¾à¦ ģ
áĥĺáĥ£áĥ ł
à´³ àµįà´³
ÑĢ Ð°
âĢ ¦
Ġ3 3
è¯ Ħ
· à¹īà¸Ńà¸
åĩ »
à¹Ĩ à¸
è ŀ
èī º
çģ «
Ġà¤ħ à¤¨
ë© ´
àªµ àª¾àª®àª¾àªĤ
Ġà®µ à®¾à®
Õ ¿
ĠÕ °
ĠAzÉĻr baycan
Ġg e
ĠÐ¼ Ð°ÑĢ
à°² à±įà°²
p Äĵ
Ġáĥĵ áĥĲáĥĽ
àµįà´° àµĢ
â ķ
ĠÐ²Ñĭ Ðº
à§ĩà¦ ®
on t
Ġà®ª à®¾à®°
Ø ¸
Õ¡ ÖĢ
Ġb il
à´¨àµįà´ ±àµĨ
à°¾à° §
áĢĽ áĢ²
áĤĬ áĢĲáĢ¹áĢ
±áĢĽ áĢ¬áĢĢáĢ¹áĢ
áĢ»áĢķ áĢ®áĢ¸
±áĢĲáĢ¬ áĢ¹
áĢĦáĢ¹áĢ Ľ
ĠáĢ¥ áĢķ
Ġ Ð°Ð¼
dz ie
áĢģáĢ» áĢŃáĢĶáĢº
ĠÎ® ÏĦÎ±Î½
ÏĢ Î·
Î¸Î· ÎºÎµ
Ïĩ Î½
Î» Î¹
ÏĪ Î·
re f
k si
à¦¾à¦ ĵ
Ġáĥ£áĥľ áĥĵáĥĲ
Ġà´ķ àµĩ
Ãł ng
Ñĥ ÑĨÑĮ
ìĺ ¤
ĠÐ¿ÑĢ ÐµÐ´
Î³ÏģÎ± ÏĨ
Î¼ Î¹
da u
Ġà®ĩà®° à¯ģà®ķà¯įà®ķ
Ġà¤ķ à¤¾à¤°
c Äĥ
× ĸ
ko r
à´¾à´ ¦
ãĥ «
áĢĸ áĢŃáĢ¯áĤĶ
Ġáģ ĩ
ĠáĥĲáĥł áĥĺáĥ¡
Øª ÛĮ
àª¾àª ¹
ĠÐº ÑĥÐ½
áĢ¼ áĢĦáĢ¹áĢ¸
áĢŁ áĢ¯áĢĲáĢº
ĠìĿ ´ë
Ġch e
à°¾à° £
Ġà´ķ à´´
ÑģÑĤÐ² Ð°
ĠS ch
à¦¿à¦ ¦
ÑĢ Ð°Ñŀ
ç Ł
áł ¢
å Ĥ
ä½ ı
Ġà¸ Ĺà¸µà¹Ī
à¤¾à¤Ĥà¤¨ à¤¾
Ġj est
ĠÑĪ Ñĥ
à«įàª ķ
ÙĬ ÙĦ
Ãł nh
Ġà®ª à¯Ĭ
áĥĲáĥłáĥ Ĵ
Ġsz er
Ä«ba s
à§įà¦ ķ
Å¾ e
Ġp or
ÅŁ a
Ð² Ñı
à±ģà°Ĥà° ¦
à´¿à´ ŀàµįà´ŀ
Ġáĥĵ áĥ¦
u x
ÑĨ Ð¸
Ñĸ Ð¼
ç§ Ĵ
à¹ģ à¸Ļà¸
éĩ ĩ
è¯ »
éļ ¾
ĠæĪĳ ä»¬
à¸Ńà¸¢à¸¹ à¹Īà¸
ļ áŀ
à¤¾à¤ Ī
¶ Ķ
à´¿à´² àµĩ
Ñĸ Ð·
à±Ģ à°°
áĢ¼ áĢĻáĢ¹áĢ¸
áĢº áĢ¬áĢ¹áĢ
ĠáĢĻáĢ¼ áĢĶáĢº
m en
ĠáĥĽ áĥ®
áĢĦáĢ¹áĢ ħ
áĢŃáĢ¯áĢ¸áĢ Ĳ
à®¿à®° à¯ģà®¨à¯įà®¤
Ð¾ Ð´Ð¸
áĢ¸áĢĻ áĢº
áĢ¬ áĢĲáĢ¹áĢ
áĢķ áĢ±áĢ«
à±ģà°ķ à±ģ
ëĭ Ī
Ã©n y
äº Ĵ
à© ģ
µ à¤°
ĠÙĨÛģ ÛĮÚº
Ġ Ã«sh
Ð½ Ð°Ñĩ
Ø§Ø± ÛĮ
Ġw e
à«Ģ àª¤
à±Ģ à°µ
ĠáĢķáĢ¼ áĢĬáĢº
à¤ķ à¥ĩ
s Ã¤
r ÉĻ
Ð»Ð¸ Ð±
Ð¸ Ð³Ð°
Ð´ Ð¸ÑĢ
Ġà´¨ à´¿à´°
ĠáĥĹ áĥ¥
à§ĩà¦ ¬
Ðº Ð°Ð·
áĢķ áĢ±áĢ«áĢº
ĠØ§ÙĦØ Ń
áº£ n
×Ļ× ľ
m Äģ
Ð°Ð½ Ð¸
ta l
èĮ ĥ
à¤¾à¤µ à¤°
à°¨ à±ĩ
ë ¹Ħ
Ð´ Ñĭ
n y
à®ļ à¯įà®ļ
Ġà´¤ à´¿à´°
à±įà°¸ à±į
ĠáĥĽ áĥĺáĥ
à§įà¦ ļ
Ġs Äĥ
à´¾à´ ¹
Ġìĺ ¤
c ÉĻ
áĢ±áĢ¡ áĢ¬áĢĦáĢ¹áĢ
áĢ±áĢĲáĢ¼ áĢĢ
ĠáĢ±áĢĢáĢº áĢ¬áĢĦáĢ¹áĢ¸
áĢķáĢ« áĢĺáĢ°áĢ¸
Ġàª ĵ
Ðº Ð°Ñŀ
Ð°Ð» Ð¸
ĲáĢ²áĢ· áĢ¡
áĢ±áĢķáĢ« áĢ·
ĠáĢ¡ áĢĻ
à¤¸ à¥ĩ
ãģ į
Ðµ ÑĪ
Ġng Æ°á»Ŀi
l Äģ
áĢĶ áĢ±áĢ·
Ġqu i
Ġà®ķ à¯ģà®±
ĠÙĩ Ø§ÛĮ
áĥ® áĥĿáĥķ
å¤ĩ çĶ¨
«à¸ ¡à¸²à¸
æľ Ľ
åħ «
ç½ĳ æĬķ
à¥įà¤¯à¤¾à¤ ¨
ĠÐ¿ Ð°Ð²
s en
Ġc z
Ø± ÙĪ
à´¯ à´¿à´²àµįâĢį
à´Ļàµįà´Ļ àµ¾
Î¯ Îº
ĠÃ«sh tÃ«
Ġà°ħ à°Ĥà°¦
à§ĩà¦Ľ à§ĩà¦¨
ìĿ´ íĬ¸
áĢ¸áĢ ĳ
Ġëª ¨
á ¿
Î¿Ïį Î½
Ġáĥ °
áĢ±áĢ¸áĢ Ļ
à§ °
à¦°à§įà¦ ¬
Ð½ ÐµÐ½
à±ģà° ¦
é¦ Ļ
Ġagçİ¯äºļ éĽĨåĽ¢
æĻ ¯
Ħà¸ ¡
Ġå Ń
Ġà¤Ĩà¤¹ à¥ĩà¤¤
Ð¾ ÑĤÐ¾
i k
à«įàª ¥
Ù ĳ
Ð°Ñģ ÑĨÑĸ
Î¯ Î¿Ïħ
Ġv y
Ã¡ m
à¤ ı
Ð» Ð°Ð±
áĢ±áĢĽ áĢ¬áĢĢáĢ¹áĢ
ĠáĢģ áĢ»
Ð¸Ñı ÑĤ
n en
Ġìł ķ
Ġl os
à¯įà® ¨à¯įà®¤
Ġà¦¤ à¦¿à¦¨
ĠÎºÎ± Î¸
Ïĥ ÎºÎµ
ĠÎ¼Îµ ÏĦÎ±
os t
áĥķ áĥĲ
Ġà°ħ à°¯
Õ¸ÖĤÕ ´
Ġn ÉĻ
ĠÐ¹ Ñŀ
Ġ Ð°Ð¹
ÏĦ ÏİÎ½
Ïĩ Î±
ĠÎ´ Îµ
Î² Î±
Î¼ ÏĨ
ÏģÎ¿ ÏĤ
ĠÎµÏĢ Î¯
ĠÎĳ Ïħ
Ïģ Î¯Î±
ÏĦÎ¿ Ïį
e d
ÙĪ Ø§ÙĨ
Ġ× §
b le
ÑĤÐ¸ Ð±
áĢĢ áĢ°
Ð¼ Ð¾Ð½
ĠãĢĤ âĢĿ
å·ŀ æīĳåħĭ
èĩ ´
«à¸£à¸ ·à¸Ńà¸
ç¤¾ ä¼ļ
è§£ æ¢¦
åĮĹäº¬ èµĽè½¦
Ć ï¼Į
Ġä» Ĭ
¢à¸ ±à¸ĩà¸
ģà¸ ³à¸
èĲĦ äº¬
ĠâĢĿ ï¼Į
Ġæ ł
Ġè ĭ
ķà¸±à¸ §à¸
4 8
ĠagèµĮ åľº
Ġà¨ µ
å»º è®¾
à¥ĩà¤ ¨
à¦° à¦¾
Ð² Ð¾ÑĢ
Ġáĥ© áĥķáĥĶáĥľ
ĠØª ÙĪ
±áĢ ļáĢ¬áĢĢáĢ¹áĢ
áĤı áģµ
áĢķáĢ¼ áĢ¯
Ð½Ð°Ñģ ÑĨÑĸ
Ġê² ĥ
áĥĲáĥłáĥ ¢
Ġà´ļàµĨà´¯ àµįà´¯
Ð½Ð¾ Ðµ
Ġà®¨ à¯Ģ
Ġà°ļ à±Ĥà°
ts a
á»¯ ng
ãĤ ¯
àª¾àª¨ àª¾
Ġà¦ľà¦¨ à§įà¦¯
ĠÐº Ð°Ð»Ñĸ
te k
Ġáĥ£áĥ ¤
Ã© e
Ð»Ð¸ ÑĪ
ĠÒ³ Ð°ÑĢ
é ĸ
à¥ģ à¤¨
cz y
Ġj o
o x
à°¿à°Ĥà° Ĺ
áĢĦáĢ¹áĢ ĺ
áĢĤ áģ¤
ĠáĢŀáĢ° áĤĶ
ĠáĢĽ áĢ¾áĢŃ
ĠÐº Ð¾Ð¼
h et
ĠØ± Ûģ
ĠÏĥ Î·
Îµ Ïį
ĠÎº Î¬Î½
ĠÎ± Î³
wy d
i ch
Ð» Ñĭ
áĥ «
à«Ģàª ı
ĠáĢľ áĢ¬
ÐµÐ½ ÑĮ
à´°àµįâĢį à´¤àµįà´¤
Ġ æľ¬
à¹ģà¸ļà¸ ļ
Ġà¤° à¤¾à¤ľ
áĢĢáĢ¼ áĢ±áĢ¬áĢĦáĢ·áĢº
Ġà´ªà´± à´ŀàµįà´ŀ
ÐµÐ½ ÑĤ
Ġk Äģ
à®¿à®² à¯įà®²
zi one
Ð¼ Ð°ÑĤ
d 88
Ġè ħ
Ġ à¹Ĩ
à¹ĥà¸Ĭ à¹ī
ª à¹Īà¸§
Ġé «ĺ
æĸ Ń
à¹ģà¸ ¥à¸°
èİ ·
åı Ī
à¥ĭ à¤²
à°Ĥà°¤ à±ĭ
Ġàªķ à«ĭàª
Ġà´¤ àµģà´Ł
Ùħ Ø§ÙĨ
Ð½ Ð³
Å¼ y
ĠÑĩ Ð¸ÒĽ
Ð¼ Ð°Ñģ
Ð»Ð¸ Ð³Ð¸
_ _
ĠÐ¼ Ð°ÑĬ
à¦¨ à¦¾
ìĬ µ
t Äĥ
áĥĿáĥłáĥ ª
lu s
à±ģà°¨à±įà°¨ à°¾à°°à±ģ
ÙĨ ÛĮ
ĠV er
± áĤı
ĠáĢĢáģ½ áĢ¼áĢĶáĢ¹áĢ
áĢĸáĢ¼ áĢ²áĤķ
ĠáĢ¡ áĢĲ
à±įà° ³
Ġà®¤ à®®
à®£ à¯įà®£
ĠÃ¼ Ã§
à§ Ī
Ġ× Ĵ
à´¯ àµģà´ŁàµĨ
áĢ¡ áĢ¬áĢ¸
àª ¥
çĽ ĺ
æķĻ èĤ²
Ġ äºĶ
Ġå¤§åıĳ æŀģéĢŁ
è± ¡
Ġå ±
Ġ2 55
ªà¸ ±à¸
Ġ æľĢ
2 9
à¤¾à¤¨ à¥ĩ
áĥĲáĥķ áĥ¨
ĠÑĤ ÑĥÑĢ
m in
Ù ĭ
Ð»Ð°ÑĢ Ð½Ð¸Ð½Ð³
Ð»Ð°ÑĢ Ð¸Ð½Ð¸
ĠÐ¾ ÑĢ
Ġp ri
±áĢ ĳáĢ¬áĢĦáĢ¹áĢ
ħ áĢ¯
áĢ±áĢĺ áĢ¬
áĢ¬áĢ¸áĢħ áĢ¯
Ġà®¤ à®¿à®°
à°² à±į
ĠÑŀ ÑĢ
ĠÑŀ ÑĤ
Ð¾ ÑģÐ¸
Ã¡ ch
ĠA z
Ġà´µ àµĨ
ĠáĢŀ áĢ¶
ÑģÐº Ð°Ñı
å¼Ģå¥ĸ ç»ĵæŀľ
Ġag åľ¨çº¿
åĥ ı
å¿« ä¹Ĳ
Ĭ à¸µà¸
éĹ »
à¹ Ħà¸£
æŀ Ĺ
Ġå º
æŀ ģ
æ¯ ı
à¨ ¦
æ² ³
à¥ĩà¤ ¸
ĠÐ Ń
áĥľ áĥĺáĥ¡
Äĵ r
Î»Îµ Ïħ
Ġr u
Î¿ Ïģ
ÏĢ ÏīÏĤ
Îº ÏģÎ¹
ÏĦ Î¿Ïħ
Î½Î¿ Î´Î¿
Îº Î¹
ĠÎº Î¹
ĠÎĳ Î½
Ïĩ ÎµÎ¯
Î³ Î¼Î±
Ïħ Î½Î±
Ïĥ Î¯Î±
ÏģÎ¿ Ïį
Î¸ Î®
ĠÏĢÎ¿Î» Ïį
ĠÏĢ Î±Î¹
ÏĢ Î¹
Ġy r
Ġs ch
ĠáĢĢáĢºáĢ±áĢĶ áĢ¬áĢ¹áĢ
áĢĲáĢ¬ áĢĢáĢŃáĢ¯
áĢĲáĢ¬ áĢķáĢ«
à¯ĩ à®©à¯į
áĢŃáĢ¯ áĢĢáĢ¹
Ġáģ Ī
áģ¾áĢĢ áĢĬáĢ¹áĢ·
áĢ®áĢ¸áĢ Ľ
à¦¬ à¦¾à¦°
à®¿à®© à¯įà®±
Ð°Ð½ Ð³
à± Į
àµĩ à´£àµįà´Ł
r y
Ð¾ Ðµ
áĢĻáĢ¾ áĢĲáĢº
áĥł áĥĺáĥ¡
áł ¤
ĠåĪĨ åĪĨå½©
à¨ ¸
è¾ ¹
éĻ į
çŃ ĸ
à¥ģà¤³ à¥ĩ
à¦¸ à§įà¦¥
Ġt sa
ĠÑģ Ð°Ð¼
u f
àµĢ à´µ
ĠØ§ Ù¾
Ġà¤ī à¤¨
à« ĥ
Ġà®ĩà®° à¯ģà®¨à¯įà®¤
ĠáĥĽ áĥĹ
z Åĳ
Ä« g
±áĢ Ļ
ĠáĢŀ áĢ¼áĢ¬áĢ¸áĢ
áĢĶáĢ¹áĢĢ áĢ¯
áĢ³ áĢķáĢ¹
áĢŀ áĢĻ
áº§ u
Ġà°ķ à°²
ĠÐ² ÑĸÐ´
Ġo u
áĢ¥áĢ¹áĢ ¸
áĢ°áĢ¸áĢ ľ
à´¨ à´Ĥ
áģ ¶
ĠáĢĽ áĢ¬
à¹Īà¸ ¡
«à¸Ļà¸ ¶
å¼ ł
è ³
æ® µ
à¹Ģà¸ Ī
Ġå Ĵ
éĻ ©
2 1
à¤Ĥà¤ ¡
Ġ×ľ ×Ķ
v Ã¤
Ġáĥ® áĥĶáĥļ
t z
ĠØ§ Ùħ
áĢĻ áĢŃáĢ¯
Ð² Ð°ÑĢ
z a
à§ĩà¦ ¸
à´¤àµįà´¤ à´¿à´¨àµįà´±àµĨ
Ñĸ ÑĨÑĮ
áĢĿ áĢ«
Ġà®® à¯ĩ
èģĮ ä¸ļ
Ġag äºļæ¸¸
ĠéĤ £
è¯ ¥
à¸£à¸£à¸ ¡à¸
à¸Ļà¸ ´à¸
æ² ¹
è¨ Ģ
çĽ Ĭ
å® ¤
æıĲ ä¾Ľ
è Ń¦
åĽ ´
± ¼
Ġ à¸£à¸
Ġà¤¤ à¥ĩ
ì °
ĠáĢ §
Ġáĥ¡ áĥ¢
à°Ĥà° ª
Ġàªķ àª¾àª°
±áĢķ áģļ
ĠáĢĢáĢ» áĢ½áĢĶáĢº
à¦¾à¦¬ à§ĩ
n ek
ta s
Ð°Ð½ Ñĭ
n Ã½
ÅŁ Ä±
ÑĢ Ð´
»áĢķ áĢĬáĢ¹áĢ
áĢģáĢº áĢĦáĢ¹áĢ¸
áĢĨ áĢ¯áĢ¶
à´¾à´¤ àµįà´¤
Ġà°µ à°¾à°°
Ð°Ð³ Ð°Ð½
Ð¸Ð¼ Ð¸Ð·
ÑģÐ¸ Ñı
en ia
Ùħ ÛĮ
Ġv o
áĥĿáĥ Ļ
ÑģÑĤ Ñĭ
ëĤ ¨
ĠÐ² ÑģÐµ
Ġì Ĩ
å®ĺç½ĳ çĻ»å½ķ
æĿ ĳ
à¥ĩà¤ Ł
Ãł i
Ġsi ch
Ïĥ Î¿ÏħÎ½
ÏĨ Î±
ÏģÎ¹ Î¿
Î» ÎµÎ¹
Î¯ Î¿
ÏĦ ÎŃÏĤ
ĠÎ¼ ÏĮ
Î¼ Î¿Ïį
Ïİ ÏģÎ±
ĠÏĩ Î±
ĠÏĥ Ïĩ
Ġh ref
ĠÎ¼ÏĢÎ¿ ÏģÎµÎ¯
Ġp ost
à´¿à´ ª
Ðº Ð¸Ð»
n et
Î· ÏĥÎ·
Î´ Îµ
Î² Î¬
Î½Î¿ Î½
Îº Î¬
ĠMa e
áĢĲáĢŃ áĢļ
Ġà®ķà¯Ĭ à®£à¯įà®Ł
ãĥ ©
Ġ Ð°Ð»Ðµ
áĥĿáĥłáĥ Ľ
ĠáĢ±áĢĴ áģļ
ĠáĢĻáĢŃ áĢĻáĢŃ
ĠáĢĽ áĢ²
m Ã«
à´® àµįà´ª
à«ģ àª°
à±ģà°² à±ĭ
áĢ¡ áĢĶ
ĠÑģ Ñŀ
ĠÐº Ð¾ÑĢ
ti es
ĠÐ±Ð¾ Ð»ÑĮ
à¦ Ľà§ĩ
à±įà° Ĺ
ÉĻ h
áĢĽ áĢĦáĢ¹áĢ
áĢĻáĢº áĢ¸áĢ
áĥĲáĥ ŀ
Åĳ l
à´£àµįà´Ł àµį
Ð¸ ÐºÐ¸ÑģÑĤÐ¾Ð½
Ó Ļ
Ð¼ Ð¾ÒĽ
ĠÐº ÐµÐ»
Ġ Ð°Ð»
à«įàª ª
Ġ× ĵ
» ¿
ëĵ ľ
áģ Ĭ
ÙĦ Ø§
à§Ģ à§Ł
å°ı æ¸¸æĪı
Ġà¤¯ à¤¹
Ġáģ İ
Ġprz y
Ġà® ¯
Ġa ve
å ª
åİĨ åı²
éª Ĺ
à¤¾à¤ §
ĠÑĪ Ð°Ò³
Ġà°ļà±ĩà° ¯
Ġnh Æ°
Ð¼ Ð°
c ia
ÙĪ ÛĮ
à´ªàµįà´ª àµĨà´Łàµįà´Ł
à®³ à¯Ī
Ġa wo
Õ¥Õ ¬
Õ« Õ¶
ÄŁ Ä±
à¦¤ à¦¿
ĠáĥĽ áĥĲáĥĹ
Ġi ru
é£ Ł
è¯ Ĩ
Ġå°Ĭé¾Ļ d88
å± ŀ
ª à¸´à¸
à¹ģà¸ ķà¹Īà¸
ä¾ Ŀ
æ¸ ©
ç½ĳ é¡µ
èĭ ı
è¡ Ģ
8 0
à¤¾à¤ļ à¤¾
Ġi wa
ĠJ e
Ġk áº¹
ĠÐ´ Ñĭ
Ð´ Ð¾ÑĢ
l Äĵ
ĠÐº Ð°Ð±
ka t
ì½ ľê±¸
íĦ °
à«Ģàª ĵ
Ġi ran
ĠA la
ÑĤ ÐµÑĢ
É Ķ
du ro
g an
ĠN I
ĠJ esu
y en
Ġti n
Ġm ÃŃ
à§ĭ à¦°
Ġè¿ ĺ
à¹ģà¸ ¡
à¸Ńà¸ ģà¸
éĵ ¾
æĶ¿ åºľ
ĠAG äºļæ¸¸
ç§ ¯
æĹ ħ
à¸Ļà¸± à¹īà¸Ļà¸
Ġè ¡
Ĺà¸ ¸à¸ģà¸
æĭ į
éĵ ¶
à¹Ģà¸ Ĭ
à¤¾à¤ļ à¥Ģ
à´¨àµįà´¤ àµįà´°
ĠáĥĻ áĥĿáĥĽ
Ġni cht
Ð¶ Ðµ
Ã ¥
ĠÃ ¨
ÑĨÑĭ Ñĸ
à¯ģà® ª
à´ķ à´³
Ġà°ķ à°¾à°°
ĠÐ¢ Ð¾Ò·
ÑĤÐ¸ÑĢ Ð¸ÑĪ
ĠÐ½ Ð°Ð¼
Õ« Õ
yy ÉĻt
å®¶ ä¹Ĳ
à¨ ķ
áł ¡
å¿ Ĺ
å£ °
à¥ĩà¤ ³
ÙĪ Ùħ
y Ã¶
Ġëĭ ¤
áĥĵ áĥĶáĥĴ
ĠÃ®n t
Ġv ous
Ã« t
áĢļ áĢ·áĢº
Ġ×Ķ× ŀ×
à¤¡ à¤¼
ĠáĢĻ áĢ½áĢ¬
ĠáĢĢ áĢ¯áĢŃ
ĠáĢ±áĢ »áĢĻ
áĢĶáĢº áĢ¸áĢĻ
Ð¼ Ðµ
Å Ī
Æ°á»Ľ c
Ġà¦ı à¦°
Ġw ir
à´® à´¾à´¯à´¿
à±įà°° à±Ģ
Ġàªħ àª®
z Ã©s
Äģ m
ta te
áĢ¯ áĢĲáĢ¹
ĠáĢ ¤
ä¹ĭ æĺŁ
è¶³çĲĥ æ¯ĶåĪĨ
à¹Ģà¸ Ħà¸
æĻ º
ç« ł
Ġà¹Ģà¸ ¡à¸
à¤¸ à¥įà¤¤
Ġà®µ à®¿à®
Ð½Ñı Ñŀ
áĥĵ áĥĶáĥĳáĥĲ
dz i
ts e
ĠÑģ Ðµ
à«ĩ àª¨
ãģ ĵ
ĠÃ¼Ã§ Ã¼n
à±Ģ à°
à±ĩ à°°
æ¼ Ķ
à¨¾à¨ Ĥ
c om
Ġåħ ¬
Ġà¨ ª
Ġè ¦ģ
Ġæ ¬
é º
é ±¼
Ġ à¹ĥà¸Ļà¸
çı Ń
Ġæī Ģ
à¤¾à¤Ĥà¤ļ à¥įà¤¯à¤¾
Ð°ÑĢ Ð¾Ð´
áĢ¡ áĢľ
ĠÏĥ ÏĦ
Î¿Î½ ÏĦÎ±Î¹
ÏģÎ¹Ïĥ Ïĥ
Î»Î¿ ÏĤ
Î´ Î®
ÏģÎ¹ÏĥÏĥ ÏĮÏĦÎµ
Îº Î±Î½
ÏĦÎ· ÏĥÎ·
ĠÎ± Ïĥ
< /
Ïĩ ÎµÎ¹
ĠÏĥ Î¿Ïħ
Î¯Î½ ÎµÎ¹
Î´ Î¹Î¿
ÏģÎ¹ Î½
ĠÎº ÏĮ
Î¼Î± ÏĦÎ¿ÏĤ
ter net
ĠÎ´ Î¹Î¬
ĠÎ¬ Î»Î»
Ġ/ "
Ïĩ Î®
Î¹Îº Î¿Ïį
ĠÎŁ Î¹
Ġu s
Ġ/" >
ĠÏĥ Ïį
ĠÎºÎ± Î»
ĠÎº Ïħ
Ïī ÏĥÎ·
ÏĥÎµ ÏĦÎµ
ĠÏĢ ÏģÏİ
ĠÎ±Ïħ ÏĦÎ®
Ġli ve
ÏģÎŃ ÏĢÎµÎ¹
ĠÎł ÏģÎ¿
Îµ ÏĢ
ĠÎ ¡
Îµ Î»
ĠÎļ ÏģÎ¹ÏĦÎ¹ÎºÎŃÏĤ
ĠÎ±Î½ Î¬
Î¹Îº ÎŃÏĤ
ÏĨ Î®
Ġg yf
àµ Ĺ
ĠÐ² Ð°Ð·
ÙĨ Ø§
Ġáĥ¡áĥĲáĥ¥áĥĲáĥłáĥĹáĥķáĥĶáĥļ áĥĿáĥ¡
áĥĺáĥľ áĥĲ
k Ã¶
ë ¯¸
Ð°ÑĢ Ð¾
à¦¾à¦ķ à§ĩ
Ñģ Ð°Ð¼Ð°
t es
áĢŀ áĢŃáĢ¯áĤĶ
ĠáĢ¡áĢľ áĢ¯áĢķáĢ¹áĢ
ľ áĢ¯áĢķáĢ¹áĢ
áĢ±áĢ¸áĢ Ĳ
ĠØ¢ ÙĨ
ĠÑ ī
ĠáĢĽ áĢ¾
Ġà®ī à®³à¯įà®³
áĥķ áĥĺáĥĹ
à¸´ à¸Ļ
Ġæ ĭ
è ²
åį ¡
à¥ģ à¤®
ìĽ Ķ
à±ģà° ®
à´¸ àµįà´¥
Ġau s
Ñĳ Ð½
àªµ à«Ģ
ĠC h
ĠáĥĻ áĥĺ
áĢĳ áĢĻ
Ù Ĳ
Ð°Ñĳ ÑĤÐ³Ð°Ð½
Ð»Ð°ÑĢ Ð³Ð°
Ñħ Ð¾Ð½
à¤¾à¤ ¥
ê ·
Ġà°¸ à°¿à°¨
Ã¡l l
Ġà°ļà±Ĩ à°ªà±įà°ª
Ġp ÅĻ
ko v
ĠÐ±Ð¾Ð»ÑĮ ÑĪ
Ġà´ķ àµĤà´Ł
ĠÅŁ i
Å£ i
Ġes te
ĠÐ ĸ
áĢĸáĢ¼ áĢ²áĤĶ
áĢ° áĢ¸áĢ±áĢ
áĢģáĢº áĢĢáĢ¹áĢ
ĠáĢĢ áĢ¬
Ùĩ Ùħ
à§įà¦ ¡
ÐµÑģ Ð¿
Ð°Ð´ Ð°
Ġg j
Äģ k
áĥĶáĥ Ļ
à±ĭ à°ľ
Ġàªµ àª§
áĢķ áĢ¯áĢ¶
c ji
Ġy Ã©
Ġi ta
Ġni tori
ĠÒ³ Ð°ÒĽ
Ã¤Ã¤ n
Ïĥ Î±Î½
in ternet
* *
Ġlive internet
ĠÎ± Î¾
ĠÏĢ Î¬Î½
Ġy m
Ġì Ĭ
Ã¢ y
Ð ¢
Ġb á»į
Ðº Ð¸Ð½
Ġ×ľ ×Ĳ
Ġáĥ¡ áĥĲáĥ¡
on s
à°¡ à±įà°¡
ĠÑĤ Ð¾
Ġp ara
áĢķáĢ¼ áĢ®áĢ¸áĢ
di a
Ġà®® à¯ģà®Ł
¤ à¸
Ġà¸ ĸ
à¤£ à¤¾à¤°
w an
Ġala ye
Ġ à¶
à¤¾à¤ ĩ
Õ¡ ÖĢÕ
Ġi ÅŁ
ĠD a
Ġagbe gbe
ĠáĥĽ áĥĿáĥĽ
Ø§Ø¦ ÛĮ
à°¾à°° à°Ĥ
te t
Ġt u
à´Ĥ à´Ĺ
Ġà¦ķ à¦¾à¦°
Ð± Ñĭ
ĠáĢĲ áĢĢ
Ġa á¹£a
Ġàª® àª¹
ļ áĢ¬
ar t
Ġi ya
Ð»Ð¸ Ð¼
Ġá¹£i á¹£áº¹
Ġà®µà¯ĩ à®£à¯įà®Ł
T I
Ġá¹£ ugbá»įn
Ġo lo
ĠØ¨ Ø§ÙĦ
ĠáĥĽ áĥĲáĥ¡
Ġà°° à±Ĩ
¥ áĢ®áĢ¸áĢ
ĠáĢ ¸
í ļĮ
ĠáĢŀáĢ° áĢĲáĢŃáĢ¯áĤĶ
ĠáĢĶ áĢŃáĢ¯áĢĦáĢºáĢĦáĢ¶
Ġá»į dun
ãģ¾ ãģĻ
à´¨àµįà´¨ àµį
in a
ÐµÑģÐ¿ ÑĥÐ±
ĠÐ¢Ð¾Ò· Ð¸ÐºÐ¸ÑģÑĤÐ¾Ð½
ĠÐ¼ Ð¸Ð»
Ġw u
in o
ĠT I
ĠR a
Ð½Ñĸ ÑĨ
v er
Ġàªľ à«ĩ
à¹ĥà¸«à¸ į
åº ķ
é¦ Ĩ
à¸Ńà¸Ńà¸ ģà¸
36 5
çķ ¥
Ġï¼ļ âĢľ
èŀ į
Ġà¸ ľà¸
Īà¸£à¸´à¸ ĩ
ŀ à¸£
à¥ĭ à¤¨
f ani
á»į wá»į
ĠìĿ ¸
Ġà®¤à®® à®¿à®´
à®± à¯įà®ª
ĠP a
Ñĸ ÑĤ
à§ģà¦ ·
ĠáĢŀ áĢĦáĢº
ĠáĥĲáĥ ķ
Ġà´µ àµįà´¯
ĠK áº¹
Ġà°® à±Ĭ
ĠÐ¼ Ð°Ñģ
Ġn la
áºŃ n
ĠC o
f un
ĠD i
Ġáº¹ ya
Ġ. âĢĿ
åıª ä¸º
à¹Ĥà¸ ¥à¸
à¸Ńà¸ °
Ġæ į
Ġæ ·
Ġæ ¸
æĿ Ĳ
Ľà¸£à¸°à¹Ģà¸ Ĺà¸
w s
è ¦
ľà¸¹ à¹ī
Ġà¤® à¥ĭà¤
ĠÐĳÐµÐ»Ð°ÑĢÑĥÑģ Ñĸ
Ð°Ð² Ð°
Ð°Ð ¾
áĥłáĥ «
Ġni kan
Ġláº¹ hin
ĠS a
×Ļ× Ł
Ġà¦Ĩ à¦²
te d
ĠØ¨Ø± Ø§ÛĮ
ĠÐ±ÑŀÐ» Ð³Ð°Ð½
ĠÒĽÐ¸Ð» Ð¸ÑĪ
ĠÐ´Ð°Ð² Ð»Ð°ÑĤ
ĠO á¹£u
Ġ? ??
Ġr a
ĠÐĲ Ð´
ĠÐ¸ ÑģÑĤ
kun rin
Ġi ro
Ġa jo
ìĹ ¬
à¯ĩ à®ļ
ÙĦ Ûģ
à±ĭ à°Ĺ
à´¤àµįà´¤ à´¿à´¨
er i
åĢ Ļ
ŀ à¸´à¸
à¤¾à¤Ĥà¤ Ĺ
ĠÑĸ Ð¼
Ø¨ ÙĬ
Ġwá»įn yi
g h
à¦Ł à¦¾
ĠN e
Ġà¤¹ à¥Ģ
áĥĺáĥ¨ áĥķ
áģ »
áĢ¸áĢĢ áĢ»
f u
Ñı Ð³
Øª Ø§
à´¯ àµįà´ķàµįà´ķ
Ġàª¸ àªĤàª
áĥĲáĥª áĥĺ
Ĥ à¦²
Ġà§¨à§¦ à§
ìĤ¬ ì§Ģ
í Į
ĠÐ¿Ð¾ Ð»
à¦¦à§įà¦ §
à®ķ à¯į
Ġet á»įn
Ġni lo
áĢ±áĢķ áĢ¸áĢ
áģ ħ
Ġk tÃ³
m ba
Ġk tor
l ine
hova h
Ġi á¹£e
ĠS i
Ġpu pá»į
a êŀĮ
Ġom i
áĤıáĢ½ áĢĦáĢ·áĢ¹
áĢĦáĢºáĢ¸áĢ ŀ
áĥĲáĥ «
àµģà´ķ à´¯
à°° à±įâĢĮ
Ð°Ð¹ Ð´Ð¸
Ð¹ Ð¸
ĠÐ¸ Ð»
à¤¯ à¤¾
áĥĲáĥļ áĥ£áĥłáĥĺ
à±ĩà° Ł
Ð°Ð³ Ð¾
íķĺ ëĬĶ
Ð¼ Ð¾
Ĺà¸²à¸ ĩ
éĩį è¦ģ
à¤Ĥà¤ ¬
Ġ× ¡
à§ Į
ĠÃ º
Ù ı
Ġáĥ¡ áĥ®áĥķ
à¯ģà®® à¯įà®ª
k ÉĻ
áĢĶ áĢ±
à´£ àµįà´£
Ġan fani
Ð°Ñİ ÑĤ
ĠL o
di o
ĠáĢ»áĢķ áĢ³
áĢŃáĢ¯áĢĦáĢº áĢ¸
y o
Ġàªķ àª¹
Ġà°® à°¾à°°
tion s
à¹Ģà¸ Ľ
Ġà¤¦ à¤¿à¤²
I N
Ġá¹¢ i
g áº¹
ĠS ie
Ġà¦¬à¦¿à¦ ¶
ĠÑĢ Ð´
Ð°ÑģÐ¸ Ð´Ð°
Ð¶ Ñĭ
ĠÑĤÐ°ÑĪ ÐºÐ¸Ð»
Ġæ ı
à¹Ģà¸£à¸ ·à¹Īà¸Ńà¸ĩ
å¤§ åŃ¦
å®ĺæĸ¹ ä¸ĭè½½
å± Ĥ
§à¸±à¸Ļà¸ Ĺà¸µà¹Ī
éľĢ è¦ģ
âĢ į
Ø³ ÛĮ
Ġi pin
à´£ àµįâĢį
Ġá¹£i á¹£e
u m
Ġà´ħ à´¨
Ġng h
Ġi tá»į
Ġ X
ĠÐ´ Ð¾
áĥ£áĥ ¡
áº¹ gáº¹
s iláº¹
lá»į wá»į
u e
áĢĦáĢ¹áĢ¸ áĢķ
±áĢ ķáĢ«
ĠáĢ¡ áĢĵ
Ġgb á»į
à«Ģ àªķ
Ġi e
ļ à¥įà¤¯à¤¾
áĢĻ áĢ°
Ġla arin
Ġ Ā
Ġl ilo
Ġìŀ Ĳ
os i
ĠÐ¼ Ñı
áĢ¡ áĢĲáĢ½áĢĢáĢº
Ġi se
Ġà°® à°¨
à¤ «
Ġe z
¬ áĥ§
Ø§ Ùģ
à¯įà® °
à´¿à´¯ àµģà´ŁàµĨ
Ð Ŀ
Ġ Ð°ÑģÑĤ
Ġila na
Ġb áº¹
Ġà¦¬à¦¾à¦ Ĥà¦²
à§įà¦ ¸
Ġà°ħ à°¨à±įà°¨
Ġq a
àµģà´® àµįà´ª
Ġàª¹à«ĭàª ¯
áĥĺáĥ ¥
Ð°Ð½ Ð½Ðµ
ĠÄĳ á»Ļ
Ã¡ ra
à°¤ à°¿
áĢĽáĢŃ áĢĢ
b y
áĢŃáĢ¯áĢľ áĢ¹áĢ
áĢ¬áĢ¸áĢŀ áĢĬáĢ¹
ĠáĢĽ áĢĶáĢ¹áĢĢáĢ¯
ĠáĢ¡ áĢĻáĢ½
×ĳ ×¨
áģ Ī
Ð°Ðµ ÑĨÑĨÐ°
Ġà¤ķ à¤¹
ĠáĥĽ áĥĿ
ĠáĢ¡ áĢĨáĢŃáĢ¯
Ġê² ½
à°¿à°Ĥà°ļ à°¿
áĢŃ áĢħáģ¥
áĢĻáĢºáĢŃáĢ³ áĢ¸áĢŀ
±áĢ¡ áĢ¬áĢĦáĢ¹
ģáĢ²áĢ· áĢĲáĢ²áĢ·
ĠáĢļ áĢ°
Ġà¦® à¦¾à¦¨
ŀ àµįà´ļ
Ä ·
Ġà®ļà¯Ĩà®¯ à¯įà®¤
ur s
áĢģáĢº áĢĦáĢ¹áĢ
áĢ µ
ģáĢº áĢ³áĢķáĢ¹áĢ
áĢ® áĢļ
ĠÑĳ Ð½
Ð½Ð¸ Ðº
ĵ áŀ
ĠæĹ ¥
åı¯ èĥ½
Ġé ¦
åħ »
¸à¸ Ķà¸
çİ© æ³ķ
Ġé »
ç¬¬ ä¸Ģ
é¡¹ çĽ®
ç ¿
æĻ ®
Ġå¤§åıĳ ä¸Ģ
à© Ī
à¤¾à¤ ¡
ĠÐ°Ð¼ Ð°Ð»
áĥł áĥĿáĥ¡
sz er
à°¿à° ²à±ĭ
à¦ĸ à¦¨
ÑĪ Ð¸ÑĢ
à®¤à¯įà®¤ à¯Ī
Ð°Ð»Ð°ÑĢ Ð¸
Ð Ľ
Ġ Ð°Ð²
à«ĭàª Ĺ
z e
Ø§Ø Ń
«à¸ ±à¸
å ³
à¨ ²
9 7
Ġèħ ¾è®¯
åŃ £
Ġà¤¸ à¥įà¤µ
li k
ĠáĢ¡ áĢķ
Ð°ÑĨ ÑĨÐ°
Ġà´¤ à´¨àµįà´¨
ĠA l
à´° à´Ĥ
íħ Ķ
áĥ£áĥ ¨
áĢļáĢ¹áĢ ĨáĢŃáĢ¯
áĢĻáĢº áĢ¸
Ġn kan
Ġì °
à±ĭ à°¯
Ġà¤¤ à¥ĭ
ĠÐĳ Ñĥ
Ġp lus
ke yi
ÑĢ Ð°ÑĤ
ĠB e
Ġnu k
ĠáĥĹ áĥĲáĥľ
Ġá¹¢ e
áĢĶ áĢ²áĤķ
áĢľáĢŃáĢ¯ áĢĢáĢº
ĠI s
Ð¾ ÑĦ
×ł ×Ļ
ag be
Ġp ese
ar d
à´ķàµįà´ ¤
à®¿à®° à¯ģà®ķà¯įà®ķ
Ġàª¨ àª¥à«Ģ
Ġà¦¨ à¦¿
Ġ $
Ùĩ âĢĮ
c t
Ã´ i
ĠM e
ĠÑĤ Ð¾Ð»ÑĮÐºÑĸ
ĠÑģ Ð¾
Ġwi pe
Ä £
ÐµÐ½ Ð½Ñı
à°¾à°¤ à±įà°°
os e
áĥĿáĥ ¢
ow n
Ġ4 0
Ġç§ Ĵ
à© Ĥ
·à¸Ń à¸Ļà¸
éĶ Ģ
ķ à¹īà¸Ńà¸ĩ
åĨ ľ
Ġ3 8
åĶ ®
äº ²
Ľà¹ĩ à¸Ļ
æł ¸
Ġè ½
Ġ4 4
à¤² à¥įà¤¯à¤¾
Ġin u
áĢ±áĢ¸áĢ Ľ
ĠÚ©ÛĮ Ø§
Ġà¤ķ à¤¿à¤¯à¤¾
Ġeyi ti
om e
ek ere
à¯įà®ķ à¯įà®ķ
Ġiá¹£ owo
ir a
Ġí ı
ģáĢº áĢĢáĢ¹áĢ
áĢľ áĢĬáĢº
à¦¨à§įà¦ ¦
à´¨àµįà´ ±
ĠØ§ÙĦØ ¬
Ġeyi keyi
si waju
ru ká»į
is e
Ðµ ÑĨÑĨÐ°
à¤ ¥
gb on
àª¿àª ¸
ãĥ ª
à°¿à°Ĥà° ¦
á» ķ
Ġn áº¹
as ino
Ġ) .
±áĢķ áĢ¸áĢ
ĠáĢ±áĢĢ áĢ¬áĢĦáĢ¹áĢ¸
áĢ½ áĢļáĢº
ĠT he
ĠF a
Ġc o
Ġme ji
Ġà¦Ĩ à¦ª
Ġi tan
Ġà®ħ à®©
Ä±n da
Ðµ Ñĩ
à°Ĥà°Ł à±ĩ
Ã©r t
ĠI lu
áĥĶáĥ ĸ
an u
Ġt á»į
Ð± Ð°ÑĤ
Ġà´ħ à´Ł
Ġp in
áĢ±áĢ¡ áĢ¬áĢĦáĢ¹
áĢĳ áĢ¬áĢ¸
Ġë° Ķ
ĠD e
Ġk ekere
ĠáĢļ áĢģáĢ¯
Ġàª¹àª¤ à«Ģ
¢à¸ ±à¸ĩ
Ġèĩ ª
æį ¢
ä» ĭ
ä¸Ń å½©ç¥¨
ľ à¹Īà¸²
à¹Īà¸²à¸ ¢à¸
çĶ ³
çłĶ ç©¶
Ġç ¥
éĿ ©
Ķ à¸²à¸
ç ¶
æ» ¡
ä¸ Ķ
à¹Ģ à¸Ńà¸ĩ
ģà¸ ´à¸
çĹ ħ
å° ¼
Ġæ Į
ä¼ł å¥ĩ
äº «
ç» Ĩ
è¯ Ģ
Ġà¹Ģà¸ ŀà¸
Ġà¤® à¤¿à¤
g u
ĠK a
Ñĥ Ò³
ĠáĥĴ áĥķ
ÑģÑĤÐ² ÐµÐ½
Ġ ÚĪ
Ġja de
ĠÐ½ Ð°ÑĪ
Ġw Ã¡
ĠáĢ¡ áĢ±áĢ»áĢģ
áĢ½ áĢĦáĢ·áĢº
Ġáĥ£áĥ Ļ
Ð°Ð» Ð°Ñģ
à´ ¥
es z
à®©à¯įà®± à¯ģ
Ġà¤¹ à¥ģà¤
à±ĩà° ·
ĠÐ¼ Ð°Ò³
ìĭ ł
Ġ×¢ ×ľ
æ´» åĬ¨
æ ¿
çº ª
èĽ ĭ
Ġéĩ ĳ
åĲĪ ä½ľ
Ġ äºĮ
Ġå ģ
Ġ3 5
à¤¾à¤¤ à¥Ģà¤²
à´°àµįâĢį à´ķàµįà´ķ
à´¤ àµįà´°
j Ãº
Ġáĥĺáĥ§ áĥĿ
Ñĸ Ñĸ
áĢŃ áĢķáĢº
Å ŀ
ĠÑĤ Ð°
Ġà¦¹ à¦¬à§ĩ
ĠÎ ¯
Î¿Î¹ Î½
ĠÎ½ ÎŃ
ĠÎ¸ Îµ
ÏģÎ¯ Î¿Ïħ
y l
à«Ģàª ¯
Ùħ Ø§
ĠÐº Ð¾Ð½
d Ä«
à°Ĥà° ķ
á» ģ
à®¾à® ķà¯įà®ķ
à´¤àµįà´¤ à´¿à´¯
Ġn d
Ľ Ħ
Ġv agy
Ð°Ð² Ñĭ
99 9
Ġ à¹Ħà¸¡à¹Īà¸
åį ³
· à¹īà¸Ń
à¹ģà¸ļà¸ ļà¸
à¤ķ à¤°
áĢ¼ áĢĲáĢ¹áĢ
áĢħ áĢ¥áĢ¹áĢ
áĢĻ áĢļáĢº
v at
áĢķáĢ¹áĢ ħ
±áĢĲáĢ¼ áĢĢáĢŃáĢ¯
áĢĻáĢ» áĢ¬áĢ¸áĢĢáĢŃáĢ¯
Ġà¦Ĩ à¦¸
Ġe d
àµģà´ķ à´³àµįâĢį
áĥĺáĥ ¤
Ġà´ķ à´¾à´°
ĠÐ±Ð°ÑĢ Ð¾Ð¸
da d
ç´ ł
å¥ Ĺ
ç§ĳ æĬĢ
è¡¨ ç¤º
Ġà¤¸ à¤°à¥įà¤µ
Ġ Ð°ÑĤ
Ġì ²
à« ¦
à«Ģ àª¨à«ĩ
ĠÙĪ Ûģ
à§įà¦¯ à¦¾à¦¨
Î³ Ïī
Ġus ers
wy dd
áĥł áĥĺáĥķ
Ð½Ð¾ÑģÑĤ ÑĮ
on o
à°¿à°Ĥà°ļ à°¿à°¨
± Û
ĠÚ© ÙĨ
à¤¨ à¥Ģ
àª Ľ
à¯Īà® ªà¯į
Ġk as
in d
Ġnh á»¯ng
à´± àµĨ
Ñį Ð¹
Ġà°¸à°¿à°¨ à°¿à°®
ìĸ ĳ
à°Ĥà°¦ à±įà°°
il le
áĥĿáĥł áĥĺáĥ¡
Ð½Ð¾ÑģÑĤ Ð¸
Ġà´ ķàµįà´ķ
Ġà´ķ àµģà´±
r t
à°® à±Ĩ
ĠØ§ÙĦ ÙĤ
Ġ" ,"
ëħ Ħ
Ð ļ
Ġçľ Ł
åı ¤
Ġá Ĭ
çļĦ ä¸Ģ
¥à¸ °à¹Ģà¸
ç¦ »
èĦ ĳ
éĿŀ åĩ¡
à¤¾à¤ļ à¥ĩ
ĠÐ½ Ð°Ñģ
× ļ
Ġï¿½ï¿½ ï¿½
ng o
Ġá¹£ áº¹
áĥķ áĥĲáĥļ
à±ģà° Ĺà°¾
à¦§ à§įà¦¯
Ģ áĢº
áĢ¬ áĢķ
m an
Ð± Ð°
à¥ģ à¤²
àª ı
ãģĹ ãģ¦
Ġáģģáģ īáģ
Ġf ree
ĠG b
Ġi ye
ĠÐł ÐµÑģÐ¿ÑĥÐ±
Ðº Ð¾ÑĢ
áĥĲáĥľ áĥ¡
Ġ Å¼e
à®¿à®¯ à®¿à®²à¯į
ÙĨ Ú¯
Ġb áº¹ráº¹
à´¨àµįà´ §
Ġs inu
ĠM i
Ġla i
ĠÑĤÐ°Ðº ÑģÐ°Ð¼Ð°
ķ áĢŃáĢ¯áĢĦáĢ¹áĢ¸
ĠáĢķ áĢ¯
ÑĪ Ð¸
ĠÃ®nt Ã¢
áĢ¾ áĢĲáĢº
Ġs t
ĠJe hovah
Ġf or
ĠD u
Ð°Ò³ Ð¾Ð¸
Ġï¿½ï¿½ï¿½ï¿½ ï¿½
Ġki i
ĠL e
e li
Ġåı ĳ
Ġ4 8
Ġw Ãł
æľ ĥ
Ġà¹Ģà¸ ŀà¸£à¸²à¸
66 6
3 5
à¸£à¸±à¸ ģà¸
«à¸Ļ à¹īà¸²
Ġà¥ ¨
Ġà¤¸ à¤¾à¤¥
ĠÐĵ Ð
Ð» ÐµÑĤ
ĠáĥĻ áĥĿáĥľ
ìĬµ ëĭĪëĭ¤
áĢŀ áĢľáĢŃáĢ¯
ĠåĪ© æĿ¥
æĸ¹ éĿ¢
Īà¸±à¸ Ķà¸
éģ Ĺ
åĲ §
æīĭæľºçīĪ ä¸ĭè½½
Ġà¹Ģà¸ §à¸¥à¸²
à¤¾à¤ ĸ
à«ĭ àª°
áĢĨ áĢ¶áĢ¯
ĠáĢľ áĢĻáĢ¹áĢ¸
áĢŃ áĢĲáĢ¹
áĢ¡ áĢ±áĢ¬áĢĦáĢº
Ġà´ļàµĨà´¯ àµįà´¤
ĠÎ´ Ïį
ĠÏĢ Î¹Î¿
ÏģÎ¿ Î½
ÏĦÎµ Î¯
Î¼ÎŃ Î½Î·
ĠÏĢ ÏĮ
ĠÏĦ ÎŃ
Ġg an
Ð¼ ÐµÐ½
lÉĻr in
Ġà§¨ à§
Ġà°¤ à°¨
Ġà®İà®© à¯įà®©
éħ Ĵ
łà¸²à¸ ŀ
åħ ħ
åģ ¥
åħ ´
¸ à¹Īà¸Ļ
è´ ¢
ç» ĩ
ķà¹Ī à¸Ńà¸
åĢ į
Ħà¹Īà¸ °
à¥ĭ à¤°
à¦ ł
h at
ģáĢº áĢĦáĢ¹áĢ¸
áĢĶáĢº áĢ¸áĢ
ĠÐ¼ Ñĭ
à®¿à® ¨à¯įà®¤
ĠÙħ Ø¹
áĥ® áĥĲáĥĵ
à°® à±Īà°¨
Ġà´® à´¨
Ñı ÑĤ
Ñĸ Ð¹
è§ ī
ķ à¹Į
Ġäºļ ç¾İ
éĿ ł
Ġè ģ
ĠæĹ ¶
7 6
å¤ ®
çĶ ·
å¥ ¹
à¹ģà¸ ģ
à¹ĥà¸«à¸¡ à¹Ī
è®¾ è®¡
Ġà¸ ¡à¸µà¸
è® ¸
Ġæīĭ æľº
å¤§ æĪĺ
å¦Ĥ ä½ķ
å¯ Ĩ
łà¸ ±à¸
æŃ »
åº ı
é ¤
à¤µ à¤°
àª¾àª ĵ
lo r
Å ©
áĥĶáĥĳ áĥ¨áĥĺ
àµģà´Ł àµįà´Ł
ĺ áĢ°áĢ¸
±áĢ »áĢĻ
áĢ®áĢ¸ áĢĢ
áĢĻáĢºáĢ¬áĢ¸ áĢĢáĢŃáĢ¯
ĠáĢĽ áĢĢáĢº
à¦° à§ĩ
ja de
Ġi mu
Ġti tun
Ġa le
Ġà®ķ à¯ĩ
Ġo un
Ñģ Ð»
Ġf e
áĢ¼áĢ¸áĢ ±áĤı
ĠáĢħ áĢĢ
Ġà´ £
à´¤ à´¿
Ġein e
ĠÐ¼ Ð°Ð½
Ġ× ĸ
m ar
áģ¾áĢĢ áĢ¬
ĠáĢ¡ áĢĢáĢº
Ġpa da
Ġà®¤ à¯Ĩà®°
Ġnigba ti
Ð°Ð½ Ð°
à´¨ àµĨ
ĠâĢĿ ,
ĠØ¯ Ø§ÙĨ
à¸Ńà¸ Ķà¸
é ²
èµ ļ
çĽ Ł
à¥ĭà¤ ¡
áĢĦáĢºáĢ¸áĢ Ĳ
Ġof in
ĠáĥłáĥĿáĥĽáĥĶáĥļ áĥĺáĥª
ĠW e
Õ ¨
ÉĻ d
Ġni bi
Ã¹ n
el y
ĠS h
Ġà´¸ àµįà´¥
Ġà®µ à®¨à¯įà®¤
Ð°Ð´ Ð·Ñĸ
ĠÐĶ Ð°ÑĢ
à±įà° §
á» Ń
áĢ¸áĢ±áĢ Ľ
áĢ² áĢ¼
áĢĶáĢº áĢ¸
Ð½Ð¾ Ð¼
ĠÙ ¹
Ø¨ Ø±
Ġà¦¸ à§įà¦¬
Ġave c
Ġà®ķ à¯ĭ
Ġà¤ķ à¤¾à¤¹à¥Ģ
Ð Ł
Ġà¤ª à¤¹
Ð´ Ð·Ñĸ
áĢķ áĢ½áĢ²
Ġs Ã«
àª¾àª ¡
Ã ±
Ø§ÙĨ ÛĮ
£áĥ ¡
Ġà¦® à§ĭ
à´¸ àµįà´±àµįà´±
ĠÑĤ Ñĭ
Ġà¦¦ à§ĩà¦ĸ
Ġáĥ¬ áĥļáĥĺáĥ¡
à®µ à¯ģà®®à¯į
Ñĥ Ð¶
Ġo b
áĢļáĢ¹áĢ ħ
áģ ĩ
Ä °
ĠÕ §
Ä± z
Ġà°µ à°ļà±įà°ļ
ãģ ķ
ĠáĢĻ áĢ°
Î³ Î®
ĠÏĩ ÏģÏĮ
Ġ ÏīÏĤ
w ch
Ã¶ n
áºŃ t
àª¾àª ĸ
à´ ĺ
ĠÐ¸ Ð¼
áĢĬáĢ· áĢ¹
áĢ® áĢĢ
ÑĨ Ñĳ
Ġáĥĺ áĥ¥
äº¤ æµģ
æ´ ŀ
ä¸į æĺ¯
à¹ģ à¸Ļ
åľ ĭ
à¹ĩà¸ ģ
à¤£ à¥Ģ
à¦¨à§įà¦¤ à§įà¦°
Ġà¤ķà¤° à¤¨à¥ĩ
Ð°Ð½ Ð½Ñı
Ġà°ļà±ĩà° ¸à±įà°¤
ĠáĢ¡ áĢ±áĢĽ
áĢģ áĢĶáĢ¹áĢ¸
áĢľ áĢĢáĢ¹áĢ
Ġe x
áĢħ áĢ¬áĢ¸
à´¯ à´Ĥ
ÙĦ Ùĥ
Ġì £¼
áĢĻáĢº áĢ¬áĢ¸áĢ¡
ĠáĢĶáĢ¾ áĢħáĢº
×ķ× Ŀ
ts o
Ġi do
à§įà¦ ¦
f o
ÑģÑĤ ÑĢ
Ġaye ke
Ġer o
q i
æ¬ §
Ġçİ¯äºļ æ¸¸æĪı
à¤¤ à¤¾à¤¤
ĠÛ ±Û
ĠÙħ ÙĪ
Ð¸Ð» Ð°Ð´Ð¸
ĠÑĤ Ð¾Ð¼
à«ģ àªķ
ĠÐ±Ð¾ÑĪ ÒĽ
ĠÒ³ Ð¾Ð»
áĥĹ áĥĲ
ÅĤ y
ĠD ie
à°¿à°² à±įà°²
á»į lu
u ru
Ġà®ª à®²
áĢķáĢ¼ áĢĦáĢº
Ġ201 6
Ġa yi
à´® à´¾à´£àµį
f t
ĠP ro
A R
ir o
Ð¿ ÐµÑĢ
ĠM ar
Ġori láº¹
Ġa wá»į
Ġ *
pe le
à°¾à°¨ à±ģ
à¦° à§įà¦¤
Ġáĥĵ áĥĲáĥ¡
Ġku ro
ĠÒ³ Ð¸Ñģ
ÑįÐ½ Ð½Ðµ
ĠF i
Ġa fi
á» £
Ġi gbe
ko ko
Ġï »¿
Ġë³ ´
Ġi wá»įn
s in
à°¸ à±į
Ġg y
»áĢĸ áĢĦáĢ¹áĢ·
áĢĽ áĢ±áĢ¬áĢĢáĢº
Ñĩ Ð¸Ð»
Ð± Ð¾ÑĢ
Ġàªī àªª
Ġdel la
gb ag
bi le
Ġ? ?
Ġpa a
ĠO n
w h
ĠS u
ĠLa ti
ĠÑĨ Ñĸ
ÛĮ Øª
O N
ri s
àµĭ à´Łàµįà´Ł
yáº¹ whe
yáº¹ wo
Ġo ke
ĠE yi
ĠÒ ¶
ig h
p h
Ġà¦Ĩ à¦Ĺ
Ġo rin
Ġà®µ à®´
áĥ£áĥ ¤
ĠT a
i d
è§Ĥ çľĭ
à¤¾à¤ ı
p áº¹
ĠÐ ķ
áģĢ áĢĦáĢ¹áĢ
ĠáĢĴáĢ® áĢľáĢŃáĢ¯
áĢ± áĢ¸áĢĢ
à°² à°¾
ĠáĥĽ áĥĺáĥĽ
Ã¶ l
Ġid an
Ãº n
à§ĩà¦ ·
àµĨà´¨àµįà´¨ àµģà´Ĥ
Ġk Ã«
Ð°Ð¹ Ð´
ĠáĢĶ áĢĬáĢ¹áĢ¸
ĠáĢ»áĢķáĢĬáĢ¹áĢ ŀáĢ°
ĠáĢ»áĢĸáĢħáĢ¹áĢ ķáĢ«áĢĲáĢļáĢ¹
áģ¾áĢĢ áĢĬáĢ¹áĢ
áĢĻáĢ¼ áĢŃáĢ¯áĢ·
×ķ× Ĳ
à°¾à° ³
Ġà´ ¨àµįà´¨
à´¾à´ ·
ĠÑĸÐ½ ÑĪ
ĠÄĳ Ã£
àª£ à«ĩ
Ð¸Ð» ÑĮ
áĢĲ áĢĦáĢ¹áĢ
áĢĽ áĢĶáĢ¹
Ľ áĢ¼áĢĢáĢ¹áĢ
áĢļáĢ¹áĢľ áĢŃáĢ¯
áĢĤ áģ¢
ĠáĢĺáĢ¯áĢĽ áĢ¬áĢ¸áĢŀ
Ġa j
áĢĢ áĢ¯áĢĶáĢº
áĥĶáĥłáĥ ¡
çł´ è§£
à¤°à¥įà¤ ®
à°¿à°Ĥà°ļ à°¾à°°à±ģ
ì ĻĢ
Ġ ÛĮÚ©
ĠØ§ÙĦ Ø´
Ġáģ¿ áĢĻ
áĢĶ áĢħáĢ¹áĢ
ĠáĢ¡ áĢ»áĢķ
áĢ¬áĢĽ áĢ½
áĢĲáĢ½áĢ± áĢĢáĢŃáĢ¯
Ð¾Ñı ÑĤ
ãģ£ ãģ¦
áĢĶáĢ¹áĢ ĳ
ĠáĢķ áĢĳáĢĻ
z Ä«
ĠÐ½ Ð°Ð·
Ġáĥ¬ áĥĲáĥłáĥĽ
à¦® à¦¾à¦¨
w ie
Ġà®® à®±à¯įà®±
k in
à°¨ à±įâĢĮ
àµĬ à´°
áĢĽáĢ½ áĢĢáĢº
áĢ¬áĢ¸áĢ ķ
ĠÐ¾ Ð´
à¦¾à¦ ¯à¦¼
c es
Ġt er
§ à¸Ļà¸
ķà¸²à¸ ¡à¸
à¥į âĢį
à´¦àµįà´ ¦
ĠÑģÑĤ Ð°ÑĢ
à«ĩàª ¤
à°¿à° ¦
ĠáĢĤ áĢº
ĠáĢĴáĢ« áĢ±áĢķáĢĻ
ĠáĢĳ áĢ¯áĢĲáĢ¹áĢ
áĢĢáĢ¹áĢ Ľ
áĢ· áĢ¡
ĠÐ¼ Ð°Ð³
n Ã¡
ç µ
Ġå ī
¢ à¹Į
ĠæĪ Ĳ
åº ĵ
à¹ī à¸Ļà¹Ģà¸
å· ´
æĥħ åĨµ
éĻ ¤
è® ²
Ġé Ľ
è´ Ł
ä¾ Ĩ
åª Ĵ
E T
æī ¹
ĸà¸¶à¸ ĩ
æī ¿
4 9
å¾ Ģ
ªà¸ Ķà¸
Ġà¤¹à¥ĭà¤¤ à¥ĩ
is h
áĢĨ áĢŃáĢ¯áĢĦáĢº
áĥĺáĥĲáĥľ áĥĺ
Ø§Ø ¬
à°¾à° ·
ÑģÑĤ Ð°Ñŀ
Ġà¤¸ à¤ķ
Ġàªħ àª¨
áĥĿáĥĳ áĥ¡
Ñĥ ÑĦ
ì¶ľìŀ¥ ìĥµ
Ġê³ ł
Ġà´¨ àµĩ
ĠØ§Ù ĵ
ĠØ¬ ÙĪ
áĢ±áĢĶ áĢ²áĢ·
ĠÕ ´
mi ÅŁ
ko z
áĢħ áĢ¶
ni a
Ġ Ð°Ñŀ
Ġà°ħ à°¨à°¿
ie k
ĠÃ®ntÃ¢ l
åħ¬ è§£æ¢¦
à¤£ à¥ĩ
Ġc Äĥ
n ÄĽ
×Ļ ×ķ×ª
áĢŃáĢĻ áĢ¹
áĢ¬áĢ¸áĢ ĳ
ĠÑĢ Ð°Ð±
Ã¤ y
áĥĲáĥľ áĥĵ
em ent
Ó¯ Ð·
à´¿à´± àµįà´±
ĠØ§ÙĦ ÙĨ
Ð² Ð°ÑĨÑĮ
ĠáĢĻ áĢŁáĢ¯áĢĲáĢ¹áĢ
Ġáģģ áģĢ
µ ľ
ĠáĢ¡ áĢģáĢºáĢŃ
áģ¿ áĢĸ
ĠáĢĻ áĢĽáĢ½áĢŃ
ĠáĢ¡ áĢģáĢ¼
Ġà°° à°¾à°ľ
Ð¸ Ð²
ÃŃ nh
er t
Õ¸ÖĤÕ ©
ma q
s k
Ġáĥ© áĥĶáĥĽ
Ġà° ĵ
ĠâĢļ Â
ÑĢ Ð°Ð·
Ġàª® àª³
áĢ±áĢľ áĢ¸áĢ±áĢĲáĢ¼
áĢ¡ áĢķáĢ¹áĢ
Ĥ áĢº
áĢ¸áĢĻ áĢ½áĢ¬
áĢ½ áĤķ
áĢķáĢ« áĢŀáĢĬáĢ¹
ĠáĢĢáĢŃáĢ¯ áĢļáĢº
áĥĺáĥ §
à§ĥ à¦¤
à´ ŀàµįà´ļ
Ġå® ī
Ġåı ª
å¯ Ł
æīĭæľº app
à¸£à¸ ¹à¸
æīĭæľº çĻ»å½ķ
æĸ¹ æ³ķ
ĠæŃ ¤
äºº åĳĺ
Ġåĳ¨ åħ¬è§£æ¢¦
ä¹ Ŀ
Ġà¤µ à¤°à¥įà¤
Ã¨ s
ì¹ ´
áĢĽ áĢ®
ĠÐ±Ñĭ Ð»Ð¾
ĠÎ¤ Î±
ĠÏĮ ÏĢÏīÏĤ
ÏĢÎ¬ ÏģÏĩ
Î¶ ÎµÎ¹
Îµ ÏģÎ³
Î¼Îµ Î½Î¿
ĠÎ±Î½ ÏĦÎ¹
ĠÎ± ÏģÏĩ
do l
à±ģà° Ł
m it
áĥķ áĥ¡
ÛĮ Ø´
àª¤ à«Ģ
ë¬ ¸
s sz
n ych
Ð´Ð°Ð½ Ð¸
ĠáĢ¡ áĢ¬áĢ¸áĢľ
ĠÂ ®
Ð½Ð°Ñģ ÑĨÑĮ
áĢ±áĢ Ŀ
Ġun a
ĠáĢ¡áĢ±áĢĻ áĢĽáĢŃáĢĢ
áĢ®áĢ¸áĢ ŀ
Ġà¤¹ à¤®
áĥĿáĥł áĥĺ
Ġo a
Ġt la
ļ à°¿
Ġà´ ·
áĢķáĢ¼ áĢĬáĢº
ĠåĴ Į
à¥ĭà¤ Ł
à¦¾à¦ ĸ
ĠÄĳá» ĥ
ĠØ§ÙĦØ ¥
Ð½Ñĸ ÐºÑĸ
áĥĺáĥ ŀ
r Ä«
à´¤àµįà´¤ à´¿àµ½
Ġà¸ ¥
Ġau ch
àª¿ àª¨
áĤı áĤĪ
áĢ¬áĢ¸áĢŀ áĢĬáĢº
Ġà°Ĺ à±ģà°°
Ġà¹Ĥà¸Ľà¸£ à¹Ĥà¸¡à¸
à¹Ĥà¸£à¸ ĩ
la t
ĠÐ¿ Ð°Ñĩ
ãģ Ĥ
m Ã¤
ĠìĹ ¬
à¯Īà® ļ
à¦¿à¦ Ĥ
Ġà¸ ¥à¸ĩà¸Ĺà¸°à¹Ģà¸ļà¸µà¸¢à¸Ļà¸
à¸£à¸²à¸Ħ à¸²à¸
Ġba ÅŁ
èį ¯
ĠåĬłæĭ¿å¤§ 28
Ġà¤ħ à¤¶
Ġà¸¥à¸ĩà¸Ĺà¸°à¹Ģà¸ļà¸µà¸¢à¸Ļà¸ Łà¸£à¸µ
Ġà¸ªà¹Īà¸ĩà¹Ģà¸ĩà¸´à¸Ļà¸ ļà¸²à¸Ĺà¹Ħà¸Ĺà¸¢
à¸²à¸ ģ
ĠáĥĽ áĥĶ
ĠÐ¸ Ð»Ð¸
Ð¾ Ð³Ð°
ŀà¸Ļà¸ ±à¸Ļà¸
Łà¸¸à¸ķà¸ ļà¸Ńà¸¥
à¹ĥà¸Ĭà¹īà¸ Łà¸£à¸µ
Ġà¸Ĺà¸Ķà¸¥à¸Ńà¸ĩ à¹ĥà¸Ĭà¹īà¸Łà¸£à¸µ
Ġà¹Ĥà¸Ľà¸£à¹Ĥà¸¡à¸ Ĭà¸±à¹Īà¸Ļ
à¸²à¸ ªà¸´
Ġà¸ªà¸ ¥à¹ĩà¸Ńà¸ķ
Ġ à¸Ń
ĠÛģ Ùħ
Ġt ou
¡à¸ ±à¸
ĠáĥĽáĥĲáĥĴ áĥłáĥĲáĥĽ
Ġv ol
Î² Î¿Î»
ÏĦÎ· ÏĤ
Ïĥ ÏĦÎ¬
Î¼ÎŃ Î½Î±
Î» Ïħ
ĠÎŃÏĩ Î¿ÏħÎ½
ĠÎľ Î±
Ġc yf
àª¾àª ª
à°¸ à±įà°Ł
ĠÙħÛĮ âĢĮ
ªà¸ ¥à¹ĩà¸Ńà¸ķ
© à¸²
Ðº Ð°Ð¼
à¹Ģà¸£à¸ ·à¹Īà¸Ńà¸ĩà¸
Ġç Ī
³ à¸Ļà¸
ä¸Ń çļĦ
Ġå° Ĩ
à¹Ģà¸£ à¹ĩà¸
à¤¾à¤ ¶
à®¿à®ķ à®³à¯į
Ġáĥ¡ áĥĲ
Ġà¦ħ à¦¬
ĠÒ ĵ
Ġbe i
ĠÙħ ÙĦ
Ġimá»į ran
Ġo po
es h
Ä« dz
×Ļ× §
ÅĽ Äĩ
Ð°Ñ Ķ
Ñŀ Ð»Ñı
ĠJi whe
ĠJiwhe yáº¹whe
Ġy an
à´µ à´°
Ġá»Į lá»į
Ġv Ã½
áĥłáĥ £áĥļ
ĠM u
Ġw á»į
Ġà°ª à°°à°¿à°
ĠØ§ÙĦ Ø¯
ì§ Ħ
Ġà¤¥ à¤¾
Ŀ i
ĠæĹ ł
çĤ º
æĸĩ åĮĸ
à¤Ĥà¤¤ à¤°
v al
Ġà´ªà´± à´¯
àª¾àª ¬
Ġáĥŀ áĥĺáĥłáĥ
Ġt Å¡
t ho
ĠÐłÐµÑģÐ¿ÑĥÐ± Ð»Ð¸Ðº
ĠÑģ Ð¾Ð»Ð¸
si ya
re a
Ġà´ªàµįà´° à´µ
Ð°ÑĨ Ð¸Ð¸
à§Ł à¦¾à¦°
Ø§Ø¦ ÛĴ
Ã¨ re
à«ģ àª²
ta t
à±ĩà° ®
Ġà®ħ à®±
Ð¾ Ð´Ð°
ĠáĢĶ áĢ²áĤĶ
ĠáĢ¡ áĢģáĢº
ķ áĢ¶áĢ¯
áĢĦáĢºáĢ¸áĢ ¡
Ġáĥł áĥĲ
le r
ĠÐ± ÐµÐ»Ð°ÑĢÑĥ
Ð¼ Ñĥ
áĥĶáĥ ®
à´¿à´¤ àµįà´°
à°¤ à±įà°¯
ĠëĤ ĺ
ĠãĢĳãĢĲ ãĢĤ
åħ¥ åı£
Ġå¤§åıĳ äºĶ
çīĪ ä¸ĭè½½
âĢ Ķ
Ĭ à¸´à¸
ä¸» è¦ģ
æĮ Ĥ
Ġæ ¢
Ġå ĵ
åĪĨéĴŁ pk10
å¯ Į
åĿ ĩ
Ġ ĆĈ
Ġäºļæ¸¸éĽĨåĽ¢ å®ĺç½ĳ
è¿Ļ ä¸ª
à¸µà¸¢à¸ ĩ
4 6
èĢĥ è¯ķ
Ġ ä¸ĭ
¼ åĲĪ
«à¸ §à¸
Ġà¸ ķà¸
Ġà¤ī à¤ª
Ù Ĵ
Ø± Ø¨
Ġp Äģr
Ð· ÑĮ
Ã§ Ä±
ÏĥÎµ ÏīÎ½
Ġwe di
Ġc sa
à§ İ
ĠáĥĲáĥĵ áĥĲáĥĽ
à´¾à´± àµįà´±
ĠáĢĶ áĢ¬áĢĽáĢ®
Ġàªµ àª°à«įàª
Ġn el
áĢľ áĢ¯áĢ¶
à¥įà¤¯ à¤ķ
Äĥ ng
ÑįÐ½ ÑĤ
ÅĤ u
à®µ à¯ĩ
à§ĩà¦ ¦
à°¯ à±įà°¯
Ġë ²
áĢŀ áĢĢáĢº
v an
ĠÐ¼ Ð°ÒĽ
Ġde m
ÑĢ ÐµÐ¼
ĠÐĿ Ð°
ci Ã³
ĠÙĦ ÛĮ
ĠáĥĴáĥĲáĥĽ áĥĿáĥ
un d
à±Ģ à°¯
×Ļ× ĳ
Ġà¦¤à¦¿à¦¨ à¦¿
Òĵ ÑĢÐ¸
Ð» ÑĥÐ¼
ÑĢÑĭ Ñı
Ñģ Ð°ÑĤ
Ð ľ
à¸£à¸²à¸ ¢à¸
à´¿à´ķ à´³àµįâĢį
àµĤ à´Łàµįà´Ł
Ġh ÉĻ
Ġà®İà®© à¯įà®ª
à« Ī
Ġla s
qu es
áĢ¶ áĢ³
áĢĿ áĢĦáĢ¹áĢ
áģĢ áĢ«
±áĢ »áĢķáĢ¬
áĢħ áĢĢ
Ð¾Ð¼ Ð¸
ÙĬ Ùħ
à°¿à° ·
à§ģ à¦®
d Ã©s
Ġl u
áĥł áĥĶ
ĠÐ· Ð°Ðº
éĢļ è¿ĩ
å¤§ çļĦ
å¤ Ł
à¸²à¸ ģà¸
¡ à¸´à¸
Ĥà¸¶ à¹īà¸Ļà¸
¥à¸ ĩ
æĿ Ģ
ªà¸¸à¸ Ķà¸
Ħ à¹īà¸²à¸
ç½ Ĺ
åĴĮ åĢ¼
Ġæ Ļ
ķà¹Ī à¸Ń
ª à¸£à¹īà¸²à¸
x x
æł ¹
åį Ĭ
Ġà¹Ģà¸ Ľà¹ĩà¸Ļà¸
à¸Ńà¸Ńà¸ ģ
Ġà¨ ¤
æŃ ¢
åĨ ł
æ ½
à¸£ à¹Įà¸
à¹Ģà¸Ĥ à¹īà¸²à¸
åį °
åº ·
Ġà¤² à¤¾à¤Ĺ
Ú¯ Ø±
Ġdara dara
ag a
ĠW a
E R
Ġiwa di
ĠNi gba
àµģà´ ªàµįà´ª
ĠJ o
so ke
ĠA f
Ġv e
ĠA u
Ħ ĸ
ĠÐ±ÑĥÐ´ Ð·Ðµ
55 5
ä½ ³
Ġ äºĨ
ĠéĢ ļ
å¨ ģ
åĲ ĥ
ç Ł³
ĠãĢ į
é ł
Ġå¼ Ģ
Ġ1 åĪĨå¿«3
æ± ½
ç¼ ĸ
å± ħ
åĢ ĭ
ĠÂ ·
Ġagäºļæ´² åĽ½éĻħ
Ġè ¶
à¹ Ħà¸£à¸
è¯ Ń
áł¢ áł
å·² ç»ı
Ħ à¹īà¸²
áŀ Ģ
Ġå »
è´ §
à¤¿à¤ ®
Ġh an
à´¨àµįà´¨ àµģ
ĠáĢ±áĢ ķáĢ«
áĢ±áĢķáĢ« áĢĦáĢ¹áĢ¸
Ġ áĤıáĢ¯áĢŃáĢĦáĢ¹áĢĦáĢ¶
áĢħ áĢĬáĢ¹áĢ¸
áĢĢáĢ¹áĢ ģ
to rin
Ġiá¹£ a
Ġwh en
Ġáº¹ ká»į
á»į kan
Ġg áº¹gáº¹
e de
Ġàª ĩ
áĥľ áĥĶáĥľ
Ġi be
Ġì ¤ĳ
ĠáĢ»áĢķ áĢĶáĢ¹áĢ
áĢĨáĢŃáĢ¯ áĢĲáĢ¬
áĢ¹áĢ Ĥ
Ġthá» ĥ
Ġh áº¹n
f in
àµĩà´ ¹
ĠÐ· Ð´
à§įà¦ ľ
à°ķ à±įà°¤
à®¾à® ļ
ĠØ§ÙĦ Ùģ
áĢ¡ áĢĲáĢ°
Ġ Ð°Ð½
ĠB u
v el
áĢĻ áĢĬáĢ¹
áĢ±áĢĴ áĢŀ
áĢ±áĢĶ áĢĽáĢ¬
áĢĶáĢ¹áĢĻ áĢ½áĢ¬
áĢĶáĢŃáĢ¯áĢĦáĢº áĢĦáĢ¶
Ġv wo
re en
ª à¸Ļ
äºĨ ä¸Ģ
å¿ µ
¡à¸ ±à¸Ļà¸
áł¡ áł
77 7
çļĦ åĲĹ
æ³ ¢
Ġà¥§ à¥
àµĢ à´°
Ġm Ã¬
à®¿à®± à¯įà®ķ
áĥĿáĥĵ áĥĲ
ĠÐ¾ Ñģ
ÑįÑĤ Ð°
Ġà¦¹à§Ł à§ĩà¦Ľà§ĩ
ĠO hun
aa ju
Ġha ck
ĠG bogbo
×Ļ× ©
Ġà¤² à¤Ĺ
or un
à±Ĩ à°Ł
is o
Ġ5 6
ĠÑħ ÑĥÐ´
æĺ¯ çľŁ
Ġà¨ ®
çĶµ å½±
ľà¸ ¥à¸
Ġé ģ
Ġç Ħ
éĤĢè¯·çłģ _
æ ©
Ġà¸ Ī
çľ ¼
æĻ Ĥ
ªà¸²à¸¡à¸²à¸£à¸ ĸà¸
Ġ3 1
Ġ5 8
¥à¸ ±à¸ĩà¸
« à¸²
è¿ ľ
ç Ĩ
é» Ħ
3 7
à¸Ńà¸µà¸ ģà¸
åĪ Ŀ
Ġà¤®à¤¿à¤ ³
Ġà¦ķ à§ĭà¦¨
à´¾à´ ´
Ø³Øª Ø§ÙĨ
Ġba yi
íı ¬
en e
Ġp á»į
ĠáĥĽ áĥĺ
ĠÙ¾ Ø§Ú©
ĠÐ±Ñĭ Ñŀ
à«Ģ àªµ
ĠØªÚ¾ Ø§
ĠáĢ±áĢĽ áĢ¬áĢĢáĢ¹áĢ
áĤı áĢ½áĢ¬
áĢĲ áĢ¯áĢŃáĤĶ
áĢ¬áĢ¹áĢ Ļ
áĢķ áĢĬáĢ¬
d Äĵ
ĠÎ¼Îµ ÏĦÎ¬
Ġ) ,
áĢľ áĢĢáĢº
Ġ201 4
ĠC asino
Å ĭ
Ġa tun
Ġawo ran
ĠÏĢÎ± ÏģÎ¬
Ïĩ Î¹
Î¼Î± Î½
Ïĥ Î¹Î±
Ïģ Îº
Ġb r
Ġi láº¹
Ġa k
© à¸²à¸
ĠçĶ ¨
ĠæĿ ¥
ļà¸ ±à¸
¥à¸ ¹à¸ģà¸
èĳ Ĺ
à¤¾à¤ ¢
ìķ ¼
Õ¡Õ ´
ÉĻr ÉĻ
Ð½Ð¸ Ñħ
ĠØ¹ ÙĨ
à´¦àµįà´ §
ÐµÑĤ ÑģÑı
áģ ģ
à¤¿à¤¯ à¥ĭà¤Ĥ
Ġà®µ à¯Ģ
à°¾à° ¹
ĠÂ» .
ĠÏĢÎµ ÏģÎ¯
ĠH o
ĠÎ Ĩ
ĠÏĢ ÏģÎŃÏĢÎµÎ¹
ÏĩÎµ Î¯Î±
y r
áĢ®áĢ¸áĢ Ļ
Ġáĥ¨áĥĶáĥĽ áĥĵáĥĶáĥĴ
åģ ľ
å¤ ľ
à¥Ĥ à¤°
àª ĩ
Ġ Ã©r
Ġà§¨à§¦à§ §à§
à§įà¦ ł
à´¾à´Ł àµįà´Ł
Ġàª² à«ĭàªķ
áĢŃáĢĻáĢ¹áĢ ·
áĢĽ áĢĲáĢ²áĢ·
ĠáĢĽ áĢģ
áĢĦ áĢŃáĢĻáĢ¹áĢ¸
áĢķáĢ¹áĢ Ģ
áĢŃáĢ¯áĢ¸áĢ Ļ
Ġag æīĭæľº
Ġæı Ĳ
Ġçİ °
Ġå¦Ĥ æŀľ
åĿ Ľ
æĺ ¥
ç¾İ åĽ½
åĪ ĩ
2 00
è Ĺ
à¸Ļà¸ °à¸
Ġæ± Ł
¹à¸ ģ
Ġà¤¯ à¤¾à¤Ĥà¤¨à¥Ģ
Ġà°µ à±Ī
Ġà´¤ àµįà´¤
Ġà´ķ à´¾à´£
Ġà®ħ à®Ł
c tion
m er
Ð°Ð» ÒĽ
áĥĶáĥłáĥ Ĺ
Ð± Ñĥ
y esi
Ġb y
Ù¹ ÛĮ
Ġà¦ķà¦° à¦¤à§ĩ
Ð¸Ð» Ð´Ð¸
ĠÑĤ Ðµ
ĠP áº¹lu
ê³ Ħ
Ġi sa
ir in
Ġagba ye
è¦ģ æ±Ĥ
Ġæ ĥ
Ġb et
ć ć
ç½ĳ _
Ġå¹ ¿
à¨ ®
çĻ» åħ¥
æĵ į
à¤ļ à¥ĩ
Ø§ ÙĤ
ÑĢ Ð¶
áĢŀ áĢ¬áĢ¸
Ð¾Ð½ ÑĥÐ½
Ġma a
à°µ à°°
ĠáĢŀáĢ° áĢĻ
ĠÑģ ÑĥÐ¿
áģ ĥ
ĠJ a
×Ļ× ĵ
àµĢ à´ķà´°
ar y
o ru
ĠáĢŀ áĢĻ
Ġkh i
áº¹ áº¹
b re
Ġàª¤ à«įàª¯
Ġà°² à±ĩà°¦
ĠT e
Ġsi waju
Ġa s
Ñı Ð½
ĠáĥĴáĥĲáĥĽ áĥĿ
p i
Ĺ à¸£à¸
à¤¿à¤¤ à¥Ģ
áĢĻáĢ» áĢ¬áĢ¸áĢ¡
à®² à¯Ī
ÑĤ Ð¾ÑĢ
Ġà´ªàµĭ à´²
ê° Ħ
Ġke Ã§
Ġs á»įn
Ġgb áº¹
Ġc s
ĠK i
Ġr an
ÑįÐ½ Ð½Ñı
ĠA gbe
k ini
æķ ħ
¨ à¤¾
Ġgig a
Ð¸Ð´ Ð°Ð³Ð¸
ĠÑĦ Ð°ÑĢ
ĠáĥĽ áĥ¡
Ġà¦ıà¦ķ à¦Łà¦¿
Ġa so
Ġ. +
Ġiro yin
Ġi fi
Ġda ju
ÏĢ Î¯
ĠÎĵ Î¹Î±
ĠÏĥ Îº
ĠÎ¼ÏĮ Î½Î¿
ĠÎ± ÎºÏĮ
ÏĦ Ïİ
ĠÏĩ Ïī
Îº Î¿Î»
ÏĮ ÏĦÎ·
! !
Ġg w
ĠÃ Į
Ð¾ÑĢ Ð¼
àªĤàª §
à®¾à®° à¯įà®ķà®³à¯į
à´¿à´ Ĥ
ĠØ§ÙĦ ÙĦ
Ú¾ Ø±
l Åĳ
ÑģÑĤÐ² Ð¾
Ġà¤Ĺ à¤¯à¤¾
Ð¿ Ð°Ð´
Ġë¶ Ģ
éĵ ģ
¨ à¥Ģ
Ã¼ ÅŁ
Ĩ áĢ¯áĢŃ
áĢ½áĢº áĢĦáĢ¹
ĠáĢ¡ áĢĢ
áĥ Ń
Å¡an as
ÑĤÐ¸ Ð¼
Ø¹ Ø¯
à°¿à°¤ à±įà°°
ts i
ĠP entru
àªķ à«įàª·
à®¿à®ķ à®³
Ġr en
Ġo r
ĠÑĩ Ð°Ð»
Ġà¤¹ à¤¾
Ġ×Ķ× Ĳ
ĠáĢĴáĢ¯ áĢĲáĢŃáĢļ
ĠÐ±Ñŀ Ð¹Ð¸
Ð°Ðº Ð°ÑĤ
à°¾à°² à°¿
áĥĺáĥ¨ áĥľ
ie l
Ġà´ª àµĬ
Ġê ±
£ Â
á»ĳ i
áĢĦáĢºáĢ¸áĢ ķ
ÐºÑĸ Ñħ
ĠÑĤ Ð°Ð½
Ð°ÐµÑĤ ÑģÑı
àµģà´® à´¾à´¯à´¿
Ġà°Ĩ à°¯
Ðº ÑĢ
ĠÃ®ntÃ¢l n
Ġà¤ķ à¤¿à¤¸
u ri
¡ à°¿
àªķ àª¾àª°
ĠÑĪ Ð°ÑĢ
Ð½ÑĸÐº Ð°Ñŀ
áĢĽ áĢ±áĢ¸
Ġà®ħà®° à®ļ
Ñĸ Ð»ÑĮ
ãģ§ ãģĻ
à´¿à´¯ àµģà´Ĥ
áĥłáĥ ĵ
n os
äºº çļĦ
à¥ĭà¤ ľ
Ķ áĢļáĢ¹áĢ
áĢħ áĢħáĢ¹áĢ
áĢķáĢ¼ áĢ²
áĢķáĢ¼ áĢĶáĢº
ĠÐ¼ Ð°Ð²
Ð¸ ÑģÑĤ
Ġch aêŀĮ
o ju
u ro
Ø§ Úº
Ñŀ ÑģÑı
à¦¾à¦¦ à§ĩà¦¶
Ġà®¤à¯Ĭ à®Ł
ĠÕ ¯
b ÉĻ
Ġà§ ©
l á»įn
Ġsá»į gan
ĠGb Ã¨
f fe
ng a
Ġà« §
Ġàª¸ à«ģàª
àµįà´ §
ĠS o
Ùħ ÙĦ
h u
áĥķ áĥĲáĥľ
ë £
à§Ł à¦¾
Ġs an
±áĢĢ áĢ¬áĢĦáĢ¹áĢ¸
áĢ¬áĢ¸áĢĻ áĢ½áĢ¬
ĠáĢĢáģ½áĢ¼áĢĶáĢ¹áĢ ±áĢĲáĢ¬áĢ¹áĢ
ĠáĢĽ áĢĢáĢ¹áĢ±áĢĶ
ĠáĢĶ áĢ±áĢ¬áĢĢáĢº
lan d
ç» Ī
Ġ4 9
Ġá ĭ
Ĺà¸µà¹Īà¸ ªà¸¸à¸Ķ
ĠAGçİ¯äºļ éĽĨåĽ¢
åŃ ©
è§ Ĵ
à¤¾à¤Ĥà¤ ¤
áĥĺáĥ «
ĠÐ³ Ðĥ
ĠÑĨ Ñı
áĥłáĥ £áĥ
Ġiran lá»įwá»į
la y
Ġfi dio
lo ad
Ġê ŀĮ
ĠL i
Ġná»į mba
gbag bogbo
Ġri i
y ara
Ð» ÐµÐº
Ġ" >
Ġe he
Ġa mi
un a
ĠáĢĨ áĢ¯áĢŃ
ĠáĢķáĢ¼ áĢĶáĢº
à¦¿à¦ ľ
á¹£i á¹£áº¹
Ġst art
Ġs in
à°¿à° ļ
Ġgi di
Ġê³ µ
Ġçİ¯äºļ éĽĨåĽ¢
æŁ Ĳ
çķ Ļ
ĠĈ Ĉ
å¤ļ å°ĳ
çĶŁ æ´»
ĠâĢĿ ãĢĤ
è¿ İ
ĸà¸ ¹à¸ģà¸
Ġà¤¸ à¥ģà¤°
ĠO lo
ĠF ree
Ġtun tun
à´µ à´¿à´
à«įàª° à«Ģ
ĠÐ² Ð¾Ð·
Ġar Ä«
à®© à®°à¯į
áº ©
c ja
Ġd ur
Ġa pe
Ġh i
ĠU ni
Ð°ÑĤ Ñį
áĢĶáĢ¾ áĢĦáĢºáĢ·
áĢ¡ áĢĨ
Ġ201 5
in rin
Ġá¹£e e
ĠB o
Ġà¤ī à¤¸
h wo
ti c
áĥłáĥ Ĵ
à´¾à´ ¨àµįà´
Ð¼ Ð°Ð½
agba soke
à«ĭàª ľ
wa re
Ġda ta
l in
Ġï¿½ï¿½ï¿½ï¿½ï¿½ï¿½ ï¿½
Ġo kun
à¦¾à¦ķ à¦¾
Ġà¹ģà¸ ¥
ŀà¸ §à¸
æĭ ©
à¤¾à¤ ·à¥įà¤Ł
áĢ ĭ
áĢ±áĢľ áĢ¬áĢĢáĢ¹áĢ
áĢľ áĢ¹áĢ
áĢĲáĢ¹áĢ ħ
áģ¾áĢĢ áĢ®áĢ¸
ĠáĢĲ áĢ½
ĠU S
ÙĢ ÙĢ
Ø° Ø§
own load
Ġon line
Ġpo dá»į
Ġafi kun
Ġi na
áĥĶáĥĹ áĥĺáĥ¡
ĠÐ±ÑŀÐ¹Ð¸ ÑĩÐ°
Ð» Ð¾Ò³
à±Ģ à°²
Ð»Ð°Ð½ Ð³Ð°Ð½
Ð»Ð¸ Ð³
ĠÐ¼Ñĥ Ò³
t ra
Ġá»į wá»į
ĠÙħ ØŃ
à¦¾à¦¨ à§ĩ
Ġà¨ ľ
è´ µ
Ġå Ł
çĶ »
á Į
è¡Į ä¸ļ
Ġ à¹Ħà¸¡à¹Ī
æĬķ èµĦ
åĩ °
à¥įà¤¯à¤¾à¤ļ à¥Ģ
×ķ× ¤
yi pada
ĠH a
Ġà®® à®©
ĠÐ· Ð°Ð¿
Ġà´Ĩ à´°
ĠáĢ¡ áĢ±áĢĶ
áĢ¬ áĢĢ
Ð¸ Ò³
ê ¹
er a
Ġa v
ag bara
áĢķ áĢĦáĢº
G G
ĠK e
Ġk Ã¡
à´¨àµįà´¤ àµįà´¯
Ġà®® à¯ģà®¤
à°³ à±įà°²
Ġàª¸ àª°
Ð°Ñģ ÑĨÑĮ
ĠáĥĽ áĥĿáĥ¡
àµĭ à´¦
Æ¡ n
Ïģ Ïħ
ĠÎºÎ¬ Î¸Îµ
ĠÏĥ ÏĩÎµ
ĠÎµ ÏģÎ³
Ġ ÏĪ
ĠÏĢ ÏģÏī
Î» ÎµÎ¯
Î´ ÎµÏĤ
ĠÎµÏĢ Î¹Ïĥ
ĠÏĢ Î»Î·
Ïĩ Î¿
Î½Î¿ Î¼
ĠÏĢÎµ ÏģÎ¹ÏĥÏĥÏĮÏĦÎµ
Î»Î¿ Î½
ÏĦÎ¹ Ïĥ
Ġ0 00
Ð»Ð°ÑĢ Ð´Ð°
ĠÐ´ Ð°ÑģÑĤ
A B
Ġdi dara
ti ng
Ĩ áĢĶáĢ¹áĢ¸
áĢ»áĢĸáĢħáĢ¹áĢ ķáĢ«áĢĲáĢļáĢ¹
áĢı áĢº
mu lo
Ġtáº¹ láº¹
Ġibe ere
Ù¹ Ø±
Ġdu ro
ĠÎ¾Îµ Î½Î¿Î´Î¿
wy r
Ġi b
à¤°à¥įà¤ £
ĠìĿ ¼
à±Ģ à°ª
Ð°ÑĤ ÐµÐ»ÑĮ
à´¸ àµįà´¸
áĥĺáĥ ¦
Ġo ti
áĢĲ áĢ²áĤĶ
ĠáĢĻ áĢĦáĢ¹áĢ¸
áģ Ħ
ãģ ł
à¦ľ à¦¨
Ġ }
Ġàªª àª¹
Ġu 0
Ġà¤ Ľ
en ÃŃ
Ġáº¹ á¹£á»į
Ġlá»į wá»į
G B
wá»į le
Ġà° §
Ġye ke
ÃŃ n
à¯ģà®Ł à®©à¯į
ĠØ¨ Ø§Ø²
áĢĶáĢ¹áĢ ŀ
ĠáĢĺáĢ¯áĢĽáĢ¬áĢ¸áĢŀ áĢģáĢĦáĢº
Ġáĥĵ áĥĺáĥĵ
áĢĻ áĢŁáĢ¯áĢĲáĢº
Ġà´¤ àµĨ
ĠÐ¼ Ð°Ð»
ą Ĉ
çļĦ æĺ¯
à¥įà¤° à¤®
en ie
à°¿à° ľ
j et
ĠÑģ Ð°ÑĢ
ĠØ§ÙĦ Ø¨
Ð² ÐµÑĤ
à´¾à´ ¶
àª¿ àª°
áĥĺáĥĿ áĥľ
Ġi ch
ĠÐº Ð¾ÑĤÐ¾
ung en
Ġe g
ĠÐ· Ð½
d Äģ
Ġ Ö
lÄ± q
à¦¾à¦¤ à§ĩ
ãģĹ ãģŁ
Ú© Ú¾
à¹Ģà¸Ĥ à¹īà¸²
æī ¾
ä½ľ ä¸º
Ġé ļ
çĬ ¶
1 00
è¯ ¾
è® Ń
0 8
åŁİ å¸Ĥ
æĮ ī
à¤ ł
Ġr Ã©
à° «
i le
à´±àµįà´± àµį
Ġà®ķ à®°
Ã¹ ng
áĥ£áĥ ®
Ð¼Ð¾ÒĽ Ð´Ð°
Ð £
ĠÑĤÑŀ ÒĵÑĢÐ¸
ÑĨ Ð¸Ñı
ĠÐº Ð¸ÑĢ
ĠÒ³Ð¸Ñģ Ð¾Ð±
ÙĪ Ø´
Ġë§ Ī
à«ĩàª² àª¾
áĥĿáĥķ áĥľ
æĸ° éĹ»
Ġ áĪ
æĸ¹ å¼ı
3 d
Ġà¤ª à¤£
Ð´Ð¸ Ð¼
Ñģ Ð¸Ð·
Ð¾Ð½ Ð°
Îµ Îº
ĠÎµ Î¹
Ġg r
à¦¿à¦ ¯à¦¼
ÃŃ v
¤ åĩ°
Ġæ¯ ı
à¤¤ à¥ĭ
Ġv a
Ġs p
ĠÏĢ ÏģÎ±
Ġma e
Ġà°ª à°¾à°°
à¯ģà®ķ à¯į
à¤ķ à¥Ģ
áĥĿáĥ ŀ
áĢ¶ áĢĢ
×ķ× ©
áĢĢáĢ¼ áĢ±áĢ¬áĢĦáĢºáĢ¸áĢ
ĠÚ© Ø§Ø±
ÐºÑĸ Ñı
à°°à±įà° µ
ĠÑı Ð½
ĠÐ¼ ÐµÐº
Ġàª¨ àª¹
Ġà´ªà´° à´¿à´
ì¹ ĺ
Øª Ùħ
Ġth u
ĠÐ¿ Ð°Ð¼
Ġfo onu
Ġtin do
Ġa yá»į
t á»įn
Ġdá»į má»į
ĠAgbe gbe
d ro
ĠJ u
Ġà®ª à®¤
à· Ĭ
Ġu0 9
ä¹ħ ä¹ħ
à¥ ľ
Ġka a
Õ¸ÖĤÕ© Õµ
Õ ¾
ĠÕ ¸
q a
Ġpaa pa
Ġàª¬ àª¨
un nu
k Ãłn
Ðº ÑĤ
à°· à±įà°Ł
Ġà´ī à´ª
r Ã©
m y
áĥĿáĥ ¨áĥĺ
Ġw ie
Ñĸ ÑĹ
ÑĮ Ð½Ðµ
ĠÐ½ Ð°Ð¿
à¤¾à¤¯ à¤¾
à®¿à®²à¯įà®² à¯Ī
ĠáĢĳ áĢŃ
Ã¡s a
à° ¥
áĢ¬ áĢĲáĢº
áĥĲ áĥĲ
Ġa d
à¸Ńà¸ĩ à¹Ģà¸
åħ µ
à¸£à¸°à¸ ļà¸
Ġå® ŀ
Ġà¤¯ à¥ĩà¤
ĠØ¥ ÙĦÙī
Ġìĥ ģ
àª¿àª Ł
j n
ĠØ¯ ÛĮ
Ġni gbagbogbo
Ġori sun
à°Ł à°¿
Ġap áº¹ráº¹
Ġa á¹£áº¹
ffe e
iá»ĩ t
m p
ÑĤ Ð²Ð°
Ð´ Ðµ
Ã³ Ì£
à®° à®¿à®¯
áĢĽáĢ¾ áĢĦáĢº
Ð» ÐµÐ´
«à¸¥à¸ ±à¸ĩà¸
èģ ĺ
Ġè® ©
9 5
à¸Ńà¸ Ķ
éĥ¨ åĪĨ
è »
Ġè °
à¹ģà¸ «
à¹Ģà¸£à¸µà¸ ¢à¸
é ¸
ç ĵ
å® ĥ
3 4
Ġ3 2
à¹ĩà¸ ģà¸
¹ à¹Īà¸
åį «
à¥įà¤¯à¤¾à¤¸ à¤¾à¤łà¥Ģ
à¤ļ à¥įà¤
j ÃŃ
Ġho re
ĠáĥĵáĥĲáĥ ĺ
áĢķ áĢ¶áĢ¯
Ľ áĢ²áĤķ
áĢľ áĢ¾
×Ļ× Ĳ
ĠÕ ¥
k Ä±
àµģà´ ¦
à§ģ à¦ķà§įà¦¤
ta a
ĠÐłÐµÑģÐ¿ÑĥÐ±Ð»Ð¸Ðº Ð°ÑģÐ¸
ĠÐ´Ðµ Ð±
ĠÐ¶ Ð°Ð¼
Ð°Ñħ Ñģ
Ð»Ð°Ñģ Ñı
ï ½
ĠP i
Ġâ ĺ
íĶ Ħ
ĠáĢ¡ áĢĻáĢºáĢŃáĢ³áĢ¸áĢŀ
áĢ±áĢķ áĢ¼
Ġá»į kunrin
Ġy ÃŃ
Ġc Ã´ng
áĥĺáĥĹ áĥ®
Ġàªľ à«ĭ
Ġà°¤ à±Ģà°¸
Ð³ ÑĢ
ĠÚ©Ø± ÙĨÛĴ
áĥĶáĥĹ áĥĺ
re i
ĠØ¯ Ø§Ø±
el l
si on
à¯ģà® £
Ð± Ð°ÑĢ
áĢĻ áĢļáĢ¹áĢ·
áĢķáĢ« áĢŀáĢĬáĢº
Ġà¤¬ à¤¨
Ã¼ k
ĠÐĴ Ñĭ
ĠáĥĹáĥ¥ áĥķáĥĶáĥľ
Ġà°ī à°Ĥà°¡
à´²àµįâĢį à´ķ
ì¶ľìŀ¥ ìķĪë§Ī
ìŀ Ħ
à´£ à´®
ĠP o
Ñħ Ð¾Ð´
à¦ª à¦°
ĠÒĽ Ð¾Ð»
Ð»Ð°ÑĢÐ¸ Ð³Ð°
Ð°Ð» Ð°Ð±
Ġà®ħ à®¨à¯įà®¤
ë§Ī ìĤ¬ì§Ģ
Ġâ Ļ
te m
ìļ °
ĠC a
Ġà´® àµĤ
ĠR o
Ñĺ Ð°
ÑĪ ÑĩÑĭ
ĠÑĪ ÑĥÐ½
Ġàªª àª¡
Ġoni bara
ki yesi
ĠÐ² Ð¸Ð»
Ò³ Ð¸
à¦¾à¦ ¥
uru fu
Ġà¤ľ à¤¾à¤¤
à´¾à´¤ àµĨ
ĠÂ £
Ġof urufu
Ġcom p
áĥĶáĥļ áĥ¡
¡ Â
Ġb áº¡n
Ġá»į dá»į
Ðº Ñģ
R I
Ġh áº¹
Ġk in
Ġom o
Ðº Ðµ
Ġà® ²
Ø± Ø©
Ġt Äģ
ba i
bo ju
l d
áº¹n u
ĠÐ¿ Ð°ÑĤ
Ġ1 00
á»į rá»į
Ġa f
Ġrá»į run
Ġa wu
Ġa po
igh t
láº¹ yin
Ġi bu
à°ªà±įà°ª à±ģà°¡à±ģ
à«Ģàª ľ
Ġáº¹ n
Ä± l
ĠA r
×¨ ×Ĳ
w ari
Ð¾Ð»ÑĮ ÐºÐ¾
Ġip iláº¹
ilo ju
ĠL áº¹
Ġìľ Ħ
ĠáĥłáĥĿáĥĴ áĥĿáĥłáĥª
à´¿à´ķàµįà´ķ àµģà´Ĥ
ĠØ¯ ÙĪ
Ġso ke
Ġo ruká»į
L E
ĠV i
Ġti ti
ĠBa wo
ĠH ome
Ġs iláº¹
ĠA W
Ġfun 88
an d
Ġy áº¹n
ÑĤÑĮ ÑģÑı
Ð½Ð¾ Ñŀ
Ġk er
oo k
p s
Ġni báº¹
ĠOlu wa
Ġi wá»į
Ġf á»į
Ġà®®à¯ģà® ©
cz e
a ts
Ð¸ÑĤ Ðµ
ĠL u
Ġà¦Ĺ à§įà¦°
Ġa fáº¹
Ð¼ Ð¸Ð½
Ð¶ Ð¾
Ġà¤® à¥Ī
Ġáĥĵ áĥĲáĥķ
Ġà´¤à´¨àµįà´¨ àµĨ
Ġàª¹àª¤ à«ĭ
áĥĲáĥłáĥ ¡
à°¿à°¤ à±ĩ
Òĵ Ð¸
Ġn on
á»Į N
ĠK á»į
ÑĤÑĭ Ñĩ
il ÉĻr
Ġgbi gbe
ĠÐ¼ Ð¾Ð´
Ġà´¸ àµĨ
Ġi ho
Ġiá¹£e duro
Ġi pele
Ġitá»į ju
lar a
P A
Ġ ă
ĠE n
Ð¸Ð» Ð¸
Ġgb á»įn
à¥ĩà¤ ĸ
Ġá»Įlá»į run
en i
ĠÐĲ Ð»Ðµ
Ñĸ Ð»
Ġisa láº¹
Ġe mi
Ġir iri
áĥĺáĥ¡ áĥĲ
si a
ĠØ§ÙĦØ ®
à¯Īà®ķ à¯į
Ġn agy
Ð Ķ
Ġà¦ķ à¦®
a ye
à´¿à´¯ à´¿à´²àµįâĢį
Ġà´ķ à´£àµįà´Ł
Ò³ ÑĥÑĢ
Ġ201 3
ng e
ar á»į
Ġá»Į má»į
Ú¯ Ø§Ùĩ
Ġolu mulo
er o
Ġp ari
w in
Ġà°ħ à°§
E N
il l
Ġo j
ĠÐ² ÐµÑĢ
ÛĮ ÙĦ
ĠA m
Ġà¤² à¥ĩà¤ķ
áº ½
Ð»Ð¸ Ð¹
ĠÐ´ Ð¸
Ġ Å¾e
×ķ× §
ĠÑı Ðµ
áĥķ áĥł
Ġaa bo
báº¹ si
Ġk ere
ĠçĻ ¾
Ġk8 å¨±ä¹Ĳ
Ġä¸ ľ
à¤ ĥ
Ġa ba
à«ĭ àª°à«įàª
à´¤ à´¿à´°
ĠìĿ ĺ
à¦¨ à¦¿
báº¹si báº¹
já»į ba
à±įà° ·
àµĭ à´ķ
Ġv wáº¹
káº¹ láº¹
Ġá¹¢ ugbá»įn
Ġi ja
ÑĪÑĩ Ñį
áŀ Ħ
åŁ ¹
äº§ ä¸ļ
à¤¾à¤Ĥà¤ļ à¥Ģ
áĥķáĥĶáĥ §
§ à¸´
o ro
tu u
Ġbe ere
Ġãĥ »
ĠI má»į
Ġto bi
ĠE le
Ġkan na
ĠL es
Ġayá»į káº¹láº¹
ĠO ri
ĠW i
ÙĬ Ø³
wan re
ye le
iyan ju
Ġà¹Ģà¸ ĩà¸´à¸Ļà¸
Ġà¸ ģà¸²à¸£
ŀ à¸²à¸
¥à¸ ·à¸Ńà¸
à¹ģà¸ Ĥ
à¸Ļà¹īà¸ ³à¸
à¸µà¹Īà¸ ¢à¸
ªà¸³à¸« à¸£à¸±à¸ļà¸
´ à¸Ļà¸
å¥½ çļĦ
ĠãĢĳãĢĲãĢĤ ãĢĳãĢĲ
«à¹ĩ à¸Ļà¸
çİ¯ å¢ĥ
µ à¹Īà¸
Ġà¤¶ à¤ķ
Ġá»į lá»į
Ġà®¤ à¯ĩ
Ð ķ
à°¿à° Ĺà°¾
ÑģÑĤ Ð°Ð²
àª° à«Ĥ
a k
à¤¾à¤ Ĥ
áĢĦáĢºáĢ¸áĢ Ľ
ĠC om
Ġti ta
á»į pá»į
Ġi tu
Ġà´ ³
à´¤àµįà´¤ à´¿à´²
Ø³ ÙĦ
ĠDu bai
ĠI á¹£áº¹
ĠG ba
iran á¹£áº¹
i di
Ð°ÑĢÑĭ ÑģÑĤ
ĠÑħ Ð¸Ð·
Ġigb esi
it y
Ġà¤ħà¤ª à¤¨à¥ĩ
Ġid agbasoke
Ġv wá»į
Ġ à²
Ġmáº¹ he
oru ba
Ġaso pá»į
Ġgbá»į dá»į
Ġà¦¸à¦® à§įà¦ª
ìĦ ¸
ĠH e
ĠáĥĹáĥĲáĥķ áĥĺáĥ¡
y áº¹n
Ñĳ ÑĢ
p er
ĠI gb
L A
i má»į
torin a
Ġs un
Ø§Øª Ú¾
ĠáĢŀ áĢ®
à°¯ à°Ĥ
Ñģ Ð»Ð¸
ĠáĢŀ áĢĲáĢŃ
Ġi yan
Ġe gbe
ŀ à¯įà®ļ
Ġy á»į
Ġà´° à´¾à´ľ
á»Ļ i
áĢĻáģ¼ áĢĲ
áĢĻ áĢ®
ow y
áĥķ áĥĶ
Ø§Ø¯ Ùĩ
t la
Ġidi yele
Ġe e
Ð¸ÑĢ Ð¸
ĠÂ» ,
il á»į
ĠáĥĽ áĥĶáĥ¢
à¤¿à¤ ¶
ĠT ra
à«ģàª ľ
Ġm ar
d s
l Ã¡
Ġà¦¸ à¦¬
íķĺ ê³ł
Ġà®İ à®¤
Ġà°ªà±įà°° à°Ń
×ķ× ¢
ĠÐºÐ¾ÑĤÐ¾ ÑĢÑĭ
Ø± Ùĥ
Ġàªª à«ĭàª¤
áĢĻáĢ½ áĢº
áģ Ĩ
m is
á»ĳ ng
ÒĽ ÑĤÐ¸
ÑĮ Ð½Ñı
ĠÐľ Ñĸ
ĠáĢ±áĢĽ áĤĬ
áĢĲ áĢĲáĢ¹áĢ
áĤ ģ
áĢĻ áĢĽáĢ½áĢŃ
ĠáĢ»áĢķ áĢĶáĢ¹áĢľ
áĢļáĢ¹áĢ Ĳ
áĢĻáĢ»áĢŃáĢ¯áĢ¸áĢ ŀ
à°¾à° ¶
ĠØ¬ Ø³
ĠÐ³ Ð°Ð´
Ġà´ĩ à´¨àµįà´¤àµįà´¯
ĠáĢħ áĢħáĢº
ãģ ĳ
g le
áĥĺáĥ ĳ
báº¹ ráº¹
Ġe le
à¦ ·
Ġàª° àª¾àªľ
Ġà´® à´¾à´¤àµįà´°
Ð¸Ñı ÑĤÐ¸
Ġche ats
c ts
Ġido go
Ġy en
Ġme je
Ġà®® à¯Ĥ
ft ware
Ġag b
à°¿à°¯ à±ģ
Ġà¤Ń à¤¾à¤°
a v
à¥ĭà¤ Ĥà¤
un k
ĠÑī Ð¾
Ð½Ñĭ Ð¼Ñĸ
Ú ĺ
ìľ Ħ
áĢŃáĢ¯áĢĦáĢ¹áĢ ĽáĢ¬
áĢĲ áĢĬáĢ¹áĢ¸
ĻáĢ½ áĢĲáĢ¹áĢ
áĢı áĢ®
ĠáĥĽáĥĺáĥ¡ áĥĺ
Ġàª® à«ĩàª
à´¾à´¨ à´Ĥ
ÑĥÒĽ ÑĥÒĽ
Ġv ai
ĠáĢŀ áĢŃáĢ¯áĢ·
Ġv an
Õ¸ÖĤ Õ¶
Ġol un
Ð» Ð¾Ð²
Ñĩ Ð¸Ð»Ð°ÑĢ
Ñģ Ð¾Ð½
Ġ ÅĽ
Ġà¦¬à¦¾à¦Ĥà¦² à¦¾à¦¦à§ĩà¦¶
Ġà¦¯ à§ĩ
ÑĥÐ± Ð»Ñĸ
Ð¾ Ð¿
ĠØ§ÙĦ Ùĥ
Ã« m
Ġà´µà´¿à´ µ
ĠC hin
Ġí Į
Ġà®ĩ à®Ł
Ġoti tá»į
Ġala ba
ĠâĢ ¢
Ġn wá»įn
Ġo ko
t to
áĥĺáĥ «áĥļ
ĠÐ´ Ñį
á» ī
Ġà¤ľ à¥ĭ
Ġà´¨ à´¿à´²
àª£ à«Ģ
ĠÛģ ÛĮ
Ð½ Ñİ
Ġa á¹£
is a
Ġel Åĳ
à¨¾à¨ °
æľĢæĸ° çĻ»å½ķ
ä¸į åĲĮ
Ħà¸£à¸ ±à¹īà¸ĩ
è· Ł
ä¸ ¥
Ġà¸ §à¸±à¸Ļà¸Ĺà¸µà¹Ī
Ħ à¹Ī
Ľ à¸µ
æĤ ¨
é»ĳ å¤§æĪĺ
Ġï¼Į âĢľ
åī ¯
ģà¸ ¥à¸²à¸
ª à¸Ļà¸
à¹ģà¸ Ĺ
Ġç Ń
ç» ¼åĲĪ
ç® Ģ
è® ¿
Ġà¤® à¥Ģ
ĠA ra
ĠÑŀ ÒĽ
ĠÐ½ Ð°ÑĦ
Ġo á¹£u
ĠÎ¼ Î·
ÏĥÎ¹ Î¼Î¿
ĠÎº Î¿
Ïģ Î¸
ĠÎĳ Î½Î±
Î» Î¿Ïħ
ÏĦ Î®ÏĤ
ÏĦÎ¿ Î½
Ġ ~
Î¹Îº ÏİÎ½
Î»Î¿ Î¹
ÏĥÎºÎµ Ïħ
Ïĩ Î±Î½
ÏĦ Î¹Î±
Î³ Îµ
Î Ķ
ĠÎĶ Î¹Î±
ĠÏħ ÏĢÎ¬ÏģÏĩ
ÎĻ Îĳ
ĠA D
ĠØ® ÙĪØ¯
ĠÎł Îµ
ĠÏĢ ÏīÏĤ
ĠÎ² Î±
Î· Î³
Î»Î¿ Ïį
ÏĨ ÎŃÏģ
Î¾ Îµ
ÏĦ ÏģÎ±
ĠC ym
Ġká»į á»įkan
Ġm bi
Ġá¹£ aaju
Ã¨ Ì£
Ð¸ÑĤ ÐµÐ»ÑĮ
×ķ× Ĺ
ĠÏĦ ÏĮ
Ïĥ Ïĩ
Îº Î®
Î¾ Î¹
Î¼ÏĮ ÏĤ
Î¼Îµ Î½
ĠÏĢ Î¬
Î ĵ
Î¬ Î¶
ÏĦÎ® ÏĥÎµÎ¹ÏĤ
Î»Î» Î±
ÏĦ Ïģ
ÎĻ Î£
ĠÏĨ Î¿
Î½ Î®
ÏĦÎ¹Îº Î®ÏĤ
ÏĨÎ¿ ÏģÎ¬
Î´ Î¹Î¬
ÏĥÏĦ Î¹Î±
.. .
ĠÎĿ Î¿
ĠÎĶ ÎµÎ½
ĠÎ ŀ
Ġf f
è®¾ å¤ĩ
ĠæĽ ´
åº §
Ġag äºļ
éĢ Ĥ
Ġ Ć
¡à¸ ±à¸Ļ
å¸ ģ
çļĦ äºº
ªà¹Īà¸§ à¸Ļà¸
Ĺà¸ ĺ
Ġà¤¨ à¤µ
mÉĻ t
à´¿à´° àµģà´¨àµįà´¨àµģ
áĥĲáĥ Ķ
Ð°Ñİ ÑĨÑĨÐ°
Ùħ ÙĨ
ĠÐºÐ°ÑĢ Ð´Ð°
Ġê ¹
èı ľ
å¸ Ń
çİ° åľº
åĸ Ħ
u u
çĶŁ äº§
Ġå¤§åıĳ äºĮ
æī §
·à¹Ī à¸Ļ
å® £
à¤¡ à¥ĩ
Ġà´¨ à´²àµįâĢįà´ķ
à´¤àµįà´¤ à´¿à´¨àµį
à®© à¯Ī
í Ĵ
Õ¡Õ ¿
Ġ Åŀ
§ à«Ģ
áĥĶáĥĳ áĥĶáĥļáĥĺ
à¦¤ à¦¾
ÑĤ Ð¾Ð¼
Ġn y
g li
ti g
j in
ãĥ³ ãĥ
Ġh u
ĠE uro
à®£à¯įà®Ł à¯ģ
Ġvi en
ķ áĢº
áĢ¬ áĢĢáĢŃáĢ¯
a nh
ju we
Ġde ede
Ð°Ð´ Ð·Ðµ
Ø ¥
Ø§ÙĨ ÛĴ
ti ri
Ġ, +
Ġaá¹£a yan
Ġako onu
á¹£e pá»į
ĠìĦ ľ
O R
Ġap áº¹
Ġa wa
áĥ§ áĥķ
áĢ°áĢ¸áĢ Ĳ
ir isi
ģ à¸£
åĪĨ æİĴåĪĹ
åħ °
ĠåĽ½ éĻħ
Ġ ä¼
Ġé ĵ
åĨħ å®¹
Ġæī ĳåħĭ
Ġå¥½ è¿Ĳ
ç´ ¢
Ġà¤² à¥ĭà¤ķ
áĢĽ áĢĦáĢ¹áĢ¸
áĢĶ áĢ®
Ġs ara
ĠA p
ĠG a
ma sÄ±
à´¿à´ķàµįà´ķ àµį
l owo
Ð² ÐµÑĢ
a bo
Ġâ Ĥ¬
Ġi ni
Ġif áº¹
Ã² Ì£
à¥įà¤ ¦
áĥĲáĥ¨ áĥķ
à« Į
Ġáĥł áĥĲáĥª
ne j
¯ à§ĭà¦Ĺ
le ng
à´ª àµįà´°
áĢŃ áĢĶáĢ¹áĢ
à®¿à® ª
Ðµ ÑĢÑĭ
et te
Ġì¹´ ì§Ģëħ¸
áĢģáĢº áĢĻáĢ¹áĢ¸
ĶáĢ¾ áĢĦáĢºáĢ·
áĢ¬áĢ¸áĢ ķáĢ«
ìķ ½
ĠÙģ Ø±
Ġm Ã¡r
à¤¿à¤Ĥà¤ Ĺ
Ġn Ãły
Ġw er
Ðµ Ðµ
àµįà´ ķ
áĥĺáĥ£áĥł áĥĺ
ĠÐ¼Ð°ÑĬ Ð»ÑĥÐ¼
Ġki kun
Ġbi i
ÑĨÑĭ Ð¹
ì ¡°
Ä± m
×ķ× ¡
áĢ¼ áĢĢáĢ¹
ĠáĢŀáĢ° áĢĲáĢŃáĢ¯áĢ·
Ã¡ ban
ÑĬ ÑĢ
el le
à§ģ à¦¬
ĠÐ¼Ñĥ Ð¼
ĠG bi
p á»įn
Ġiá¹£a koso
Ġati láº¹yin
Ġo gun
áĢĶáĢ¹ áĤĢáĢĢáĢ®áĢ¸áĢ
áĢĲ áĢĶáĢº
ĠÑŀÑĤ ÐºÐ°Ð·
ĠÐº Ð¸ÑĪ
à±ĭ à°¤
à«įàª ¨
Ġë į
à®® à®¾à®©
Ð ¥
ĠÑĪ Ðº
ÅĻ e
ĠÏĩ ÏģÎ·
Î¼ ÏīÏĤ
Î¼ Î¼Î±
ÎµÎ¯ ÏĦÎµ
ĠÏĩ ÏģÎ®
ĠÎ» ÏĮ
ÏĦ ÏĥÎ¹
ĠÏĮ Î»
Ïģ ÎµÎ¹
Ġs y
ĠØ§ÙĦØ µ
ĠÃ§ ox
Ġáĥ¨ áĥĶáĥľ
ĸ à±įà°¯
ĠÐ°ÑĤ ÑĢÑĭÐ¼
áĢĳ áĢ¯
ĠÙ¾ Ûģ
ow ie
áĢĻáĢº áĢ¸áĢĻ
Ġáº¹ láº¹
áĥ£áĥ ĵ
v u
à«Ģàª ¸
il or
ĠG oo
U R
Ġy ou
Ġy et
káº¹ ká»į
Ùĩ Ø±
ĠS ho
Ġayi ka
in di
Ġà¤® à¤¿à¤²
am áº¹
lu we
K O
Ġo ye
Ġà¦ħ à¦Ń
Ġà´ľ à´¨
ng ba
Ġo s
Ġo ja
Ġs ont
Ã¬ n
à±įà° ¬
Ġáĥ¡áĥĲáĥ® áĥĶáĥļ
ÑĤÐ¸ Ð²
yan mar
ľ áĢ½
ĠÐ³ ÑĢÐ°Ð¼
jn Ã«
Ġàª® àª¾àªĤ
áĢĶáĢ¹áĢ ±áĢĲáĢ¬áĢ¹áĢ
áĢļ áĢ·
áĢ®áĢ¸áĢ ļ
Ð½Ñĸ ÐºÐ°
à¥ĩ à¤°
Ġ àµ½
áĥĲáĥł áĥĶ
Ð°Ð»Ð°Ñģ Ñı
ÑĥÐ² ÑĩÐ¸
Ð¾ÑĢ ÑĤ
ĠÙĩ Ø§
ĠÑģ Ð¾Ð»
Ġà¦¸ à¦°
ãĤ ¢
an o
à°Ĥà° §
Øª Ùĩ
ê³ µ
Ľ áĢĦáĢ¹
ĠáĢĲ áĢŃáĢ¯áĢĢáĢ¹áĢ
áĤ ĲáĢ¼
áĢľ áĢº
er en
Ġv is
ĠØ º
Ġà´ļ àµĨ
ĠÐ· Ð°Ñħ
Ġ Ð°Ò³
Ġà¤ķ à¥ĭà¤
un e
àª¾àª¨ à«ĩ
w ia
Ð´Ð°Ð½ Ð´
Ġà¦¦ à§ĩà¦¶
Ġs k
Ġà®ļ à®¿à®±
áĥĲáĥ® áĥļ
ÑĢ Ð°Ð²
à±ģà°¤ à±ģà°¨à±įà°¨
Ġtá» «
áĢħ áĢĽáĢ¬
ÉĻn i
Ġle g
Ġ× ¦
e ng
ĠØ¨ ÛĮ
ĠáĢĻ áĢĽ
Ġà°Ń à°¾à°°
áĢķáĢ¼ áĢ±áĢ¬
Ġàªľ à«ĭàª
ĠæĿ İ
å·¥ ç¨ĭ
ªà¸ §à¸
åıĤ èĢĥ
ª à¹Į
å¤© å¤©
à¹Ģà¸¥à¸ ¢
ä» ħ
à¥ģà¤ ĸ
ĠÐ· Ð°Ð±
ê ´Ģ
à´¿à´ķàµįà´ķ àµģà´¨àµįà´¨àµģ
à±ĩà° ¤
lo v
à¦¿à¦ ª
ķáĢ« áĢŀáĢĬáĢ¹
áĢģáĢ» áĢ¯áĢķáĢº
áĥĶáĥ¡ áĥĺ
ĠÑģ Ð¼
ĠØ¨ ÙĨ
Ġo der
à· Ĵ
à¤ķ à¤¾
Ġa pp
à±ģà°ķ à±ģà°Ĥà°Ł
à®Ł à®¿
Ġv ar
»áĢĸ áĢħáĢ¹
ĠáĢĢáĢ¼ áģ½
áĢ¡ áĢĲáĢ¼áĢĦáĢ¹áĢ¸
áĢ° áĢ¸áĢŀ
Ġta k
Ġì Ľ
ĠÐ´ Ð°Ð¿
Ġhttp s
ÏĦÎ¹Îº Î¿Ïį
ÏģÎ¬ ÏĨ
ÏĢ ÎŃ
ĠÎ¬ Î½
ÏĨ ÎŃ
ĠHo tel
Ġc yn
Ĭà¸ ·à¹Īà¸Ńà¸
à¤Ĥà¤ ļ
àª¾àª ¶
ĠÐ½ Ð¾
ľ áĢŃáĢ¯áĤĶ
áĢŃ áĢ½
áĢĹ áĢºáĢ¬
áĢĲáĢ½ áĢ±áĢ·
Ġà°®à°° à°¿à°¯à±ģ
áĥĲáĥł áĥĺáĥ¡
à¦¿à¦ Ľ
Ġà®ĩ à®²à¯įà®²
ÈĻ te
Ħ à¸²à¸£
åľ Ł
Ġ4 7
å¤§ åİħ
è Ĵ
áł¤ áł
¶à¸ ĩà¸
èª ī
é Ń
Ġ5 åĪĨå¿«3
Ġà¤ªà¥įà¤° à¤¤
ÙĦ ÛĴ
ĠÐ· ÑĮ
ĠÐ± ÐµÐ»Ð°ÑĢÑĥÑģ
ĠÐº ÑĢÑĭ
à´¿à´ ·
ĠÃ Ń
il ÉĻ
h lo
Ġ×Ķ× ©
Ġàª¥ àª¯
ĠáĢ¡ áĢ±áģ¾áĢĢáĢ¬áĢĦáĢ¹áĢ¸
áĢ¯áĢŃ áĢĦáĢ¹
áĢĶ áĢ±áĢ
Ġ Ð°Ð³
Ġà®Ĩ à®©
ĠáĥĶáĥłáĥĹ áĥĺ
Ġ ent
Ð¾ÑĤ ÑĢ
Ġs Ãº
ÙĬ Ø§
Äĥ r
ti t
çº¿ ä¸Ĭ
æ¼ı æ´ŀ
Ĭà¸µà¸ §à¸´à¸
Ġç« ŀå½©
0 6
å¼Ģ å§ĭ
3 åĪĨå½©
Ġå¤§åıĳ ä¸ī
åĩ ı
çĽ¸ åħ³
å® ¾
æĻ ļ
åĪĨéĴŁ æĹ¶æĹ¶å½©
¢ à¸´
åİ Ĥ
à¸Ńà¸²à¸« à¸²à¸£
ĵ à¹Įà¸
Ġå¿« 3
Ġç» ı
æĹ ©
· à¸Ńà¸Ļ
à¥ģ à¤¸
ê¸ Ī
Ð»Ñĸ Ð²
ĠáĢħ áĢ¯
d Åĳ
Ļ áĢŃ
áĢ¼ áĢĦáĢ¹
áĢĲáĢħáĢ¹áĢ ģáĢ¯
áĢĲ áĢŃáĢ¯
Ġp ra
Ð°Ñ ī
Ð· Ñĭ
l la
ãĥ³ ãĤ
Ã¡ i
íĸ ī
Ñĥ ÑĩÑĭ
àµģà´ ²
Ġapáº¹ áº¹ráº¹
Ġáĥŀ áĥĺáĥł
ĠK ini
Ġen áº¹
om i
d ari
à¦¨à§įà¦ §
áĢľ áĢĻáĢ¹áĢ¸
áĢĽ áĢĲáĢ¬
ĠáĢĻ áĢ¾
Ġg un
ĠàªĹ àª¯
ĠØ¨ Ú¾
Ġatun á¹£e
Ġká»į ja
Ġa kiyesi
à´¯ à´¾à´³
Ġwhen ue
ĠMo bile
êŀĮ o
Ġyet á»įn
ĠY i
tá»į ju
ka ti
Ġsu gbon
ĠÐ±Ñŀ Ð»Ð¸Ð±
ĠÑĤ Ð°Ð´
§à¸´à¸ ĺ
Ġåį ģ
Ġä½ ¿
Ġ5 4
Ġà¨ ħ
åĳ ³
33 3
å® ģ
è½ »
ĠçĶ ±
Ġçİ¯äºļag 88
é¢ Ŀ
åį ĥ
Ġà¸ĭà¸¶ à¹Īà¸ĩà¸
é¤ Ĳ
ç ĩ
ä¸Ĭ çļĦ
Ġć Ĉ
æ ĩ
m l
è¿ °
å¨±ä¹Ĳ å¹³åı°
éªĹ å±Ģ
æĶ »
® à¥ģà¤³à¥ĩ
ĠÐ¼ÑĥÐ¼ ÐºÐ¸Ð½
ĠR i
àµĭ à´³
à¯ģà® ²
am e
Ø§ÛĮ ÛĮ
ar o
ĠÙ¾Ø§Ú© Ø³ØªØ§ÙĨ
Ġya tá»į
ĠY ou
á»įn u
ÑĪ Ð°Ð²
Ġd ownload
p an
ÙĦ Ø§Ùħ
ĠÐ´Ð·Ñı ÑĢÐ¶
Ġàªķà«ĭàª Ī
à¦¾à¦¨ à§įà¦¤
ĠáĥĽ áĥĿáĥľ
Ġnu he
Ġo o
Ġ áĤĢáĢĢáĢŃáĢ³
ĠáĢĻ áĢ»
O S
Ġoni we
ĠKáº¹ wa
Ġgáº¹gáº¹ bi
Ġláº¹ po
Ġa b
ĠØ¨ Ûģ
Ð°ÑĢ Ð°Ð´
à¤¾à¤¨ à¥Ģ
ris ti
pa má»į
Ġipin nu
ĠI wá»įn
táº¹ táº¹
ĠÃ ±
B A
Ġï¿½ï¿½ï¿½ï¿½ï¿½ï¿½ï¿½ï¿½ ï¿½ï¿½
Ġgbi gba
Ġá»įmá»į de
Ġi bara
ĠÃ Ģ
ÑĤ Ð°Ð¼
áĢĲ áĢĬáĢº
ÑģÐº Ð¸Ð¹
Ġà®® à¯Ģ
Õ ½
Ġo lan
Ġà´ľ àµĢà´µ
áĥĲáĥ §
Î»Î» Î·Î½
Î½ Î¹Î±
Î´ Ïħ
ĠÎµ Î³
ÎŃ Ïĩ
ĠÎºÎ±Î» ÏįÏĦÎµ
Ġe u
ĠN h
Ð°Ñ Ĺ
in t
à¹Ģà¸¥à¸ ·à¸Ńà¸
ĠâĢ¦ âĢ¦
¢ à¹Ģà¸
à¥įà¤¹ à¤¾
×Ļ ×Ļ×Ŀ
àª¸ à«įàª¤
ì ¶Ķ
Ġà¦® à¦§à§įà¦¯
Ġà´ §
Ð² Ð¸
Ð°ÑĢ Ð¼
áĥĺáĥľ áĥĺáĥ¡áĥ¢
íĶ ¼
Å¡ i
ci on
áĥĲáĥ¥ áĥ¢
àµģà´ ¨
áĢ»áĢķ áĢĦáĢ¹
ĠáĢ¡áĢĨáĢŃáĢ¯ áĢķáĢ«
ÙĤ Ø©
áĢģ áĢ²
ĠÑĤ ÑĢÑį
Ġìķ Ī
Ġà¤² à¥ĭà¤Ĺ
rz y
à¯ģà®ķ à®³
ĠâĢĭâĢĭâĢĭ âĢĭ
àµĤ à´ª
a te
áĢĻ áĢĬáĢ¹áĢ
ĠáĢ¡ áĢ²áĢ·
áĥĽ áĥĺáĥ¡
áĢĶ áĢļáĢ¹áĢ
ĠáĢģ áĢĽáĢ®áĢ¸áĢ
ÑĤ Ð¾Ð²
ka l
m es
Ġ àµ¼
àµĥ à´¤
è¾ ħ
å½± åĵį
Ġà¤ħà¤¸ à¥ĩ
Ðº Ð¾Ñŀ
ĠØ¢ Ù¾
h en
àª¾àª° à«ĭ
ê² ½
Ġh á»į
ĠÃ¶ z
ĠÐł Ñį
ĠÑĤ ÑĥÑĪ
ĠÑģ Ð¾Ò³
ÑģÐº Ð¾Ð¹
áĢĢáĢ¼ áĢļáĢ¹áĢ
Ģ áĢ¯áĢŃ
áĢĢ áĢ±áĢĶ
áĢ¸áĢĻ áĤĪ
ĠáĢĲ áĢŃáĢ¯áĢĦáĢ¹áĢ¸
±áĢĽ áĢ¸áĢ
áĢķáĢ« áĢķáĢ²
ĠÐ³ Ð¾Ð´Ð°
áĢľ áĢĦáĢ¹áĢ¸
ĠáĢħ áĢ®áĢ¸áĢķ
à¦¾à¦ Ĥ
ĠáĥĴ áĥĲ
àµģà´ķ à´¯àµģà´Ĥ
áĢ¬áĢ¸áĢ ģáĢ²áĢ·
Ð½Ñĸ Ñĩ
íķ Ļ
Ġå¥ ¹
Ġè ¾
åĿ ļ
å¹ ķ
ķà¹Īà¸²à¸ ĩ
à¸£à¸µà¸ §à¸´à¸
èµĦ æºĲ
æ¹ ĸ
åĪ° äºĨ
à¤ļ à¤¾
te ur
ĠÐ¾ ÑĪÐ¸ÑĢ
ĠÑį ÑĬ
à±įà°¯ à°Ĥ
g ra
b un
Ùħ Ø©
Ġita táº¹táº¹
l is
Ġo pin
Ġav wanre
s á»įna
h á»įlu
Ġyi o
Ġà¤ķà¤¹ à¤¾
àªĤ àªķ
d áº¹
áĥĲáĥª áĥĺáĥĲ
ĠÚ©Ø± Ø¯
ãĤ Ī
Ðº Ð»Ð°Ð´
Å¡ ÃŃ
ÐĲ Ðł
ĠÐ¾ Ð¼
à§ģ à¦ķ
Ã©n ye
Ðµ Ð¶
ëª ħ
Ġá¹£e to
Ġp áº¹
Ġà°ķ à°¾à°¨
éĵ¾ æİ¥
æ¹ ¾
çļ ĩ
à¹Ħà¸Ķà¹ī à¸£à¸±à¸ļà¸
Ġà¸ ¡à¸µ
à¹ĥà¸ ª
Ġà¤Ĩ à¤®
áĥĶáĥ ¤
Ð¼ Ñı
áĢħ áĢīáĢº
Ä± b
Ġàªı àª®
à¤¤ à¥įà¤°
Ðµ Ð³
à¯ģà®µ à®¤
à¦¨ à¦¾à¦°
×Ļ× ¢
zi oni
Ä±n a
Ġd z
à«ĭ àª¨
ĠÐ ģ
Î½Î± Î½
ĠÎ± Ïģ
Ïĥ ÏĦÏĮ
Ïĥ ÏĦÎ®
ÎĳÎ ¤
Î¯ Ïĥ
ĠÎµÎº ÎµÎ¯
ĠÎ¼ÎŃ ÏĥÎ±
ĠÏĨ Ïī
ÏĦÎ¹Îº ÏİÎ½
ĠÏĩ Ïİ
ĠÎ±Ïħ ÏĦÎ¿
ĠÎ¼ Î·Î½
Îķ Î£
Ġr h
à±ģà°ķà±ĭ à°µ
áĥĺáĥ£áĥ ļáĥĺ
Ġag æīĭæľºå®¢æĪ·ç«¯
å· ®
æĹ¶ åĢĻ
æĹ ı
å ĺ
ŀ à¸£à¸
Ġå¤©å¤© ä¸Ńå½©ç¥¨
å¤Ħ çĲĨ
Ġæ Ħ
7 5
à¤¦à¥įà¤ §
ĠÒ³ ÑĥÒĽÑĥÒĽ
ĠØª Ø¹
à´¿à´ķàµįà´ķàµģà´¨àµįà´¨ à´¤àµį
Ġs au
ĠÃ¼ ber
Ã¼n k
Ã¤ h
Ð´ Ð°Ð¹
ĠÐĲ Ð»
ÃŃ a
ĠáĢ¡áĢĵ áĢŃáĢĢ
Ġma is
j en
Ġáĥ¥ áĥĲáĥļ
ÑĢÑį Ð´
Ð°ÑĨ Ð¸
Ġí Ĩ
ĠÐĺ Ð½
áĢ¸áĢĻ áĢ½
áĢº áĢ¸
Õ¡Õ ½
Ġs on
Ġàª¸ àª¾àª®
àµĩà´ ĸ
Ġà¤ķ à¤®
Ã© re
ĠØ§ Ø¨
sz y
ĠÑĢ Ð¾Ð·
à§ĩà¦ ľ
à°¾à°Ĥà° ¤
ÙĤ Ø¯
Ġáĥ¥ áĥĲáĥłáĥĹ
áĥĲáĥ ©
h la
áĢ±áĢĽ áĢ¸áĢ¡
ĸáĢ¼ áĢĦáĢ·áĢº
st an
Ġche at
b lu
ĠN u
Ġá¹£áº¹ da
Ġt an
àµģà´®àµįà´ª àµĭ
à®¿à®¤à¯įà®¤ à¯ģ
n Ä«
ÑģÐ¸ Ð´Ð°
ĠÑį Ð´Ð¸
ĠÐº Ðµ
ĠÐ´ Ð¾ÑĢ
ĠP e
à¦¾à¦¤ à§įà¦°
áĥĲáĥķ áĥĺ
Ġí Ķ
Ġba ba
ĠP lus
Ġo dun
Ñĸ Ð»Ñĸ
Ġà®ķ à®²
z za
ĠÐºÐ¾Ð¼ Ð¿
Ġiba mu
à ³
Ġk un
ĠçĶ Ł
Ġ4 5
à¹ī à¸Ńà¸¢
ªà¸ ĸ
éĿŀ å¸¸
Ġd 88
Ġà¤¸ à¤°
ĠT ur
Äĥ m
áĥĲáĥĿ áĥĳ
ĠÚ¯ ÛĮØ§
Ġi P
la ye
Ñĥ Ð»Ñı
g er
ĠE mi
u a
es s
Ġ× ĺ
à´ķàµįà´ķ àµĨ
Ġpaapa a
ng an
Ġidan iloju
li a
Ġàª¤ à«ĩàª
åľ Ī
ç»Ħ ç»ĩ
b s
æĪĲ ä¸º
Ġæĸ° èĲĦäº¬
å® ¡
· à¹īà¸Ļà¸
åĬŁ èĥ½
ç§ ģ
æŃ ¦
Ĺà¸µà¹Īà¸ ¡à¸µà¸
çľŁäºº æ¸¸æĪı
Ŀ à¸
à¹Ģà¸£à¸ ´
åįķ ä½į
Ġçİ ĭ
ç§ »
æĭ ¬
åıĳ å¸ĥ
Ħà¸ ·à¸Ń
å¾ ħ
«à¸Ļà¸ ±à¸ĩ
Ġä¸ ¤
æ¸¸æĪı å®ĺç½ĳ
Ġà¸ «à¸£à¸·à¸Ń
è®¡åĪĴ _
çĶ¨ æĪ·
å° Ĭé¾Ļ
Ġà¤ķ à¤¾à¤¯
à±ģà°ķ à±ģà°¨à±įà°¨
Ġà´ī à´£àµįà´Ł
ĠG reen
Ð½ Ð¾Ð²
h áº¹
Ġa táº¹
ĠNi pa
Ġy o
agy ar
Ġà®ļà¯Ĩà®¯ à¯įà®¯
z z
ĠGoo gle
à§įà¦ Ľà§ĩ
lá»į siwaju
o d
A D
ÃŃt á»įn
Ġbo ya
ĠÐºÑĢ Ð°Ñĸ
ĠMa y
á¹£ Ã¹
Ġà°¨ à±ĩ
Ġà¤¬ à¤¾à¤¦
Ġáĥķ áĥĶáĥł
ie t
Ø§ÙĨ Ùĩ
íķ ł
è ©
è®º åĿĽ
à¹Ģà¸ ĭ
å² ģ
¸à¸ Ķ
à¹Ģà¸¥à¸ ¢à¸
¢ à¹Įà¸
Ġåħ ³
Ġåĩ ¤åĩ°
çĻ¾ å®¶ä¹Ĳ
æİ§ åĪ¶
à¹ĥà¸Ļà¸ ģà¸²à¸£à¸
«à¸Ļà¸ ±à¸ĩà¸
à¤¦ à¤¾à¤°
Ġà¦¨ à¦¿à§Łà§ĩ
ĠáĥĴ áĥĲáĥĺ
Ð´ ÐµÐ»
Ġà°Ĺ à±įà°°
qi p
Ġå¤§åıĳ åĪĨåĪĨå½©
å® ³
Ġæĸ ĩ
Ħà¸ §
áĬ ķ
à¹Ī à¸Ńà¸
c c
æ² Ļ
à¹ĥ à¸Ļà¹Ģà¸
ľ à¸´à¸
Ġà¤¨ à¤¿
Ġed he
ĠØ§ÙĦ Ø±
Ġ??? ??
á¹£ iri
e ji
Ġi yipada
ĠK an
Ġà¦Ľ à¦¿à¦²
Ġw ith
Ġta tuu
ĠY oruba
Ġa ya
in s
ĠáĢĳ áĢ¼áĢĢáĢ¹áĢ
áĢĦáĢ¹ áĤĶ
ĠáĢ¡ áĢ»áĢĻ
áĢķ áĢĲáĢº
ĠU n
ĠI la
Ġso ftware
á¹£i pa
Ġd ona
d in
t ini
om áº¹
la ck
ÉĽ n
Ġi já»įba
Ġi t
áĥľ áĥĿáĥĳ
Ð¾Ð² Ð°ÑĤÑĮ
Ġi ko
Ġo jo
to k
à´¡ àµį
ĠØŃ Ú©
Ġm ÃŃtá»įn
om a
à¯ģà®ķ à®³à¯į
gb in
á»įn i
Ð½ Ð°Ð»ÑĮ
ĠàªĨàªµ à«Ģ
á¹£ipa ará»į
yá»į ri
Ġpi pe
à¤ļ à¥Ģ
ki a
Ġg u
Ġt owe
is á»įrá»į
ĠM áº¹
ĠLáº¹ hin
ĠO ni
Ø² Ø§Ø±
Ġn da
ĠNe w
à±įà° £
__ __
Ð½ Ð°ÑĤ
el á»įpá»į
Ġwa ye
Õ¶ Õ¥ÖĢ
Ä±n Ä±n
ÑĨ ÑĨÑı
ĠÑĥ Ð¼
Ġke ji
×ķ× ŀ
Ġd la
ÙĪ Ø¨
à°Ĥà°¤ à±įà°°
ĠMo re
Ġá»Į já»į
E S
ĠY a
Ġáĥŀáĥĺáĥłáĥ ķ
á¹£iri á¹£i
ç¨ İ
¡ à¸Ļà¸
Ġçľ ĭ
u p
ĵ à¹Į
à¸£ à¹Į
Ġà¹ģà¸ ķà¹Ī
Ġà¸ ¥à¸
å¦ Ī
ä¹ ¡
5 åĪĨå½©
Ġç«ŀå½© è¶³çĲĥæ¯ĶåĪĨ
ĠçĦ ¶
à¤ ĺ
ĠÑĤ ÑĭÐ¼
Ġla báº¹
Ġàª¹àª¤ àª¾
ĠO r
ĠÒĽ Ð°Ð¹
Ð¾Ð½Ð¸ Ð´Ð°Ð½
ĠÑĤ Ð°Ò³
±áĢ¡ áĢ¬áĢĦáĢ¹áĢ
ļ áĢ¬áĢĢáĢ¹
ŀ áĢĬáĢ¹áĢ·
ĠáĢŀ áĢ±áĢĺáĢ¬
áĢĲ áĢ¯
Ð¸Ð½ Ð°
c al
à°³ à±įà°³
Ġy Ã¬
áĢŃáĢ¯áĢľ áĢº
à¤Ń à¥Ģ
ĠÐ´ ÑĢÑĥ
à¦¸ à§įà¦¤
à´¿à´¨ àµįâĢį
l Ã³
Ġne ws
Ġà´ ¨àµįà´
Ġé ķ
Ġag ç½ĳæĬķ
Ġå¤§åıĳ pk10
3 9
à¹Īà¸²à¸ ĩà¸
Ġ5 1
å½©ç¥¨ å¹³åı°
à¸£ à¹Īà¸§à¸
Ġäºļæ¸¸ app
æīĢ æľī
Ġ3 7
éĵ¶ è¡Į
äº ®
è¯ ¢
ĠãĢ Į
ą ï¼Į
Ħà¸ ¥
Ġà¸ Ĭ
à¸Ļà¸ ³
à¥įà¤¹ à¥Ģ
ĠÐ¿ ÐµÑĪ
áĥĲáĥª áĥĺáĥĺáĥ¡
j ÄĻ
ĠØ³ Ú©
áĢĦ áĢļáĢº
Ġà®¨ à®¿à®²
Ġêµ ¬
à°¾à°° à°¿
r Ã¡
Ġà´ª à´¿à´¨àµįà´¨
ĠÐº ÑĸÑĢ
j es
Å¡ u
Ã¡ ng
lÉĻ t
ÏģÎ¯ ÎµÏĤ
Ġu 00
Î´ Î¯
ĠÎļ Î±Î¹
Î³ Î±
Î» Ïī
ĠÃ ¢
áĥľ áĥĲ
Ġà´ª à´¿
à°® à±ĩ
ke ng
ĠÐ¿ Ð°Ð»Ñĸ
à´¾ àµ½
àª¿ àªĤàªĹ
à¦¿à¦ķ à§įà¦·
Õ ´
ca q
Ġà¤µ à¤¾à¤²
Ð½Ð¸ Ð¹
Ð³Ð°Ð½ ÑĸÐ·
ĠÙħ Ø¯
áĥľ áĥĶáĥļ
à¥ģ à¤ª
ĠáĢ±áĢĲáĢ¼ áĤķ
ĠáĢģ áĢ¼
Ġm ul
ÑĤ ÑģÑı
à°¿à°Ĥà°Ĺ à±į
Ġj in
ng ine
b ul
v ie
Ġ201 2
Ġa w
ĠÐ³ ÑĸÑģÑĤ
Ġpo d
à¯ģà® ļ
ĠG e
ÐµÐ½ Ð³
ìŀ ħ
Ġo h
Ġà¦¬à§įà¦¯ à¦¬
à¸Ńà¸ ±à¸
à¸²à¸ ¡à¸
Ġåİ Ł
APP ä¸ĭè½½
æĸ Ĺ
à¤¿à¤ ·
Ġa da
Ð°Ð± Ð°ÑĢ
Ġpa á¹£ipaará»į
Ġid ara
áĢĢ áĢľáĢĬáĢ¹áĢ¸
áĢģáĢ¼ áĢĦáĢ¹áĢ·
áĢ±áĢ »áĢĻ
Ġ.. áģĭ
ĠáĢĽáĢĢáĢ¹áĢ±áĢĶ áĤĶ
áĢĶáĢ¹áĢ¸ áĢĻáĢ¬
±áĢ ĸ
ĠáĢħ áĢŃáĢĲáĢº
ĠN AB
ĠN inu
Ġapa kan
Ġo do
Ġiá¹£ oro
ĠF o
Ġa li
to tt
Ø¹ Ø©
s irisi
ĠáĥĽ áĥĵ
f or
Ġaz o
Ġa fihan
is an
ĠOn line
Ġile ra
is t
ĠÐ¸ Ðº
ĠÑĤ ÑĢ
Ġ×Ķ ×ª
ĠØ¢ Ùħ
çĮ ľ
à¥ĩà¤ ¹
Ġidara ya
ĠáĢĢáĢŃáĢ¯ áĢļáĢ¹áĢ·
áģ ¾
ŀ áĢ¬
ĠáĢ±áĢ¡ áĢ¬áĢĦáĢ¹áĢ
áĢ¬áĢ¹áĢ »áĢķ
ĠáĢ±áĢ¡ áĢ¬áĢĢáĢ¹áĢ
áĢ¡ áĢģáĢ«
h á»į
ĠW á»įn
Ð¸ÑĪ Ð³Ð°
ĠÐ¸ Ð¶
Ð°Ð» Ð°Ð½
àªµ à«ģàªĤ
Ġà®ª à®¯
Ð¼ Ð°Ð³Ð°Ð½
ĠÐ¶ Ð¾Ð¹
ĠÐ¼ ÐµÐ½
Ġo ro
ĀĀ ĀĀ
ãĥ¼ ãĤ
ĠE to
Ġl agbara
ir u
Ġe wá»į
st er
ĠO á¹£Ã¹
Ġi w
ªà¸²à¸¡à¸²à¸£à¸ ĸ
åħ¨ åĽ½
Ġç ¦
æ¿ Ģ
Ġå¤ ļ
Ġçº ¢
ä» ĺ
áŁ ĭ
çª ģ
ªà¸´ à¸Ļà¸
· à¸
ä» ¤
Ħà¸ °
ĠåĪ °
¸à¸ ģ
è´¨ éĩı
à¸Ńà¸ ģ
é Ł©
à¥Ģà¤ļ à¥įà¤¯à¤¾
x i
Ġori sirisi
ĠêŀĮ in
onu s
dan u
Ġori á¹£iriá¹£i
àªµàª¾àª¨ à«Ģ
Ġláº¹hin na
á¹£ owo
ĠI rin
wa di
Ġi táº¹
Ġaa mi
Ġi jo
Ġáģ ī
á»ĳ c
Ġáĥ¡áĥĲáĥ ĳ
ĠNI PA
k ara
Ġla isi
à§ĭ à¦²
Ġfa ili
g á»į
ĠØ´ Ø¯
à°¸ à°Ĥ
àµ º
áĢ¬áĢ¸áĢĻ áĤĪ
ĠáĢ±áĢ ĦáĢ¼
»áĢķ áĢĶáĢ¹áĢ
áĢĻ áĢĦáĢ¹áĢ¸
áĢĽáĢŃ áĢŀ
Ġ ÉĻs
áĢ¡ áĢ¬áĢ¸áĢ
ĠÐ±Ð¾ Ð·
ĠØ§Ù¾ ÙĨÛĴ
ĠáĥĴ áĥĲáĥķ
gh t
ĠI ro
Ġgbáº¹ tá»į
Ġ ^
d on
ĠEuro pe
ĠÐ¿ÐµÑĢ ÑĪ
ĠA ye
ĠáĢ»áĢĻáĢĶáĢ¹áĢĻáĢ¬ áĤıáĢŃáĢ¯áĢĦáĢ¹áĢĦáĢ¶
áĢħáģ¥ áĢĬáĢ¹áĢ¸
ĠáĢŁ áĢ¬
Ġz o
Ġi lá»įsiwaju
á¹£e yá»įri
ar s
Ġk Ã²
ģà¸ §à¹Īà¸²à¸
à¤¾à¤ ±
áĢĨ áĢ®
© áĥĶáĥķ
Ðµ ÑģÑĤ
à°°à±įà° ¶
Ġd ar
à¦¾à¦ľ à¦¾à¦°
ØŃ Ø¯
ĳáĢ¬áĢ¸áĢ ĲáĢ²áĢ·
áĢķ áĢŃáĢ¯
ëŁ ¬
Ġ Ã¡l
ĠÐĳÐµÐ»Ð°ÑĢÑĥÑģ ÑĮ
ÑĤÑĭ Ñŀ
àª¤ à«ĭ
Ġà¤¤ à¤ķ
Ġáĥłáĥ £áĥ¡
Ġáĥŀ áĥĿáĥļ
ir es
Ð°Ð´Ð¸ Ð³Ð°Ð½
Ð± Ð¸ÑĢ
áĢ¡ áĢĽáĢ¬
à¦ ŀ
ĠÑģ Ð°Ð½
Ġgo re
en a
×Ĺ ×¨
ĠÑı Ð½Ñĭ
à°°à°¿à° Ĺ
ĠÐ¾ Ð¿
Ġà®µà¯Ĩ à®³
Ġàª Ī
ĠáĥĲáĥĵáĥĲáĥĽ áĥĺáĥĲáĥľ
ĠØ· Ø±
Ñģ ÑĥÐ»
ya t
Ġà´¨ àµĢ
áĢ¡ áĢĳáĢŃ
ÑĥÐ¼ Ò³ÑĥÑĢ
ĠÑĦ Ð°Ð¾
ĠÒĽÑŀ Ð¹
ĠÐº ÐµÑĤ
Ð°ÑĢ Ð´
Ġà¦¥ à¦¾à¦ķ
Ġi es
Ġro z
ê² ©
à°ķà±įà°ķ à°¡
ĠÄĳ áº¿n
åıªä¸º éĿŀåĩ¡
Ġà¤ħ à¤§
ÑĤ ÐµÐ»ÑĮ
áĢĦáĢºáĢ¸áĢ ľ
à«ĩ àª¨à«įàª
s Ã¡g
Ġà´ķ àµĨ
ÑģÐº Ñĥ
tu re
ĠÑģÐº Ð»Ð°Ð´
áĥľ áĥĶáĥĳáĥĲ
ĠÕ ¶
ÉĻ lÉĻ
Ġà´µà´¿à´ ¶
Ġà°ª à°°
Ġsh u
men to
ãĥ ¬
à¯Īà®ķ à®³à¯į
Ľ áĢĶáĢ¹
áĤı áĢ¯
áĢģáĢ¶ áĢĽ
Ø ¤
h one
ĠI da
ir ia
Ġo na
Ġë Ĳ
ĠÒĽ Ð°Ð±
áĥĿáĥłáĥ ¢
ĠÐµ Ð³Ð¾
à¦ ī
ĠáĢ±áĢĨ áĢ¬áĢĦáĢ¹áĢ
áģ¿áĢķáĢ®áĢ¸áĢ ±áĢĲáĢ¬áĢ·
áĢĶ áĢļáĢ¹
áĢŀ áĢ¬áĢ¸áĢħáĢ¯
à´¨àµįà´¦ àµįà´°
ĠÙ¾ ÛĮ
ese ku
ĠNigba ti
ind ow
Ġako já»į
Ð² Ð°Ð»Ñĸ
Ġgig e
Ġy ara
áº¹ li
á¹£a koso
m b
áĢĳ áĢ¬áĢ¸áĢŀ
l s
Ġa je
à±ģà° ¸
ĠWe ight
ĠBi blu
ĠI tan
Ġti táº¹
Ġwa kati
ho lo
Ġs áº¹
à´ķàµįà´ķ àµģà´Ĥ
áĥĿáĥļ áĥĿ
Ľà¸£à¸°à¹Ģà¸Ĺà¸ ¨
Ġagäºļæ´² æ¸¸æĪı
à¥ĭà¤ ª
ra z
Ð°Ð² Ð¾Ð½
ĠÐļ Ð°Ð»Ñĸ
Ġà¦ķ à§ĭ
àª¤ àª¾àªĤ
ÐµÐ½Ð¸ Ð¸
ĠØ´ Ø¯Ùĩ
ĠØ³ Ø±
ĠÎºÎ¬ ÏĢÎ¿
ÏģÎ¯ ÏĤ
ÏģÎ¯ Î¶
ĠÎ± ÏĨ
Î¯Î½ Î·
ĠÎ±ÏĢÎ¿ ÏĦÎµ
ĠÎµÎ½ Ïİ
ĠÏĥÏħ Î¼
ĠÎ¶ Ïī
ĠÏĮ ÏĦÎ±Î½
ĠÏĮ Î»Î±
ĠÎ» Î¯
ÏĦÎµ Ïģ
ĠÎ´Î· Î¼Î¿
ÏĮ ÏĦÎ·ÏĦÎ±
ĠÎºÎ± Î½
Ġ/ >
ĠÎ´ ÏħÎ½Î±
ĠÏĢÎµÏģÎ¹ Î¿
Î¼Î¬ ÏĦÏīÎ½
Î½Î¿ ÏĤ
Î¹ Î»
Î»Î» Î·
Î´ Î¹Îº
Î¹Î¿ ÏĤ
ĠÏĢÏģÎ± Î³Î¼Î±
ĠÎ´ Ïī
ĠÎķ Ïħ
Î¼ Î¿Ïħ
Î»ÎµÏħ ÏĦÎ±
I d
ĠÎ± Îº
ĠÎ¿ Î¹ÎºÎ¿
ĠÎ±Î¾ Î¹Î¿
ĠÎ´Ïį Î¿
Ġ Ïİ
Ġh yn
Ġà®¤ à®²
Ġvo tre
sz t
Ġà°ī à°Ĥà°Ł
áĥĿáĥ ĸ
Ø§Ø µ
áĢħ áĢħáĢº
à´ķ à´³àµįâĢį
Ġà´İ à´¨àµįà´¤
Ġì ¡°
te a
Ġ×ŀ× ©
Ġi so
à¦¿à¦ķ à§ĩ
Ġáĥ¥ áĥķáĥĶáĥ§
es ch
Ġá»į fáº¹
l Ã©
ĠÑĢ Ð°Ñĳ
Ðº Ð¾Ð²
) ;
Ġàª¹àª¤ à«ģàªĤ
à´¿à´¯ àµĨ
åħ³ ç³»
è° Ī
éĥ¨ éĹ¨
à¨ £
à¥įà¤¯à¤¾à¤ļ à¥ĩ
c ho
à¥ĩà¤ ľ
ka s
Ġà®ĩ à®µ
Ġe dir
áĢĳáĢ² áĢĻáĢ½áĢ¬
ģ áĢĲáĢ¹áĢ
áĢĳ áĢ±áĢ¬áĢĦáĢº
en te
ãģ Ĭ
Ġà®®à®±à¯įà®± à¯ģà®®à¯į
à´¿à´Ł àµĨ
á»ģ n
ĠÐ¿ Ð¾Ð¼
Ð»Ñı Ð´
áĢ±áĢ¸áĢ ŀ
ì ¦
à´¦ àµįà´¯
áĥ¡ áĥĲáĥ®
Ð°Ñģ ÑĮ
Ð°Ð² Ð°Ñŀ
ĠÃ© v
ÐµÑĤ Ð¾
i ta
ĠE x
b ook
gb á»į
ĠáĢ±áĢ ĳ
áĢĢáĢ¹áĢ Ļ
áĢ¬áĢ¸áĢľ áĢ½
ķáĢ¼ áĢ¯
ĠÑı ÑĪÑĩÑį
ĠáĥĹ áĥĳ
ãģª ãģĦ
áĥ¡ áĥ¢
ĵ à¤Ĥ
ĠagåĽ½éĻħäºļæ¸¸ å®ĺç½ĳ
Ġæ¢ ¦
ï¼ Ī
å®ŀ çİ°
§ à¸Ļ
ĠU U
å± Ĭ
ĠåĽ Ľ
ą ć
ä»· æł¼
ç´ §
Ġ à¹Ħà¸
ĠèĢ ģ
ç £
äºº çĶŁ
«à¸ ¡
çĭ ¬
Ġæµ ·
åºĶ çĶ¨
ç ĳ
Ġæ ¶
éļ ľ
«à¸ ķà¸
å¤§ åħ¨
Ġ3 åĪĨå¿«3
Ħà¸ ³à¸
à©Ģ à¨
Ġæį ®
Ġà¤ķ à¤¾à¤®
Ġà¦ķ à¦¿à¦¨
Ð¾ÑģÑĤ Ð¸
en d
ĠÐ¿ ÑĸÐ´
mÉĻ si
à«Ģ àª¨
Å¡an a
ĠÑĤÐ¾Ð¼ Ð¾Ð½Ð¸Ð´Ð°Ð½
ĠÑĪÑĥ Ð´Ð°
ÙĦ Ø©
Ļàµįà´ ķ
ÏĦÏĮ ÏĤ
Î¯Î½ ÎµÏĦÎ±Î¹
ĠÎ¼ÎµÎ³ Î¬
ÏĢÎ¿ Î¯
Ġ @
Î½Î¿ Ïį
ĠÎ¿ÏĢÎ¿ Î¯Î±
ÏģÎ± Îº
u d
Ġ×Ķ× Ĺ
Ú© Ûģ
ìĹ Ń
Ġag 88
áŀ ĺ
à¹īà¸²à¸ ĩ
å¾ ģ
ķà¸ ±à¹īà¸ĩ
ħ è¯»
Ġà¤ĺ à¥ĩà¤¤
ÐµÐ»ÑĮ Ð¼Ñĸ
áĥĲáĥ® áĥĶáĥĳ
ĠÐ¿Ð¾ Ñģ
Ġja k
v Ã¡
Ġà´İ à´²àµįà´²
Ġà° ·
Ġà¦¬à¦² à§ĩà¦¨
) .
à«ĩàª ¡
áĢĢáĢ¹áĢ ĲáĢ¬
ĠáĢĺ áĢļáĢ¹áĢľáĢŃáĢ¯
áĢľ áĢ®
áºŃ p
Ġà¦ı à¦¸
A L
Ġe yin
Ġen i
åħŃ åĲĪ
éĢ Ģ
ĠæŃ £
Ġà¸ ģà¹ĩà¸
§à¸ ĩà¸
Ġ3 4
å¤© åłĤ
Ġ4 6
Ġà¤ķà¥ĩà¤² à¥Ģ
t ti
ĠÐ°Ð± Ð¾
áĥ® áĥĽ
ĠØ¬ ÙĨ
Ġmáº¹ de
Ġa si
ĠIs la
Ġl ie
Ġip ese
Ġd un
Ġmáº¹ ta
à±įà°Ł à±įà°°
Ġj á»į
Ġà¦ķà¦° à§ĩà¦¨
are a
Ð¿ Ð¾Ð»
Ġà°µà°¿à° ·
áĢ¯áĢ¶ áĢ¸áĢŀ
sz e
àµĨà´Ł àµģà´¤àµįà´¤
Ġiá¹£ elá»įpá»į
ĠKáº¹ san
Ġo orun
Ġt l
Ġï¿½ï¿½ï¿½ï¿½ï¿½ï¿½ï¿½ï¿½ ï¿½
Ġy u
Ġpa to
ĠA b
ĠF e
Ġkan êŀĮ
áº¹n isá»įrá»į
ĠM an
à´¸ àµįâĢĮ
Ġ... ]
ĠN o
Ġì¶ľìŀ¥ ìķĪë§Ī
íĴ Ī
à¹ģà¸ ķ
¸à¸ ¡à¸
à¸Ńà¸²à¸ Īà¸
¨ å¤©
ç¯ ĩ
Ġà¸ Ľà¸
à¹Ĥà¸ Ķà¸¢
à¤¸ à¥įà¤¥
áĥĶáĥĳ áĥĸáĥĶ
à±įà°° à°®
Ġw ar
Ġch a
ver si
Ġe we
Ġá¹¢i á¹£e
Ġgb iyanju
Ġàª¦ àª°
Ġà¦¸à¦® à§Ł
z á»įn
p ona
Ġiá¹£áº¹ láº¹
á¹£i á¹£e
Ġm on
lo po
ĠÑĥ Ð½
ĠÙħ Ø§
ÑĤÐ¾ Ð±
áĢ»áĢķ áĢĶáĢ¹áĢ
ķáĢ¼ áĢ®áĢ¸
gu st
Ġi waju
Ġv áº¹
Ġy Ã¨
ar áº¹
Ġa ni
ãģ£ ãģŁ
ĠNi tori
Ġì ½
p ese
à´¿à´²àµĩ à´ķàµįà´ķàµį
Ġaj eseku
Ġa á¹£á»į
Õ¡Õ ¾
Ġh ÉĻr
Ġ×ŀ ×Ķ
ĠS E
ĠÂ ³
Ġkaa di
ĠÑģ Ñĥ
h ia
stan bul
ben i
ĠChin a
Ġà¤¸ à¥Ģ
à°ª à±Ī
Ġa de
ĠA wo
Ġigba siláº¹
in k
Ġoun jáº¹
la s
Ġape juwe
ĠA s
ĠØ °
Ġà¦ªà§įà¦° à¦ķ
æĽ ¾
Ġæ¯ Ķ
Ġà¤Ĺ à¥ĩà¤²
±áĢĢ áĢ¬áĢĢáĢ¹áĢ
±áĢĶ áĢĲáĢ²áĢ·
Ġáģģáģ Ĥ
Ġp Ã«
ĠA gb
Ġëĵ ±
áĥ£áĥ ĳ
Ð¸Ð½Ð³ Ð¸Ð·
ĠÐºÑŀÑĢ ÑģÐ°ÑĤ
ĠÐ¾ Ð»Ð¸Ð±
ĠÐºÑŀ Ð¿
ĠÐ¼ÐµÐº ÑĥÐ½
áĢĲáģ ±
áĢĦáĢ¹áĢ ĲáĢ¬
ĠáĢ±áĢĲáĢ¼ áĤĶ
ģáĢ¼ áĢĦáĢ¹áĢ·
áĢķ áĢ»
ÑĨ Ñİ
ĠpÃ« pe
Ġa yen
Ã »
de o
Ġka vi
ki ng
Ġta idi
ĠJ anu
ĠL E
di ng
Ġko o
àª¾àª ¥à«Ģ
Ġa lu
ĠI we
Ġà°® à°¹
tion al
ĠáĢ±áĢĴ áĢ«
ĠáĢľ áĢŃáĢ¯áĤĶ
¡ áĢħ
ag o
à±Ģ à°¨
í ģ
ĠÐ± ÐµÐ·
Ġà¦Ĩ à¦¬
áĥļ áĥĺ
ka le
da ju
b irin
un i
Ġm á»
Ġba si
Ġne êŀĮ
om o
áĢĻáĢ¹áĢ Ļ
àµģà´ķ àµ¾
R O
Ġda bi
ĠM O
Ġpe lu
ĠáĢ±áĢĴ áĢŀ
áĢģáĢ²áĢ· áĢĲáĢ²áĢ·
Ķ áĢ²áĢ·
ĠáĢĢáĢ¼ áĢº
ĠáĢģáĢº áĢħáĢ¹áĢ
áĢľ áĢ»áĢ¾
Ġáĥ¡ áĥ¬
à Ń
Ġà¤īà¤¨ à¥įà¤¹
ĠÐ¿ÑĢ Ð¾Ð´
ÚĨ Ú¾
Ġle het
Ġàª¸ à«įàªµ
Ġà¦° à¦¾à¦ľ
Ø§Ø ®
ĠJanu ary
Ġá¹£ ie
ĠA TI
ĠW A
U M
ĠAu gust
ri si
Ġæ· ±
Ġå¾· å·ŀæīĳåħĭ
ä¸ĵ ä¸ļ
à¸Ļ à¹Įà¸
Ġà¸ª à¸²à¸
à¸£à¸§à¸ ¡à¸
çº ³
æµ ª
Ġçİ¯äºļ å¨±ä¹Ĳ
éģ ĩ
à¤¾à¤¤ à¥įà¤°
Ġi yara
Ġà°ķ à°¨
ĠI stanbul
ĠG u
ÑĪ Ðµ
os s
ÐºÑĥ Ñİ
ãģĻ ãĤĭ
Ġo su
Ġi wu
i j
ti wá»į
H E
Ġip ari
ĠO wo
ng ana
h am
à¸´à¸ ĩà¸
à¸µà¸¢à¸ §à¸
Ġ ä¸İ
Ġé Ĺ
¨ à¸²à¸
åħ¶ ä»ĸ
ä»ĸ ä»¬
åĽ½éĻħ åİħ
ªà¸´ à¹Īà¸ĩà¸
² à¤¾
Ġà¦¦ à§ģ
áĢ¬áĢ¸áĢ Ĩ
áĥª áĥĲ
ĠEn áº¹
ri c
K E
Ġla koko
Ġi fihan
ĠW o
Ġidan wo
ĠTo p
m m
Ġy Ã¢
t áº¹n
Ġla aye
Ġi gbo
ri ka
p le
T i
d ani
Ġd agba
ĠS er
Ġfi la
Ġtáº¹ le
wo r
ĠK risti
Ġï¿½ï¿½ï¿½ï¿½ï¿½ï¿½ï¿½ï¿½ ï¿½ï¿½ï¿½ï¿½
ce book
ĠNi torina
a mi
àªĽ à«Ģ
D I
Ġidi je
ĠI ta
Ġâ Ĩ
ë° Ķ
áĤıáĤĪ áĢĶáĢ¹áĢ¸
ĠáĢ±áĢ ģáĢ«áĢĦáĢ¹áĢ¸
ĠáĢŀ áĢŃáĢ¯áĤĶ
áĢĺ áĢ¯áĢĽ
Ġ×ĳ ×Ĳ
Ġg iá»
Ġa ri
ĠÐ¼ ÐµÑģ
à® ¨
áĢ¸áĢĲ áĢļáĢ¹
áĢ¸áĢ±áĢ ľ
áĢķ áĢĬ
Ġme dia
x t
z an
ĠÐĲ Ð¼
C D
láº¹ n
Ġai le
Ġa se
à§ĩà¦Ľ à¦¿à¦²
Ġà°Ĩà°¯ à°¨
versi ty
ĠO ju
Ġi mo
éĢī æĭ©
´ à¸Ļ
app _
Ġà¹Ĥà¸ Ķà¸¢à¸
Ġè ·
Ġà¨ ¬
Ġé ©
Ġ7 7
åĨ Ļ
Ġæīĳåħĭ ä¹ĭæĺŁ
Ġà¤ĩ à¤¤
Ð» ÐµÐ½Ð¸Ñı
ìĺ ģ
ĠÎ´ Î¹Îº
Î¿Î½ ÏĦÎ±ÏĤ
ĠÎ¼ Î¹Îº
A A
ĠÏĥÏĦ Î¿ÏħÏĤ
ĠÎ½ Î¿
ĠÎ² Î¿
ĠÎ£ Ïħ
ĠÎµÎ¯ ÏĩÎµ
ĠÎ¼ ÏĢ
ÏĨÎ¿ Ïģ
Â ¬
Î½Î· ÏĤ
ÎµÎ¯ ÏĤ
Î²Î¿Î» Î®
ĠÏĮ Î¼ÏīÏĤ
Î³ Î·
ÏĦ ÎµÎ¹
Ïĥ Îº
Ïį ÏĢ
Ġd di
Ġm und
Ġku e
Ġgan do
ĠO gun
à±ģà°¨ à°¿
ĠáĢŀáĢ° áĢĢ
Ġwu lo
Ã¨ Ì£n
Ġtáº¹ siwaju
ĠJi hova
om u
ĠáĥĶ áĥĻ
à¯įà®ª à¯įà®ª
Ġa yáº¹wo
ĠJ áº¹
ĠÑģ Ð°Ð±
áĢ±áĢ¸áĢ ¡
ĠB onus
Ġ1 99
Ġp Ã©
Å« s
Ġsz Ã¡m
ĠìĬ ¤
àª¿àª¯ àª¾
à°Ł à±įà°²
ni k
Ġáĥ¬ áĥĺáĥľ
ÑģÑĤ Ð°Ð½
ĠØ§ Ø±
áĢĳ áĢ¼áĢĢáĢ¹áĢ
áĤĬáĢĲáĢ¹áĢ ±áĢĲáĢ¬áĢ¹áĢ
áĢĻáĢ¼ áĢĦáĢº
ĠØª Ø±
à¯įà®ļ à®¿
ĠÑĤ Ð°ÒĽ
Ġ3 9
à¥įà¤¯à¤¾à¤ µà¤°
Ġà°¨à±ģà°Ĥà° ļà°¿
ĠáĥĲáĥł áĥĲ
ĠÐ¸ ÑģÐ¿
Ġàªµ à«įàª¯
áĥ®áĥĿáĥķ áĥł
Å º
el ye
Ġv Äĵ
ä¼ļ è®®
Ġä½Ĩ æĺ¯
¹ à¹Ī
éģĹ æ¼ı
Ġà¸ Ĭà¸
Ġag å®ĺæĸ¹
æ¥ Ń
åĲ ¦
Ĥ à¹īà¸²
± à¹Īà¸ĩà¸
ä½ Ļ
à¹Ģà¸ §à¸
à¥ĩà¤ ®
Ġà°ħ à°Ĥà°¤
Ġpe u
Î» Ïİ
ĠÏĢÎ¿Î» Î¹
ĠÎĳ ÏĢ
f n
áĢĸáĢ¼ áĢĦáĢ·áĢº
Ò Ĳ
Ð°Ð¶ Ñĭ
c ÃŃ
à¯ģà® ´
Ġâ Ķ
Ġâ ĸ
Ġìŀ Īëĭ¤
ĠÑħ Ð°Ð»ÒĽ
Ġàªµ àª¾àª¤
áĥĲáĥłáĥĹ áĥļ
Ð°Ð» Ð¸Ðº
ĠÐ¾ Ð»Ð¸ÑĪ
ĠÐº Ð°Ñģ
Ġigb es
Ġfi han
Ġko ko
Ġbá»į á»įlu
r en
ĠÑİ ÑĢ
ĠÑĤ Ð°Ñģ
Ġh t
çĶµ èĦĳ
è¯ ī
à¤¾à¤¨ à¤¾
Ġn ÃŃ
ÙĬ Ùģ
àªŁ àª²
áĥĲáĥļáĥĺ áĥĲáĥľ
à´° à´£
ĠØ³ Ø§ØªÚ¾
Ð Ĵ
à±Ĥà° ª
á»© c
ÉĻ lÉĻr
ĠÐ³ÑĢÐ°Ð¼ Ð°Ð´
ĠÐ» Ð¸
e la
Ñģ ÑĨÑĸ
Å¾ i
ĠáĥĽ áĥĲáĥľ
Ðµ Ò³
Ġtr e
×ķ× ¦
àµĢ à´¸àµį
Ġàªµàª°à«įàª ·
à±ĩà° ª
ĠÑĢÐ°Ð± Ð¾ÑĤ
ow i
áĢĻ áģ»
ĠáĢĲ áĢĦáĢ¹áĢ
áĢ¬áĢ¹áĢ ľáĢĬáĢ¹áĢ¸
áĤ Ĵ
áĢĻáĢ¾ áĢĶáĢº
à¯įà® ¸
Ġcsa k
Ġà´ª àµģà´±
Ġé ¢
ĠagçľŁäºº æ¸¸æĪı
èĥ ľ
Ġçī ¹
æĢ» ä»£
à¹īà¸ ĩ
à© į
Ġçİ¯äºļ AG
3 1
åĪĽ æĸ°
Ġà¨ ĩ
ķà¸´à¸ Ķà¸
åľ° åĮº
å¤ «
Ġ à¹
à¤¿à¤µ à¤¸
Ġà°ħ à°Ń
Ø§ Ùĭ
ĠÐ± ÑĥÐ½
Ð°ÑĨÑĭ Ð¹
Ñĥ ÑģÑĤ
Ġà¨ ²
æłĩ åĩĨ
æĺ¯ ä¸Ģ
à¤® à¤§à¥įà¤¯à¥ĩ
Ġg Ã¼n
à°¾à°² à°¨à±ģ
ëĲ ĺ
ÑĢ Ð¾Ð´
Ġvol t
Ġet tÃ¤
Ġàªª à«Ĥ
ĠÐ² ÑĢÐµÐ¼
Î½ Î¬
ĠÎ£ Îµ
ĠÏĢÏģÎ¿ ÏĤ
Î½Î± ÏĤ
Î¸ Î¿ÏįÎ½
ÎĳÎ Ŀ
ĠÎ¹ ÏĥÏĦÎ¿
ĠÎº Î¿Î½
ĠÎ¬ Î»
ri f
Ġà´¨ à´¿
Ð½Ð¾ ÑĹ
Ġde i
à¤¾à¤° à¤¾
Ð» Ð°Ð¼
Ð»Ð°ÑĢ Ð´Ð°Ð½
Ð°Ð´ Ð°Ð½
b el
ĠáĥĲáĥłáĥ ¡
Ġj an
Ã ¦
Ġt s
ĠáĢŀ áĢĬáĢ¹
áĢ¼ áĢ¸
áĢķáĢ« áĢ¡
ĠÐ½ Ð¾Ð¼
ĠÙĦÛĮ ÛĴ
áĢ®áĢ¸áĢ Ĳ
jÄħ c
à¦¿à¦ ·
Ġpr ÃŃ
ĠàªŃ àª¾àª°
ĠL at
l Ä«
our s
ĳáĢ² áĢĻáĢ½áĢ¬
áĢ¬áĢ¸áĢĻáĢº áĢ¬áĢ¸
áĢģáĢ²áĢ· áĢĽ
Ġvá» ģ
à®¾à®³ à¯į
ÉĻr i
Ġàª¨ à«ĩ
áĥĲáĥļ áĥ£áĥł
z Äĥ
Ġà´® à´²
ĠÐ¿ÑĢ Ñį
ĠÐ± Ð¾Ð»
Ġà¤¬ à¤¾à¤°
ãģ ©
à´¯ àµĨ
ÛĮ Ø²
ĠáĢķ áĢº
áĢ¬ áĢĦáĢ·áĢ¹
áĢĶáĢ¹áĢ ħ
áĢĲ áĢļáĢ¹áĢľáĢŃáĢ¯áĤĶ
áĢĻ áĢ²áĢ·
Ġà°ļ à°¾à°²
ĠÎºÏĮ Ïĥ
Î¶ Î¯
Î¿Î¹Î½ ÏīÎ½
Ġ> <
Ïĥ Î¼Î±
Î¾ ÎµÎ¹
Î¼ Î±Î¹
ÏĥÏĦÎ¹Î± ÏĦÏĮ
ÏĨ Îµ
Ïĥ Î¯
ĠÎĶ Î·
Ġbo d
Ġt Ã¡
Ġ×ķ ×Ķ
ķáĢ« áĢĺáĢ°áĢ¸
áĢ± áģĢ
ĠáĢĨ áĢĢáĢº
à¯Īà®¯ à¯Ī
Ðµ Ð¿
Ġà§ «
ĠÑĳ ÐºÐ¸
ĠÐĲ Ð±
Ð°ÑĢ Ð´Ð¸
Ġn ous
à§ĩà¦² à¦¾
ķàµįà´ ·
Ġáĥ¨áĥĶáĥ¡ áĥĲáĥ®áĥĶáĥĳ
v Äģ
Ġàª²à«ĭàªķ à«ĭ
Ð¾ ÑĹ
æĺ¯ ä»Ģä¹Ī
è¡ ¥
çļ ®
à©° à¨
à¤¿à¤ £
Ä±n Ä±
à§įà¦¯ à¦¾à¦²
k ka
it Ã©
Ð· Ð½
ĠÑį ÑģÐ°
Ð°ÑĨ Ð¸Ñı
ĠÐ¼Ðµ ÑĪÐ°Ð²
t Ãł
áĢ° áĢĬáĢ®
à´ķ à´¾à´°
u ar
ĠáĥĽáĥĹ áĥĲáĥķ
ĠáĢ±áĢĶ áĢĽáĢ¬
ĠáĢķ áĢ¶áĢ¯
ĠáĢĻ áĢŀáĢŃ
à¯Īà®ķ à®³
ĠìĨ Į
áĢ¡ áĢĳ
Ġc zy
ĠE r
Ð» Ð°Ñŀ
Ð°Ð²Ð°Ð½ Ð½Ñı
àµĬà´° àµģ
Ã¡ si
ĠáĢľáĢ° áĢŀ
áĥĵ áĥĺ
v ÄĽ
Ä¾ a
Ġà¤°à¤¹ à¥ĩ
Ġà¦¬à¦¿à¦¶ à§įà¦¬
áĢļ áĢ±áĢ¬áĢĢáĢº
å®īåįĵ çīĪ
Ħ à¸Ńà¸
éķ ĩ
æ¯ į
éĶ Ļ
Ġag æ³¨åĨĮ
Ġè Ĥ
Ġ à¹Ģà¸£à¸²à¸
èĥ½ åĬĽ
åŃ¦ éĻ¢
æĹ¶ ä»£
åĨ ·
Ķ à¹īà¸²à¸Ļà¸
Ġå½©ç¥ŀ 8
ä¿Ŀ æĬ¤
à¥įà¤¯à¤¾à¤¨ à¥ĩ
ĠÚ©Ûģ Ø§
ia ÅĤ
Ġáģ¿áĢĻ áĢŃáĢ³áĤķ
áĢĨ áĢĽáĢ¬
i te
à«ĩàª² à«Ģ
áĢĢáĢ¹ áĤıáĢ½áĢ¬
ĠM yanmar
áĢĶ áĢ²
ĠØ¨ ÙĪØ¯
ĠáĥĵáĥĲáĥ Ļ
ĠáĢķ áĢ¯áĢ¶
Ġà´ĩ à´Ł
Å© ng
d os
ĠÃ¶ l
ĠÐ² ÑıÐ»Ñĸ
ë Ħ
Ġà°¸ à±įà°µ
×ķ× Ĵ
ci jas
à´¸ àµįà´¤
æľ Ŀ
ms c
æĶ¿ çŃĸ
å¼Ģ å±ķ
Ĺ à¹īà¸²à¸
Ġè¯ ¥
å¢ŀ éķ¿
Ġåį ļ
3 D
ĠæīĢ ä»¥
åħ³ æ³¨
Ġå½©ç¥ŀäºīéľ¸ 8
Ġà¤¸ à¤¾à¤Ĥà¤Ĺ
ĠÐ³ Ð¾ÑĢ
is Ã«
à¥Ĥà¤ ª
ÒĽ Ð¸
Ġau x
ĠØ± ÙĪ
áĥĺáĥ ®
k et
à®¿à®¯ à®¾à®ķ
ãģ Ī
ĠÐ°Ñģ Ð¾ÑģÐ¸
à¦¤ à§įà¦¤
ÐºÑĢ Ð°ÑĹ
Ð¾Ð¼ Ñĥ
b ie
à«įàª §
áĢĳáĢ¬áĢ¸áĢ ĲáĢ²áĢ·
ŀ áĢĻ
Ġb ona
áĢĻ áĢĽ
Ġse x
Ġqu es
Ð°Ñ ļ
áĥĿáĥļ áĥĿáĥĵ
u lui
ĠÐ¹Ñŀ Ð»
ÑĥÐ¼ Ð°Ð½
áĢĽáĢ½ áĢĦáĢ¹áĢ¸
áĢĨ áĢĦáĢº
Ñı ÑĤÐ¸
à°¾à°² à°¨à°¿
Ġìľ ł
ĠØª Ú©
ĠÎ½ Îµ
ĠÏĩÏī ÏģÎ¯ÏĤ
ĠÎ² Î¬
ÏģÎ± ÏĤ
ÏĦÎ¿ Î¹
Î» Î¹Î±
Î´ ÎµÎ¹
ĠÎµÏĢ Î±
Îķ Î¡
ĠÎ» Î±
ĠÎºÎ±Î¸ ÏİÏĤ
ĠÎ¼ Î¿
ĠÎ¼ÎµÎ³ Î±Î»
ÏĥÏĦÎ± ÏĥÎ·
ÎµÎ¯ Î¿
Î´ Ïİ
ĠÎķ ÏĢÎ¹
Ïĩ Ïī
ĠÏĢÏģÎ¿Ïĥ Ïī
ĠÎ³ Îµ
ĠÎµ ÏĨ
ĠÎ» ÎŃ
00 00
ĠÏĦ ÏģÏĮ
ĠÏĦÎ¹ Î¼
ĠÎŃ Îº
ÏĢ Î®
Ġ1 B
ĠÏħ ÏĢÏĮ
ar ch
ĠáĢĲ áĢŃáĢ¯áĤĶ
áĢŀáĢ° áĢ±áĢĲáĢ¼
áĢĦáĢºáĢ¸áĢ ħ
ĠÑį ÑĢ
ĠÒĽ Ð°ÑĤ
ĠP h
¡à¸ ·à¸Ńà¸
Ġé ĥ½
ĠĈ ć
æĿ¥ çļĦ
ä» ª
Ġ5 9
â ²
ĠçĽ ®
åįķ èģĮä¸ļ
Ġà¸ Ľà¸£à¸°à¸
æľº æŀĦ
èī ¯
Ġà¤µà¤°à¥įà¤ ·
ĠÐ½Ðµ Ðº
ta an
r Ã³
Ġs om
ÉĻ ti
Îĳ ÎĻ
ĠÎ¼ Î¯Î±
Ïĩ Î·
Î¹ÎºÏĮ ÏĤ
Î¯Î¶ ÎµÎ¹
Î½ Ïİ
Ġme wn
Ã© ho
à°Ĥà°¡ à°¿
Ġáĥĺáĥľ áĥ¤
à¯Īà® ¨à¯įà®¤
da s
àµĭ à´§
áĢĲáĢ½ áĢĦáĢºáĢ¸
r Ã«
Ò ļ
ĠÑĥ Ð¹
ĠÑħÐ¸Ð· Ð¼Ð°ÑĤ
Ġà¦ķ à¦¥
àªµ à«ĩ
Ġu m
on n
ĠlÃł m
ĠáĥĽ áĥĲáĥĺ
Ġsun t
Ð¸Ð½Ð³ Ð°Ð½
ĠÑŀ Ð¹
Ð¸ Ð´Ð°Ð½
Ñĥ Ð´Ð°
ÑĨ Ð¸Ð¸
ĠæĪ ĸ
ķà¸ ¥
Ġå¼ ł
åĬ¡ åĳĺ
h h
Ġà¨¦ à©ĩ
ªà¸ ¡
çŁ¥ éģĵ
ä»£ è¡¨
å° Ħ
ï¼ ¿
æĭ ħ
Ġè ¥¿
Ġ5 åĪĨå½©
à¤¾à¤·à¥įà¤Ł à¥įà¤°
áĥĿáĥĳ áĥĲáĥ¡
à´ķàµįà´ °
×Ļ× ĺ
à«Ģ àªĤ
à°¾à°² à±ĭ
Ġà§ ¦
Ĺà¸µà¹Ī à¹Ģà¸
Ġag88 çİ¯äºļ
è´ ¦
åħ ¸
Ġà¸Ĺà¸ ³
à¹Ī à¸Ļà¹Ģà¸
à¥įà¤¯à¤¾à¤ļ à¤¾
ĠÐ¼Ð¾Ð¶ Ð½Ð°
Ġà§ ª
à¶ ±
Ġà¤¥ à¥Ģ
ĠÙĦ Ø§
Ġà¦ı à¦®
ĠáĢ±áĢĲáĢ¬ áĢ¹áĢ
ĺ áĢ²
Ġáģ¿áĢķ áĢ®áĢ¸áĢ
ģáĢ¶ áĢĽ
ĠáĢĻáĢ¼áĢĶáĢº áĢĻ
áĢĽáĢŃ áĢ½
áĢĶ áĢĢáĢº
Ġáĥ« áĥĲáĥļáĥĺáĥĲáĥľ
Å¡ o
h le
ĠØ§ ÛĮ
Ġg ia
àªĤàª ¡
àµĭ à´²
Ġs ono
ĠÐº Ð¾ÑĤ
di g
ĠÑģ ÑĬ
ĠÐµ ÑĤ
Ð´ Ð¸Ð½
ĠÒ³Ð°Ð¼ Ð´Ð°
Ð¼ Ð°Ð¹Ð´Ð¸
Ð¾ÑĢ Ð°ÑĤ
ĠÃ¼ z
au x
Ġáĥ¡ áĥĲáĥĵ
ìĥ Ŀ
Ġà®ī à®Ł
à±ģà°¤ à±įà°µ
Ð³ ÑĥÐ½
Ġà´¶ àµįà´°
k Ã«
à«įàª ļ
Ä ı
Ñ ķ
ÐºÑĸ Ð²
ãģĭ ãĤī
áĢ½ áĢĻáĢº
os ta
Ġà°° à±ĭà°ľ
Ġà¦ķ à¦¾à¦ľ
ĠÐł Ð°Ñģ
Ùĥ ÙĨ
Ġà¤ Ĳ
Ðº Ð°Ð³Ð°
Ġm Ã©g
Õ¥ ÖĢÕ
ĠÔ ±
Ġed il
ju mu
c on
Ġáĥ¨ áĥĶáĥĵ
à¹Ģà¸Ĥ à¸²
è¿ĳ å¹³
Ġå» º
å² Ľ
11 éĢī
ç» į
Ġæ³ ķ
ä¸ª äºº
Ġçİ¯äºļ å®ĺç½ĳ
ĠâĢĶ âĢĶ
Ġ5 3
µà¹Īà¸ ¢à¸§à¸
åĪĨ å¿«ä¸ī
Ġ5 2
åĪ »
Ġ Ćć
Ġç§Ĵ éĢŁ
à¸Ļ à¹Īà¸²à¸
à¥ĭà¤ ¬
ĠÐº ÐµÑĢ
ĠÐ· Ð°ÑĢ
Ġà®µ à®¿à®Ł
ê° ķ
ì Ļ
à´¿à´ļàµįà´ļ à´¤àµį
à±Ĥà° ²
à¦¾à¦ £
ĠØ§ ÛĮØ³
ÑģÐºÑĸ Ñħ
Ġà´ĩ à´µ
áĢĲáĢ¬ áĢĢ
áģ¾áĢĢ áĢķáĢ«áĢĲáĢļáĢ¹
ĠáĢ±áĢ ĺ
áĢŃáĢ¯ áĢ¯
áĢ±áĢ¬áĢĦáĢº áĢĽáĢ½áĢĢáĢº
ĠÑģ Ð°Ð²
v et
áĢĤ áĢº
àµĩà´° à´³
àµĨà´Ļàµįà´ķ à´¿à´²àµģà´Ĥ
áĢĬáĢº áĢ¸áĢ
le ment
Ġà« ¨
àª¾àªµ à«Ģ
ĠÑį ÐºÐ°Ð½
ĠÒĽ ÑĥÑĢ
Ġ5 7
åį ĸ
çŃ ¾
ľà¸ ¡à¸
ãĢ Į
Ĥ à¸²
åĿ Ĺ
à¹Ģà¸Ĥ à¸²à¸
4 7
12 3
åĢ ĳ
è¡ £
ģà¸²à¸£ à¹Ģà¸
å¾® ä¿¡
à¹ĥà¸«à¸į à¹Ī
Ġç Ĥ
é¡ »
æŀ ¶
Ġagäºļæ´²åĽ½éĻħ æ¸¸æĪı
à¸µà¸¢à¸ §
åį ´
Ħà¸§à¸²à¸ ¡à¹Ģà¸
è¿ Ŀ
Ġé ¡
Ġ ā
ä¹ł è¿ĳå¹³
«à¸¥à¸²à¸ ¢à¸
ä¸ ½
201 8
ļ à¸Ļà¸
Ġåĩ¤åĩ° å¤§
æĭĽ èģĺ
Ġåĩ¤åĩ°å¤§ åıĤèĢĥ
ä¼ ¤
ä»¥ åıĬ
ļ à¹īà¸²à¸Ļ
ģà¹Ī à¸Ńà¸Ļ
ï¼ ļ
Ľà¸¥ à¸µà¹Īà¸
ä¸į èĥ½
æ© Ł
æĻº èĥ½
ļ à¤¾
íĨ ¡
ìĦ ł
c at
ĠÑĤÐ¾ Ð¿
Ð³ Ð¸ÑĢ
×© ×¨
ow ych
ĠáĥĴ áĥĲáĥł
Ġà® ĵ
Ä« bu
à¤¸ à¥Ģ
Ġà°ī à°Ĥà°¦à°¿
áº¥ y
àªķ à«ĭ
Ð³ Ðĥ
ĠÐ½ Ð°Ð´
er Ã«
Û °
Ø§Ø± Ùĩ
áĢĦ áĢ½
à¦¿à¦ ļ
tt Ã¤
tse ng
ìĭ ¤
ĠÙĦ Ø¦ÛĴ
Ġs ind
áĥĲáĥĵáĥĴ áĥĶáĥľ
ÅĻ ÃŃ
ÑĢ ÐµÐ´
Ð²Ñĸ Ñĩ
Ñı Ð·
àµįà´ ¨
áĢķ áĢ±áĢĻ
ä¸ °
åī §
Ġà¹Ģà¸ŀà¸£à¸²à¸ °à¸
æĿ İ
0 7
Ġà¤Ĩ à¤ľ
Ġya ng
áĢ¡ áĢķáĢº
à¯ĭ à®¤à¯ģ
v Ã©
Ġf ost
ìĿ´ ëĭ¤
ÉĻ si
ie j
ĠÑį Ðº
à°Ł à±įà°²à±ģ
Ġàª¥ àªĪ
Ġà¦¨ à¦¾à¦®
ĠE s
Ġ à¹Ħà¸Ķà¹ī
Ħà¸ ´à¸
Ġà¤¤ à¥ģà¤®
à¥ĩà¤ Ĺ
Ä¼ u
àµ¼ à´¤àµįà´¤
ĠÙħ Ø´
ĠÐĵ ÑįÑĤÐ°
Ġ á»Ł
Ð¾ Ñİ
ÃŃt Ã¡s
Îµ Î²
Î³ Î¿Ïħ
ĠÎ²Î± Î¸
Î¸ ÏħÎ½
ĠÎ¼ Î¬
ĠÎº ÏģÎ¹
ĠÐł Âµ
ĠÏĥÏħ Î³
ÏĩÎµÎ¯ Î¿
ÏģÎ¿ ÏįÎ½
Ïĥ Î¿ÏħÎ¼Îµ
Î© ÎĿ
Ïģ ÏīÎ½
ÏĦÎ¿Ïħ ÏģÎ³
y w
Ġà°ħ à°²
ĠÐ· Ð°Ð¼
áĥĿáĥľ áĥĺ
Ġà®İ à®´
à¦¾à¦° à¦¾
áĢĶ áĢħáĢº
ri t
Ġà¤µ à¤¹
Ġë ¹Ħ
àª° àª¾àª¤
Ġàª¨ àª¾
Ġáĥ¡áĥĲáĥ £áĥ
ĠØ§ÙĦ ÙĪ
mi z
Ð¼ Ñĭ
à®¸ à¯į
ĠÐ±Ñŀ Ð»Ð¸ÑĪ
ĠÐºÐµÑĢ Ð°Ðº
Ð¸Ð» Ð¸ÑĪÐ¸
Ð»Ð°ÑĢÐ¸ Ð´Ð°
ĠÑĳ ÑĪ
ÑĢÐµ Ð·
ho z
ÑĩÐ¸Ð» Ð¸Ðº
Ð°Ð¼ Ð»
à°¾à°Ĥà° Ł
ĠgÃ¶ r
k Äģ
is sa
Ð¸Ð½ ÑĩÐ¸
ĠÑģ Ð¾Ð½
Ŀ áĢ«
ĠÐ½ Ð°ÑĢ
ĠØ§ Ùģ
ĠáĢħ áĢ®
ãĤ ģ
Ġje d
×Ļ× ŀ
Ð´ Ð·Ñı
ti que
Ð»Ð¸Ð³ Ð¸Ð½Ð¸
ĠÒĽÑŀ Ð»
ĠÐ±Ð¾ÑĪÒĽ Ð°
Ñħ ÑĤ
áĢĶáĢ¹áĢ¸ áĢĢ
áĢģáĢ²áĢ· áĢŀáĢĬáĢº
cion es
Ġáĥ§áĥķáĥĶáĥļ áĥĲ
Ġà´¸ à´¹
Ġà¤ķ à¥ģà¤
à¯Ģ à®°
ĠÂ §
ĠÎ±Î½ ÏĦÎ¯
Î¿Ïħ ÏģÎ³
ĠÐłÂµ Ðł
ĠÎ³ Î½Ïī
ĠÎ±Ïħ ÏĦÎ¬
ÏĥÎ¹Î¼Î¿ ÏĢÎ¿Î¹
ÏĢ Î¹Ïĥ
ĠÐ¡ Ð
ĠÏĥÏħÎ½ Îµ
ĠÐł Ñĳ
Î¼ Î¯
Ġ... </
G H
ĠÏĦ ÏģÎ±
Ò ĳ
ĠÎµÏĢÎ¯ ÏĥÎ·ÏĤ
al l
à§ģà¦° à§ģ
Ġàª¦ àª¿àªµ
Ġà°ļà±ĩà° ¶
m Ä±ÅŁ
j t
t l
à´ķàµįà´ķ à´¾à´°
ĠáĥĲáĥ ļ
ĠÐ½ Ñĸ
ĠØ¨ Ø§Ø´
men te
ë© °
Ġà®¨ à®¿à®±
Ð¾ÑģÑĤ Ð°Ð²
ĠÑįÑĤ Ð¸ÑĪ
Ð· Ð¸
ĠÃ ª
Ã½ m
Ġ$ (
àª¤ àª¿
à±įâĢĮ à°²à±ĭ
Ð²Ð°Ðµ ÑĨÑĨÐ°
Òĳ Ðł
ĠÐ¡Ð Ĭ
ĠÎµ Î½Î·
Î¼ÏĨ ÏīÎ½
ĠÐł ÒĳÐł
ĠÂ µ
ĠÐłÑĳ Ð¡
Ïģ ÏİÎ½
f er
ĠÙĪ Øª
b Äģ
à´¯ à´¿àµ½
ĠÑĤ Ð°Ð»Ð°Ð±
Ġprze z
Ġáĥ¡áĥĲáĥ¥ áĥĽ
à¦¾à¦² à§ĩ
ĠÐ¼Ð¾Ð¶ ÐµÑĤ
áĥļ áĥĶáĥĳáĥĺáĥ¡
ĠÐ°ÑĢ Ð³Ð°Ð½ÑĸÐ·
ĠÑĤ Ð°Ð²
ĠÃ ī
à°Ĥà° ¬
Ä± x
Ġà®ķ à®¾à®²
à«Ģ àª°
Ú¯ ÛĮ
Ġfo g
Ġáĥ¡áĥ®áĥķ áĥĲ
Ġà¤¬ à¤¹
ĠÐ¼Ð¾Ð¶ Ð°
×ł ×ķ
Ġh at
Ġàªµàª¿àª ¶
áĢŁáĢ¯ áĢĲáĢ¹
áĢĢ áĢ±áĢ¬áĢĦáĢºáĢ¸áĢ
Ø§Ø ·
Å¡ a
Ġjo a
à°Ĥà°¦ à±ģà°ķà±ģ
ĠÐ¼Ð¾Ð¶ Ð½Ð¾
Ġh lo
ĠÐłÂµÐł Âµ
Ġne u
à¦Ļà§įà¦Ĺ à§ĩ
ti i
Ġà°µ à°°
Ġc áº£
ĠÃ®ntÃ¢ln iri
t ul
à¦§ à¦¾à¦¨
Ð°Ñİ ÑĩÑĭ
s ki
Ġáĥĵ áĥĲáĥľ
ÑģÐº Ð¾Ð³Ð¾
Õ¡Õ¯ Õ¡Õ¶
Õ ¯
ĠkeÃ§ ir
áĢħ áĢŃáĢĲáĢ¹áĢ
áĢ±áĢĲáĢ¼ áĤķ
ĠáĢŀáĢŃáĢĽ áĢŀáĢĬáĢ¹
±áĢľ áĢ¬áĢĢáĢ¹áĢ
ĠáĢķ áĢ²
Ġáģģáģ ħ
Ġv et
é ¼
æİ ¢
Ġåį İ
Ġè ī
çĻ ¼
åĩº çİ°
à¹īà¸ ¡à¸
à¤²à¥ĩà¤² à¥įà¤¯à¤¾
Ġà¤¸ à¤¬
íķ ©
Ġà´µ à´¿
áĢ±áĢ¸áĢ ľ
Ġà¦¤ à¦¾à¦¦à§ĩà¦°
ĠÐ¿ÑĢ Ð°Ð³
áĥĶáĥ¡ áĥ¢
ĠÒĽ Ð¾Ð½ÑĥÐ½
ĠÑ Ķ
×Ļ× ¤
Ġà´ķ à´°
Ġpi Ã¹
Ġà®ļ à®®
ãĤ Ħ
à°¡ à°¾à°¨à°¿à°ķà°¿
Ã© ra
ĠàªŃàª¾àª° àª¤
ĠÑĨ ÐµÐ½
Ùħ Ø¯
Ġy er
à«ĩàª ĸ
Ð ĳ
áĢ¸áĢ ĩ
áĢĢáĢ¼ áĢĬáĢº
ĠÐ¾Ð´ Ð°Ð¼
ĠØ§ÙĦ ÙĦÛģ
ĠÙĦ ÙĪ
Ġà´ķ àµĩà´°à´³
an e
Ġà´¨à´¿à´° àµįâĢį
àµģà´¤ à´¿à´¯
Ġwer den
Ð°Ñħ Ð¾Ð´
áĥĺáĥª áĥĺ
te tt
ĠLat vi
ÅĨ u
à®¤ à®¿
ĠI gba
±áĢĳáĢ¬áĢĦáĢ¹áĢ ħáĢ¯
ĠáĢģáĢ¯ áĢĶáĢ¾áĢħáĢº
t Ãłn
Ġn Ã¡
Ġàª° à«Ģàª¤
àµģà´ķ àµĬ
ĠE l
ĠÐ½ Ð°Ð¼Ñĥ
p ra
èĪ ¬
æ¶ ¨
Ġè ¢
à¤¾à¤Ĥà¤ļ à¤¾
áĥĶáĥķ áĥĶ
iá»ĩ u
Ġì ¢
à¤Ĥà¤ ķ
Ð¾Ñģ ÑģÐ¸
Ø¹ ÙĦ
Ġà¦ķ à¦¾à¦
Ðµ Ð»Ð¸
à´¿à´ķàµįà´ķàµģà´¨àµįà´¨ à´¤
Ġà®µà¯ĩà®£à¯įà®Ł à¯ģà®®à¯į
en s
ar Ã«
ĠÐ² ÐµÐ»ÑĮÐ¼Ñĸ
ia d
áĢ¸áĢ±áĢ ķ
áĢ¶áĢ¯ áĢ¸áĢŀ
ĠáĢ¡ áĢĲáĢ¼áĢĢáĢ¹
ľ áĢŃáĢ¯áĢĢáĢ¹áĢ
ĠáĢļ áĢ¬
k Ã¤
ÐµÐ½Ð¸ Ð¹
Ġà¦¬à¦¿à¦ Ń
Ġà¤¦ à¤¿à¤¯à¤¾
on y
a ng
ĠÑĦÐ°Ð¾ Ð»Ð¸
Ð°Ñĩ Ð°
ĠÑĥ Ð½Ð¸Ð½Ð³
Ð¼ Ð°ÑĤÐ¸
Ġ×Ķ× ¢
áĢģáĢ¼ áĢĦáĢºáĢ¸áĢ
áĥĺáĥĻ áĥ£áĥłáĥĺ
Ð°ÑģÐ¸ Ð³Ð°
Ð´ ÐµÐº
ĠÐ¼ Ð°Ðº
à®ķà¯įà®ķ à¯ģ
ĠÐ´Ð°Ð¿ Ð°Ð¼
Ġæ ´
è¿ ½
çĸ Ĺ
3 2
çŁ Ń
0 9
Ġ à¸Ļà¸²à¸
Ġà¤° à¤¾à¤¹
ĠáĥĹáĥĳ áĥĺáĥļáĥĺáĥ¡
ĠáĥĲáĥĵ áĥĴ
ÙĤ Øª
ê± °
ĠÑĤÐ°ÑĬ Ð¼Ð¸Ð½
Ġd is
à¦¸ à¦²
ĠÐ± Ð°Ð»
Ġàª¤àª® à«ĩ
g at
Ġà´ħ à´Ń
ĠÐ´ Ð¾Ð»
Ġà®ª à®°
à¦° à§ĩà¦°
ĠÐº ÑĥÐ»ÑĮ
à¤ ¢
áĢĻáĢ¹áĢ ĺ
Ġe en
Ġà°ª à±Ĭ
ÑĬ Ð»
Ġshu mÃ«
Ġq ar
Ġà´¸ à´¿
Î¸Îµ ÏĥÎ·
ĠÎ³Î¹Î± ÏĦÎ¯
ĠÎºÎ¬Î½ ÎµÎ¹
Î¿Ïį Î¼Îµ
ĠÏĢ ÎŃ
ĠÎº ÏģÎ¹ÏĦÎ¹ÎºÎŃÏĤ
Î½ Îµ
ĠÎĿ Î±
ĠCym ru
ĠÎ³ ÏģÎ±
ĠÏĥÏħ Î¼Î²
ĠÎ² ÏģÎ¯
Î´ ÏĮ
Î¹ Ïİ
Î´Î· Î³
ĠÏĢ Î¯
Î¸ Ïħ
ÏģÎ¿ ÏĨÎ¿
ĠÏĢÏģÎ¿ÏĥÏī ÏĢ
ĠÎł Î¿Î»
ÏĦÎ¿ Î³ÏģÎ±ÏĨ
Ġ/> ...
b l
à´° àµĨ
n ego
ĠÐ¡ ÑĤ
Ġv ie
Ð± ÑĢ
Ġt áº¡i
ĠÙħ Ø±
Ġp rin
ĠÑŀ ÑģÑĳ
ĠÐ¹Ñŀ ÒĽ
Ð¸Ð¼ Ð¸
à¯ģà® ªà¯į
åľ¨çº¿ è§Ĥçľĭ
Ġà¤ľ à¤¿à¤¸
le g
à¹īà¸Ńà¸ ¢à¸
è´ ¸
à¸µà¸¢à¸ ĩà¸
ª à¸µà¸
Īà¸ ³à¸
Ġç¾İ åĽ½
¨à¸ ¶à¸ģà¸
6 9
ľà¸ ¥à¸´à¸
æľ Ĺ
Ġà¤ħà¤¸ à¤²
es sa
ĠáĥĻ áĥķ
´ë Ŀ¼
à¦¤ à§įà¦¯
à±ģà°¨ à±ģ
ĠÑĤ Ñĥ
ì¶ľìŀ¥ ë§ĪìĤ¬ì§Ģ
¯ ¼
Ð ¨
ĠÑĤÐ°Ð´ Ð±Ð¸ÑĢ
Ð°Ð± Ð¸
ãģĵ ãģ¨
àªĤàª ļ
àµĭà´Ł àµĨ
×Ļ× ¡
áĢ½áĢ± áĢĢáĢŃáĢ¯
áĥ§ áĥĿáĥ¤
ĠáĢľáĢ¯áĢķáĢ¹áĢ ĦáĢĶáĢ¹áĢ¸
áĢķ áĢ¯
Ġá»į ráº¹
Ġmo bile
ki ta
A S
ĠI N
Ġsi se
áĢ¡ áĢģáĢºáĢŃ
áĢĻáĢ¹áĢ¸ áĢĨ
ĠáĢĺ áĢļáĢº
Ã¶ y
Ġà¦¸ à¦¹
va Å¥
Ġà´ªà´±à´ŀàµįà´ŀ àµģ
ĠD o
Ġmi má»į
Ġt ene
ĠCo ffee
Ġibara áº¹nisá»įrá»į
Ġi re
áĢ´ áĢ¸
áĢķáĢ¹áĢ Ĳ
ĠáĢĻ áĢ®áĢ¸áĢ
ĠBi kini
oo l
à®° à¯ģà®®à¯į
ag i
Ġes i
à«ĩàª ľ
è¯ķ çİ©
åŃ¦ çĶŁ
ä¸Ģ æŃ¥
æľ ¨
-- --
ľà¹Īà¸² à¸Ļà¸
Ġé ĥ
æ ¤
Ġà¤® à¤¾à¤
Ġib ere
Ġbi kini
ka láº¹
Ġëı Ļ
ÙĦ ÙĪØ¯
Ã© es
ĠáĢķ áĢĲáĢ¹áĢŀ
áĢģ áĢĦáĢ¹áĢ¸
ĲáĢ¼ áĢĦáĢ¹áĢ¸
±áĢľ áĢ¸
ĠáĢ±áĢĽ áĢ¼áĢ¸áĢ
áĢ¸áĢ ģáĢº
ĠáĢĢáģ½ áĢ¼
áĢĩ áĢ¬
áĥĴ áĥĲáĥľ
ĠÙĨ Ùħ
t lo
à°° à°£
Ñĥ Ð´Ð¸
l t
áĢ® áĢĴáĢ®
ĠØ§ÙĦØª ÙĬ
¢à¸ §
åĲ ¯
Ġ2019 å¹´
à¥ĭà¤ §
es te
á»į mu
Ġdu du
st Äģ
Ġso ri
ĠP u
Ġá¹¢i gba
á¹£ in
àµĭà´Ł àµį
áĢ±áĢ »áĢķ
áĢķ áĢ°
Ð·ÐµÐ½ ÑĮ
Ġif ara
ĠBa yi
ĠB lack
à®¿à®ķ à¯į
Ġaba jade
Ġsá»į rá»į
Ð¾ÑĢ Ð¾
li an
ÙĤ ÛĮ
Ķ áĢŃáĢ¯áĢĦáĢº
Ġm iran
à«ģàª ¦
as e
ĠÐ¢ Ð°Ðº
à¦¾à¦° à§ĩà¦°
Ã¡ o
Ġpin nu
ĠNa ij
Ġnu de
r om
Ġà´İ à´Ĥ
Ġis in
Ġob inrin
ĠIla na
B I
Ð°Ñ ĺ
Ġn lo
Ġi boju
ĠT u
Ġà´ª àµĨ
Ġå® ĥ
åĲ «
áŀ Ķ
Ġagçİ¯äºļ å®ĺç½ĳ
ç»ı å½©ç¥¨
Ġ ä¸»
ä¿ ĥ
Ĺà¸ ĩà¸
ģà¹Ī à¸Ńà¸Ļà¸
«à¸¡à¸ ·à¸Ńà¸Ļà¸
Ĭ à¤¨
Ġá»Į pá»įlá»įpá»į
ĠH D
eg e
ĠÑģ Ð¸
Ñı ÑģÐ¿
à±ģà°Ĥà° ¡à°¾
Ġáĥ¡ áĥŀ
ĠÕ «
Ġki mi
Ġala koso
Ġi hwo
ĠG áº¹gáº¹
res s
á»į láº¹
li c
Ġà´µ àµĪ
ku ru
Ġá»į pa
ĠA M
ri l
Ġc f
ĠA d
Ġi rá»į
L O
Ġá»į sáº¹
ĠUni versity
ĠDa vi
ģáĢ¼ áĢĦáĢºáĢ¸
ng u
káº¹ le
Ġiá¹£ iro
Ã ¯
f á»įwá»į
Ġåı¯ ä»¥
Ġà¤¯ à¥ĩà¤¤
m ir
Ġf u
à¤¾à¤ ĵà¤Ĥ
Ð¾Ð²Ð°Ð½ Ð¸Ñı
ĠÐ¿ Ð°Ñŀ
áĥĺáĥľ áĥĺ
à§Ģ à¦¨
Ã¶ tt
Ġáº¹ tá»į
ĠNaij iria
ĠAla koso
Ġki ka
ĠAn dro
Ġa já»į
ĠSho w
ĠS t
ìĭ Ŀ
à´· àµįà´Ł
à«Ģàª ²
ç» §
Ġá ī
æ± ī
à¥ĩà¤ ¦
ar an
Ġà®ħà®¤ à®¿à®ķ
ĠØ¬ Ø¨
ĠáĢĳ áĢ¯áĢĲáĢº
lu gu
à°¾à°² à±įà°²à±ĭ
ĠSi báº¹sibáº¹
pu ta
ÙĤ ÙĬ
ĠÐ£ ÐºÑĢÐ°ÑĹ
ÐºÐ¸ Ð¹
b inrin
Ġk pa
Ġhi áº¹
AR A
y á»įn
Ġáº¹ ri
Ġfo ju
ĠAndro id
Ġr ere
Y E
Ġopo pona
Ġmeje eji
Ġigb ag
Ġe ti
b ili
ĠIs ra
Ġáº¹ da
Ġnu kun
abo bo
da y
Ġo á¹£iá¹£áº¹
Ġawo á¹£e
Ġ??? ?
p hi
ju mo
T A
ĠBi o
6 1
11éĢī 5
áł ¦
ģ à¸£à¸£à¸¡à¸
æī ĺ
Ġå¤§åıĳ å½©ç¥¨
à¥ĥ à¤¤
ĠÐ±Ñĭ Ð»Ñĸ
Ġà´¨ à´¿à´¯
R E
k iri
ĠÐŁ ÑĢÐµÐ·
Ð½ÑĭÐ¼ Ð¸
ĠÑĢ Ð¸Ð²
ĠÑĥ ÑģÑĤ
Ġ Å
ĠØª Ø§
áĢ¹áĢ Ļ
áĢĻáĢ» áĢ¾
Ð»Ð¸ ÒĽ
Ð»Ð°ÑĢ Ð¸Ð½Ð¸Ð½Ð³
ĠÐ¼Ðµ Ò³
Îº Î»Î·
Î½ ÏĮ
Ġ/"> </
Ġd d
Ġàªª àªĽà«Ģ
áĥĶáĥĳ áĥĶáĥļ
Ġà°® à°¾à°Ł
ĠI ru
à¦°à§įà¦ ¥
do ju
Ġáº¹ mi
Ġd an
Ġe po
áĢĦáĢŃáĢĻáĢ¹áĢ¸ áĢģáĢºáĢĻáĢ¹áĢ¸
áĢ½ áĢ¬áĢ¸áĢĽ
×Ļ× Ľ
Ã¶ k
Ð°Ð¼Ð» Ð°ÐºÐ°ÑĤ
nie j
ĠÐŁÑĢÐµÐ· Ð¸Ð´
Ġht ml
¥à¸ ±à¸
à¸£à¸µà¸§à¸´à¸ §
Ġag æĹĹèĪ°
ç§Ĵ éĢŁ
22 2
³à¸ Ħà¸
Ġd88 å°Ĭé¾Ļ
Ġäºļæ´² æ¸¸æĪı
Ġäºļæ¸¸ å®ĺæĸ¹
èĥ Į
ç§ Ģ
åĲ ¸
· à¸Ńà¸ĩ
éĢ ı
Ġà¤¹à¥ĭà¤¤ à¥Ģ
ĠÒ³Ð°ÒĽ Ð¸Ð´Ð°
ĠÒĽ Ð¸Ñģ
ke ji
Ġigb imá»į
Ġlo di
à°® à±ģ
ĠA won
à±Ĩ à°¨
Ø§Ø± ÛĴ
Ġìĭ ł
à´Ļàµįà´Ļà´³ àµģà´Ĥ
á» ı
Ġt so
ĠÐ¿ Ð°Ð·
ĠØ§ÙĦØ °
Ġi sh
Ġáĥ¡áĥĲáĥ ¨
ĠàªĨ àªľ
à®¤ à¯Ī
Ġki ká»į
âĢ Ļ
Ġr Ã©sz
ti ve
ĠáĢĲáĢĽ áĢ¬áĢ¸áĢ
Ġto ol
ĠRa il
wa y
ĠÑĩ Ðµ
ĠÐ¾ Ð·
oni c
Ġl oni
áº¹ kan
wu tu
D E
Ġw an
h te
Ġi ká»į
à¸´à¸ Ķ
Ġè ĥ½
åıĳ çİ°
p j
à¸Ļà¹īà¸ ³
æį ķ
± à¹īà¸Ļà¸
Ġåľ °
Ġå Ŀ
à¹īà¸Ńà¸¡à¸ ¹à¸
éĥ½ æĺ¯
ä¹¦ è®°
áŀ Ł
à¸£à¸£à¸ ¡
Ġé Ł©
å³ °
è¿ĩ ç¨ĭ
èį ī
à¹ģà¸ ķà¹Ī
Ġæĺ ¨å¤©
à¹īà¸ ³à¸
Ĺà¸³ à¹ĥà¸«à¹īà¸
èį Ĳ
ç» Ŀ
é¾Ļ èĻİ
åĪ ¤
Ġà¸ «
à¤¿à¤ Ł
ÑĨ Ð°Ñŀ
v y
ĠÑģ Ð°Ð¹
à§ģà¦ ĩ
àª¾àª¨ à«ĭ
ĠáĢ¡ áĢĽáĢ¬
Ú© ÛĮ
Ġent re
Ġáĥ£áĥ¤ áĥłáĥĿ
àµĨà´¯ à´¾à´£àµį
ê° ľ
ĠW or
Ġá¹¢ a
tu tu
Ġà®ļà¯Ĭ à®²à¯įà®²
Ġl Ä«dz
ag un
áĢľ áĢ¬áĢ¸áĢ
ĠáĢ¥áĢķ áĢ±áĢĴ
Ĺ áĢº
áģ¾áĢĢ áĢĻáĢ¹áĢ¸
áĢŃáĢ¯áĢ¸áĢ ŀ
Ġà¦ķ à¦¿à¦Ľ
à±ĭ à°Ĥà°¦à°¿
àµĩ à´¾
Ġà®¤ à®©
ĠÐ² Ð¸
Ġà´µà´¿à´ ¦
ie i
la ng
Ġà°ħ à°¦
áĢĢáĢŃáĢ¯ áĢļáĢº
ĠLo ri
Ã© Ì£
c ÉĻk
ĠÐ½ Ð¾Ð²
ĠØ³ Ø§ÙĦ
ĠÐ°Ð´ Ð·Ñĸ
Ġ×© ×Ķ
Ġæ² ¡
æł· çļĦ
æĭĽ åķĨ
é Ĩ
å¾Ī å¤ļ
à¹īà¸ ĩà¸
Ġà¤ķà¥ĩà¤² à¥ĩ
áĤĪ áĢķáĢ¹áĢ
áĢĺ áĢ±áĢ¬
Ã¶ r
ĠÐ¿ Ð°Ð¹
Ġà«§ à«
Ġàª¸àª® àª¯
vo ir
Ġà´ļ à´¿à´¤àµįà´°
ëį °
Ġà°ªà±įà°°à°Ń à±ģà°¤à±įà°µ
ĠÐ² Ð¸Ð´
Ø§Ø ¶
àµĤ à´°
Ġna j
ÏĢÎ· ÏģÎµ
ĠÏĮ ÏĩÎ¹
Îº Î·
ĠÏĢ ÏģÎ¬
ÏĬ ÏĮÎ½
ĠA C
Îº ÎµÎ¹
Î¼Î¿ ÏĤ
Ïĩ ÏģÎ¹
ÎŁÎ Ŀ
Î¼Î¹ Î¿ÏħÏģÎ³
Î §
Ġu00 3
Î¼Îµ ÏģÎ±
Ġgy da
Ġcom o
à±Ĩ à°ķ
ĠáĢĻ áĢ²
ĠáĥłáĥĿáĥĴ áĥĿáĥł
Ã Ħ
áº ±
Ð² Ð°Ð»
Ġ áĤıáĢ½áĢĦáĢ¹áĢ·
±áĢķ áĢ¸
áĢĲáĢ½ áĢ±áĢĢ
Ġt ar
áĢŃáĢ¯áĢ¸áĢ ħ
Ġp Äĵ
à®¾à®¤ à¯ģ
à´® à´¾à´ķàµįà´ķ
Ġbá»į tini
Ġá¹£a fihan
ĠJ une
Ġdo po
ĠA ma
F A
Ġy á»įn
ĠT un
W O
K U
Ġigba dun
Ġjan Ã«
Ġpa de
Ã© Ì£n
Ġìĺ ģ
p re
Ġà°¨ à±Ģ
do po
ol l
gi di
Ġáĥ¡áĥĲáĥ ĸ
ÑĥÑĢ Ñģ
ĠPro du
Ġita ja
tiwá»į ki
ĠJ Ã©
Ġwáº¹ áº¹
Ġi wo
Ðº Ð°Ð¼Ñĸ
áĢĦáĢ¹áĢ ±áĢĲáĢ¼
ĠáĢ¡áĢľ áĢ¯áĢķáĢº
ĠgÃ¶ rÉĻ
n Ã«
êŀĮ a
Ġi gi
à§įà¦ Ľ
ãĥ Ń
Ġe ta
áĢ¯áĢĶáĢ¹áĢ¸ áĢĢ
áģ¾áĢĢ áĢ¬áĢ¸
áĤ ĳ
áĢ±áĢķ áĢ¸
¥ áĢ®áĢ¸
áĢ°áĢ¸áĢ ħ
ĠÑģ Ð¾Ð±
à®¾à®± à¯įà®±
Ġ **
sh i
Ġe ngine
ĠS I
Ġki a
ĠP ar
Ġ( '
Ġàª¦ à«įàªµ
Ð² Ð°Ñŀ
ĠNe ws
ĠáĥĽáĥ® áĥĿáĥļáĥĿáĥĵ
à°¿à°¨ à±įà°¨
ĠE ng
è ĵ
à¸Ļà¸ ±à¸ģà¸
ä¸Ń æĸĩ
åº Ħ
è¿ ·
Ġà¤¤ à¥įà¤¯à¤¾
Ġh un
Ġ Ď
po pe
ĠC ar
lo g
Ġà´¤àµģà´Ł à´Ļàµįà´Ļ
ci d
Ġâ ģ
Ġâģ ´
Ġwi wa
Ġà¤ĩ à¤¨
ĠI D
ĠB lu
ĠT it
ĠI ya
ow er
torin aa
B O
ĠA pp
fá»įwá»į yi
ĠÃ ²
ÙĬ Ø§Øª
Ã¡n ÃŃ
Ðº Ð°Ñħ
ĠÑĩ Ð¾ÑĢ
ĠáĢķ áĢĬ
à¦ª à§ģà¦°
à§ĭ à¦ķ
áĢĢ áĢ±áĢĽ
áĢ¯áĢŃ áĤķ
ĠáĢķáĢ« áĢĲáĢ®
Ġà´ķ à´Ł
áĢħ áĢ¬áĢ¸áĢĽ
ĠÛģÙĪ Ø¦ÛĴ
áĥĶáĥ ŀ
ĠÐ´Ð¸ Ð³Ð°ÑĢ
âĢĮ ÙĩØ§ÛĮ
Ġë§ Į
Ġà¤ľ à¥Ģ
ģ áĢĶáĢ¹áĢ¸
ŀ áĢĬáĢ¹áĢ
áĢ±áĢ ģáģļ
ĠáĢ¡áĢ² áĢĴáĢ«
áĢ¬áĢ¸áĢĻ áĢ»
t le
áĥ£áĥ ¥
ĠI l
Ġc i
Ġà® ¸
Ð´ Ð¶
à°° à°¿à°ķ
ĠØ£ ÙĪ
Ġàª² àª¾àªĹ
áĥĲáĥ «áĥļ
à´¦àµįà´¦ àµĩà´¹
Ġmin den
Ġà¸ ¢
è ĸ
å§Ķ åĳĺ
Ġà¤ª à¤¾à¤¹
Ñħ Ð¾Ð´Ð¸
Ġà¤°à¤¹ à¤¾
Ġà¦®à¦§à§įà¦¯ à§ĩ
wy n
Ġ×ĳ ×¢
Ġs po
ĠÐŁ ÑĢÑĭ
àª¿ àª®
Ġà°ªà±Ĩ à°Łà±įà°Ł
Ø§ÛĮ Ø§
Ġê¹ Ģ
Ġë ħ
à±ģà°² à°ķà±ģ
ĠÐ¿ Ð°ÑģÑĤ
ÐµÑĢ Ð¶
Ġà¤ķà¥ģà¤ Ľ
Ġal s
Ð°Ñļ Ðµ
Äĥ ri
Ġs áº½
ÑĢ Ð°ÑĨ
Ġn Ã©
m Äĵ
ks en
Ġáĥ¡áĥĲáĥ Ķ
à®µ à¯ģ
ÄŁ a
àµĭ à´°àµįâĢį
Ġà´Ĩ à´µ
à¹Īà¸²à¸ §à¸
Ġà¸ «à¸£à¸·à¸Ńà¸
éļ ı
Ķà¸ ³
à¤¾à¤£ à¥Ģ
áĢ¡ áĢ¬áĢ¸áĢľ
ì ħ
Ð¼ Ð¸Ð¹
ĠÐ°Ð¼Ð°Ð» Ð³Ð°
ĠÒĽÐ¸Ð» Ð¸Ð½
ÑĥÐ¼Ò³ÑĥÑĢ Ð¸Ð¸
ĠÐ¢ Ð¾ÑĪ
ĠÑĩÐ¸ÒĽ Ð°ÑĢ
ĠÒĽÑŀ ÑĪ
ĠÑį Ð¼Ð°Ñģ
Ð± ÐµÐº
ĠÒ³ ÑĥÐ¶
ĠÑħ Ð°Ð±Ð°ÑĢ
à°¾à°Ł à±ģ
ĠÐ´ Ð°Ð´
ãĥ ķ
ĠÑģ Ð¾Ð²
ÙĪØ± ÛĮ
k t
±áĢĽ áĢ¬
áĢ¥ áĢķ
Ġáĥĵáĥĺáĥĵ áĥĺ
ĠÑĤ Ð°Ð¹
ĠáĢĲáĢħáĢ¹áĢ ģáĢ¯
ĠáĢ¡áĢħ áĢ®
Ĺà¸µà¹Īà¸ Īà¸°à¸
Ġé £
à¹Ģà¸ģà¸ ´à¸Ķà¸
à¤² à¤Ĥ
Ñ ļ
ĠÑĥ Ð·
è½ ®
Ħà¸ ´à¸Ķà¸
Ġçİ¯äºļ æīĭæľº
ä¿¡ èªī
ä¿ Ħ
Ġæ±Ł èĭı
Ġæİ ¨
ªà¸£à¹īà¸²à¸ ĩà¸
Ġå· ¥
è´ «
ĠåĲĮ æĹ¶
éĴ ¢
à¥ģ à¤£
ĠÑı Ñħ
à«ĩàªŁ àª²
Ġm me
Ġo raz
à°¾à°° à°¾
à§Ģ à¦¬
Ġì¹´ íĨ¡
Ġë ¯¸
áģĢ áĢĦáĢ¹
áĢ±áĢĶ áĢĲáĢ²áĢ·
áģ ī
Ð°Ñİ Ñī
ÑĢ Ð¾Ð½
ĠÏĩÏģÏĮ Î½Î¹Î±
ĠÎ¼ÎµÎ³Î±Î» ÏįÏĦÎµ
ÎµÎ¹ ÏĦÎ¿ÏħÏģÎ³
Î¹Î½ Î®
ĠÎķ Î¯Î½Î±Î¹
Î»Î¿Î³ Î¯Î±
ĠÎĳÏħ ÏĦÏĮ
ÏĥÏĦÎ· Î¼Î±
Î´ ÎŃ
Î´ Î±ÏĤ
ĠÎµ Î¼ÏĢ
ĠÎĳ ÏĢÏĮ
ĠÎº Î¿Ïħ
ĠÏĩÏģÎ· ÏĥÎ¹Î¼Î¿ÏĢÎ¿Î¹
Î´ ÏģÎ¿
ĠÎ¿ Î¼Î¬
ÏģÏī ÏĥÎ·
Î¼ÎŃÎ½ ÎµÏĤ
ĠÎºÎ¬ ÏĦÎ¹
ÏĦ Ïĥ
ÏĦÎµ Ïħ
ÎĳÎ ¡
ĠÎ¼ÎŃ ÏĩÏģÎ¹
Î» Î¹ÎºÎ¬
ÏĦÎ¿ ÏįÎ½
ĠÏĨ Î±
ÏĢÎ¿ ÏĤ
Î¸ ÏģÏī
ia u
Ġtou t
Ġåĩ º
æ¶Ī è´¹
ãĢ İ
ĵà¸ ĳ
æĺ¾ ç¤º
åħ¬ åĬ¡åĳĺ
į à¸²à¸
à¹Ģ à¸Ńà¸
«à¸¡à¸ Ķ
Ġè¿ Ľ
åį Ī
áŀ Ľ
Ġ1 11
æĹħ æ¸¸
æīĭæľº çĻ»éĻĨ
æ± ĩ
èĹ ı
à¸Ļà¸µ à¹Ī
åĲ ¬
à¹Ħà¸§ à¹ī
n s
è§Ħ åĪĻ
ç¡ Ģ
er st
¸ à¸Ļ
Ġà¸ŀ à¸£
Ħà¸ ·à¸Ńà¸
à¥ģ à¤µ
áĥĺáĥłáĥ ĵ
áĢ±áĢ ģáĢº
±áĢ Ĵ
os ted
ĠáĢĻáĢ¼áĢĶáĢº áĢĻáĢ¬
ľ áĢ²
à´ ĸ
Ð»Ñĸ ÑģÑı
Ġà®ī à®£
Ġà¦Ĩà¦® à¦¿
Ð Ĺ
ĠÑĢ Ð°Ò³
to v
ÉĻ li
¡ áĢĲáĢ¼áĢĦáĢ¹áĢ¸
ĠáĢĢ áĢ±áĢľ
Ķ áĢļáĢ¹
ĠáĢ»áĢĸ áĢħáĢ¹
áĢĲáĢħáĢº áĢģáĢ¯
s kie
ĠÑĦ Ð¾Ð¹
ĠÑĪÐ°Ò³ ÑĢÐ¸
Ġà¦¬ à¦Ľ
s sa
ĠáĥĶ áĥ¥
ĠÚ¯ Ø§
Ġm Ã¡s
×ľ ×Ķ
ÒĽÑĤÐ¸ Ñģ
à±Ģ à°¡
ĠÐ¿ Ð¾Ð²
Ġ6 up
éĽ »
à¹Ģà¸¥ à¹Īà¸Ļà¸
à¸µ à¹Ī
è¿Ľ åħ¥
åĵ ¥
å¼Ģ åıĳ
ļà¸²à¸ Ħà¸²à¸£
à¹Ĥ à¸Ńà¸
à¹Ģà¸£à¸µà¸ ¢à¸Ļ
à¨¿à¨ Ĩ
Ġà¤® à¤¾à¤°
Ġà´® à´±àµįà´±
Ġtr a
ĠÑŀ Ð²
Ð± Ð¸Ð¹
ĠÐ³ ÑĥÑĦ
à«ģ àª¨
à±ĭ à°Ł
ê¹ Į
áĥĶáĥĳ áĥĿáĥĵáĥĲ
Ðº ÑĥÑĢ
à¦ª à§įà¦°
Ġà´° à´£àµįà´Ł
Ûģ Ø±
Ðº Ð°Ñı
à¥ģ à¤¤
Ø¨ Ø©
à®¿à®¯ à¯ģà®®à¯į
áĤıáģ ²
áĢĺ áĢ°áĢ¸áĢ
áĢŀ áĢ®
Õ¥ Õ¶
ÉĻ dÉĻ
Ġd á»¥
ma s
ere a
Ġáĥ £
Ġà´Ĩ à´¯
áĢŀ áĢ¶
ĠÑıÐº Ð°Ñı
n Ã½ch
Ġk on
ĠÃª tre
áĢŃ áĢķ
áĢĶ áĢ±áĢŀ
ÑĢ Ð¾Ð²
Ġìļ °
à¦Ĺ à§įà¦°
Ġáĥ Ń
ãģ ¡
à±ģà°Ĺ à±ģ
áĥĲáĥķáĥ¨ áĥĺáĥł
un u
Ġàª Ŀ
à®¾à®¯ à¯į
ĠÐ³Ð¾Ð´ Ð·Ðµ
Î¼Î¿ Ïģ
Î½ ÎµÎ¹
Î»Î· ÏĤ
ĠÎ±ÎºÏĮ Î¼Î±
ĠÎ± Î³Î¿
Ġgyf er
or t
ng i
ĠÐºÐ¾ÑĤ Ð¾ÑĢ
åıĳ çĶŁ
à¤°à¥įà¤ ¥
kan na
à¦¿à§Ł à¦¾
Ġo gb
Ġo p
la i
à°¾à°· à±įà°Łà±įà°°
ju má»į
Ġd á»įna
c tor
ĠR un
Ġáº¸ rá»į
ĠWe b
amáº¹ ra
Ġid in
à°°à±įà° ļ
ĠO f
à´¿à´ķàµįà´ķ à´¾à´¨àµįâĢį
à® ŀà¯įà®ļ
Ġ" .
E L
Ġs ho
Ġkoo du
Ġipa má»į
tra s
Ġa á¹£eyá»įri
ĠP M
w er
Ġà´ķà´´ à´¿à´ŀàµįà´ŀ
Ùħ Ûģ
ch a
ĠAf iri
Ġ6 0
du ra
Ġor g
Ġ201 1
Ġiya tá»į
à² °
f á»į
Ġà¦¹ à¦¯à¦¼
A TI
j láº¹
Ġaá¹£ oju
z on
Ġ201 0
Ġa lá»į
ĠA de
li ng
ĠI sa
Ġi báº¹ráº¹
Ġati já»į
Ġfi fi
ĠAfiri ka
×Ļ ×ķ
Ê Į
Ġapo ti
Ġen ia
os á»į
Ġwu tu
Ġibu do
ĠÃĮ tÃłn
t on
ĠÑı ÑŀÐ»Ñı
Ð³ ÑĥÐ·
la si
ÑĬ ÑĤ
Ġob irin
Ġo ru
Ġà´° àµĤà´ª
áĥĶáĥĳ áĥĶáĥľ
Ġf ara
Ġâ ĩ
ĠìŀĪ ëĬĶ
Ù °
Ġà¤¨ à¤¿à¤µ
Ġà´® à´¤
Ġà¤¸ à¥įà¤¥
à¯ģà®ķà¯įà®ķ à¯ģà®®à¯į
à°Ĺ à±įà°Ĺ
Ġa o
Å¡ áº¹
w it
ĠáĢĲ áĢķáĢ¹áĢĻ
ĠáĢ±áĢĶ áĤĶ
ĠáĢ¡ áĢĻáĢ»áĢŃáĢ¯áĢ¸áĢŀ
ĠØ¨ ÙĦ
Ġti to
Ġco ffee
Ġibi ti
ĠI ho
mi ted
ĠâĢĿ, âĢĿ
Ġá»į ba
ĠàªĨàªµ à«ĩ
ĠáĢĶ áĢ¶
Ġw in
Ġolo ri
ĠI pele
y u
ĠEle yi
let te
Ġgidi gidi
da i
Ġk iri
ĠÒ¶ ÑĥÐ¼Ò³ÑĥÑĢÐ¸Ð¸
ÑĪ Ð±Ñĥ
ĠÐ± Ð¸Ð·
Ðº Ð¾Ð½
ĠS an
Ġà°ªà°¾à°° à±įà°Ł
Ġà®µà®¾à® ´
áĥł áĥĲ
ĠáĢľ áĢŃáĢ¯áĢĢáĢ¹áĢ
áĢ»áĢķ áĢ®
áĢĢáĢ¹áĢ ĻáĤĪ
áĢĽ áĢķáĢº
á»įn á»į
ku ro
Ġn yin
po r
Ġm beni
at un
ĠA ir
Ġà´µ à´²
Ġà°¸ à±įà°¥
en u
ÑģÑĤ ÑĮ
ĠØ¯ ÛĮØ§
Ġo tutu
ĠÙĪ Ø£
indow s
Ġwi wo
ĠÐľ ÑĸÐ½
ĠÐ¿ Ð°Ð¿
Ãª u
Ġaz Ã³Ì£n
Ġyi pada
ĠF or
Ġà®ķ à®Łà¯įà®Ł
om an
Ġsi san
ĠAgb ara
Ġiá¹£ an
áĥĶáĥ £áĥļ
ili onu
Ġa sá»į
ÃŃt Ã©s
ãģ ¤
am es
ÙĪØ± Ø¯
ĠI f
Ñĥ Ð»Ð¸
ĠB ro
Ġlo êŀĮo
Ġáº¹ni ti
em ber
Ġade hun
c to
Ġn de
ar un
Ġàªľ àª¾àª£
ĠT O
lis ti
Ġo g
ĻáĢº áĢ¬áĢ¸áĢ
áĢĢáĢ¼ áĢ¬
àµģà´ ·
Ð°Ð¼ Ð¸Ð·
ĠÐ¼ ÑĥÑĢ
ĠA i
à² ¿
Ġa bu
Ð» Ñĥ
ĠA á¹£a
Ġom áº¹
ĠA gba
Ġáĥ¬ áĥ§
ĠØ¨ Ø¹Ø¯
A M
Ġá»į tun
ĠO s
ch i
ou lette
Ġitan na
me eli
á¹£ an
Ġoke ere
t in
Ġà´İà´¨àµįà´¨ àµį
Ġà¤¦ à¥ĩà¤ĸ
I S
Ġ5 00
ĠF ran
áĢ±áĢ »áĢķáĢ¬áĢĦáĢ¹áĢ¸
áĢ½áĢº áĢ¬áĢĢáĢ¹áĢ
áĢĢáĢ¼ áĢ±áĢ¬áĢĦáĢº
· à«įàªŁ
ë¶ Ħ
ĠT áº¹
ĠK listi
Ġn do
Ġd Ã¨
à§ĩà¦¨ à§įà¦Ł
ĠÑģÑĤ Ð°Ð½
ĠtÃ« nÃ«
Ġai gba
táº¹ láº¹
Ġa á¹£iá¹£e
ĠT V
ĠI p
ĠI P
ĠAn kara
os an
ca tion
a wá»įn
Ġgba ngba
ĠÐ¸Ð½ ÑģÐ¾Ð½
áĢŃ áĢ°
áĢ¹áĢ Ģ
Ñĥ ÐºÑĥ
ir áº¹
Ã² Ì£n
áĢ¬áĢ¸áĢŀ áĢ°
Ġa yan
Ġn fun
Ġi run
et ro
Ġà°İ à°¨à±įà°¨
Ġigb áº¹
Ġdi de
ĠI pa
G Q
CD D
Ġafáº¹ fáº¹
Ġoju la
Ġiba tan
Ġh ia
Ġá¹£i gba
Ġisin mi
Ġsun má»į
Ġo k
Ġà®Ĩ à®ķ
ng _
àµĢ à´¸
è®° èĢħ
æĶ¯ æĮģ
ĠE 0
è ¼
æĿ ¯
Ġ2 åĪĨå¿«3
æŃ Į
·à¹Ī à¸Ńà¸Ļ
Ġå¾ Ī
éĢ Ļ
Ġçİ¯äºļ çĶµæ¸¸
Ġà¸ªà¸ ³à¸«
Ġï¼ī ï¼Į
æĥ ł
åĭ ķ
ķ à¹Įà¸
à¤¿à¤¤ à¥įà¤°
ÐµÐ½ ÑĤÐ¸
ĠÐ½ Ð°ÑģÑĤ
áĢĽ áĢķáĢ«áĢĲáĢļáĢ¹
áĢ±áĢĲáĢ¼ áĢĶáĢ²áĤĶ
ĠáĢķ áĢĬáĢ¬
Ġ áĤıáĢ½
áĢĲ áĢĦáĢ¹
áĢĢáĢ¹áĢ ĢáĢŃáĢ¯
áĢĶáĢ¹áĢ Ĵ
ng we
ĠÐ¼ ÐµÑĤ
Ġf in
ĠÄĳ Ã³
to o
áº¹n áº¹
ng g
Ġpo pu
Ġn in
×¤ ×¨
à±ĩ à°²
ĠT CDD
Ġda li
ĠH i
ĠáĥĻáĥĿáĥĽ áĥŀ
ĠDi áº¹
Ġá»į run
Ġo di
Ġá¹£áº¹ láº¹
à§įà¦¤ à§ģ
Ġàª°à«Ģàª¤ à«ĩ
ĠA máº¹
à¥įà¤ ¡
ĻáĢº áĢ¬áĢ¸áĢĢáĢŃáĢ¯
ĠâĢ¦ .
áĢĢáĢ±áĢĽ áĢħáĢ®
ĠáĢģ áĢĽ
is en
Ġwáº¹áº¹ bu
Ġo bi
Ġ. "
I K
Ġpá»į ju
f ia
ĠIro yin
p to
Ġ200 9
Ġif owo
Ġi jin
áĢº áĢ¬áĢĢáĢ¹áĢ
ĠáĢ±áĢ »áĢģ
áĢ±áĢĲáĢ¬ áĤĶ
áĢĿ áĢĦáĢ¹
áĢķ áĢŃáĢ¯áĢĦáĢºáĢ¸áĢ
Ġa mo
Ġáĥł áĥĶ
ĠÐºÐ°Ð¼ Ð¿
ĠØ¨ Úĳ
aêŀĮ an
Ġkia kia
Ġaká»į á»įláº¹
ĠOlo run
Ġ Åĭ
ye wo
Ġa ja
ĠØ§ ÛĮØ±
i wá»įn
Ġwh áº¹
Ġá¹£a laye
lo ri
ra l
ĠFa cebook
agbe ka
ĠØ¯ Ø³Øª
Ġga ngan
à· Ģ
Ġà¤¹à¥ģà¤ ı
Ã² g
ol d
ĠI di
Ġ9 0
Ġipin le
Ġdin ku
ĠI mu
Ġá»į ran
Ġáº¹ sáº¹
Ùħ ÙĬ
Ġà¦¹ à¦²
ĠáĥĽ áĥĿáĥķ
Ġi ku
ĠI po
Ġala bara
v en
ran s
ĠÐ¡ Ð¿
li mited
Ġsi báº¹sibáº¹
Ġto ngana
ĠAmáº¹ rika
Ġtu má»į
ĠÐ±Ñĭ Ð»Ð°
Ġ3 D
Ġif e
Ġi j
Ġáĥ¨áĥĶ áĥĺáĥ«áĥļ
ko hun
ĠM in
Ġbáº¹ áº¹
ĠÑ Ĺ
ĠGáº¹gáº¹ bi
doju iwá»įn
Ġg á»į
Ġfun fun
Ġla ng_
Ġà´µ àµĩ
ĠE yin
Ġsi le
ĠAm eri
Ð°Ð² Ð°Ð»Ñĸ
ĠáĢ¡ áĢĺ
ķ áĢ¼áĢ¬áĢ¸áĢ
l ÉĻn
áĢ¼ áĢļáĢ¹
ĠáĢĹ áĢŃáĢ¯áĢľáĢ¹áĢ
ĠáĢĢáĢº áĢĶáĢ¹áĢ¸áĢĻáĢ¬
áĢķáĢ« áĢĢ
á»į vo
w Ãł
Ġà¤ķ à¥Ī
Ð¸Ñģ ÑĮ
ĠÑĤ Ð°Ð³Ð¾
íĸ Īëĭ¤
Ġà°¨à±ģà°Ĥà° ¡à°¿
Ð°ÑĤ Ð¾
áĥ ©
è Ń
å· Ŀ
æ±½ è½¦
åĪ ·
ä¸ ´
Ġà¤Ĩ à¤¯
Ġà´ħ à´±à´¿à´¯
Ø§Ùħ Ùĩ
Ġba keng
Ø± ÛĮÚ©
Ùħ Ø±
Ġà¦¹à§Ł à§ĩ
Ġfá»į á»įmu
ĠG er
Ð°Ñģ Ð¸Ð½Ð¸Ð½Ð³
Ð°Ð² Ð¸Ð¹
ĠÐ¼Ð°ÒĽ Ñģ
Ġà®¨ à®¾à®©à¯į
Ġáĥ£áĥ Ľ
ĠáĢħ áĢ®áĢĻ
ye v
Ġis ti
da l
à´¤àµįà´¤ à´¿
Ð°Ð½ Ð¸Ñı
áĢĻáĢºáĢ³áĢŃ áĢ¸áĢŀ
áĢ±áĢĳ áĢ¬áĢĢáĢ¹áĢ
áĢķáĢº áĢĻ
à®¿à®² à¯ģà®®à¯į
Ġà¤¹à¥ĭà¤¤ à¤¾
pin le
Ġta ara
Ġo bo
l ish
kÃłn lÃ¡
ĠáĢĴáĢ® áĢ¡
áĢŃáĢ³ áĢ¸
£ áĢº
áĢ±áĢĲáĢ¼ áĢĻáĢ½áĢ¬
áģ¾áĢĢ áĢŀáĢĬáĢ¹
áĢĨ áĢĢáĢº
Ð³Ð¾ Ò³
ĠyÃ¨ dá»į
Ġmáº¹ rin
ĠM Ã¬
k á»įn
Ġn pe
ĠS am
Ġr in
Ġà´ª àµĤ
Ġàª° à«Ĥ
Ġnu gbo
Ġgb ag
ÐµÑĤ ÑĮ
ts Ã©g
ĠJÃ© hovah
Ġá»į á¹£á»į
p ti
bi a
T E
d es
Å¡ e
ĠB ur
Ġpi pa
ou th
±áĢĢáĢº áĢ¬áĢ¹áĢ
áģ £áĢº
ĠP osted
áĢĻ áĢ®áĢ¸
áĢĦáĢ¹áĢľ áĢĬáĢ¹áĢ¸
ĠáĢ±áĢ »áĢĸ
áĢĢ áĢ²áĢ·
à§ĭ à¦®
Ġ ÛĮØ§
à´Ĺ àµįà´°
n Äħ
Ġnh Ãł
à«ģàªľ àª°àª¾àª¤
Ġàªķàª° àªµàª¾àª®àª¾àªĤ
Ġwá»į le
di mo
Ġr es
ta tion
ìĹ °
Ġb osá»į
Ì ±
za pa
men ts
di ti
w Ã²
Ñģ ÑĨÑĮ
áĢ¾ áĢĦáĢº
ĠáĥĲáĥķ áĥ¢
Ġà´® àµĨ
æĦ ¿
ªà¸ ĩà¸
ç³» åĪĹ
ķà¸²à¸ ¡
äº¿ åħĥ
Ġà¤ ĳ
ìĿ Į
à¯ģà®³à¯įà®³ à®¤à¯ģ
ĠÑĪ Ð°ÑħÑģ
ĠÐ¸Ð½ ÑĤÐµÑĢ
ĠÐ³ ÑĥÐ»ÑĮ
Øª ÙĬ
à´¦ àµĩà´¶
Ġáĥ¡áĥĲáĥ ĺ
à±ģà°Ĥà° ¡
áĢķ áĢŃáĢ¯áĢĦáĢ¹áĢ¸
ĠáĢľ áĢĬáĢ¹áĢ¸
Ġ áĤĢáĢĢ
áĢŃáĢ³ áĢĦáĢ¹áĢ
ĠáĢģ áĢ²áĢ·
Ł áĢ¬áĢĦáĢ¹áĢ¸
áĢ±áĢĲáĢ¬ áĢĦáĢ¹
áĢ¬áĢĶ áĢŃáĢ¯áĢĦáĢºáĢĦáĢ¶
ãĤ ¿
Ġt Ã¤
áĢħ áĢ¥áĢ¹
áĢĳ áĢ¬áĢ¸áĢĽ
Ġà°¨ à°¾
Ð¾Ð³ Ð´Ð°
Ġk ell
ÅĨ a
Ð ħ
ĠÑĢ Ð¾
áĥĺáĥĵ áĥĲ
Ġà°ķà±ĭ à°¸à°Ĥ
Ġà¦¦ à¦¿à¦¨
ĠáĢĢ áĢľ
ĠÐº Ð°Ð»
Ġ×ĳ ×ŀ×
iso a
Ġt lo
ĠÐ³ Ð°Ð»
Ã¼ m
áĥĶáĥĳ áĥĹ
à¦¸ à§įà¦¯
ĠìĦ ł
Ġàª¥ àª¾àª¯
ĠáĢŀáĢ° áĢ·
à¹Ĥà¸ Ķà¸¢à¸
à¤Ĥà¤¤ à¥įà¤°
Ġs Äħ
à¯įà® ¨
à´ªàµįà´ªàµĭ à´³àµįâĢį
Ġà´ Ĳ
Ġà°Ĩ à°°
áĢ¸áĢ±áĢ ĲáĢ¬
ĠáĢ±áĢĨ áĢ¼áĢ¸áĢ±áĤı
áĢħ áĢ¬áĢ¸áĢŀ
£Â ¬
Ġm Ãł
ĠÄ ģ
ĠÑĩ Ð°ÑģÑĤ
áĥĹ áĥ®áĥķ
en n
à®¤à¯įà®¤ à®¿à®©à¯į
Ġà´ķ à´¾à´²
ĠÐ¶Ð°Ð¼ Ð¾
ĠÒĽ Ð°Ð´
Ġà¦¬à¦¿à¦ ·
å¹ ¸è¿Ĳ
ŀà¸ ±à¸
ä¸Ń å¤®
ĠçĽ ¸
è» Ĭ
ļ à¥Ģ
áĢĲ áĢķáĢ¹áĢ
ĠáĢĶ áĢ¬
ĠØ¹ ÙĦÙĬ
il la
à±ĭ à°¦
s Åĳ
ĠáĢĲ áĢĬáĢ¹áĢ
ê ¨
ĠáĢ±áĢĻ áĢ¬áĢĦáĢ¹áĢ
áĢĽ áĢĦáĢ¹áĢ¸áĢŀ
ĠáĢĺ áĢ¬áĢŀáĢ¬
il li
tu ri
Ġoá¹£u wá»įn
ĠKá»į kÃłnlÃ¡
Ġrá»į yen
Ġp Ã³Ì£n
Ġo y
ĠÐµ ÑĢ
ĠÐ°Ð¹ ÑĤ
ĠÑĤÐ°ÑĢ ÑĤÐ¸Ð±
Ġz Ã¡
si ng
Ġoo gun
Ġn di
ĠI bi
Ġàª¹ à«ĭ
Ð°Ñģ Ð¸Ð½Ð¸
ĠÒĽ Ð¸Ð·
Ðº ÐµÐ½ÑĤ
ĠÐºÑĥÐ½ Ð¸
ĠÐ± ÐµÐ»
Ġà´¤ àµĭ
ĠáĢ±áĢ ģáģļ
áĢ³áĢŃ áĤķ
ģáĢ²áĢ· áĢķáĢ«áĢĲáĢļáĢ¹
ĠáĢĶ áĢ¬áĢĻ
ĠÐ¼ Ð¾
êµ Ĳ
ĠIn ter
m puta
Ġá»į kÃłn
ĠA há»įlu
mi i
Ġiá¹£áº¹ ju
ä¼ļ ç¤¾
ĠW indows
wi p
Ġ8 0
Ġz e
Ġá»Į na
Ġcs wip
ca st
à² ¾
ra m
Ġnáº¹ tiwá»įki
ĠG GQ
Ġláº¹ áº¹kan
ĠSe p
Ġidi bo
ke de
Ġke de
Ġi káº¹ká»į
Ġapa pá»į
Ġtu tu
à°¾à° ļ
Ġà¤ļ à¤¾à¤¹
áĢĳáĢ² áĢĢ
áĥĿáĥľ áĥĺáĥ¡
áģ¾áĢĢ áĢĬáĢ¹
ĠáĢĢ áĢĻáģ»
ĠáĢ±áĢ »áĢķáĢ¬áĢĦáĢ¹áĢ¸
áĢ±áĢ¬ áĢĤáĢ«
Ġi kun
z o
Ġitá»į sá»įna
Ġ. ,
ĠO mo
Ġá¹£a koso
Ġaká»į le
Ġfá»į to
Ġvis unnu
ĠG i
ĠB er
ÙĨ Øª
Ġà´ķàµįà´ °
ri d
à¦¾à¦® à§Ģ
æ¥ ¼
ļà¸²à¸ ĩà¸
ä¸ ĥ
Ķà¸ ±à¸ļà¸
Ġå Ģ
æľĢ ä½³
å®Į æĪĲ
j j
Ġ7 8
ä¼ Ł
Ġåı °
i os
é¢Ĩ å¯¼
è± ¹
Ġà¸ ģà¸£à¸
çĽ Ī
à¸² à¹Ģà¸
Ġç ®
èµĮ åľº
Ġj s
Ġç¦ ı
à¹ģà¸Ļà¸ °
é ¹
Ġç ²
èĤ ī
ä¸Ģ äºĽ
ä¸» ä¹ī
¢à¸ ¸à¸
à¸²à¸ ¡
Ġà¤Ĩ à¤µ
Ġgba dun
Ń Ĳ
Ġif oju
Ġgba jumo
ĠÐ¿Ð¾Ð» ÑĥÑĩ
R á»Į
L U
Ġ. âĢĶ
Ġal agbeka
Ġe tsa
ĠM at
Ġá»Į kan
Ġáº¹ni kan
ou t
Ġohun kohun
à§ĭ à¦Ł
Ġre luwe
Ġd agbe
ĠE re
ĠÑģ ÑĥÑĢ
ÉĶ n
ĠAW á»ĮN
Ġoj láº¹
Ġawu já»į
ĠKe je
áĢ¬áĢ¸áĢĻ áĢ½
áĢ· áĢľáĢ¬
áĢĲ áĢŃáĢ¯áĢĦáĢº
ĠA na
Ġo kan
ĠØ§ÙĨ Ûģ
Ġf rom
c r
boju to
Ġipa lara
ĠP re
Ġitu má»į
ĠC on
er u
Ġáº¹ bi
Ġk ini
eg i
ĠAp ril
Ġá¹¢i á¹£áº¹
Ġk Ãº
Ġà°ķ à°¾à°²
ÑģÐº Ð¸
Ġà´¯ à´¿
Ġà´ħ à´§
Ġáĥ§ áĥĿáĥķ
Ġê ´Ģ
Ġiya wo
ĠRe luwe
Ġid ani
ĠT ag
ĠF S
Ġsu su
Ġolu pese
Ġth at
Ġi ti
Ġ ul
Ġiyan u
Ġija bá»į
Ġmi mu
à®° à¯Ī
Ġigbes áº¹
Ġi sáº¹
ĠáĢ¡áĢŀ áĢŃ
ÑģÑĮ Ðº
àªķ à«įàª¤
Ã² ng
Ñĸ Ñŀ
áĢĻ áĢŁáĢ¯áĢĲáĢ¹áĢ
áĢģáĢ²áĢ· áĢķáĢ«áĢĲáĢļáĢ¹
áĢĶáĢ¹áĢ Ĩ
Ġ' '
ĠáĢĬ áĢ®
áĢķáĢ¼ áĢ®
Ġdi a
ph y
ger ia
ĠÐ¼Ñĥ Ð²
Ġâ Ĥ
Ġsin s
Ġe wu
áĢ¯ áĢĲ
D R
ĠÎµ Î¼ÏĨ
Î¼ÎŃÎ½ ÏīÎ½
ra u
×ŀ ×Ķ
ĠØªÚ¾ ÛĴ
áĥĵ áĥĶáĥ¡
à´°àµįâĢį à´·
ĠGbi gba
ĠC or
à´¾à´¨ àµģà´Ĥ
ĠÑĤ Ð¾Ð»ÑĮÐºÐ¾
ĠC he
cia l
ĠEnáº¹ wutu
Ġá»įjá»į gbá»įn
co in
ar u
ĠOlu dari
Ġpopu p
Ġe ko
ĠNi báº¹
ĠE lo
Ġon iru
a mu
Ġo ku
Ġba tiri
ĠL oss
Ġara kunrin
ĠBe an
ĠN zapa
êŀĮ i
om ina
h á»įn
Ġif iraná¹£áº¹
Ġa re
is á»įna
Ġm Ã»
Ġh lan
Ġfi fun
Ġb ra
ĠA ba
ĠUni ted
ĠØ¯Ø§ÙĨ ÙĦÙĪØ¯
ĠÐŁ ÐµÑĢ
ĠÚ© Ø´
ãĤ ·
Ġw or
ke y
áĢŃáĢ¯áĢĦáĢ¹áĢ ĦáĢ¶
áĢĦ áĢ«
ĠØ§ÙĦØ ·
Ġà®® à®ķà¯įà®ķ
ĠáĢ¡ áĢĸ
ĠI I
Ġgo do
ĠIn dia
æľ ĭ
å¤ ı
åĵģ çīĮ
à¸Ļà¸ ³à¸
® à¸
6 5
Ġéķ ¿
ä» į
ķà¹Īà¸²à¸ ĩà¸
Ġåį ³
é ½
çĶ³ è¯·
æĢ ¥
à¸£à¸µà¸ ¢à¸
Ġk8 å½©ç¥¨
Ľà¸ ±à¸įà¸
å¹ ħ
à¤ ·
Ð¾Ñı ÑĤÐ¸
ĠÐ¨ ÑĥÐ½
ĠÒĽÐ¸Ð» Ð³Ð°Ð½
ĠÐ¸ÑĪ ÑĤÐ¸ÑĢ
áĢģáĢº áĢ¬
ĠáĢŀ áĢĲ
Ġv u
Ġm be
ĠY e
ĠR us
ÑģÐºÑĸ Ð¼
ĠáĥĻ áĥĲáĥłáĥĴ
Ġà°¤ à°°
ĠBa ba
ĠB it
ri ng
h ari
ĠI á¹£owo
Ġ. )
Ġà¦¶ à¦¿à¦ķà§įà¦·
ĠT rans
ti s
ĠU K
Ġ Ð°Ñħ
J á»Į
Ġolu dari
ĠA S
ĠS p
ĠK ÃŃn
ĠD an
Ð¸Ðº ÑĢ
tá»įn isá»įna
láº¹ nu
à´¤àµįà´¤ à´¿à´²àµĨ
áĢĳ áĢ¯áĢĲáĢº
di de
Ġee yan
ĠKÃŃn nÃŃ
ki ki
ĠN á»į
lu m
go do
gh áº¹náº¹
es o
Ġá¹£a yáº¹wo
lo ngo
Ġso ro
ĠÑģ ÐµÑĢ
ĠI yan
à³ į
ka si
Ġa yo
à«Ģ àª®
ĠR u
à¥Į à¤°
áĥĲáĥĵ áĥĺ
ĠM I
Ġwhen u
ĠR E
i mu
Ġa sa
à¯Ĩ à®¯
Ġà¦ķà¦¿à¦¨ à§įà¦¤à§ģ
Ġa ng
ĠMa ch
å¤§åıĳ å½©ç¥ŀ
Ġåī į
ï¼ Ľ
ç½ĳé¡µ çīĪ
«à¸Ļà¸¶ à¹Īà¸ĩ
éĶ ®
é «
à¹Ī à¸Ńà¸¢
çĽ Ľ
æĶ¹ éĿ©
æĬ¥ éģĵ
Ġà¤ħà¤§ à¤¿à¤ķ
ĠG ra
ĠA ká»į
Ġy our
ĠEng lish
Ġá¹£e un
pa ta
Ġp ool
Ġa ma
ul l
Ġy Ã³Ì£n
ĠR áº¹
Ġni ngg
ĠB ar
í ĽĦ
ĠÐ ®
ĠSE O
ĠH ar
áĢ¡ áĢĸáĢ½áĢ²áĢ·
ĠA da
Ġ200 8
Ġwi wá»įle
Ġo whe
ĠA tun
Ġá»Į ká»į
ĠÐ³ÑįÑĤÑĭ Ð¼
àµģà´ ¸
Ġàªķ àª¾àª®
áĥĿáĥ ¥
ĠÒĽÐ°Ð± ÑĥÐ»
Ð»Ð¸ Ñĩ
áĢ¾áĢĲáĢº áĢĲáĢ±áĢ¬áĢº
Ġá»Į gháº¹náº¹
Ġláº¹ n
ĠÙĪ Ø²
Ġ ese
áĢ¯áĢŃ áĢ¸áĢĽ
áĢģ áĢĦáĢ¹áĢ
áĢ¼ áĢĶáĢ¹
ĠáĢŀ áĢ¬
±áĢĶ áĢĲáĢ¬
áĢĢáĢ¹ áģ¿áĢķáĢ®áĢ¸
ĠáĢĲ áĢ²áĢ·
ĠáĢ¥ áĢ®áĢ¸
ĠáĢĲáĢ½ áĢ±áĢ·
Ġa we
ĠN or
ĠÐ½ Ð¸Ð·
Ð°Ñŀ Ð»ÐµÐ½
à¦°à§įà¦ ®
ë² ķ
ÙĪ Ø¬
Ġc Å©ng
ĠTo Ì£n
ĠH u
ĠC am
àª¤ à«įàª¤
p áº¹lu
Ġa run
ĠS outh
Ġà´² à´Ń
à®Ł à¯ģ
Ð°Ñģ Ñģ
×ķ× Ľ
Ġáº¹ jáº¹
Ġp lá»įn
Ġn ini
Ġgbi gbá»į
Ġo se
áĥĺáĥ¢ áĥĶáĥ¢
ĠI se
Ñĩ Ð°Ð¹
Ġká»į mputa
ĠP or
ĠMe dia
bu ru
ĠP C
Ġl owo
an c
ãĥ Ĺ
Ġà®ħ à®´
áĢ±áĢĲáĢ¼ áĤĶ
ĠáĢŀ áĢĲáĢ¹áĢ
áĢĺ áĢĢáĢº
I D
Ġirá»į run
Ġgig un
ji á¹£áº¹
hun sa
K A
Ġori le
Ġtu d
Ġde y
Ġà°¸ à±įà°Ł
ĠáĥĲáĥ® áĥĲáĥļáĥĺ
ĠÙħ Øª
Ġá¹£i i
Ġaile wu
Ġà¦ķà¦° à§įà¦®
ĠD ownload
Ġodo do
tras onic
Ġaá¹£a ju
Ġá»į pá»įlá»į
Ġç¥ ŀå½©
è° ±
ŀà¸£ à¹īà¸Ńà¸¡à¸
çŃ Ķ
ç²¾ ç¥ŀ
à¸Ļà¸µ à¹Īà¸
6 åĲĪ
åħ¨ çĲĥ
à¤¾à¤Ĥà¤ļ à¥ĩ
íĺ ¸
ĠÐ¶ Ðµ
ĠÑĪ ÑĥÐ´
ĠL O
ĠC ha
wi êŀĮ
m on
ĠÐ±Ñĭ ÑĨÑĮ
Ġng u
ĠP ri
Ġifoju si
ĠHa ck
Ġ7 0
Ġk amáº¹ra
ĠL á»į
ĠH el
sá»į tá»į
Ġn ch
ĠY an
al á»įna
UM X
Ġz i
Ġmi dro
Ġmidro ll
Ġláº¹ sáº¹
Ġigb ese
Ðł Ñķ
Ñĥ ÑĶ
Ġh indi
ĠE táº¹
Ġn du
ĠI z
Y IN
Ġáº¹ nu
à¦¾à¦¨ à§ĩà¦°
ĠG en
Ġi pe
àµĢ à´¯
áĥĿáĥĳ áĥļ
Ġbi á»į
Ġidi le
ĠF UN
Ġke te
Ġirin á¹£áº¹
å½©ç¥¨ å¼ĢæĪ·
¸ à¸Ļà¸
Ī à¸´à¸
Ġé¦ ĸ
à¹Ģà¸Ľà¹ĩ à¸Ļà¹Ģà¸
ç¤ ¼
éģ İ
æĸĩ ä»¶
å¾· å·ŀæīĳåħĭ
44 4
Ĭ à¸Ļà¸
Ġå¸ Ĥ
æľĢæĸ° ç½ĳåĿĢ
áŀ ĵ
Ġçİ¯äºļ çľŁäºº
èµ· æĿ¥
åŃ¦ ä¹ł
åĨ ²
à¹ī à¸Ńà¸Ļ
Ġ9 8
Ġæ¾³éĹ¨ ag
Ġå ¨
ŀà¸ ¹à¸
à¹Ĥà¸ ¢à¸
ģà¸³à¸ ¥à¸±à¸ĩà¸
Ġagçİ¯äºļ çĶµæ¸¸
à¹Ģà¸ ¢
à¹Ģ à¸Ļ
Ġæ¢¦ è§ģ
åº Ń
å¤ĩçĶ¨ ç½ĳåĿĢ
Ĥ à¸Ļà¸²à¸
Ġà¸ ļà¸
Ġà¤¹ à¥ĭà¤
áĢģáĢº áĢ³áĢķáĢ¹áĢ
áĢĦáĢ¹áĢ ķ
áĢĳ áĢ¯áĢĲáĢ¹áĢ
ĠáĢķ áĢĽáĢŃáĢŀ
ĠiP ad
Ġe ja
Ġi lo
áĢ¬áĢ¡ áĢ¯áĢķáĢ¹áĢ
ĠáģĤáģĢ áģĢ
Ġla ini
Ġmar un
Ġáº¹ ru
Ġipa de
Ġi ban
ĠÐ¯ Ðº
ĠI fi
Ġigbe ga
ĠB an
Ġi meeli
ĠI tá»į
w Ã©
Ð¾Ð»ÑĮ Ð·
Ġê° ľ
Ġà®ª à¯ĩ
Ġàª¶àªķ à«ĩ
Ġpre d
sÄ±n da
áĢģáĢ» áĢĦáĢº
Ð°ÑĪ Ñĭ
is z
Ġà´ħ à´¦àµįà´¦àµĩà´¹
áĢĽ áĢ¯áĢ¶
Ġà°ļ à°¿à°¤à±įà°°
áĥĲáĥĽáĥĵ áĥĶ
ģáĢ²áĢ· áĢŀáĢĬáĢ¹
¡ áĢŀ
áĤ Ĥ
áĢ¬áĢĽ áĢĦáĢ¹áĢ¸
áĢĢáĢ¼ áĢŀáĢĬáĢº
Ġ5 åĪĨ
Ġà¤¸ à¤¹
à®¿à®¯ à¯Ī
à°¿à° ¡
Ġà¦Ĩà¦® à¦¾à¦°
ĠÑĥ Ð½Ð¸
ĠÑĳ Ð·
ĠÐ²Ð°Ð· Ð¸ÑĢ
ĠÐ¼ Ð°Ð¼Ð»Ð°ÐºÐ°ÑĤ
Ġà¦ķ à§įà¦·
Ð¾Ð½ Ó£
ĠØ¬ Ø§ÙĨ
Ñĳ Ñŀ
ĠN g
à±Ĥà° ¨
Ã ģ
sz a
ãģ Ľ
Ġf il
já»į pá»į
Ġwi we
ĠiP hone
Ġgá»į alá»įna
ĠB uy
Ġg h
ĠG od
pa pá»į
ìŀ ¬
ÑıÐ´ Ð¾Ð¼
à¤¢ à¤¼
Ġbi en
áĥĲáĥłáĥ Ļ
×ľ ×Ĳ
N I
B C
Ġl ilá»į
Ã¶v lÉĻt
ĠAma zon
Ġb ere
à´ªàµįà´ªàµĨà´Ł àµģà´¤àµįà´¤
ÑĦ Ð¾ÑĢÐ¼
à¯ģà®ķ à®¿à®±
Ùĥ ÙĦ
æķ ĳ
p c
Ġà¨ °
å¹´ çļĦ
Ġà¤µ à¤¾à¤Ł
à±Ĩ à°Ĥà°Ł
ĠI ba
c an
ĠS un
ĠBro ad
káº¹ ni
Ġo re
Ġke ke
Ġg reen
Ġcom man
Ġatáº¹ le
ĠP lay
lo gy
ĠK ing
Ġale jo
Ġm ÉĻn
lian ce
áĢľ áĢ±áĢ¬áĢĢáĢº
Ġiya sá»įtá»į
Ġc an
Ġa isan
yan ju
r ÃŃ
Ġàªı àªŁàª²
ĠÐ¾ Ñĩ
ĠÐ³Ð°Ð´ Ð¾Ñŀ
Ġl á»
ĠÐľ Ð°ÑĢ
Ġà¦¨à¦¿à¦ ľ
íĨ ł
Ġ% ï¼Į
çĸ ĳ
à¨¾à¨ ²
à¤ª à¥įà¤°
áĢ½ áĢ¾
Ġà´® à´°
Ġà®¤ à®¾à®©à¯į
ĠÐ¸ Ñĩ
Ð° Ò·
Ġka pa
à¤¿à¤ ĸ
áĥĶáĥ ¨
à´± à´¿
ĠØ ¶
à®¿à® ³
k st
ur es
Ġàª¦àª¿àªµ àª¸
t Ã¡n
d ni
Ġí ĥ
áĢ®áĢļ áĢ¶
éĽ Ħ
éľ ²
æĹ §
åĬł æĭ¿å¤§
è¾ħ åĬ©
å§ Ĳ
à¤¿à¤ ¦
ÑĥÐ² Ð°Ð½Ð½Ñı
ÑĤ ÑįÑĢ
à¦Ĺ à§ģà¦²
ĠÐ¿ÑĢ Ð¾Ð²
Ġà´ķ àµĪ
Ġà°ħ à°¤
Ġy w
áĢ¸áĢ »áĢĻ
ĨáĢŃáĢ¯ áĢĲáĢ¬
áĢ¶ áĤķ
ĠáĢĴáĢ® áĢĩ
ĠáĥĶ áĥļ
ĠÐ¼ Ð°Ð·
Ġàªµàª§ à«ģ
ĠáĢĢáĢº áĢĻ
áĢĦ áĢĶáĢº
Ġol du
à¯ĭ à®®à¯į
³ Û
Ø¯ ÛĮØ¯
Ġale bo
Ð¾ Ñĺ
en ts
Ġà´¨à´¿à´ Ļàµįà´Ļ
×ł ×Ķ
j Ã¤
áģµ áĢº
ĠáĢŀ áĢĻáģ¼áĢĲ
ĳ áĢ¬áĢ¸
Ġdel l
áĥĶáĥľ áĥĺ
à¯ģà®ķ à®¿à®±à®¤à¯ģ
äº¤ éĢļ
åĶ ¯
à¤¾à¤¸ à¥Ĥà¤¨
ĠáĢ±áĢ»áĢķáĢ¬ áĢķáĢ«áĢĲáĢļáĢ¹
áĢ¬áĢ¸áĢħ áĢ¼áĢ¬
ĠáĢŀ áĢĺáĢ¬
ÑĮ Ñİ
Ð½ Ð°Ðº
»áĢĸ áĢĲáĢ¹áĢ
áĢľ áĢ¶áĢ¯
áĢĲáĢ¼ áĢĢáĢ¹áĢ
áĢ¸áĢŀ áĢ°
Ġna v
ĠáĢĢáĢº áĢĦáĢ¹áĢ¸áĢķ
áĢĲ áĢŃáĢ¯áĢĦáĢºáĢ¸áĢ
é«ĺ æ¸ħ
à¤¾à¤ ģ
áº «
te le
Ġáĥ¨áĥĶáĥĺáĥ«áĥļ áĥĶáĥĳáĥĲ
Ú© Ø±
Ã³ ÅĤ
à±ģà° ļ
ĸ áĢŃáĢ¯áĢ·
ì Ī
ĠÐ² ÐµÐ´
áĢħ áĢ¼áĢ¬
áĢ¡áĢħ áĢĬáĢ¹áĢ¸
ĠáĢľ áĢ¼
áģĢ áĢĶáĢ¹áĢ
ĠáĢĽ áĢĢáĢ¹
áĢ±áĢĶ áĢ¬áĢ¹
áĢ¡ áĢģ
Ġmin t
m et
ĠÐ³ Ð¸ÑĢ
ãĤ £
Ġk ter
ĠÑģ Ð°
áĢ¸áĢĻ áĢ»
Ġàª° àª¾àªĸ
à°° à°¿
ĠÚ©Ø± ØªÛĴ
ÙĨ ÙĬ
áĥĿáĥĳ áĥĺáĥĹ
Ġj au
Ð°ÑĨ ÑĸÑĹ
åŁº ç¡Ģ
4 3
Ĺà¸²à¸ ĩà¹Ģà¸
Ġà¹Ģà¸ Ĭ
æ¨¡ å¼ı
èĥ½ å¤Ł
Ġà¸ ģ
à¹Ħà¸ Łà¸
ªà¸ ³à¸Ħà¸
Ġà¤ķà¥ĩà¤² à¤¾
Ð» Ð°Ð²
Ġìĺ Ī
Ïģ Ïį
ĠÎķ Î»Î»Î¬
ĠÎ£ ÏĦÎ·
ÏĦÎµ Ïį
ĠÎĺ Îµ
ĠÏĦÏĮ ÏĥÎ¿
ĠÎ¼ Î®
Î¹ ÏİÎ½
ĠÎ» ÎµÎ¹ÏĦÎ¿ÏħÏģÎ³
ĠÏĥ Î®
ĠÎ´Î· Î¼Î¹Î¿ÏħÏģÎ³
d di
à±ģà°ķ à±Ĭ
¹ Û
ĠØ´ Ø±
Ð¾Ñģ ÑĮ
Ã¢n d
j iem
Ġh Ãłng
h n
Ġ×Ļ ×©
áĥĹáĥ®áĥķ áĥĶáĥķ
ÐºÑĸ Ð¼
no ÅĽci
it Ã¤
Õ¡ Öģ
q q
à®² à®¾à®®à¯į
Ġs er
à±ĩà° ¯
Ð² ÑıÑĢ
Ġàªķàª° à«ĩ
Ġq e
A T
ĠUS B
il owa
in ira
Ġpa danu
Ġes o
Ġali ho
Ġ** *
Ġj lo
Ġa y
à¨ µ
_ app
Ġå¹ ´
å¸ ®
2 åĪĨå½©
å°±æĺ¯ åįļ
Ġà¤ķà¤°à¤£ à¥įà¤¯à¤¾à¤¤
áĢĲáĢ²áĢ·áĢ¡ áĢģáĢ«
±áĢĲáĢ¼ áĢĢ
áĢ Į
ĠN Ã«
ĠÑĦÐ¾Ð¹ Ð´
ĠÑĪ ÑĥÐ¼
ĠáĢĶ áĢ²áĢ·
áĢĿ áĢĶáĢ¹áĢ
ĳáĢ¬áĢ¸áĢ ĲáĢ¬
ĠáĢĽ áĢĶáĢº
Ġà´µ à´³
ĠáĢģáĢ¯ áĤıáĢ½áĢħáĢ¹
áĢŀ áĢ±áĢ¬áĢº
áĥĶáĥłáĥ ĵ
Ð¸ ÑĤÐ¸
ou ve
Ø§ÛĮ Øª
Ð°Ð²Ð°Ð½ Ð½Ðµ
Ġê° ķ
Ùĥ Ø±
ĠÐ´ ÐµÐ»
à±ģà°² à°¨à±ģ
n Ã¡l
Å« t
os z
à¤¿à¤ ª
Ġv Å¡
ĠO kun
ilowa ya
Ġtá»į ju
Ġa há»įlu
ĠPáº¹lu páº¹lu
ĠNi geria
Ġáĥĵáĥ¦ áĥĶáĥ¡
ul i
ĠR oulette
le a
ĠI S
ĠBlu e
ki ti
Ġta bili
® ï¼
gra phy
ĠAla ye
Ġolu gbe
ãĤ ı
Ġà®ķà¯Ĥ à®±
Ġayan fáº¹
ĠC hi
Ð»Ñİ Ñĩ
Ġs ta
Ġi dun
R UN
N UMX
Ġá»Įlá»į hun
Ġáº¹gbáº¹ run
F UN
áº¹ si
ĠI bu
ÙĨØ¯ Ùĩ
un t
d ÃŃ
Ġ×Ľ ×ľ
ëª ¨
ĠtÅ¡ e
Ġh la
áĥ¬ áĥ§
ĠÚ©ÙĪ Ø¦ÛĮ
àµĭ à´·
ĠìĹ °
Ġ4 3
åĽ¾ çīĩ
ŀà¸ ·à¹īà¸Ļà¸
ªà¸ °à¸
Ħ à¹Įà¸
ç«ŀ çĮľ
ĠåĲ İ
Ġè® °
Ġà¤¦ à¥ĭà¤¨
ĠvÃł o
ĠÎ¿ÏĢÎ¿ Î¯Î¿
Ġca el
Ġs ou
Ø® Ø±
à´Ł à´¿
Ġàª¸à«ģàª §à«Ģ
Ġâ Ħĸ
Ð» ÐµÐ¼
áĥķ áĥĶáĥķ
à´¿à´¨ àµģ
à°¾à°¨ à°¿
Ġà¦¸à¦° à¦ķà¦¾à¦°
ĠáĢĿ áĢĶáĢº
ä»ĭ ç»į
Ġæĺ İ
Ġç¥ŀå½© äºīéľ¸
Ġå¤ ĸ
çĪ Ĩ
Ġà¤¯à¥ĩà¤ ¥
¨ à¥ĩ
à´¸ à´Ĥ
i den
Ġà® Ĭ
à¦¿à¦ ī
Ġáº¸ gbáº¹
Ġkpa hen
ĠE ni
ĠáĥĹ áĥĲáĥĽ
l ÉĽ
u ra
à´Ļàµįà´Ļà´³ àµģà´ŁàµĨ
Ķ áĢĬáĢ¹áĢ¸
ĠáĢĨáĢŃáĢ¯ áĢĲáĢ¬
áĢĶ áĢ±áĢ¬áĢº
áĢ±áĢ¡áĢ¬áĢĦáĢ¹áĢ ĨáĢĶáĢ¹áĢ¸
áĢ½áĢ±áĢ¸áĢ Ķ
le nge
bo l
Ġ6 5
Ġre Ì£
Ġle ro
ĠØ¯ ÙĨ
b Ã¢
ar ia
ĠI ká»į
ĠB á»į
ĠA pe
H I
G o
ĠGer man
ĠÑģÐ² Ð°Ñĸ
áģ¾áĢĢ áĢĲáĢļáĢ¹
áĢķ áĢŃáĢ¯áĢĦáĢº
Ñĭ Ð²
Ġà¦®à¦¾à¦¨ à§ģà¦·
à¤ķ à¥ĭ
ìļ ´
Ġà® ¹
Ġna ch
ĠáĥĴ áĥĲáĥ¡
ĠRa y
ya wo
isi ta
Ġï¼ ı
ĠÃł wá»įn
à«ģ àª®
à°°à±įà° ª
Ã© ben
Ã¼ t
ĠÐ² Ð¸Ðº
ĠÛ ²
Ú© ÙĨ
è§£ åĨ³
Ġ ä¹
Ġà¤¦ à¥ĩà¤£
Ġna ko
ta re
à´¯ àµįà´¯
ÑĨ ÐµÐ¹
Ġc ette
ÑĥÐ½ Ñĳ
áĢĨ áĢ¶áĢ¯áĢ¸
áĤı áĢŃáĢ¯áĢĦáĢ¹
áĢ±áĢ »áĢĸ
áĢĨ áĢ¯áĢ¶áĢ¸
n ym
ĠÑĢ Ð¾Ò³
à°° à°Ĥ
Ġàª® àª¾àª°
ka i
Ġ×Ķ ×¨
Ġà¦ ¢
Ġà´¸ à´¾à´§
Ø§Ø± Ø©
áĥłáĥ£áĥ ľ
ĠÐ´ Ð¾Ð±
Ġà¤ľ à¤¬
à§ĩà¦ ¡
áĢĲ áĢĢáĢ¬
ãģ ¿
à¤¿à¤ §
´ ĳ
tu ar
ti f
Ġba ÄŁ
ĠáĢ±áĢķ áģļ
ĠáĢŀ áĢĢáĢº
ĠÐĲ Ð»Ñı
ĠâĢĿ .
ĠÐ¿ Ð°Ð²Ñĸ
ĠÚ© Ú¾
Ðº Ð¾Ð¹
àª¿àª ¶
Ġáĥĺ áĥĴ
Ġà®İà®¤ à®¿à®°
Ð°Ñ ĥ
ĠâĢ İ
ÉĻs indÉĻ
ÑĢ Ð°Ñģ
í İ
ĠÃ© ta
Ġæī ĵ
Ġå°Ĭé¾Ļ äººçĶŁ
å¥ ¥
à¹Ħà¸¡à¹Ī à¹Ħà¸Ķà¹ī
ä½ľ çĶ¨
è´£ ä»»
«à¸ į
æĿ ¾
Ġ4 1
åħ¬ åĳĬ
Ĺ à¸´à¸
à¹Ģ à¸Ńà¸ĩà¸
ĠãĢ ı
Ġà¤®à¤¾à¤ Ŀ
ĠáĢĲ áĢŃáĢ¯áĢĢáĢº
lu ng
ĠáĥĴ áĥĲáĥ®
c Ä«
łà¸²à¸ ¢
éĺ ¿
à¸£à¸±à¸ Ĳ
ĠåĨ į
çª į
å¼ Ĥ
åªĴ ä½ĵ
ç Ĵ
ĺ à¸£à¸£à¸¡à¸
¸ à¹Īà¸¡à¸
Ġ _
à¹ģà¸ ¥à¸°à¹Ģà¸
Ġ4 2
ç»Ł æĪĺ
æľĢæĸ°çĻ»å½ķ åľ°åĿĢ
Ġé Ĵ
Ġà¸ ¡
Ġà¤Ĩ à¤°
Ġà¦ĺ à¦Ł
à°¾à° Ĥ
ĠÃ¶ ssz
Ïĥ Î®
Î¸ Î±
ĠY n
ĠÐĲ Ð½
Ġà´Ĵ à´¨àµįà´¨
à±Ģ à°ķ
ĠÑĪ Ð¼Ð°ÑĤ
Ø³ ÙĬ
Å¡ ie
Ġta i
ĠÑĢ ÑĥÐ±
ãģĦ ãĤĭ
ĠÐ³ ÑĢ
à®¤ à®¾à®ķ
ĠÄĳá» ĭ
à«įàª¯ àª¾àªĤ
áĢĻáĢºáĢŃáĢ³ áĢ¸
ĠáĢĻáĢ¼áĢĶáĢºáĢĻ áĢ¬áĢĶáĢŃáĢ¯áĢĦáĢºáĢĦáĢ¶
ĠáĢ¡áĢ¬ áĢı
ish t
ĠáĥĲáĥ¥ áĥķáĥ¡
Ġà´ª àµĩà´°
Ī à¹īà¸²à¸
åį ł
ĠåĽł ä¸º
à¸µ à¹īà¸
æĭ ¾
ç» ĥ
à¥įà¤¯à¤¾à¤ ª
Ġà¦¸ à¦Ļà§įà¦Ĺà§ĩ
ëł ¥
ĠÕ ¿
Ġol ma
Ġv or
Ġ×Ķ× ŀ
Ġsz em
à°¾à°Ĥà° Ĺ
ĠØ³ Ø¨
ĠáĢĢáģ½áĢ¼ áĢĶáĢ¹áĢĻ
áĢ¶ áĢĲ
ĠW y
Ġpe le
ģáĢ» áĢ¯áĢķáĢº
à§ģà¦ ĸ
Ġà´¨ àµĩà´°
ĠÑĤÑĢÑį Ð±Ð°
Ð¸ ÑĩÐµÑģÐº
ĠktÃ³ re
áĥĲáĥ¬ áĥĺáĥļ
à°¾à°ķ à±ģ
ĠÑį Ð½Ð³
Ð¾Ð¸ Ð¹
Ð½ Ð°Ð»
ĠáĢħáĢ®áĢ¸áĢķ áĢ¼áĢ¬áĢ¸áĢ
áĢ¡ áĢĬáĢ®
Ġc ou
Ð»Ð¸ Ð²
.... ....
áĢħ áĢ½áĢ¬
ĠÒĽÐ°ÑĢ Ð¾ÑĢ
Ġàª¸ à«įàªŁ
Ġà°µà°¿à° µ
Ã¡ st
Ġà´ª à´²
à¦° à¦£
Ġà¤ľ à¤¾
Ð°ÑĤ ÑĥÑĢ
Ø¯ Ø©
Ú© Øª
Ġáĥ¨áĥĶáĥĽ áĥĹáĥ®áĥķáĥĶáĥķ
Ġà°ªà±įà°° à°ķ
Ñĩ Ð°Ñģ
Ġfa it
ķ Į
la ÅŁ
en to
ĠáĢĹ áĢ¯áĢĴ
Äĵ s
Ð¼ Ð°Ð´
ĠÑħ Ð¾Ð½
Î» Î¼
ÏĦ ÏģÎŃ
ĠÎķ Îº
ĠÎ´ Î¿
ĠÏĦÎµ Î»ÎµÏħÏĦÎ±
Ġd r
áģ¿áĢĸ áĢŃáĢ³
áĢ±áĢĨ áĢ¬áĢĦáĢ¹
ĠáĢľáĢĢáĢ¹áĢ ĽáĢ½áĢŃ
áĢĶ áĢ®áĢ¸áĢ
èģ ļ
æ¶ ²
à¹ģà¸ ªà¸Ķà¸
ģà¸¥à¸ ±à¸ļà¸
à¥Ģ à¤°
Ġs ie
Ġa ce
áĢĦ áĢ»
áĢ±áĢĢáĢº áĢ¬áĢĦáĢ¹áĢ¸
ĠáĢ±áĢĢáĢº áĢ¬áĢ¹áĢ
áĢħ áĢ¯áĢ¶
à®¾à®® à®²à¯į
ĠØ¬ Ø§Øª
ĠÐ²Ð° ÒĽ
à±ĭ à°¡
P age
à´¿à´ ³
àª°à«įàª µ
áĥĹ áĥĲáĥķ
ĠÐļ Ð°Ðº
«à¸¥à¸²à¸ ¢
å® ĩ
Ġå ķ
ç¬ ĳ
à¹Ģà¸£à¸´ à¹Īà¸¡à¸
Ġà¤®à¥įà¤¹à¤£ à¥Ĥà¤¨
áĢĻ áģ¸
Ġáģģáģ ģ
ĠÐ´ Ð°Ð»
Ã© ri
Ġba tho
Ġk om
ĠáĢ»áĢķáĢĬáĢ¹áĢ ±áĢĳáĢ¬áĢĦáĢ¹áĢħáĢ¯
Ġáģģáģ ĥ
à§įà¦ ŀ
à´¯ à´¿à´²àµĨ
ĠÐ»Ñİ Ð±
áĢĶáĢ¹áĢ¸ áĢĻ
ĠáĢ¡áĢŀ áĢĢáĢ¹
ĠáĢŁ áĢŃáĢ¯
à®¾à® ľ
à±ģà° ¸à±įà°¤
ĠÚ¯ Ø±
Ġà®ª à®£
ĠáĢģáĢ¯ áĤıáĢ½áĢħáĢ¹áĢ
ĠáĢĻáĢŃ áĢŀáĢ¬áĢ¸áĢħáĢ¯
Ġnh iá»ģu
áĥł áĥĿáĥĽ
Ø° Ùĩ
Ð¶ Ð´
ĠÐ³ÑįÑĤ Ð°Ð³Ð°
ģáĢº áĢ³áĢķáĢ¹
ĠáĢŀáĢ° áĤķ
Ġáģģáģ Ī
à¥Ĥà¤ ²
sÄ±n Ä±n
b Ã³l
r ie
Ð½Ð¾ÑģÑĤ Ñĸ
Ġo le
Ġ×ŀ× Ĳ
áĥĽ áĥĶáĥĵ
áĢĨáĢŃáĢ¯ áĢĽáĢĦáĢº
ĠáĢ±áĢ »áĢķ
ĠáĢĴáĢ® áĢĢ
Ġà°ī à°¦
ģáĢº áĢĦáĢ¹áĢ
ĠáĢķáĢ¼ áĢ¯
Ġnd Ã«r
à¯ģà® ©
ãĤ ³
àµĭ à´ķàµįà´ķ
Ġàª¦à«įàªµ àª¾àª°àª¾
ĠÑĤÐ°ÑĬ Ð»Ð¸Ð¼
ĠÎµÏĢ Î¹Îº
Ġg wa
ì ¡
ĠÃ§ Ä±x
it Ãł
ĠÒĽÐ¸Ð» Ð¸Ð±
ĠÑİ Ð·
ĠÐ³ ÑĥÐ·
à±ĩà° ľ
ĠáĥĴáĥĲáĥľ áĥ¡
ĠdÃ© c
Ġt ym
Ð¿ Ð°Ð²
e a
à¦¡ à¦¼
ĠÐ±ÑĥÐ´ ÐµÑĤ
Ġp os
ÐºÐ¾ ÑĹ
Ġag ä½ĵèĤ²
ĠæŀģéĢŁ å¿«3
Ġà¨ ī
Ġà¤ķ à¤¿à¤Ĥà¤
à´¿à´ ľ
Ġà®ī à®°
ta m
Ġsz a
Ġà¤²à¥ĩà¤ķ à¤¿à¤¨
Ġà°® à±ģà°Ĥà°¦
Ġà´Ĩ à´¶
áģ¾áĢĢ áĢķáĢ«
áĢ¡ áĢŃáĢĻáĢ¹áĢ
ĠáĢ»áĢķáĢ³ áĢľáĢ¯áĢķáĢ¹áĢ
ĠáĢĲ áĤĲ
ĠáĢ¡áĢŀ áĢ¯áĢ¶áĢ¸áĢ
ĠÐ¿ ÑĭÑĤ
t os
Ð°Ð½ Ð½Ñĸ
ÙĪ Ø¹
áĥĲáĥľ áĥ¢
ľ Ðµ
Ġs ÉĻ
Ġà´¸à´Ĥ à´ĺ
ĠÐ½ Ð°Ñĩ
Ð¿ Ð¾Ð²
ĠàªĹ à«ģàªľàª°àª¾àª¤
Ġàª¹ à«ģàªĤ
Ġàªķàª° àªµàª¾
ÈĽi i
be le
à´¤ àµįà´¥
Ðº ÑĢÑĭ
Ġà°° à°¾à°·à±įà°Łà±įà°°
Ģ áĢ¬
ĠáĢĢáĢ»áĢ½áĢĶáĢº áĢĲáĢ±áĢ¬áĢº
Ġje len
ãĥĥ ãĥĪ
Ġes ta
Ġà° ĸ
ĠÐº ÐµÐ¹
ĠÐĳ Ð¸ÑĢ
ì¹´ ì§Ģëħ¸
ì² ´
à¯ĭ à®¤
ĠÐ¢Ð¾ÑĪ ÐºÐµÐ½ÑĤ
ĠÑģ Ð¸Ñĳ
ĠáĥĲáĥ¡ áĥĶáĥķáĥĶ
ĠK oso
Ġdu ke
áĢģáĢ¼ áĢ²
ĠáĢĽáĢĶáĢ¹áĢĢáĢ¯ áĢĶáĢ¹
ĠáĢĻáĢ¼ áĢŃáĢ¯áĢ·
ke j
Ġtr Ãªn
ĠÐ´ Ð°Ñģ
Ġm Äģ
ĠÐ¼Ð°ÑĢ ÐºÐ°Ð·
Ġdz ie
Ġà¤¥ à¥ĩ
Ġ3 80
ĠÑĨ Ðµ
ĠÙĥ ÙĦ
ÏĨ Ïħ
w m
Ġà¦¬à¦² à§ĩ
le mo
ĠÑĤÐµ Ñħ
ĠÐ± Ð°Ð¹
ĠpÅĻ ÃŃ
ÑĨ ÑĨÑĳ
Ġm yÃ¶
Ġ×Ķ× ĳ
ĠáĢ±áĢĶáĢ¬áĢĢáĢ¹áĢ Ĩ
áĢľáĢŃáĢ¯ áĤķ
ĠáĢħ áĢ¬áĢ¸áĢ
áĢĢáģł áĢŀ
ħ áĢ®áĢ¸áĢ
Ġà°ª à°¦
áĢ® áĢĲ
Ñı Ð¼
Ġà´ª àµĩ
Ġà¦ª à§ľ
Ġun s
Ø§Ø± Ø¯
Ġàª¬ àª¹
Ġmo Å¼
Ġfa ire
áĥª áĥĺ
Ġà®® à®°
Ð°Ð² Ð¾Ð±
ĠâĢİ #
di yi
áĢ°áĢ¸áĢ±áĢ ķáĢ«
ĠáĢļ áĢĦáĢ¹áĢ¸
áĢ±áĢ¬áĢº áĢĻ
Ġ {
ĳ Ĳ
à´¯ àµĭà´Ĺ
ĠÑĢ Ñŀ
Ð» Ð¾ÒĽ
Ġdi es
tÃ« s
Ðµ ÑĬ
Ġãģ Ŀ
áĢŃ áĤĪ
áĢ±áĢ¡áĢ¬áĢĦáĢ¹áĢĨáĢĶáĢ¹áĢ¸ áĢħáĢ¯
ĠáĢ¡ áĢŃáĢķáĢ¹áĢ
ĠáĢĽ áĢ½áĢ¬
Ġà¦Ĩ à¦ĩ
ĠáĥĽ áĥĺáĥĸ
Ġg ad
áĤĥ áĤĪ
áĢŃ áĢļ
Ġv Ã©g
ĠÐ¸ Ñħ
à±Ĩ à°°
Ñį Ñŀ
Ø® Øª
ag gi
Ġ... .
áĢĲáĢ¹áĢ Ľ
áĢ±áĢ ĦáĢ¼
ĠáĢ±áĢĢáĢº áĢ¬áĢĢáĢ¹áĢ
áĢŀ áĢĦáĢº
Ġà®ķ à®¾à®°
Ġp la
àª° à«ĩ
ä¹ĭ åĲİ
äº¤æµģ ç¾¤
ï º
áŁ Ĩ
ĺà¸ ¸
ç¬ Ķ
Ġà¹ģà¸¥ à¹īà¸§à¸
åĽ °
ľà¸ ¡
à¹Ģ à¸Ńà¸²à¸
Ġçİ¯äºļ åĽ½éĻħ
Ġä¸ ĩ
Ġà¨¹ à©Ī
Ġà¤¤ à¥Ģ
Î³ ÎµÎ¹
GH z
wy s
áĥĲáĥĵ áĥĿ
Ġv Ã¡l
Ð°Ðµ Ð¼
Å¥ a
à°¿à°Ĥà°ļ à±ĩ
Ġà¦ķà¦¿à¦Ľ à§ģ
Ġà¤¯ à¥ĩ
áĢĲáĢļáĢº áĢľáĢŃáĢ¯áĢ·
áģ¾áĢĢ áĢĲáĢ¬
ĠáĢĽ áĢ²áĤķ
áĢ¸áĢľ áĢŃáĢ¯áĢĢáĢ¹áĢ
áĢķ áĢĦáĢ¹
áĢĢáĢ¹áĢ Ķ
áĢ±áĢĳ áĢ¼
áĢ±áĢ« áĢĢáĢº
Ġto i
áĥłáĥĺáĥķ áĥĺ
Ġl áº¡i
Ñģ Ð¸Ð½
ĠÑĤ Ð¾Ðµ
ra s
ĠÑĤ ÐµÑĢ
ĠÐ¹ Ð¸
ĠÐ¸Ðº ÐºÐ¸
ĠÑĤÑŀÒĵÑĢÐ¸ ÑģÐ¸Ð´Ð°
ĠÑģ Ð¸ÑĦ
e le
ĠæŀģéĢŁ æĹ¶æĹ¶å½©
çĭ Ĥ
ĠåĲ Ħ
è Ĩ
æ´ ¾
Į æľĽ
Ġè Ļ
Ĥ à¹īà¸Ńà¸¡à¸¹à¸
ķ à¸Ńà¸Ļ
ĠåĮ ħ
Ġåº Ķ
Ġè Ī
Ġâ ĻĢâĻĢâ
æİ ª
Ĭà¹Īà¸§à¸ ¢à¸
à¥ §
àª¨à«įàª ¸
æĸ¹ æ¡Ī
Ġå½© ç»ıå½©ç¥¨
åĳ ¢
áŁ ģ
Ġà¤¦ à¥ĩà¤¶
Ò ²
Ùģ ÙĬ
ÑĥÐ½ Ð¸Ð½
ch er
Ġb ÄĻ
lÉĻ ÅŁ
ÑĦ Ð°ÑĢÐ¼
Ġë Ķ
ĠÐ² ÑĬ
Ġáĥĺáĥľ áĥ¢
ĠØ§ Ø¯
à´¿à´¨ à´¿à´®
Ġà®¤à¯Ĭà®Ł à®°
Ġà°ļà°¾à°² à°¾
Ġpr Ã©
Ð¾Ð² Ð¾ÑĢ
áĢĦáĢºáĢ¸áĢ Ĩ
Ġ×¢ ×Ŀ
à´¿à´° àµģà´¨àµįà´¨
Ġalaba á¹£epá»į
ĠM á»į
ĠIsla eli
Ġagb ese
Ġa rin
ĠÐ¿ÑĢ Ð°Ð·
Ð°Ñİ ÑĤÑĮ
Ġis an
nos Å¥
ĠØ³ ÙĪ
Ġimá»į láº¹
ĠS ys
W A
Ġáº¹ ran
áĢ¸áĢ ĶáĢ²áĤĶ
ĠáĢĽáĢĢáĢº áĢĶáĢ±áĢ·
ĠáĥĲáĥ® áĥļ
ĠÎľ Î±Ïģ
ĠÎºÎ¿Î½ ÏĦÎ¬
ĠÏĥÏĩ ÎŃ
ĠÎµ Î¹Ïĥ
Îº ÎŃ
f yd
ty cz
Ġk Ã¼l
ĠáĢĽáĢ½áĢŃ áĢ±áĢĶ
ĠáĢĦ áĢº
lu l
Ġàª¸ à«įàª¥
Ġti j
êŀĮ ni
L ink
Ġnu u
Ġg ame
Ġáº¹ já»į
v ÃŃ
Ġj Ã¤
ĠÐ¾ÑĢ Ð³Ð°Ð½
Ġcomman der
ĠM al
o ri
Ġáĥ¡áĥĲáĥ®áĥĶáĥļ áĥĽ
ĠProdu cts
iráº¹ diti
Ġth is
ĠR áº¸
Ġde vi
ĠA k
Ð°ÑĤ Ð°ÑĢ
Ġb lo
åĵª éĩĮ
à¹Ħà¸ ĭà¸
ĠçĪ ±
èĩªå·± çļĦ
æĸ ¼
ä¹Ł æĺ¯
µ à¤¾
Ġapa jláº¹
Ġku kuru
ĠU l
Ġli le
Ġà´ķ àµĭà´Ł
Ġfáº¹ ran
ĠI á¹£e
v es
p lá»įn
b ru
Ġlo ke
du ta
ba l
Ġn z
at er
Ġiw osan
ÑģÐºÑĸ Ñı
si c
Ġá¹£a wari
Ġs ha
Ġnibi ti
ĠS al
ulá»į á»į
p y
D A
má»į ra
Ġáº¹ ka
à¦¿à¦ ¡
áĥĲáĥ¡ áĥĺ
à´¸àµįà´¥ à´¾à´¨
Ġà¤Ńà¤¾à¤° à¤¤
Ø´ ÙĨ
ol le
Ġà®ª à®¾à®¤
Ġi k
Ġà¤¦ à¥Ģ
ãĥĥ ãĤ¯
ĠÑĤ ÐµÐ¼
Ġà´®àµģà´ ĸ
ĠØ§ÙĦÙĦ Ùĩ
ul Ãº
fe fe
Ġï¿½ï¿½ï¿½ï¿½ï¿½ï¿½ï¿½ï¿½ï¿½ï¿½ ï¿½
Ġáº¹ hin
is tan
ĠÙĦ Ùħ
ĳ ľ
Ġà´¦ à´¿à´µ
ĠK u
ĠDe c
Ġa na
ĠT an
Ð°Ñħ Ð¾Ð´Ð·Ñĸ
ĠG ig
à¤¾à¤ «
Ð¾Ð²Ñĭ Ðµ
Ġlá»įwá»į lá»įwá»į
ruká»į siláº¹
ĠáĥĽáĥĿáĥ ®
ĠI fihan
oo d
A E
c ro
as o
th er
ÒĽ Ð¸Ð½
ĠÐĳ Ð°ÑĢ
dir áº¹si
I V
Ġnd Ã¶
Ġero ja
ĠIgb imá»į
p el
U S
P C
ĠS ta
à¦ ·à§įà¦Ł
à´ İ
Ġth i
Ġ7 5
Ġá»įmá»į birin
Ġi tá»įnisá»įna
Ġif a
Ġayi pada
á¹£ o
Ñĥ Ð²Ð°
ÛĮÚ© ÙĨ
Ð» ÐµÐ½Ð¸Ðµ
s on
Ġè ĳ
ĠVi deo
ĠTur key
à´¿à´¤ àµįà´¤
ĠX NUMX
Ġ2 F
Ġipin láº¹
Ġiba lopo
Ġ? âĢĿ
g in
c ar
Ġag a
ĠTe ch
ĠJu da
ĠC D
ĠAW IK
ĠAWIK ON
r ou
Ġida duro
Ġa ini
ĠAWIKON KO
Ġiran ti
Ġba ll
ĠQ u
ĠImá»į láº¹
Ġni torina
Ġido ko
ĠA po
à°¿à°¯ à°¾
Ġà®µ à®¿à®°
Ð» Ð°ÑĤÐ¸
ĠA le
Ġà´ĩ à´°
Ġìķ Ĭ
Ġà¤° à¤¹à¥Ģ
× £
Ġ1 x
I A
Ġ ur
Ġla ra
Ġàª¬ àª§
ĠÐ½Ð°ÑĦ Ð°ÑĢ
Ġi duro
wi m
pa a
ng ers
M S
ke ti
Y A
Ġolo kiki
ig i
Ġy ise
Ġan ti
e e
à§Ł à§ĩ
ãĥ Ĩ
ÐµÑģ ÑĮ
Ġgb ese
er y
Ġá»Į dun
Ġijo ba
áĥ¬ áĥĺáĥ¤
isi yi
Ġde vo
Ġawu jo
Ġala wá»į
ĠÙĩ Ø°Ø§
ÑĤ ÑĥÑĢ
Ġà¦¬ à§ĩà¦¶
sá»į rá»į
b il
Ġtr ans
ĠI á¹£akoso
Ġl Ã¡
Ġà¤ħ à¤¬
à´¤ àµįà´¯
áĥĺáĥ¡ áĥĹáĥķáĥĺáĥ¡
Ð± Ð¾ÑĪ
ÑģÐ¿ ÑĥÐ±Ð»Ñĸ
Ġà°¤ à°®
ĠÙħ Ø³
Ġà¤¬ à¥Ī
Ġàª® à«ĭàªŁ
ĠÐ¼ Ð°ÑģÑĤ
Ð· Ð½Ð°Ñĩ
Ġà®ĩà®¨à¯įà®¤ à®¿à®¯
à±ĩ à°Ĥà°¦à±įà°°
áĥĲáĥłáĥ ©
ĠÑģÑĤ ÑĥÐ´
Ġà®ĩ à®¯
Ã¡ la
Ġà¤¦ à¤¿à¤¨
à°°à±įà° ®
Ġà´Ł àµĨ
Õ¸ÖĤÕ©Õµ Õ¸ÖĤÕ¶
Õ¸ ÖĢ
Ä± q
Ð°Ð²Ð°Ð½ Ñĭ
ĠØª ØŃ
ĠÑĥ Ð´
áº »
szy st
Î¸Î· ÎºÎ±Î½
ĠÎº ÏģÎ±
Î»Îµ Îº
ĠÏĢ ÏģÎ¹Î½
ÏĦÎ¹ Î¿
Ïħ Ïĩ
Ġ Ïī
b r
ĠÐ£ÐºÑĢÐ°ÑĹ Ð½Ð¸
ÐºÐ¸ Ñħ
hat Ã³
àµĭ à´¯
ĠÙĪØ² ÛĮØ±
Ġà¤ľ à¤¾à¤¨
à®¾à®² à¯ģà®®à¯į
ĠÎ¤ Î¹
ÏĥÏĦÎ· ÎºÎµ
Ġc y
Ļ áĢļáĢ¹
ĸ áĢ¯áĢŃáĤĶ
áĢ±áĢĢ áĢ¬áĢĦáĢ¹áĢ
ĠáĢ±áĢĸ áĢ¬áĢ¹áĢ»áĢķ
ĠáĢ¡ áĢĦáĢº
èĢģ èĻİ
Ġà¸ Īà¸°à¸
Ġçİ¯äºļ å¹³åı°
Ġ ç½ĳ
åĤ ¨
à¹ģà¸ Ľà¸
ĠçŃ ī
ï¼ ģ
æ° ¸
1 åĪĨå½©
áŀ ı
à¸Ļà¸µ à¸
ģà¸´à¸ Īà¸
à¹ģà¸ ľ
Ġp k
à¹Ģà¸Ń à¸²
à¥įà¤¯à¤¾à¤ ¯
ĠáĥĲáĥ Ĵ
ĠØ§Ù¾ ÙĨÛĮ
ÑģÑĸ Ñħ
¦ ¬
àª¾àª¤ à«įàª°
à°¿à°ª à±ĭà°¯
ba ka
ãĤ «
àµģà´¦ àµįà´§
Ð² Ð»Ñı
Ġà¦ħà¦¨ à§ĩà¦ķ
×ĳ ×ľ
sh t
ĠÑĤ Ð°Ð¼Ñĥ
áĥ£ áĥĲáĥļ
è®¤ ä¸º
å¤§ å®¶
ä¸ļ åĬ¡
èĦ ±
åĪ ¸
«à¸Ļà¸¶ à¹Īà¸ĩà¸
åĪ ļ
ä¸¾ è¡Į
à¹ Ĭ
Ġà¤ķà¤° à¥Ĥà¤¨
j s
Ġdas s
à°°à±įà° ¥
áĢ»áĢģ áĢ¬áĢ¸áĢ
áĤĲ áĢ¶áĢ¯
ĠáĢĸáĢ¼áĢħáĢº áĢķáĢ«áĢĲáĢļáĢº
áĢĲ áĢĲáĢº
Õ¸Õ ¾
s ÉĻ
à¤¦à¥įà¤ ¦
ĠÑī Ðµ
ĠZ a
Ġì Ļ
áº· t
ke l
ĠáĥĽ áĥĲáĥĽ
áĢ±áģ¾áĢĢ áĢ¬áĢĦáĢ·áĢ¹
áĢ¯ áĢıáĢ¹áĢ
ĠáĢ¡ áĢĲáĢ¼áĢĦáĢ¹áĢ¸
ĠáĢ»áĢķáĢĶáĢ¹áĢľ áĢĬáĢ¹áĢ
ĻáĢº áĢ¬áĢ¸áĢ¡
áĢģáĢ²áĢ· áĢĲáĢ¬
áĢĲ áĢŃáĢ¯áĤķ
áĢĢ áĢ¬áĢ¸
áĢĺ áĢ¬áĢŀáĢ¬
ĠÐĲ ÑĢ
Ġà¤ķà¤° à¤¤à¥ĩ
ĠáĥĹ áĥ£áĥĽ
Ġz na
Ġon t
Î»ÎŃ Î¿Î½
ĠÏĥ Î±Î½
6 4
Î³ Ïĩ
ĠÎ³ ÎµÎ½
ĠÏĢÎ¬Î½ Ïī
Ïĥ ÏĥÎ±
ĠÎŃÎ½Î± Î½
ĠÎ ĸ
ÏĮÏĦÎ· ÏĦÎµÏĤ
ĠÎºÏģÎ¹ ÏĦÎ¹ÎºÎ®
Ġy s
à«įàª ¡
ĠÙħ Ø·
Ġà´ı à´±àµįà´±
Ġai z
ĠÐ³ÑĸÑģÑĤ Ð¾ÑĢÑĭ
ĠÐ¼Ñĥ Ð½Ð¾
Ġo li
à¦¤ à§ĭ
Ġà®ª à®¿à®±
Ð± Ð¾Ð»
sh me
Ġà°ªà±įà°° à°ľ
ĠÐºÐ°ÑĢ Ð´
Ġ×ĸ ×Ķ
ĠáĢĨ áĢĢáĢ¹áĢľ
ĠáĢĨáĢŃáĢ¯ áĢĲáĢ²áĢ·
±áĢĢáĢº áĢ¬áĢĦáĢ¹áĢ¸
áĢħ áĢ¬áĢ¸áĢľ
Ø¨ ÙĦ
Ð½ÑĸÑĨ ÑĤÐ²Ð°
ag æĹĹèĪ°åİħ
à¹Ģà¸ ¨à¸
à¹ ĭ
6 7
à¹Īà¸ ¡à¹Ģà¸
à¥ĩà¤Ĥà¤ ¦
áĢĢ áĢ½áĢļáĢº
ĠÕ Ģ
Ġya x
ÑĤ Ñį
Ã©n t
áĥķ áĥĺáĥļ
ÐµÐ» ÐµÐ¹
j er
áĢ¡áĢ±áĢĶ áĢĶáĢ²áĤĶ
áĢĶáĢ¹áĢĳ áĢĻáĢ¹áĢ¸
ĠáĢĸ áĢ¯áĢĶáĢ¹áĢ¸
ĠáĢ»áĢĸáĢħáĢ¹áĢ ŀáĢĬáĢ¹
ĠáĢ¡ áĢĢáĢ¼
Ġà°¸à°¿à°¨à°¿à°® à°¾
11 1
åľ ³
Ķà¸ ±à¸ļ
k k
Ġè Ĭ
èģĶ ç½ĳ
à¸Ńà¸µà¸ ģ
à¤ķ à¥įà¤ķ
à°¿à°ķ à°¾à°°
à«Ģàª Ł
d ÄĽ
Ġ íķ´
ãģ¾ ãģĹãģŁ
ĠÐº Ð¾Ð¶
te Ä¾
áº¥ p
áĢ¬ áĢı
ĠáĥĻ áĥĺáĥĵ
å¾ Į
å¼ ¹
à¸£à¸ ´
ª à¹Īà¸ĩà¸
éľĢ æ±Ĥ
é¡ º
è¿Ļ äºĽ
ä¸ĩ åħĥ
Ī à¸Ļà¸
å§Ķ ç»ŁæĪĺ
«à¸ ¢à¸
ĠãĢĤ âĢľ
ç§ Ł
æ¯ Ľ
åı£ è¯Ģ
à©Ĥ à©°
æ ¦Ĥ
à¸£à¸ ĸà¸
çĿ £
«à¹ĩ à¸Ļ
Ħ à¹Į
å «
à¸Ńà¸²à¸« à¸²à¸£à¸
åľ° æĸ¹
æĭ Ł
é¡ ¶
Ġ2 66
éĽ ¶
è® ¨
ą ĆĈ
¶à¸ ģ
ĭà¸ ·à¹īà¸Ń
å® Ī
à¥įà¤¯ à¤Ĥà¤¤
Ġà®¨ à¯ĩà®°
áĢģáĢ» áĢŃáĢ¯áĢ·
ÑĥÐ² Ð°ÑĤÐ¸
c er
àµĢ à´ķàµįà´·
ĠÐ²ÑĭÐº Ð°ÑĢÑĭÑģÑĤ
Ð¸Ð· Ð²
ĠÚ© Ø§Ùħ
Ġà¦® à¦¹
Ð¸Ñı Ð¸
áĥĲáĥ Ń
owe j
Ġàªľ à«Ģàªµ
ĠÅ ł
ĠÎ¤ Îµ
Î½Î¿ Î¹
ĠÏĦÎ± Î¾Î¹
Ïĥ Î¹Î¿
ĠÏĢ Î¹
Îº ÏģÎ±
Î» Î¹Îº
ÏĨ Î¬Î»
ĠÏħÏĢÎ¬ÏģÏĩ ÎµÎ¹
Î½Î¿Î½ ÏĦÎ±Î¹
Î¶ ÏĮ
ÏĦÎ¿ ÏĢÎ¿Î¹
ÏĥÏĦÎ¹Î±ÏĦÏĮ ÏģÎ¹Î±
ĠÎ¿ÏĢÎ¿ Î¯
ÏĨ Î·
ĠÎ± ÏĢÎ±
ĠÎĺ Î±
Îµ Î½Î¿Î´Î¿
ĠÏĦ Î¯
ÏĦÏī ÏĥÎ·
Î¿ Î³
Î»ÏĮ Î³
g ol
ĠÑ ĺ
Ð¿ÑĢ Ð°Ð²
¸ à±įà°¥
à¤Ĥà¤ Ł
Ġ×ľ ×ŀ×
Ġà´ķ àµģà´Ł
Ø§ÛĮ Ø¯
Ġà¦ķà¦¥ à¦¾
ĠÐ¾Ð½ Ò³Ð¾
Ġàª® à«ĭàª
Ġe o
ĠáĥĽ áĥĻ
Ø¹ Ø±
àª Ŀ
ĠÑı Ð½Ð°
Ð¸Ð½ Ñĭ
Ġm ag
Ð½Ð¸ ÑĤÐµ
ì¹ ´ëĿ¼
ŀ Ī
Ġson ra
à±įà°° à±Ĩ
áĥĶáĥłáĥ ķ
Ġà´¨à´¿à´¨àµįà´¨ àµį
à¦¾à¦° à§ĩ
ĠáĢ±áĢĨáĢ¬áĢĦáĢ¹áĢ ĽáĢ¼áĢĢáĢ¹áĢ
áĢľ áĢŃáĢĻáĢ¹áĢ·
ĠáĢĻ áĢĽáĢ¾áĢŃ
ĠÐŁ Ð°Ð´
Ø¬ Ûģ
àª¨ à«įàªŁ
p ie
áĥĶáĥĳ áĥĶáĥĳáĥĺ
ĠÏĥÏĦÎ¿ Î¹
Î½ ÎµÏĤ
Î³Î³ ÎµÎ»
Î¬ Î²
ÏĨ ÏĮ
ĠÏĥ ÎºÎ¿
ÎĻÎ Ŀ
Î¯ ÏĦÎµ
ĠÎŃ Î½
ÏĪ Îµ
ĠÎ» ÎµÏĢ
Ġg we
Ð°ÑĤÑĮ ÑģÑı
ĠáĢ±áĢ»áĢķáĢ¬ áĢŀáĢĬáĢ¹
áĢĶáĢ¹ áĤķ
Ġ áĤıáĢ½áĢħáĢ¹
áĢĲ áĢĶáĢ¹áĢ¸
áĢŁ áĢŃáĢ¯
à®¾à® Ļà¯įà®ķ
Ð² Ð°ÑİÑĨÑĮ
la d
Ġg ra
Ġà¤® à¤¨
Ġà°ļà±ĩà°¸ à°¿à°¨
áĢ»áĢĸáĢħáĢ¹áĢ ŀáĢĬáĢ¹
±áģ¾áĢĢ áĢ¬áĢĦáĢ¹áĢ·
ĠáĢĴáĢ® áĢĻáĢŃáĢ¯
áĢ¶ áĤĶ
ľ áĢŃáĢ¯
à¦¾à¦ «
áĥ¥ áĥĿáĥľ
ÙĪ Ø§
áĢĽ áĢŀáĢĬáĢ¹
ĳ áĢ¯áĢĲáĢ¹áĢ
áĢĨáĢŃáĢ¯áĢĦáĢº áĢĽáĢ¬
ung s
la h
ç§ ĺ
Ġà¸ Ħà¸§à¸²à¸¡à¸
Ġè¢ «
æĹ¥ æľ¬
Ġå¹ ³
æĽ´ å¤ļ
äº¤ æĺĵ
à¤Ĥà¤ §
Ġs á»ĳ
Ð²Ð°Ð½ Ð½Ñı
Ġsh qip
ĠkÃ« tÃ«
ci o
Ġcom me
Ġà®ķ à®µ
ĠáĢ¡áĢŀ áĢĢáĢº
Ġà° Ĳ
Ġà´ŀ à´¾à´¨àµįâĢį
Ġà´İà´¨àµįà´¨ à´¿à´µ
he lo
Ã¡s ok
c je
ë° ©
Ð¾ ÑģÐº
Ġà¦¬ à¦¾
ĠáĥĽáĥĺáĥĽ áĥĲáĥłáĥĹ
ĠÐ¿ÑĢ Ð°Ð¿
Ġàª¤à«įàª¯ àª¾àª°à«ĩ
ĠÐ¼Ðµ ÑģÑĤ
Ø§ÛĮ Ø´
Ġs et
ĠI d
bu láº¹
Ġl ulÃº
Ġh á»įn
Ġde láº¹
t ro
áĢĳ áĢĢáĢ¹
áĢĲ áĢ¯áĢŃáĢĦáĢ¹áĢ¸
áĢĦáĢļáĢ¹áĢ ģáĢºáĢĦáĢ¹áĢ¸
Ļ áĢ»
ĠB áº¹áº¹
Ġ Õ¡Õ
Ã¼ z
ï¼ ¯
z ed
Ġwá»į pá»į
ĠFa cts
Ġp an
ĠI pinle
à² ķ
ry pto
Ġèĳ Ĺ
Ġde er
tic le
Ġw áº¹n
Ġipo longo
Ġhun ter
Ġh omáº¹
Ġa bo
ĠI wá»į
Ġnuk á»įn
c le
ĠP aa
me ji
ĠW in
se d
å° į
ĸà¸ ·à¸Ń
Ĺà¸ ±
ķ à¸²
Ġï¼Į ãĢĬ
Ġå¾ ®
åŁº æľ¬
ļ à¹Ģà¸
ĠãĢĳ ,
æ´ ĭ
Ġçİ¯äºļag å¹³åı°
Īà¸ ³
Ġà¤ħ à¤Ń
Ġ×Ķ× ¤
Ġb oo
ĠØ® Ø§ÙĨ
ĠGbogbo gbo
cto ber
ŃĲ â
ĠT á»įn
ĠEtáº¹ wáº¹
ĠC O
fi kun
à¯ģà®³ à¯į
Ġom a
Ġkáº¹ káº¹
Ġi kan
ĠIsra eli
po rt
A d
ĠG o
ĠÙĥ Ø§ÙĨ
Ð³ Ð¸Ð»
ĠÐ² Ð°Ðº
Ġ ÅĦ
Ġà¤ª à¥Ģ
ĠÐ³ ÑĥÑĢ
ê± ´
Ġà°ľ à°¨
áĥľ áĥĺáĥ¨áĥķ
à´¿à´Ĥ à´Ĺ
nos ti
ç¨ĭ åºı
æİ¨ èįĲ
à¹īà¸Ńà¸ ¡
è´ ´
à¤¾à¤¸ à¥įà¤¤
Ġkan Ã«
Ð½Ð¸ Ð¼
ĠÚ© Ùħ
Ñģ ÑĨ
Ġvo i
Ġk ur
à®¿à®© à¯įà®©
Ð¾ÑĪ ÑĤ
à«Ģ àª¨àª¾
Ġw s
Ġì µľ
Ġà°¦ à±ĩà°¶
Õ¸Õ ²
Õ¥Õ ¿
Ġis ÉĻ
Ġáĥ¡áĥĲáĥ ¤
h l
un ÈĽ
ĠáĢĨ áĢ±áĢ¬áĢĦáĢºáĢĽáĢ½áĢĢáĢº
ĠáĢ¡ áĢĳáĢŃ
áĢ¬áĢ¸áĢ ĲáĢ²áĢ·
áĢĽáĢ®áĢ¸áĢ ļ
zi k
áĢĻ áĢľáĢ²
áĢĢáĢº áĢĦáĢ¹áĢ
ĠáĢ±áĢĴáģļ áĢ±áĢ¡áĢ¬áĢĦáĢ¹áĢĨáĢĶáĢ¹áĢ¸áĢħáĢ¯
áĢĻ áĢ¹
áĢĽ áĢĢáĢº
Ġâķ §
ĠÐĲÐ»Ñı ÐºÑģ
em e
Ġo ch
ĠÐ¼Ð°Ð³ ÑĩÑĭ
ĠÃ İ
Ġ à¬
Ġà¤µà¤¿à¤ ¶
ĠÄĳ áº§u
ar en
u re
àª¾àª Ł
à®¿à®Ł à®®à¯į
t k
m os
à´¿à´Łàµįà´Ł àµģà´£àµįà´Łàµį
ÑģÑĤÐ°Ð½ Ð¾Ð²
I 9
ĠN di
Ġ????? ??
ro ll
Ġr onu
áĥ£áĥłáĥ ¡
Ġif á»įwá»į
ĠI ran
ĠìĹ Ĩ
Ð°ÑĨÑĭÑı Ð½Ð°Ð»ÑĮ
áĢĢ áĢĲáĢ±áĢ¬áĢ·
Ġà®ļ à®¿à®²
à²¾ à²
ĠN wá»įn
ĠL ATI
ĠA bu
Ġo hwo
Ġi kede
áĥĿáĥĳ áĥĲáĥ¨áĥĺ
ĳáĢ² áĢĢ
Ġbi o
±áĢĽ áĢ¬áĢĢáĢ¹
áĢŃáĢ¯áĢ¸áĢ ¡
Ð¾Ð² Ð°ÑĢ
ĠY or
su lu
àª¾àª ī
ĠM ÃŃ
ĠI wadi
l agba
Ġi yá»į
ĠÑĢ Ð¾Ð±
ulá»įá»į gi
Ġta un
ĠNa wáº¹
wh Ãłn
Ġm an
Ġ×ŀ× ª
ĠH indi
áĢ¸áĢĲ áĢħáĢ¹áĢ
áĢĤ áĢ»
Ġfi fa
ĠK O
inu wa
P S
wit ter
Ġgb Ã¨
à§įà¦¬ à¦°
Ð°Ñ į
Ġa ir
ÙĪ ÙĬ
åł ±
u t
Ġpata pata
phi yá»į
ig n
Ġsins Ã¨Ì£n
Ġo si
Ġire ti
Ġbu buru
ĠSa le
ð Ł
m ÃŃ
à´µ à´°àµįâĢį
à´« àµį
à°¬ à±įà°¬
Ġà¤¬ à¤¾à¤¤
ĠÙħ Ø¬
áĥĶáĥ¥ áĥ¡
Ð°Ñĩ Ðµ
Ã¡l y
Ð¾ Ð»Ñĸ
áĥĲáĥĹ áĥķáĥĺáĥ¡
à¦¾à¦° à¦£
à°¾à°¦ à±ģ
ĠáĥĽ áĥĿáĥĴ
Ġà´¸à´Ĥ à´Ń
Ñĥ ÐµÑĤ
ĠØª Ú¾ÛĮ
àª¾àª ı
Ġh ÉĻm
Ġl it
Å į
ĠMo dimo
Ġà¤¹ à¥ĭà¤Ĺ
Ð¸Ð» Ð¸ÑĪ
ĠÐ¼ Ð°ÑĪ
Ġåı Ī
ĠåĽ ¾
å° ģ
ä¼ ¼
Ġåħ ±
éĩį åºĨæĹ¶æĹ¶å½©
Ġå ¢
ç« ¥
à¸£à¹Īà¸§à¸ ¡à¸
Ĺà¸ ±à¸
Ġag ç½ĳä¸Ĭ
åħ· æľī
©à¸ ±à¸
_ å¤§åıĳ
æ¯ Ĵ
Ġåħ¶ ä¸Ń
Ġà¤Ĺ à¥ĭà¤
Ġha e
Ġa bojuto
ĠU p
ĠJ an
Ġìĥ Ŀ
ke le
ĠA t
Ġà°® à±ģà°
Ð»ÐµÑĤ ÐºÑĸ
ĠÑĤ ÑĥÑĤ
ov an
ri es
áĢĺ áĢ°áĢ¸áĢľ
Ġb an
ĠM on
ri ca
áĢ±áĢĲáĢ¬ áĢĦáĢ¹áĢ¸
áĢ¯áĢ¶ áĢ¸áĢħ
Ġà´µàµįà´¯ à´ķàµįà´¤
ag es
Ġigb iyanju
Ġiba se
osi le
àª ł
Ø§Ø¯ ÛĮ
di c
Ð¸ÑĢ Ð¾
Ġá¹£ o
ĠÐ¿ÐµÑĢ Ð°Ð´
cz a
ĠáĢ¦ áĢ¸áĢ
Ð½ Ð°ÑĤÐ°
à±ģà° ¬
Ð½Ñĸ ÑģÑĤÑĮ
Ġsá»į gbe
Ġifara han
Ġala i
ĠMach ine
ĠM etro
å§Ķç»ŁæĪĺ éĥ¨
Ġè¯ ´
áŁĴáŀ ļáŀ
ĠçĽ® åīį
åŃ© åŃĲ
å¼Ģå¥ĸ åİĨåı²
è¿ĺ æĺ¯
ĠãĢĳ, ãĢĲ
æľĭ åıĭ
Ġé ľ
Ġç Ĳ
Ġé© ¬
å° ļ
ŀà¸´ à¹Īà¸¡à¸
Ġ6 8
çº¢ é»ĳå¤§æĪĺ
s s
à¸²à¸£ à¹Įà¸
§à¸´à¸ĺ à¸µà¸
Ķ à¹Į
Ġag çİ°éĩĳ
à¸£à¸ ĸ
Ĭà¸²à¸ ķà¸´
Ġà¤¤ à¤¸
ĠJo han
áĤĨ áĢĶáĢ¬
Ķ áĢ¬
Ġ, âĢĿ
à®° à¯įà®µ
Ĳ áĢ¯áĢŃáĤĶ
ģáĢº áĢĢáĢ¹
ĠáĢľ áĢ¾
Ġàª¬ à«Ģàªľ
áĥĵ áĥĿáĥĽ
Ìģ n
ĠÏĢÏģÎ¿ Î²
ĠÏħ ÏĢÎµ
Îº Î¿Ïį
Îķ ÎĿ
ĠÏĥ Ïī
Î³ Î¬
ĠÎ´ÏħÎ½Î± ÏĦÏĮ
Ġ1 A
Î¼Î± ÏĥÏĦÎµ
Î¯ Î´Î¹
Î»Î± Î¼Î²
ĠÎµ ÏĦÎ±Î¹
ĠÏĢÎ±Î¹ ÏĩÎ½
Î±Ïĥ Î¯Î±
ĠÎĳ ÏĢÎ¿
ĠÏĢ Î±Î½
Ġei ch
Ġà¤ķ à¥įà¤¯à¤¾
Ġà°® à±Ĥà°
Ð ģ
ĠÐ¿ Ð°Ð»
à´¨ à´¿
Ġj Äģ
à§Ĥ à¦²
ìĤ¬ ìĿ´íĬ¸
×ª ×Ļ
à¤¿à¤ ľ
Ġk Ã©p
ĠØ§ÙĦØ «
Ð¼ Ð¾ÑĤÑĢ
de os
Ġáĥŀ áĥĲáĥ¢
íĥ Ģ
Ġà°µ à°¸à±įà°¤
Ã Ĳ
Ġch i
ĠáĢĶáĢ¾ áĢĦáĢ·áĢº
Ð°ÑĢ ÑĤ
r os
à°¬ à°¡
Ġà´® àµĭ
Ġáĥ¢ áĥł
ÑĨÑĸ ÑĹ
t ÄĽ
Ø¨ Ùĩ
à®² à®ķ
Ð°Ð¹ Ð½
Ġå± ±
à¸Ļ à¸²
Ġç ĥ
å®ŀ æĸ½
à¥įà¤ §
ĠÚ© Ø³ÛĮ
à«ĩàªµ àª¾
un un
de l
ĠÑĩ Ñĭ
à´¯ à´¿à´²
ĠÐŀ Ð±
Ãª me
et Ã«
Ġb ar
Ð½Ðµ Ð¹
Ġà¦¸ à¦¾à¦®
ĠìĦ ¸
Å¡an u
×Ļ× ¦
Ġse o
ĠáĥĹáĥ£áĥĽ áĥªáĥĲ
nÃ© ho
ĠÑģÑŀ Ð·
ĠÐ¸ ÒĽÑĤÐ¸Ñģ
à´¿à´ ¦
ÑĤ ÑĢÑĭÐ¼
ĠáĢ¡áĢ±áĢ»áĢģ áĢ¡áĢ±áĢĶ
áĢ¸ áĢ¸
áĢŃ áĢĶáĢ¹
áĢĻ áĢŁáĢ¯áĢĲáĢ¹
áĢĲ áĢŃáĢ¯áĢĢáĢº
ÄĻ k
ĠØ± ÙĪØ²
Ġà¤° à¥Ĥà¤ª
Ð¸ Ñĩ
Øµ Ø±
Ġal la
Ġf um
ÑģÐ¸ ÑĤ
à§ģ à¦¦à§įà¦§
ta k
ĠÑŀ Ð¶Ð¾
±à¸ ĩà¹Ģà¸
Ġç ģ
ļ à¹īà¸²à¸Ļà¸
Ġà¸ ľà¸¹à¹īà¸
æ ¦
åı ³
å¢ŀ åĬł
à¤¾à¤¸ à¤¾à¤łà¥Ģ
à«Ģàª §
Ġp Ã¤Ã¤
ĠÐ³ Ð°Ð¿
ĠÐĴ Ñĸ
ĠÑģ ÑĮ
ĠÐº Ð°Ð·
Ã± o
Ġà´ļ à´¿à´²
áĢĢáĢŃáĢ¯ áĢĦáĢº
ÑĩÑĭ Ð½
v re
Ġà®ķà¯Ĥ à®Ł
Ø¯ ÙĬ
Ð´Ð¸ Ðº
ĠÐ´ Ð°Ðº
ĠáĢĻ áĢĶ
ĠÕ ¤
ÉĻ x
áĥĲáĥķ áĥĲáĥĵ
ĠáĢ±áĢĳ áĢ¬áĢĢáĢ¹áĢ
áĢĻáĢ½áĢ¬ áĢķáĢ«
áĢ¬áĢ¸áĢ ±áĢĶ
ĠáĢĲáĢĽ áĢ¯áĢĲáĢº
ĠÐ± Ð°Ò³
Ġ) ;
àª¤ à«įàª¯
Ġd y
t res
tate a
ÑĥÐ¿ Ð¸ÑĤÑĮ
ļà¸£à¸´à¸ ģà¸²à¸£à¸
è¡ Ĺ
à¹ĥà¸ ģà¸¥
äºĨ è§£
Ġà¸ §à¸±à¸Ļ
à¨ Ł
Ġà¸ «à¸²à¸
áī µ
5 9
ç© ¿
å© ļ
Ġä¸Ĭ æµ·
åģ¥ åº·
īà¸ ±à¸Ļà¸
ï¼ Ł
à¹Ī à¸Ń
è±¹ åŃĲ
Ġ ä¿Ŀ
Ĥà¸²à¸ ¢à¸
åįģ åĪĨ
Ġà¤µà¤¿à¤ ¦
áĢ¸áĢ±áĢ Ĩ
áĢĶáĢº áĢ·
ĠÐł Ð¾ÑģÑģÐ¸
ĠÐ°Ð´ Ð±Ñĭ
Ð¼ Ð¾Ð¶
Ä« t
Ġà¦ļ à¦²
ĠÙĨ Ø¸
Ġn Ã³
Ġs vo
Ġà°¸ à±įà°ª
×Ļ× Ĺ
ªà¸¡à¸ ±à¸
ĵà¸ °à¸
à¹ĩà¸ Ķà¸
Ġéļ ı
à¥įà¤¯ à¤µ
Ġí ĸ
Ġàªķ à«ĭ
f ÉĻ
à®² à¯įà®µ
al es
±áĢĽ áĢ¸áĢ¡
Ġáģģáģ Ħ
Ñĥ Ðµ
ĠÑıÐ½ Ð³Ð¸
ĠÐº ÑĥÑĩ
ÑĤ Ð°Ð±
Ġàªľ à«ĩàª®
à¦ķ à§įà¦°
ãĥ £
ĠÐŀ ÑĤ
Ġáĥĳ áĥĲáĥķáĥ¨
áĢļáĢ· áĢ¹
áĢĢáĢ¹áĢ ĻáĢ½áĢ¬
áĢĽ áĢ½áĢ¬
ķáĢ¼ áĢĬáĢº
ĠÐ´ Ð¾Ð¼
lo ng
di k
ĠÙĤ Ø±
Ĺà¸ ±à¹īà¸ĩ
èĪ ĩ
è§ Ī
çĽ´ æİ¥
ç¬¬ äºĮ
à¥įà¤ ŀ
Ġà°ħ à°Ĥà°Ł
Ð°Ð½Ð´ Ð°Ð¹
ĠÐ¼ÐµÑĪÐ°Ð² Ð°Ð´
áĢ ĮáĢ¬áĢĶ
Ġdel le
Ġà®ķ à¯ģà®Ł
Ġp ir
áĢľ áĢ¯áĢŃáĤĶ
áĢĸáĢ¼áĢħáĢº áĢķáĢ«áĢĲáĢļáĢº
áĢģáĢ²áĢ· áĢŀáĢĬáĢ¹
áĢ±áĢĻ áĢ¾áĢ¬
Äį nÃŃ
Ġbe z
Ð¸ÑĢ Ð¾Ð²Ð°Ð½
ÑĤ Ñı
ĠáĢĢ áĢ°áĢĬáĢ®
re j
Ġáĥ¨áĥĶáĥ £áĥ
Ġà´® à´±
st Ã¤
ti v
áĢģ áĢ½áĢĦáĢ·áĢº
ĠÐ½ Ð°Ð¹
à±ĩ à°¨
ĠØ±Ûģ ÛĴ
àµĢ à´¤
ĠÐ²Ñĭ Ð´
Ġà¦¯ à¦¾à§Ł
áĥĺáĥĻ áĥĲ
Ø³ Ùħ
ĠáĢĲ áĢ¼áĢĦáĢ¹
áĢŀáĢĬáĢº áĢ·
Ġà°® à°¾à°¤à±įà°°
áĢĽáĢ½ áĢļáĢº
Ġwir d
×¨ ×Ļ×Ŀ
áĥĶáĥĳ áĥĲáĥ¨áĥĺ
Ġå· ²
Ġà¤Ĩ à¤¤à¤¾
Ġz ÅĤ
ĠÐŁ Ð¾
à«įàª ¦
Ġêµ Ń
owan ie
à´ ł
z Ã³
à® ·
ĭà¸ ·à¹īà¸Ńà¸
ç½ ²
Ġagçİ¯äºļ æīĭæľºå®¢æĪ·ç«¯
à¸£à¸¹à¹īà¸ ªà¸
å· ¨
ä½ĵ ç³»
ä¸Ģ æ¬¡
5 00
ĠæĹ¥ æľ¬
Ġæ Ĳ
à¥įà¤¯ à¤®
ĠÐ°Ñģ Ð°Ð±
Ġth a
ÐµÐ» Ð¾Ð²
Ġd on
áĥ£áĥłáĥ ľ
Ġà¸ Ħà¸¸à¸ĵà¸
çīĪ æľ¬
æĬ¥ åĳĬ
åŃĺ åľ¨
Ġ à¹ĥà¸Ļ
é² ľ
æıĲ åįĩ
Ġæ¬ §
Ġà¤ķà¤° à¤¤
ÑĦ Ð¸
áĥĿáĥĵ áĥĶáĥ¡
à« ī
áĢķáĢ¹áĢ ŀ
Ķ áĢ²áĤķ
ĠáĢ¡ áĢĲáĢ°
ħ áĢ¥áĢ¹áĢ
áĢĻáĢ½ áĢĲáĢ¹áĢ
áĢĢáĢ¹áĢ ķ
áĢĢáĢ¹áĢ ĽáĢ½áĢŃ
áĢ± áĢĢáĢ¼
ka an
Ġà®ª à®ķ
ĠØ´ ÙĪØ¯
owa Äĩ
±áĢĢáĢ¬áĢĢáĢ¹áĢ ķáĢ¼áĢ²
ģáĢ» áĢĢáĢº
unÈĽ uri
Ġà°ľ à°°
ÑģÐº Ð°
o a
à´® à´¾à´£
ĠÐĿ Ðµ
ĠÏĮ ÏĥÎ¿
ĠÏĢÏģÏĮ Ïĥ
ÏĨÎŃÏģ ÎµÎ¹
ĠÏĮ ÏĢÎ¿Ïħ
ĠÎ²Î¿ Î·
ĠÏĢÏģÎ¿ ÏĬÏĮÎ½
Ġfo d
ĠP our
à¦¿à¦ Ń
ĠÕ º
Õ¸ ÖĢÕ
Õ ¤
Õ¡Õ ®
ÉĻn in
áĢĽáĢĦáĢ¹áĢ ±áĢĲáĢ¬áĢ·
ĠáĢ¡ áĢŃáĢĻáĢº
ir Ã«
Ġjoa lo
ĠtÃ¶ bb
le la
Ð°Ð½ ÑĭÑı
Ãł o
ÅĨ em
à´¨àµįà´ ®
Ġin ter
Ġà°®à±Ĭ à°¦
ĠÐ±ÑŀÐ» ÑģÐ°
Ð¶ Ð°ÑĤ
Ð¾Ð· Ð¸Ð¼
à· ı
à¤°à¥įà¤ ¤
ãĥ ¡
ĠÙħ ÙĤ
ĠÐ¿Ð°Ñģ Ð»Ñı
áĢļáĢ¹áĢľ áĢ¯áĢŃáĤĶ
áĢĶáĢ¹áĢ Ľ
ĠáĢŀ áĢħáĢ¹áĢ
áĢ¡ áĢ±áĢķáģļ
Ġáģ¾áĢĢ áĢĬáĢ¹áĢ·
ĠáĢ±áĢĽ áĢ¬
áĢ±áĢŀ áĢ¸áĢ
ĠáĢķ áĢĶáĢ¹áĢ¸
áĢĢáĢ¼ áĢĬáĢ·áĢº
áĥ£áĥ ¢
Ġà´® à´¾
ĠÐ¼ Ð°ÑĤ
Ġëı Ħ
Ġà¤ªà¥įà¤° à¤¦
àµĤà´Ł àµĨ
hr en
ha la
ĠÐĲ Ð·
en ce
à¦¬ à¦¾à¦¦
Ġp l
Ġda ha
Ġáĥĵ áĥłáĥĿáĥ¡
owan ia
à®¿à®ļ à¯įà®ļ
ĠÐ¿ÑĢ Ð¾ÑģÑĤ
Ġàª¹ àªµà«ĩ
ÙĪ ÙĤ
an do
Ġà°µà°¿à° ľ
ĠáĢģ áĢĦáĢ¹áĢ
ĠáĢ¡áĢľ áĢ½
ĠáĢĲ áĢĢáĢ¹áĢ
áĢ±áĢ¸áĢ ħ
ä¸» ç®¡
æ¶ ī
¥à¸ ¢à¸
ç¾İ åħĥ
ä¼ ¦
à¸Ńà¸ ·à¹Īà¸Ļ
à¥ĩà¤ ¡
à¦ ¯
àªĤàª¤ à«ģ
at Äĥ
ĠÐµ ÑģÐ»Ð¸
Ð± Ð¸
à®¿à®Łà¯įà®Ł à¯ģ
Ġ×Ķ× ł
Ġva la
à´Ļàµįà´Ļà´³ à´¿à´²àµįâĢį
Äį i
Ġà®® à¯ģà®±
Ġex p
ãģ® ãģ§
Ġà´ħ à´¤àµį
à°µ à±įà°µ
ma an
Ġlu b
di t
±áĢ ļáĢ¬áĢĢáĢ¹
ĠáĢĳ áĢĦáĢ¹áĢ
ĠáĢħ áĢĢáĢº
ĠáĥĽ áĥĺáĥĶáĥł
Ġm or
Ñĸ ÑĪ
ĠÐ°Ñģ Ð¾Ñģ
Ð°ÑĨ Ðµ
ĠáĢĻ áĢĬáĢ¹áĢ
ĠáĢ¡ áĢ¬áĢ¸áĢ
Ġà°ªà°¾à°°à±įà°Ł à±Ģ
Ø´ Ø±
à¦ ı
Ġáģĥ áģĢ
ÐµÐ½Ð¸ Ñİ
áº£ o
m pa
Ġà°¨à±ĩ à°¨à±ģ
Ġá»į gbá»įn
Ã¡l is
ë§Į ëĤ¨
ìĺ Ī
Ġ200 7
si le
áĢľ áĢ¯áĢķáĢ¹
ĠáĢĵ áĢ¬áĢĲáĢ¹áĢ
áĢĸ áĢĢáĢº
r on
Ġà¦Ń à¦¾à¦°
Ġom inira
Ġgb ona
Ġa to
Ġo ur
ĠL ose
S ho
ani c
Ġpa pa
Ġà®® à®Łà¯įà®Ł
Ġà°ľ à°°à°¿à°Ĺ
ni ng
Ġë° ©
à«ĭàª ª
Ð «
ĠÂ ©
ĠÐº Ð½Ñĸ
Ġw un
Ġehe láº¹
ĠNi bi
r Ã¨
ĠáĢĲ áĢĦáĢº
ĠÐ¼Ð¸Ð» Ð»Ð¸
j Äģs
Ġç ł
à¹Ģà¸ ŀ
æľª æĿ¥
Ġà¨ Ĺ
æŁ ĵ
Ħà¸ ¥à¸
Ġèĭ ±
èģĶ ç³»
æĵį ä½ľ
Ġ à¹Ħà¸Ķà¹īà¸
Ġå Ń¦
Ġà¤ ĵ
Ð´Ð·Ðµ Ð»ÑĮ
Ġáĥĳ áĥł
à´ļàµįà´ļ àµį
Ñį Ñģ
áĢ¸áĢľ áĢ¯áĢķáĢ¹áĢ
ĠáĢĢ áĢĻáĢ¹áĢĺ
Ð°ÑĨ Ñĸ
Ġà¦¹ à¦¾à¦¸
Ġà¦ķà¦° à¦¾à¦°
ĠØ§ÛĮØ± Ø§ÙĨ
ĠØ¨ Ø§Øª
n Ãº
Ø ¢
à±įà°¯ à±Ĥà°
Ġá»Į rá»į
Ð¼ Ð°Ð¹
Ġh Ã¹
k á»įni
ĠÐº Ð°ÑĤ
Ġ3 00
káº¹ sáº¹
ĠL ine
ĠI W
ĠAwo ran
Ġp ye
ĠY Ã©
Ġwu te
ani wá»įle
ĠA ko
w láº¹
lu san
er in
a h
Ġf iraná¹£áº¹
M I
ĠO S
Ġdo hia
ĠP er
au lu
Ġfi imu
Ġdi po
Ġar ticle
wh áº¹
Ġimu dojuiwá»įn
Ġba ta
ĠÄ Į
ĠD as
ĠÐĶ Ð°Ð²
ĠWeb tal
ĠBa tiri
w un
a le
Ġu p
ĠU AE
ĠMar ch
ĠLa i
ĠÐ¾ Ð¹
T O
at es
Ġà®ĩ à®¤à¯ģ
ĠSu gbon
à´¿à´ķ àµ¾
ĠÐºÐ¸ ÑĤÐ¾Ð±
Ġt ÃŃ
ĠÑĢÐ¸Ð² Ð¾Ð¶
ĠÐ¼Ð°ÑĬÐ»ÑĥÐ¼ Ð¾ÑĤ
ĠáĥĶáĥłáĥĹ áĥĲáĥĵ
Ð°ÑĩÑĭ ÑĨÑĮ
ĠåĲ Ī
æĬ Ĺ
1 88
Ġà¤µ à¤¾à¤¢
ĠØ «
Ġàª¸ à«Į
Ð¾Ð· Ð¸ÑĢ
×¨ ×Ľ
ĠÐ¾Ð± ÑĬ
ĠÃº j
Ġg ÉĻl
ĠÏĥÏĦÎ¹ Î³
Îķ ÎĻ
Î» Î¹Ïĥ
Ïģ Î¿ÏħÏĤ
Î¼ Î¼
Î¹ Î²
ĠÎ£ ÏħÎ½
Î¾ Î·ÏĤ
ĠÏĢ Î¹Ïĥ
Ïĥ Î¯Î±ÏĤ
ÏĢÎ¿Ïħ ÏģÎ³
Î¸ Î½
Î¿Ïħ Î»
ĠÏĩÎ± ÏģÎ±Îº
ĠÏĩ Î»Î¼
ĠÎµ Î»Î»Î·Î½
Î¼ÎŃÎ½ Î¿Ïħ
ĠÏĥÎ· Î¼Îµ
Î¼ ÏĢÎ¿
ĠÎ±ÏĢ Î±Î½
Î»Î¿Î³ Î®
ĠÎµÎº ÏĢ
ÏĪ ÎµÎ¹
ĠÏĢ Î»Î±
Î ĺ
ÏĦ Î¶
Î³ Î½Ïī
ÏģÎ± ÏĥÏĦÎ·
ĠÏĨ ÏħÏĥ
Î»Îµ ÏĥÎ¼Î±
ĠÎµ Î´Ïİ
201 7
ĠÎ±Î½ Î¸
ĠÎ² Î±Ïĥ
ÎºÎµ ÎºÏģÎ¹
ĠÏĥ ÏįÎ½
Î¾ ÎµÎ¹ÏĤ
Îº Î¹Î±
Î¾ Ïį
Î±Î¹ ÏģÎµ
Î ¦
Î» Ïį
na u
à°² à±įà°²à±ĭ
Ġr Ã©s
æ¯Ķ è¾ĥ
éĻ Ħ
ç¼ ©
Ĭà¹Īà¸§à¸ ¢
æį Ł
ä¸Ģ å®ļ
ĠçľŁ äºº
à¸£à¸¹ à¹ī
Ġ ä¼ļ
Ġç ĭ
çŃ ĳ
ä¸ Ŀ
à¹Ģà¸ŀà¸ ·à¹Īà¸Ńà¸
Ġà¹ģà¸ ¡
é© °
ĠæĬ Ĭ
Ġà¸ ģà¹ĩ
é¢Ĩ åŁŁ
ç® ±
à¤¶ à¥Ģ
áĢ¡áĢħ áĢŃáĢ¯áĢ¸áĢĽ
Ð½ ÑĮ
ĠPor no
c ul
Ð¸Ð¼ Ð°
áĥľáĥĺáĥ¨áĥķ áĥľáĥĶáĥļ
áĢ¥ áĢ®áĢ¸
áĢĳáĢ¬áĢ¸áĢ ĲáĢ¬
ĠáĢĲ áĢŃáĢ¯áĢĦáĢºáĢ¸áĢ
à±ĩà°¦ à±ģ
áģ¿áĢĻáĢŃáĢ³áĤķ áĢĶáĢļáĢ¹
áĢ± áĢ¸áĢĢáĢŃáĢ¯
ìľ ł
ĠÐ· Ð¸Ñĳ
Ð°ÑĪ ÑįÐ½
ĠÐ¼ Ð°Ðµ
ãĥ ŀ
Ġm ÄĽ
Ġà¸ª à¹Īà¸§
Ġà¤ªà¥įà¤° à¤¶
Ġk Ã¤y
áĢ¬áĢŀ áĢ®
áº¿ u
ÅĤ e
ĠØ³ ÛĮ
à§ĩà¦ ª
j Ã¡t
ç» ©
æī ĳ
Ġà¤¤ à¤¿à¤
tz en
à°² à°ķà±ģ
Ġv en
Ġà¤Ĺ à¤Ī
Ġáĥ¡áĥĲáĥĶ áĥłáĥĹ
Ð¸Ð» Ð°
Ø§Ø± Ø§Øª
àª¨à«įàª ¡
Ð´Ð·Ðµ Ð¹
Ġà®Ĩà®© à®¾à®²à¯į
Ġt ÉĻrÉĻ
Ġt y
ĠáĢĽ áĢĽáĢ½áĢŃ
ĠáĢĴáĢ«áĢ±áĢķáĢĻ áĢļáĢ¹áĢ·
áĢ¬áĢ¸áĢĲ áĢ½áĢĦáĢº
Ġà§¦ à§
Ġà¦Ĩà¦® à¦¾à¦¦à§ĩà¦°
áĥĶáĥĽ áĥĳ
éĶ ĭ
Ġç ´
åħŃåĲĪ å½©
äºĶ åĪĨå½©
±à¸ Ķà¸
Ġæ ¹
à¥ĩà¤ ¬
à°¾à° Ĺà°¾
ëĭ ¨
Ġà´µ à´¿à´²
ĠÐ¿ÑĢ Ð¸Ð½
ent es
áĥĲáĥĹ áĥĲ
ĠÄ «
ĠÐ±ÑŀÐ» Ð°Ð´Ð¸
ĠÐĳ ÑĥÐ½
Ð°Ð» Ð»
Ġà¦¨à¦¿ à¦°à§įà¦¬
Ġh au
Ġs em
ĠÐļ Ð°ÑĢ
Î» Î¹Î¿
Îµ Î¾
a eth
Ġà¸ Ĥà¸Ńà¸ĩ
ĸà¸ ¹à¸ģ
§à¹ĩà¸ ļ
Ġ 888
éĸ ĭ
å¤§ å¸Ī
æĶ¿ æ²»
åĶ¯ ä¸Ģ
åĵª ä¸ª
Ġç ĸ
è· Į
ç ·
åı ¬
äºĭ ä¸ļ
·à¹Ī à¸Ļà¸
10 åĪĨå½©
åĽ º
â ĸ
Ġå°Ĭé¾ĻäººçĶŁ å°±æĺ¯åįļ
à¥įà¤¯à¤¾à¤ļ à¥įà¤¯à¤¾
Ġàªľ àª£
Ġà°ħà°¯ à°¿à°¤à±ĩ
à´¯àµįà´ķàµįà´ķ àµį
Ġà¦¹ à¦ļ
Ġein en
Ø§Ø± ÙĬ
Ä± lÄ±
áĥĵ áĥĶáĥľ
Ø¬ Ùĩ
ÅĤ Äħ
Ð ¦
Ġà¤ķà¥ĭà¤ Ī
ÑįÐ½ ÑĤÑĢ
Ã¡ ciÃ³
ëĲ ľ
Ġà®İ à®²à¯įà®²
ĠÐº Ð°ÑĤÐ¾
ÑĨÐ¸ Ð°Ð»ÑĮ
Ġà¦ªà§įà¦° à¦§à¦¾à¦¨
àª¾àª£ à«Ģ
ĠØ§ ØŃ
Ġm Ã´
ĠÐ³ Ð¾
d ur
ĠC au
×Ļ× ļ
ĠAn unÈĽuri
Äĥ s
ho a
Ġha holo
ÑĤ Ð°Ñŀ
Ġà´® àµģà´¨àµįà´¨
ĠÒ³ Ð°Ñĳ
Ġà¦ªà¦° à¦¿à¦¬
ĠÐ¸ÑģÐ¿ Ð¾Ð»ÑĮÐ·
à°§ à±įà°¯
Ġáĥ¡áĥĲáĥ®áĥĶáĥļáĥĽ áĥ¬áĥĺáĥ¤
Ġà®ķ à®£
à«ĭ àª®àª¾àªĤ
ĠÐ´ Ð¾Ð´
Äģ ku
àµįâĢĮ à´¸
Ġà¤ªà¤¹ à¤²à¥ĩ
Ġm Å±
ĠØ§ Ø¹
Ġtr Ã¨s
c as
à¥įà¤ ļ
Ġ×ĳ ×©
ĠáĥĽ áĥĶáĥĿ
ÑĤÑĥ ÑĢÑĭ
vÃ¤ t
p owie
p Äĥ
Ñĸ Ð±
di b
ĠÑĪÐº Ð¾Ð»
ĠÎ¼ Î¿Î½
ĠÏİ ÏĥÏĦÎµ
ÏģÎ¹ Î¸
Î³ ÏīÎ½
Î´ ÎµÏħ
Î³ÏģÎ± Î¼Î¼Î±
ĠÏĢÎ¬Î½ ÏĦÎ±
ÏĦ Ïį
ne ud
ĠáĢ±áĢ ģáĢº
±áĢķáĢ« áĢĦáĢ¹áĢ¸
áĤĲ áĢ¯áĢ¶
ĠáĢ¡ áĢĸáĢ½áĢ²áĢ·
Ġn ÄĽ
Ġà´ļ àµĭà´¦
à®¾à® ª
am an
ĠÑĤ Ð²Ð¾ÑĢ
àµĩ à´±àµįà´±
Ġsh k
Ġà°ª à°¡
ĠÙģ ÛĮ
ĠÐ¼ Ð¾Ð³
à§ĭ à¦§
Ġs am
áĢľ áĢ¯áĢŃáĢĢáĢ¹áĢ
ĠáĢĲ áĢħáĢ¹
ħ áĢ¬
±áĢ »áĢķ
áĢģáĢ¶ áĢ³
ĠáĢ±áĢĲáĢ¬ áĢĦáĢ¹áĢ
áĢģáĢº áĢħáĢ¹áĢ
ģáĢ²áĢ· áĢĲáĢ¬
mi ento
ķáĢ« áĢĲáĢļáĢº
áĢ ĥ
áĢļáĢ¹áĢ Ģ
ĠáĢ¡ áĢĻáĢºáĢ³áĢŃáĢ¸áĢŀ
ĠáĢŀ áĢĦáĢ¹áĢ·
ĠáĢĳ áĢŃáĢ¯áĢĦáĢ¹áĢ¸
Ľ áĢķáĢ¹áĢ
áĢĻáģ¸ áĢıáĢ®
áĢĲ áĢĢáĢº
Ġkan n
b les
he z
Ġcom e
áĥłáĥĴ áĥĲáĥľ
ĠÐºÐ¸ÑĪ Ð²Ð°ÑĢ
iá»ĩ c
à¤¾à¤² à¥Ģ
à®±à¯įà®ķ à¯ģ
Ġà¦ĩ à¦ī
Ġàªīàªª àª°
Ġë¬ ¸
Ġà°ķ à±įà°°
ĠáĢĻáĢ½ áĢĲáĢ¹áĢ
áĢĳ áĢ¶
Ã µ
Ã¡ nak
Ġãģ ĵ
Ġáĥ¡ áĥĺáĥĽ
Ġà´¨à´¿à´¨àµįà´¨ àµģà´Ĥ
ĠÙĪ Ùħ
Ġa tt
áĢ¸áĢĻáĢº áĢ¬áĢ¸
ĠáĢľáĢŃáĢ¯ áĢ¡áĢķáĢ¹áĢ
áĢĤ áĢ¹áĢĤ
Ð½Ñĸ Ð¹
Ġw szyst
Ġu Å¾
g j
ĠØ± Ú©Ú¾
áĢķ áĢĲáĢ¹áĢŀ
ĠáĢĽáĢģ áĢŃáĢ¯áĢĦáĢ¹áĢ
áĢĶ áĢ½
à´¶ àµįà´¯
ĠÐ´ Ð·Ñĸ
tan t
Ġå® ¶
Ġè¿ ĳ
7 9
ĲáĢ²áĢ·áĢ¡ áĢģáĢ«
áĢģáĢº áĢĢáĢ¹
áĢ±áĢĢáĢº áĢ¬áĢ¹áĢ
ĠáĢ»áĢĻáĢĶáĢ¹áĢĻáĢ¬ áĢ·
ĠáĢĨ áĤıáģµ
áĢĹ áĢº
çĬ ¯
ļà¸²à¸Ħà¸²à¸£ à¹Īà¸²
ç¿ »
áŀ ·
Ġ36 5
Ġè¡ Į
æ°´ å¹³
ķà¸ ģà¸
Ġà¤µ à¤¿à¤ķ
à°¿à°¸à±įà°¤ à±ģà°¨à±įà°¨
Ð°Ñģ ÑģÐ¸
ĠÂ ¤
ĠÐ½Ð°Ð² Ð°ÑĤ
Ġà¦Ĩ à¦ľ
ĠE in
ĠáĥĻ áĥĲáĥľ
áĢħáĢ¹áĢ Ļ
ĠáĢĢáĢºáĢ±áĢĶáĢ¬áĢ¹áĢ ĲáĢŃáĢ¯áĤĶ
áĢ»áĢķ áĢ®áĢ¸áĢ
áĢħ áĢ®áĢ¸áĢ
ĠÎŃ ÏĦÏĥÎ¹
Î³ ÏģÎ¬ÏĨ
ĠÎ¶ Î·
ĠÏĨÎ¿ ÏģÎ¬
ĠÎµÎ¹ Î´
ĠÎ£ ÏĦÎ¿
Î½Î¿ Î¼Î±
ÎºÎ¿Î» Î¿Ïħ
ÏĦÎ· Î³Î¿
Î±Î¹ Î¿
ĠÏĦ ÏİÏģÎ±
ÏĢÎ¿ ÏĦÎµ
Î»Î· Î¼Î±
ÎĹ ÎĿ
Î¸ ÎµÎ¹Î±
ĠÏĨÏī ÏĦÎ¿Î³ÏģÎ±ÏĨ
ĠÎ¼Î± Î¶Î¯
Î½Î¿Î½ ÏĦÎ±ÏĤ
ĠÎŃÎ½Î± ÏĤ
ĠÏĢÎ»Î· ÏģÎ¿ÏĨÎ¿
ri p
ÙĪ Ø§Ùĩ
Îº Î¯Î½Î·
ĠÏĥÏħ Î³Îº
Î¸ÏħÎ½ ÏĥÎ·
ÏĦÎ¹ Î¬
ÏĢ Ïī
ĠÎļ Î¬
ĠÎ± ÏĢÎµ
Ġy ng
àª¿àª ª
ĠÐ¸ÑĪ Ð»Ð°Ð±
ĠÒ³ ÑĥÐ´
ÑģÐ» Ð¾Ð¼
Ġse bel
Ġng o
ÄŁ u
Ð¸Ð» Ð¸Ðº
ĠÑŀÑĢ Ð¸Ð½
ĠÐ´Ðµ Ð³Ð°Ð½
ĠÐ´Ð°Ð² Ð¾Ð¼
ĠÃİ n
Ġ×ķ ×Ĳ
Ø¨ Ø¯
ĠáĢ¡áĢ±áĢ»áĢģ áĢģáĢ¶
ĠáĢ±áĢ ľáĢ¬
áĢĽ áĢŃáĢ¯
ĠÐ¸ Ò·
à¸µà¸¢ à¸Ļ
Ć ãĢĤ
æıĲ é«ĺ
Ġà¤ķà¥ĭ à¤£
à§ĭ à¦¸
ĠN ie
Ġna ng
Ð°Ð³ Ð¾Ð´
ĠìĦ ±
ĠáĥĲáĥ® áĥĲáĥļ
Ġm Ã¡
Ġà°ħ à°¸
jÄģ m
àµĤ à´°àµįâĢį
Ġà´µ àµĩà´£àµįà´Ł
áĥĵ áĥľáĥĶáĥľ
à®¿à®±à¯įà®ķ à¯ģ
Ġke z
Ġ Ó¯
±áĢĨ áĢ¬áĢĦáĢ¹
áĢģ áĢĦáĢ¹
ĠáĢĻ áĢŀ
er w
Ġàª¬ à«ĩàª
ÑģÑĮÐº Ð¾Ð³Ð¾
àµįà´ ¦
ĠÃ© tÃ©
ÐµÐ¹ ÑģÑĤÐ²
do r
áĢŃáĢĻ áĢ·áĢº
à¦°à§įà¦ £
Ð°Ð² ÐµÐº
Ġà°ķà°¾à°¨ à±Ģ
ëĭ ¹
ÙĦ Ø§ÙĦ
àµĩà´· à´Ĥ
à«ģàª ĸ
à¤Ĺ à¤°
Ġs ul
ĠÑ ľÐµ
Ġà¤®à¤¹ à¤¾à¤°
ļ à¥ĩ
ÙĪØ± Øª
ĠÏĢÏģÏİ ÏĦÎ·
ĠA B
Î» Î¯Î±
ĠâĢ º
ĠÎŀ ÎµÎ½Î¿Î´Î¿
Ïĩ Ïİ
te xt
ĠÎ±ÏĢÎ¿ ÏĨ
ĠÎŁ Îº
ĠÎº Ïį
Î±Î½ Î¬
Î»Î¯ Î¿Ïħ
Î´ Ïī
it hi
ĠÑĤ ÐµÐ»
áĥĺáĥĽ áĥĶ
Åĳ k
Ġ×Ĳ ×ľ
ÑĢÑĭ ÐµÐ¼
r ag
áĢģáĢº áĢŃáĢ³áĤķ
áĢ±áĢľ áĢ¬áĢĢáĢ¹
áĢ¬áĢ¹áĢĻ áĢĲáĢ®
áĢĽ áĢĲáĢļáĢ¹
áĢĢáĢ» áĢ±áĢ¬áĢº
Ġse be
Ð½Ð°Ñģ ÑĮ
Ð°Ð¼ Ð¿
Ñı Ñģ
es ti
à®µ à¯Ī
à«ĩàªµ à«Ģ
à±ĭ à°µ
Ġà´¸ à´¿à´¨à´¿à´®
ĠÐ°Ñģ Ð¾Ð±
å» ¶
ĠåĪ ĺ
Ġåį Ĺ
æ´ ¥
Ġå Ķ
èĭ¹æŀľ çīĪ
æĸ° çļĦ
ĩ à¹Īà¸²à¸¢
åŁ¹ è®Ń
ĠB 8
ľà¸ ¥
ĠéĿ Ĵ
à¤ ·à¥įà¤Ł
Ġà´µ à´¨àµįà´¨
a j
ĠÕ £
ĠÃ ĩ
ĠáĢķ áĢĲáĢº
ĠáĥĴ áĥĲáĥ£áĥ
ĠÐ¼ ÑĸÑģ
à´¾à´° à´Ĥ
Ġsu s
ci ja
ĠÃ ģ
z u
Ġâ Ĺ
í ŀĪ
ĠÑĩ ÐµÑĢ
ĠÑģÐº Ð°Ð·
à¦¤ à§įà¦°
áĢ¶áĢ¯áĢ¸áĢ »áĢķáĢ³
áĢ±áĢŀ áĢ¬áĢ¹áĢľáĢĬáĢ¹áĢ¸
áĢĢ áĢ¬áĢľ
ĠØ¬ Ø§Ø¦ÛĴ
Ø¯ ÙĬØ¯
Ġàªªàª° àªĤàª¤à«ģ
Ġáĥł áĥĲáĥĽáĥĵ
áĢ· áĢ²
áĢ ¿
ĠÐ²Ð¸Ð» Ð¾ÑıÑĤ
Ñĥ Ò·
ĠÐ· Ð°Ñŀ
Ġà¤ľà¤¾à¤¤ à¤¾
Ġà°µà°¿à° ¦
Ġà´ļ àµĩ
à§įà¦¯ à¦®
sz Ã¡g
Ġà´® àµģà´¤
ĠØŃÚ© ÙĪÙħ
ĠáĢŀ áĢĬáĢº
ĠØ§ÙĨ Øª
ªà¸¹à¸ ĩà¸
ªà¸ ³
ç ¹
à¸£à¸¹à¸ Ľ
«à¸ķà¸ ¸à¸
è¡Į ä¸º
ç¼ º
Ġäºļæ¸¸éĽĨåĽ¢ ag
Ġà¤µ à¥ĩà¤³
di m
Ġb á»ĭ
ĠÑħ ÑĤÐ¾
Ġ×ŀ× Ĺ
ÃŃ m
ĠÑĤÐ°Ðº Ð¶Ðµ
áĥĶáĥ ¨áĥĺ
ar te
ĠÐ¿ÑĢÐ°Ð´ ÑģÑĤÐ°Ñŀ
Ã¤ i
v as
à±Ģ à°ľ
Ġl l
àª°à«įàª ®
Ġà´ªàµįà´° à´¸
à®© à¯įà®ª
Ġp ow
Ġà¦ı à¦ĸà¦¨
er n
ĀĀĀĀ ĀĀĀĀ
ãģ¨ ãģĦ
ĠÑģÐ¿ ÑĢ
Ġë ¨
ĠÙĪØ§ÙĦ ÛĴ
z ÉĻ
ĠÙĨ ÛĮ
¥ à¹Īà¸²à¸
Ħ à¸£à¸²à¸
Ġå¤§åıĳ ç§ĴéĢŁ
à¤¾à¤ª à¤°
à´ķàµįà´ Ł
Ùĥ Øª
Ġan che
à°² à°¨à±ģ
áĥĲáĥĽ áĥĺáĥ¡
Ð²Ð°Ð½ Ðµ
os a
ĠÐ¿ Ð°Ð³
ĠÐ½ Ð¸
Ġì§ Ħ
Ġà¦¸ à§įà¦¥
Ġà¤¦ à¥įà¤µ
Ġà´¨ à´®àµįà´®
ro v
in te
cy j
Ġv al
àµĢ à´·
Ð°Ð»Ñĸ Ð·
Ġ) áģĬ
áĢ±áĢ¸áĢ ķ
ĠtÅ¡ a
ag we
Ġk g
ĠáĥĲáĥĽ áĥĳ
ĠìĹ Ĳ
Ġs es
ĠÐ´Ðµ ÐºÐ°
ĠÑĩÐ°Ð» Ð°Ð²Ðµ
ĠÐ¼ Ð¸Ð½
Ġàª² àªĹ
ĠÐ°Ð´Ð·Ñĸ Ð½
Ġgj ith
al q
áĥĶáĥłáĥ Ľ
ow ego
×Ľ ×ľ
à®Łà¯įà®Ł à¯ģ
qu i
à´Łàµįà´Ł àµį
ĠÙĪ Ùĩ
ĠáĢĻáĢŃ áĢĺ
áĢĻáĢº áĢ¸áĢĲ
ĠÎµ Ïĥ
Ġl le
Ġb er
Ġc re
ãģĦ ãģ¾ãģĻ
Ġà®µ à¯Īà®¤à¯įà®¤
ĠÐ¾Ð± ÑĢÐ°Ð·
ĠÆı li
el ÉĻ
à±ģà°¤ à±ģà°Ĥà°¦à°¿
ÑĤÐ¸ ÒĽ
Ð°ÑĤ Ñĥ
Ġć ć
Ġå½© ç¥¨
Ġäºļæ¸¸éĽĨåĽ¢ æīĭæľº
åŃ ¸
ĠéĢļ è¿ĩ
è®° å½ķ
ä¸į ä¼ļ
à¸Ńà¸° à¹Ħà¸£
Ġà¤®à¥ĭà¤ ł
Û ķ
ĠÚ¯ ÙģØª
áĢħ áĢŃáĢĲáĢº
ĠÐ³ ÐĤ
ĠÐ· Ð°Ð´
Ġà¤¸ à¤¾à¤®
Ġà´¸ àµįà´±àµįà´±
à®¾à® ªà¯įà®ª
ĠpÅĻ i
Ġáĥľ áĥĲáĥ®
Ġktor Ã©
Ã ¸
àª¾àª ļ
h re
Ġìŀ ¥
k ÅĤa
Ġb Ã«
ĠÐ¼Ñĥ ÑĤ
áĢ±áĢŀ áĢĬáĢº
cu m
ĠÐ¿ÑĢÐ°ÑĨ ÑıÐ³
Ġà¦¦ à¦²
b li
ĠÑĤ ÑĥÐ¼Ð°Ð½
Ð»Ð°ÑĪ ÑĤÐ¸ÑĢÐ¸ÑĪ
Ð¾ Òĵ
Ġs á»±
ĠÑħ Ð°ÑĢ
à¦Ń à¦¾à¦¬à§ĩ
Ġà®® à®¿à®ķ
ĠØ§ÙĦÙħ Øª
áĥĴ áĥĿáĥĽ
áĢħ áĢ¶áĢ¯
ĠáĢĸ áĢŃ
r Ã¨s
áĢĺ áĢ¬áĢľ
ĠÐ²ÑĢÐµÐ¼ Ñı
ye l
à°ªà±įà°ª à°Ł
Ð°Ñħ ÑĤ
Ø¨ ÛĮ
à«ĩàª ª
à¶ º
Ġà¤ľ à¤¾à¤ı
ĠÐ´ Ð·
áĤĶ áĢ¡
áĢ±áĢľ áĢ¬
áģļ áĢº
áĢĲ áĢķáĢº
Ġ×ŀ× ¢
Ġve i
ĠBroad cast
yo ri
Ġí Ĭ
eg un
ĠÐĲÐ± Ð´
ĠÐ±ÐµÐ» Ð³Ð¸Ð»
ĠÐ²Ð°ÒĽ ÑĤ
êŀĮ in
Ġida já»į
ĠA koko
ĠA are
r Ãłn
áĥĲáĥĽ áĥĶáĥľáĥ¢
àµįà´ ľ
ĠÐ² Ð°ÑĢ
áĥĲáĥłáĥ ¯
en ti
àªµàª¾àª¨ à«ģàªĤ
an ia
larÄ±n Ä±n
Ġà¤ľ à¤¨
ĠáĢĲ áĢķáĢ¹áĢ
ĠáĢ¡ áĢĸáĢ¼áĢ²áĤķ
áĢĶ áĢ¶
áĢĦáĢ¹áĢĲ áĢĶáĢ¹áĢ¸
±áĢ ģáĢº
±áĢ ĳ
ĠáĢ±áĢĲáĢ¬ áĢ·
ĠáĢĺ áĢĿ
ĠáĢĶ áĢ¬áĢ¸áĢľ
tso e
ko a
Ġt sh
Ð² Ð°ÑĤ
áĢ±áĢĶ áĢĲáĢ¬
áĢŀ áĢ¬áĢ¸áĢ
p Ã«r
áĢĢ áĢľ
ĠØ¯ Ø§Ø´
Ġà¤ķà¤¿à¤¸ à¥Ģ
Ġáĥķ áĥĺáĥľ
à´¾à´¯à´¿à´° àµģà´¨àµįà´¨
so ane
Ġàª¬àª¨ àª¾àªµ
à°¿à°Ĥà°ļ à°¿à°Ĥà°¦à°¿
Ġà¦¸ à§ģ
k Ã³w
Ã¼ ck
ÃŃ r
Ġà´ķ àµģà´Łàµįà´Ł
ĠÐ½ Ð°ÑĢÐ¾Ð´
Ø§ÙĦ ÛĮ
ÙĦ Ùħ
áĢ¸áĢĽ áĢ¬
ÎĳÎ Ľ
ĠÏĥÎ· Î¼Î±Î½
ĠÎ±Î½Î¸ ÏģÏİ
Î³ Î¹
Ġcon text
ĠÎ£ Î¤
ÏĢ ÏĦÏīÏĥÎ·
Î¸ Î¿
ĠÏĦÎ±Î¾Î¹ Î´Î¹
ÎŁÎ Ľ
ĠÎ±Î³Î¿ ÏģÎ¬
Î´ Î¬
ĠÎ¼ÎŃ ÏģÎ¿ÏĤ
ĠD DR
ĠÎ¹ ÏĥÏĩ
Î² Îµ
ĠÎ¯ Î´Î¹Î¿
ĠÎ¼ÏĢÎ¿ ÏģÎ¿Ïį
Ġ Ïį
ĠÎ¿ ÏģÎ³
ĠÎ±ÎºÏĮ Î¼Î·
ĠÏĨ Î¿Ïģ
ĠÏĢÎ± ÏģÎ¿Ïħ
Ġo edd
áĥĶáĥĳ áĥĽáĥĲ
áĢŀ áĢħáĢº
is tÃ¤
Ġs ka
ĠÑģ ÑĢÐµÐ´
Ġf ie
Ġà®ķ à¯ģà®´
Ġqar ÅŁÄ±
ĠÐ²Ñĭ Ñģ
à¹ģà¸£à¸ ĩà¸
ĠåĽ½ å®¶
à¥ģà¤ ¢
Ġà¦Ń à¦¾à¦²
Ã± os
Ġà´¨àµĩ à´¤
Ð°ÑĬ Ð·
Ġu ti
íģ ¬
à´¨àµįà´¤àµįà´° à´¿
Ðł Âµ
Ð½Ð¾Ð¼ Ñĥ
Ġà´² àµĭà´ķ
Ġà°ª à±Ī
m ÄĽ
àª¾àª ¥
Ġáĥ¨ áĥĿáĥłáĥĺáĥ¡
ĠáĢĲ áĢļáĢ¹
Ġáģģáģ Ĩ
ĠÐ² Ð°Ð¹
ju k
Ã¡ ci
×¨ ×Ķ
éĽ ¨
Ġçİ¯äºļ app
æĺ¯çľŁ çļĦåĲĹ
ĠagçľŁäºº åľ¨çº¿
æĽ ²
à¤°à¥įà¤ ľ
Ġs pÄĵ
Ġáģ ¾
áĢ»áĢĸ áĢĦáĢ·áĢ¹
áĢ¸áĢŀ áĢ¼áĢ¬áĢ¸áĢ
±áĢĨ áĢ¬áĢĢáĢ¹áĢ
Ġáģĭ âĢĿ
à§Ģ à¦¦à§ĩà¦°
en za
ĠáĢ¡ áĢŃ
áĢ¬áĢ¸áĢĻ áĢ¾áĢ¯
ĠÐ°Ð´ Ð½Ð¾
Ä ©
ĠI á¹£
Øµ ÙĦ
Ġzu m
es ter
at h
Ġaká»į siláº¹
d Ã¹
àª¤ à«įàª°
ĠBa kÄ±
ili b
áĥĶáĥĳáĥ£áĥļáĥĺ áĥĲ
an ie
Ð»Ð°ÑĢÐ¸ Ð´Ð°Ð½
Ð¸Ð½ Ð¾
ĠWor ld
Ġà®ħà®µ à®°à¯į
ĠHel ps
ĠG be
tÃ³ Ì£
ir l
Ġt Ã³
à´¿à´ ¡
Ġà¸Ľ à¸µ
à¸£à¸±à¸ ģ
Ġà¸ ¡à¸²à¸
à¹Ĥà¸¥à¸ ģ
6 2
ä¹ İ
0 5
ļ à¤¾à¤°
Ġa ki
ma t
Ð½ Ð°Ñŀ
à°Ĥà° ľ
à«Ĥ àª°
ÐµÐ½ Ñĭ
Ð°Ð¼ Ð°Ð½
ÑĥÐ² Ð°ÑļÐµ
»áĢĻ áĢĦáĢ¹áĢ
ĠáĢ¡ áĢ¯áĢķáĢ¹áĢ
Ĵ áĢ±áĢŀ
ĠÑĪÐ°ÑĢ ÑĤ
áĢ¬áĢ¸áĢĻ áĢ¾áĢ¬
ĠÐ¸Ð¼ ÐºÐ¾Ð½
ÑģÑĮ ÐºÐ¾ÑĹ
ĠØª Ùħ
ãĥ ī
ĠáĥĽ áĥ¨
Ġà¦Ĩ à¦¹
ç²¾ åĵģ
Ġà¤ħà¤ª à¤¨à¥Ģ
à§Ģ à¦¤
àµĨà´Ł àµģà´ķàµįà´ķ
à°¾à°¨ à±ĩ
Ġm Ãªme
Ġíı ¬
ĠSh qip
Ġg ja
ĠÐ· ÑĢÐ°Ð±
cz ne
Ġà°ªà±ĭ à°²
ho d
Ġà®ħà®µ à®°
ķ à¹īà¸Ļ
éĿŀ åĲĮ
çĶµ ç«ŀ
ªà¸ ļà¸
Ġæ ģ
ç§ĳ åŃ¦
èį £
å° ½
Ġä¸ ĵ
Ġæ° ´
åĲ ī
Ġé» Ħ
à¤¡ à¥Ĥà¤¨
Ġlu i
ĠÐ²Ð¸Ð» Ð¾ÑıÑĤÐ¸
ĠÒ³ Ð¾Ðº
ĠÒĽ Ð°Ð½Ð´Ð°Ð¹
ĠÐ´ ÐµÐ¹
Ð¾Ð» Ð°ÑĤ
ĠÎĶ E
ĠmÉĻ h
áĥĲáĥł áĥĲ
áĤĲ áĢ½áĢŃ
áĢ¬áĢ¸áĢľ áĢ¬
Ð»ÐµÐ½ Ð½Ñı
Ġk go
àª¨ àª¾àªĤ
ÐĲÐ Ŀ
ĠÐĲÐ» Ð»Ð¾Ò³
ĠÐ¼Ñĥ Ð´
Ð¾ÑģÑĤ ÑĮ
ÏģÎ· ÏĥÎ·
ĠÎ¾ÎµÎ½Î¿Î´Î¿ ÏĩÎµÎ¯Î¿
Î³ Î¿Î½
Ïĥ Î¹Î¬
ÏģÎ± Î½
Ġ! !!
Î¹Ïĥ Îµ
Î¶ Î·
ÏĩÎ± ÏģÎ¹Ïĥ
ĠÎ¿ Î´Î·Î³
ĠÎºÎ¹ Î½Î·
ĠÎ³ Î¯Î½ÎµÎ¹
ĠÏĥÎ® Î¼ÎµÏģÎ±
ĠÎļ Ïħ
ĠÏĢ Î¿Î¹
ÎĹ Îľ
Î» ÏİÎ½
Ġb ydd
Ã± a
Ġta s
à´² à´Ĥ
ĠáĢķáĢ¼ áĢĦáĢº
Ġà®ħ à®³
Ã©s e
ëŀ ĺ
çľĭ åĪ°
ªà¸³à¸« à¸£à¸±à¸ļ
ĠH G
ç² ī
åĬ ³
erst ars
è®¡ ç®Ĺ
å· ¦
Ġæķ °
« à¸£
Ġæ Ĥ
Ġà¤® à¤¾à¤¤à¥įà¤°
à±ĭ à°°
×ĵ ×Ļ
¯ à§
ĠÑģ Ð°Ð»
Ġáĥ¬ áĥĶáĥļáĥ¡
Ġ ä¸ª
çĶµåŃĲ æ¸¸æĪı
Ġà¤Ĩ à¤²à¥ĩ
ia c
ĠÙĦÙĪ Ú¯
ÑĤÑĭ Ð¼
Ġàªķ àªĤàª
ĠÐ½ Ð°ÑĤÐ¸
it en
Ġch á»ī
Ġcz as
ÑĥÑİ Ñī
Ġm ÉĻs
ĠÑĤ Ð¾Ð²Ð°
à´Ł àµģà´¤àµįà´¤
Ġaus si
Ð¾ÑģÑĤ Ñĸ
ĠÐ³Ñĵ Ñĺ
Ñĥ Ð»Ñĸ
à¦¿à¦ ĵ
n ost
ĠÑĦÐ¾Ð¹Ð´ Ð°Ð»Ð°Ð½
ĠÐ± ÐµÑĪ
Ġpor no
en ta
Ġà¤° à¤ĸ
áĢĲ áĢ±áĢ¬áĢĦáĢº
ĠÑĳ ÑģÑĨÑĮ
à´¿à´ķàµįà´ķ àµģà´ķà´¯
àª° àª®àª¾àªĤ
Ġ Ã¡ll
cu t
à±Ĥà°° à±įà°¤
åģ ·
à¤Ĥà¤¬ à¤Ī
ĠáĢ±áĢ»áĢĻ áĢ¬áĢĢáĢ¹áĢ
áĢĻáĢº áĢ¸áĢŀ
ÐµÐ½ Ð°
ĠJe ho
Ġli k
Ġj wa
Ġm Ã©
Ġå¤§åıĳä¸Ģ åĪĨéĴŁå¿«ä¸ī
ç½ ª
à¤¾à¤¯ à¤²à¤¾
ĠÎµÎ¼ÏĨ Î±Î½
ĠÎ´Î¹Î± Î¸ÎŃ
Î¼Îµ Î½Î±
Ġs ydd
ë¹Ħ ìĬ¤
à«ĩàª ¬
à®µ à®¿à®²à¯įà®²à¯Ī
Ġsa y
Å¡an Äģs
Ùĭ Ø§
ĠáĥĽ áĥª
ÑģÑĤ ÑĥÐ¿
Ġà´ķàµįà´ ·
Ġà°ĩ à°Ĥà°Ł
Ġà¤®à¥įà¤¹à¤£ à¤ľ
ì Ķ
±áĢĶ áĤĶ
áĢ¡ áĢĢáĢ¼
ĠÐ°Ð´ ÐºÐ°Ð·
Ġt ego
ĠKoso v
tÃ« n
Ġda l
Ð» Ð¾Ð½
ari o
Ġà¤ª à¥Ĥ
Ġíĺ ¸
ĠÐĲÐ»ÑıÐºÑģ Ð°Ð½Ð´
Ġh y
àµįà´ ¡
Ġàª¸ àª¹
es c
ĠÙĦ ÛĮÚ©ÙĨ
ĠÑģÐ¿ Ðµ
Ġà® Ĳ
ĠÒ³ÑĥÐ¶ Ð¶Ð°ÑĤ
Ð°Ð»Ð°ÑĢ Ð½Ð¸
ĠÑĤ Ð°Ð¼
Ã¨ me
Ġà°Ĩ à°®à±Ĩ
ãĥ ¥
áĢĨ áĢ¯
ķ áĢ¯áĢ¶
Ġà°² à°ķà±įà°·
f en
Ġáĥ¨áĥĶáĥ¡ áĥĲáĥ«áĥļ
Ġà¦° à¦¾à¦ĸ
n es
ĠT r
à´¾à´´ àµįà´ļ
ĠáĢľ áĤĬáĢĲáĢ¹áĢ±áĢĲáĢ¬áĢ¹áĢ
áĢĳ áĢĢáĢº
m Ã©ny
Ġz aman
c ciÃ³n
ĠÃ®ntÃ¢ln ire
à°°à±įà° ¸
ÄĻ p
Ġtre bu
ĠÐ³ ÑĢÑĥ
àªķ à«ĩ
Ġê² Į
Ġs me
Ġà¤ħ à¤²
Ġp il
à´¿à´ļàµįà´ļ à´¤
ÅĪ a
ĠÐºÑŀÑĢ Ð°
ĠÐĴ Ð°Ð·
ĠØ´ ÙħØ§
Ð¸Ð· Ð¸
ÐĨ Ðĵ
ĠÑĩÐ°Ð» Ð°Ð²ÐµÐº
ĠáĢĨ áĢ¯
à±įà°Ł à±į
Ã©n ek
áĢĲ áĢŃáĢ¯áĢĢáĢ¹áĢ
áĢĶ áĢ±áĢĽ
Ð¾Ð» Ð¾Ð²
ëł ¤
Ġà®® à®ķ
Ġà¦¦ à¦¿à§Łà§ĩ
oo r
ĠÚ¯ ÛĴ
Ġno ch
Ġà´¸ àµģà´
Ġà®ı à®±à¯įà®ª
cia s
ĠÄĳá» ĵ
Ð°ÑĨÑĭ Ñİ
áĥĲáĥł áĥĶáĥĳáĥĺáĥ¡
ĠÑģÑĤ ÑĢ
Ø³ Ø¨
ãĤ µ
ĠÑĤ Ð¸Ð·
Ð°Ð½ Ð¸Ð½Ð³
ĠÐľ Ð°Ò³
Ġà´µ à´¾à´¯
çı ¾
ĠagèµĮ åŁİ
è§Ħ å®ļ
ŀà¸´ à¹Ģà¸¨à¸
ļà¸£à¸´à¸ ©à¸±à¸
Ĺà¸³ à¹ĥà¸«à¹ī
ĠåĽł æŃ¤
à¸² à¸Ļà¹Ģà¸
à¥Ģà¤ļ à¥ĩ
ÐµÐº Ð¸Ð½
te urs
Ġbu de
Ġà¦® à¦¾à¦°
áĤ Ħ
áĢ¼ áĢŃáĢ¯áĢ·
ĠÑĢ Ó¯Ð·
ar z
l lÃ¤
áĥĶáĥ £áĥļáĥĺ
áĢĶáĢ¹áĢ ĸ
áĢĶáĢ¹áĢ Ķ
áĢºáĢ¬ áĢ·
Ļ áĢĬáĢ¹áĢ
ĠáĢ¡ áĢģáĢ»áĢŃáĢĶáĢº
t ri
Ġà´µ à´´
Ã ī
ĠÃ ³
Î¬Ïģ ÏĦÎ·
ÏģÎ¹ Î¬
Î¸ Î¿ÏĤ
Ïħ ÏĦÏĮ
ĠÎ» Î¹
ĠÎ£ ÎµÏĢ
Ïĩ Î¹Ïĥ
Ġd de
à«ĩàª ¦
Ġ×Ķ ×ķ×Ĳ
ÐµÑĢ Ð°
Ġà°¶ à±įà°°à±Ģ
à°ķà±įà°ķ à±ģà°µ
t ar
Ġàª¨ à«Ģ
Ġà®ī à®¯
da ÅŁ
ĠA us
áĥĲáĥľ áĥĴ
ĠÙĦ Ú¯
Ġà´ħ à´±
Ã«n Ã«
es nÄ«
±à¸ Ķ
æĿ¡ ä»¶
å¼Ģ æĶ¾
à¹Ĥà¸ Ľà¸£
åħ³ äºİ
ä¹ĭ éĹ´
Ġé¦ Ļ
à¹Ģà¸Ķ à¸´à¸Ļà¸
à¤° à¥ĩ
Ġcu m
Ðł Ñĳ
ĠÐ· Ð°Ñģ
l ha
à¦¾à¦ ¡
áĢ¸áĢħ áĢ®áĢ¸áĢ
áĢĻáĢºáĢ¬áĢ¸ áĢĢ
áĢ±áĢĶ áĢ¬áĢĢáĢ¹áĢ
ĠáĢľ áĢŃáĢ¯áĢ·
Ġà¸ Ĥà¸
à¨ ª
à¹Ħà¸§ à¹īà¸
éĽ ª
à¹ĥà¸Ĭ à¹Ī
4 2
Ġà¤Ĩà¤ª à¤²à¥įà¤¯à¤¾
ĠÕ ¢
g ÉĻr
áĢħ áĢĻáĢ¹áĢ¸
áĢĺ áĢĿ
ĠÐ´ ÐµÑĤ
Ġm oo
Ġn Äĥm
Ġel le
ĠáĢĻ áĢ¯
ĠáĢĺáĢļáĢ¹áĢ ŀáĢ°
ĠáĢ»áĢĸáĢħáĢ¹áĢ ±áĢĶ
áĢĶ áĢ±áĢĽáĢ¬
ĠÑĤÐ°Ð¹ ÑĳÑĢ
d nÃŃ
vi en
Ð»Ð°Ð½ ÑĤÐ¸ÑĢÐ¸ÑĪ
ĠÐ¸ÑĪÑĤÐ¸ÑĢ Ð¾Ðº
c are
Ġåı Į
¸ à¹Īà¸¡
ķ à¹īà¸Ļà¸
Ķà¸ ±à¸ĩ
¡à¸µà¸ Ħà¸§à¸²à¸¡à¸
çģ µ
è´ ·
Ġà¤® à¤¾à¤¹
ÑģÐ» ÐµÐ´
ĠÙĪ ÛĮ
Ġà´ĩ à´¤àµį
ĠÑĦ ÑĥÒĽ
ĠÐº Ð¸Ð¼
Ð°ÑĤÐ¸ Ð´Ð°
ÐĺÐ Ŀ
ĠÐ±ÑŀÐ» Ð´Ð¸
Ð¾Ð· Ð¸
dz o
ë¥ ´
tz e
à®® à¯ģà®®à¯į
Ñİ ÑĨÑĮ
Ġàªļ àª¾àª²
Ġty re
Ġcon s
Ñĥ ÑĤÑĮ
yl ko
ĠÙĩ Ø±
ĠáĥĿ áĥłáĥĴáĥĲáĥľ
ĠÄį o
Ġà®¨ à®¾à®Ł
Ø§ÙĨ ÙĬ
ĠD er
à¹īà¸ ¡
ä½ĵ éªĮ
èīº æľ¯
à¹Ģà¸£à¸µà¸ ¢à¸Ļà¸
èĤ ĸ
åħ¬ å¼ı
à¹Īà¸ °
è ¸
1 68
Ġäºļæ¸¸ ä¼ļ
à¥Ģà¤ļ à¤¾
Ñŀ ÑĢ
ÒĽ Ð°
Ð´ Ð°ÑĤ
ĠÐ´Ð¾ Ð¸ÑĢ
Ã³ k
ti a
ÑĢ Ð°ÑĪ
Ð¾Ñı Ð´
Ġàªª àª¾àª¸
m Äĥ
áĤ ħ
áĢĿ áĢĲáĢ®
áĢ±áĢ ģáĢ»
Ġg ran
ĠáĥĶ áĥķáĥł
ĠÐºÐ¾ÑĤÐ¾ÑĢÑĭ Ðµ
ĠW M
ÏģÎ±ÏĥÏĦÎ· ÏģÎ¹
ĠÎ· Î¼ÎŃ
Î¼ Î¯Î±
ĠÎķÎ»Î»Î¬ Î´Î±
ĠÏĢÎ± ÏģÎŃ
ÏģÎµ Ïħ
ÏĨ ÏīÎ½
ĠÎĶ ÎµÎ¯ÏĦÎµ
ĠÏĨ Î¯
Î¼ÏĨÏīÎ½ Î±
ĠW N
ÎŃ ÏģÎ³
ÎµÎ¯ ÏĦÎ±Î¹
Î¸ ÎµÎ¹
ĠÎº Îµ
ÏĨ Î¹
ĠÎµÎ½ ÏĮÏĤ
f r
Ġy eni
è· ĳ
ãĢ į
áł¦ áł
å°ı æĹ¶
¶à¸ ĩ
Ġe m
è§ ¦
Ġè Ĳ
Ġç ¡
Ġ9 7
à¹ ĭà¸
Ĺ à¹Ī
Ġag æīĭæľºçīĪ
à¤¿à¤ķ à¥įà¤·
ĠØ Ł
ĠJeho fa
Ġk wa
Ġà´¸ à´°àµįâĢįà´ķàµįà´ķ
ĠâĢĭâĢĭâĢĭ âĢĭâĢĭ
Ġà´¨à´Ł à´¤àµįà´¤
áĢŃ áĢħáĢ¹áĢħ
âĢ ĺ
Ú© ÛĴ
ĠÏħÏĢÎ¬ÏģÏĩ Î¿ÏħÎ½
ĠÎ±ÏĢÎ¿ Îº
ĠÎ´ Ïħ
ĠÏĥÏħÎ³ ÎºÎµÎºÏģÎ¹
ĠÎµ ÎºÎ±
Ïĥ ÏīÏĤ
ĠÏĢ Î»Î®
Î¼Î² ÏģÎ¯Î¿Ïħ
ĠÎµ Ïį
ĠÏĦ ÏģÎ¿
ÎŃ Î²
ÏĦÎ¹Îº Î¿
Îµ ÏģÎ¿
Ġon d
Ġáĥ¡áĥĲáĥ Ĵ
hi leng
Ùĥ Ùħ
à¦¿à¦ Ĺ
ĠÐ´Ð·ÑıÑĢÐ¶ Ð°Ñŀ
Ġga da
à«ĭàª ¸
ä¸Ĭ æµ·
Ġ à¸Ńà¸²à¸
à¹ģà¸« à¹Īà¸ĩà¸
¸ à¹Īà¸Ļà¸
ļà¸£à¸´à¸ ģà¸²à¸£
Ġà¹Ģà¸ ª
Ġà¤ħà¤¨ à¥ĩà¤ķ
à°¨ à°Ĥ
áĤĥ áĤĩ
ĠáĢĴáĢ«áĢ±áĢķáĢĻ áĢ²áĢ·
áĢķ áĢ½
Ġs wo
Ð´ Ñį
à´Ļàµįà´Ļà´³ àµĨ
Ð¾Ð² Ñĸ
ĠÐ³ Ð¸
ĠgÃ¶ st
Ġ×ŀ× ¡
ãĥ Ĳ
l le
Ġn j
Ùĥ ÙĪÙĨ
à¥Ĥà¤ ¸
Ļ áĢ°
áĢĢáĢ¹áĢ ĳ
áĢĨ áĢ²
ÐºÑĢ Ð°Ñĸ
ĠÑĢÐ°Ð· Ð²Ñĸ
áĥĲáĥ£áĥ ł
Ġà®ĩ à®²
ÅĻ i
âĢĮ ÙĩØ§
ĠáĢĽáĢ½ áĢĦáĢ¹áĢ¸
Ġáģģáģ ĩ
à±Ĩ à°¡
Ñİ ÑĤ
ÛĮØ§ Úº
áĢĲ áĢĻáĢ¹áĢ¸
ĠáĢ¡áĢ±áĢĻáĢĽáĢŃáĢĢ áĢĶáĢ¹
ĠáĢĹáĢ¯áĢĴ áģ¶
ĠáĢķáĢ¼áĢĬáĢº áĢŀáĢ°
Ġà´ħ à´ª
ĠÐ± Ð°Ð½
áĢĨ áĢ¯áĢ¶áĢ¸áĢ
Ã ®
ĠÐº ÐµÐ½Ð³
Ð³ Ð°ÑĩÐ°
Ð± ÑĥÑĢ
í ĭ
à¯ģà®ķ à®¿à®©à¯įà®±
à«Ģàª ¡
ĠpÄĵ c
ki ch
z Ã¡s
à¦¿à¦¨ à§įà¦¨
ĠáĢĸ áĢ½
Ġper o
ĠÑģÐ² Ð°Ñĳ
al Äĥ
ĠP Ã«r
à°¡à±įà°¡ à°¿
ĠTe lugu
à±Ī à°¤
ĠÐ¢ ÑĥÑĢ
Ġein er
i ts
Ġnh áº¥t
à°¾à°° à±į
ĠÉĻs as
ĠáĥŀáĥĿáĥļ áĥĺáĥ¢
ĠáĢ±áĢĲáĢ¬ áĢĦáĢ¹áĢ¸
áĢĲáĢĬáĢ¹áĢ¸ áĢĢ
ĠáĢ§ áĢĽáĢ¬
áĢ±áĢķáĢĻ áĢļáĢ¹áĢ·
ĠáĢķáĢŃáĢ¯ áĢĻáĢŃáĢ¯
ĠÐ½Ð°Ð· Ð°ÑĢ
Ġve Ä¾
ĠØ¹ ÙĦÛĮ
Ġà´Ł àµįà´°
ĠÐºÑĸÑĢ Ð°Ñŀ
áĥĲáĥ« áĥĶ
ĠáĥĲáĥ ĺ
ĠÙħÙĦ Ú©
z ia
Ð´ Ñĥ
ãĥ ģ
Ġam b
ĠpÅĻ ed
Ġàªľà«ĭàª Ī
t te
à±ĭ à°¨
ĠE z
Ġà¤¤à¥įà¤¯à¤¾à¤ ®à¥ģà¤³à¥ĩ
ĠáĢĴáĢ¯ áĢĢáģ¡
¡ áĢ¬áĢ¸
Ġà¤¸à¤ķ à¤¤à¥ĩ
ĠáĥĲáĥ £áĥ
on es
Ġr re
Ġà¦Ĩà¦® à¦°à¦¾
ĠÑĨÑı Ð¿ÐµÑĢ
Ġí ģ
áĢĲ áĢģáĢ¯
áĢ±áĢ ĸáĢ¼
Ľà¸ ģà¸
à¥įà¤ £
ĠáĢ±áĢĴáĢ« áĢĢáĢ¹áĢĲáĢ¬
Ľ áĢĦáĢ¹áĢ¸
áĢĦáĢ¹áĢĺ áĢ¬
áĤıáģ ¶
ľ áĢº
Ġà°ªà±įà°° à°¯
ĠÐ¿ÑĢ Ð°ÑĦ
Ġpo z
Ġfe ela
ĠÑıÑŀÐ»Ñı ÐµÑĨÑĨÐ°
Ġà®µà®¿à® ³
ĠáĥĲáĥ Ļ
Ġpeu t
ĠáĢŀ áĢ½
Ġà¦ľ à¦¾à¦¤
ĠÐµ ÑģÑĤÑĮ
Ġàªª à«ĭàª²
Ġà´Ł àµįà´Ł
àµĭ à´ª
ÏĦÎ® ÏĥÎµÎ¹
Î¬Î½ ÎµÎ¹
ĠÏĢÎ±Î¹ Î´Î¹Î¬
ĠÎ´ ÎµÎ¯
Ġ< /
Ïĥ Î±Î¹
Î¼ ÎµÎ¹
ĠÏĢÏģÎ¿ Î·Î³
Î¼ÎŃÎ½Î¿ ÏĤ
ĠÏĢÎµÏģÎ¹ÏĥÏĥÏĮÏĦÎµ ÏģÎ±
ĠÎ¶Ïī Î®
ĠÎł Î¿
yn n
Ġpo ate
ÙĪ Ù¹
Ä¼ a
ĠçĽ ´
à¤¾à¤° à¥ĩ
y yat
Ð°Ò³ Ð¾
Ð°ÑĶ ÑĤÑĮÑģÑı
ĠáĥĻ áĥļ
à¦¾à¦¥ à§ĩ
ĠmyÃ¶ s
ÅĽ cie
à«įàª ¬
ãģĤ ãĤĭ
ĠáĢĢáĢ¼áģ½ áĢĶáĢ¹áĢ±áĢĲáĢ¬áĢ¹áĢ
áĢĳ áĢŃáĢ¯áĢĦáĢ¹áĢ
áĢ¡ áĢĢáĢº
ĠÐ» ÐµÑĤ
ĠíĨ µ
ci os
ĠØ§ÙĦ ÙĬ
Ġbil ÉĻr
áĢļ áĢŃáĢ¯
Ġ×Ķ× §
à´¾à´¨ àµģà´³àµįà´³
p ha
áĢĻáĢ¼ áĢ±áĢ¬áĢĢáĢº
áĥĲáĥł áĥĶáĥĿáĥĳ
ĠÑĩ ÑĭÐ¼
to re
Ġso bre
Ñĺ Ð°ÑĤÐ°
à±Ĭ à°ķà±įà°ķ
Ġà®®à¯ĩ à®²
Ġpr Ã©s
Ã¼l t
Ġde c
Ġà´İ à´¨àµįà´±àµĨ
ĠÎ±Ïħ ÏĦÎ¿Ïį
ĠÏħ ÏĢÎ·ÏģÎµ
ĠÎŃ ÏģÎ³
ĠÎ¸ÎŃ ÏĥÎ·
Î» ÎµÏĤ
ĠÎ½ ÏĮ
ĠÎ¦ ÎµÎ²
Ïĥ Î¼Î±ÏĦÎ±
ÏģÎ· ÏĤ
ĠÎ¼ÎµÏĦÎ± Î¾Ïį
ÏĢÎ¿Î¯ Î·ÏĥÎ·
ÏĢ Î¬Î½
ĠÎĻ Î±Î½
ÏĢ Î¿ÏħÏĤ
ĠÎµÏħ ÏģÏİ
ĠÏĥÏħÎ¼ Î¼Îµ
ÏĢ Î±Î½
ÎµÏį Î¸ÏħÎ½ÏĥÎ·
ĠA F
Î¸ÎŃ Î±
Î¼Î± ÏĦÎ¿
Î´ Î¿ÏĤ
ĠÏĦ ÏĮÏĦÎµ
ĠA E
ÎĳÎ ļ
ĠÎ¬Î½ Î¸ÏģÏī
ĠÏĢÎ¿ Î»Î»Î¬
Î¼Î¿Ïį ÏĤ
ÏĦÎ· ÏĦÎ±ÏĤ
f an
ÐµÑĢ Ð¸
Ġàª¨àª¹ à«ĢàªĤ
Ġà´¬ à´¨àµįà´§
áĢ¯áĢķáĢ¹áĢ ĽáĢ½
ĠáĢ¡ áĢĤáģ¤
áĢ¡ áĢ±áģ¾áĢĢáĢ¬áĢĦáĢ¹áĢ¸
ĠáĢĳ áĢ°áĢ¸áĢ
Ġgi Ã¡
Ġà¤¹à¥ĭ à¤¨à¥ĩ
Ġdu het
ĠÅ¡ o
ĠáĢ±áĢĶ áĢ¬áĢĢáĢ¹
áģĢ áĢĦáĢ¹áĢ¸
ĠáĢĻ áĢĬáĢº
st y
ØŃ Ø©
Ð¸ÑģÑĤ ÐµÐ¼
ĠÐ´Ð·Ðµ Ð¹
Ġì Ĥ
æĪĲ åĬŁ
±à¸ģà¸ ©à¸
Ġp j
ç»ĵ æŀĦ
èİ· å¾Ĺ
áŀ ĵáŀ
à¹Ģà¸¥ à¹Īà¸Ļ
ŀà¸±à¸ Ĵ
ĠèĢĮ ä¸Ķ
Ġà¤® à¤°
Ø§Ø¯ Ûģ
Ġle n
Ġáĥĺáĥľáĥ¤ áĥĿáĥłáĥĽ
ÑĢ Ð°ÑĨÑĮ
ĠÐ¹ Ð¾Ð³Ð¾
àªµ à«ĭ
ĠÐº ÑĬ
Ø¹ Ùĩ
ĠkÃ¶ n
ë¬ ´
īà¸ ±à¸Ļ
Ġ à¹ĥà¸«à¹īà¸
Ġäºļæ¸¸å®ĺç½ĳ çĻ»å½ķ
å¦ ĩ
Īà¸ ¸à¸
Ġ à¸£à¸µà¸§à¸´à¸§
è¯Ģ çªį
Ķ à¸Ļà¸
æ´ Ĺ
èĩª åĬ¨
ªà¸ĸ à¸²à¸Ļà¸
·à¹Ī à¸Ńà¸Ļà¸
Ġà¸ Ĥà¸Ńà¸ĩà¸
çīĽ çīĽ
æ¶Ī æģ¯
«à¸¡à¸²à¸ ¢à¸
Ġä»ĸ ä»¬
çļĦ å¤§
à¹Īà¸² à¸Ļ
ĠéĻ ¤
Ġç ¼
åħ¨ éĿ¢
ä¼ Ĭ
à¸Ńà¸ ±à¸Ļà¸
Ġpo k
åĪ© çĶ¨
æİ¨ è¿Ľ
à¹Ĥà¸ ķ
Ġ ä¸ĭè½½
uu å¿«3
· à¸Ļà¸
åı «
Ġà¨¦ à©Ģ
Ġà¤µ à¥įà¤¹
ĠÑĥ ÑģÐ»
Ġà¦¤ à¦¬à§ĩ
áĢĨáĢŃáĢ¯ áĢĽáĢĦáĢ¹
áĢħ áĢĬáĢº
àµĩà´ ľ
Ġdá»¥ ng
áĥ£áĥł áĥĺáĥ¡
ko lo
ÑģÐº Ð°Ðµ
Ø§Ø ©
te i
Ġm en
ÑĢÑĭ Ñĩ
Ð°Ð½ Ð¸Ðµ
æĴŃ æĶ¾
Ġà¤¸à¤° à¤ķà¤¾à¤°
Ġà®ļ à¯ĩà®°
ĠÐ¼Ð°Ñģ ÑĬ
à«ĩàª¶ àª¨
Ð°Ð»Ñĸ ÑģÑı
ìļ ¸
áĢ¬áĢ¸áĢĲ áĢļáĢ¹
áĢľ áĢ½áĢºáĢĦáĢ¹
ĠáĢĲ áĢŃáĢ¯áĢ·
Ġsp ra
Ġà´® à´¾à´±àµįà´±
ĠÛ±Û ³Û
ĠÙ¾ ÛĮØ´
v ÉĻ
Ĺ à¥ĩ
Ð¸ÑĪ Ð´Ð°
Ð»Ð°Ð½ Ð°Ð´Ð¸
Ð¸ÑĪ Ð½Ð¸
Ñŀ Ð¶
Ð¼ Ð¸Ð·
ĠÑĢ Ð°ÒĽ
Ïĥ ÏĮ
Î³Ïī Î³
ĠC R
ĠÏĥÏħÎ½ ÎµÏģÎ³
Î¹Î½ Îµ
r th
v ent
ĠÐ´ Ð°Ð½
Ġáĥª áĥ®áĥĿáĥķáĥł
le ri
p il
ĠáĢ»áĢĻáĢĶáĢ¹áĢĻáĢ¬ áĤıáĢ¯áĢŃáĢĦáĢ¹áĢĦáĢ¶
áĢ±áĢ¬áĢº áĢķáĢ¼
Ġ×ľ ×¢
à¤Ĥà¤ ª
Ġr ona
ĠÐľ Ñĭ
Ġà¦ķà¦¾à¦° à¦£
Ġì ¶Ķ
à®Ļà¯įà®ķà®³ à¯Ī
Ð¾Ð» Ð¾Ð³
Ñı ÑĨÑĮ
tso eng
Ġn na
ĠØ§ÙĦÙħ ÙĪ
Ġà´ª à´¿à´Ł
ĠáĥĽ áĥĲáĥłáĥ¢
Ġaz t
v Ã½
Ġish te
Ð½ Ð´
Ġri s
Ġáģģáģ ī
Ġàªķ àª²
Ġà´ª àµģà´¤à´¿à´¯
ce j
Ġen a
ĠáĢĸ áĢĻáĢ¹áĢ¸áĢĨ
»áĢķ áĢ®áĢ¸áĢ
áĤ ĤáĢº
¡ áĢĽ
ĠÐ¿ÑĢ Ð°Ð±
ĠÐ½ ÑĥÐ¶
Ġv Ã¤
áĢĻáĢ½áĢ¬ áĢ±áĢĲáĢ¬áĢ·
áĢ¶áĢ¯ áĢ¸áĢħ
áĢģ áĢ¼áĢ¬áĢ¸áĢ
áĥĲáĥĵ áĥĲáĥ¡
tu lui
Ġh iá»ĩn
ãģ Ŀ
se m
Ùģ Ø±
à´¾à´· àµįà´Ł
ÐłÑķ Ðł
Ð¿Ð¾Ð² ÑĸÐ´
Ġin san
ĠÎµÎ½ Î´Î¹Î±
ĠÎł ÏģÏĮ
ĠÏĩ ÎµÎ¹
ĠÏĥÏħÎ½Îµ Ïĩ
ÏĦ Î¯Î±
ĠÏĢ Î¬Ïģ
ÏĦ Î¿ÏħÏĤ
ĠÎļ ÎĳÎĻ
ĠÎ¬Î» Î»Î¿
ĠÎ£ Ïį
ĠÏĨ Î¹
ÏĨ Î±Î»
ĠÎľ ÏĢÎ¿
ÏģÎµÎ¯ ÏĦÎµ
ĠÎµ ÏģÏī
ĠÎ¼ÎŃ ÏĥÏī
ĠÎĶ Î¹
ÏĦÎ¹ÎºÏĮ ÏĤ
ÏĢÏĮ Î½
Î¹Î± Ïĥ
ĠÎ¼Î· ÏĩÎ±Î½
ĠÏĦÏģÏĮ ÏĢÎ¿
ĠÎł Î¡
ĠÎ¬Î»Î» Î±
ĠÎ½ÎŃ Î±
ĠÏĥ ÏĦÎµ
ÎŁÎ ļ
ÏģÎ¿ Î¹
ĠÎ· Î»ÎµÎº
Î¶ Î®
ĠÎ´Î¹Î± Î´Î¹Îº
ĠÎ£ Î¥
ĠÎ¸Îµ Ïī
Î¸ Î±Î½
33 N
ĠÎº Î¿Î¹Î½ÏīÎ½
we dd
åħ¨ éĥ¨
à¸Ńà¸¢à¹Īà¸²à¸ ĩà¹Ģà¸
Ġç ©
Ġåı ¦
åĪĨ é£ŀèīĩ
à¥ĩà¤ ª
´ Ī
Ð°ÑİÑĤ ÑģÑı
à®¨à¯įà®¤ à¯ģ
Ã¡l nÃŃ
ĠáĢĽáĢ¬ áĢģ
Ġà´Ĩ à´£
Ġà°Ńà°¾à°° à°¤
b t
áĢŀáĢŃ áĢĻáĢ¹áĢ¸
áĢ¶áĢ¯ áĢ¸áĢ¡
ĠáģĤ áĢĿ
áĢ±áĢĲ áĢº
r ar
Ó¯ Ò³
Ġva ir
ĠÂ ±
ĠÐ¶ Ð°Ð½
àª° àª£
j em
ol g
ÑĨÑĸ Ð¹
ĠÐ¿ÑĢ Ð°Ðµ
à°¨à±įà°¨ à°¿
Ġà¦¤ à¦¾
à¥Ĥà¤ ķ
Ð» Ñĳ
áĥ£áĥłáĥ Ĺ
s ka
Ġà®ª à¯ģà®¤
ĲáĢħáĢ¹áĢ ģáĢ¯
áĢ±áĢŀáĢ¬ áĢ¹
áĢľ áĢ»
h Ã«
Ġà´ķàµĤà´Ł àµģà´¤
ĠÐ¿Ð°Ð²Ñĸ Ð½
m ul
Ġg agwe
ha ng
Ġë ©
ĠáĥĶ áĥł
Ġ×ĳ ×ª
Ð¾ÑĢÐ¸ ÑģÑĤ
ke z
ĠÎºÎ± Î»Î¬
Ġc ym
Ġàª°àª¹ à«Ģ
Ġs c
Ġçİ ©
Ġà¹Ģà¸ŀà¸ ·à¹Īà¸Ńà¸
éĺ ¶
çĶ ²
æįķ é±¼
à¹ĥà¸«à¸¡ à¹Īà¸
éĻ Ī
ä¼ł ç»Ł
ä¼ ´
ĠåĨ ħ
à¹ĥà¸«à¸į à¹Īà¸
à¸Ńà¸° à¹Ħà¸£à¸
Ġà¤ª à¥ģ
ĠÑĩÑĤÐ¾ Ð±Ñĭ
ĠÐ² Ð¾Ð±
áĥĺáĥĻ áĥĺáĥ¡
ĠÙĩ Ø³Øª
áĢ¼ áĢŃáĢĻáĢº
à§Ģ à¦Ĺ
à¦² à§įà¦ª
Ġt ylko
à¯įà®¨à¯įà®¤ à¯ģ
ÑıÑĢ Ð¾Ð´
à¤¿à¤ ¹
ãģ °
Ġe dib
j or
Ġàª¦ à«ĩàª¶
ku u
Ùĳ Ùİ
z Ä±r
áĢĸ áĢ°áĢ¸áĢ
áĢ ¢
ĠáĢķáĢ¼ áĢ²
ĠáĢ±áĢĢáĢº áĢ¸áĢĩ
áģ¾áĢĢ áĢĬáĢ·áĢ¹áĢ
áĤĪáĢķáĢ¹áĢ ĽáĢ½
ĠáĢ¡ áĢ¬áĢ¸
ĠÐºÐ¸ÑĢ Ð¸ÑĤ
Ð» Ð°Ð³Ð°Ð½
ĠÐĲ Ð²
Ãº ng
à°¾à° ¸à±įà°¤
áĢ±áĢŀ áĢ¸áĢĲáĢļáĢ¹
ĠáĢ¡ áĢĢáĢ»
Ġë ķĮ
Ø¯ Ùħ
ĠÐŁ Ð°Ñģ
Ġc _
Ã©l y
Ġc am
Ġè¿Ļ æĺ¯
Ġè ı
¢à¸ ĩ
łà¸±à¸ ĵà¸ĳ
Ġ= '
å¤§åıĳ å¿«3
Ġà¸ ĭ
é¡ ¾
Ġ25 9
ç¶ ²
åħ¨ å¤©
ä»» ä½ķ
à¥ĩà¤² à¥įà¤¯à¤¾
à®µ à®°
æĹł çłģ
Ġà¤¬ à¥Ģ
w Ã³
ĠáĢ¡áĢģáĢ¯ áĢľáĢŃáĢ¯
ģ áĢ²áĤĶ
ĠáĢ¡áĢŀ áĢ¶
ĠáĥĲáĥ¦ áĥĽ
ĠÐº Ð¾Ð¸
au s
Î¼Îµ Î½Î·
ĠÎºÎ±ÏĦÎ± ÏĥÎºÎµÏħ
ĠÎĿ ÎŃ
Îķ ÎĽ
Î» Î¿ÏħÏĤ
Ġ ÏİÏģÎ±
ĠÎĶÎ· Î¼Î¿
ĠÎ´ Î¹Î¿
ĠÎ» Î¿Î³
ĠÎ±Î³ Î±
Î¿Ïģ Ïħ
Î¯Î½ Î¿ÏħÎ½
ĠÎ¿Î¹ÎºÎ¿ Î½Î¿Î¼
ĠÎ± Î¹
ĠÎ±Ïģ ÎºÎµ
ÏĥÎºÎµ ÏĦÎ±Î¹
ĠÏĩ ÏİÏģÎ±
ĠÏĥ ÏĦÏĮ
ĠÎ²Î±Î¸ Î¼Î¿
ĠÎĳ Îł
ĠC y
áĢģ áĢ½áĢ²
Ġmo ng
à¦¨à§įà¦ ¨
Ġk es
v nÃŃ
Ġ×Ķ× ¡
Ġà´¸ àµįâĢĮ
ti ke
ĠÃ¶l kÉĻ
ÏĦÎ® Î¸Î·ÎºÎµ
Î¶ Îµ
ĠÏĢÏģÎ¿ÏĥÏīÏĢ Î¹ÎºÏĮ
ĠÎºÏħ Î²
ĠÏĥ Î¿
ĠÎº ÏģÎ¬
Ġr ha
Ġà°ĩ à°¦à°¿
ĠÑı Ð·
ĠÑĸÐ½ ÑĦÐ°ÑĢÐ¼
åĽ½ äº§
Ġà¤µà¤¾à¤² à¥ĩ
à¤ķ à¥įà¤¤
à´¾à´ Ļàµįà´ķ
áĢĢáĢ¹áĢ ĻáĢ½
ĠáĢĿ áĢ«
Ð¸Ð½Ð³ Ð´ÐµÐº
ÐµÐº ÑĤ
Ġprze d
Ġpro p
ĠF t
Ġ Ã¡t
ĠÐ³Ð¸ÑĢ Ð¸ÑĦ
lo a
Ġmo tho
ĠáĢĽáĢĶáĢº áĢĢáĢ¯áĢĶáĢº
ĠáĢĢáĢ¯ áĢľ
ÅĨ as
k on
áĢľ áĢŃ
à¦¿à¦ ĸ
à®® à¯įà®®
ĠáĢĲ áĢ±áĢ¬áĢĦáĢº
ĠM it
áĥĿáĥļ áĥĿáĥĴ
Ð°Ð»Ðµ Ð¶
ĠØŃÚ©ÙĪÙħ Øª
áĥľ áĥĺ
Ġà´Ĺ àµįà´°
à¯ģà® Ļà¯įà®ķ
àª¾àª¨ à«ģàªĤ
Ø¨ Ø§Ø±
Ġpro du
à¦¾à¦¨ à¦¾
ªà¸´à¸ Ĺà¸ĺ
Ġà¸ Īà¸²à¸ģ
äºĴ èģĶç½ĳ
Ġà¨¨ à©Ĥà©°
Ġà¨ ļ
ĠåĪĨ åĪĨæĹ¶æĹ¶å½©
Ġà¤® à¤¾à¤¨
ĠÐ±ÐµÐ»Ð°ÑĢÑĥ ÑģÐºÐ°Ð¹
Ð°Ð³ ÑĸÑĩ
ĠÑĥ Ð¶Ðµ
Ġáĥ¨áĥĶáĥ ®
Ġà®¤ à®°
à¦¿à¦ ı
Ġ Ð°ÑĦ
Ġs ans
ĠØ¯ ÙĪØ±
Ġáĥ§áĥķáĥĶáĥļ áĥĲáĥĸáĥĶ
t ha
i b
Ġà´İ à´´
áĢ¯áĢ¶ áĢ¸áĢ¡
Ġng Ãły
ãĥ ĭ
ti k
ĠÐ· Ð°Ð²
à«Ģàª ª
ë§ ¤
àµģà´µ à´°
à§Ł à§ĩà¦°
ĠáĢĻ áĢŁáĢ¬
áĢ±áĢ ŁáĢ¬
ĠáĢħ áĢĬáĢ¹áĢ¸
áĢĶ áĢĬáĢº
Ġ Å¾
ĠP ol
ëł Ī
ª à¸µ
Ġäºļæ¸¸éĽĨåĽ¢ ç½ĳç«Ļ
çĥ Ī
åĪĨæİĴåĪĹ 3
é« Ķ
Ġåĩ¯åıĳ ä½ĵèĤ²
à¹ĥà¸Ļà¸ ģà¸²à¸£
æľī åħ³
æĿĲ æĸĻ
åĽ½éĻħ å®ĺç½ĳ
ä¸Ń å¥ĸ
Ġ ä½ľ
à¤µ à¤£
Ġmo Å¼e
tu ra
ĠØ¥ ÙĨ
Ġein em
à®Ł à¯įà®ļ
Ġà¦¸ à§ĩà¦ĩ
Ġin s
es ta
ĠÑģÑı Ð±Ðµ
Ġà´² à´ķàµįà´·
Ġàªľ àª¾àª¯
Ġà®® à®¾à®¤
ĠÐ¾ Òĵ
×ķ× ĺ
áĢ±áĢ ģáĢ¶
b bi
ÏĦÎ¹ÎºÏĮ ÏĦÎ·ÏĦÎ±
Î´ ÏīÎ½
ĠÎ¼Î± ÎºÏģÎ¹
ĠÎ² Î»ÎŃ
ÏİÎ½ ÏĦÎ±ÏĤ
ÏĦÏħ Ïĩ
ÏģÎµ Ïį
Î»Îµ Ïį
Î±Î¹ Î½
Îº Î¿Ïħ
ĠÎº Î¿Î¹
ĠÏĩ Î¬
ĠÎłÎ± ÏģÎ±
ĠÎ¬ ÏģÎ¸
ĠÏĩ ÏģÎµÎ¹
** **
ĠÎµÏĨ Î±Ïģ
ĠÎ¼ÏĢÎ¿ÏģÎµÎ¯ ÏĦÎµ
Ïī ÏĥÎ·ÏĤ
Î³ÏģÎ±ÏĨ Î®
Î¼Îµ Î¯
ĠÎ£ÏĦÎ· Î½
ĠÎ± ÏģÎ¹Î¸
Î³ ÏģÎ¬
ĠÏĥÏĩ Î¿Î»
ÏģÎµ Î¯Î±
w l
áĥĵ áĥĶ
ĠÐ¿ Ð¾ÑĢ
ÑĢÐ°ÑĨ Ð¾Ñŀ
Ġà´ķàµĬ à´£àµįà´Ł
p Äģ
li tÃ©
à¤° à¤¾à¤¤
ĠÉĻ la
ÑĤÐ¸ ÑĩÐµÑģÐº
à°¸ à±įâĢĮ
à±ģà° £
ĠÑĤ Ð¾Ð¹
àªµ àª¾àª°
ĠáĢ¡áĢħáĢ® áĢ¡áĢħ
Ġà¦ªà¦° à§įà¦¯
ĠØ³ Ø§Ø²
la l
Ġne ng
à®µ à®°à¯į
áĥĽ áĥĺ
ë Ķ
Ġà´®à´² à´¯à´¾à´³
Ġà´¨à´¿à´¯ à´®
Ð³ÑĥÐ· Ð¾ÑĢ
ĠÚĨ Ø§Ûģ
Ġà¤ī à¤¤
áĤı áĢ¼
áĢ¡ áĢĲáĢ½áĢĦáĢºáĢ¸
à°¾à°¬ à±ģ
Ġà°Ĺà±įà°° à°¾à°®
ĠÄĳá»Ļ ng
Ġf on
à±Ģà° İ
à±įà° ľ
ĠàªŁ à«įàª°
wi Äħ
ĠÐ¿ÑĢÐ¾ Ð¸Ð·Ð²
ĠvÅ¡ et
à¯Īà® ®
t Äĵ
ĠØ¨Ø§Ø´ Ø¯
Ġh et
ĠÑĩ ÐµÐ»Ð¾Ð²
ĠNe xt
m ara
Ġolu wadi
ĠO ctober
K I
Ġter Ãª
Ġa ta
ĠN is
ĠItá»į sá»įna
ĠC ent
Ø§Ø¯ Ø©
ĠC yf
ĠáĥĽ áĥľáĥĺáĥ¨áĥķáĥľáĥĶáĥļ
ck s
Ġla t
ĠÑĪÐ°Ò³ ÑĢ
Ġa mu
ĠS pe
ĠÐ°Ð´ Ð½
wer an
Ġon Ãº
Ġlo o
Ġi ri
ĠI tá»įju
ĠRail way
ĠBa i
ÃŃ láº¹
ÏĦ ÏīÏĤ
ĠÏĢÎµ Ïģ
ÏĨ ÏģÎ¬
ÎŁÎ ¡
ĠÎºÎ± ÏĦÎ·Î³Î¿
Ġga el
Ġi tem
Ġë Ħ
Ñī Ð¾
ãģĦ ãģŁ
Ġà´ħ à´²àµįà´²
à®µ à®°à¯įà®ķà®³
Ã¢ t
ĠØ§Ø³ ÙĦØ§Ùħ
ĠÐĳ ÐµÐ»Ð°ÑĢÑĥ
ĠÑģ ÑĥÐ¼
Ã¡ val
is on
Ġn tle
ļà¸ ¸à¸
«à¸±à¸ §
Ġå ĸ
Ġäºļæ¸¸ æ¸¸æĪı
Ġ5 55
Ġè¯ Ħ
åĪĨ å¿«ä¹Ĳ
åĪ¶ åº¦
éĩĳ èŀį
à¤Ĺ à¥įà¤°
áĢĶ áĢ±áĢĲ
Ú¾ ÛĴ
Ġáĥ§áĥĿáĥķ áĥĶáĥļ
Ġies pÄĵ
Ġpa l
ĠÐ¾Ñĩ ÐµÐ½ÑĮ
Ðµ ÑĨ
áĢ½áĢ±áĢ¸áĢĶ áĢ½áĢ±áĢ¸áĢ
Ġà¦ķ à§ĩà¦¨
ĠáĢĺ áĢ¬áĢľ
âĢĮ âĢĮ
à°¿à°¨ à°¾
áĢĶáĢ¹áĢ ķ
áĢĬáĢ¹áĢ ¡
ĠáĢ±áĢ ĳáĢ¬áĢĦáĢ¹áĢ
±áĢ»áĢĻ áĢ¬áĢĢáĢ¹áĢ
áĢĢ áĢŃáĢħáģ¥
ĠáĢĸáĢ¼áĢħáĢº áĢŀáĢĬáĢº
Ġè ĥ
æĹ¥ æĬ¥
Ġ266 96
Ġ2018 å¹´
å¼Ģ åı·
à¹ģà¸ ŀà¸
4 1
éĿ Ļ
Ġèħ¾è®¯ åĪĨåĪĨå½©
æ¯ ķ
å¹² éĥ¨
à¨ ¼
Ħà¸£à¸ ·à¹Īà¸Ńà¸ĩ
Ġè½ ¬
çļĦ æĹ¶åĢĻ
Ġà¤¤à¥įà¤¯à¤¾à¤Ĥà¤ ¨à¥Ģ
Äį ÃŃ
Ġà¤¸à¤® à¤¯
ĠàªĨ àªĹ
à±Ģ à°Ł
ĠÑĤÐ°ÑĪÐºÐ¸Ð» Ð¾ÑĤ
ĠÐ· Ð°Ð³
ĠÙħ ÛĮØ±
ĠÐ¾ ÑĪ
Ġ ÉĻn
ere k
áĥĲáĥľ áĥĺáĥĲ
r ye
ÑģÐ¸ Ð¹
Ø³ Ø±
ti tu
Ð°Ð´ Ñĥ
Ġà¦¶ à§ģà¦°à§ģ
ÑĢÐ¸ ÑĦ
å½ Ĵ
æĹĹèĪ°åİħ ä¸ĭè½½
æĮģ ç»Ń
æ¼ «
å² ¸
äº Ī
ļ à¸£
Ġé ħ
Ġà¥¨ à¥¦
ĠëĤ ¨
ĠÎŃ Î³
ĠÎ» Î¿Î¹
Î¬Î» Î»Î¿Î½
fn yd
à®² à®¿à®²à¯į
áĢĲ áĢ¶
Ġàª¬ à«ĩ
Ġáĥŀáĥł áĥĿáĥª
tso a
yan e
çĶ °
à¤ ±
ĠáĢĻ áĢŃáĢ¯áĢ¸áĢ
Ġà°ī à°ª
ĠÐ· Ð±
ĠÐ°Ð½ Ð¸ÒĽ
áĢ°áĢ¸áĢ±áĢķáĢ« áĢĦáĢ¹áĢ¸
ĠáĢ¡ áĢĸáĢ¼áĢ²áĤĶ
áĢ¸áĢĢ áĢ¯áĢŃ
áĢ»áĢĻ áĢĦáĢ¹áĢ·
áĢ±áĢ ĩ
áĢŃáĢ¯áĢĦáĢº áĢĽáĢ¬
ĠÐ¼Ð°Ò³ ÑģÑĥÐ»
Ġgra tis
dad es
ĠÐ´Ð¾Ð» Ð¶
Ð¸Ñĳ ÑĤ
tt u
Ġm iej
ve j
ĠÐ°Ð´ ÑĥÐº
g ji
Ð°Ð¸ ÑģÐ¸
Ġle ur
Ð°ÒĽ Ð°ÑĤ
ÑĢ Ð¸Ð¼
Ġz ur
Ġ×Ķ× Ľ
ĠáĥĴáĥĲáĥľ áĥĽ
Ú© Ùĩ
ĠÑģÐ°Ð± Ð°Ð±
ĠÐ¼ ÐµÑĢ
Ġta l
Ġà¦¹ à¦¿à¦¸
Ġàª¤à«ĩ àª¨à«ĩ
Ġà´ħ à´®
Æ°á»£ ng
ĠÙĩ Ø°Ùĩ
7 2
æļ ´
ä¼ Ļ
ĠæĢ »
ç» ¿
ä¼ ĳ
Ġpk 10
åĩº äºĨ
à¹īà¸²à¸ ĩà¸
± à¹Īà¸Ļ
Ĺà¹Īà¸² à¸Ļà¸
é¦Ļ æ¸¯
à¹īà¸ ³
Ġç Ŀ
à¥ģà¤ ·
áĢ¡ áĢ±áĢ»áĢģ
ĠáģĤáģ ħ
áĢ±áĢĽ áĤĬ
ĠáĢĻ áĢŁáĢ¯áĢĲáĢº
à®ļ à¯į
ĠÐģ Ð½
ĠáĥĲáĥĵáĥĴ áĥĺáĥļ
ë¡ Ŀ
k Ã¡
Ġäºº æ°ĳ
ĠĈ ï¼Į
Ġà¤ľ à¤¾à¤£
Ġk ri
áĢĢáĢŃáĢ¯ áĢľáĢĬáĢ¹áĢ¸
áĢ® áĢĲáĢ¬
ĠÙħ Ø³ÙĦ
àµĢ à´ª
áĢŃ áĢĲáĢŃ
Ø§Ø¨ ÙĤ
ĠÐºÐ°Ðº Ð¾
ĠLatvi jas
Äĵ mu
Ġàª¨ à«ĭ
Ġà¤¸ à¥įà¤Ł
c ov
ĠÎµÏģÎ³ Î±Ïĥ
ĠÏĥÏħ Î½Î¿
ĠÎ ©
Î» Î±Î½
ĠÏħ ÏĪÎ·
Ġl la
áĢĻ áĢļáĢ¹áĢ
áĢ±áĢ ļáĢ¬áĢĢáĢ¹áĢ
áĢĶáĢ¹ áĤĢáĢĢáĢ®áĢ¸
áĢĬáĢ¹áĢ ķ
áĢĸáĢ¼áĢħáĢº áĢŀáĢĬáĢº
end re
de d
Ġmáº¹ máº¹
ĠNi torinaa
ĠFS X
Ġá»Į Já»Į
Ġr ira
Ġo go
Ġng ba
ĠBio graphy
Ġr he
Ġpi páº¹
Ġai ye
ten e
Ġye ars
Ġng wa
Ġgbag bá»į
ĠÐ»Ñĸ ÑĤÐ°ÑĢ
Ġbu ru
Ġn ur
om ono
Ġláº¹áº¹kan si
ĠA bi
to ld
ĠÃ± a
ĠMa le
d Ã¡
a st
ĠÐ³ Ð°ÑĢ
ĠØ§ Ú¯Ø±
Ġwi ÄĻ
à®¿à®¯ à¯ĩ
Ġà°ª à°¾à°²
ãĤĪ ãģĨ
ĠÑģÐ² Ð¾Ð¸
Ġb ÉĻ
ÐµÑĤ Ðµ
Ð² ÐµÐ´
Ġà¦ı à¦²
ju ms
Ã«n d
à´Ļàµįà´Ļ à´¨àµĨ
tsa tsi
ĠáĥĲáĥłáĥ ª
tu s
Ġà´ķ àµģà´
ĠáĥĽáĥĿáĥ ¥
en do
àªµàª¾àª¨ à«ĭ
Ġ×ĳ ×Ķ
Ġi Ã§
Ð Ħ
ĠÐ³ÑįÑĤ Ð°Ð¹
à§ģà¦ §
à°¾à°¨ à±į
Ġde ux
ħ n
ÙĬØ± Ø©
íĨ µ
an te
Ġà´¤àµįà´¤ à´¿
la ya
Ġà´¨ à´²àµįà´²
Ġp lay
ĠSa mu
ĠE ro
d agbe
Ġpr er
Ġprer oll
Ġpost roll
Ġko ja
Ġà¤¬à¤¹ à¥ģà¤¤
Ġà®ħ à®ªà¯įà®ª
áĥ£áĥł áĥĲáĥĵ
Ð»Ð¸ ÑĦ
Ġter m
Ġun ter
owan e
Ġim or
Ġag o
la is
un oa
Ġà®ļ à®¨à¯įà®¤
à¦¾à¦ ī
ĠÑģ Ð°ÑĦ
t Ã²
à´¿à´¯ à´¤àµį
áĢĳáĢ±áĢ¬áĢĦáĢº áĢħáĢ¯
Ġv z
Ð³ Ð»ÑıÐ´
Ġà´ķ àµĤà´Łàµįà´Ł
ÐµÐ½Ð¸ ÐµÐ¼
Ã¼ let
to are
ĠÐ¿ ÑĸÑģ
Ġph a
ĠÐĵÐ ģ
ĠÐ¿ÑĢ Ð°Ðº
áĢĻáĢº áĢ¸áĢ¡
ĠÚĨ Ú¾
áº¯ c
Ġà´µà´¿à´ ľ
Ġáĥ¡ áĥĻ
àª°à«įàª £
Ġà®İà®© à¯į
ĠÐ³ÑĥÑĦ ÑĤ
Ġà¦® à§ģ
ĠÐ¿ÑĢÐ°Ð³ ÑĢÐ°Ð¼
à¯Ĥ à®°
l Äħ
Ġid Åĳ
áĢ¥áĢķ áĢ±áĢĴ
ĠáĢĲ áĢĬáĢº
í Ĥ
r Äĥ
Ġà°¤ à°ªà±įà°ª
Ġà¦¤à¦¾à¦° à¦¾
Ð»Ð°Ñģ ÑĤÐ¸
it ha
Ġà´¤ àµĢà´°
áĥĲáĥ¡ áĥĹáĥĲáĥľ
ç¬ ¦
à¤¾à¤µ à¥ĩ
ĠÐ¶ Ð°ÑĢ
ĠÑĤ Ð¸Ð»
ĠÄ ¾
à¥ĭà¤Ĥà¤ ¨à¥ĩ
a li
ĠÐ¼Ñĥ Ñģ
à±Ĩ à°Łà±įà°Ł
Ã©r ie
ĠØ§ Ø¬
à´ķàµįà´ķ àµģà´¨àµįà´¨
Ġju Å¼
Ġà®ī à®±
×ķ ×Ļ
ĠÐĳ ÐµÐ»
ĠÑģÐ² Ñı
ik Äģ
Ġà¤ª à¤¡
Ġtse la
Ø· Ø©
Ġn wa
Ġidi wá»į
Ġda a
Ġà°ª à°¨
ĠO ti
z un
ĠY o
b ur
ĠÐºÐ¾Ð¸ ÑĤÐ¾
Ġmar vel
Ġigbáº¹ káº¹le
is áº¹
ĠÐ¼ Ð¾Ð²
ãģ« ãģª
Ġni won
Ġfun ni
Ġal liance
Ġw hi
Ġi bo
Ġàª¤ à«įàª°
Ġáĥ¨ áĥĶáĥķ
àµĬ à´´
áĢĢáĢ¹áĢ ±áĢĲáĢ¼
Ġcom ments
áĢĶ áĢ±áĢ¬áĢĢáĢº
ÑģÐº Ð¸Ðµ
Ġb ulá»įá»įgi
Ġpopup Ad
Ġal agbara
ĠØ± Ø³
Ġ Å¼y
ĠI RO
Ġn an
Ġave ngers
ĠI láº¹
à´¿à´ İ
lÉĻr inin
ÐµÐ½ Ñı
áĥĿáĥ¤ áĥļ
à¤°à¥įà¤ Ł
ĠáĢĳ áĢŃáĢĶáĢ¹áĢ¸
áĢĦáĢ¹áĢ ±áĢĶ
ĳ áĢ¼áĢĢáĢ¹áĢ
áĢ±áĢĲáĢ¼ áĢŁáĢ¬
áĢģ áĢŃáĢ¯áĢĢáĢº
ĠA wá»į
oo jumá»į
i gb
sch e
Ġá»Į ja
Ġo ta
ĠAn d
ĠAgba ye
Ð½ Ñĳ
àµĨà´Ļàµįà´ķ à´¿à´²àµįâĢį
Ð°ÑģÐ¸ Ð´Ð°Ð½
te g
UR KE
ĠG ar
àµĩà´ ¦
ĠAu st
à«Ģ àª¨à«Ģ
ĠÐ°Ð² Ð²Ð°Ð»
Ġà°¸ à°°
Ġà¦ª à§ģà¦²
ĠA ng
à¯Ĭ à®°
sulu mi
pp ort
bo ard
Ġpar t
b Ã¡
Ġà´Ł à´¿
Ġà´¶ à´°
à§ĩà¦² à§ĩ
ĠÐŁ ÑĢÐ¸
Ñ Ĵ
ĠÐ¼Ñı Ð½Ðµ
Ġëį Ķ
® à¤§à¥įà¤¯à¥ĩ
Ðµ Ð»Ñı
à«ģ àª¸
á»± c
ĠØ³ ÙĬ
Ġà¤²à¥ĭà¤Ĺ à¥ĭà¤Ĥ
ĠÐ°Ñŀ ÑĤÐ°Ð¼
Ġk Ã©sz
ĠÐł Ñķ
ĠÐ² Ð¸ÑĢ
Ġ×Ķ× Ĵ
áĥĲáĥľ áĥĲ
áĢĳ áĢ½áĢĢáĢº
Ïģ Î¯Î±ÏĤ
Î¾ Ïī
ĠÎµÏĢ ÎµÎ¹
fo d
Ġti l
Ġvi deos
ĠØ³ Ùħ
àµĬ à´ķàµįà´ķàµĨ
g ar
à°ļà±įà°ļ à±ģ
ÅĽ li
Ġti mp
Õ¡Õ £
ĠbaÄŁ lÄ±
à¦ķ à§ĩà¦°
ãĥ¼ ãĤ¹
Ġà´ķ à´³
Ġáĥ©áĥĶáĥĽ áĥĺ
Ġm b
Ġáĥ© áĥĲáĥĽ
g Äģ
ĠÑģÑĤ ÑĢÐ°Ð½
w ana
ÑģÑĮ ÐºÐ¸Ð¹
ĠÐ»Ñİ Ð´Ð·ÐµÐ¹
Ã¼t Ã¼n
Ġt ie
Ñĥ Ð¹
ĠÒ³Ð¾Ð» Ð°ÑĤ
ER E
ĠJa pan
áĢ¯áĢ¶ áĢ¸áĢĻ
à®¿à®¯ à®¿à®©à¯į
Ð´Ð¸ ÒĽ
Ġs Ã©
ĠF u
ĠAá¹£a yan
z er
à¦ŀ à§įà¦ľ
Ùģ ÛĮ
à´ķàµįà´ķ àµģ
Ġda hun
ĠS á»į
ĠO p
Ġ. âĢĻ
s Ã¡n
à´¿à´¯ à´¿àµ½
Ġz ia
Ġiso ro
ĠÐ¸ Ñİ
Ġj Ã³
ĠÐ½ Ð°Ðº
Ġàª¤à«ĩ àª¨àª¾
Ġà¦¨ à§ĩà¦¤
à¥ĭà¤¡ à¤¼
áĥł áĥĿáĥĳ
Ġipo lowo
Ġdi dun
ĠA c
ĠM art
ĠJ ul
æĥħ åł±
ji ji
Ġa hun
ĠN kan
áĢľáĢŃáĢ¯ áĢĢáĢ¹
ĠáĢĽ áĢ²áĢ·
áĢ°áĢ¸áĢ ļ
ĠI ye
ĠApp le
wan na
Ġm una
Ġl in
Ġdaju daju
ĠRe al
Ġmon omono
ĠO l
ĠÑĢÐ¾ ÐºÑĥ
Ġà¦¹à¦ļ à§įà¦Ľà§ĩ
j Ã¡k
ĠÐľ ÐµÐ½
Ġb on
áĢ¼ áĢĶáĢ¹áĤĶ
Ġáģ¿ áĢĦáĢŃáĢĻáĢ¹áĢ¸áĢģáĢºáĢĻáĢ¹áĢ¸
ĠáĢľáĢ° áĢĻáĤĪ
áĢ±áĢĽ áĢŃáĢĢ
ĠÑĦÐ°Ð¾Ð»Ð¸ ÑıÑĤ
ĠÑı ÑĪ
ĠÐºÐµÐ¹ Ð¸Ð½
ÑĢ Ð¾ÒĽ
ĠÐ¼Ð°ÑĢ Ð´
Ã¶ z
ĠÐ¼ Ð°ÑĤÑį
ĠØ¯ Ùĩ
ĠØ¨ ÙĬÙĨ
ãĥ¼ãĥ «
ti co
Ġìĸ ´ë
Ġel s
ÒĲ Ðĵ
ĠÐłÑį ÑģÐ¿ÑĥÐ±Ð»Ñĸ
áĥł áĥĲáĥ¤
ĠL U
á¹£ ere
Ġnigba mii
Ġni fáº¹
Ġbi ba
Ġà¦¸ à¦¾à¦¥à§ĩ
Ġa tene
ag b
Ð°ÑĤ ÐºÑĥ
ĠÏĢ Î®
ĠÎ¾ÎµÎ½Î¿Î´Î¿ ÏĩÎµÎ¯Î±
ĠÎłÏģÎ¿ Ïĥ
ĠÎĻ Î¿ÏħÎ½
Îķ Î¤
ĠÏĥÏĦÎ¹Î³ Î¼Î®
ÏģÏĮ ÏĤ
ĠÏĨ ÏĮ
Î¼Î¿ Î½
ĠÏĥ Î±
v is
ĠÎ´Î¹Î± ÏĨÎ¿
ĠÎ´ Ïİ
WW W
Ïĥ ÎºÎ¿
ĠÎļ Î¿
ĠÎµÎ³ ÎºÎ±
Ïĩ ÏĮ
ĠÏĥ ÎµÎ¹
Î³ Î¼Î±ÏĦÎ±
ĠÏĦÎ· Î»Îµ
A F
ĠÏĥ Ïİ
ÏĢÎ¿ Ïį
Î´Î® ÏĢÎ¿ÏĦÎµ
ĠÏĢÎµÏģÎ¹Î¿ ÏĩÎ®
no d
ÒĽ Ð°ÑĢ
á» ĥ
Ġà®ħ à®²à¯įà®²
ĠÂ ²
Ġo wu
Ġagba lagba
ĠL ilo
Ġpin pin
Ġlo do
ĠIn st
ĠI BI
la tion
Ġos ise
ÅĤ em
Ġàªķàª¹ à«įàª¯à«ģàªĤ
Ġagçİ¯äºļ æīĭæľºçĻ»å½ķ
Ġà¸ Īà¸²à¸ģà¸
ä¿Ŀ éļľ
Ĭà¸ ·à¹Īà¸Ń
pk æĭ¾
Ġà¤¤ à¤°à¥Ģ
k ur
Ġle ge
ĠUn told
ĠP D
ĠI káº¹ká»į
ĠC ity
Ġimor iri
Ġaje ji
je Ì£
ini omu
Ġdan dan
ĠÑĺ Ð°
t d
Ġáº¹ni káº¹ni
Ġy lan
ĠI T
11 T
tor y
r ere
Ġtito bi
Ġti êŀĮ
Ġo run
à±Ģ à°¤
áĢ° áĢľ
Ġbar dzo
â Ħĸ
ĠÐ½ÐµÐº Ð°Ð»ÑĮ
ĠÐ´ ÑĥÐ½Ñĳ
ĠÛģÙĪ ÙĨÛĴ
ĠtÉĻ ÅŁ
áº¹áº¹ si
à´¿à´¨àµįà´ ¤
lo lo
Ġun limited
ĠO ro
weran á¹£áº¹
Ġnz oni
ĠWebtal k
ĠIRO YIN
Ġ OM
Ġkáº¹ ta
áĢĽáĢ½áĢŃ áĢĲáĢ²áĢ·
áĢĢáĢ¹áĢĨ áĢ¶
ĠáĢľ áĢ¶áĢ¯
ĠáĢĲáĢķáĢ¹áĢĻ áĢ±áĢĲáĢ¬áĢ¹áĢ
áĢľáĢ»áĢ¾ áĢĦáĢº
ĠÐ¸ Ð³ÑĢ
ĠÑħ Ð¾Ð´Ð¸
ĠÑĪÐ°Ò³ Ð°ÑĢ
Ð»Ð°Ð½ Ð´Ð¸
ÑĢ Ð¾Ð±
áĥ¦ áĥķ
ÅĤ am
Ġi ra
Ġdi le
ĠOri láº¹
ĠK aa
m g
Ġkáº¹ dáº¹
vi ng
à°¾à°Ĥà° ¡
Ġá»į ke
Ġnda li
Ġag un
ju ká»į
Ġ×© ×Ĳ
ni ka
ag ram
N i
Ġoku ta
Ġà¤¤à¤° à¤¹
Ġipiláº¹ á¹£áº¹
ĠMa a
Ġ6 4
do ko
c m
Ġr un
ca do
Ġàª® à«Ĥ
Ġni waju
Ġni do
ĠA mi
Ġy um
Ġsi sá»į
ĠÐ³ Ð°ÑĢÐ´Ð¸
Ġiban u
Ġaz Ã¡n
ĠJ os
ĠDavi d
¨à¸ ±à¸
ä¹ ±
æŃ£ åľ¨
Ķà¸ §à¸
çİ° åľ¨
à¥ĩà¤Ĥà¤¦ à¥įà¤°
le y
Ġáº¹ bun
Ġz an
ĠNdi ose
ĠC H
ĠB y
Ġyin yin
Ġà´ª à´ķàµįà´·
Ã« ri
Ġo yin
Ġise da
ĠKáº¹ sÃ¡n
Ġá»į ti
ĠÐ· Ð°ÑģÑĤ
Ġn om
Ġka ka
Ġeja jeÌ£
yáº¹ yáº¹
ĠÏĩÏģÏĮ Î½Î¿
ÏģÎ± ÏĥÎ·
ĠÎļ Î¿Î½
Î´ Î¿Ïħ
Î¸ ÎµÎ½
ĠIn tel
ĠÏĦÎ¿ ÏĢ
Î»Î¿ ÏįÎ½
ĠÎŃ ÏīÏĤ
Î¯ ÏīÎ½
ĠÏĥÏĦ ÏģÎ±
Ġg al
ĠÙĪ ÙĬ
áĢĲ áĢĢ
ĠØ¬ Ùĩ
åį ±
Ħà¸£à¸ ±à¹īà¸ĩà¸
Ĥà¸Ńà¸ĩ à¹Ģà¸
ç©º éĹ´
à¥ĩà¤ ·
Ð¡ ÐĤ
ÐµÑĢ Ñĸ
r ow
esi waju
Ġn se
Ġi yáº¹n
Ġas ara
ĠH ia
yá»įn áº¹n
v áº¹
Ġso pá»į
ĠáĥĵáĥĲáĥ £áĥ
Ġë° ľ
ĠL oni
sun nu
J I
Ġt Ã²
Ġne bo
áĢ¡ áĢĸáĢ¼áĢħáĢº
ÑĢÐµ Ð±
h t
Ġlai fá»įwá»įyi
ĠI jo
ĠG B
wa tá»į
ta in
ĠÐ¨ Ñĥ
Ð´Ð¸ Ò³
Ġolu di
Ġigbo hunsa
ä¼ģ æ¥Ń
á»į ki
je ct
Ġiyan jáº¹
ĠO un
ĠÐ´ ÑĥÐ¼
à´§ à´¾à´¨
ĠO po
Ø´ Øª
ke ja
ia l
Ġidani má»į
Ġida hun
Ti me
78 T
Ġitáº¹ we
re x
gb Ãł
si one
ÑĢÑĭ Ñĸ
cz Äħ
ini z
ãģķ ãĤĮ
ĠáĥłáĥĲáĥĽáĥĵ áĥĶáĥľ
à«Ģ àª®àª¾àªĤ
Ġà¦¸ à¦¦
jer es
Ġ×ľ ×©
z ar
ĠØ§ Ûģ
Ġà¤ķà¤¿à¤Ĥà¤ µà¤¾
ĠáĢĻ áĢ¾áĢ¬
à¦¨à§įà¦¤à§įà¦° à§Ģ
áĢģáĢº áĢ³áĢķáĢ¹
ĠáĢĶ áĢ½
Ð² Ð°ÑĤÐ¸
Ð½Ñĸ Ñı
à¦¾à¦° à§įà¦¥
Ġp un
Ð¿ Ñĭ
Ġa ber
Ġn tse
áĢĢáĢº áĢĦáĢ¹áĢ·
ĠáĢ±áĢĽ áĢ¬áĢĦáĢ¹áĢ¸
ĠáĢľ áĢ¯áĢ¶
Ã¢ u
ĠØ§ÙĦØ° ÙĬ
ĠÄį i
àªĹ àª°
Ġà°ª à°Łà±įà°Ł
Ġà´µà´¿à´¦ àµįà´¯
Ð°Ð²Ðµ ÑĨ
ĠE gy
ĠáĢķ áĢ»
Ġà¦¸ à¦Ń
ÑĩÑĭ ÑĨÑĮ
ÐµÑĤ Ð°
ĠáĥĵáĥĲáĥ ĳ
àª°à«įàª ¸
k ÄĻ
à¦¥ à¦®
Ġd rej
áĤıáĢŃáĢ¯áĢĦáĢ¹áĢ ķáĢ«áĢĲáĢļáĢ¹
áĢĴ áĢ¹áĢ
áĢ±áĢ¸áĢ ģáĢ»
Ġà°¦ à±įà°µ
ĠÚ¯ Ø¦ÛĮ
à¤° à¤¾
à´ªàµįà´ªàµĭ à´´
ri le
os Å¥
Ð°Ò³ Ð¾Ð½
Ġo vat
íķ Ń
ct os
z na
ĠÑģ Ð¸ÑģÑĤÐµÐ¼
ĠÐ¿ÑĢ Ð°ÑĨÑĭ
Ùĩ ÙĨÚ¯
Ġfe ta
ĠÐ½Ð°Ð² ÑĥÐº
Ġha ben
Ġàª¶ à«ģàªĤ
Ġà®¤ à¯ĭ
c os
ĠáĢķáĢ« áĢĿáĢĦáĢº
áĥĺáĥ ¬
Äĵ t
Ġk Ã«r
ĠÑĹ Ñħ
àª¾àªĤ àªļ
Ġt em
à¤® à¥ĩà¤Ĥ
ë ¯¼
ĠÐ¿ÑĢ Ð¾Ð³
Ð¾Ð»ÑĮ Ðº
ĠØ¨ Ø¯
×ŀ ×¨
Ñģ Ð°Ð±
Ġàª¨ àª¾àª®
Ġà¦¬ à¦¿à¦°
ÑĥÑĤ Ð±Ð¾Ð»
ĠÑĪ Ð°Ðº
à´¾à´£ àµįâĢĮ
Ġà®ª à¯ĩà®ļ
j d
ĠÐ°Ð² ÑĤÐ¾Ð¼
ĠÎĳ ÎĿ
ĠÎķ Î½
ĠÎ¼ Ïħ
Î¬Î» Î¹
ĠÎ¼Î±ÎºÏģÎ¹ Î¬
ĠÎ»Î¯ Î³Î¿
ÏĢÎ¿ Î¸Îµ
ĠÎķ Î¯
ÏĮÏĦÎ· ÏĦÎ±ÏĤ
Î¼Îµ ÏĤ
Î¯Îº Î·
ĠÏĢÎ¿Î» Ïħ
ĠÎµÎ¾ Î±
ĠÏĦÎ± Î¾
ĠÏĢÎµÏģÎ¯ ÏĢÏĦÏīÏĥÎ·
ĠÎºÏĮÏĥ Î¼Î¿
ĠÎ¼ ÏĢÎ±
ÏĥÎ± Î¼Îµ
ĠÎ±ÏĨ Î¿Ïį
Ïĥ Î¼
l yn
áĥĶáĥł áĥĶáĥ¡
áĢħáĢ¹áĢ Ģ
ĠáĢĤáĢº áĢķ
áĢ¸áĢĲ áĢŃáĢ¯áĢ·
àª° à«ĭ
Ġâ ľ
Ġë° ı
Ġar t
cz enia
ĠÐ¾ Ð²
uy Ãªn
Ġáĥ Ł
Ġà´ª à´¤
Ġà®ķ à®¿à®Ł
ĠÐ²Ð°Ð· Ð¸ÑĦ
à¦¾à¦ Ń
à°¿à°Ĥà° ª
Ġ, "
zet t
ĠÑįÑĤ Ð¾Ð¼
ĠÑŀÐ· Ð³Ð°ÑĢ
ÒĽ Ð°ÑĤ
Ð°Ð½ Ñĸ
áĥĿ áĥĲ
ĠÙ¾ Úĳ
ÑĨÐ¸ Ð¾Ð½
Ġj our
Ġà®Ĩ à®°
ĠÐ±Ð¾ Òĵ
ĠÙĩ ÙĪ
st en
à¤¸ à¤¾
ĠC u
Ġbi ja
Ġmiej s
Ð±Ð¾ÑĢ Ð¾ÑĤ
ĠÐ¸ÒĽÑĤÐ¸Ñģ Ð¾Ð´Ð¸
ÏİÎ½ ÎµÎ¹
ĠÏĦ Î¬
ĠÎ¼ÎµÎ³Î¬ Î»Î·
ĠÎ¿Î¼Î¬ Î´Î±
ĠÎ¿ ÏįÏĦÎµ
ĠÎ³ Î½Ïİ
ĠÏĨ Ïħ
Ïĥ ÎµÏĤ
ÎŃ ÏģÎ±
ĠA A
ÏĪ ÎµÎ¹ÏĤ
ĠÎ»ÏĮ Î³
ĠÏĥÏĩ ÏĮ
ĠÎ´Ïī Î¼Î¬
Ġh wn
Ġd Ã¼ÅŁ
ĠÑĤÑį Ñħ
ÑīÐµ ÑģÑĤÐ²
Ġàª® àª¨
am o
ĠÐ³ Ð°Ñģ
ĠÐ Ļ
Ġà´ ļàµįà´ļ
Ġà´İ à´¸àµį
Ð¾ÑĦ Ð¸ÒĽ
à´Ĥ à´¬
N o
ĠìĽ Ĳ
àª° àª¸
c ou
à°¾à°Ĥà°Ł à°¿
Ġà§ §
ĠÐ½Ðµ Ð°Ð±
áĥĶáĥł áĥĲ
Ã« ve
à¤Ĥà¤¤ à¥įà¤°à¥Ģ
Ġg li
Ġà¦ķ à¦²
ĠÐ¼ Ð°Ð¶
Ð´ Ð¾
Ġà¤® à¥Į
z s
à¯Īà®ķà¯įà®ķ à¯ģ
Ð¸ÑĤ ÐµÐ»
ĠP an
buláº¹ ti
Ġbi wi
Ġalaba pin
le bu
ki p
H a
Ġj á»įwá»į
ĠBit coin
êŀĮ u
der i
Ġb Ãª
ĠM ini
na tional
i ye
Ġul trasonic
Ġs ese
Ġph i
ĠE gi
Ġlo ju
Ġà´ ĸ
à«įàª¯ àª¾àª°à«ĩ
Ġáĥ¡ áĥ£áĥļ
Ø® Øµ
ĠÑĤ Ð¸Ð±
o ple
Ġk asino
ĠLi ve
to ju
Ġà´ªàµģà´± à´¤àµįà´¤
ri a
11 TI
Ġme ta
Ġà°¹ à±Ī
Ġà¦ªà§ģà¦² à¦¿à¦¶
Ġáĥ©áĥķáĥĶáĥľ áĥĺ
Ġi je
Ġp Ãł
Ġc es
áĥĶáĥĳáĥĺáĥ¡ áĥĲ
ĠÑģ ÑĥÐ´
Ġà®ħà®µ à®°à¯įà®ķà®³
Ġt el
à´³ àµģà´ŁàµĨ
Ġà¦ªà§įà¦° à¦¶
ĠÒ² Ð°Ð¼
è ķ
à¥ĭà¤ ¸
à°ª à°¡
Ð°Ð²Ñĸ Ñĩ
ĠÑĤÐ°Ðº Ñĸ
Ġ×Ĳ ×ķ
Ð¿ÑĢ Ð¾Ñģ
ì² Ń
Ġáĥ¡áĥĲáĥĻ áĥ£áĥĹ
ĠÑģ Ñĩ
ĠCau t
Å£i i
ÈĽ ie
Ð» Ð°Ð´Ð¸
ĠÐ¼Ñĥ ÑĪ
ĠáĢĲ áĢ°
Ã³ b
ÑĮ Ð½Ñĸ
ĠÐĶ Ð·Ñı
Ġse in
ĠØ¨Ûģ Øª
Ġà§§à§ ¦
à®Ł à¯į
ÉĻr a
Î½Î· ÏĥÎ·
Âµ Î±
ĠÎ ī
ÎŁÎ ľ
ĠÎµÏĢÎ¹ ÏĩÎµÎ¹
Ïĩ ÏģÎ¿
Î´Î¿ ÏĥÎ·
ĠÂ¬ ~
Î»Î¿Î³ Î¹Ïĥ
Î® ÏĥÎµÎ¹
ĠÎŃÏĩ Ïī
di ad
ì§Ģ ë§Į
ĠØ§ ÙĨØ¯
áĢŀ áĢ¼áĢ¬áĢ¸
ĠáĢ¡ áĢĻáĤĪ
áģ¾áĢĢ áĢĲáĢ²áĢ·
ĠáĢľ áĢŃ
Ð³ Ñĥ
Ġà¦Ĩ à¦Ľà§ĩ
áĢľáĢ¬ áĢĲáĢ²áĢ·
áĢĭ áĢ¹áĢ
áĢ¸áĢĽ áĢ½
âĢ¦ âĢ¦
áĢĶáĢºáĢ¸áĢĻ áĢ¬áĢĽ
Ġpo li
¦ à«įàª°
ãĤ ¦
ĠáĢĳ áĢŃáĢ¯áĢ·
áº· c
Ùģ Ø©
áĥĺáĥľ áĥĴ
Ġ' >
Ķ é©°
Ġà¥ ©
Ġm uy
ĠÐ¾ÑĢÐ³Ð°Ð½ Ð¸Ð·
à±ĩà° ¸à±įà°¤
Ã¡ sz
Ð½Ñı Ð¹
Ø§Ø® Øª
Ġba sh
Ġláº¹sáº¹ káº¹sáº¹
Ġda ho
nh anc
Ġy inuwa
Ġiá¹£e to
Ġikan ni
ĠBai bol
Ġta buláº¹ti
ĠmÃ¬ tá»įn
ĠO ba
à´ķ àµ¾
Ġk ho
p ress
nhanc ement
ĠTit un
Ġtsa ma
y un
un á»į
Ġmi ngi
ĠF aran
Ġàª¬ à«ĭàª²
Ġà¤® à¥ģà¤
ĠâĢĿ âĢĶ
Ġti i
áĢľ áĢ¼
ĠáĢĢáĢ»áĢ½áĢĶáĢº áĢĻ
Ġláº¹ wa
ĠBur sa
ve y
Ġpu g
Ġm y
ĠOr g
Ġä¸ ĸ
æł ĳ
Ħ à¹Īà¸²
Ġè®° èĢħ
è¾ ĳ
½ çĦ¶
Ġé» ĳ
æīĭæľºçīĪ å®ĺç½ĳ
åĩ Ģ
à¹Īà¸²à¸ §
¡à¸²à¸ģà¸ ¡à¸²à¸
èı ²
à¸£à¸§à¸ Īà¸
ç«ŀ å½©
ä¸į æĸŃ
Ġè¿Ļ ä¸ª
éĴ Ī
Ĺà¸ ¢à¸
īà¸ ŀà¸²à¸
à¨ Ĺ
ä¸Ģ èµ·
¥à¸ ¢
Ġé Ķ
Ġéĺ ħè¯»
ĠåĪ Ľ
Ġà¤® à¤¾à¤Ĺ
ĠK ur
Ġláº¹ do
igb aniwá»įle
Ġga ju
ĠG ames
ĠAtun wo
te li
t Ãºn
áĢŀáĢ½ áĢļáĢº
ĠÐ· Ð½Ð°Ñĩ
à¦¤ à¦¾à¦°
r Ã³l
Õ¡Õ °
mÉĻ s
à°ª à±ģ
Ġc ar
Ð´ Ð¸Ð»Ð°ÑĢ
ĠÑĤ Ð¾Ò·
ĠÑħ Ð¾Ò³
Ġà®ļ à®°
H O
Ġp m
ĠA li
à¤ļà¥įà¤ Ľ
keja do
Ġnkan kan
s sÃ¤
Ġb Ã¢
ĠD ara
bru ary
Ġgb Ãł
Ġàª° àª®
ĠáĢĺáĢ¬ áĢĻáĢ½
ĠáĢ¡áĢ²áĢ· áĢĴáĢ®
ĸ áĢº
ĠáĢĦ áĢ½
áĥĲáĥ¢ áĥĺ
ÑĤÐ¸ Ñĩ
Ã³ d
ci ju
Ġáĥ£áĥĻ áĥķáĥĶ
ĠáĢľ áĢ»áĢ¾
ĠÑģ Ñĸ
ĠÑĩ ÐµÐ¼
ĠØ¯Ø§ÙĨ Ø´
à¹ģ à¸Ńà¸
Ġà¤Ĺ à¥įà¤°
Ġpre j
à®ªà¯įà®ªà®Ł à®¿
ĠÕ ½
il ÉĻn
ĠáĥĻáĥĺáĥĵ áĥĶáĥķ
ŀ áĢ¬áĢ¸
ĠáĢĢáĢ¬ áĢĢáĢ¼áĢļáĢ¹áĢ
áĢĻ áĢļáĢ¹áĢĨáĢŃáĢ¯
áĢĻáĢº áĢ¸áĢĽ
à¦¬ à¦°
à« §
Ġàªķ à«ĩàªŁàª²
ĠÐĨ Ð½
ĠáĥĲáĥ ŀ
ĠÐ´ Ñĥ
la m
à°¦ à±ģ
à®± à¯ģ
Ġmo k
tz a
áĢķáĢ±áĢ« áĢ·
nÃ© e
b ÃŃ
ĠáĢ¡ áĢĻáĢºáĢ¬áĢ¸
áĢ½ áĢĲáĢº
Ø£ ÙĨ
áĥķ áĥļáĥĺáĥ¡
ãģ¨ãģĦ ãģĨ
ì° ¨
ï »
· à¸Ńà¸ĩà¸
Ġà¹Ģà¸ Ķ
Ġà¤¸à¤Ĥà¤ ª
Ä« s
Ġme hr
à¦¾à¦® à¦²
Ġal l
Ð°ÑĨÐ¸ Ð¾Ð½
Ġà´¸ àµĤ
os sa
ts he
ÈĽ Äĥ
ĠÑģÑŀ Ð½Ð³
ĠÒ³ Ð°Ð»
áĢ® áĢ¡
ĠÑģ Ð°Ðº
Ġà¦ķ à§įà¦°
Ġha sz
ĠØ¢Ùħ ÙĪØ²
Ġáĥ« áĥĲáĥļ
à±Ģà° Ĩ
Ġà°µà°¿à° ¶
Ġro ku
ĠÎĵ Î¹
ĠÎºÎ¬ÏĢÎ¿ Î¹Î¿
ĠÎµÎ½Î· Î¼Îµ
Î³ Î¿Ïį
ĠÏĥÎ· Î¼Î±
ÎŃÎ½ ÏĦÏģÎ¿
Î³ ÏĮ
ĠÎ´ Î¯
Ġse arch
ĠÎĿÎ¿ Îµ
ĠÎ²ÏģÎ¯ ÏĥÎºÎµÏĦÎ±Î¹
da eth
ĠáĢĻáĢº áĢ¬áĢ¸
áĢŀáĢĬáĢ¹áĢ ŁáĢ¯
Ŀ áĢĶáĢº
ĠÑıÑħ ÑĪÐ¸
Ð¼ ÑĥÐ½
ĠÐ² Ð°Ð»
Ñħ Ð¸
Ġt ous
ĠL os
ĠØ§Ù ı
Ð°Ð· Ð²
ĠÛ °
ĠÚ©Ø´ ÙĪØ±
ĠáĢĦáĢ« áĢ·
áĢĻáĢ¹áĢ ķ
ĠM Ã¼
à¶ »
åķ ª
Ġæ¬§ ç¾İ
Ġà¤ľ à¥Ī
àµĨ à´²àµįà´²
Ġàª¤à«ĩ àª¨à«Ģ
à®¿à®ķà¯įà®ķ à¯ģ
à°Ĥà° ¡à±ģ
ĠÑĸ Ð·
ĠagæĹĹèĪ°åİħ ä¸ĭè½½
è° ģ
à¤¾à¤± à¥įà¤¯à¤¾
ĠáĥĲáĥ ĸ
Ã« si
ÄŁ i
×ŀ× ª
ĠáĢĲáĢĢ áĢļáĢ¹áĢ
áĢĲ áĢŃáĢ¯áĢĦáĢºáĢ¸
ĠÑĪÑĥÐ¼ Ð¾
à´¨ àµģà´Ĥ
ĠÑı Ð²Ð»Ñı
Ġìĭ ¤
ĠÃ ¤
Ø¹ Ùħ
à§ģà¦ ľ
is se
ĠmÉĻ lu
Ġà´® àµĩ
áĢıáĢ¹áĢ į
ga z
Î³Î³ÎµÎ» Î¼Î±
ĠÏĨ Ïį
ĠÏĦÎ¹Î¼ ÏİÎ½
ĠÎ±Î½ ÏĦÎ¹Îº
ĠÏĩÏİ ÏģÎ¿
ĠÏĥ ÏĢÎ¯
Î»Î¬ ÏĩÎ¹Ïĥ
Î²Î¬ ÏĥÏĦÎµ
ĠÏĮÎ» ÎµÏĤ
ĠÎĳ ÏģÏĩ
ĠÎ±ÏĢÎ¿ ÏĦÎŃ
ĠÎµ ÏĢÎ¿
ĠÎ´Î¹Î¬ ÏģÎº
Ġi a
áĥĲáĥ¡ áĥ£áĥ®
ĠÐ°Ð´ ÐºÑĢÑĭ
æ° Ĺ
Ġà°ķà°¾à°° à±įà°¯
ĠáĥĵáĥĲáĥ Ĵ
Ġà¦ªà§įà¦° à¦¥à¦®
ĠK Äį
Å¡ tÄĽ
Ġà´ª àµįà´ª
Ġà´ķ à´¥
Ġqu el
áĢĬáĢ¹áĢ Ľ
áĢŀ áĢľáĢ²
áĢ¡ áĢĸáĢ¼áĢ²áĤķ
ĠáĢŀ áĢĻáĢ®áĢ¸áĢ
áĢħáĢ¹áĢħ áĢĬáĢº
Ļ à¯įà®ķà®³à¯į
Ġà´İà´¨àµįà´¨ à´¾à´²àµįâĢį
Ħ ¢
ĠÐ´ Ð²
Ġà´ķ à´²
Ġà°¤ à±ĭ
Ġt ÉĻs
ku s
Ġà¤¹à¥ģà¤ Ĩ
Ø§Ø «
àªª à«įàª°
Ġê± °
Ðµ Ñŀ
ÑģÐ¸ Ñĩ
ĠáĥĴáĥĲáĥľ áĥª
\ "
Ġd zi
van ie
ĠÐ² ÑĥÑĩ
Ġà´ªàµĭ à´¯
áĢģáĢ²áĢ· áĢķáĢ«áĢĲáĢļáĢº
ĠáĢĲáĢ¬ áĢĿáĢĶáĢº
áĥ®áĥķ áĥĲ
âĢĮ à°°
Ġà°ķ à°°
ÑĢ Ð°Ð´
Ġc or
ĠáĢŀáĢ° áĢĲáĢ¯áĢŃáĤĶ
ĠáĢ¡áĢĽ áĢĻáĢ¹áĢ¸
ĠáĢĢáĢ¯ áĢŀ
ĸáĢ¼ áĢ²áĤķ
áĢ¬áĢ¸áĢ ĲáĢ¬
ĠáĢĲáĢħáĢ¹áĢ ±áĢļáĢ¬áĢĢáĢ¹áĢ
áĢĦáĢºáĢ¸áĢ ĳ
Ġà°ľ à±Ģà°µ
Ã¡ ro
×ĳ ×¢
è°ĥ æŁ¥
å§Ķåĳĺ ä¼ļ
åĵ Ī
Ġæ² ³
Ġà¤ª à¥ģà¤°
Ð ¯
Ð»Ð°Ð´ Ð·Ñĸ
Ġdur ch
Ġà´ħà´µ à´¸
à¯ĩ à®¯
ĠÑħ ÑĥÑĤ
ÙĦ Ùĩ
à§ĩà¦¬ à§ĩ
ãĥ ĸ
Ġàª« àª¿àª²
ÑĤ Ñĸ
y on
ru ar
ĠáĢŀ áĢĶáĢ¹áĢ¸
ĠáĢŀ áĢĽ
à«įàª¯ à«ģàª
áĥ¡ áĥĲáĥª
ki m
áģ¾áĢĢ áĢŃáĢ³
ĠáĢŁ áĢ¯áĢĲáĢ¹áĢ
ĠáĢĢáĢ» áĢ±áĢ¬áĢĦáĢºáĢ¸áĢ
Ġà°ļà±ĩà°¶ à°¾à°°à±ģ
Ġpre mi
Ġm agyar
Ġti kai
ĠÛģ Ø±
Ġà¦¬ à¦¾à§ľ
ĠkÃ¶ r
Ġà´® à´£
Ð½Ð¸ Ñı
Ùģ Ø§Ø¯Ùĩ
Ñ ľ
à¯Īà®¯ à®¾à®ķ
ĠÎľ ÎŃ
Î± Î½Î±
h au
Ð¾Ð²Ñĭ Ð¹
Ġà¦Ĺ à¦¤
il lÃ¤
fu ta
Ġa di
ĠVi to
Ġ- %
pin s
C C
Ġo oru
Ġà¤ĩà¤¸ à¤ķà¥ĩ
Ġ5 åĪĨæĹ¶æĹ¶å½©
çĶµ è¯Ŀ
åĨ °
æĮ ¥
Ġåģ ļ
Ġà¤®à¥ģ à¤Ĥà¤¬à¤Ī
Ġà°® à°Ĥà°ļ
Ġagäºļ å®ĺç½ĳ
é£İ éĻ©
æĬ ĵ
åĿ Ĳ
Ĺà¸µà¸ ¡à¸
Ġè¶ ħ
äºĭ ä»¶
ĠåĽ ŀ
Ġåİ »
Ġag ç½ĳç«Ļ
Ġå §
æµĭ è¯ķ
ª à¸Ńà¸ĩà¸
_ å®ĺæĸ¹
Ġè¯ ·
èĮĥ åĽ´
Ġà¤Ŀà¤¾à¤² à¥Ģ
Ð¸ÑĢ Ð¾Ð²
ĠÐ½Ðµ Ð·
ĠO jo
ĠMin isita
ĠB ra
ung o
e gbá»įn
Ġk po
Ġif un
ĠE nhancement
w le
lay sia
ìĸ ´ë
áĢķáĢ¼ áĢ±áĢ¬áĢĦáĢºáĢ¸áĢ
Ġna sá»į
Ġase yori
de de
Ġme jor
ĠàªĨàªľ à«ĩ
ª áĥ®
ĠT ai
ĠÑĥ ÑĪÐ±Ñĥ
ĠÐ¼Ñĥ ÑģÑĤ
ĠØ·Ø± ØŃ
æ³ķ äºº
et á»į
° ï¼¯
ran d
l Ãº
ĠØ§ÙĦ Ø§
Ġâķ ĳ
ĠÑĤ ÑĢÑĭ
k Ã©
Ġà´īà´ª à´¯àµĭà´Ĺ
Ġi ar
ĠÐĲÐ¼ Ð¼Ð¾
Ġe dÉĻ
Ġà¦ªà¦¾à¦° à§ĩ
Ġs tan
ŀà¸ ¢à¸²à¸
æİ Ī
æĽ °
æĪĳ çļĦ
à¸Ńà¸¢ à¸²à¸ģà¸
èĮ ¶
ª à¹Įà¸
Ġå® ĺ
è± ª
ªà¸ ¡à¸²à¸
6 3
Ġà¤¶ à¥ĩà¤¤
Ġç ¤
ķà¸ ģ
Ġèģ Ķ
Ġæł ¹
Ġå® Į
Ġà¸ Ķ
Ġà¤µà¤¿à¤ ļà¤¾à¤°
Ã² n
Ġàª¤à«ĩàª ĵ
ĠÑĨ ÑĮ
×ĵ ×¨
áĢŃáĢĲáĢ¹áĢ Ĩ
áĢħáĢ¹áĢ Ĳ
áĢĢáĢ¼áĢ±áĢ¬áĢĦáĢº áĢ·
Ġc il
ta ko
Ð°Ð´ Ñį
ĠÂ ¿
áĢĨ áĢ±áĢ¸áĢ
Ġà¤¦à¥įà¤µ à¤¾à¤°à¤¾
Ġáĥĳ áĥĶáĥķ
Ð¾ÑĢ Ð°ÑĤÐ¸
ÙĨ Ø©
Ñı Ñĩ
à°¿à°¤ à±ĭ
Ġnu e
ĠtÅ¡ o
aro lo
ta ire
áĢĦáĢº áĢ¸áĢĢ
Ġs aa
ĠÑģ ÑĤÐ¾
à® ľ
sch en
ĠÐ±Ð°ÑĢ ÑĩÐ°
Ð°Ð»Ð°ÑĢ Ð¸Ð½Ð¸
ĠÐĶÐ°Ð² Ð»Ð°ÑĤ
Ñħ Ð¸ÑĢ
ÙĦØ§ Ùģ
Ġpro f
Ð»Ñı Ñħ
éĸ ĵ
ç ¦ģ
Ĥ à¹īà¸Ńà¸
è®¡åĪĴ ç½ĳ
à¹ģà¸ Ķà¸
à¥Ģà¤² à¤¾
ĠÏĥ ÏĦÎ¬
Î´Î¹Î± Î¯ÏĦÎµ
ĠÎ» Î¬
ĠÎºÎ± Ïģ
ithi o
áĢ±áĢ ģáĢ«áĢĦáĢ¹áĢ¸
áĢħáĢ¬áĢ¸áĢŀ áĢĻ
Ġà°ħ à°®à±įà°®
Ġper s
Ġà°®à±Ģ à°¦
ÑĤ Ð¾Ñŀ
Ú¯ Ø§ÙĨ
Ð¾ ÑĤÑĭ
Åĳ sÃ©g
Ġà¹Ģà¸ Ľ
æī ©
à¥Ģà¤ļ à¥Ģ
ĠÐ½ Ð¸Ñģ
ĠáĢĻáĢº áĢĢáĢ¹áĤıáĢ½áĢ¬
Ĺ áĢºáĢ¬
áĢĶ áĢħáĢ¹
áĢ¬áĢ¸áĢĽ áĢ½áĢŃ
ĠáĢĴ áĢ±áĢŀ
Ð°Ð» Ð¸Ð·
Ġà®®à¯ģà®© à¯įà®©
ÑģÑĤ ÑĢÑį
ĠáĥĽ áĥĺáĥľ
Äį as
ĠØ² ÛĮ
Ã Ĭ
Ã¡ p
Õ £
Ã§ i
Ġà¤Ĺ à¤ı
ĠÐ¼Ð°ÑģÑĤ Ð°ÑĨ
ìĹ Ī
ĠÐľ Ð¾ÑģÐº
ĠÐ½Ðµ Ð¾Ð±
Ġd ira
ta do
Ġà°ªà±Ĩ à°¦à±įà°¦
s ta
Ġå¤§åıĳ å¤§åıĳå½©ç¥ŀ
áŀ ¾
8 5
Ġà¤®à¥įà¤¹à¤£à¤ľ à¥ĩ
Ð²Ñı Ð·
àª£ àª¾
áĥĲáĥļ áĥĲáĥ¥
it Äĥ
nga ta
Åĳ s
à´¨àµįà´± àµį
ĠØ£ ÙĬ
ĠÐ´ ÐµÐ½ÑĮ
ĠÐ± ÑıÑģÐ¿
áĢ±áĢĶ áĢĽ
ĠáĢ»áĢķáĢĬáĢ¹áĢ ĲáĢ¼áĢĦáĢ¹áĢ¸
áĢķáĢºáĢĻ áĢĲáĢ±áĢ¬áĢº
áĢ³ áĢ¶
¡áĢħ áĢŃáĢ¯áĢ¸áĢĽ
Ġ áĤĶ
Ģ áĢ¯
ĠáĢ¦ áĢ¸
áģ º
áĢ±áĢĽ áĢ¬áĢĦáĢ¹áĢ
áĢ¬áĢĽ áĢ½áĢŃ
áĢ¸áĢ ģáĢ¼
Ñĥ Ð½Ð¾
Ġ×ľ ×¤
áĢĶáĢ±áĢ ĲáĢ²áĢ·
Ģ áĢŃáĢ¯áĢĦáĢ¹áĢ
áĢĲáĢ¹áĢ Ĩ
áĢĦáĢ¹áĢ ĢáĢŃáĢ¯
Ġáģ¾ áĢŀ
áĤıáĢ½ áĢ¶
ĠáĢĴ áĢ±áĢ«áĢº
isa tion
áĤĪ áĢŃ
áĢĽ áĢ®áĢľ
áĥķ áĥĶáĥĵ
mÉĻ li
ĠÐ½Ð°Ð² ÑĥÑĩ
à®Ļà¯įà®ķà®³ à®¿à®²à¯į
ĠbÄĻ dzie
j mÃ«
Ġà°ķ à°¿
ĠáĢĢ áĢŃáĢħáģ¥
áĢ»áĢĸáĢħáĢ¹ áģ¿áĢķáĢ®áĢ¸
±áĢĲáĢ¬ áĢĦáĢ¹
áĢĻ áĢĽáĢ¾áĢŃ
ĠÐ¿ÑĢ Ð¸Ð¼
Ġà¤¨ à¤¸
Ġm is
Ġà´¸à´Ĥà´Ń à´µ
ÑĩÑĭ Ð½Ñĭ
áĥ¢ áĥł
Ġà¦īà¦ª à¦ľ
à¶ Ń
Ġà¤¹ à¤°
Ð¶ Ð½
Ġà¦¨ à¦¿à§Ł
= =
Ġ' ).
ĠàªĨ àª°
Ġpar Ã«
ĠÑħ Ð¾ÑĢÐ¸
à±Īà°¨ à°¾
ĠÅ ļ
ĠÑĢÐµ ÑĪ
m Ã©nye
ĠáĥĽáĥĺáĥ ¦
Ã¡ nh
ĠÎ´Î¹Î±ÏĨÎ¿ ÏģÎµ
ĠÎ³ Î¹
ĠÎºÎ± Î»ÏĮ
ĠW V
ĠÏĢÎ¿ Î»Î»
Î»Î± Ïĥ
ĠÎºÎ¬ ÏĦÏī
Îº ÏİÎ½
ÏĦÎ¿Ïį Î¼Îµ
ÏĨ Î±Î½
ÏģÎµ Î¬Î½
Î¶ Î¿ÏħÎ½
ÏĦÎ® ÏģÎ¹Î¿
Îº ÎµÏĤ
Î´ Î±Î½
Ġ" ,
ĠØ§Ø³Øª ÙģØ§Ø¯Ùĩ
à´¤à´¿à´° àµĨ
Ġà¤¨ à¤¾à¤®
Ð°ÑĢ Ð¾Ñŀ
c Ã©
ĠáĢĽ áĢŁ
áĢ¶áĢĢ áĢŃáĢĶáĢ¹áĢ¸
ĠáĢľáĢ° áĢĳáĢ¯
áĢħ áĢ±
ĠO d
åł ´
à´ķàµįà´ķ àµģà´±
Ġà¤® à¤²à¤¾
Ġà¦ªà§įà¦°à¦ķ à¦¾à¦¶
Ð°Ð½ Ðµ
ig en
ÉĻb ÉĻr
ĠÎ¿ Î»Î¿
ĠÎµÎ¾ Îµ
ĠA X
ĠÏĩÎ±ÏģÎ±Îº ÏĦÎ·
Î¹Îº Î·
ĠÏĩ Î¬ÏģÏĦÎ·
ÏĢ ÏĦÏħ
ĠÎ±Î¾Î¹Î¿ Î¸ÎŃÎ±
Î¼ ÏīÎ½
Î» Î®ÏĤ
ĠÎ´ Î¿Ïħ
Ġh yd
Ġàª¬ àª¾àª³
áĢĢáģł áĤĴ
ĠáĢĻ áĢ»áĢĢáĢº
cz nie
ĠÑĥÐ¼ ÑĥÐ¼
Ġáĥĵ áĥĶáĥĵ
Ġà¤Ĩà¤ª à¤£
Ð¾Ð² Ð¸
Ð°ÑĢ Ð°
Ġà®ªà®¾à®° à¯įà®¤à¯įà®¤
Ġà°¸ à°¾à°§
ĠØ§ÙĦÙħ ÙĨ
Ġà¦¤ à¦¾à¦ģ
A V
èķ ī
Ġà¤īà¤¨à¥įà¤¹ à¥ĭà¤Ĥà¤¨à¥ĩ
Ġce le
Ġâķ ķ
ĠÐ± Ðµ
ka a
Ġda u
Ġà®ªà¯ĭ à®²
va li
Ġsex o
à«ĭàª §
Ġë§ Ĳ
àµģà´®àµįà´ªàµĭ à´³àµįâĢį
ÑĳÐ½ Ð½Ñı
Ġà´ª à´ł
ti ca
áĢĻáĢ¬ áģ»
ĠáĢĳ áĢ¯áĢŃ
ĠáĢ¡ áĢ±áĢĢáĢ¬áĢĦáĢ¹áĢ¸
áĢŀ áĢĲáĢĦáĢ¹áĢ¸
áĢĶ áĢĢáĢ¹
áĢĻáĢº áĢ¸áĢĨ
Ġh ely
ĠÕ ¾
Õ¡Õ ¬
Ã¶y Ã¼k
áĥĺáĥļáĥĺ áĥĲ
åŃ¦ æł¡
çĽ® æłĩ
ä½į ç½®
éģ Ń
ľà¸¥à¸´à¸ ķà¸
Ġà¸ªà¸ ¡à¸±à¸
ŀ à¸£à¸°à¸
Ġà¤¦ à¤¿à¤µà¤¸
Ġja ko
ban e
ÑĢ Ð¾Ñŀ
×ł ×Ļ×Ŀ
ĠáĢ±áĢĽ áĢ½áĤķ
áĢĨ áĢĦáĢ¹áĢ¸
áĢ¡ áĢģáĢ»áĢŃáĢĶáĢº
ĠÑĥ Ð»Ð°ÑĢÐ½Ð¸Ð½Ð³
ĠÑģ Ð°Ò³
ĠØ¯ ÛĮÚ©
Ġà¤¸à¤ķ à¤¤à¤¾
ÐºÐ¾ÑĢ Ð»Ð¸Ðº
ĠÒ³Ð°ÑĢ Ð°ÐºÐ°ÑĤ
Ġà¦¸ à§ĩ
Ġp Ã¥
ĠÐ¸ Ð³
ĠØ® Ø±
à®¿à® ¸
è´Ł è´£
è¯ į
Ġà¤¸ à¥įà¤ª
Ġin t
Ġáĥ¨ áĥĶáĥĴ
àµĩ à´µ
ĠÑĥ Ð²
y or
Ġt yÃ¶
en Ã«
ĠÙħ Ø±Ø¯
áĢ»áĢģ áĢ¬áĢ¸
áĢĸ áĢ¯áĢŃáĤĶ
ĠáĢ±áĢķ áĢºáĢ¬áĢ¹áĢ
áĢķáĢ¼áĢĬáĢº áĢĶáĢļáĢº
ĠÐ» Ð¾Ð¹
Ø§ÙĦ ÙĬ
ĠÑĦ Ð°ÑĬ
Ġv iá»ĩc
ĠÐ´ Ð·ÐµÐ½ÑĮ
Ã¼ le
áĢ¯áĢŃ áĢĢáĢ¹
áĢ¡ áĢĻ
lÉĻr ÉĻ
Ġdis p
pa d
Ð½Ð¸ ÐºÐ¸
Ġà§© à§
Ġàª¬ àª¾àª¦
ĠáĥĴ áĥĸ
Ġà´ªàµįà´°à´µ à´°àµįâĢįà´¤àµįà´¤
Ñĩ Ð½ÑĭÑħ
à´¯ à´¾à´£àµį
ĠëĤ ´
à§ģ à¦Ł
h al
Ġà°ľ à°¿à°²à±įà°²
ŀ áĢ¼áĢ¬áĢ¸
ĠáĢŀ áĢ¯
áĢķáĢ±áĢĻ áĢļáĢ·áĢº
Ġà°µà°¿à° §
vis or
ÏģÎ±ÏĥÏĦÎ·ÏģÎ¹ ÏĮÏĦÎ·ÏĦÎµÏĤ
ĠÎ£ Î±
ĠT rip
Ġw rth
ĠáĢĶ áĢļáĢ¹áĢ
±áĢľ áĢ¸áĢ±áĢĲáĢ¼
ħ áĢĽáĢ¬
áĢĶáĢ¹áĢĻ áĢ¬
áĢĨ áĢĦáĢ¹áĢ·
áĢ½ áĢĦáĢºáĢ·
ĠáĢĳ áĢŃáĢ¯áĤĶ
ĠáĢĲ áĢ®
la o
Ġk Ã¤
ĠÐ¼ Ð°Ð±
ĠÛ±Û³Û ¹Û
Ø§ÙĨ Ø¯
Ġd zÄ«
Ġàª® àª¾àª¨
ÑģÑĸ Ð¼
ĠÑĢ ÐµÐ·
áģ¢ áĢº
áĢĶáĢ¾ áĢ¯áĢĶáĢº
d re
àµĭ à´£
æ± ł
Ī à¸µ
à¹Ģà¸ģà¸ µà¹Īà¸¢à¸§à¸
à¤¿à¤² à¤¾
unoa ÈĻte
à¦°à§įà¦ ķ
ìŀ ĳ
à®¿à®¯ à®²à¯į
áĥľ áĥĺáĥ¨áĥľ
ĠÐ¿ÑĢÐ°Ð¿ Ð°Ð½
ĠÐºÐ°ÑĤ ÑĤÐ°
Ð°ÑģÑģÐ¸ Ñģ
Ġv oor
Ġm are
ti ck
ĠÐĿ Ð°Ð²
Ġag å®ĺæĸ¹ç½ĳç«Ļ
Ġà¨ Ĩ
Ġ äºĳ
æ §
Ġà¤¦ à¤¿à¤¸
àª² à«Ģ
Ġd ire
er z
à°¨à±įà°¨ à°¾à°°à±ģ
Ð¶ Ð¾Ð½
in Ã«
ĠÐľ Ð¸ÑĢ
Ð¾Ñģ ÑģÐ¸Ñı
Ġa arin
ĠÐ¶ Ð°Ð²Ð¾Ð±
ĠÒĽÐ¸Ð» Ð¸Ð½Ð³Ð°Ð½
ĠÐºÑŀ Ð·
ĠÐ± ÑĥÐ·
ÙĪ Ø§Ùħ
ĠFaran se
Ġà®ĩ à®±
Ġàªķàª° à«ĭ
ĠáĢ¡ áĢĲáĢ½áĢĢáĢº
y Ã¬n
Ġà°ķ à±ĩà°¸
Ġ ÏĪÎ·
ÏĨ Î±Î¹
Î»Î¬ Î²
ĠÎ³ Ïħ
ÏĦÎ· ÎºÎµ
ĠÏĥÏħÎ½ ÎŃÏĩ
Ġy d
Ġno tre
áģ¿ áĢĸáĢħáĢ¹áĢ
¡ áĢĲáĢ¼áĢĢáĢ¹
ĠáĢĢ áĢ¯áĢĶáĢº
Ġv Ã¡r
Ġà´Ń à´¾à´Ĺ
¸à¸ Ľà¸
Ħà¸£à¸ ĩà¸
æ¯Ķ èµĽ
Ġà¤ł à¥ĩà¤µ
ĠÃ§ a
s ts
Ð¾Ð± Ñī
i o
Ġà°ķ à°¥
ĠFran ce
Ġà¤ª à¥Ī
Ã¨ res
áĥĶáĥĳ áĥĹáĥĲáĥľ
Ġà°ħ à°¡
ks et
í Ŀ
Ġba tla
v or
ÐµÑĢÐ¶ Ð°Ð²
ĠÛģ ÙĪÚº
ëĤ ´
ĠÐĲ Ð³Ð°ÑĢ
Ġ×ĳ ×¨
Ñĩ Ð½Ð°Ð¹
Ġà¦ĩ à¦¸à¦²
áĢĦáĢ¹áĢ±áĢ »áĢķ
ĠáĢĽáĢ½ áĢĻáĢ¹áĢ¸
ĠáĢķáĢ¼áĢĶáĢº áĢľáĢĬáĢº
Ġr Ã³w
Ġàªªà«ĭàª² à«Ģàª¸
Ġà¦ķ à¦¿
à®¿à®°à¯ģà®¨à¯įà®¤ à¯ģ
ĠC X
Î¶ ÎµÏĦÎ±Î¹
ĠÎŃÏĩ Î¿ÏħÎ¼Îµ
ĠÏĩÏģÎ® ÏĥÎ·
ĠÏĩ ÏģÎ¿Î½
ĠÎŀÎµÎ½Î¿Î´Î¿ ÏĩÎµÎ¯Î±
ĠÎ³ Î¯Î½ÎµÏĦÎ±Î¹
ĠÎ¸ÎŃ Î¼Î±
ÏĢÎ¿Î¯ Î·
ĠÎ¼ÏĢÎ¿ ÏģÎ¿ÏįÎ½
ĠÎŃÏĩ ÎµÏĦÎµ
ĠW U
Î½ Î¹
ĠÎ»ÏĮ Î³Ïī
ÏģÎ¹ ÏİÎ½
Îº ÏĦÎ·
ĠÎł Î±Î½
ĠÎ²Î¿Î· Î¸Î®
ĠÎº Î¿Î¹Î½
ĠÏĥÏħ Î¼ÏĢ
y ll
Ġà°ªà±įà°° à°¤
Ð½Ð¸ Ð¼Ð¸
Ġph áº£i
Ġet mÉĻk
Ð¾Ð² Ðµ
Ġà¦¶ à§ĩà¦·
tu k
ÙĤ ÙĦ
te ment
Ġv end
ê· ¸
àµģà´Ĥ à´¬
ĠÐķ ÑģÐ»Ð¸
Ġàª® àª¨à«ĩ
Ġvi ÅĨ
Ġà¤ķà¤° à¤¨à¤¾
ãģĤ ãĤĬ
ĠÐ±ÐµÑĢ Ð¸ÑĪ
ĠÐ¼ Ð¸Ð½Ð³
ĠÐ± Ð°ÑĬ
ĠA uf
Ġli pa
Ġle ng
åķ Ĭ
Ġè į
Ġåį ķ
Ġåħ³ äºİ
Ġà¸ ¡à¸²
å¯¼ èĪª
Ġp c
æĳ Ħ
Ġagçİ¯äºļ ç½ĳç«Ļ
à¹Īà¸² à¸Ļà¸
ç¨³ å®ļ
Ĭà¸ ¡à¸
éĩĩ çĶ¨
«à¸ §
çĶµ è§Ĩ
à¤¿à¤ķ à¤¾
áĢ±áĢĽáĢŃáĢĢ áĢĶáĢº
Ġmul t
àª¾àªĤ àª¤
et to
Ð² Ñĥ
áĥĶáĥĹ áĥĲ
Ġmu tta
Ġv os
t rz
à¦¬ à§ĩà¦¨
Ġà´ķà´¾à´° àµįà´¯
Ġs eg
Ġ% ãĢĤ
áŀ ¸
ä¸Ģ ä¸ĭ
ļ à¸£à¸£à¸
ĠéĻ Ī
Ġæĥ ³
Ġà¤ľ à¤¿à¤²
Ã¡l ne
ĠáĥĽ áĥĶáĥł
ê¸ ī
ÑįÐ½ Ð½Ñĸ
æĮ ĳ
à¥ĩà¤ķ à¥įà¤·
Ġà°²à±ĩà°¦ à±ģ
r s
Ġáĥĺáĥ¥ áĥľáĥĶáĥĳáĥĲ
Ø² ÛĮ
à°¾à°° à°¨à°¿
»áĢĸáĢħáĢ¹áĢ ŀáĢĬáĢ¹
áĢĲáĢ° áĢĬáĢ®
ĠÎ£ ÏĦÎ±
we d
Ð¿ Ñĥ
Ġà¦Ĩ à¦¦
z at
à´¾à´Ł àµį
Ġà°ļ à°Ĥà°¦à±įà°°
áĥĲáĥłáĥ ļ
àªļ à«įàªļ
it er
no ÅĽÄĩ
Ġà¦¸ à¦ķ
ari os
à´¿à´ §
áĥłáĥ ª
à°¿à° ³
Ø§ÙĦ Ùħ
ĠÐŃ ÑĤÐ¾
ĠÐ²Ñĭ Ð¿Ð°Ð´
×ľ ×Ļ
à°ķ à°°
±áĢĶ áĢĽáĢ¬
ĠáĢĵ áĢ«
ĠáĢĲ áĢĶ
ĠØ¬ Ùħ
Î¶ Î±
Â »
ĠÎ± Î»Î»Î±
ĠB X
Ïĩ Î®ÏĤ
ĠÏĢ Ïħ
ÏĨÎŃ ÏģÎ¿Î½
ÏģÎ® Î³Î¿
ĠÎ¤ ÎŁÎ¥
Ġhe fyd
t he
ing a
es en
Õ ¬
Õ¥Õ ½
ÉĻd ÉĻr
Ð½Ð¸ Ð¾ÑĤ
ĠM ose
ĠG re
ë¬ ¼
ĠáĢ±áĢĻ áĢ¬áĢ¹áĢ
áĢĢáĢ¹áĢŀ áĢ¼áĢļáĢ¹áĢ
áĢĳáĢ¬áĢ¸áĢ ķáĢ«áĢĲáĢļáĢ¹
áĢĦáĢ¹áĢ¸ áĢĢ
¥ áĢķ
à´¾à´ ¬
Ð¿ Ð¸
we ar
Ġáº¸ ka
Ġw ara
Ġn ten
ĠT at
il d
es ia
Ġà¦¨à¦¿à¦°à§įà¦¬ à¦¾à¦ļ
áĢ±áĢ¸áĢ Ĩ
ĠÙĪ ÙĤØª
Ġáĥ¡áĥĲáĥĸ áĥĿáĥĴ
Ġï¼ ®ï¼
Ġisa koso
ĠB en
Ġn á¹£e
ĠT witter
ĠO mi
Ġj sem
ĠFe bruary
Ġ) :
yi ng
fo ju
Å¯ j
Ġàªħ àª¹
à¦¾à¦ ł
Ġdes pre
áĥĶáĥĳáĥļ áĥĲáĥĵ
Ġth Ãłnh
Ġy aa
Ġafáº¹ sáº¹
ĠO k
áº¹n do
si an
ka li
78 TI
ĠP A
Ġà´®à´¨ à´¸àµįà´¸
ÑĪ Ð°
Ġá¹£i á¹£an
Ġni ra
ĠM A
ĠAhá»įlu duta
ĠA ri
Ġà®® à®¤
Ġà° Ĺà°¾
ĠÐº Ó¯
à· Ķ
Ġà¤ª à¤¾à¤°
±áĢķáĢ« áĢ·
±áĢĢ áĢ¬áĢĦáĢ¹áĢ
áĢħ áĢķáĢº
Ġol yan
Ġifowo pamá»į
ĠS at
ĠÐ²ÑĬ Ð·
à¦ ĥ
Ġàª¥ àªĩ
ris to
ilo pin
Ġs Ã¨
ĠàªĹ à«įàª°
Ġà¦¬à¦¿à¦ ¦
l ÃŃ
à´ªàµįà´ª à´Ĥ
ĠÐ± ÑĥÐ»
Ðº Ð°Ð²
Ġac est
ĠáĢĿ áĢĦáĢº
is Ã¤
Ġà°ķ à±ĩà°Ĥà°¦à±įà°°
ĠÐ±Ñĭ ÑĤÑĮ
Å¼ a
Ð°Ñŀ ÑģÑı
Ġan s
Ġt jet
Ġto do
¬ áĥĽ
à¥Ģ à¤¸
Ð»Ñĸ Ð·
à±Ĩà°² à±įà°²
le rin
ÈĻ ti
Ġà§ ¬
à®¿à®ķà¯įà®ķ à¯ģà®®à¯į
bo bo
Ġá»į gá»į
st u
áĢĢáĢ¹áĢ ľáĢ¬
áĢĻáĢ¾áĢ¯ áĢĢáĢŃáĢ¯
aggi o
Ġà¦¬à¦Ľ à¦°
à¤¯ à¥ĭà¤Ĺ
Ø§Ø¦ ÙĨ
à°¾à°¨ à°Ĥ
¥ ¼
Ġwa hala
àµĪ à´µ
Ġiro ra
Ġc as
ĠáĥĴáĥĲáĥľ áĥķáĥĺáĥĹ
Ġa ÌĢ
×ķ×ł ×Ķ
mu ÅŁ
ĠØ¯Ø§Ø± Ø¯
àª¡ à«Ģ
à°¯ à°Ĥà°²à±ĭ
ç»§ ç»Ń
ķà¹Īà¸²à¸ĩ à¹Ĩ
à¹Ĥà¸£à¸ĩ à¹ģà¸£à¸
± à¹īà¸Ļ
Ĭà¸µà¸§à¸´à¸ ķà¸
Ġà¸ ¢à¸
à¹Ħà¸¡à¹Ī à¹Ħà¸Ķà¹īà¸
è¾ Ĩ
Ġà¸ ļà¸²à¸Ĺ
Ġ ä¹Ĳ
æľĢ é«ĺ
æ³¨åĨĮ ç½ĳåĿĢ
à¹ī à¸Ńà¸Ļà¸
ç¡ ¬
æĿ Ł
Īà¸°à¹Ģà¸ Ľà¹ĩà¸Ļà¸
Ħ à¸Ļà¹Ģà¸
Ġäºļæ¸¸å®ĺç½ĳ ç½ĳç«Ļ
78 9
ĠåĪĨ åĪĨå¿«3
ç¶ ĵ
à¤¾à¤ Ĭ
lich en
ĠS lov
Ġàªħ àªŃ
Ã¡c ie
Ġáĥ§áĥķáĥĶáĥļ áĥĲáĥ¤
Î¹ÎºÎ¿Ïį ÏĤ
ĠÃ ´
Ġà¤ħ à¤®
ĠÙĪØ§ÙĦ Ùħ
ÑĤÑĭ ÐºÑĥ
b ÄĽ
Ġà´¤ à´¿
Ġà´İ à´¨
ĠC e
§ áĥķ
Ð°Ð½ ÑĤ
Ġà¦ª à§Ĥ
w ar
ku ar
t Ã©s
à´ķ à´Ĥ
lu t
Ġáĥ¡áĥĲáĥĸáĥĿáĥĴ áĥĲáĥĵáĥĿ
à¯įà®ļ à¯įà®ļ
ÑĢÐµ Ð´Ð¸
ĠIS T
Ġàª Ĭ
ĠÐ¾ ÒĽ
ĠP ara
áĥķ áĥĺ
ĠÐ²Ñĭ Ð±Ð°ÑĢ
Ġt ari
ĠÐ¼Ðµ Ð±Ð¾ÑĪ
ĠáĢ±áĢľ áĢ·áĢľáĢ¬
ĠáĢĲ áĢ¯áĢŃáĢĦáĢ¹áĢ¸
Ļ áĢ¾áĢ¬
ĠÐ» ÐµÐ¿
ĠáĢħ áĢĲ
Ġws p
Ð½Ð¸Ðº Ð¾Ð²
Ġà´µà´¿à´ ³
áĥĶáĥĳáĥĺáĥ¡ áĥĹáĥķáĥĺáĥ¡
à°¦ à±ĩà°¶
Ð½Ð¾ ÑĤÐ¾
Ġak kor
Ġa by
Ġà¦ıà¦® à¦¨
be tsi
bi Ã©n
ĠçĻ ½
Ġå¯¹ äºİ
èµĦ éĩĳ
æ± ¡
éĽ ·
à¥ĩà¤ļ à¥įà¤¯à¤¾
ÑģÐº Ð¸Ñħ
Ø¬ Ùħ
Ġà¤ķà¤° à¥ĩà¤Ĥ
ĠÐº Ð°Ð¶
àª¯ à«ĭàªĹ
Ġs ek
áĢħ áĢŃ
à´® àµģà´³àµįà´³
Ð´ ÑįÐ½
à®Ł à¯ģà®ķà¯įà®ķ
Ġszer int
ì ¸
jo t
áĢľ áĢ±áĢ¸áĢĲ
áĢĲáĢħáĢ¹áĢ ±áĢļáĢ¬áĢĢáĢ¹áĢ
áĢ¡ áĢ»áĢĸáĢħáĢ¹
áĢĶáĢ¹áĤĢáĢĢáĢ®áĢ¸áĢ ĮáĢ¬áĢĶ
ĠáĢ¡ áĢ±áĢ¬áĢĢáĢº
Ġà°ķ à°¾à°µ
± c
Ð³ ÐĤ
Ð°ÑĤ Ð¾ÑĢÑĭ
d he
Ġb ja
Ġtl ha
Ġq o
áĥĲáĥłáĥĵ áĥĲ
æİ ī
è «
å¡ Ķ
áŀ Ļ
Ġå¤§åıĳäºĶ åĪĨéĴŁå¿«ä¸ī
Ġà¤Ń à¤¾à¤ľ
ÈĽ ia
çĪ ¶
æĪĺ çķ¥
åŁº éĩĳ
ĠéĿ ¢
çī¹ èī²
Ġą ĆĈ
Ġà¤¨à¤¿à¤µ à¤¡
Ð½Ð¾ Ñİ
u se
à¤Ĥà¤ ¸
Ø§Ø ¤
Ġpr es
×© ×Ķ
à®µ à®°à¯įà®ķà®³à¯į
áĢĽ áĢ¯
is chen
à±ĭ à°ª
áĢĨ áĢ¶áĢ¯áĢ¸áĢ
ĠáĢ¡ áĢ®
íĻĶ ìĿ´íĬ¸
íĶĦ íĻĶìĿ´íĬ¸
Ġíĺ Ħ
ÄĻ dz
Ġà´¸à´Ĥ à´¸àµįà´¥à´¾à´¨
Ġà´¤ à´²
Ø¦ ÙĬØ³
ll is
Ġáĥ¡áĥĲáĥ¨ áĥ£áĥĲáĥļ
Ġà¤®à¥Ī à¤Ĥ
Ġà¦Ł à§įà¦°
Ġma tla
ĠMi cr
°ï¼¯ æ³ķäºº
b ra
a lá»į
Ë Ģ
oo t
m be
Ġele yi
ĠPi ta
ĠInter national
ĠBáº¹áº¹ ni
atun á¹£e
ani ng
Ġer u
ÑĬÐ» Ð³Ð°ÑĢ
ĠF I
v ir
do pá»į
E C
ĠÑģÐ» ÐµÐ´
Ġà¤¸ à¤¾à¤²
ĠS pa
Ġà®¤ à¯ĩà®°
ĠÐº Ð°Ð»Ñı
çģ ¯
Ġà¤ħà¤¸ à¥Ĥà¤¨
ï Ĥ
ĠáĢ±áĢ Ŀ
ĠáĢ¡ áĢ±áĢ¬áĢĦáĢº
ÃŃt Ã³
Ø±ÙĪ Ø´
ĠàªıàªŁàª² à«ĩ
à´¾à´® àµįà´ª
à¥ģ à¤¦à¥įà¤§
ĠO fin
ĠO WO
Ġi ha
r h
ÙĪ Ø³
Ġg en
ĠG lo
ĠPo dá»į
po pada
Ġwa s
Ġi yi
Ġhu gan
ĠP ower
ka we
Ha ber
mp 4
le ti
ĠÃł w
Ġàªī àª¤
L D
Ĳ áĢļáĢ¹áĢľáĢŃáĢ¯áĤĶ
áĢĦ áĢļáĢ¹
ĠáĢĩ áĢ¬
ĠÄ° n
Ġba t
man to
ĠÑıÐºÑĸ Ñħ
áĥĲáĥ Ł
áĢ±áĢĽáĢ¸áĢ ļáĢ°
±áĢŀ áĢ¬áĢĢáĢ¹áĢ
ĠáĢľáĢĢáĢ¹áĢ Ķ
ĠáĢľáĢ¼ áĢĲáĢ¹áĢľ
ĠáĢŀáĢ° áĢĦáĢļáĢ¹áĢģáĢºáĢĦáĢ¹áĢ¸
ĠáĢ¡ áĢĻáĢ¼
Ġapa má»į
Ġoj lo
Ġja kejado
ĠL td
Ġ200 6
AN G
Ġá»į gbin
Ġw ill
ĠY oo
pe dia
ha i
à¯įà®¸ à¯į
ĠÐŁ ÑĢÐ¾
ãĤ į
S kip
Ġoju tu
Ġe gb
Ġjs ou
Ġ380 9
ÑĸÐ»ÑĮ ÑĪ
Ġapa po
Ġà¦ķà§ĭà¦¨ à§ĭ
à±ģà°ķ à±ģà°¨à°¿
Ñļ Ðµ
ĠG báº¹
ĠAf rica
ĠÐŁ Ð¾Ð´
à°¾à°Ĥà° ķ
ÉĽ lÉĽ
Ġá¹£ee á¹£e
ĠN et
å¼ı ä¼ļç¤¾
ª å¼ıä¼ļç¤¾
yin ti
to Link
ku áº¹
_ mp4
Ti mer
Skip Timer
Go toLink
Ġt en
à´¾à´ķàµįà´ķ à´¿
Ġgb agbe
la te
Ġá»į vo
Ġs ÃŃ
áĥĶáĥľ áĥĲ
Ġàªľ à«įàª¯àª¾àª°à«ĩ
Ġí ĽĦ
Ð¼ ÐµÑĢ
Ĭà¸²à¸ ¢à¸
Ġà¤Ŀà¤¾à¤² à¥ĩ
me ve
Ġà¦ħà¦Ń à¦¿à¦
lara q
ãĥ ĩ
m Ã©
Ġà´µà´² à´¿à´¯
ĠáĢŀáĢĺáĢ¬ áĢĿ
ĠÐ²Ð¾Ð· Ð¼Ð¾Ð¶
ĠÐ¿ÑĢ Ð°Ð²Ñĸ
à°Ĥà°Ĺ à°¾à°£
à°Ĥà°Ł à°¿
×ķ× Ķ
ĠáģĤáģĢáģģáģ Ī
áĢ¦ áĢ¸
Ġna p
áĢ»áĢĸ áĢ´
áĢŀ áĢĬáĢ·áĢ¹
ĠáĢŀáĢŃáĢ¯áĢ· áĢĻáĢŁáĢ¯áĢĲáĢº
ĠÐµ Ð´
Ġà¦¬ à¦¾à¦¸
ÙĦ Ø¨
à¤Ĥà¤ ľ
ĠÐ²Ð¾ ÑģÐ¸ÑĤ
áĥĵ áĥĺáĥ¡
ĠÄĳ i
Ġz osta
Ġk en
z ir
Ġà®ªà¯Ĩ à®°
Ġbil dir
Ġà´ªàµĭ à´ķ
ĠÐ¸ÑģÑĤ Ð¸ÑĦ
Ð¾Ð»ÑĮ ÑĪ
el la
ĠV o
di en
à°°à±įà°µ à°¾à°¤
Ġï ½
Ġ Åĳ
Ġàªļ à«Ĥ
ä¸Ģ ç¯ĩ
à¤¾à¤µ à¤¾
Ġë°Ķ ì¹´ëĿ¼
ì ¤ĳ
Ġáĥ¨áĥĶáĥĵ áĥĶáĥĴ
à¦¬ à§įà¦¯
Ġfil es
Ġau tres
g je
ĠÎłÎµ ÏģÎ¹
ĠÎºÎ± Î¸Î·
ĠÎ¿ Ïħ
Î³ ÎµÎ½
ĠÎłÎµ ÏģÎ¹ÏĥÏĥÏĮÏĦÎµ
ĠÎµÎ¼ÏĢ ÎµÎ¹
Î½ Î¿Ïħ
Ad visor
ĠÏĢÎ¿ ÏĦÎŃ
ĠÎ´Îµ ÏįÏĦÎµ
ĠA Z
Î¬Î¶ ÎµÏĦÎ±Î¹
I n
ĠÎ´ ÏģÏĮ
Ïī Î¼Î±
ĠÎ¤ Î·Î½
ĠÃ´ l
Ġàªľàª£ àª¾àªµ
Ð½Ñĥ ÑĨÑĮ
ãģĦ ãģ¦
me la
Ġà°µ à°¿à°¨
ĠÙĨ ÙĪ
¹ à¹īà¸
æķ £
é ŀ
çĽ´ èĲ¥
Ġæķ Ļ
èĪ ŀ
æ£ ®
· à¸Ļ
à¥ĩà¤² à¤¾
àµĤ à´¹
ar Äĥ
à¦¾à¦² à§ĩà¦°
ris Ã«
ĠÐ± ÑĬ
à°¤ à±įà°°
×ķ× ŀ×
Ð ¤
ĠÐ¿Ð¾ Ð·
ĠÕ¸ ÖĤ
pu bli
Ð¶Ð½ Ð°ÑĢÐ¾Ð´
Ġà¤ķ à¥įà¤·
Ġà´ªàµįà´° à´§à´¾à´¨
¶ àª¨
ĠáĥłáĥĿáĥĽ áĥļáĥĶáĥĳ
ìĨ į
v v
Ġz d
m Ã¡ny
ĠØ¨ ÚĨ
ÙĦ Ø³
Ġt iek
Ġà°¨à°¿à°° à±įà°®
ĠÐ°Ð¿ Ð¾ÑĪ
Ġà¦¬ à§ĥ
Ġnu est
Ð¾ÑĢ Ð¾ÑĪ
Ġàªķ à«įàª°
Ġvet Ã«m
te ng
ti vo
ÑĢ Ð¸Ð±
Ġg ÅĤ
i ke
ĠÐ¶ Ð°
à®ķ à®°
Ùģ Ø³
ĠÐ¿ÑĢÐµÐ´ ÑģÑĤÐ°Ð²
p ri
à´° àµģà´ŁàµĨ
áĥĿáĥ¡ áĥ¢
Ġà¦¦ à§ĩà§Ł
Ã³ s
Ġà°® à°§à±įà°¯
áº± ng
ÑģÑĮ ÐºÐ°
¶ Į
ÑĢ Ð°ÑĦ
ĠÙĨ Ø´
ĠE t
an ce
· à«įàª
ľ à¸´à¸Ķà¸
Ġè¿ ĩ
Ġu u
ĠAGçİ¯äºļ å®ĺç½ĳ
éĩ İ
Ġà¤ªà¥įà¤° à¤ķ
ani u
ĠÎ¯ Î´Î¹Î±
ĠTrip Advisor
Ïİ Î½Î±
ĠÎ±Î½ ÎŃ
Ġu003 e
ÏĥÏĦÎ¿ Î¹
Î¼ÎŃÎ½Î¿ Î¹
Î¼ Î¹Ïĥ
Î¯ ÏĦÎ·
ĠÏĢ Î»ÎŃÎ¿Î½
Î Ĳ
ĠÎ Ħ
ĠÃ· -
Î»Î¯ Î´Î±
ĠÎ³ Ïį
Ïħ ÏĥÎ·
Î¯Î¶ ÎµÏĦÎ±Î¹
Î¯Î¶ Î¿ÏħÎ½
ÏĦÎ± ÏĥÎ·
ĠÏĦÎŃ Î»Î¿ÏĤ
ĠÏĢÎ¯ ÏĥÏī
Î» Î¹ÎºÏĮ
Îº Î±Î¹
ĠÎ¹ Î´Î¹Î±Î¯ÏĦÎµ
ÏĦÏģÎ¿ ÏĨÎ®
Î Ĵ
ĠÎ» Îµ
ĠÎµ Î¹ÎºÏĮ
ĠA H
ĠÎ¼ÎµÎ³Î±Î»ÏįÏĦÎµ ÏģÎ·
ĠÏĨ Î¬
Î¼Îµ ÏĥÎ±
Î³ ÎŃÎ½
o g
à¦Ľ à§ĩà¦¨
áĥĸ áĥĲáĥĵ
Ð½Ð¸ ÐºÑĸÐ²
b rie
Ġfum ana
ĠÄį as
ar Ä±
Ð°Ð²Ñĸ ÐºÐ°
ĠÐº Ð°ÑĩÐµ
ãĤ Ń
ĠÐ½ Ð°Ñĺ
z h
Ġà¦¶ à§įà¦°
ig ne
ĠÐĲ Ð¿
Ġ×Ķ ×Ķ
Ġáĥĵ áĥłáĥĿ
c jÄĻ
ìĻ ¸
Ġm Ã©s
Ġfa ce
Ġr han
Ġà´ª à´Ļàµįà´ķ
à±ģà°Ł à±įà°Ł
Ä£ i
Ġàª¤ àª°
k er
¥à¸²à¸ ¢à¸
å¯ ¦
à¹Ģà¸ ĩà¸´à¸Ļà¸
Ġg 22
å® ľ
ä¸ĵ å®¶
åĮħ æĭ¬
æħ ¢
éĿł è°±
ä¸Ģ çĽ´
ļ èĩ³
Ġà¤¡ à¥ī
ĠÐ² ÑıÐ´Ð¾Ð¼
à¦°à§įà¦ ·
ĠÑģÐ» ÑĥÑĩ
ì µľ
Ø¯ Ø±
ca ciÃ³n
ä»¥ æĿ¥
éĢ Ĳ
äº ¡
ä¸» å¸Ń
Ġáł ª
Ġà¹Ģà¸ Ľà¹ĩà¸Ļ
_ å½©ç¥¨
ĠãĢģ ï¼Į
à¹ģà¸Ļ à¹Īà¸Ļ
Ħ à¸²à¸
Ġà¤ħà¤¶ à¥Ģ
Ð°Ð» Ó£
ĠÐ¾Ñģ Ð¾Ð±
is s
Ġà¤¸à¤¬ à¤¸à¥ĩ
à´® àµĩ
Ġë Ĭ
áĢŀ áĢĦáĢ¹áĢ·
ĠáĢ¡ áĢĻáĢŃ
Ġà®® à®±
ĠáĢ»áĢĻáĢĶáĢ¹áĢĻáĢ¬ áĢ»áĢķáĢĬáĢ¹áĢ
áĢ¡ áĢģáĢ¼
fi ca
à°ª à±įà°°
ĠÑĢ Ð°Ð²
Ġáĥł áĥĶáĥĴ
ªà¸¸à¸ Ĥà¸
ĠãĢģï¼Į ãĢģ
Ġà¸£à¸ ¸à¹Īà¸Ļ
ĠP ok
åĽŀ è¡Ģ
à¹Ĥ à¸Ń
å¨±ä¹Ĳ å®ĺç½ĳ
ä¸¤ ä¸ª
Ġà¸ŀà¸£ à¹īà¸Ńà¸¡à¸
çĮ ®
æľī æķĪ
Ġåĩ¯åıĳ å®ĺç½ĳ
åĪ ĺ
à¸£à¸²à¸ Ĭà¸
Ġà¤ķ à¤¾à¤³
ĠÛģÙĪ Ø§
le j
Ð²Ð°Ð½ Ð½Ðµ
Ġàªķàª¾àª° à«įàª¯
Ġe mpa
à¦ ģ
áĢ±áĢķáģļ áĢĻáĢ½áĢ¬
ĠáĢĳ áĢ²
áĢľ áĢ¬áĢĽ
Ġà°¤à±Ĩà°² à°Ĥà°Ĺà°¾à°£
Ġà°ĩ à°ļà±įà°ļ
k Ã©nt
à¯ģà®¤ à¯į
Ð°ÑĨ ÑĸÑı
Ã ĭ
li t
àµĬ à´¨àµįà´¨
Ġfiles _
Ġtr o
Ð»Ñĸ Ðº
ĠÐ´ Ð¾ÑģÑĤ
ĠÐĳ Ð°
à°¿à°² à±į
ĠáĥĶ áĥľ
Ĩ áĢŃáĢ¯áĢĦáĢ¹áĢ
áĢĿáĢº áĤĪ
áĢļáĢ¹áĢħ áĢ¬áĢ¸áĢľáĢ½
áĢļáĢ· áĢ¹áĢ
áĢĲáĢ½ áĢ±áĢ¡
ĠáģĤáģ ģ
ĠØ¨ Ø®
ĠáĢĲ áĢŃáĢ¯áĢ¸áĢĲ
Äħ c
ÑĸÑģÑĤ Ñį
æ³ °
Ġà¤®à¥ģ à¤²
à«ģ àªµ
Ġ×ŀ× §
tta a
ĠØ¬ Ø§
à´¿à´¯ à´¾à´£àµį
áģ¢ áĤĨ
áĢ¬áĢ¸áĢĻ áĢŃ
à¯Ĩ à®²à¯įà®²
Ġì ¶
eme i
cu ri
ĠáĢħáĢħáĢ¹áĢ ±áĢĨ
áĢĬáĢº áĢ·
ĠâĢ¦ áģĭ
áĢĺ áĢĢáĢ¹áĢĢ
áĢĨ áĢĶáĢº
ÙĪÙĦ Ø©
Ġà´Ĩ à´¦
ÑĤ Ð°ÑĢÑĭ
Ġà°® à±Ĩ
Ġà¦¦ à§ģà¦ĩ
n er
Ġta m
ĠÐ½ Ð¾Ò³
ĠN em
áĢħ áĢĢáĢº
Ġà®ªà¯Ĩ à®±à¯įà®±
Ġà¦Ĩà¦Ĺ à§ĩ
è¦ ĭ
Ġàª«àª¿àª² à«įàª®
í Ĺ
Ñĩ Ð½Ñĭ
à¨ Ī
Ġç§Ĵ ç§Ĵ
Ġà¤¦ à¤°
ĠÐº ÐµÑĩ
Ð°Ð½ Ð±Ðµ
Ġà´¸ àµįà´¤
Ġà°¦ à±Ģ
ĠÐ»Ñİ Ð´
Ġdey il
Ġà´°à´¾à´ľ àµįà´¯
Ġm et
àªĤàª Ł
ĠáĢĢ áĢ¬áĢľ
áĢħ áĢŃáĢ¯áĢ¸áĢĽ
Ġáĥª áĥĶáĥľáĥ¢
z en
Ð İ
Ñį Ðº
áĢ±áĢ ļáĢ¬
ĠÐ¿ÑĢÑĭ Ñģ
Ð°Ð½ Ð´Ð°
Ġktor Ã½
ĠÐ¼ Ð½Ð¾Ð³Ð¾
ÛĮØ± ÛĮ
à«ĭàª°à«įàª Ł
Ġà¤Ĩà¤ª à¤ķà¥ĭ
ĠktÃ³ r
Ġs pe
à¦¾à¦¨ à§ĭ
Ġà®ħ à®£
Ðº Ð¾Ð²Ð°
áĥĵ áĥĺáĥľ
æ¤ į
Ġï¼ī ãĢĤ
ĠéĢ Ļ
Ġ ç½ĳä¸Ĭ
ª à¸²à¸£à¸
45 6
ĠĈ ą
Ġà¤Ń à¤¾à¤Ĺ
Ġth Ã¬
áĢŃáĢ³ áĢ¸áĢ
áĢ¯áĢ¶ áĢ¸áĢĽ
Ġren d
à°¾à°² à°ķà±ģ
ÛĶ ÛĶ
ĠÎ¬Î»Î» Î·
ÎµÎ¹ Î±ÏĤ
ĠÎµ ÏĢÏĮ
ĠÏĦÎ¹ Î¼Î®
ĠÎ¸ Ïħ
ĠÏĨ Î±Î½
ĠÏĢÏģÏİ ÏĦÎ¿
Ïĩ ÎŃÏĤ
ÏĢÎ¿ Î½
Î»Î» Î¹
ÏĦÎ¯ Î¿Ïħ
Î© Î£
Ïĥ Î¿Î½
ĠÎ»Î¿Î¹ ÏĢÏĮÎ½
ĠR h
inÄģ t
ĠÙĨ Ø§Ùħ
cion al
Ġbo hlo
ĠgÃ¶ z
Ġàª¸àª¾àª® à«ĩ
ĠáĢ¡áĢ²áĢĴáĢ® áĢľáĢŃáĢ¯
áĢ¸áĢĢáĢ» áĢĦáĢº
sh Ã«m
Ġmu u
Ġ×ľ ×ĳ
ĠÐ¼ÑĥÐ² Ð¾ÑĦÐ¸ÒĽ
Ð²Ñĭ ÑĩÐ°Ð¹
Ġr Ã©p
Ð°ÑĨ ÑĸÐ¹
ĠÎ±Ïħ ÏĦÎŃÏĤ
Îº Î¹Î½Î®
ĠÎ´Îµ Î´Î¿
ĠÎ² Î¹Î²
ĠÏĥÎº ÎŃ
ĠÏĦ Ïį
ĠÎµÎ½Î· Î¼ÎŃ
ĠÎķ ÏĢÎ¯
ĠÎ³Îµ Î³Î¿Î½
ĠÎ´Î¹Î¬ÏģÎº ÎµÎ¹Î±
Ïĩ Ïį
ÎŃ Î»
ĠÎ´Î¹ ÎµÏįÎ¸ÏħÎ½ÏĥÎ·
ĠÎ´ Î®
ĠÏĢÎµÏģÎ¹ÏĥÏĥÏĮÏĦÎµ ÏģÎ¿
ĠÎ± Î½Î¿
ĠÎµÎ¯ ÏĦÎµ
ĠB A
ÏĦÎ¿ Î¼Î±
Î³ÏīÎ½ Î¹Ïĥ
Î¬Î½ Î¹
ĠÏĮÎ» ÏīÎ½
ĠÎ¼ ÎµÎ¹
ĠÎ±ÏĢÎ¿ÏĦÎŃ Î»ÎµÏĥÎ¼Î±
ÏĦ ÏĤ
ĠÏĢÎ± Î¯
ÏģÎ± Ïĥ
ĠB B
ĠÎºÎ±Î¸ Î±
ĠÎ±ÏĢ Î±Î¹
ĠÏĢÎ± ÏģÏĮ
ÏģÎ¯ Î¶ÎµÎ¹
ÏĢ ÏīÎ½
ĠÎł ÏģÏİ
ÏĢÎµ ÏģÎ¹
ĠÎºÎ¬ÏĢÎ¿ Î¹Î±
Î»Î± Î´Î®
x y
Î¯ Î´Î¹Î±
ĠÎ± ÏĨÎ®
Î» Î¹Î¬
ĠÎµ ÏĥÏĦÎ¹Î±ÏĦÏĮÏģÎ¹Î±
ÏĦ ÏĥÎ±
Î¼ ÏİÎ½
ÎºÏģÎ¹ Î²
ĠE R
illi am
ĠÎĳ Î³
ÏĥÏĦÎ¬ ÏĥÎµÎ¹ÏĤ
Îº Î®ÏĤ
li ad
à¦¾à¦§ à§įà¦¯à¦®
Ġes et
àª¾àª Ń
Ġhá»į c
ÙĤ Ø±
zz o
ĠÑĪÑĥÐ´Ð° Ð°ÑģÑĤ
»áĢķáĢĬáĢ¹áĢ ĶáĢļáĢ¹áĢ
áĢ¾ áĢĦáĢ·áĢº
f Ã¼
à´°àµįâĢį à´¶
ia le
lÉĻr ini
ë ŀĮ
àµįà´¯ à´¾à´ª
Ġv ÄĽ
ĠD E
for ma
Ġáĥ¡ áĥĺáĥ¢
ĠÐ± Ð¸Ð´
ĠÐ± ÐµÑģÐ¿
ĠÑĤ Ð¸
Ġà°² à±ĩà°ķ
tsa ng
àµĤ à´±
à®¾à®£ à¯įà®Ł
áĪ Ń
Ġà¤® à¥ģà¤ĸ
n ya
Å« su
Ð²Ðµ ÑģÑĤ
ĠÙĪ Ø¨
c en
çĦ ¡
áĢ¸áĢŀ áĢĬáĢ¹
ĠáĢľáĢ¯áĢķáĢ¹áĢ ±áĢĨáĢ¬áĢĦáĢ¹áĢ
ĠáĢĶ áĢĬáĢº
ĠÑŀ ÑģÐµ
ĠÚ¯ ÛĮ
áĥĺáĥ Ń
ĠÏĢÏģÎ¿Ïĥ ÏĦÎ±
ĠÎ±Î½ ÏĦÎ±
ĠÎľ Î¬
Ïĥ Î¯ÎµÏĤ
Ïģ ÏĦÎ®Î¸Î·ÎºÎµ
Ïģ Î¹Îº
Î¼Î¿Ïģ ÏĨ
ĠÏĥÏĦÎ¿Î¹ ÏĩÎµÎ¯Î±
Îł Îĳ
201 5
ĠÎĶ Îµ
ĠÎ³ ÏģÎ¬ÏĨ
ĠB D
ĠÏĥÏĩÎµ ÏĦÎ¹ÎºÎ¬
ĠB C
à§ĭ à¦°à§įà¦
d ul
ÎĻÎ ¤
ĠÏĥÏħÎ½ÎŃÏĩ ÎµÎ¹Î±
ĠÎ¼Î¿ Î½Î±
ĠÎ¼ Î¹
Ïĥ Ïį
ÏģÏħ Î¸
ĠÎµÎ³ Ïİ
Î¹ÎºÎ¿ Î¯
ĠÏĥÏħ ÏĥÎºÎµÏħ
ĠÎŃ ÏĢ
ĠW illiam
Ïģ Î¹ÎºÎ¬
ÎµÎ¯ Î¿Ïħ
Î¿ ÏĢ
ĠÏĨÎ¿Ïģ ÎŃÏĤ
ĠÎĿ Î±Î¹
Î ŀ
d f
Ġàª°à«Ĥ àªª
Ġ Å¾i
ÎºÎ±Î½ Îµ
wi d
Ġà°¤ à°¿à°°
Ġoju ami
ĠRay Haber
ire gbe
Ġm as
Ġkáº¹ hin
Ġalu m
Ġa tu
çº ¸
è¡Į åĬ¨
à©ĭ à¨Ĥ
æ¡ ¥
Ġà¤ª à¥ģà¤¢
B ARA
Ġo gbon
Ġ×Ķ× ĵ
ãģ Ķ
ĠÐł Ðħ
ĠÐ´ Ñĸ
ĠÑĢ Ñĭ
Ġju s
Ġf esi
ĠW on
ĠàªĽ à«ĭ
Ġà¤ļ à¤²
ĠáĥĻ áĥł
áĢĽ áĢ±áĢ¬
m Ã¤n
ĠÐ¿ ÑĥÐ»
iek Å¡
Ð°Ð¿ ÑĢÐ°Ñŀ
áĥĲáĥľ áĥĺáĥ¡
Ġm irÃ«
n á»į
Ġ Ð°Ñĳ
j Ã¬
à§ģ à¦¦
ĠÑħ ÑĥÑģ
ĠD om
ĠÐ¸ Ð¼Ðµ
ĠÚ© ÚĨÚ¾
ÙĬ Øª
æŁ¥ è¯¢
à¤¦ à¤¾
Ġlu c
ãģ ĺ
Ð²Ñĸ ÑĤ
Ġà´ľàµĢà´µ à´¿à´¤
ara q
Ġel len
ĠÎµÎ¯ ÏĩÎ±Î½
ĠÎ¼Î¹Î± ÏĤ
ĠÎ²Î±Î¸Î¼Î¿ Î»Î¿Î³Î¯Î±
Ïħ Î¼Î±
Ïĩ Î¿ÏĤ
Î¶Î® ÏĦÎ·ÏĥÎ·
ĠÎķ Î¾
ĠÎµÏĢÎ¹ Î²
ĠÏĥÏĢÎ¯ ÏĦÎ¹
ĠÎ³ ÏħÎ½Î±
ĠÎ³ ÏģÎ®Î³Î¿
Îķ Î¥
Î±Î¹ Î±
Ġy ma
Ġpers onn
à´¾à´¨àµįà´ ¤
u je
h men
áĢĲáĢº áĢĻáĢ¾áĢĲáĢº
ĠÒ³Ð¾Ðº Ð¸Ð¼
ĠÑģ Ð°ÒĽ
ĠÑĦÑĥÒĽ Ð°ÑĢÐ¾
ĠÐºÐ¾ÑĢ ÑħÐ¾Ð½
ĠÒĽÐ¸Ð» Ð´Ð¸
Ð¾ÑĢ Ð¸Ð¹
____ ____
ĠÐĲ Ñģ
ÏĢÎµ Î´Î¿
ĠÎŃÎ³ Î¹Î½Îµ
Ġ ÏģÎµ
Ġx 64
ĠÏĦ ÏģÎ¯
ĠIn n
Î¿Ïį ÏĤ
ĠÎµÎ¾ Î±Î¹ÏģÎµ
ĠÎ±ÏĢÎ±Î½ ÏĦÎ®ÏĥÎµÎ¹ÏĤ
ĠÎ± Î¹Ïĥ
AA AA
ÏģÏī ÏĢÎ±
Ïĥ Î¿Ïħ
Î¹Ïĥ ÏĦÎ±
ĠÎĳÎ½Î± ÏģÏĦÎ®Î¸Î·ÎºÎµ
ĠÏĢÎ±Î¹ÏĩÎ½ Î¯Î´Î¹
ÏĦÎŃ ÏģÎ±
Î» ÏĢ
i f
Ġal le
Ġha o
Ġà°®à±ģà° ĸà±įà°¯
Ġà¦ħ à¦¸
dz in
à¯Īà®ļ à¯į
ĠÏĢÎ»Î·ÏģÎ¿ÏĨÎ¿ ÏģÎ¯ÎµÏĤ
ĠÏĥÎµÎ¹ ÏģÎ¬
ĠÎ±Î½ÏĦÎ¹ Î¼Îµ
Ġne wydd
ĠàªŃ àª¾àªĹ
Ð· Ð¾Ð´
ĠÐ² Ñĳ
à´µà´¿à´ §
ĠÐ¼ÐµÐºÑĥÐ½ Ð°Ð´
Ġà¤¸ à¤Ńà¥Ģ
Ġe mp
áĥĲáĥł áĥĿ
áĢ°áĢ¸áĢ ķ
ĠÐĲ Ðº
ĠÐ²ÑĸÐ´ Ð¿Ð¾Ð²ÑĸÐ´
Æ¡ i
dh Ã«
ĠáĢĻ áĢ¬
fa dÉĻ
r Äĵ
ÙĪ Øª
ĠáĥĲáĥĽ áĥĺáĥ¡
àµģà´® à´¾à´¯
ãĤ ¸
à°¾à°³ à±įà°³
ĠC unoaÈĻte
Ġc el
ĠÐ¿ Ð¾Ð½
Ġáĥ¡áĥĲáĥ¥áĥĲáĥłáĥĹáĥķáĥĶáĥļ áĥĿáĥ¨áĥĺ
Ġáĥĺ áĥª
il Ã¡g
Ĥà¸²à¸ ¢
æľ «
æī ¶
áŁ Ĥ
çĶŁ æĢģ
à¤¾à¤¤ à¥Ĥà¤¨
áĢĻáĢ¼áĢŃáĢ¯áĢ· áĢĶáĢļáĢº
ĠáĢĲáĢĽ áĢ¬áĢ¸áĢħ
Ġpu e
Ġà°µà°¿à°¦ à±įà°¯
ĠiÃ§ in
ê° ģ
áĢĽ áĢķáĢ«
Î¸ ÏĮ
y g
th u
à¤µ à¤¾à¤°
à§įà¦ §
áĥĺáĥľ áĥĺáĥ¡
ĠáĢľ áĢ¯áĢķáĢ¹
ĠáĢĢáĢ¼áĢº áĢĶáĢ¹áĢ±áĢĲáĢ¬áĢ¹áĢ
ĠáĢĢ áĢ¶
ÐµÐ½ Ñĸ
×¨ ×ª
áĢ¬áĢ¸áĢĲ áĢ½
áĢĺ áĢ®
Ġk ir
à®² à®®à¯į
ĠktÃ³ ry
Ð¾ Ñī
Ġà´¨ àµĭà´ķàµįà´ķ
áĥĺáĥ£áĥ ļ
Ĺà¸µà¹Īà¸ Ķà¸µà¸
é» ŀ
Ġåħ¬ åı¸
æĲ ı
åº Ĭ
ĠæĮ ī
Ġæ° ĳ
áŀ ļáŀ
à¤¾à¤Ĥà¤ ¸
Ġau g
ÑĤ ÑįÑĤ
zi o
ĠÐ´Ð°Ð² Ð»Ð°ÑĤÐ¸
áĢĽ áĢķáĢ¹áĢ
áĢ¬áĢ¸áĢĲ áĢħáĢ¹áĢ
ĠáĢĽ áĢ¯áĢķáĢº
ĠÐ¼Ð¾Ð¶ Ðµ
Ġà°®à±Ģ à°°à±ģ
Ġà¦ħà¦¨ à§įà¦¯
à«ĩàª¨ à«įàªŁ
à´¿à´¸ àµįà´±àµįà´±
ĠÐ¾ Ð¸Ð´
Ù¹ Ú¾
Ñģ Ñĭ
ĠÅ¡ t
ire a
ĠÎµÏģÎ³ Î±
ĠÎ±Î½Î¬ Î³Îº
ĠÎĮ Î»Î±
ĠÎĴ Î±
Ġd da
ĠáĥĹáĥĲáĥľ áĥĲáĥĽ
ĠÐ¼Ð°Ðº ÑĤÐ°Ð±
ÙĪ Ø§Øª
Ġjo ka
Ġpu pa
Ġiá¹£ á»į
Ġifi we
ĠS te
ĠÐ±Ð¾Ð» ÐµÐµ
à®¾à®¤ à¯įà®¤
Ð½Ñĸ ÐºÑĥ
ĠáĢĴáĢ« áĢ±áģ¾áĢĢáĢ¬áĢĦáĢ¹áĢ·
áĢĻáĢ» áĢĢáĢº
ĠH ol
om en
ĠÐ·Ð°ÑĢ ÑĥÑĢ
Ġpri ce
ĠInst agram
Ġc rypto
ĠB ri
ÙģØª Ùĩ
ì¶Ķ ì²ľ
¤ Ģ
ĠáĢļ áĢ¯áĢ¶
ĠBu hari
Ġjo ko
ĠIsla m
ĠA á¹£
s er
Ġ ä¹ħä¹ħ
à¤¤ à¤¿
áĥ£áĥ ª
Ġran ti
Ġo de
Ġitu ra
Ñŀ Ð·
ĠÒĽÐ°ÑĢ ÑĪÐ¸
ĠÑĤ Ð°Ð±
ÙĦØ§ ÙĤ
Å¡ Ä·
Ġà´¯ àµģ
Ġla r
oo ro
o pu
ĠE li
ĠNi ke
sin yáº¹n
aêŀĮ a
Ġiko le
ĠDec ember
T u
Ġmi ta
d dÉĻ
Ġjin láº¹
Ġdara pá»į
Ġ×ľ ×Ĺ
áĥ£áĥ Ļ
à´¿à´ ¶
ko pel
fa ili
di an
s _
Ġàª« àª°
à¯Ĩ à®©
Ġà¦ħ à¦°à§įà¦¥
áĢĻáĢ» áĢ¬áĢ¸áĢĢ
Ġpa á¹£áº¹
ĠMar mara
Ã¡r ÃŃ
ĠÑĢ Ñĥ
ãĥ³ãĤ °
áĥĶáĥł áĥĺáĥ¡
Ġå¿ ĥ
çĽ ĸ
åĽ½ åĨħ
åĩº çļĦ
à¸£à¸²à¸ ¢
à¤¾à¤Ĥà¤ ¡
Ġs ena
ĠÑĪ Ð°Ð²
Ġbi zt
le p
àµ½ à´ķ
ëĬ ¥
ĠâĢļ âĦĸ
Ð³ Ð¾Ð´
n kan
Ġto di
æł ªå¼ıä¼ļç¤¾
ag er
Y I
Ġa siwaju
Ġtáº¹ táº¹
Ġiwu wo
ĠS tate
Ġàªħ àªª
Ġä»Ĭ å¹´
å¦ ¹
à¨ ľ
«à¸ §à¹Īà¸²à¸
à¹ĥà¸ Ħà¸£à¸
å½©ç¥¨ å¨±ä¹Ĳ
Ġà¨ķ à¨°
Ľà¸£à¸°à¹Ģà¸Ĺà¸ ¨à¸
Ġ äºİ
éĢ ²
Ħ à¸£à¸±à¸
èĪ ¹
¡à¸ ·à¸Ń
èĲ ¨
å ´
à¹Ģà¸ Ķà¸
Ġà¤Ŀà¤¾à¤² à¤¾
ĠJohan u
Ġáº¸ ká»į
Ġolo gun
Ġï¼®ï¼ °ï¼¯æ³ķäºº
Ġá¹£ u
áĥ£áĥļ áĥĲáĥĵ
Ġques to
Ġf ere
ĠS m
ĠMu sulumi
ĠIs land
Ġ8 1
be li
Ġvi deo
Ġiran á¹£áº¹
Ġir Ãº
ĠÙĦ Øª
ÅĦ st
à¥ĩà¤Ĥà¤ Ł
ØªØ± ÛĮÙĨ
áĥł áĥĶáĥĳáĥĺ
Ġco ins
ĠW á»į
àªĤàªĹ à«įàª°
Ġà¦Ł à¦¾à¦ķà¦¾
Ġà¦¹ à¦¾à¦ľà¦¾à¦°
Ġpar ti
Ãº c
ĠÎ½ÎŃ Î¿
ĠÎ¾ ÎŃ
ĠÎµÎ¯ ÏĩÎ±
Î»Î¹ ÏĤ
Î¯ Î½Î±
ÎŁ ÎĻ
ĠÎĶ ÎµÎº
ĠÎĮ ÏĦÎ±Î½
ĠÎµÏĢÎ¹Ïĥ ÎºÎŃ
ÏģÎ¯ ÏīÎ½
ĠÏĥ Î¹
Ġg wy
Ġn je
Ġm os
Õ¶Õ¥ÖĢ Õ«
ÉĻh ÉĻr
Ø¨ Ø§Ø¯
áĥĺáĥ¢ áĥĿáĥĽ
Ĭ áĢ®
ĠÐ· Ð°Ñı
áģ¿áĢĻ áĢ²
áĢĨ áĢ¶
lich e
áĢĻáĢ»áĢ¬áĢ¸áĢ ĶáĢ¾áĢĦáĢ·áĢº
Ġàª¬ à«įàª°
Ġtel jes
à±ģà°¤ à±Ĥ
à¦¨à§įà¦ ¡
ĠÐ¾Ð» Ð³Ð°Ð½
Ð´Ð¸ Ð¹
Ð¾ Ð¸Ð·
Ġáĥŀáĥĺáĥłáĥķ áĥĶáĥļáĥĺ
Ġà®ħ à®¤à¯ģ
ĠÚ¯ Ø¦ÛĴ
ÅĤ at
Ðŀ ÐĿ
Ð¾Ð½ Ð¸ÑĪ
Ġ×Ĵ ×Ŀ
Ġë¶ Ħ
Ġngo e
Ġloke la
ĠÄ ¼
Ġ àµ»
à´¾à´³ àµįâĢį
àµįà´µ à´¾à´¸
ĠÑģÐ² ÐµÑĤ
ch es
ja ck
Ġaf á»į
fi isi
ĠêŀĮ a
Ġo v
Ġgbáº¹ káº¹le
ng aso
Ġp ho
ĠÐ¿ÐµÑĢ Ðµ
à´¨ àµį
ĠI t
ti le
Ġgj itha
Ã¡ j
Ġà°¬ à±įà°°
Ġà¦° à¦¹
à´¿à´¨àµįà´ ±
à¦¾à¦° à§Ģ
Ø« Ø±
ÑĨ ÐºÑĸ
Ã³ Å¼
ĠÑĦ Ð°Ðº
lar u
Ġng e
vie w
san ma
Ġgb Ã©Ì£
ĠáĥĹ áĥĺáĥĹ
æľ¬ éģĵ
¦ à¥Ģ
Ġan de
ĠIn don
h ir
ÈĽ e
Ġs egi
Ġifi jiá¹£áº¹
Ġfi pamá»į
Ġd ari
Ð¹ Ñħ
ĠÐĴ ÑıÐ»Ñĸ
Ġest Ã¡
Ġà¤¬ à¤¤
à«ĩàª Ĥ
ĠÐ¹Ð¸ Òĵ
ÐµÑĢ Ð¾
ĠY áº¹n
ĠIda abobo
ĠGe or
wa si
owo po
à¯įà®ķ à®¿à®±
ow os
one y
ĠCh ar
Ġà¦¨ à§ĩà¦ĩ
à¹Ī à¸Ńà¸Ļ
Ġà¹ģà¸ ¥à¸°à¹Ģà¸
åĭ Ļ
à¥įà¤ Ĺ
áĥĺ áĥĶáĥłáĥĹ
wa ys
ĠÐº Ð»Ð°Ñģ
Ġí İ
g Ã¡n
Ġte en
Ġlai lai
Ġagbe kaláº¹
ĠI ja
lu ar
Ġ????? ?
om á»į
e mu
Ġni torinaa
vi ce
kopel os
V C
Ġr orun
Ġm ilionu
Ġà°¤ à±Ĭ
ĠSu per
ĠEurope an
Ġw lea
Ġsha y
ĠJ Ã©s
Ã²g Ã¹n
n d
Ġape já»į
fáº¹ fáº¹
Ġiwadi i
Ġ ãģ®
ă Â
Ġ> >
wan yi
Ġe bi
Ä« gi
Ġka ik
Îł ÏģÎ¿
ĠÎ§ Î±
Îº Î»Î¿
Î· Î¸ÎµÎ¯
Î¼Î¿ Î¹
ĠÏĥÏħ Î½Î±
ÎŁÎ ¤
Î»ÏĮÎ³ Î·ÏĥÎ·
ĠÎºÎ¬Î½ Î¿ÏħÎ½
ĠÏĢ ÎµÎ¹
ĠÎķ ÏĢÎ¹Ïĥ
ÎĹ Î¤
Ġ. Â¬
ĠÎ±Î³ ÏīÎ½
ĠÎ·Î»ÎµÎº ÏĦÏģÎ¿
ĠÎµÏĨÎ±Ïģ Î¼Î¿
ĠÏĦÎµÎ»ÎµÏħÏĦÎ± Î¯Î±
ĠÎ¿ÏģÎ³ Î±Î½
ĠÎµÎ¾ Ïī
ĠÂµ Îµ
ĠÏĦ Î±Î¹Î½
ÏĨÎ¿Ïģ ÎŃÏĤ
ÏĦÎ® ÏģÎ¹Î±
ĠAD E
fnyd dio
Ġ uy
on al
kanna a
Ġyáº¹ whe
Ġle he
Ġido juká»į
Ġha ve
ĠR es
ĠG Q
Ġáº¹ tan
Ġn ana
ĠOri sun
ĠI m
ĠDavi di
yá»įn nu
wo ran
à®ķ à®®à¯į
ĠÐ¿Ð°Ðº Ð°Ð·
le nu
Ġà¦Ĩà¦ª à¦¨à¦¾à¦°
Ġà´¬ à´¿
hi te
ĠÑģÐ¿Ðµ ÑĨÑĭÑı
à´Ł àµģà´ķàµįà´ķ
à°°à±įà° ķ
áº¡ o
era tor
Ġni ke
Ġmáº¹de vo
Ġm p
Ġigbe yewo
Ġt Ã³Ì£n
Ġb ara
Ġafáº¹sáº¹ gba
Ġa diráº¹si
ĠO ruká»į
ĠFo rex
ĠEle ct
owos owopo
iláº¹ gbáº¹
Ġo vi
ĠJ un
i i
Ġà¤« à¤¿à¤²
Ġ×¤ ×¨
Ġà¤ª à¥ģà¤²
Å¾ ÃŃ
er un
àªľ à«Ģ
b lic
Ġw and
Ġpu po
ĠÑĤÐ°Ðº Ð¾Ð¶
Ð Ń
Ġko r
Ð°Ð½ ÑĭÑħ
áĢĢáĢ° áĢ¡áĢĬáĢ®
à®±à¯įà®± à®¿
Ġà´° à´¿
Ġà´ħ à´®àµįà´®
ĠÐ´Ð¾ÑĢ Ð°Ð´
Ġà´ĩ à´²àµįà´²
à¥ĩà¤Ĺ à¤¾
ĠáĥĽ áĥĺáĥķ
ĠÑģ Ð¾Ð·
Ġgu á»įná»į
Ġgb Ã©
áĢ®áĢ¸áĢ ħ
Ðµ ÑĩÐµ
ĠÚĨ Ùĩ
Õ¸ÖĤÕ©Õµ Õ¡Õ¶
publi ka
áĥ£áĥļ áĥ¢
áĢĽáĢ½ áĢĦáĢ¹áĢ
ĠáĢĽ áĢĦáĢ¹áĢ
ĠáĢħ áĢŃáĢ¯áĢ¸áĢĽ
Ġy ox
Ġàªľ àª°à«Ĥ
ĠãĤ ¹
s Äĵ
ts we
ĠØ±Ûģ Ø§
Ġpri mer
v ant
çī Ļ
åī Ĥ
à¤¤ à¥įà¤¨
d ow
Ð¾Ð² Ð°Ð¹
men ti
Ġêµ Ĳ
áĢ¬áĢ¸áĢ ķáĢ¼
Ġà´® àµģ
à®¿à®µ à¯ģ
à± ĸ
Ð¿ÑĢ ÐµÐ´
áĥķ áĥĺáĥĵ
Ġà°İà°¨à±įà°¨ à°¿à°ķ
Ð´Ð·Ðµ Ð»
Ġsa j
ĠØ§ÙĦ Ùĩ
à· ĥ
Ġà¤¸ à¤¿à¤Ĥà¤
áĢ¡ áĢ±áĢĽ
áĢ¡ áĢĸáĢ¼áĢ²áĤĶ
áĢ¼áĢĶáĢ¹áĢ ľ
ĠáĢ± áģĢ
áĢļáĢº áĢľáĢŃáĢ¯áĢ·
áĢģ áĢı
Ġà°ħ à°®
Ġby Äĩ
Ø± Ùģ
à¶ ¸
à¤¾à¤ ī
áĢ±áĢķáĢ« áĢĲáĢļáĢº
±áĢ ģáģļ
Ġáģ ¸
ĠáĢķ áĢ°
ĠN jáº¹
as a
is te
ĠÐ¿ÑĢÐ°Ð± Ð»ÐµÐ¼
Ġà¦¬à¦¿à¦Ń à¦¿à¦¨à§įà¦¨
Ð¾Ñģ Ð¾Ð±
Ġidun nu
ĠTech no
ĠA aye
a fia
Ġsh are
Ġiká»į ká»į
Ġde pope
ĠJul y
ĠJ es
S I
Ġngo i
Ġawá»į sanma
Ġ' ,
tá»į ka
Ġoludi je
Ġasi ko
ĠKlisti ani
Ġte le
Ġol á»įn
Ġi já»į
Ġala isan
li ght
k wiêŀĮ
fi c
áĢģ áĢĶáĢ¹áĤĶ
ĠáĢľ áĢ½áĢº
ĠáĢŀ áĢĢáĢ¹áĢ
ĠáĢĻ áĢ±áĢľ
à°µ à°¿
íĺ ķ
áģĢáģĢ áģĢ
dan iloju
Ġti láº¹
Ġà´° àµģ
à´¡ à´¿à´¯
Ġà®ķ à®¿à®°
® áĥĶáĥĵ
ĠMay or
ĠLE D
h lá»įn
Ġnin ja
Ġi y
ãĥ ł
Ġ×Ľ ×Ļ
áĢĲáĢļáĢ¹áĢ ĨáĢŃáĢ¯
ĠáĢģ áĢĶáĢ¹áĤĶ
áĢ®áĢ¸áĢ Ķ
Ġgb Ã³
ĠD y
ÙĪ Ùĩ
Ġæ¾³éĹ¨ æĸ°
èª ª
áŀ ĳ
ķà¸±à¸ Ķà¸
Ĺ à¹Į
à¤°à¥įà¤ ¶
Ġajá»į á¹£epá»į
ĠJo b
Ġ ðŁ
É ¨
L I
Ġso lusan
ĠT ri
ĠÐ´Ð¾ Ð¿
ĠO h
Ġ Ð°Ð¶
ĠÑı ÑĢÐ°ÑĤ
ĠÒ³ Ð¸Ð¼
ĠÒ³ Ð°Ð²
Ġyá»įn áº¹n
ĠKa vi
ĠJ á»įwá»į
ĠG omina
ya êŀĮ
Ġj ara
Ġida ji
Ġa báº¹
á»ĭ ch
Ġàª¤àª® àª¾àª°àª¾
à´°àµįâĢį à´ļàµįà´ļ
ÑĪ Ð¾Ñŀ
Ġà´ħà´¦àµįà´¦àµĩà´¹ à´Ĥ
ĠÙ¾ Ú¾Ø±
Ġà¦° à§Ł
áĢŃáĢ¯ áĢ¸áĢĢ
k om
ou vel
ĠM agyar
ĠáĢĢáĢŃáĢ¯áĢļáĢ¹áĢ ħ
ĠáĢħ áĢ¥áĢ¹áĢ¸
ĠáĢ±áĢĴáĢŀ áĢģáĢ¶
áĢŀ áĢ¯áĢ¶áĢ¸áĢ
ĠÐĿ Ð¾
ĠZ i
ĠAye lujara
Ġá»į gba
Ø§Ø± Øª
Ġo wh
Ġda i
ĠRe d
ÐµÐ» Ð°
ì½ Ķ
Ġka p
ĠB us
oso ft
G UN
Ġle gen
Ġko li
Ġk ÃŃ
èµĦ æĸĻ
æī§ è¡Į
èģĶ åĲĪ
çĸ «
äº§ çĶŁ
Ġà¤ħà¤¸ à¤¤
Ð» Ð°Ð¹Ð½
à±ĩà° ¦à°¿
Ġàªµ àª¾àª°
Ġà¤« à¤¿à¤°
ĠÐ² Ñģ
in dÉĻn
ÑĨ Ñį
áĢĲ áĢĬáĢ¹áĢ
ĠáĢĨ áĢ®
à§ĩà§Ł à§ĩ
áĥĲáĥļ áĥ®
Ġtu o
Ġà´ªàµįà´° à´¶
ãĥ §
à®¾à®µ à®¤à¯ģ
ĠdÃ© p
ĠÐ¾ Ð½Ð¸
ĠÐ²Ñĭ ÐºÐ°Ð½
áĢģáĢºáĢŃ áĢĶáĢ¹áĢĻáĢ½áĢ¬
áĢĽ áĢŃáĢ¯áĢĢáĢº
k ou
ĠÎµÎ½ ÎµÏģÎ³
Ïģ Î¹ÎºÎ®
Î² Î¿
ĠÎļÎ± ÏĦÎ±
Î² Î´Î¿
ĠÎ· Î¼Îµ
Î¸ Î¬
Ġ8 3
ĠÎŃ ÎºÎ±Î½Îµ
ÏĢ Î»Î±
Ïĩ Î¬
Î¬Î½ ÏĦÎ·ÏĥÎ·
t b
Ø² Ø´
Ġ×ķ ×ŀ×
ìĶ ¨
ĠÐ¼ Ð½Ð¾
ÑĥÑİ ÑĤÑĮ
ÙĦ Ø¦ÛĴ
áĥĶáĥļ áĥĺáĥ¡
íĥ Ŀ
r Ã¤
Ġf ol
ľà¸´à¸ §à¸
Ġå¥ ³
ç« Ł
å·ŀ å¸Ĥ
3 æľĪ
å°¼ æĸ¯
èĴ Ļ
ªà¹Īà¸§ à¸Ļ
Ġà¸ Ĺ
Ĉ ï¼Į
à¥ģà¤ Ĺ
ĠÐ¾Ð» Ð´Ð¸
Ð° Ð°ÑĤ
ĠÐł Ð¾ÑģÑģÐ¸Ñı
eni u
ÃŃ s
ĠÒ Ĵ
Ġà¦ķà¦° à§ĩà¦Ľà§ĩ
Ð»Ð°ÑĢ Ð¸Ð¼Ð¸Ð·
ĠÐľ ÑĥÒ³
ĠÎĳÏħ ÏĦÎ®
Ġ ÏģÎ¿
ÏĦÎ¹ÎºÎ¿Ïį ÏĤ
ÏĦ Î¯Î±ÏĤ
A X
Å µ
à¤° à¤£
ÙĬ Ø«
ĠÐĲ Ð¹
áĢŀ áĢĶ
Ġa va
áĥł áĥĲáĥĵ
ĠáĢŁ áĢ°
ĠÒ³ ÐµÑĩ
ĠÐ¼Ð°Ñģ Ð°Ð»
ĠÑħ Ð°Ð²
àª¥ àª¾
v ar
Ġà´ıà´±àµįà´± à´µàµģà´Ĥ
Ñı Ð±ÑĢ
ì ¶
c co
ÑģÐº ÑĥÑİ
à¯Īà® ª
Ġà°°à±Ĩ à°Ĥà°¡à±ģ
áĢĻ áĢĬáĢ¹áĢ·
áĢľ áĢ¯áĢ¶áĢ¸
Ġâķ Ľ
Ð°ÑĦ ÑĤ
ĠØª ÙĪØ§ÙĨ
ĠÐ² ÑģÐ¸Ñĩ
Ġàª¤à«įàª¯ àª¾àªĤ
sch a
Ĺà¸ĩà¸ ļà¸Ńà¸¥
ĠåŁ º
ĠäºĶ åĪĨå½©
è´Ń å½©
çĨ Ł
à¤¾à¤ Ń
Ġà¦¬ à¦¿à¦ķ
Ġdi tu
Ġ" ).
Ġáĥ£áĥ ¡
Ġ×Ĳ ×ķ×ª
áĢ¸áĢ±áĢ ¡
ĠáĢĽ áĢ±áĢ¬áĢĢáĢº
y ÉĻn
ĠÐ½Ñı Ð¼Ð°
Ġo so
ëį ĺ
ãģ§ ãģį
Ġà¤¸à¤Ĥà¤ ¸
Ġà°µà±įà°¯ à°ķà±įà°¤
ĠÃŃ gy
ĠáĥĲáĥ¡ áĥĶ
Ġà¦ī à¦¦
ĠáĥĴáĥĲáĥĽ áĥĿáĥª
Ġt j
ĠÑĨ Ñĭ
ĠØª Øµ
Ġcil vÄĵ
áĢ¸áĢ±áĢ ŀ
ĠáĢ¡áĢĻ áĢ±áĢĽáĢŃáĢĢáĢĶáĢº
v in
bs p
ĠÎķ Îł
Ġg yn
Ðł Ðħ
ĠÐ Ħ
àª¤ àª¿àª
Ġb el
Ġà®ļ à¯Ĥ
Ð³ ÑĸÑı
cz enie
Äĥ n
ĠáĥĴáĥĲáĥľáĥª áĥ®áĥĲáĥĵ
à§ģà¦· à§įà¦ł
Ġà¤ķ à¤Ī
ĠÐ¾ÑĢ ÒĽ
ĠÑį Ð³Ð°
Ġ Ð°ÑĬÐ·
Ġáĥľ áĥĲáĥĻ
áĢļáĢ¹áĢ Ľ
ĠáĢħ áĢ¬áĢĽ
Ã¼n ya
Ġë ¦¬
Ġ×ķ ×ĳ
Ð¸Ð» Ð¸Ð±
ĠÑŀÑĢ ÑĤ
ĠÐ±Ð¾ÑĢ Ð°Ð¸
à´¾à´² àµģà´Ĥ
c or
n om
áĢĨáĢŃáĢ¯ áĢ±áĢĲáĢ¬áĢ·
ĠáĢ¡ áĤıáĢ¯
áĢĽ áĢĬáĢº
ÑģÑĮ ÐºÑĸ
Ðº Ð°ÑĤÐ°
Ġà°¤ à°°à±įà°µà°¾à°¤
ĠÐ» Ñĳ
æĿ Ĥ
ŀà¸§à¸ ģà¹Ģà¸
é½ Ĳ
Ġ Ćą
èĤ¡ ä»½
æ¶ ¦
æ¢ °
è¿ Ķ
«à¸¥à¸ ±à¸ģà¸
æľº åĪ¶
åĲĮ æĹ¶
Ħ à¸Ń
Ħ à¹Īà¸²à¸
Ġæ³ ¨
ļ à¸Ļ
áŀ »
¢à¸ ¡
8 9
ĠéĿ ŀ
Ġà¸Ħà¸ ·à¸Ń
à¨¿ à©±à¨
Ĭà¸µà¸§à¸´à¸ ķ
æĢİ æł·
åĲĪ æ³ķ
ä¸ĭè½½ _
æĢ Ģ
ĠagèµĮåľº åİħ
å± ı
à¹Ĩ à¹Ĩ
à¸Ļà¸ °
Ġà¸ĸ à¹īà¸²à¸
Ġà¤Ĩ à¤²à¥Ģ
Ġà§ Ń
ÛĮÙħ Øª
ÅĽ my
ÙĪØ± Ø©
Ð°Ð¶ Ðµ
Ġsi te
Ġles z
Ġà¦¨ à¦¤
ĠØ¢ÙħÙĪØ² Ø´
ë° ľ
àª¿àª¤ à«įàª°
ĠåĨ Ľ
Ġ/ /
é© ¾
Ľà¹ĩ à¸Ļà¹Ģà¸
Ġæ±Łèĭı å¿«3
2019 å¹´
çĶµèĦĳ çīĪ
ä»¥ ä¸Ĭ
à¹ģà¸ Ł
Ġç ¨
çľŁ åģĩ
Ġà¹ģà¸ ļà¸
¨à¸²à¸ ªà¸
0 4
Ġå¿ ħ
æĤ £
Ġà¤®à¤¹à¤¾à¤° à¤¾à¤·à¥įà¤Łà¥įà¤°
ä¹ĭ ä¸Ģ
à¹Ħà¸¡à¹Īà¸ ¡à¸µà¸
à¸£à¸°à¸ļà¸ ļà¸
è¶ £
Ġæ ĳ
Ġ- -
à¸Ļ à¹Īà¸²
Ġèī ²
è´ ¥
Ġçİ° åľ¨
Ġéĺ ¿
å¤§å¸Ī èµĽ
ä¹ ĺ
ĠagåĽ½éĻħäºļæ¸¸ çĻ»å½ķ
æĶ¶ åħ¥
Ġà¤ļ à¤¾à¤²
áĢĲáĢ½ áĢ±áĢĽ
Ġte Å¼
ĠáĢĳ áĢĬáĢ¹áĢ·
ĠáĢ»áĢķ áĢĦáĢ¹áĢĨ
áĢĸ áĢĲáĢ¹áĢ
áĢ±áĢľ áĢ¸áĢĢáĢŃáĢ¯
áĢŀ áĢĦáĢ·áĢº
áĥłáĥĹ áĥ®
ĠâĢ °
ĠÐ½ Ð°Ð±
k en
à°¿à° §
nÃ© es
jÃŃ cÃŃ
ĠÎ»ÎµÏĢ ÏĦÎ¬
Ġu003 c
ÏĮÏĦÎµ ÏģÎ±
Îķ Îļ
ĠÎĶÎ¹Î± Î²Î¬ÏĥÏĦÎµ
ÎºÎµÎ¹ ÏĦÎ±Î¹
el d
Ġiba jáº¹
ĠIyan jáº¹
ĠW oo
ku a
Ġr ara
Ġk á»įn
Ġfi fá»į
ĠPa y
ĠP hone
Ġng be
ĠP rin
ĠLa koko
ĠÃ Ī
ĠØ¯ Ø§Ø¯
à®¿à®ªà¯įà®ª à¯ģ
Ġà´¸ àµĹ
ĠØ¯ÛĮÚ© Ú¾
Ġà¦¬à¦¿à¦ ľ
Ġàªĺ àªŁ
ĠÃ¼z rÉĻ
ds ta
×ł ×ķ×ª
Ä« ga
áĤĬáĢĲáĢ¹áĢ ±áĢĲáĢ¬áĢ¹
ĠáĢĲ áĢ½áĢĦáĢº
ĠÐł Ð°Ò³
ĠÒĽ ÑĥÐ²
Ð¶ ÐµÐ½Ð½Ñı
ĠÃ ĸ
Ġqu y
ĠØ§ÙĦÙħ ØŃ
æ³¨ æĦı
æ¡ £
à¹Ĥà¸Ńà¸ ģà¸²à¸
±à¸ Īà¸
Ġà¤ıà¤ķ à¤¾
íķľ ëĭ¤
à®£ à®®à¯į
Ð³ Ð°Ð´
Ġel sÅĳ
Äħ d
áĥłáĥ £áĥļáĥĺ
ĠÐ´Ð¾ Ð´Ð°
Ġà´ķà´´ à´¿à´¯
zi ona
Ġgjith Ã«
Ġtra ba
Ġyi yi
Ġsi ta
Ġk Ãºn
Ġà¤Ĩ à¤¦
ÐµÐ¼ Ñĥ
ĠÎ¤ ÎŁ
Ïİ ÏĥÎµÎ¹ÏĤ
Î¹Î½ Î±Î¹
Î± ÏģÎ¯Î¿Ïħ
ĠÏĥÏĩÎŃ ÏĥÎ·
Ġf y
à§ĭ à¦ļ
Ġre p
à±Ģ à°²à±ĭ
Ġaile ra
ĠÚ©Ø± ÛĮÚº
ĠEgi pti
Ġno t
Ġf á»įwá»į
Ð½Ñĸ ÑģÑĤ
Ġàªª àª¾àª
li yi
Ġà¤Ł à¥Ģ
ĠÑģ Ð´ÐµÐ»
áĥĶáĥĳ áĥĶáĥĳáĥĺáĥ¡
Ġc m
Ġ200 5
sa le
à¦ĵ à§Ł
laru ge
Ġlai pe
Ġk iráº¹diti
Ġdo la
ĠG áº¹áº¹si
ĠÐ½ÐµÐ°Ð± ÑħÐ¾Ð´
ĠE ko
ĠA pa
ÑĬ ÑĢÐ¶
à°Ĥà°¤à±įà°° à°¿
Ġ9 5
á»įn v
iro ro
ĠØ® Ø¨Ø±
áĢŀáĢ° áĢĻáĢºáĢ¬áĢ¸
áĢŀ áĢĦáĢ¹áĢ¸
ĠáĢĲáĢĦáĢ¹áĢ »áĢķ
áĢķáĢ±áĢ« áĢĦáĢºáĢ¸
ĠE UR
os ti
Ġyi yan
ĠS lo
ÛĮ Ùĩ
à°¿à° ¶
ba láº¹
Î¸ Î»Î·
ĠÎĪ Î½Î±
ÏĢÎµ Ïģ
Î¯ Î³Î¿Ïħ
ĠÏĨ ÏĦÎ¬
ĠÎ¤ Î¿Ïħ
ĠÎķ ÎĽ
ĠÎ±Ïħ ÏĦÎ®ÏĤ
Ïĥ ÏĨÎ±Î¹
Îķ ÎĻÎ£
ĠÎłÎµÏģÎ¹ÏĥÏĥÏĮÏĦÎµ ÏģÎ±
Ïĥ ÏĦÎ¹
ÎĻÎ Ķ
ÏĥÏĦÎµ ÏĤ
ĠÏĦ Ïħ
Î¾ Î±Î½
A C
la en
Ġ6 9
êŀĮ we
ke d
Ġá¹¢ áº¹
à¶ ļ
Ġà¤¦ à¥ĭ
a wu
Ġw ÃŃ
Ġà®¨ à®²à¯įà®²
Ġà¦ĩà¦¸à¦² à¦¾à¦®
[...]
