#version: 0.2
Ġ Ð
Ð ¾
Ð µ
Ð °
Ð ¸
Ñ Ĥ
Ð ½
Ñ Ģ
Ñ ģ
Ð¾ Ð
á »
Ð »
Ð º
Ñ ĥ
á º
Ñ ı
ã ģ
Ñ ĭ
n g
Ð° Ð
Ðµ Ð
Ġ d
Ġ t
Ñ Į
ĠÐ ¿
e s
Ñģ ÑĤ
Ġ c
Ġ ,
Ġ .
Ð ²
Ã ©
Ġ Ä
ĠÐ ²
ã Ĥ
Ñ ĩ
o n
n h
e n
Ðµ Ð½
ĠÄ ĳ
Ġ Ñģ
Ð ¼
Ġ l
ĠÐ ½
e r
Ã ł
ã ĥ
Ð¾Ð ²
ĠÐ ¸
i e
Ã ¡
Ð ´
Ġ p
ĠÐ ¾
Æ °
Ġ a
Ñ ħ
ĠÐ º
Ġt h
ã Ģ
Ġ w
Ġd e
Ðµ ÑĢ
Ġ s
Ð° Ð½
Ġ v
Ðµ ÑĤ
Ġ ãĢ
Å Ĥ
c h
ĠÐ ´
o u
Ð ¿
t o
Ġ h
Ð¾ ÑĢ
Ð° ÑĤ
ãģ ®
r e
Ġ Ã
Ġc h
Ð¾Ð »
Ġ z
o s
ĠÐ¿ ÑĢ
Ġ m
ãģ Ħ
Ð¾Ð ¼
Ġ b
Ñ İ
ĠãĢ ģ
a n
Ð¸ ÑĤ
i n
i á»
Ð½ Ñĭ
ãĥ ¼
Ð¾Ð ´
o w
i s
Ġ k
ï ¼
ãģ §
ĠÐ ¼
t i
Ðµ Ð»
Ġ Â
Ġt r
ãģ Ĺ
Ð ±
Ġ n
Ð° Ð»
a s
Ñ Ī
ãģ «
q u
Ġ ÑĤ
Ä Ļ
Ġ S
Ġ nh
Ñ Ĩ
ãģ ¦
l e
Ġ ÑĢ
Ġ ãĥ
Æ° á»
u n
Ð ·
Ä ħ
ãģ ¨
Ð½ Ð¾
en t
i ch
áº ¡
Ð¾Ð ³
ãģ ª
t a
Ġ -
ĠãĢ Ĥ
Ð ¹
áº ¿
c z
t e
Ñģ Ðº
e t
Ð ³
ãģ Ł
Ġ T
a r
Ã ´
Ð¾ ÑĤ
Ã ³
ãģ Ļ
Ð¸ Ñı
i t
ĠÐ ±
Ġd i
Ġ g
ãģ Į
Ð¾Ð ¹
Å ¼
u r
ÐµÐ ¼
Ã ª
ãĤ ĭ
e in
ĠÐ½ Ð°
Ġ â
o r
Ġk h
Ð° Ðº
ãĥ ³
Ġ '
Ð¾ Ð½
i a
Ġ å
Ã ¼
áº £
Ð¸ Ð½
c i
ãģ ¯
Ġ 1
ÐµÐ ´
Ġ A
o d
Ġ ng
Ð° ÑĢ
Ġâ Ģ
Ġ f
ĠÐ ·
Ġ ï¼
á» Ļ
un d
ãģ ¾
ti on
Ġ Ñĥ
r z
a d
Ñ Ħ
i l
áº ¥
Ñ ī
Ġ ãĤ
Ġ B
Ġl a
Ġ 2
Ð°Ð ²
ãĤ Ĵ
Ġ D
Ð°Ð ¼
Å Ľ
Ġp h
l l
Ð¸ Ðµ
Ġ C
Ð°Ð ·
Ġ æ
ou r
u ng
Ġ e
r a
Ñģ Ñı
ãģ ĭ
Ã ¢
Ð ¶
Ġn a
ãģ £
Ã ¤
ä ¸
á» ĳ
ĠÐ ³
Ġ et
Ġ j
Ð» Ð¸
ãĥ¼ ãĥ
Ġ en
iá» ĩ
l i
ãĤ Ĭ
Ġ M
Ġ :
Ð¾ Ñģ
Ã ¬
Ġ und
Ð¸ Ðº
Ġ o
ãĤ Ĥ
Ġ Ñĩ
Ãª n
Ġ un
ãĤ ¹
Ġ i
Ð¸ Ð¼
Ġ ãģ
Ã´ ng
u s
ÑģÑĤ Ð²
Ġ P
ãģ Ĩ
k a
Æ ¡
ĠÐ Ł
ãĤ Į
Ð¾Ð ±
i ÄĻ
ĠâĢ Ļ
t en
Ġ N
Ð¾Ð³ Ð¾
ãĥ ĥ
á» §
Ġ Ãł
Ġ in
ĠÐ ¡
ãĤ ī
ĠÐ Ĵ
qu e
Ä ĩ
áº Ń
ãĤ ¤
Ð» Ñı
i on
ãĥ Ī
ÐµÐ ¹
Ġ ein
ĠÄĳ á»
ä º
Ð° Ñı
z y
Ġ y
Ñ į
r i
Ġ ç
Ġv á»
a k
ĠÐ °
ãĤ ĵ
o m
ãģ ı
e l
Ð¸ Ð¸
Ġv Ãł
ç Ķ
Ðµ Ðº
Ã³ w
Ġd er
æ ľ
Ġl e
Ð¾ ÑģÑĤ
ãĥ «
o l
áº §
Ð°ÑĤ ÑĮ
ä »
n i
Ð° Ñģ
ãģ į
Ġ L
Ð¾Ð º
Ã Ń
k i
Ġ è
ĠÐ ļ
Ġ F
Ġ /
ãĤ ¯
Ð¾Ð ¶
g o
Ġ 0
Ġ qu
ãĥ ©
Ġ E
ĠÐ »
ãģ¾ ãģĻ
z ion
r o
Ð¸ Ð»
Ġ x
Ġ K
m ent
ãģ ĵ
ĠÐ¾ ÑĤ
Ġp rz
i áº¿
Ġd ie
ÑĤ Ð¾
å ®
Ã ¨
Ġ é
n e
c a
ĠÐ½ Ðµ
Ã¡ c
æ ĸ
Ð¸ Ð¹
ãģĹ ãģ¦
Ġp er
Ġ G
ÑĢ Ñĥ
d z
ãĥ ª
Ġl Ãł
Ġd es
Ð¸ Ð²
ãģ ķ
Ġ W
Ġ es
Ġ Ñį
Ġ H
Ġ (
å ı
y ch
Æ°á» Ŀ
Ġc on
ĠÐ¾ Ð±
ãģ£ ãģ¦
ãģ Ĥ
ÐµÐ» ÑĮ
e i
a m
Ðµ Ñģ
ãģ§ ãģĻ
Ġth á»
Ġd o
Ġ ÑģÑĤ
ll a
t er
å ¤
Ð¸ Ñĩ
c e
ä ½
h r
Ġ )
Ð°Ð ´
u y
r Ã©
ãģ ł
t y
å Ī
ÐµÐ ²
Ġ que
Ġt á»
Ð¾Ð» ÑĮ
a l
å ħ
c j
ĠÐ¿ Ð¾
u f
ãģĹ ãģŁ
Ľ i
i o
Ð¸ ÑĢ
y m
Ġl es
Ġ il
s ch
ÐµÐ ³
áº¥ t
Ĺ ¥
ĠÐ ł
Ġãĥ »
Ġp o
ĠÐ Ŀ
e it
Æ°á» £
ãģ ĳ
ĠÐ ľ
Ġ I
ÐµÐ½ Ð¸Ñı
ãĥ³ ãĥ
Ġe l
n ie
Ġ2 0
Ð¸ÑĤ ÑĮ
an t
ãĥ³ ãĤ
Ġch e
Ð¸ Ð·
áº¡ i
Ã ¶
ãĤ Ī
Ġw y
ĠÐ ŀ
Ð¾Ð ·
ãĤ ¢
zion e
ï ¿
Ä ĥ
Ġ Ã©
g e
Ð°Ð» ÑĮ
Ġn ie
ãģ® å
Ã³ n
Ġde l
ĠÐ² Ñĭ
ï¿ ½
Ġg i
Ġz a
Ġ R
Ðº Ð°
ãĥ¼ ãĤ
Ðº Ð¸
ãĥ ¬
Ġc á»§
Ð½Ñĭ Ðµ
m a
æ Ĺ¥
g en
å Ĳ
Ð°Ð ±
n a
v e
Ġ "
ãģ Ĭ
è ¨
Ġs iÄĻ
Ġc Ã³
ou s
ĠÐ µ
b er
ãģª ãģĦ
ãģ£ ãģŁ
i d
Ð½Ñĭ Ñħ
äº º
w a
Ġa u
Ġcá»§ a
Ð¸ Ñħ
è ¦
Ġd a
Ġs e
Ð¾Ð ¿
o ÅĽ
Ġ V
ï ½
å ¹
Ð°Ð ¹
é Ģ
u m
ÐµÐ ·
Ã º
r es
ãģĻ ãĤĭ
ÅĤ a
Ð½Ñĭ Ð¹
ĠÄ Ĳ
d er
Ð¸ Ñģ
Ġp our
é ĸ
c o
j e
Ġh á»
ÑĢ Ð°
ãģ ©
z a
ĠÐ Ĳ
c k
ãģĭ ãĤī
a u
Ð½ Ð¾Ð¹
z e
ãģ Ī
ĠÐ Ķ
Ã £
Ġp ar
ãĤ ģ
Ġ ÑĦ
l ich
Å¼ e
Ġa l
Ð° ÐµÑĤ
æ Ģ
m e
o ng
ä ¼
Ð½Ð¾ ÑģÑĤ
ãĤ Ħ
j Äħ
ĠÐ¸ Ð·
Ġs u
ãģ® æ
ĠT h
t re
Ġ 3
Ð½ Ð¾Ð³Ð¾
á» ĭ
Ã¼ r
é ģ
ÐµÐ½ ÑĤ
Ġ u
a t
ãģĵ ãģ¨
ÐµÐ½ Ð¸Ðµ
Ã¬ nh
an s
ĠÐ´ Ð»Ñı
ãĥ ķ
d en
Ñĥ ÑĤ
áº ¯
Ġprz e
d i
Ġï¼ ī
ãĥ Ń
Ð°Ð ¶
Ġes t
s i
Ã¢ n
Å Ħ
ĠãĢ į
Ñİ ÑĤ
ci Ã³n
Ġï¼ Ī
i r
á» ¯
ãģ ¤
k u
Ñĥ Ð´
Ġc om
ãģ ¡
s t
ĠÐ ¢
å º
ĠÃ ¨
ÑĨ Ð¸
è ¡
Ã ²
is t
Ð° ÑģÑĤ
c y
0 0
iá» ģ
ãĤ ¿
Ð¾ Ñĩ
Ġ od
Ġd u
å ¸
ĠÐ ¶
d o
ãĤ ·
ĠÂ »
Ð¸ Ð´
Ġd as
Ġ r
ãģ Ľ
Ðµ ÑģÑĤ
å Ľ
á» ±
es t
Ġun e
ĠÐ ĺ
ich t
Ð¸ ÑģÑĤ
ãĥ Ĺ
Ġp or
å¹ ´
ĠÑĩ ÑĤÐ¾
l a
Æ°á»£ c
ĠãĢ ĳ
ĠãĢ Į
v a
w i
Ļ Ĥ
d e
Ðµ ÑģÐº
ãĤ £
Ġ O
Ñĥ Ñİ
ãĤ ı
á» ©
c ie
æ °
Ġa n
ĠÐ¿ Ð¾Ð´
æ ī
Ġ20 1
Ñı ÑĤ
Ġ Z
á» ¥
g g
s e
Ġt o
Ñĥ ÑĢ
ãģ ¿
ãģĦ ãĤĭ
Ġ re
Ð°Ð ¿
á»Ļ t
ãĤ ³
Ġs p
ĠÂ «
Ðµ Ñĩ
å Ń
ĠÑĢ Ð°Ð·
an ie
Ġd Ã©
é ĩ
Ð¾Ð² Ð°Ð½
Ġz u
e j
å ĵ
Ġc Ã¡c
ĠÐ ĳ
Ġãģ Ŀ
n o
i re
Ñĥ Ñĩ
Ġl os
ĩ º
ãĥĥ ãĥĪ
k o
Ð½ Ð¸Ðº
i nh
t Ã©
çĶ ¨
Ġm it
Ġs i
Ġ 5
ĠÑģ Ð²
å Ĩ
k ie
ç ´
Ġkh Ã´ng
ĠÐ± Ñĭ
Ġv on
æ Ŀ
rz e
m p
å ł
Ãł y
Ġ 4
Ð°Ð ³
Ġ ä¸
o b
å ĭ
p p
ĠÐ¿ÑĢ Ð¾
an ia
Ġch o
an d
ÐµÐ ±
ãĥĥ ãĤ¯
è ª
s o
Ġ Ñħ
cz y
Ġpar a
Ã ¹
Ġd en
Ð½ Ð°Ñı
è ²
ç Ľ
Ġs ur
ĠÐ¿ ÐµÑĢ
m i
ç µ
á» Ł
ĠÐ² Ñģ
b en
Ġ J
ãĥ Ĩ
Ð¸Ñĩ ÐµÑģÐº
Ġ ro
ãĤ «
u e
ĠÐŁ ÑĢ
Ð½Ñĭ Ð¼
m o
å ¾
on t
iá»ĩ n
e go
er e
Ð½ Ð°
æĸ Ļ
å ¼
Ġm o
ãģ¾ ãģĹãģŁ
ĠÄĳ Æ°á»£c
Ġ U
ÑĢ Ð°Ð½
Ġg e
Ð ŀ
Ð¿ ÑĢ
to s
an o
Ðµ ÑģÑĤÐ²
ow a
a is
è Ģ
ï¿½ ï¿½
áº ·
Ġ er
ĠÐ¿ Ð¾Ð»
en ia
Ġd ans
ãĥ ¡
Ã ±
ãģ® ãģ§
Ġ ri
ĠÑĤ Ð°Ðº
ç Ħ
r y
Ġï¼ ģ
åĪ Ĩ
Ġ rÃ©
ĠÐ ĵ
ãģ¨ ãģĦ
Æ° Æ¡
u t
c ia
Ġãģ ĵ
Ñĭ Ðµ
ch en
n y
i Ãªn
ÐµÐ ¿
ãĥ ŀ
Ġj est
on o
Ð½ Ð¸
å ¿
Ġp l
ad o
áº§ n
Ġ ist
ÑĨ Ð¸Ð¸
æľ Ī
ÅĤ o
ãĥ £
Ð¾ÑĤ Ð¾ÑĢ
æ ¥
a b
Æ°á» Ľ
å ĩº
Å¼ y
Ġp as
Ġf Ã¼r
ä¼ ļ
ĠÐº Ð°Ðº
a re
ãģĦ ãģ¾ãģĻ
Æ°á»Ŀ i
Ġa uf
it Ã©
t u
Ð ł
Ð°Ð¼ Ð¸
ci on
å Ĭ
d y
ĠÑį ÑĤ
Ġp ro
ĠãĢ Ĳ
åĵ ģ
ãĤĴ æ
ĠÐ¸ Ð½
Ġtr ong
Ã Ł
Ñĭ Ð²
Ġp od
g li
ä ¿
. .
u x
ÐµÐ ¶
i er
ãĤ µ
Ð ¡
Ñħ Ð¾Ð´
ãĥ ī
a y
Ġde lla
Ġï¼ ļ
Ġv er
äº ĭ
ĠÑģ Ð»
ãĥ ¥
oÅĽ ci
Ð´ Ð°
Ġm á»Ļt
å¤ §
Ã© e
Ġl as
a le
æĸ ¹
Ġ Ñı
Ġj ak
ĠS ch
ãĥ Ĳ
t Ã³
Ñĥ Ð¿
en to
ç ī
Ġein e
ĠÐ¿ÑĢ ÐµÐ´
Ġqu i
Ġun a
Ġng h
é Ľ
Ð Ĳ
Ñĭ Ð¹
Ġprz y
f f
ĠÐ· Ð°
Ġæ ľ
áº¡ n
ãģĤ ãĤĭ
Ñĥ Ð±
en ie
an n
Ð¸ÑĤ ÐµÐ»ÑĮ
in e
æľ ¬
ãĥ ģ
ÐµÐº ÑĤ
ĠC h
u l
å ±
Ġ ÑĨ
Ġ ä»
Ġvá» Ľi
ĠÐº Ð¾ÑĤÐ¾ÑĢ
a z
å ľ
Ġ ou
Ġn on
Ġi m
m y
Ġn o
iá» ĥ
Ðº Ð¾
ãģ Ŀ
ÅĤ y
ãģ °
Ġf a
i g
Ð½Ð¾ Ðµ
ãģĦ ãģŁ
ĠÐº Ð¾Ð¼
ÃŃ a
cj i
ol o
Ðµ Ðµ
ãĤĪ ãģĨ
ĠV er
Æ°Æ¡ ng
a tion
å į
it Ãł
ÐµÐ½ ÑĮ
dz ie
Ġa ve
a ng
æ ĻĤ
ĠÐ¿ÑĢ Ð¸
e c
ãĥ ĭ
a ch
Ð» ÐµÐ½
iá»ģ u
Ġv ous
ãģ¨ãģĦ ãģĨ
k ow
Ñ ĳ
v i
Ġs ch
å ī
Ġk tÃ³
Ã¡ s
s en
å ¯
Æ°á»Ŀ ng
a to
Ġv o
Ñĭ Ñħ
ãģķ ãĤĮ
Ġn icht
Ð° Ñħ
w o
ad a
il le
Ġp i
áº£ i
ÐµÐ³ Ð¾
n en
ä¸ Ń
Ġpl us
d ad
ĠÐ £
Ġd z
Ñĥ Ð»
ãģ« ãģª
Ãł ng
ie l
æ Ħ
en ti
Ð°Ð± Ð¾ÑĤ
ãģĤ ãĤĬ
Ñģ Ð¿
á» ĩ
n ych
Ġl o
in d
Ñĥ Ð¶
ur s
i ca
ĠâĢ Ķ
á» į
åħ ¥
h l
Ġave c
ĠÑģ Ð¿
Ġm a
ãĥ¼ ãĤ¹
i c
åĲ Ī
Ñĥ Ð¼
Ãł nh
Ġ Å¼e
ĠÐ Ĺ
s te
i en
ãĥ¼ãĥ «
Ġ ÑĪ
ãĤ ¦
ch e
ĠÐ¼ Ð¾Ð¶
áº£ n
å ½
Ġh a
v er
Ð¾ Ðµ
s zy
è¦ ĭ
Ð¾ÑĢ Ð¼
Ġc e
ä ¾
Ġng Æ°á»Ŀi
Ðµ ÑĪ
w ie
ent e
æ° Ĺ
Ġe x
ĠâĢ ĵ
ĠÐ Ľ
ãĤ į
è¡ Į
od z
Ð° ÑİÑĤ
Ġs ich
l es
Ãł n
ãģĦ ãģ¦
Ġc z
Ñĥ Ñģ
ç Ļ
Ġp r
á»¯ ng
ĠÑģ Ð¾
m en
ãĥ ĸ
Ðµ Ñħ
v o
Ġb y
Ġ 6
Ġ ?
æ ķ
ĠÐº ÑĢ
Ġw ir
Ð¸ ÑĨ
ment e
c es
Ġ ï½
ĠÐº Ð¾Ð½
ç ļ
Ġa us
Ã¡ ch
cz e
Ð½Ð¾ÑģÑĤ ÑĮ
ĠL e
Ġ 7
ÑĤ ÐµÑĢ
d a
Ġ !
ä¸ Ģ
Ð° ÑĪ
Ãł i
ĠI n
Ð°ÑĢ ÑĤ
ãĤ Ń
Ġt e
Ð½ Ð¾Ð¼
on s
ãĥ ĩ
çĦ ¡
u b
æĢ Ŀ
Ð½Ð¾ÑģÑĤ Ð¸
áº§ u
å °
Ġb e
an do
Ð ĺ
Ġp e
ĠÐ¿ Ð»
Ġ ;
ä¸ Ĭ
Ð¸Ð» ÑĮ
n ia
ÑĢ ÐµÐ¼
éĸ ĵ
ÅĤ u
a o
f t
ou t
p a
é ĥ
ĠÐ ķ
Ġnh Æ°
Ġc u
Ġ 8
Ðº Ñĥ
ãģ ĺ
ĠS ie
b y
Ð¶ Ðµ
ãĥ³ãĤ °
an ce
Ġå ¤
z za
ÑĢ Ð¾Ð²
tion s
ĠD e
ãģ Ķ
ĠE n
æ Ń
Ġj e
ĠÐ¿ Ð¾Ñģ
á» ĵ
in a
æ Ī
ĠÐ¸ Ð»Ð¸
Æ°á»Ľ c
u o
Ġ ÅĽ
æ ³
Ã¨ s
l o
ung en
ÑĢ Ð¾
zion i
ãĤ ¸
Ð½ Ñı
ĠE s
Ã¢ y
ĠÐ ¤
ĠãĤ ¹
Ġs z
Ã© s
ĠÑį ÑĤÐ¾
ãĥ ł
k t
ll o
ãģ§ ãģį
áºŃ n
ĠD ie
cion es
ĠÐ¾ Ñģ
s z
ur a
Ã¨ re
ãģ® è
Ð Ŀ
ÐµÑĤ ÑģÑı
ĠÄĳ á»Ļ
Ġn e
es z
å Į
Ñİ Ñī
c u
Ġau ch
Ð°Ð½ Ð¸Ñı
å ¥
ãģ§ ãģ¯
Ġb ei
en d
Ð¸ Ñİ
ow ie
Ġh o
in o
ĠÐ³ Ð¾Ð´
ãĥ §
Ġo b
in i
ç ¤
ĠÐ¾ Ð´
ĩ ª
Ġa c
Ã´ i
m er
Ð» Ñİ
é ¡
Ġt ak
Ġnh á»¯ng
t s
ãĥ¼ãĥ Ī
a li
Ð° Ñĩ
ĠãĤ ¢
Ð ļ
ĠÑĢ Ð°Ñģ
Ġs o
w ia
ãģ Ń
å ·
Ð¸ Ð»Ð¸
u ch
qu es
åł ´
Ðº ÑĤ
p er
ĠA n
an i
Ð°ÑĤ ÐµÐ»ÑĮ
a nh
çĶ Ł
Ð² ÐµÑĤ
Ġde m
ĠÑĤ Ð¾
áº¿ n
Ð ¢
an e
ĠÑĤ ÑĢ
ãĤ »
ĠL a
ãģķ ãĤĵ
é Ļ
Ġp ra
Ð ķ
Ñģ Ð»
b e
b le
Ð°Ð» Ð¸
ĠS p
ãģ® ç
i te
á» ķ
ĠÐ¸ Ð¼
Ġs t
Ġm e
ÑĢÑĥ Ð³
p r
å £
ĠE l
iáº¿ t
ãĥ³ ãĥĪ
ĠÐ §
or t
« ĺ
Ġ 9
Ġ1 0
r u
Ð¿ Ð»
Ð°ÐµÑĤ ÑģÑı
ãĥ Ł
Å ©
ãģ« ãģ¯
Ġs ta
ĠÐ Ń
b re
á» Ń
Ġ or
ĠÐ² Ð¾Ð·
ĠB e
ãĤ °
Ðº Ð¾Ð²
e m
çļ Ħ
ĠÑĢ Ð°Ð±Ð¾ÑĤ
ta r
Ġa r
áºŃ t
Ð¾Ð»ÑĮ ÐºÐ¾
ĠR e
Ġd la
ÑĨ Ð¸Ñı
p e
Ð¸ Ð±
ãĤ ª
Ð¸Ð½ Ð°
Ã¡ n
w y
is e
ĠÑģ Ð¼
Ã© r
ãĤ §
Ð½ Ð¾Ð²
ĠÄĳ Ã£
b i
Ð³ ÑĢ
Ġ ich
a hr
Ġ. ..
el le
Ġãģ Ĭ
å® ļ
Ġm i
ÑĤ Ð¾ÑĢ
t es
ĠÑģ ÑĢ
ç ľ
t to
Ġro z
ãĥ ĳ
Ð³ Ð¾
a ge
ãĤ ¨
Ġde i
ÃŃ nh
ow e
ung s
is s
ĠÐ° Ð²
id e
t r
æĢ §
ĠÐ½ Ð¾
n ym
æ¥ Ń
Ġdi es
Ð°Ð¹ ÑĤ
Äĥ ng
ĠÑģ Ð°Ð¼
Ã£ o
èĢ ħ
Ġcom o
Ġqu es
oÅĽ Äĩ
u re
ĠÐ± ÑĥÐ´
Ġw ie
Ñĭ Ð¼
ç ķ
ĠP h
Ġp rÃ©
id ad
t ti
Ð¾ÑĢ ÑĤ
Ġw er
ĠÄĳá» ĥ
Ð´ ÐµÐ»
os ta
a j
Ġ ãģ¨
ĠÐ» Ñİ
c tion
ion e
å ĳ
Ġ |
et te
et z
Ġm Ã¡s
ĠÑĥ Ñĩ
Ġs a
Ŀ i
ĠÑģÐ² Ð¾
cz ne
ä½ ľ
s a
ç Ĳ
Ã© es
Ð» Ð¾
ĠÃ ¼
os t
áº¿ t
è ©
ar a
Ñĥ Ñī
on n
ĠS e
ãģ§ ãĤĤ
Ġc zy
Ñĭ ÑĤ
æ ł
gg i
cj a
ãĥ Ĭ
Ġes ta
es ch
Ð¾ÑģÑĤ Ð°Ð²
s kie
in s
Ġthá» ĥ
Ġ %
æī ĭ
ĠÑģ Ðº
Ġt y
g u
æ ĺ
ll en
Ñģ Ð»Ð¸
al es
ĠÐ¾ Ð½
è ³
Ġs ono
ie j
Ġa v
er n
æ Ľ
Ð¾Ñģ Ñģ
Ðº Ðµ
Ġ {
Ġ }
Ġ #
ãĥ ĵ
ĠT r
Ð° ÑĨÐ¸Ð¸
ĠL es
an te
j a
Ð¾ÑĤ ÑĢ
å Ģ
Ġod er
á»ĳ i
ow y
å¸ Ĥ
Ð°Ð½ Ð¸Ðµ
ãģ ļ
to w
ĠÐ´ Ð¾
Ġt od
ãĤ ĥ
è ¿
Ġs ont
Ð°Ð½ Ð¾Ð²
ti g
ĠN g
g i
Ð°Ð» Ð°
é ł
áº ©
Ñ Ĭ
Ġp re
ãģª ãģ©
w e
Ã¹ ng
ãĤ¤ ãĥĪ
Ð¾Ð»ÑĮ ÑĪ
Å º
ãĥ »
ãģĹ ãģĦ
Ġpi Ã¹
çī ©
Ġs er
h en
ia ÅĤ
ĠN h
ÐµÐ» Ñı
Ġ ent
ÑģÑĤÐ² ÐµÐ½
ãĤ ĩ
s ze
Ġ1 9
ĠÐ¾ Ð¿
Ġa pp
Ġ ]
çĲ Ĩ
Æ¡ n
Ð¾Ð¼ Ñĥ
m os
u je
Ġ um
Ð¾Ð»ÑĮ Ð·
j er
Ġå ®
te ur
or es
ãģ¾ ãģĽ
Ġg r
Ð½ ÑĥÑİ
k Ã³w
Ġ Q
ÐµÑģ Ñģ
Ġ ra
è »
Ð¸ Ð³
t is
c er
ĠÃ¼ ber
ĠÐ· Ð°Ðº
s ki
åı ĸ
Ġ res
ĠÐ²Ñģ Ðµ
Ġå ħ
iá»ĩ t
ÑĢ Ð°Ð·
g a
éĩ ĳ
m es
ÑģÐº Ð¾Ð¹
Ġc Ã´ng
è¨ Ģ
h e
s ta
Ġ1 2
Ð¾ Ñı
ãĥ Ķ
Ġm ais
id o
n Äħ
é £
Ñĥ Ð½
áº ½
i ng
ãĥ¼ãĥ ī
ÑģÐº Ð¸Ð¹
i v
é Ŀ
Ð Ĵ
ĠE r
Ð Ł
ÐµÐ» Ð¸
Ġn as
l ia
l Ã©
to r
ĠÐ¿ Ð¾Ðº
ÐµÑĢ Ð¶
åŃ Ĳ
á»Ļ i
\ \
r Ã³
ĠÐ´ Ð²
er t
p o
ãĥ¼ãĥ ł
Ġth u
i res
Ġ [
è ī
ÑģÑĤÐ² Ð°
en n
ãģ¾ãģĽ ãĤĵ
ra tis
er o
ÑĨÐ¸ Ð¾Ð½
Ġcom p
Ġb áº¡n
ÑģÑĤ Ð°Ð²
i Äħ
Ġ on
ĠU n
ãĥ³ãĥ ī
Ð¸ÑĢ Ð¾Ð²
ci o
Ġs ind
Ð» Ð°
Ġvo tre
d os
ä½ ¿
an y
á»ĳ ng
Ġt out
Ð» Ðµ
è £
a ÅĤ
s ion
ĠP or
ãĤĮ ãĤĭ
ĠÐµ Ð³Ð¾
Ġh at
x o
ad os
our s
Ġde ll
ĠP o
ÑĥÐ» ÑĮ
á» ī
Ġs on
Ġo p
Ġ =
åĭ ķ
ĠÐ¿ Ð¾Ð¼
rz y
Ð¸ ÐµÐ¼
l is
Ġs c
ĠG e
ç ¨
Ġtá» «
Ġprze z
Ð¾ ÑĪ
åī į
Ġm ar
Ñĥ ÑĪ
Ð¸ÑĤ Ðµ
ide os
Ġ Y
Ġp ue
h n
ä½ ĵ
m ento
ÅĤ ad
Ð» Ð°Ð´
Ġf or
ĠÐ¿ÑĢ Ð°Ð²
ãģ¨ æĢĿ
Ġn Ãły
ãĤ¹ ãĥĪ
ou v
Ġ1 1
ÑģÑĤ ÑĢ
a us
os z
Ġé Ģ
Ð¾Ð» Ð½
Ġwer den
é «ĺ
Ġs k
z z
Ð» ÐµÐ½Ð¸Ñı
u i
Ġ ï¿½
Ġna j
Ġå Ĳ
on e
ĠÐ¿ÑĢ Ð¾Ð´
åĨ Ĩ
æ ´
ĠÐ± ÐµÐ·
c ul
Ð¾ÑĢ Ð¾Ð´
Ġn ous
ãĥĥ ãĥĹ
Ġv or
Ã ½
ãĤ ±
o is
Ġt ut
Ð¸ÑĢ Ð¾Ð²Ð°Ð½
or a
ç ·
dz i
Ã¡ i
ĠÐ² Ð¸Ð´
ãĥ į
er a
Ã¶ n
ti que
ĠÐ½ Ð¾Ð²
ãĥķ ãĤ
ent es
ĠÐ² ÑĢÐµÐ¼
ãģł ãģĳ
£ Â
Ġl á»
Ġ Å
a g
ä» ĺ
ĠI l
Ġk o
æ ¸
c as
ĠÐ¾ ÑĢ
Ġal s
jÄħ c
2 0
Ġm á»
Ñı Ð·
an a
ç¤ ¾
ĠÐ¸ ÑģÐ¿
åĽ ½
u jer
au x
c ar
Ġhá» į
ĠC on
Ġs us
Ð¾Ð¿ ÑĢ
Ġau x
s er
Ñĭ ÑĪ
am i
Ġa d
Ð°Ñģ Ñģ
Ġ" :
Ġï¼ Ł
çĽ ®
Ġna ch
Ð¾ÑģÑĤ Ð¸
Ġn el
ĠÐ´ ÑĢÑĥÐ³
â Ģ
æ µ
Ã¡ t
Ã± o
Ġp ow
Ġtr a
çĻ º
te l
ĠÐ ¥
ar i
ĠÐ´ Ð¾Ð»
nie j
ou ve
ĠA r
æ Ĭ
á»ĳ c
c os
ti f
ĠÐ¼Ð¾Ð¶ ÐµÑĤ
ĠS t
éĥ ¨
ĠÐ¼Ð¾Ð¶ Ð½Ð¾
Ġm on
Ã¼ n
ĠâĢ ľ
b a
Ð» Ð°Ð²
ķ ·
ĠÐ¾ Ñĩ
t ra
Ð°Ð½ ÑĤ
ç §
r on
Äĥ m
Ñĥ Ñħ
ĠÃ ª
ĠãĤ ·
ÑģÐº Ð¾Ð³Ð¾
n oÅĽci
id a
é ļ
Ġs ein
Ð½ÑĭÐ¼ Ð¸
ÅĽ ci
Ġc as
éĢ ļ
Ð¾ ÑģÐº
Ð°Ðº ÑĤ
p os
Ã¡ ng
Ð Ķ
ad z
Ðµ Ñī
r os
Ã¤ n
åĽ ŀ
Ġp os
Ð´ Ðµ
ãĥ Ģ
Ġa s
ãģª ãģı
ne j
Ġg iá»
Ð¾Ð± Ñĭ
ant s
ent a
Ġ ãģ¾
Ġs ie
åŃ ¦
r as
Ð°ÑĤÑĮ ÑģÑı
Ġor az
tu re
s ka
i ta
Ð¾Ð³ Ð´Ð°
ä ¹
Ġkh i
en cia
p h
ne go
ãģ§ãģĻ ãģĮ
è ĥ
ĠE in
ĠÑį Ðº
ar d
ĠÑģ Ð¾Ð±
Ġa p
er s
ç «
Ġa lla
f or
Ð ľ
Ñĥ Ðº
Ð°Ð¶ Ð´
ĠW y
Ġes te
ï ¾
ç Ł
ĠÄĳ áº¿n
Ġa i
ÑĦ Ð¾ÑĢÐ¼
Ġc o
Ð»Ñİ Ñĩ
c on
ur ch
Ġãĥ ķ
ĠÐ½ Ð°Ð¿
u d
æ Į
ĠJ e
ll es
Ñī Ðµ
ĠâĢ Ŀ
ti v
ãĤĮ ãģ¦
ÐµÐ½ Ð°
Ð¼ Ð¸
u est
g ar
ĠãĤ ³
ng e
æ §
Ġgi Ã¡
Ð½ Ðµ
Ã© ra
ãĥ ¯
Ð¿ÑĢ Ð°Ð²
ãĥ Ŀ
u er
ÐµÐ½ Ð¸Ð¸
od u
á»© c
Ġdel le
Ð¸ÑĤ ÑģÑı
ãĤĤ ãģ®
Ġdas s
Ġk on
ment s
ÑĤ ÑĮ
ãĤ º
Ã© n
Ġ os
Ġå ı
æ ĥ
Ð¸ Ð¿
¡ Â
áºŃ p
Ã± os
åº ¦
en za
Ð° ÑİÑī
Ġje d
en s
ĠãĤ «
ĠÑģ Ð¾Ð²
Ġa m
æ ŀ
Ġ us
ÑĢ Ð°ÑĤ
Ġvá» ģ
ä¸ ĭ
ÑĢ Ñı
ĠÃ© ta
k on
Ġp res
æ İ
re i
ĠÐºÐ¾Ð¼ Ð¿
Ð¸Ðº Ð°
Ã³ ÅĤ
Ð½Ð° Ñĩ
ãĢ Ĳ
1 0
ch t
Ġi mp
ãģ ¹
Å© ng
ĠÑģ ÐµÑĢ
k e
ãĤĬ ãģ¾ãģĻ
Ġ1 5
ĠÐ· Ð°Ð¿
Ġs Äħ
Ġpor no
ad as
u g
Ġãģ Ĥ
ãĥ ¢
ĠÐ¾ Ðº
a c
æ ¯
Ġg ia
å ķ
Ġb es
Ã §
ÑģÑĤÐ² Ð¾
ĠãĤ µ
s p
Ġr is
i Ã³n
Ġæ Ĺ¥
Ð¾Ð» Ð¾Ð³
: :
æ ±
Ð¾ Ñī
r an
ĠÑĤ Ð¾Ð»ÑĮÐºÐ¾
åĨ ħ
en i
u is
iáº¿ n
ĠÐł Ð¾ÑģÑģ
Ġä» Ĭ
ÑģÐº Ð°Ñı
Ġ \
ĠÐ ¯
è ĩª
or s
Ð² Ð¾Ð´
j ÄĻ
Ġwir d
ĠÐ± Ð¾Ð»ÑĮÑĪ
s on
ãģĹ ãģ¾ãģĻ
e k
æ ı
et to
ÐµÑĤ ÑĮ
ĠC om
ĠlÃł m
æĦ Ł
ob re
ÄĻ p
Ã¤ t
æĿ ¥
vo ir
ÐµÑĢ Ð°
Ġcom e
Ġ á»Ł
ĠÐ´ ÐµÐ»
è ¾
ci os
m u
ÑĢ Ð°Ð²
åº Ĺ
Ġc am
ãģ¾ ãģ§
h t
Ġent re
Ð³ Ð°Ð½
Ġa le
is ch
å¤ ļ
Ð° ÐµÐ¼
Ġan che
Ġb ien
ĠÐ² Ð¾
Ġt ym
Ã© ri
ĠD as
ãĥ Ļ
z ia
ĠÐ¿Ð¾Ð» ÑĥÑĩ
Ġdz ie
i b
ç Ń
ãģĵãģ¨ ãģĮ
Ġz e
áº¥ y
ÐµÐ½ Ð½Ð¾
ĠA us
ĠP ar
ÑĤ Ð¾Ð¼
Ġt ien
ur es
åı ¯
Ġin ter
ÑģÑĤ ÑĮ
Ġt áº¡i
Ã¼ ck
a Å¼
Ð» Ð°ÑģÑĤ
ãĥ© ãĤ¤
ĠÃª tre
Ġd is
Ð¸Ðº Ð¸
ĠktÃ³ re
æ Ķ
is chen
Ð¸Ð¼ Ð¸
ci as
Ġp ri
Ġc áº£
ãģĹ ãĤĩ
ĠÐ¿ÑĢ Ð¾Ð²
Ġb ÄĻ
ÑĥÐ»ÑĮ ÑĤ
Ġæ ĸ
cy j
ab le
åľ °
an no
ĠÐ¸Ð½ ÑĤÐµÑĢ
Ġa b
Ġn i
iá»ĩ u
Ð¸ ÑĢÑĥ
ra w
ĠÐ¶ Ðµ
à ²
áº ±
i que
Ġw ar
Ġper o
ĠÑĢ ÑĥÐ±
ÑĢ Ð°Ð¼
ãģ¨ ãģĹãģ¦
en ce
cj e
Ð¾Ð² Ð¾ÑĢ
u es
szy st
Ð°Ð½ Ð´
a p
è Ń
Ġf o
g t
it s
w w
Ġl ub
Ð¾ÑĤ Ð¾Ð²
f er
Ġå¤ §
Ġs áº½
ĠÐ»Ñİ Ð±
Ġth e
å® ī
c t
ãģĭ ãģ£ãģŁ
ÐµÐ½ Ñĭ
a in
Ġz um
ĠM ar
å¯ ¾
Ġc ette
Ð Ľ
Ġ) .
ãĥ¼ãĤ ¸
Ġa ll
0 4
Ð»Ð¸ Ñĩ
Ġï½ ŀ
å£ ²
il l
èĥ ½
ÐµÐ½ Ð¸Ð¹
ow ych
on d
ĠA l
ĠÐĿ Ð°
è¦ ģ
Ġs am
ut as
Ð¸ ÑĪ
Ġs obre
Ġp la
Ġein en
ÐµÐ¼ Ñĥ
gg io
ÑıÑĤ ÑĮ
ĠN ie
Ġm Ã©
Ãª u
ĠÐĴ Ñĭ
ĠÐŀ ÑĤ
Ð¼ ÐµÑĢ
ãģĹ ãģ¾
Ġfa it
Ġp om
f i
ç ©
ĠT e
ĠÐŀ Ð±
ĠÐ² Ð½
Ġd á»¥
Ð¿Ð» Ð°ÑĤ
Ġh ab
ĠÐ½Ð° ÑĪ
ĠÐ¡ ÑĤ
or i
æĸ °
åĬ Ľ
ĠÐ¿ Ð¾Ð²
Ġk om
Ġ20 0
Ġcom me
Ġk ann
Ġb ar
ĠÐļ Ð°Ðº
ï¼ Ĳ
ä¸ į
Ġ0 3
Ã² ng
Ð¸ Ð¾Ð½
ãģ ³
an ti
Ðµ ÑĨ
Ġz ÅĤ
ty cz
z en
© Ł
ĠÐ½Ð° Ñĩ
j et
ĠÄĳ Ã³
Ġfa ire
å¾ Į
ĠÑģÑĢ ÐµÐ´
Ġbe z
Ġper son
ĠÐ±ÑĥÐ´ ÐµÑĤ
Ãª me
ni k
t ro
Ġãĥ ¬
Ð¾ÑģÑĤ ÑĮ
Ġãĥ ĸ
te t
p ie
ï¼ ĳ
ãģŁ ãĤģ
ĠN o
ĠÑĥ Ð´
Ġnh Ãł
Ġw iÄĻ
Ð°Ð¹ Ð½
i ent
ĠÐ¸ Ñħ
Ġd al
Ġm an
mi ento
Ġ1 3
ĠÐº Ð¾Ð»
ãĤĮ ãģ°
Ġc Å©ng
h al
Ġmo Å¼
a ciÃ³n
ĠÐ± Ð¾Ð»
ãģŁ ãģĦ
ol a
ãģ »
g es
Ġg ratis
ad or
Ġ ont
ÐµÑģ ÑĮ
Ġm Ãł
é ħ
is ta
Ġpo z
ĠP ro
ãģ® ãģ¯
ĠÑĩ Ð°ÑģÑĤ
m as
å½ ĵ
Äĥ n
Ġprze d
i to
sch a
ãģĹãĤĩ ãģĨ
ar io
Äħ d
Ġa t
Ð¸ Ð½Ñĭ
ÑĤ Ð¾Ð±Ñĭ
Ġc or
µ Ã
Ġh Ãłng
å® Ł
h re
as z
Ġb lo
ĠãĤ ª
pa Ã±
t h
å¤ ĸ
ĠâĢ ŀ
Ġ1 4
Ð» ÐµÐ½Ð¸Ðµ
cia l
ĠQ u
ãģ Ĵ
ou p
Ð¾Ð²Ð°Ð½ Ð¸Ñı
uy á»
Ġt u
ãĥ Ħ
Ġ1 8
ÐµÐº Ñģ
ĠD E
en er
Ġac c
Ðº Ð¾Ð¹
åł ±
ĠÐ³Ð¾Ð´ Ð°
Ġc ar
Ð² ÐµÑĢ
us z
çĦ¡ æĸĻ
æ³ ķ
ÐµÐ¶ Ð´
p ar
g ra
ĠÐº Ð»
ĠvÃł o
Ã¶ r
ãģª ãĤĵ
ãĢ Į
ar z
ÐµÐ» ÐµÐ¹
ãĤ¹ ãĤ¿
ĠdÃ© c
ĠÐº Ð¾ÑĢ
Ġz na
c l
ãģķ ãģĦ
g er
åħ ¨
Ð £
Ð¾Ñģ ÑĮ
c ciÃ³n
ĠD er
ãĥ§ ãĥ³
p is
ĠÐ³ ÑĢ
Ġc os
Ġw p
ãģĪ ãĤĭ
t res
Ðº ÑĢ
ĠÄĳá» ĭ
p owie
éĸ ¢
am os
ow anie
ĠÐ¿ÑĢÐ¾ Ð¸Ð·
Ġv ideos
E R
z ar
Ġno ch
Ġw szyst
to ri
çĶ »
Ð» Ð°Ð³
Ġ &
an de
è ¶
ut sch
ĠÐ ¦
è¨ Ī
Ð» ÑĮ
w er
Ġan n
s k
ãģ« ãĤĪ
ĠÐ° Ð½
ti ca
ÑĥÐ¿ Ð¸ÑĤÑĮ
ĠÐ¼ ÐµÑģÑĤ
Ġein er
áº «
ĠÃ© tÃ©
W W
ĠP ol
Ġb o
j o
Ġ0 0
Ġ +
g l
æĪ Ĳ
il i
ĠÐ´ Ð¾Ð¼
Ġtr Ãªn
æ Ł
Ñı Ð²
Ġs in
ĠÐ¿ Ð¾Ð·
an ych
Ġk Ã¶n
Ġe mp
è ģ
Ā Ā
es s
ÐµÐ» Ð¾Ð²
æ ²
ujer es
t rz
Ġm ej
Ġ1 6
ĠÐ¼ Ñĭ
ãģ ¸
on a
ĠÐ ¨
ç ¶
e b
ĠÐ´ ÐµÑĤ
u en
Ġl áº¡i
ĠÐ» ÐµÑĤ
Ġmo Å¼e
ia mo
on ne
g os
ãĤ ¬
or o
Ĥ ¬
ĠP our
ĠÐ¿ Ð¾ÑģÑĤ
Ã¨ me
e ch
æķ °
ow o
Ð± Ð¾ÑĢ
áº· t
Ġg li
Ġl le
Ġcz as
Ð¸ ÑģÐº
b eit
or d
å® ¶
Ð¾Ð± ÑĢ
çľ Į
æī Ģ
ob ie
Ġm is
m m
ÑĨÐ¸ Ð°Ð»ÑĮ
Ġnh iá»ģu
Ġtr Ã¨s
te m
ĠÐ¼ ÐµÐ½
Ð¼ Ð¾Ð¶
ĠL os
et ti
è ¼
Ġâ Ĥ¬
v en
u jÄħ
Ġeine m
ãĥ Ľ
ÑĥÑİ Ñī
ãĥĩ ãĤ£
Ġs es
ĠÐ¼ Ð°ÑĤ
ãĤĵ ãģª
Ð¸ Ð¶
t ta
åĲ į
le ment
áº »
Ñģ ÑĮ
Ġm uy
b o
ä» £
ĠÑĤ ÐµÐ¼
ĠÐ¿ÑĢ Ð¾ÑģÑĤ
Ġz ur
Ġy a
Ġpar ti
Ñĥ Ð·
Ãł o
dz o
è Ĥ
ÐµÐ¹ ÑģÑĤÐ²
Ġt ou
l ko
od o
ä¾ ¡
k eit
Ð¸Ð· Ð½
od e
u Å¼
Ġ) ,
æľ Ģ
ĠÐ¾ÑĢ Ð³Ð°Ð½
Ġm Ãªme
s za
ĠÐ²ÑĢÐµÐ¼ Ñı
ant es
r od
Ì ģ
Ġs á»ĳ
Ġe d
ub li
z i
Ġâ Ĺ
ç Ĥ
O N
ch er
ĠÐ¸ÑģÐ¿ Ð¾Ð»ÑĮÐ·
ent s
Ġc re
f Ã¼
éĸ ĭ
Ġt ego
m in
Ð¸Ð» Ð°
áº¥ p
t Ãł
ä¿ Ŀ
Ġm uch
cz a
Ð¸ÑĤÑĮ ÑģÑı
Ġn ur
Ġu ti
ãģĹãģ¦ ãģĦãĤĭ
Ð¸Ñģ ÑĮ
w ar
Ð¾Ð½ ÑĤ
ĠÂ ¿
us e
æ§ ĺ
ĠK h
Ġt am
ÐµÑĢ Ð¸
Ð½ ÐµÐ¹
Ġ ãģ®
ÅĽ Äĩ
Ġun ter
E S
o p
å¥ ³
ãģĤãĤĬ ãģ¾ãģĻ
ĠÐ¾Ð± ÑĢÐ°Ð·
Ġc i
end re
ĠÐµ ÑģÐ»Ð¸
t ura
Ġn Ã³
ĠÐ¾Ð± ÑĬ
owa Äĩ
Ġel le
ĠÂ Ń
Ġa ber
ll i
ĠÑĥ ÑģÐ»
Ġse xo
te urs
Ġv e
ãģª ãĤī
i m
ĠÑĩ ÐµÑĢ
ç ¾
ein e
ĠÐļ ÑĢ
ÑĤ Ð¸
ĠãģĿ ãĤĮ
Ġs wo
u el
u to
Ġaus si
éĢ ģ
iá»ĩ c
Ġn ue
Ġãĥ ŀ
g ne
Ġz ak
ĠG r
ĠÑĥ ÑģÑĤ
Ġblo ck
é ķ·
g un
ĠÑĤÐ°Ðº Ð¶Ðµ
t ri
Ġpe ut
Ġz d
Ġd urch
ãģ§ãģį ãĤĭ
ce j
Ġques to
en do
ĠÐ¿ÐµÑĢ Ð²
A R
O S
c to
ĠâĢ ¦
ãĢ ħ
áº ¹
Ġha ben
Ġs y
Ġtod o
Ġç Ķ
ÑĥÑī ÐµÑģÑĤÐ²
a i
ÅĤ Äħ
è¨ ĺ
al itÃ©
Ġse g
Ġcom m
Ð³ Ð¸
Ġãĥ Ĳ
Ð» ÐµÐ´
bi le
áº£ o
Ġme hr
or zy
ãģĪ ãģ¦
Ġpe u
ĠP ara
Ð¼ ÐµÐ½
ãģ« ãģ¤
ec es
gli o
Ġz as
Ð ĳ
Ġ1 7
Ñĥ ÐµÑĤ
t t
ãģĦ ãģĦ
ĠãĤ ¤
Ġn os
Ġn uest
y s
ti vo
ĠÄĳ áº§u
ĠÐ· Ð°Ð²
Ġun s
Ã ®
ä» ¥
us s
Ã³ b
ĠÐ½ Ð°Ð·
ÃŃ as
Ġ *
Ġex p
ur o
, "
åĮ ĸ
ĠH o
ĠP er
Ð¼ Ð°
O M
iej s
Ġcon s
ĠA b
ÑĥÑĩ ÑĪ
Ã¡ o
è Ī
ÐµÑĤ Ð°
Ġs ou
ĠM e
k ÄĻ
ĠÐ¼ Ð¸Ð½
Ġsu l
Ġs Ã©
Ġo g
ĠÐºÐ¾ÑĤÐ¾ÑĢ ÑĭÐµ
bi Ã©n
ĠA uf
£Â ¬
Ä ©
Ġpr odu
ãģ« ãĤĤ
Ġf il
ĠÐ³ Ð¾ÑĢÐ¾Ð´
Ġr en
an z
ow ej
æľ Ł
te ment
ĠÑĤ ÐµÑħ
ĠM it
Ġty lko
ĠF r
Ð°Ð½ Ð¸Ð¸
ch i
çŁ ¥
Ġt er
Ġch á»ī
ĠÐµ ÑģÑĤÑĮ
Ġs ans
ãĥ İ
ĠN e
E N
t as
ĠÐ¿ÑĢ Ð¸Ð½
å Ł
b ie
Ġe ff
ĠÑģ Ð°Ð¹ÑĤ
Ð ĵ
Ð°ÑĤ Ð¾ÑĢ
am y
r ar
ti c
ÑĨ Ð°
ÅĽ cie
Ã¤ r
in es
ĠãĤ ¯
Ãº ng
ĠÑı Ð²
Ġãĥ ¡
æ ©Ł
et ta
le j
Ġde ux
C I
ic as
a ll
ãĥ ı
ta l
ĠÐ½ Ð°Ð´
Ġw sp
ÃŃ s
Ġal le
w Ã³
ãĥª ãĥ¼
ĠÑĤ ÐµÐ»
Ġs á»±
an to
ow i
è© ±
ĠÐ² ÐµÑĢ
on c
Ġne lla
is che
ow ania
æ Ĺ
ĠÐ¿ Ð¾ÑĤ
c ri
Ġle ur
ĠÐ´ Ð°Ð½
\\ \\
ni ka
ĠÑĩ ÑĤÐ¾Ð±Ñĭ
wi Äħ
ou ver
Ġl i
ä½ ķ
Ġnh áº¥t
h er
Ġp a
ĠãĤ ¨
Ð° ÑĨÐ¸Ñı
s ere
ãģ£ãģ¦ ãģĦãĤĭ
Ġg ra
ĠÐŁ Ð¾
k en
Ã »
Ð¼ Ð¾ÑĤÑĢ
åĪ ©
ĠÐ´ Ð¾ÑģÑĤ
m et
Ġ Å¼y
cion al
ı ¾
ĠÄĳá» ĵ
n er
on y
Ġre c
scha ft
ĠÑĢ ÐµÐ³
ĠbÄĻ dzie
_ _
ĠÐ¸ Ð³ÑĢ
ci p
Ġb á»ĭ
ç ¥
Ġo k
Ð°Ñĩ ÐµÑģÑĤÐ²
ĠÐ½ ÐµÐ´
lich e
der e
ta do
å İ
al is
ĠÑĩ ÐµÐ»Ð¾Ð²
a w
ãĥ¼ãĤ º
Ġo f
pr Ã¨s
ĠÐ± ÐµÑģ
ĠÑĥ Ð¶Ðµ
wie t
å¼ ı
Ġes sere
z na
ĠÐ¾Ñĩ ÐµÐ½ÑĮ
ĠD es
å¤ ī
ari os
ĠÐ½ ÑĥÐ¶
é£ Ł
Ġj uÅ¼
Ã Ĳ
Ġn Äĥm
Ġn om
ĠÐ° ÑĢ
lich en
n oÅĽÄĩ
ãĥ ľ
Ġpri mer
Ð¾Ð½ Ð°
ãĤ ½
Ġn uo
Ġm iejs
- -
ãģĭ ãģª
h men
Ð» ÐµÐºÑĤ
g na
Ġm ad
èĢ ĥ
aj o
Ã§ Ã£o
Ð°Ñģ ÑĮ
Ġf r
mp s
c ol
ÑĨÐ¸ Ñİ
Ġç §
Ġbar dzo
Ġj our
ani u
ÑĢÑĥ Ð´
Ġh iá»ĩn
Ġtr ab
Ġb is
ãĤĮ ãģŁ
ĠÐ² Ð·
to re
A N
Ġ X
f e
Ġc a
Ð¸ÑģÑĤ ÐµÐ¼
éĿ ¢
el t
Ġ >
Ġque l
kie m
ĠÐ´Ð¾Ð» Ð¶
Ġest Ã¡
le p
Ġpro f
ãĥ ļ
ÃŃ ch
g od
a it
ĠÐ½Ð° Ñģ
Ãº n
ti k
ç« ĭ
en e
ĠÐ¿ Ð°ÑĢ
Ġsp o
s ent
at z
Ð¸Ð½ Ð³
Ġm ol
ĠO d
Ġdá»¥ ng
k tu
å¿ ĥ
ÐµÐ½ Ð´
Ġw z
x x
ĠSe xo
as ta
Ġg es
p tion
ĠÐ¾Ð± Ñī
èī ¯
d u
ĠÐ¼ ÐµÑĤ
Ġ": "
ĠãģĿ ãģ®
Ġr u
ĠÐ¾Ð± Ð»Ð°ÑģÑĤ
Ġc es
Ð»Ñı ÐµÑĤÑģÑı
er en
Æ°á»£ ng
on i
ä¿ ¡
Ġo ff
å¼ ķ
p or
/ /
æ ®
ĠÂ» .
ĠÐ ĸ
Ð¾Ð² Ð°ÑĢ
ĠÑģ Ñĩ
ou n
æł ¼
Ġæ Ŀ
l os
ĠÐĿ Ð¾Ð²
Ġå °
k ÅĤad
ĠÄĳá»Ļ ng
ĠÑįÑĤ Ð¾Ð¼
Ĩ åĵģ
b t
Ð°Ð» Ð¸Ð·
ãģ£ ãģ¨
ãģķãĤĮ ãģ¦
Ġpe ti
ĠÑģÑĤ ÑĢÐ°Ð½
ĠS z
n ak
f ica
ĠÃ ī
cz Äħ
l as
ĠãĤ Ĵ
ÐµÐ½ Ð¸Ñİ
f en
ãĥ ¤
ĠM ad
z o
ĥ n
Ġf in
ĠÐ¿ÑĢ Ð¾Ð³
ãģĿ ãģĨ
ĠÑĢ Ðµ
çĶ °
æ¥ ½
cz enia
ĠV or
Ð°ÑĤ Ð°
Ġt ous
ti va
è §
Ð°ÑĤ Ñĭ
a ire
Ã¢ u
Ġw i
ÑģÐº Ð¸Ðµ
w ei
Ġc ol
Ġãģĵ ãģ®
ÑĢÑĥ Ð¿
ym i
li ca
i le
Ġuti lis
Ð½ Ð°Ðº
ĠkÃ¶n nen
Ġå į
zz o
Ġm ay
ĠÐĺ Ð½
è² ·
an za
ow ego
æ´ »
áº¯ c
Ã¨ res
Ð¾Ð± Ñī
çĶ £
l ine
ti ve
ÅĤ am
Ð°ÑİÑĤ ÑģÑı
p i
è «
ĠS ta
Ġpre mi
Ġãģĵ ãĤĮ
Ġh ay
Ġe m
ĠÐ¼ Ð¾Ð³
ÅĽ li
au t
A S
Ġs al
Ŀ Ģ
k s
d as
am ento
Ġdi ff
1 2
Ã¡ nh
Ġg ÅĤ
ãĥĨ ãĤ£
ĠÐ°Ð² ÑĤÐ¾Ð¼
Ġw ur
ti co
Ġro ku
Ñĥ ÑģÑĤ
ãĤĭ ãģ¨
f ec
Ð¾ÑĢ Ð¾ÑĪ
Ġdi re
ĠÐ²Ñĭ Ð¿
Ã² n
ãĤ Ģ
ĠR Ã©
U R
Ġm od
ÐºÐ° Ñĩ
ĠÑĢ ÐµÑĪ
odz i
ĠD Ã©
ĠÂ» ,
Ġ2 5
Ð¾Ð· Ð´
ãĥ» ãĥ»
å §
Ð½Ð¸Ðº Ð¾Ð²
Ġla v
ver s
ĠÐ¢ Ð°Ðº
uy Ãªn
ow adz
ãĤ ¶
Ġpue de
Ġu 04
ÑĢÐ° ÑĦ
i x
çĽ ¸
p ri
iÄĻ k
Ġno tre
ÑĥÑĢ Ñģ
ãĢ Ĥ
ĠÐ¿ÑĢ Ð¸Ð¼
Ġper s
æĺ İ
Ġza p
Ġs te
ĠÐ² Ð¾Ð´
Ġdes de
Ġng Ãły
Ġp ol
ãĥĥ ãĥī
Ġ2 2
ĠFr ance
Ġv os
j i
ĠÑģ ÐµÐ±
è¡ ¨
ou le
Ġch i
b ar
Ġä¸ Ģ
on es
ĠÐľ Ð¾ÑģÐº
ÑĮ Ñİ
i es
æ ¬
ĠN a
Ð»Ð¸ Ð²
á»± c
Ġv ol
æĦ ı
Ð ¤
ĠÐŁ Ð¾Ð´
ÑħÐ¾Ð´ Ð¸Ð¼
ĠÅ ļ
is te
Ð» ÐµÐ¼
Ġst ron
el d
ï¼ Ĵ
ãĢ ģ
il d
è¾ ¼
ĠÐ´ ÐµÐ½ÑĮ
l an
is se
Ã¡ p
Ð½Ð¸Ðº Ð¸
Ġãĥ ª
Ã© d
ÑİÑĤ ÑģÑı
ier w
ä» ¶
Ġgi or
Ġm en
æĸĻ çĦ¡æĸĻ
ãģ¡ ãĤĥ
ĠP r
ĠÐ¿ÑĢ Ð¸Ð²
Ġãĥ ĳ
ut z
ti ques
ãĤĵ ãģ§
Ã³ l
ĠÐ¾ÑĢÐ³Ð°Ð½ Ð¸Ð·
á» ı
Ġqu al
qu i
è» Ĭ
Ð¾Ð² Ð°ÑĤÑĮ
ĠD z
ĠUn ter
cz enie
Ġm in
Ġ ãģĦ
ĠÐ±Ñĭ ÑĤÑĮ
¬ ¬
r ie
Ġa Ã±os
Ġcu i
Ġä¸ Ń
p ad
ĠÃ© v
éģ ¸
ĠS o
ĠÐº Ð²
áº± ng
Ġm as
c en
ĠÐ¼ Ð°Ð³
ĠD a
ĠÑģÐ» ÑĥÑĩ
éĽ Ĩ
Ġr Ã³w
s ten
ĠÐ±Ñĭ Ð»Ð¾
ĠC e
Ġè ĩª
ĠPor no
c el
ÅĤ e
c tos
ĠG ratis
for ma
Ġãĥ ©
Ð¾Ð¿ÑĢ Ð¾Ñģ
Ã© lÃ©
ide o
ĠÑĢ ÐµÐ·
p x
Ġãĥ Ĺ
x i
æĥ ħ
Ġha cer
re is
Ġãĥ Ī
Ġz osta
Ġw eit
ub b
ĠÐ¿ Ð¾Ð½
Ġv is
åĳ ³
ĠÐ¿ Ð¾ÑĢ
Ġ} .
ãģı ãģł
ĠÐ¿ÑĢÐµÐ´ ÑģÑĤÐ°Ð²
Ġth Ã¬
le ich
d ni
Ġj us
ãĥ³ãĤ ¿
tr os
om o
áº· c
ĠÐº Ð°ÑĩÐµÑģÑĤÐ²
Ġw o
Ġse mp
Ġan s
ĠÑĩÐµÐ»Ð¾Ð² ÐµÐº
é §
æĽ ¸
p s
ĠÐķ ÑģÐ»Ð¸
z io
ur as
Ġau tres
ĠW ir
å ĥ
d es
ĠÐĴ Ñģ
ÅĤ em
ãĥ¼ ãĤ¯
ta re
skie go
O R
ĠC as
Ġ3 0
Ð½ ÐµÑĤ
ali dad
Ġw as
ĠÑĢÐ°Ð· Ð²
c ado
Ġg o
ãĥķãĤ ©
ĠÐ²Ð¾Ð· Ð¼Ð¾Ð¶
ĠãĤ Ń
Ġtam biÃ©n
g lich
ĠS u
ç ½
v is
ty w
ĠÐ· Ð°Ð´
Ġpar t
ĠÑĦ Ð¾ÑĢÐ¼
å± ±
Ġâ ĸ
ãģ ĸ
Ġw ww
m ie
ĠéĢ ģ
å¿ ľ
l and
Ðµ ÑĦ
Ġan d
çķ ª
ĠÐ±Ð¾Ð» ÐµÐµ
l u
Ġv iá»ĩc
Ġ äº
cz nie
ĠV o
I N
ĠE t
Ġin tÃ©
ĠåĲ į
æ º
Ġd os
Ñĥ Ð»Ñı
Ġj u
Ġpar te
Ġi hr
åĭ Ļ
un e
Ð¸Ð½ Ðµ
k Äħ
Ġå Ī
ig n
ĠÐ¾ ÑģÑĤ
Ġ ur
Ġth Ãłnh
g ie
å ŀ
om b
Ġtien e
Ġå ľ
m al
ĠÐ¼ Ð½
ĠA u
ãģ«ãģ¤ ãģĦãģ¦
\ "
ĠktÃ³ r
Ġmej or
Ġpers onn
ĠÐ²Ñĭ Ñģ
Ġtr o
éģ ĵ
± c
ion es
ĠH er
Ð°Ð¶ Ðµ
ãĤ¤ ãĥ³
Ġl u
Ġ is
ĠãĤ Ĥ
und en
Ġa g
ãģ® ãģĭ
ĠÐ· Ð´
åĬ ł
Ð¼ ÐµÐ½ÑĤ
ĠJ ahr
Ð¾Ð² Ð°
itÃ© s
ĠÑģ Ð¸ÑģÑĤÐµÐ¼
c or
ãĥĥãĤ¯ ãĤ¹
cj ÄĻ
ãĤĪãģĨ ãģ«
Ñı Ð´
Ġg io
Ġen f
Ð¾Ð± ÑħÐ¾Ð´Ð¸Ð¼
ĠP rze
ÑĤ ÑĢ
Ġt i
t ur
ale ment
ãĤĪãģĨ ãģª
ĠW o
Ð¿ÑĢ ÐµÐ´
Ġhá»į c
Ã³ Å¼
ĠÃ Ĺ
ÑģÐº Ð¸Ñħ
1 5
g el
on na
m enti
ãĤģ ãģ¦
und o
Ġp ubli
t ant
ich e
Ġå ¹
ĠJ ak
ãĥª ãĤ¢
g ÅĤ
Ð¸ Ð½Ð¾
ĠÃ º
Ð» Ð°Ð¹Ð½
ĠI ch
ĠÐĿ Ð¾
ĠÑģÐ» ÐµÐ´
ĠB er
Ġ201 7
Ġm es
ĠÐ· Ð°Ð¼
Ġph áº£i
ãģĮ ãģĤãĤĭ
ĠÐ¿ÑĢÐ¾ ÑĨ
Ã³ r
Ġw enn
Ġte mps
ĠI ta
Ġæĸ °
ĠÐ¾ Ð½Ð¸
ĠM a
Ġæ °
Ġp are
Ġpro pos
ÅĦ st
r it
ãģĹ ãģĭ
A L
em os
ri d
ĠL as
Ðº Ð°Ð·
Ġdo b
Ð Ĺ
ĠÐĲ Ð½
Ġte mp
Ð¸Ñı ÑĤ
Ġ: //
Ġæľ Ģ
Ãº c
ÐµÑĤ Ñĭ
Ġby Äĩ
åĲ Į
ÑĮ Ñı
Ġa va
ÅĽ my
etz t
Ġn ost
Ġwy b
ĠÄĳ i
Ġb uen
Ðº ÑĢÐ°
Ġan ni
ĠãĢĳ ãĢĲ
éĽ »
ÑĤ Ðµ
ĠN ach
ĠS i
Ġte Å¼
æŀ ľ
ĠÐ¿ÑĢÐ¾Ð¸Ð· Ð²Ð¾Ð´
Ð¼ Ñĭ
ç İ
Ġcz ÄĻ
ĠÑĩ ÐµÐ¼
Ġf ue
Ġv ie
åı £
Ġde gli
Ġâ ĺ
Ġæľ ¬
Ġc er
ĠÐ¸Ð¼ Ðµ
ĠG es
Ġæ ĺ
áº¡ o
ç Ĭ
Ġw e
ÐµÑģ Ð¿
g n
Ð°ÑĢ Ð¸
Ġè ²
ãĥ¼ãĤ ¿
on de
ÐµÐ½ Ð½ÑĭÑħ
a uf
Ġh tt
æ ¨
Ġre g
£ p
ĠM ais
t z
Ġc rÃ©
ĠÑĥ Ð²
ĠM o
ç ³
Ġil s
Ġ ãģ¯
cz ÄĻ
ĠÐ¿ÑĢ Ð¾ÑĤ
T I
Ġtut ti
Ġe le
l er
ãģıãģł ãģķãģĦ
á»ĭ ch
Ġos ob
Ġ" ,"
è¨ Ń
Ġtod os
Ġda lla
Ð¾Ð² Ð¾Ð¹
ter n
Ð°Ð½ Ñģ
a ires
Ġd om
I E
Ġw iel
ãĤĪ ãĤĬ
Ġâ Ħ
ier t
Ġ2 1
ĠÐ¿ Ð¾Ð¿
ti t
ent ro
çĤ ¹
Ġtra va
ĠÑģ Ð´ÐµÐ»
Ġse hr
Ġn ad
Ġcu ando
Ġsu o
Ġsi te
ÑģÑĤ ÑĢÑĥ
Ġ2 3
Ñĥ Ð³
Ġn ouve
Ġqu y
Ġç µ
ĠmoÅ¼ na
ÃŁ e
Ð¾Ñģ Ð¾Ð±
Ġç§ ģ
Ġas s
ãģł ãģ£ãģŁ
ĠF o
an as
åķ ı
il la
Ġv iel
ĠÃ© c
Ġres p
Ð¾Ð½ Ð¾Ð¼
odz in
¢ º
Ġin c
Ã´ n
v ol
ĠÐ½Ðµ Ð¾Ð±ÑħÐ¾Ð´Ð¸Ð¼
Ġå ½
v es
ĠktÃ³ ry
ĠÐ± ÑĢ
ĠÃ©ta it
f ahr
Ġh anno
an ta
ĠÐ¿Ð¾Ñģ Ð»Ðµ
u al
ĠãĢ ı
é ¨
Ġz mi
Ġm ujeres
Ġfor ma
ĠÐ¸ Ð³
u te
ĠÐµ ÑīÐµ
åĪ ĩ
co re
Æ¡ i
ĠÑĤ Ð¾Ð¼
ãģ¨ ãģ¯
wa Äĩ
ĠA c
ĠrÃ© s
Ð² ÐµÑģÑĤ
in der
in as
ç ®
Ġpo p
Ð· ÑĭÐ²
ĠÐ¸ ÑģÑĤ
os ten
j our
1 1
Ġcon o
æĸ ĩ
Ġd ann
ia ÅĤa
Ġp u
ĠÐłÐ¾ÑģÑģ Ð¸Ð¸
ĠâĦ ĸ
ĠF ra
Ð» Ð¾Ð¶
ÃŁ en
Ġb on
Ġk aÅ¼
åĵ ¡
Ġpri x
ĠÑĤ ÐµÑĢ
Ġa k
Ã¢ m
Ġc li
Ð¾Ð¶ Ð´
Ġãĥ ĩ
ĠV ous
Ġs olo
li w
Ġc el
ãģ Ĳ
Ð°Ð½ Ð°
i gen
ç ĿĢ
Ġm u
ĠD i
te k
Ġb as
ÑĢÑĥ Ð·
å ĸ
Ñı Ð±
ĠT o
ãģ« ãģĬ
Ð°Ð» Ð¾
ãģĦ ãģ¾ãģĹãģŁ
ħ n
nie Å¼
ĠS ain
ÐµÐ½ Ð¸
i tion
d ia
Ġpra w
l Ã¤
iá»ĥ m
ie mp
ĠÑĤ Ð¾Ð³Ð¾
é ĺ
er i
ĠR o
è º
Ġd od
Ġ2 4
Ġd onn
Ġï¼ Į
ãĥĥ ãĤ·
ĠÑĥÑĩ Ð°ÑģÑĤ
h ne
Ġes p
Ġtak Å¼e
ç´ Ħ
ĠÐ° Ðº
ĠÐŃ ÑĤÐ¾
.. ..
i or
l ie
Ġser vi
a Äĩ
Ġå Ĩ
ĠÐ¿Ð¾ Ñĩ
åŀ ĭ
ll t
m bre
Ġf ir
Ġn Æ°á»Ľc
t in
ost ÄĻp
Ġç ´
ÐºÐ°Ñĩ Ð°ÑĤÑĮ
ĠÑģÐ¿ Ðµ
æ ħ
ig ne
Ð½Ð¸Ðº Ð°
ĠSp iel
Ġt en
Ñĥ Ð²
at to
ĠÐĶ Ð»Ñı
Ġen c
Ġgr and
ni kÃ³w
è² ©
k om
å± ĭ
ĠÐ¾Ñģ Ð½Ð¾Ð²
Ġdu e
ãģĳ ãĤĭ
ÐµÐ½ Ð¸ÐµÐ¼
Ġper met
wia d
Ġv i
ck en
ãģĵ ãĤį
Ð¾Ñı Ð½
ãĥ³ ãĤ¹
ng en
Ġre la
Ã¡ y
Ð½ ÐµÐµ
Ġ Å¼
Ã© g
ĠC o
Ġh ier
? ?
Ð¾Ñģ ÑĥÐ´
ãĤĴ è¦ĭ
Ġh asta
b ur
ãģĹ ãģı
Ġb er
ãģ İ
ĀĀ ĀĀ
Ġv ia
ĠÐ»Ñİ Ð´
æ° ´
ģ n
v el
Ġu Å¼y
h eit
ĠÂ °
Ġãĥ ı
Ġk m
ÑĢ ÐµÐ´
Ġa ff
çµ Ĳ
ĠÐ½Ð° ÑģÑĤ
ĠTh e
wiÄħ z
ãĥĥ ãĥģ
z u
éĢ £
p uis
ĠÐ¾Ð½ Ð»Ð°Ð¹Ð½
Ġn eces
ĠÑģ Ð¾ÑģÑĤÐ°Ð²
ĠW ar
ÐµÐ½ Ð½ÑĭÐµ
z Äħ
Ġtr ans
Ġsch on
è µ
ĠÐľÐ¾ÑģÐº Ð²
Ð°Ð» Ð¾Ð³
el b
Ġ0 8
Ġ it
ĠÐ´ ÐµÐ¹ÑģÑĤÐ²
c co
in t
ia l
ãģ§ ãģĹãģŁ
ll er
ĠÐ¿ÐµÑĢ ÐµÐ´
eni u
Ġ0 9
uy á»ĩ
ĠÃ© g
Ġpri ma
Ã¼ s
it as
an os
ĠÐ¼ Ð¾Ð´
d zy
ĠÐŁ ÐµÑĢ
iá»ģ n
Ð¾Ð» Ñı
ç¶ ļ
Ġwie der
Ġb us
ĠV ideos
ĠEs ta
Ġ201 6
ĠÑĤ Ñĭ
es so
un k
om me
ĠÐ° Ð´
Ã Ĭ
áº¯ t
Äħ Å¼
åľ ¨
f ic
ÑĢÐ° Ñī
Ġs ous
ĠZ eit
skie j
ĠÐº Ð°Ð¶Ð´
u ta
ĠÐ² Ð¾Ð¿ÑĢÐ¾Ñģ
ĠÐº Ð°ÑĢÑĤ
O W
ĠrÃ³w nieÅ¼
ĠI D
ä» ķ
Ġl ui
en tos
ãģ® ãģĮ
l au
ĠÐ¸Ð½ ÑĦÐ¾ÑĢÐ¼
it es
ãĤ¤ ãĥ«
ÅĽ l
ĠÑģÑĤ Ð¾
áº¡ t
Ġh an
Ġst r
Ġso ll
ĠÐº Ð¾Ð³Ð´Ð°
Ġé ĩ
il idad
Ġ5 0
ran Ã§
a zione
wi er
ãģĳ ãģ©
ãģĳ ãģ¦
Ã© tÃ©
tit utas
Ġcu al
g no
an ces
ca to
ĠÑħ Ð¾ÑĢÐ¾ÑĪ
ĠD ies
dz iaÅĤ
é¡ Į
pp o
it u
ĠÐ¿ÑĢ Ð¾Ð±
Ġt iáº¿
Ġh i
ãģ¨ ãģª
ĠÑįÑĤ Ð¾Ð³Ð¾
ad y
Ġques ta
Ġ201 8
ĠU ne
Ġt iemp
ĠU m
u p
ĠÐ» ÑĥÑĩÑĪ
ĠN ous
Ġin di
ÅĤa t
re ich
ç Ĺ
Ð¼ Ñĥ
t rze
te il
ãĥ¼ãĤ ·
en ne
Ð° Ñİ
ĠU ni
Ð½ Ð¸Ð¼
ä¸ ĩ
Ġt Ã´i
Ġp ierw
ĠÐ±ÐµÑģ Ð¿Ð»Ð°ÑĤ
Ġwur de
Ð¾Ð²Ð°Ð½ Ð¸Ðµ
ĠB ar
ad ores
Ġa voir
Ġj p
ãģ ¶
áº© m
u ti
Ð¾Ñģ Ð¿
Ġd onde
ĠÐ´ Ð¾Ðº
ãģ® ãģĬ
ãģĭ ãĤĬ
Ġx u
ĠÐ±Ñĭ Ð»
Ġcol or
3 0
ĠP od
at ta
ãĥķãĤ ¡
em me
mp le
Ġal gun
ĠéĢģ æĸĻçĦ¡æĸĻ
ãĥ³ ãĤ¯
Ġz w
ĠÃ© le
Ġmol to
Ł ³
t Ã³w
æľ ī
in si
ĠÐ¼Ð°Ð³ Ð°Ð·
ar es
ĠÐ² Ðº
Ġs áº£n
ĠS car
is ti
Ġder ni
Ñį ÑĤ
dzie j
Ì Ģ
áº¥ n
Ġãĥ Ľ
il itÃł
A D
Ġpr os
u dad
le t
ÐµÑģÑĤÐ² Ð¾
¢ ¨
Ġbe au
ch es
cz nych
æĻĤ éĸĵ
Ġin f
tion en
ĠÐºÐ¾ÑĤÐ¾ÑĢ ÑĭÐ¹
Ġt a
© ļ
ĠC ar
çĶ º
ll as
jÄħ ce
ãĥ¼ãĥ Ħ
hr en
m b
ĠÐĲ Ð»
ad e
Ġé Ľ
ÃŃ cul
Ġab b
ĠÐµ Ðµ
ca tion
å¿ ħ
Ġc en
ĠL o
os e
ĠÐ½ ÐµÑĤ
Ġa prÃ¨s
Ġse x
ist as
Ġv om
Ġw ÅĤ
Ð»ÐµÐºÑĤ ÑĢ
á»Ļ c
b be
Ð¾ Ñħ
as t
r Ã¡
Ñĥ ÑģÐº
ãĢ į
ãĥ¬ ãĤ¹
Ãª te
Ġc aÅĤ
èª ¿
l ti
ĠÐ· Ð°ÑĢ
ĠS te
Ðµ ÑģÑı
1 6
ÃŃ n
m Ã©
ia d
æ Ĥ
Ġsp e
åı Ĺ
ÑĥÑĤ ÑĮ
Ã¤ ch
ĠSain t
iv re
Ġve z
at ti
ation s
ÐµÑĤ Ðµ
esz cze
Ġim mer
ãĥĶ ãĥ¼
æ ĭ
ĠÑĤ Ð¾Ð²Ð°ÑĢ
Ġod powie
Ðº Ð¾Ð¼
Ġp ay
el o
ĠN am
Ð°Ð»ÑĮ Ð½ÑĭÐ¹
Ġp on
å° ĳ
Ġl ie
Ð¾ÑĢ Ð¾Ð²
m ar
áº« n
ÑıÑĤ ÐµÐ»ÑĮ
çµ Į
Ñı Ñī
ier en
T A
ĠIta lia
g ia
ĠÐ²Ð¸Ð´ Ðµ
cze g
d io
ĠÑģ Ð¾Ð·Ð´
der n
Ġr y
Ġre ali
ãĤĵ ãģł
ĠÐļ Ð¾Ð¼
z ie
Ġch ÃŃnh
Ñı Ð¼
Ġc ada
ãĥ¼ ãĥ³
c ch
T O
Ġsta to
al a
ãģ§ ãģĤãĤĭ
Ã± a
Ġd onc
Ñĭ Ð»
z n
Ġm il
ÐµÑĢ ÑĤ
ĠÑĢ ÐµÐº
ĠC am
Ġpor que
Ġhá» £p
ĠÐĲ Ð²
å Ĥ
id as
el n
ĠW WW
cz as
Ð¾Ð» Ð¾Ð´
Ġen core
ti cos
ÐµÑĢ Ñĭ
n os
ĠrÃ© p
g r
æĮ ģ
ÐµÐ½ Ð½ÑĭÐ¹
Ġa h
ĠÐº ÑĥÐ¿Ð¸ÑĤÑĮ
Ð½Ð¾Ð¼ Ñĥ
Ġs enza
ãĤ ´
Ã´ tel
Ġ ï¿½ï¿½
Ġqu an
Ġj ue
ami ento
l Ã¨
ĠÐĲ ÑĢ
ĠW as
Ġza w
Ġsemp re
ï¼ ģ
å ¢
ĠÐ² Ð°ÑĪ
c Ã³w
i an
Ġsu lla
Ġtiemp o
hl en
Ġç Ľ
Ġs h
Ġf on
ĠÐ° ÐºÑĤ
è£ ½
Ġj ego
Ġph o
Ð³ Ð¾ÑĤÐ¾Ð²
è ±
Ġm Ã¶
ÑĦ ÑĦ
ur ante
ĠÃ §
Ġentre pr
k ol
å ³
Ġnh Ã¢n
ĠÑĦ Ð¾ÑĤ
de m
Ġcon f
Ġ\ "
ow ym
ou te
Ð» Ð¾Ð²
å¾ Ĺ
ÑĨ Ñĭ
Ġch am
wa Å¼
ĠB es
Ġc our
ĠÐ· Ð°Ð±
Æ° a
ta li
åĲ ĳ
Ġa tti
Ð°ÑĤ Ð¸Ð²
f ach
Ð¾ Ð½Ñĭ
Ġtut to
Ġm al
Ġz am
un to
Ġg en
ãģ«ãģª ãĤĭ
t kow
ĠdÃ© p
ĠÄĳá»ĭ nh
Ð¸ÑĤ ÐµÐ»Ñı
ti tu
ÐµÐ½ÑĤ Ð¾Ð²
åł´ åĲĪ
ĠA d
Ġcon tra
Ġmo g
ĠÐ½ ÐµÐ¿
Ġgi bt
Ð°Ð»ÑĮ Ð½Ð¾Ð³Ð¾
ion s
ĠÐ¼ÐµÐ½ Ñı
Ġgr an
ĠÐĿ Ðµ
ĠÑĢÐ°Ð±Ð¾ÑĤ Ñĭ
äºº æ°Ĺ
Ġ0 1
ĠÐ¶ ÐµÐ»
Ġo Ã¹
å· ¥
Ġs inh
C J
trz ym
d t
Ð¸ÑĩÐµÑģÐº Ð¸Ñħ
ri o
ãĤ¤ ãĤº
ĠãĢ İ
ĠæĹ¥ æľ¬
Ġãĥĸ ãĥ©
c tor
ĠÐ¾ÑĤ Ð½Ð¾
åıĸ ãĤĬ
Ġl oro
is z
ĠO n
ti cas
Ġ0 5
ĠÐ³ Ð¾ÑĢ
Ġh Æ¡n
éĩ İ
ĠP os
ou l
Ġor g
Ġãģ ©
ĠÃ ľ
ĠÐ¿ÑĢÐ¾Ð³ ÑĢÐ°Ð¼
ĠÐ» Ð¸ÑĨ
Ġé «ĺ
ĠÐ¼Ð°ÑĤ ÐµÑĢÐ¸
èī ²
ĠÃ§ a
ar ge
Ð½ Ð¸Ð¹
çķ Į
Ġemp res
Ġdies e
Ġwy kon
Ġg Ã©n
Ġl l
ÐµÑĢ Ð³
Ġm nie
Ġp ubb
ĠD o
ĠÐ³ Ð´Ðµ
Ġd ru
Ġa y
Ġs ia
ĠK on
çĦ¡ ãģĹ
çī ¹
Ġpros titutas
za ciÃ³n
it er
Ð½Ð¾ÑģÑĤÑĮ Ñİ
ĠK om
åħ Ī
áº£ ng
Ġcom ment
Ð¸ÑĤÐµÐ»ÑĮ Ð½Ð¾
Ġau tre
Ġc ie
Ġha ce
Ġf ar
ĠW e
ãĥ¼ãĤ «
en a
åı ¤
Ð¸ÑĩÐµÑģÐº Ð¸Ðµ
Ġd ÃŃa
éļ Ľ
ĠÐŀ Ð´
ow ane
ch Ã©
sch en
i co
er os
Ġf ois
j u
ĠÑĢ Ñĭ
Ð°Ð»ÑĮ Ð½Ð¾Ð¹
å ģ
ion i
ÑĨ ÐµÐ½
Ã µ
Ġnom bre
Ġan der
éĩ į
er w
Ð¾ÑģÑĥÐ´ Ð°ÑĢ
p u
Ã Ķ
Ġngh iá»ĩ
Ġs ar
Ð¾Ð» Ð¾Ð²
k ar
ĠÑģÐ² ÑıÐ·
czne j
è¿ ĳ
Ġun o
Ġm Ã¬nh
Ġ201 9
to ire
Ġ1 00
ĠÑħ Ð¾ÑĤ
Ġin cl
å· Ŀ
od y
Ġãĥ Ń
Ġhab e
Ã¤ l
Ð¼ ÐµÑĤ
Ġjed nak
rÃ© e
Ġc ao
tor ia
ĠÑģÐ¾ Ð¾Ð±Ñī
cz ny
ç³ »
Ġ0 6
n el
Ġgra tu
ãģ§ ãģĹãĤĩãģĨ
Ġav ant
Ġk il
m it
Ð¿ÑĢÐµÐ´ ÐµÐ»
Ġcom un
ĠÂ ¹
Ãª m
ĠÐ´ Ð°Ð¶Ðµ
c c
Ġh er
Ġå Ľ
w or
id os
Ġh e
Ġs to
Ñı Ð½
om a
Ġé ģ
Ì £
ĠV iá»ĩt
Ġpu Ã²
Ġkh o
ÑĪ Ðµ
Ġæ ĻĤ
I S
Ġm et
Ġ rze
es sion
Ġm at
ÑĥÐ± Ð»Ð¸
ä½ į
ei te
ÑĢÑĥ Ð¶
ca l
ĠÑĨ Ð²ÐµÑĤ
ĠDe utsch
Ð¿ ÐµÑĢ
Ĵ Į
ĠE x
Ġcon c
it y
ĠÐ¿ÑĢÐ¾ ÑĦ
ÐµÐ½ Ð½Ð¾Ð¹
å Ļ
Ġpra c
v ent
Ġzna j
Ã Ĵ
Ã ĸ
Ã ĭ
á»¥ c
ĠF or
ÐµÐ³ Ð¾Ð´
Ġãģ¾ ãģŁ
al t
ĠÐ¿Ð¾Ð¼ Ð¾Ñī
Ġac qu
Ġas ÃŃ
p f
æ¯ Ľ
d Äħ
ãĤ» ãĥĥãĥĪ
ĠÑĩÐµÑĢ ÐµÐ·
ãĤµ ãĤ¤ãĥĪ
tiv os
Ġm ir
z eit
ä» Ĭ
jÄħc ych
ĠÄĳá» ģ
5 0
åĪ ¥
ĠÑģ ÑĥÐ´
Ġm ein
gg ia
ĠP e
ce p
Ã¤ hr
Ð°Ð»ÑĮ Ð½ÑĭÐµ
ł ´
Ġcon ta
ob a
ĠÑģ Ð¾ÑģÑĤ
f in
rÃ³ d
Ġes pe
Ġl ors
ka z
ãģķãĤĮ ãģŁ
ÑĢ Ðµ
ar ia
ĠÄĳá»ĵ ng
k ich
ĠÐ¡ Ð
ĠC u
sch ie
ĠÐ¾ Ð½Ð°
qu ier
Ġsu a
te go
å¥ ½
ou pe
1 8
á»ĳ t
ĠÑĢ Ñĥ
å® ¹
l us
é¨ ĵ
ĠÃ© qui
Ġs obie
ĠÑģÐ¿ Ð¾ÑģÐ¾Ð±
en o
h nen
ar ro
il les
ĠM i
Ġ ãģĮ
Ġsp ra
z ei
li zza
Ñ ĸ
ÐµÐ½ÑĤ Ð°
c m
éĻ Ĳ
Ġc Ã²n
is mo
R E
Ġcomm un
ich er
Ð¸Ð± Ð¾
ka ch
Ã¤ ng
Ã©r ie
ãģĹ ãģ¾ãģĹãģŁ
Ġc l
ĠÐ¡ Ð¿
Ġ4 8
Ġt ej
idad es
Ð¼ ÐµÑģÑĤ
Ġthe o
ll os
Ġa insi
ÐºÐ° Ñħ
v ia
Ġla t
ge b
Ġmo ins
ĠÐ¸ ÑģÐº
ĠS h
Ġg dy
Ġmay or
l in
ÑĨ ÐµÐ²
ta to
Ġo hne
m ble
ĠÐ½ÑĥÐ¶ Ð½Ð¾
ĠU hr
cri ption
Ġin forma
éģ ķ
ĠÐ» Ð¸
is sen
c teur
Ð¸ÑģÑĤ ÑĢÐ°
Ġn Ã©
ĠÐ¶ ÐµÐ½
ĠÐ´ Ð¸
äº ¬
ĠÃ £
ĠÂ ¡Â
á»ĳ n
Ġperson as
ç¤ º
i ci
ĠÐ³ Ð»
Ġdz iaÅĤ
ĠW er
szy ch
ÑĨ Ð¸Ð¹
Ġg er
ÐµÐ½ Ð¾
ä» ĭ
ist ra
ä¼ļ ç¤¾
ÑĢ Ð¾Ñģ
Ġg ar
Ġn Ãªn
ĠC zy
ĠJ a
pp e
Ð¸ÑĤ ÐµÐ»ÐµÐ¹
Ġa by
æĥħ åł±
Ġi d
ĠÐ¸ Ñģ
en di
Ġå ¥
aus s
èª į
Ġde puis
Ġf are
ĠÐºÑĢ Ð°Ñģ
ĠÐł Ð°Ð·
Ġpos si
ĠÐ¿Ð¾Ð· Ð²
Ãº b
Ġm y
ĠF re
¤ ľ
Ð¼ Ð¸Ð½
Ġv ida
ĠÑıÐ² Ð»ÑıÐµÑĤÑģÑı
Ġo fer
it z
Ġsu is
is es
ãĥ¼ãĥ ĳ
Ġa Ã±o
æŁ »
Ġmá» Ľi
ĠÃľ ber
Ġd ro
c ora
il itÃ©
Ġsam o
Ġes to
ĠÃ©g alement
Ð¿ Ð¾Ð»
äº Ī
ta g
Ġtr as
ĠÂ ½
iá»ĥ n
Ãµ es
ĠAr beit
ki m
ci r
Ġg ro
éħ į
ĠÑĤ Ð¾ÑĢ
zion ale
j os
ĠG esch
ĠPar is
an is
Ġmi esz
ĠÐŁ Ð¾Ñģ
ĠCh at
è§ £
Ġcom pr
al mente
w et
ĠÐ³ Ð»Ð°Ð²
Ã Ģ
Ġth áº¿
ãģ¨æĢĿ ãģĦãģ¾ãģĻ
ãģ® ä¸Ń
p od
li c
ĠÐ¿Ð» Ð°Ð½
Ġ0 7
L E
T E
ranÃ§ ais
ĠHo tel
Ġme ille
ĠÐ¾Ð±Ð»Ð°ÑģÑĤ Ð¸
s ione
et as
å Ħ
Ġg ut
an cia
Ð°Ð¹ÑĤ Ðµ
u tion
ĠÐ¾ÑĤ Ð²ÐµÑĤ
Ġj eszcze
ff en
Ð°Ð»ÑĮ Ð½Ð¾
Ġi ma
ĠN on
å³ ¶
ĠÑĢ Ð¾Ð´
Ġr Ã³Å¼
er ci
Ġre p
iá»ĥ u
ĠÐŁÑĢ Ð¸
ĠB ei
Ġd ont
ĠÐ· Ð°Ð½
ãģķ ãģĽ
ti r
Ġog ni
elb st
ãĥ³ãĤ º
li z
Ġj ej
ĠÐ³Ð¾Ð´ Ñĥ
ggi or
Ġch a
Ġme di
ra is
è³ ª
b les
w ert
ne hmen
Ġg ru
Ġin s
Ġ ãģ¨ãģĦãģĨ
Ġs á»Ń
Ġ201 5
y w
ãģ® æĸ¹
j ours
ich tig
om bre
ÐµÑĢ ÑĪ
ĠR es
éĩ ı
Ġf un
Ġ $
Ġmon de
Ġpra cy
Ġ. ,
Ð¾Ð± Ð°Ð²
ÄĻ d
Ġãĥ Ģ
ĠÐ¿Ð¾Ñģ Ð»ÐµÐ´
ç¾ İ
b ei
è ĳ
Ġun ser
f a
om e
ĠÑĢ Ð°Ð¹
Ġtemp o
ÃŃ o
f ol
ãĤ¹ ãĥĨ
Ġre cher
ĠÐĺ Ð·
Ġc Ã¡ch
ĠS an
dad es
Ð°Ð´ Ð¸
ãĤ ®
Ġ2 8
Ġ2 7
il s
Ġd nia
os a
Ð¸Ðº Ð¾Ð²
v id
s to
ÑĭÐ¼ Ð¸
et s
Ġris p
Ġcer ta
é§ ħ
å° ı
Ġ" ,
ĠPr odu
Ġm ich
Ġå Į
as s
Ġw eb
Ġk ar
åı¯ èĥ½
ÑĢ Ð°Ð±Ð¾ÑĤ
Ġc al
h a
ĠÐ¼ Ð¸ÑĢ
p ra
Ġv ideo
Ġw ÅĤa
hal ten
Ġc ul
ĠÃ ´
ma t
Ð¾ÑĢ Ð°
èº «
Ġ: )
p raw
ĠÐ± Ð°Ð½
Ġpe w
ĠÐºÐ» Ð°ÑģÑģ
Ġma in
Ġfo tos
li o
Ã³ j
æ Ļ
ĠÑĥÑģÑĤ Ð°Ð½Ð¾Ð²
Ġre ci
ĠH and
Ġb i
çĬ ¶
ĠÐ ®
Ġf uer
ĠD ans
Ã³w i
ĠÂ £Â¬
Ã ı
Æ°á» Ł
ĠÐ² Ð°Ð¼
w as
n ÄĻ
Ġ2 6
æŃ £
Ð² Ð¾ÑĢ
Ð°Ð»ÑĮ Ð½ÑĭÑħ
tic le
an k
Ġe qui
Ð¸Ð» ÑģÑı
ĠprÃ© s
Ġs zy
Ġãģ ķ
di ng
ĠC or
in cip
Ġè ¦
ĠÐ¾Ñģ Ð¾Ð±
ier z
ĠãĤ ¸
Ġfo ll
v ar
Ġon line
Ġd á»±
it Ã¤t
Ġcon tre
Ð¾ÑĢ Ð¸Ð¸
ech o
ÅĽ nie
ãĥĹ ãĥª
bur g
ĠÑĨ ÐµÐ½
Ġac tu
ĠO r
ãģ¦ ãĤĤ
ãĥ³ãĥ Ĩ
ĠÐ¿ Ð¾Ð»ÑĮÐ·
es e
iÄĻ dzy
Ġch er
ĠÑģ ÐµÐ¼
Ġthá» Ŀi
ç ¢º
Ġenc ont
end ant
ÑĢ Ð¾Ð¿
ia da
p on
ç ı¾
ec to
r Ã¤
ÐµÑģÑĤ Ð¸
Ġc ze
Ġau to
Ġge gen
Ñı Ð¶
ç½ ®
ĠÅ ģ
áº¿ u
ĠwiÄĻ cej
v ir
ĠÐ¿ÑĢÐ¾ÑģÑĤ Ð¾
ĠG i
Ġdi ver
Ð» ÐµÐ¹
ĠÑģÐ¾ Ð¾ÑĤ
Ġç ī
ÃŃ an
2 4
ni ki
ĠÐ²Ñģ ÐµÐ³Ð¾
Ġ201 4
Ġk a
m t
Ġby ÅĤo
Ġpla ce
ÐµÐ³Ð¾Ð´ Ð½Ñı
ãĤį ãģĨ
v or
Y W
Ġswo je
ãģ¨ ãģĭ
èª ŀ
Ġcon tro
Ġser a
ĠÐ²Ñģ ÐµÑħ
Ġw ym
ti ge
ouve z
Ġu ma
Ġtou te
fÃ¼ hr
I C
Ġs ol
Ġs au
Ð¸ Ñī
ÑģÐº Ð¾Ð¼
cia les
m mer
Ġse con
nym i
uch t
ĠÐ¼ ÐµÐ´
ĠT ra
Ġtout es
d or
Ñĭ Ñĩ
Ġl ong
Ġby ÅĤ
Ġk eine
çľ Ł
Ġt ener
Ġpro pri
áº¡ nh
Ġpom o
ÑĥÑĢ Ñĭ
Ġãĥ» ãĥ»ãĥ»
é ¦
Ġpos i
ĠEn t
ĠÐ· Ð½
ne ment
ĠZ a
ç· ļ
ĠC OM
ĠB o
ĠãĤ ¿
Ġjak o
ĠÐ½ Ð¸Ðº
Ġtr Æ°á»Ŀng
Ġv al
ãģı ãģª
om mes
Ġ0 2
Ð°Ðº ÑĤÐµÑĢ
Ġp ia
Ġl igne
Ġmis mo
ä¸ ĸ
g lia
ĠÐ¾Ð´ Ð¸Ð½
Ġle urs
Ġst an
Ġg ener
ste ll
Ġd ar
ĠÑĥÑģÐ» Ð¾Ð²
Ġa ch
Ġc Æ¡
Ð¸ÑĩÐµÑģÐº Ð¾Ð¹
Ġn u
ĠãĤ »
Ġn ei
ĠÐ¾ÑĤ ÐºÑĢ
Ġsp raw
ä¸ »
Ġde v
Ġdies er
czy Äĩ
Ġm undo
ÑıÐ± ÑĢÑı
á»© ng
ĠÑĪ ÑĤ
ĠScar pe
Ġin i
Ġra pp
ãĥ³ãĥ Ĺ
Ġsp os
gen d
ĠÐ½Ðµ ÑģÐº
Ġlu gar
l ung
v ier
te d
a ck
Ġso cial
ï½ Ĺ
åĻ ¨
Ġr áº¥t
Ġso it
ĠB et
Ð¸Ð½ Ñĥ
s iÄĻ
Ġ ãģŁ
ĠK inder
è Ħ
ĠÐŁ Ð¾Ð»
ĠÐ³ Ð¾Ð²Ð¾ÑĢ
ĠM en
Ġ, "
Äħ c
oun d
Ġå ¾
Ġc ent
Ġãĥ Ļ
ç´ ł
Ð¸ÑĢÐ¾Ð² Ð°ÑĤÑĮ
sion i
st ru
ĠÑĨ ÐµÐ½ÑĤ
ï¼ ĵ
ãĥĥ ãĤ°
ĠC a
ãĤ¿ ãĤ¤
Ġda ll
ãģª ãģĮ
Ġd y
Æ°á»Ł ng
ang e
ÑĢÑĥÐ¿ Ð¿
Ġdzie ci
ĠC z
Ġc v
ta tion
çļĦ ãģª
ÑĢÑĥ Ð±
c un
ĠH e
Ð² Ð°ÑĢ
za cji
Ġein fach
Ġx xx
mp re
ĠÐ² ÐµÐ´
ĠK o
Ġ0 4
ol es
ĠÐ· Ð½Ð°Ñĩ
Ġt our
Ġk li
Ġo tros
Ġth Ã´ng
ol or
ĠUn d
Ġb ud
k er
ĠÐ¾ÑĤ Ð´
I A
Ġc it
in n
rze da
Ġ Ñİ
ow Äħ
ĠF l
ãĥ¼ãĥ Ĺ
vel o
Ġb ra
Ð¸ÑĩÐµÑģÐº Ð¸Ð¹
Ġci udad
Ġ: #
æ ¼
Ð°Ð» ÑģÑı
k ty
li er
ti vi
åĪ Ŀ
Ġfon ction
Ġh Ã¬nh
ĠÐ·Ð°Ðº Ð°Ð·
cia le
ĠÑĤÐµÑħ Ð½
ĠÑĤÑĢ ÐµÐ±
ie dy
el a
Ġdo po
Ġh or
in ter
w iÄĻ
Ġï¼ ı
ãĤŃ ãĥ£
Ġte ch
g ÃŃa
m an
Ġl in
1 9
Ð ¯
ĠÐ½ Ð¸
Ġar ri
å¸ ¸
ĠÐ¼Ð¾Ð³ ÑĥÑĤ
Ġk le
r ÄĻ
ue il
Ġthá» ±c
v itÃł
Ġp ou
ent lich
Ġk re
Ġtrava il
ĠM ujeres
Ġtrab aj
Ġdiff Ã©r
ĠI hr
Å¼ a
am b
paÃ± a
Ġ201 3
cz ki
ni co
eit en
è² »
Ð¾Ñĩ Ð½Ð¾
ra i
t ent
åĮ º
al ne
Ð¾Ð² ÑĭÑħ
Ġal tri
Â µÃ
Ġthá» ©
Ġge w
ãģ® ãģ§ãģĻãģĮ
Ġest Ã¡n
ãģ£ ãģ
çŃ ī
je m
Ġmais on
Ġç Ħ
ĠÑģÐ»ÑĥÑĩ Ð°
ãģ«ãģª ãģ£ãģ¦
Ġn Ã£o
Ġt Ã©lÃ©
Ġp owie
å¼ ·
ĠÐ¼ Ð½Ð¾Ð³Ð¾
ĠMad rid
dem Ã¡s
Ġne ll
ĠæĿ ±
çµ Ħ
Ġi hre
ĠÑģÐµÐ± Ñı
Ġ2 9
Ġtou jours
tr as
ar zy
ĠrÃ© g
Ġlav oro
ĠÐ³ Ð¾ÑģÑĥÐ´Ð°ÑĢ
Ġg u
Ġj a
Ġm us
Ġæ ¥
ä» ĸ
si mo
ĠI hre
ĠP re
Ñı Ñģ
Ġpr incip
Ġz n
ĠÐ¸Ð½ÑĤÐµÑĢ ÐµÑģ
ĠÑį Ð»ÐµÐºÑĤÑĢ
Ġpr odo
æĿ Ĳ
ni ca
Ġpos s
å ²
ĠÐ²ÑĭÑģ Ð¾Ðº
ĠZ u
ĠÂ ·
Ġk á»
é Į
ĠS al
\\\\ \\\\
ÅĽ wiet
Ġpro p
cz u
ti gen
ĠÑĩ Ð°Ñģ
rÃ© s
Å ģ
czne go
Ġâĸ ł
ãĥ³ãĥ ģ
Ġen cu
è ı
Ġu04 3
Ð¾Ð´ Ð°
ĠG er
ãĥ¼ãĥ ĸ
ran k
d re
ĠÐ¿ÑĢÐ¾ ÐµÐºÑĤ
åħ ¬
cz na
Ð¾Ð² ÑĭÐµ
ĠgÃ©n Ã©ra
ie le
ter e
ÐµÐ½ Ð½Ð¾Ð³Ð¾
Ġpa ÃŃs
ĠãĤ ¦
Ġtr ze
Ġs tu
ĠÐ¸Ð½ÑĤÐµÑĢ Ð½ÐµÑĤ
ãģķãĤĮ ãĤĭ
g ung
ĠÐ´ Ð¾Ð¿
Ġmo i
Ġd ou
ĠÄĳ iá»ģu
Ġsp Ã©
ÐµÐ· Ð´
Ġv ita
ä¾ Ľ
p l
Ġtro va
Ġk ein
Ġm ie
Ġo c
Ð°ÑĤ ÑĢ
Ġweit er
Ð°Ñı Ð²
ãģ¡ ãĤī
) ;
ãģĶ ãģĸ
ĠãĢģ ãĢĮ
Ġt in
Ġv a
us t
Ġp uis
Ġna wet
ĠÑģÑĤ ÑĢ
Ġ ãģ«
und e
o i
Ð´ ÐµÑĢÐ¶
1 7
Ġprof ession
Ġ( "
ta j
Ġmo is
Ġsz czeg
Ġæ Ń
zz i
Ã Ĥ
ĠÂ ³
ĠÂ ¼
á»ķ i
ĠJ u
Ġdi fer
ĠÑģÐº Ð°Ð·
Ġe ing
Ġnas ze
Ġche z
Ġi tali
ar y
ĠãĢ ľ
ãĤī ãģĦ
1 3
Ġu lti
Ġå ¼
Ġj es
g ht
æµ ·
k l
ĠÃ Ģ
ÑĢ Ð¾Ð±
i O
p y
ĠÐ¼ ÐµÐ¶Ð´
ĠÃº lti
Ġan cora
Ġpo li
ĠL and
Ġmuch o
Ð½ Ð¸Ðµ
çĦ ¶
Ã ģ
uyá»ĩ n
ouv elle
ĠP rzy
ci dad
åĪ ¶
Ġwy k
ĠQ ues
res s
ĠdÃ© b
ÐµÑĢ Ðµ
áº¡ ng
g ro
ãĤ³ ãĥŁ
ĠA s
Ġ Ã¡
ÑģÐ» ÐµÐ´
:: ::
Ġ ãģª
re z
å¸ ĥ
ch te
ä¾¡ æł¼
Ġvo ir
æĹ¥ æľ¬
Ġpro je
ä½¿ çĶ¨
c oup
ĠktÃ³ ra
ĠR a
Ð¾ ÑĦ
Ġinc ont
Ġl ÃŃ
åħ ·
Ġc ap
is ter
Ð»Ñı ÐµÑĤ
ãĤ ¡
Ġf re
ÐµÐ½ÑĤ Ñĭ
Ġko lej
Ġm uss
Ġv iÃªn
t our
ĠÐ¿Ð¾Ðº Ð°Ð·
Ġæ Ĭ
ÅĤu g
ä½ ı
Ġa mp
ĠH a
ĠÐº Ð°ÑĢ
ĠI m
ĠÐĴÑģ Ðµ
ĠÐ¶ Ð¸Ð²
Ġm om
Ġquel ques
ar on
Ġz wei
ãģ ²
á» £
ãĥ© ãĤ¹
Ð° Ñī
ĠÅĽ rod
Ġb ou
ÑĢÑĥ ÑĪ
h i
ĠÑĢÐµÐ· ÑĥÐ»ÑĮÑĤ
D F
tÃ© s
ãģĹãģ¦ ãģĦãģ¾ãģĻ
Ġna le
kom men
te z
ĠÐ½ ÐµÐ¼
j as
g ni
s I
Ġtak ie
Ġkh Ã¡ch
ĠÐ´ Ðµ
n is
Ġ4 0
Ð¸ÑĩÐµÑģÐº Ð¾Ð³Ð¾
ĠSe x
Ġimp ort
Ġprzy pad
ÑģÑĤÑĢ Ð¾Ð¹
ĠW ie
æĦŁ ãģĺ
Ġï¼ ĳ
éĥ ½
ĠÐ£ ÐºÑĢÐ°
ÑĥÑĢ Ð³
ĠT ag
ĠÐº Ð½Ð¸
O L
as i
sk ich
Ġc an
ÐµÐ´ Ð¸ÑĤ
h Ã¶r
Ð² ÐµÐ´
cel ona
Ġtrab ajo
Ġes o
1 4
Ġl Ã½
Ġsu per
Ð¾Ð½ Ðµ
ãģ¨ ãģĵãĤį
o k
è£ ħ
O U
t on
æĪ ¦
Ġf am
Ð°Ð» Ð¸ÑģÑĮ
pr owadz
ĠH aus
t te
åİ Ł
ĠÑģÐ¾Ð¾ÑĤ Ð²ÐµÑĤ
Ġava it
ÑįÑĤ Ð¾Ð¼Ñĥ
ig er
Ġd ni
á»į n
ĠS er
kow e
ien do
Ġb ack
ãĥĸ ãĥ©
aj es
ĠÐ¼Ð½ Ð¾Ð³
å¤ ©
ĠâĢĿ ,
omb res
ci miento
ãģ§ãģĻ ãģŃ
åı İ
Ġc Ã¹ng
us am
Ġwy so
Ġc ro
ãĥŃ ãĤ°
ĠÐ±ÐµÑģÐ¿Ð»Ð°ÑĤ Ð½Ð¾
ÑħÐ¾Ð´ Ð¸ÑĤ
ĠãĤ ±
Ġc ab
ÅĤa w
di en
anie m
å½ ¢
Ð°ÑĤ ÐµÐ»Ñı
Ġan no
Ġ201 2
Ġal ors
iÄĻ ki
Ġbei m
Ã³ lo
Ð¾Ð³ Ð»
ĠÂ ´
7 9
Ġx e
ces o
ti ci
ãĥ¼ãĥ ĵ
tif s
Ġb u
ĠÐ¿ÑĢÐ¾ÑĤ Ð¸Ð²
Ġå ī
ĠL ie
ãģ© ãģĨ
Ġd urante
Ġz ro
ol le
ī ĭ
Ġex e
Ġpro jet
ĠÐ±Ñĭ Ð»Ð¸
is to
ka uf
Ġç Ļ
v ie
ta ire
s ter
å¿ħ è¦ģ
Ġav is
Ġe au
ck e
ĠÅĽ wia
Ġein es
c ur
c s
ĠÑĤ ÐµÐ¿
Ġp es
u ka
Ġqu a
ĠÐ· Ð²
Ġa nge
æ± º
Ġm er
Ġpo zy
ĠE uro
ĠÐ¼ ÑĥÐ¶
Ð½ ÐµÐ²
ad en
ĠÑĢÐ°Ñģ Ñģ
èª Ń
ei ÃŁ
Ã» t
Ġsy ste
Ã§ Ãµes
ĠD onna
in di
ãĥ³ãĤ ¸
Ġt anto
con tre
ri er
ka mi
v Ã©
ĠÐ´ Ð¾ÑĢ
çļĦ ãģ«
ÐµÑĢ ÑĮ
c ca
Ġk ra
Ġo per
ĠF Ã¼r
Ġn elle
ĠÐ¿ÑĢÐ¾ÑĨ ÐµÑģÑģ
Ġcu enta
ra it
ĠB r
Ñĥ ÑĢÐ°
Ã ĥ
Ġc áº¥p
Ġåħ ¨
ĠÐ½Ð° ÑĢ
Ġer a
ĠLe ben
å§ ĭ
ÐµÑĢ Ð¾Ð²
qu er
ÑĤ Ð°
p t
ãģŁ ãģ¡
osten los
Ġch icas
Ġsie mpre
k te
Ġcel a
ĠÐº Ð°Ð·
ĠÑĢ ÐµÐ±
ĠÐ¾ Ð¿ÑĢÐµÐ´ÐµÐ»
Ġm am
ci u
Ġd ist
ĠF e
ĠÐĵ Ð»Ð°Ð²
ĠÃ Ķ
ĠÐ±Ð¾Ð»ÑĮÑĪ Ðµ
ber g
ow an
Ġd am
Ġf aut
Ġvá» ¥
f all
id Ã©
ĠP a
ÐµÐºÑĤ Ð¸Ð²
Ġp ues
Ġpow in
å ĩ
gu i
ĠÐ¾ ÑĦ
åı ·
Ġwy s
Ġnue vo
ta ciÃ³n
ist es
p ro
ĠÑĦ Ð¸Ð»ÑĮ
w ania
ar se
ĠÐ¼ Ð½Ðµ
Ð· Ñĭ
Ġj ou
ãģª ãģĭãģ£ãģŁ
Ġg anz
p iel
ĠnhÆ° ng
wi ck
Ġni Å¼
ãģĵãģ¨ ãģ¯
ie urs
Ġque llo
Ġt an
Ã ī
ĠPos tÃ©
r er
ĠÐ¾ÑĤ Ð»Ð¸Ñĩ
ĠK ar
Ń Ĳ
ĠP ers
çĽ ´
Ġle g
ĠÐ½ Ð°Ð»
e ur
Ð°Ð½ Ð¸Ð¹
bi or
Ġpro b
Ġwar to
eit s
å ©ļ
ĠÐ²Ñĭ Ð±
8 0
enie m
gu a
Ð°ÑĢ Ð°ÐºÑĤÐµÑĢ
ç ¸
we ise
ĠÂ ±
Ġph áº©m
z d
ĠÐļ Ð¾Ð½
Ġãĥ ī
t ni
ĠD I
Ġqu ando
ĠÑĢÐ°Ð·Ð² Ð¸ÑĤ
áº¥ u
Ð¾ÑĤÑĢ ÐµÐ±
si Ã³n
di tion
Ġh ui
ĠãĤ Ħ
ter ior
jÄħ cy
è ĸ
i k
Ñĩ Ð°Ñģ
ãĥķ ãĤ£
ĠU na
Ð «
ĠÐ½ Ð¸Ñħ
Ġpersonn es
g ang
c an
cj on
ĠÐ¸Ð· Ð¼ÐµÐ½
Ġãĥ Ŀ
åĪ© çĶ¨
d Åº
ĠM il
âĢ ¦
Ã ĩ
Ã ĵ
ĠnÃ³ i
Ġm odo
ĠÐ¿ÑĢÐ¾Ð± Ð»ÐµÐ¼
y t
c is
ãĤ ²
ĠÑĥ Ð»
ĠÐ¾ÑĤ Ð·ÑĭÐ²
Ð¾ÑĤ Ð°
ow any
è ĭ
* *
ta ble
ÐµÑĢ Ð±
h m
wa ÅĤ
ĠÐº ÑĤÐ¾
Ġtra v
Ġpay s
ĠÐ¼ Ð°Ð»
ãĤ¤ ãĤ¯
ĠD am
Ġdo ve
pe ÅĤ
ĠB us
ci do
ãĥ¥ ãĥ¼
Ġâ Ļ
åı °
ÑĢ Ð°Ñģ
ĠÄĳ ang
Ġfin den
ç ¯
ĠwiÄĻ c
Ġf e
ĠÐ· Ð°ÑıÐ²
ei m
ãģªãģĮ ãĤī
Ġe je
g s
Ġp ag
ĠW enn
ãģĺ ãĤĥ
é ¤
ĠN aj
Ġe uro
ĠÑģÑĤ Ð¾ÑĢ
ãĤ ©
ĠA m
Ġinforma ciÃ³n
Ġ osta
ãĥ³ãĥ Ģ
Ġc ir
ĠÐº Ð°ÑĤ
Ġl Ãªn
é¡ ŀ
z pie
pu Ã©s
ÑĨ Ðµ
ich te
Ã§ a
Ġos Ã³b
c le
Ġãĥ ģ
ĠÐ¸ Ñİ
Ð¡ Ð¢
Ð¸ÑĤ Ñĥ
ç¨ ¿
è ĩ
f ten
ĠG u
Ġdes arro
c Ã©
ĠÐ´Ð¾Ðº ÑĥÐ¼
Ġtr Ã¬nh
Ġpro g
gr ound
Ġãģ Ķ
çĻ »
Ġpro ble
Ð± Ñĭ
Ðł Ñ
ĠÑģÑĤ Ð°ÑĢ
æĿ ±
in en
ĠÐºÐ² Ð°ÑĢÑĤ
Ġin d
Ġå ¯
Ðº Ð°Ð¼Ð¸
ow iÄħ
Ġhtt p
æľ ¨
Ð´ Ð¸Ð½
c ina
Ġs owie
Ġback ground
Ġãĥ Ł
ãĥ¡ ãĥ³ãĥĪ
Ġj ours
o re
ĠP reis
Ġch Ãºng
ĠÐ» ÐµÐ³
Ġs ÅĤ
ãģ¨ ãĤĤ
y ste
Ġc oup
çµ Ĥ
Ġt ec
Ġqu alitÃ©
ĠP l
Ġcas a
sta w
Ġza ch
ĠprÃ© sent
Ġsp iel
x t
ãĤ· ãĥ£
ĠÑĥ ÑĤ
Ġuns ere
Ġest u
Ġg esch
ig lia
ĠÃ© tu
åħ ĥ
ĠÑĥ ÑĢÐ¾Ð²
at t
I D
Ġmen os
r en
Ð°Ð» Ð¸ÑģÑĤ
Ġpo trze
ach t
ĠÑĤÐµÐ» ÐµÑĦ
Ġé Ŀ
Ġkh Ã¡c
O D
Ġd ÅĤu
ãģ¾ ãĤĬ
ÐµÑĩ ÐµÐ½Ð¸Ðµ
Ã© v
Ġw el
ct ri
ĠÑĤ ÑĢÐ°Ð½
v ano
Ġth is
Ġc las
ĠÐ½ ÐµÐº
n et
å ¡
Ġbeau coup
Ġu cz
Ġf al
Ġå° ı
é ¢¨
con om
Ã¤ h
Ġwy d
Ð¾Ðº Ð°
ĠCon ta
un que
gi que
ÐµÐ² Ð°
Ð Ļ
ĠÑģÑĤ Ð°ÑĤÑĮ
è Ĭ
Ġann Ã©e
Ð°Ð» Ð¾ÑģÑĮ
èĤ ²
Ġs elbst
Ġt ych
ĠL i
Ġes tar
Ġs ais
ãĥķ ãĥĪ
è ·
Ġres ul
ff e
ĠÑįÐº ÑģÐ¿
Ġs itu
L CJ
l ub
ĠÐ± Ð»
ul ar
Ġn um
ĠÐŀ Ñģ
g leich
Ð¾Ð» Ð¶
æ Ĵ
Ġver s
ĠÐ½ Ð°Ð¼
Ġh Ãłnh
ur y
Ġex per
ĠÐ¿ÑĢÐ¸Ð¼ ÐµÐ½
Ġo re
ĠÐŀ Ð½
Ġpo i
ãĤģ ãĤĭ
ier ung
Ġqui en
v re
Ġa o
c Äħ
2 5
ĠãĤ °
ri r
ĠÐ³ ÑĢÑĥÐ¿Ð¿
Ġb et
Ġf atto
j az
Ġe ur
ãģĦ ãģĨ
å »
Ð¾Ð¶ Ðµ
Ġper chÃ©
Ġpeti t
c olo
ĠÐ±Ñĭ Ð»Ð°
á» «
Ġat ten
Ġå º
Ġ ãģ§
ĠD u
o t
ÑĢ ÐµÑģ
ÅĦ ski
ãĤ¿ ãĥ¼
ĠÂ ¡
ĠP DF
gra m
ĠÐľ Ñĭ
is ten
Ġsu pp
ãģª ãģ®ãģ§
ĠÐº Ð»Ð¸
Ã Ī
Ã Ĩ
iá» ħn
ãĥ© ãĥ¼
éĮ ²
Ġpas s
ĠÐ² ÑĤÐ¾ÑĢ
ci Äħ
èŃ ·
Ġf ranÃ§ais
ĠÑģÑĤ ÑĢÐ¾
ĠÅ »
Ġna u
Ġcas o
ãĥ³ãĤ ·
Ġv rai
Ġl Æ°á»£ng
Ð¼ Ðµ
Ġcon na
Ġp utas
Ġb a
ÐµÐ¹ ÑĩÐ°Ñģ
ãģĤ ãģ£ãģŁ
Ġy o
Ġg us
Ġqu Ã©
ï¼ ķ
èģ ŀ
Ð° ÑĨÐ¸Ð¾Ð½
Ġj etzt
Ġdies em
è¡ ĵ
Ð°Ðº Ñģ
Ġz es
Ġs ido
ÃŁ er
ĠÐ¼Ð¾Ð¶ÐµÑĤ Ðµ
ĠWar sza
ĠP L
Ġ" )
u j
Ġè ª
om i
ĠÑįÑĤ Ð¾ÑĤ
åĬ ¹
ĠQ ue
ti ng
Ġde j
ķ Ĩåĵģ
åķ Ĩåĵģ
ï¼ Ī
v il
ÑģÐº Ð°Ð·
ãģ« åħ¥
ÅĤo Å¼
Ġcon se
Ġf our
Ðº Ð¸Ð¹
ar beit
Ð°Ð½ Ñĭ
Ġ0 00
Ġll am
l le
ķ ç¨¿
ãĤ¤ ãĥ³ãĥĪ
ĠÑĪ Ðº
Ġg el
ta ch
Ġæ µ
Ġm Ã¡y
ut to
Ð¸ÑĩÐµÑģÐº Ð¸
d f
y age
æ³ ¨
Ġte ng
ru ck
szy m
Ġé ĸ
g as
ĠÐ² Ð¾Ð»
åı Ĥ
ĠÐ·Ð° Ñī
Ġb iáº¿t
Ġse gu
ĠOn line
ĠÑįÑĤ Ð¾Ð¹
b au
cu la
ĠM an
Ġãĥ Ĩ
Ñĥ ÑİÑĤ
Ġg dzie
Ġcomp le
ãģ£ãģ¦ ãĤĤ
ãģ» ãģ©
Ġet was
ĠM as
Ġs tos
ĠL A
Ġpo co
se mble
Ð¾Ð³ ÑĢÐ°ÑĦ
ãģĵãģ¨ ãĤĴ
ĠâĢĿ .
ta dos
li ng
Ġh is
ĠÐ¼ Ð°ÑĪ
h and
os i
ch ten
Ð½ Ð¸Ñħ
ĠrÃ© alis
Ġph Ã¡t
l y
æ ¶
ÐµÐ³ Ð´Ð°
auss ures
auf en
cu er
Ġqu and
Ã© m
Ġpropri o
b ra
Ñĥ ÐµÑĤÑģÑı
ĠçĦ ¡
ta ts
æĦ Ľ
ãĤī ãĤĮ
ĠVer s
Ġal go
ĠÐ½Ð° ÑħÐ¾Ð´
la ge
Ġp el
Ġin sta
en den
I L
ĠâĢ ¢
Ġd ur
Ġè ¿
è¶ Ĭ
Ġdes s
æķ Ļ
Ġb ie
ĠÐ² Ð°Ñģ
Ġt uo
ille t
Ġqu anto
Ġo tro
Ã¶ s
el on
á»ĩ nh
t ÄĻp
Ð¸ÑĤ ÐµÐ»Ð¸
Ñĥ Ð¹
Ġra g
olo gi
Ġes per
Ð¸Ð¼ Ð¾ÑģÑĤÑĮ
ĠDeutsch land
w es
ĠI I
ĠdÃ© velo
Ð¾Ð´ Ð°ÑĢ
Ġs ab
Ġd ostÄĻp
¼ åħ¥
y a
Ð ¥
ÑĭÐ² Ð°ÑĤÑĮ
ab a
ãģ¡ãĤĥ ãĤĵ
ç ²
ĠA nge
Ð¸ ÑĦ
á»ĵ i
Ġd it
ãĤ¯ ãĥª
Ġso tto
ĠP f
Ġorg ani
__ __
ĠÑĥ Ð¿ÑĢÐ°Ð²
Ġemp lo
¹ ä»ĭ
ä»¥ ä¸Ĭ
Ġn Ãło
Ġbes te
ĠC ette
Ð° ÑģÐº
Ġes e
l s
ĠÐ¾Ð± ÑıÐ·
Ġmi es
Ð¾Ð´ ÐµÑĢÐ¶
iss ance
ĠGe w
ĠÐ´ ÑĢ
Ġpue den
ĠgÅĤ Ã³w
å® ¢
Ġv ille
Ã¤ s
sz ta
ĠÐ¾Ð± Ð¾ÑĢ
w id
ĠÐ´ ÐµÐº
ta le
ĠÑģÐ¾Ð¾ÑĤÐ²ÐµÑĤ ÑģÑĤÐ²
Ġc áº§n
Ġo ko
ĠÐ¿ÑĢÐ¾ ÑĪ
l tre
on der
ãĤĤ ãģĹ
ĠCom ment
ei ra
Ġnouve au
Ġrecher che
ĠTe il
åħ ī
Ġdis pos
ĠÐ¿Ð¾Ðº ÑĥÐ¿
ĠÐ¼Ð°ÑĤÐµÑĢÐ¸ Ð°Ð»
ĠÐ¼ Ð°ÑĢ
on ych
Ġtod a
em mes
ost ra
Ġje u
ĠÑģ Ð½
u he
j Ãł
áº£ m
Ġge ht
ob ier
Ġac tiv
ĠÐ¿ÑĢ Ð¸Ñĩ
Z I
Ġfo to
ĠSt ra
¥ ¿
ĠÐ¼ ÐµÑģÑı
Ġz wiÄħz
c cia
ti er
ÐµÑģÑĤÐ² Ð°
ĠDa ten
Ã´ t
Ã¶ glich
ãģĤãĤĬ ãģ¾ãģĽãĤĵ
ces so
w ni
áº¯ n
ĠÑĥ Ð³
Ġtod as
Ġen vir
Ġpr owadz
7 7
Ñĳ ÑĤ
Ġse a
ĠB ild
odz ie
v ere
ĠA k
Ġtr atta
Ġlá» Ľ
ze m
ne a
ãĥĨ ãĥ«
e z
ÑĥÐ»Ñı ÑĢ
r ow
a ta
ti mm
und a
Ġc et
Ġnaj lep
ãģį ãģŁ
z ien
Ġplus ieurs
ĠÐ¶ Ð¸Ð·
Ġcos Ã¬
uje my
le c
Ð¾Ñı Ñī
Ġmon do
å ĴĮ
ĠA uto
Ġl ib
ĠbÄĻ dÄħ
ãĥĲ ãĥ¼
è¼ ī
ĠE ste
ta t
ãģ® ãģ§ãģĻ
Ġsp rzeda
idad e
ĠIn ter
ÑĢ Ð¸ÑĤ
Ġave z
Ġjak ie
Ġa nh
iste ma
c re
Ġander en
éģ İ
ĠP as
et er
si ÄħÅ¼
ci Ã©tÃ©
Ġszy b
ĠÐ°Ð²ÑĤÐ¾Ð¼ Ð¾Ð±
ĠJe an
en ces
Ġtr Æ°á»Ľc
ĠE st
Ġå® Ł
Ġprof es
Ġav ons
p es
Ñĥ Ð»Ð¸
v as
ĠÐ¿Ð¾ ÑıÐ²
sze j
ĠÐºÐ¾Ð¼Ð¿ Ð°Ð½Ð¸Ð¸
ä»ĺ ãģį
ãĥ¼ãĥ ŀ
g io
us es
ÄĻ t
ĠÐ´ ÐµÐ²
Ġi ng
ge ben
Ġ" .
å¤ļ ãģĦ
Ġte le
æ® µ
li ck
Ã¼ ber
Ġar ticle
ãĤī ãĤĮãĤĭ
r ent
ĠåĲį çĦ¡ãģĹ
ãĤĵ ãģ§ãģĻ
ãĤı ãģĽ
or y
ãģĿ ãģ®
h o
ĠÑģÐ» ÑĥÐ¶
ĠP ra
Ð½ Ð¸Ñĩ
S I
cj al
éĢ ²
it t
ĠÃ ½
b u
ĠÑĩ Ð¸Ñģ
çĶ ·
Ġcon tr
ÑĭÐ² Ð°ÐµÑĤ
åĥ ı
g esch
dz ia
ÐµÐ´ ÐµÑĢ
ad ora
um e
ãģĦãģŁ ãģł
éĸ Ģ
ĠÐºÐ¾Ð¼ Ð¿Ð»
Ð°Ð½ Ð¾
Ġti po
éģ Ķ
m is
ĠGr und
Ã İ
á»ĵ ng
åĩº ä¼ļ
cz ej
è¿ Ķ
ĠB l
ĠÐ½ Ð°Ð±
ãĤĴæ Į
Ġn Äĥng
Ġus ta
it re
ĠÑģÐ»ÑĥÑĩÐ° Ðµ
r Ãª
Ġne ue
ĠÐ¶Ð¸Ð· Ð½Ð¸
Ġ\" :
Ġk iedy
ca ciÃ³n
èª ¬
ab e
Ġservi ce
n ung
Ð°ÑĤÐµÐ»ÑĮ Ð½Ð¾
ite ment
w is
¬ ĳ
ãģĻ ãģĻ
ãģ§ãģį ãģ¾ãģĻ
ta ge
ta d
ĠÐ·Ð°Ðº Ð¾Ð½
ĠMen schen
m ment
qu ÃŃ
od i
Ġnuo vo
Ã į
Ã³ a
Ġ rz
ĠÑĢ ÑĥÑģ
am o
Ð¸Ð¼ ÐµÑĢ
ãģ® ãģ«
id ent
Ġc r
ãĥ¼ãĥ Ĩ
Ġmi gli
Ð ¬
Â µ
ÑĢÐ° Ñħ
Ġpod r
res se
éģ ĭ
Ġtr ois
Ð¸Ð² Ð°ÑĤÑĮ
Ġal tro
Å¼e j
ĠÐ» Ð¸ÑĪ
en z
æł ¡
ĠÐ¡ Ð¾
Ġes tos
Ã³ ng
Ġorg anis
Ġko ÅĦ
ãĤĬ ãģ¾ãģĹãģŁ
la g
u a
Ð¾Ð² Ð°Ñı
ÑĢÐ° ÑģÑĤ
at ur
ĠÐ¿ÑĢ Ð¾Ñģ
ĠOd powie
Ġma jÄħ
ĠÐ¿ Ð¾Ð±
j ou
Ġpro y
Ġmo y
ta mente
b el
Ġnie z
Ġf u
ãģĮ ãģĤãĤĬãģ¾ãģĻ
sch ei
ĠÑģÐ² Ð¾Ð¹
Ġspos Ã³b
Ġbes o
Ġpremi er
Ñĥ ÐºÑĤ
ĠÐķ Ð²
be zpie
ĠV al
Ġcual quier
Ġhat te
ĠÐºÐ¾Ð» Ð¸Ñĩ
in ie
Ġpho to
Ġk ier
ar Ã¡
Ġf er
Ġnh áºŃn
k re
Ġsy st
é¡ į
â Ķ
ç¨ ®
Ð¿ Ð¸Ñģ
Ġgr ande
und es
Ġw ra
l uss
Ð¸Ð² Ð°ÐµÑĤ
in os
ar Ã³w
Ġsar Ãł
ze ich
ĠÐ¿ Ð¾Ð³
ãģĹãģŁ ãģĦ
ĠI N
Ġtut te
Ġah ora
Ġjus qu
äº Į
ĠÐ¾ Ð³
Ġr ich
ĠE N
Ġd ÃŃas
Ġwszyst kie
ç§ ģ
Ġm ujer
Ġmom ento
ĠÄĳ Ã¢y
Ġâĺ ħ
ç´ °
gl Äħ
qu Ã©
ãĥ¼ãĥĵ ãĤ¹
Ġdo ch
ĠÐ³ Ð¾ÑĤÐ¾Ð²
Ġan tes
Ġma chen
Ġp ouvez
ÑĥÑĤ ÑĢ
ãģĦ ãģı
ĠwiÄĻ k
ĠâĢ »
è¶ ³
Ġ201 1
Ã ¯
Ġm áº·t
æ ģ
Ð §
ÐµÐ½ Ñģ
tik el
ĠÐĲÐ» ÐµÐºÑģ
ĠÃ ĸ
aj a
éĻ ¢
Ð°Ð»ÑĮ Ð½Ð°Ñı
ei ro
Ġf Ã¼
ĠÑĥ Ð·
u ales
b ili
ca m
Ġch at
Ġnuest ro
ch a
men tos
Ġse u
ĠÐ¾Ð± ÐµÑģÐ¿
ĠÐ± Ð»Ð°Ð³
ĠV i
ĠS in
ãģ¨ ãģį
Ð°ÑĤ Ð¾Ð²
Ġes cri
Ġg leich
v in
Ġch áº¥t
au te
ĠÑħ Ð°ÑĢÐ°ÐºÑĤÐµÑĢ
Ġgi Ãł
Ġk osz
Ġde be
ra g
ck er
ãģĹãģ¦ ãģĬ
ch ts
4 0
Ġc ours
Ð¸Ñı Ñħ
ter ia
Ġa lles
ĠÑģÐ¾Ð± ÑģÑĤÐ²ÐµÐ½
ĠA le
Ġs ti
ãģĹãģ¦ ãĤĤ
t ki
ÑĢ ÑĭÑĤ
li ÅĽmy
å£ «
Ġk u
Ġt Æ°
ÐĿ Ðĺ
ĠÑģÑĤ Ð¾Ð»
ĠwÅĤ as
um p
6 0
ob il
Ġse m
na ge
zi mmer
Ġpro pr
m ein
Ġob ie
Ã¨ le
Ġprodu its
ĠÑĥ Ð±
et tes
ĠK le
ĠdÃ© jÃł
Ġå ·
Ð» ÐµÐº
Ġar t
h aus
è¨ ¼
Ġb á»Ļ
ĠPers on
Ð³ Ð°
Ġp df
ĠSu jet
ĠÃ©qui pe
us o
ĠÑĢÐ°Ð· Ð»Ð¸Ñĩ
Ġtr op
ç ĻĤ
owa ÅĤ
st Ã¤n
Ð» Ð°Ð¼
çĻ ½
Ġsu ite
ÐµÐ¼ Ð¾Ð½ÑĤ
¿ Ģ
ĠÐ½ Ð¾Ð¼
Ġpe li
ÑĨÐ¸ Ð¿
Ð¸ÑĤ Ð°
ãĥ¼ãĥ Ĳ
ĠA pp
iss ion
ĠÐł Ñ
Ð¾Ð´ Ñĭ
Ġof re
Ġcon di
Ġxu áº¥t
Ġsamo ch
Ġm Ã¼s
ÐµÑĤ ÑĢ
a ti
Ġè »
ĠÐºÐ¾Ð½ ÑĤÑĢ
jÄĻ cia
ĠM on
äº ¤
ĠÐ¼ Ð¾ÑĢ
ĠP lus
ĠRo z
Ġpart ie
Ġtr es
Ġsi to
cz ka
ĠD la
Ġè ¨
ĠM us
s ÅĤ
Ġnghiá»ĩ p
m on
Ġå ĩº
00 0
ĠÐº Ð°Ð¼
ç§ ĳ
Ġpers one
d ÄĻ
za hl
Ġtá» ±
Ġcha que
orzy st
ä¸ ī
Ġp Ãºb
ÑĥÐ½ Ðº
Ġenf ants
ĠÑģ ÑĥÐ¼
b ild
åĤ Ļ
ĠS tar
ĠÑģ Ð¾ÑĤ
Ð¸Ð»Ð¸ ÑģÑĮ
Ã¡ g
kt Ã³w
ĠÃ ¤
ç´ ¹ä»ĭ
Ġæ° ´
Ġprimer a
ĠS ur
ÑĥÐ· Ñĭ
in y
ve au
Ð¸Ðº Ðµ
ãģį ãģ¾ãģĻ
á»¯ a
ĠÑĥ Ð¿
Ġpri mo
åĢ ¤
Ġvie le
u da
Ġfa ci
Ġk olor
zÄħ dz
Ġå ¿
Ãº t
Ġi de
cj Äħ
ĠÑį ÑĦÑĦ
åĪ ¤
obier no
c itÃ©
Ð°Ð» Ðµ
ĠP ero
Ã¤l t
Ġcom ent
Ġcomp te
ÑĢÐ° Ñĩ
ĠE ine
elle ment
ÑıÑĤ ÑģÑı
ãģĻãģĻ ãĤģ
æĥ ³
iv el
ĠmoÅ¼ liw
c Ãª
Ġpe ÅĤ
Ã ķ
áºŃ y
al itÃł
Ġi ci
Ġt es
èģ ·
ĠÐļ ÑĥÐ¿Ð¸ÑĤÑĮ
ĠÐ¿ÑĢ Ð°ÐºÑĤ
ĠRe g
ĠktÃ³r ych
ãĥĩãĤ£ ãĥ¼ãĤ¹
2 2
ä¸Ĭ ãģĴ
Ġra p
ĠÐ½ÐµÑģÐº Ð¾Ð»ÑĮÐºÐ¾
-- --
èĳ ī
tiv as
Ġman era
Ġqu indi
ĠrÃ© f
cyj ne
Ġç ¬¬
Ġpol ÃŃ
Ġdo it
áº¡ ch
id er
ĠÐ² Ð¾ÑĤ
ĠSta dt
ĠÑģÐ¼ Ð¾ÑĤÑĢ
Ġog r
èī¯ ãģĦ
ĠÐ¡ Ð°Ð¼
Ð¸Ð½ Ð¾Ð²
å¼ µ
ĠÐ´Ðµ ÑıÑĤÐµÐ»ÑĮ
ti che
Ġin te
Z W
ÅĽ wiad
ĠÐ¿ÐµÑĢ ÐµÐ²
Ġn ouvelle
Ġé £
Ġn or
Æ°á»Ľ ng
ĠÐ½Ð°Ð¿ ÑĢÐ°Ð²
äºº ãģĮ
Ã¨ ne
f ang
Ð° ÑĨÐ¸Ñİ
Ġna m
¦ ı
ĠÑĤ Ðµ
ĠF a
ĠP ri
é Ł³
Ġna ture
Ġs ty
ch o
ÐµÐ» Ð¸Ñĩ
ĀĀĀĀ ĀĀĀĀ
ta mento
åį ĺ
Ġe igen
ĠA ve
tow e
ĠL u
en ze
ĠG ra
Ð½Ð°Ðº Ð¾Ð¼
åĢ ĭ
Ġmej ores
Ġparti r
Ð°ÑĤ Ðµ
ĠÂ ¶
Ġv Ã¬
Ġch ar
ĠEs p
Ġob je
ĠR oma
Ġp un
æ¸ Ī
Ð¾Ð½ Ð¾Ð²
ĠIn forma
Ġ ãģĹãģĭ
Ġp en
Ġdam it
wÃ³ j
Ġmil li
ĠF ar
un ter
ĠT ak
ĠÐ²Ñģ ÐµÐ³Ð´Ð°
ta ti
Ġin nych
Ġå ±
ÐµÐ´ Ð¸Ð½
Ġd Ã¢n
ma g
ãĤĪ ãģŃ
æŃ ©
an der
Ġpe que
ĠS a
å® ħ
lan c
Ġcos a
Ġse p
ĠÑı Ð·Ñĭ
Ġsa voir
ãĥ¼ãĥ ©
kie j
ĠU S
gra ph
zza zione
Ġo tra
res sion
è» ¢
Ġgi an
is ir
Ġb in
ĠWo hn
Ġvo it
Ġa mi
Ġãĥ ¢
Ð¸Ð·Ð½ ÐµÑģ
ĠÑģ ÐºÐ°ÑĩÐ°ÑĤÑĮ
ĠÐ° Ð¿
Ġn r
Ġtien en
ĠÑĥ Ð¼
Ġk to
Ġw Ã¼r
os o
ĠÐ´ Ð°Ð²
ãĥ« ãĥĪ
Ġz ad
endi ta
bi to
ĠO b
æ ¡
ĠÑĤ Ð°Ð¼
Ġlo ka
Ġri cer
æĮ ĩ
ĠÐ°ÐºÑĤ Ð¸Ð²
ĠEl le
á»į i
Ġb ene
Ġh Ã´tel
è¦ ı
g ue
ĠÑģ Ð¸Ð»
b ilitÃł
Ġn ar
ÐµÑĢ Ðº
ĠCh icas
g ur
ãģį ãģª
ĠÐ¿ ÑĥÑĤ
schie den
u la
ue go
ç¥ ŀ
Ġt re
Ġdz i
ãĤĦ ãģĻ
Ġso pra
jour d
m ann
ĠÑĢ Ð¾ÑģÑģ
r icht
Ã§ o
to wa
ĠÐ¿ÑĢÐ¾ÑĦ ÐµÑģÑģ
Ð¸Ñģ Ñģ
Ġæ ł
U E
ra l
æħ ĭ
i ge
ĠÂ ²
Ġk inh
Ð» ÐµÑĤ
se ment
z ado
w anie
Ġparti cu
ck ie
Ðº Ð°Ð½
Ġsta ta
9 9
Ġmog Äħ
ĠâĻ ª
ä¼ ģ
Ġtra ta
ĠÐ§ ÑĤÐ¾
Ġapp ar
Ð°Ð¶Ð´ Ð°Ð½
ãģ¨ è¨Ģ
ĠÄĳ iá»ĥm
Ġ <
Ġexe mple
ph one
è« ĩ
ĠÐ¾ÑĤÐ½Ð¾ ÑĪ
Ġh um
ãĤ· ãĥ§
z ent
ãĥĹ ãĥ¬
ĠEs paÃ±a
åĩº æĿ¥
Ð´ Ð¶
æ ¤ľ
ari as
Ġentrepr ise
ĠÐ¾Ðº Ð°Ð·
Ġcom mer
Ġnuest ra
ich ten
Ġde b
è³ ĩ
Ð¸ÑĩÐµÑģÐº Ð°Ñı
Ãªn cia
Ġpeu vent
Ġdod at
Ġå½ ĵ
ĠÑįÐº Ð¾Ð½Ð¾Ð¼
Ġn ec
ti do
Ġwie le
ĠÑģÐ´ÐµÐ» Ð°ÑĤÑĮ
hal b
ĠÐ¿ÑĢÐµÐ´ Ð¿ÑĢ
Ġéĩ ĳ
Ġho y
ĠÐ±ÑĥÐ´ ÑĥÑĤ
æı Ľ
g or
ĠÐ± ÐµÐ»
ãģĦ ãģªãģĦ
ĠÑģÐ¿Ðµ ÑĨÐ¸
Ġcz ÅĤ
áº¹ p
ĠâĹ ı
çĶ ±
I jo
Ġwsp Ã³ÅĤ
ĠÑģÐ» Ð¾Ð²
Ġge f
l ar
Ġb áº±ng
es sa
Ġk obie
ĠÐºÑĢ ÐµÐ´Ð¸ÑĤ
Ã³ d
ĠÑĥ ÐºÐ°Ð·
Ð½ ÐµÐ³Ð¾
Ġpod er
Ġsu c
è Ĳ
Ð¸Ð» Ð°ÑģÑĮ
keit en
qu il
ni enia
ÑĮ Ðµ
Ġcon tent
éĢ ł
Ġde cir
ĠÐºÐ¾ÑĤÐ¾ÑĢ Ð°Ñı
am iÄĻ
Ġda i
ti o
b es
s ÅĤu
å¸ «
Ġencu ent
ÐµÑĢ Ñģ
æ± Ĥ
ÅĤ od
Ġh in
Ġass ur
v enti
Â º
á» Ĺ
Ġor ig
usam men
a ga
Ð¸Ð» Ð¾
ãĥ¼ãĤ« ãĥ¼
æ² »
Ġk ostenlos
Ġs eit
le ction
ãģį ãģ¾ãģĹãģŁ
Ġren contre
or te
Z X
n iÄĻ
ĠÐľ Ð¸Ð½
ĠÑģÑĩ Ð¸ÑĤ
Ġnost ro
ãģĿ ãĤĮ
Ġk áº¿t
b an
isch er
L L
Ġnec ess
ĠF emme
Ġ201 0
Ġa ura
n ku
ãģĵãģ¨ ãģ§
ĠK ra
ĠÐŁÑĢ ÐµÐ´
Ġnas tÄĻp
Ð°Ð² ÑĪ
Ġprz es
Ġh echo
ĠÃ© p
f te
Ã¡ rio
ãĤ¤ ãĥī
cz es
Ġgrand es
ç´ į
ĠãģĿ ãģĹãģ¦
Ð¾Ð³ Ð¾Ð²Ð¾ÑĢ
Ġf ino
Ġmar s
ĠÐ²Ð½ Ð¸Ð¼
ĠG ar
Ġ9 0
æĸ ½
K A
k ry
ĠE S
mi entos
Ġma i
ÑģÐº Ð¾Ðµ
Ġw ill
Ġm ani
ç ¬¬
le i
áº£ nh
Ñħ ÑĢÐ°Ð½
Ġsein e
ĠãĤŃ ãĥ£
ĠÑģ Ð¾Ð´ÐµÑĢÐ¶
ĠÐ¿ Ð¾Ð¶
b li
å® ¤
çµ ¦
ãģĵ ãģ®
Ð½Ð°Ðº Ð¾
Ġza le
di g
Ġcu is
Ġh omme
or to
ç ¹
Ġnue va
Ġb onne
c ere
s el
Ġm ui
Ġdu Å¼
Ã© ro
en der
Ð¸Ð² ÑĪ
Ġb amb
ãĤī ãģªãģĦ
Ġæ Ĺ
Ãº p
Ġperson ne
za cja
in er
xi co
ĠÐºÐ¾ÑĤÐ¾ÑĢ ÑĭÑħ
.... ....
cul as
Ġs ku
Ã¶ ff
ãĤ ¼
Ġdes puÃ©s
b ia
Ġf ile
Ġjour n
ï¼ Ķ
è ħ
k ann
ĠÐ´ÑĢÑĥÐ³ Ð¸Ñħ
Ġmiejs ce
Ġï¼ Ĵ
ãģ« è¡Į
ON E
Ġcon os
ĠÃ ĵ
ĠÃ Ĭ
Ġph Ã²ng
R A
Ġem bar
ti en
å¾ ħ
glÄħ da
Ġpremi Ã¨re
Ġw en
Ġãĥ ¯
ien cia
ĠÑĤ ÑĥÑĢ
ow is
æ¯ Ķ
ĠÃ Ĵ
Ġth áº¥y
r Ãł
Ġju in
pod ar
Ġ äºº
Ġs Ã³lo
ĠW eb
Ġm ill
Ġpl an
Ġs co
Ã©ra tion
Ġé ķ·
Ġa fin
Ð°ÑĤ ÐµÐ»ÐµÐ¹
Ġnas zy
Ġn ich
ĠJahr en
ĠÑģÐº Ð¾ÑĢ
Ġfo i
ç ¿
ta zione
Ġt Ã¢m
Ġs enti
c ka
ĠP are
ĠCom o
Ġc iÄħ
Ġatti vitÃł
Ġn ada
la gen
Ġse ma
Ġg ay
Ġencont rar
ri ng
la ce
Ã Ħ
áº¯ ng
ãĤı ãģĳ
ĠS tu
Ġt om
ÑĥÐ´ Ð°
Ġte mu
Ġå ¸
ber o
ĠA uch
ĠÐ¿ÑĢ ÐµÐ¿
ier s
ç© º
ĠT est
Ġl iv
ĠÐ· Ð°Ð³
Ġsta r
ĠÑĢÑĥÐ± Ð»ÐµÐ¹
ĠÐ½ Ð°Ð²
Ġfil m
Ġes paÃ±
Ġdes cription
ti Ã¨re
Ġpre cio
ĠÐ²Ñĭ Ð±Ð¾ÑĢ
t schaft
Ġtrav Ã©s
ĠO p
ĠÑĦÐ¾ÑĤ Ð¾
y d
ĠÐ· Ð°ÑĤ
ĠT y
Ġe k
Ġris ul
Ġg Ã¬
ci er
ĠÐ¿ÑĢÐµÐ´ Ð»Ð¾Ð¶
Ã´ le
mit tel
ãĥĹ ãĥŃ
Ġp is
ÐµÐ½ Ð½Ð°Ñı
ĠU omo
Ġa zien
Ð» Ð¸Ð½
Ġo ltre
Ġj un
t ych
ĠÃ© conom
ĠÑģ ÑĥÑīÐµÑģÑĤÐ²
Ġch á»§
ÃŃcul o
il der
Ġwszyst ko
et t
ãģ£ãģ¦ ãģĦãģ¾ãģĻ
Ġnale Å¼y
ues ta
Ã¤ re
el s
la ciÃ³n
ĠCom e
Ġres te
9 0
is ce
Ġdz iaÅĤa
Ġng o
ÐµÐº ÑģÑĤ
an vier
æĸ¹ æ³ķ
Ġsch ne
Ġar ty
v al
ĠÐ´ Ð¾ÑģÑĤÐ°Ð²
Ð¸Ð¼ Ð¾ÑģÑĤÐ¸
Ġi r
Ġinter ne
ill er
Ġn ivel
Ð¸ÑĨ Ñĭ
ãģĶãģĸ ãģĦãģ¾ãģĻ
å¯¾ å¿ľ
ÐµÑĢ Ñħ
ĠI hnen
rit to
.. .
Ġa ni
æ ļ
ĠT i
Ġby ÅĤa
ve z
Ð¾Ð± ÑĢÐ°Ð·
w end
Ġo ggi
ãĤ¢ ãĥ«
Ð ¦
ÐºÐ¸ Ñħ
ent Ã³w
Ġper mi
Ġ03 9
Ġto Ãłn
is en
ĠÐ² Ð¾Ñģ
Ġãĥ ĵ
7 0
ÅĤ Ã³w
Ġpi Ã¨
ĠF ran
ç© į
va to
Ġspo t
ĠÐ¸ Ð´
ĠÑģ ÐµÐ³Ð¾Ð´Ð½Ñı
! !
Ġr ou
Ġdal le
I i
ÅĦst wa
æµ ģ
ic os
Ġb r
ĠÐ´ ÐµÑĢ
Ġf emme
ĠÑĦ Ð¸Ð½
8 8
Ġk os
Ġb áº£o
na tion
tic olo
Ġvol ta
Ġè ©
Ġse Ã±
Ġ ãģĻ
k cji
ĠÑģÐ°Ð¹ÑĤ Ðµ
se z
Ð°Ð» Ð°ÑģÑĮ
si ca
Ġprze ci
Ġque lla
ãģĹãģ¾ ãģĨ
Ġcon tin
ĠÂ ¸
Ġh iá»ĩu
ÑģÑĤÑĢÑĥ Ðº
ãģĵãģ¨ ãĤĤ
Ð°Ð± Ð¾Ñĩ
c ki
ĠÐ½ ÐµÐ²
et y
al d
ĠÐł Ð¤
ĠÐ¿Ð¾Ð´ Ð´ÐµÑĢÐ¶
m Ã¡
Ġthá» ĭ
ku je
Ġn un
at s
Ġw id
å¢ Ĺ
Ġgior no
li que
Ġwy da
ĠÐ¼ Ð¾Ð¼
Ġsu b
æ° ĳ
Ġim m
Ġele kt
ĠÐ² Ð°Ð¶
Ã¼ t
c ture
Ġpod czas
ech a
h ol
Ġth iáº¿t
Ġ6 0
ĠB as
Ġs ouv
åº ĥ
Ġgior ni
ĠÐ¼ Ð¼
os tr
Ġor a
ĠÐ´ÐµÑĤ ÐµÐ¹
Ġo tras
ĠAnge bo
ÐºÐ¾Ð² Ð¾Ð´
ob y
ãĤ¤ ãĤ¹
Ġsc ar
Ġ3 5
ĠÐĶ Ð¶
ĠU r
ä¼ Ŀ
Ġh á»Ļi
Ġ20 20
wy k
ces si
w arz
Ãº s
ĠW eit
ĠDies e
ĠÐ¼ Ð¾
ĠÐ²Ñģ ÐµÐ¼
ĠBar celona
Ġp al
æ ·
ĠÐ²Ðº Ð»ÑİÑĩ
Ġp le
Ġè ¡
Ġtiáº¿ p
Ġt or
Ġa ng
å¹´ 0
ãģª ãģŁ
ä¿ ®
ãģŁ ãĤĬ
Ð¾ÑĢ Ð¸Ñı
Ġmom ent
ĠMil ano
u zione
I j
b G
Ġni es
Ã¼ h
Ġs ÅĤu
c ont
ĠÐ¾Ð±ÐµÑģÐ¿ ÐµÑĩ
Ġprzypad ku
ä¾ ¿
Ġeff et
ĠÐ² ÐµÑī
Ġes a
tÃ© e
ĠD od
Ġini zia
Ġzw ischen
Ġa unque
Ġje ÅĽli
æĮģ ãģ¡
ÐµÑĢ ÐµÐ´
Ġtá» ķ
ãģĻãĤĭ ãģ¨
Ġv en
ĠÑĨ ÐµÐ»
Ġpossi bile
ĠãģĿ ãģĨ
r il
ĠÐ¼ Ð»
ĠÐ» Ð¸Ñĩ
Ã¤ uf
Ġc Ã´
dad e
ma ty
Ġ ï¾
ä¿ Ĥ
ĠkaÅ¼ de
Ð¸ÑĨ Ð°
Ġczy li
ĠÐ´Ð¾ÑģÑĤ ÑĥÐ¿
Ġprodu it
Ġ @
Ġs ali
Ġcz erw
Ġp age
ł Ķ
Ġcom er
Ġtech ni
i Äĩ
Ġqu ali
Ġal so
ĠÐ²Ð¾Ð· Ð´
Ġmet tre
e d
ä¾ ĭ
ĠB uch
ab les
Ġv ic
Ġw ol
Ġlo áº¡i
ĠÐ¿Ð¾Ð»ÑĮÐ· Ð¾Ð²
ĠW elt
ãģ¹ ãģ¦
Ġc ali
C H
2 9
ĠP ow
ĠÐ²ÑĭÐ¿ Ð¾Ð»Ð½
Ġtr ad
Ġsk ÅĤad
Ð¾Ð»Ð½ Ð¸ÑĤÐµÐ»ÑĮ
Ġf unk
Ġg odzin
Ġs en
ĠÑĢ Ð°ÑģÑĤ
ato re
ãĤ¯ ãĥĪ
ce ption
ĠÐľ Ð°ÑĢ
ãģ«ãĤĪ ãģ£ãģ¦
Ġvo cÃª
Ġt áº¿
se ur
Ð¾Ð² Ð¾Ð³Ð¾
Ġal cun
ni cy
ĠUnter nehmen
ĠG ran
ĠÐ¸Ð½ Ð´
un i
Ġ3 1
Ġen s
Ġan te
es en
un es
ĠÑĤ ÑĢÑĥÐ´
am il
cz ego
Ġe fec
Ġna tion
sz Äħ
ãģ µ
ĠÐ½Ð°Ð» Ð¸Ñĩ
Ġâ Ĩ
Ļ çľŁ
ĠÐ³ Ð¾Ð»
Ġap ro
ĠS ti
ĠÄĳ Æ°á»Ŀng
ãĥķ ãĥ¬
Ġsu iv
Ð°ÑĢÐ¸ Ð°Ð½ÑĤ
Ġï¼ģ ï¼ģ
èĩª åĪĨ
in nen
ka ÅĦ
Ġh ombre
Ġpor te
Ġs f
Ġe di
Ġm ise
è ¢
Ð¾Ñĩ ÐºÐ¸
ĠAve c
w ir
Ð»Ñİ Ð´
ãĥķãĤ© ãĥ¼ãĥł
Ġçī ¹
tiv es
Ġcor re
s am
ĠAc c
ĠsÃ© cur
ĠÐ» Ð¸Ð±Ð¾
nÄĻ trz
ĠB a
åĳ Ĭ
h me
g ent
ĠD el
Ġc ier
Ġu l
Ð¾Ð³Ð» Ð°Ñģ
k owa
ĠdÃ© f
cto bre
ĠJa hre
Ġm iÄĻdzy
ien e
ĠÄĳ á»ĳi
m and
Ð°Ð· Ð´
Ġun os
æ¬ ¡
ski m
ĠÑĢÐ°Ð· Ð¼ÐµÑĢ
A U
Ġann Ã©es
Ġricer ca
Ð¾Ð¼ Ðµ
Ġa f
å¿ µ
ĠÐ¼ÐµÐ¶Ð´ Ñĥ
ÅĤÄħ cz
ĠF il
Ġri c
gra f
Ã© li
ĠâĢ ļ
Ð°ÑĤ ÑĥÑĢ
ãĥ¼ãĤ ³
ãĤ¤ ãĥ¤
ĠÃ ģ
Ġrec enz
ujÄħ ce
ĠÐ½ Ð¾ÑĢÐ¼
Ġãĥ¬ ãĥĩãĤ£ãĥ¼ãĤ¹
ï½Ĺ ï½Ĺ
Ġèĩª åĪĨ
yste m
Ġb Ã¡n
ĠÐ¿Ð» Ð°ÑĤ
ant Ã©
Ġparti col
ĠÐ² ÐµÑģ
Ġt á»ĳt
ra ge
2 3
Ã¶ l
tem bre
Ġãģ ¡
ĠÑģÐ¿Ðµ ÑĨÐ¸Ð°Ð»ÑĮ
Ġc ost
ãĥ¼ãĤ· ãĥ§ãĥ³
is on
t Äħ
Ġe llos
ĠÐ¿ÑĢÐ¾Ð² Ð¾Ð´
ĠÑģÐ¿ Ð¾ÑĢÑĤ
Ġæ Ī
g ado
st and
ci ta
ĠãĤ Ī
ĠV ideo
Ġpro gra
er ie
ĠÐ¿ÑĢÐ¾Ð² ÐµÐ´
Ã ¥
ĠÂ ¾
Ġt Ã¬nh
Ġf ra
± ãģĦ
Ġd onna
Ġat tra
Ġm ÄĻ
ĠJe ÅĽli
ç ģ
ĠmÃ¶ glich
ĠÑĤ Ð¸Ð¿
ĠFo tos
ci l
Ġou ver
ĠÐ½ÐµÐ¾Ð±ÑħÐ¾Ð´Ð¸Ð¼ Ð¾
Ġå Ģ
Ġg an
ĠL E
Ã© b
ĠÑĢÐµÐ± ÐµÐ½
ÑĢ Ð¸Ð¼ÐµÑĢ
par t
Ġc y
ãģ¿ ãģŁãģĦ
åĦ ª
dzie l
ĠÐ¿ Ð¾ÑģÑĤÐ°Ð²
Ð¾ÑĢ Ñĭ
Ġl ung
ĠÐ¶ÐµÐ½ Ñī
Ñĳ Ð½
Ġc alidad
Æ Ĵ
uyá» ĥn
ĠAr tikel
Ġbar dziej
è į
u chen
Ġdes e
A T
s ty
Ġ ä½ķ
Ġfoll ando
ica ciÃ³n
f on
åĸ ¶
ard in
at ro
Ġso ciÃ©tÃ©
re k
Ġt iá»ģn
ãģ ¥
ar ie
Ġde utsch
ĠÐ²ÑĢÐµÐ¼ ÐµÐ½Ð¸
ille urs
ĠS k
Ġc oÅĽ
dz a
âĢ ĭ
èµ ·
Ġt Ã¡c
sch utz
ĠCh aussures
ma tion
Ġer st
Ġc ara
Ġ\ /
Ã³ mi
Ġte mat
ĠÑĥ ÑģÐ¿
Ã¡ ri
Ġt able
Ġas so
C Z
om oÅĽci
Ð°Ð½ Ð¸Ñİ
in k
é Ń
Ġ3 3
ier re
c ÃŃa
TI ON
Ġen semble
f re
Ġposs ono
orzy sta
Ġhor as
ãĥ³ãĤ Ń
ãģ« éĸ¢
Ð¸Ð» Ð¾ÑģÑĮ
ĠK a
Ġf ond
Ġc áº§u
id ente
ĠÐ³ Ð°ÑĢ
ÐµÑĢ Ð½
j m
ĠC ol
Ã§ on
Ð² Ð¸Ð¶
ĠK Ã¼
è³ ¼åħ¥
on as
w ort
ĠÑģÐ»ÐµÐ´ ÑĥÑİÑī
Ġdies es
ãģ®å ł´
Ġv uel
Ġm ont
Ġprzy go
ĠÐ´ Ð¾Ð²
ĠW a
Ġgratu it
rie ur
Ġ4 5
ĠÑģÐµÐ± Ðµ
ow ana
ãĥĸ ãĥ«
Ġwszyst kich
ĠãĤ± ãĥ¼ãĤ¹
æľ Ľ
olo gie
á»Ń a
Ġcon stru
ĠB au
Ð¾ÑĤ Ñĭ
Ġsecon do
ĠÑĩÐµÐ»Ð¾Ð²ÐµÐº Ð°
ĠK unden
ĠA ng
ä¸ĩ åĨĨ
Ġç ¾
ãĤĤãģĹ ãĤĮ
ĠÐ½ ÐµÐ±
Ġna pis
Ġt ar
Ġni veau
Ġåľ Ł
Ġber eits
k anie
ĠPol s
Ġsty le
éĻ ¤
Ġvá» ĭ
ow anych
ĠÐ² ÑģÑĤÑĢ
Ġho tel
ow n
åľ Ĵ
Ġe ben
Ġri en
ĠB undes
rÃ³ Å¼
Ġg ente
Ġty pe
ĠÐ¸Ð· Ð²ÐµÑģÑĤ
pp en
Ġqu ale
Ġs Ã£o
èŃ °
Ã© c
v os
Ġques tion
ien s
ud as
i os
áº¡ c
ves tig
Ġli ve
at h
Ġtr ouver
re chen
Ð¾Ð¿ Ð°Ñģ
s atz
Ġes pa
ĠG io
ãĥģ ãĥ£
Ð»Ñı ÑĤÑĮ
li ce
an ol
ĠP ubli
Ġperson a
ÑĢ Ð°Ð¶
Ġda bei
gen ce
di ca
d nia
Ġan dere
ĠM ont
Ġc oule
ĠÐ¶ Ð¸Ð·Ð½
éĢ Ł
6 6
Ġt ÃŃnh
co le
Ġpotrze b
ĠÐ³ Ð°Ð·
un a
Ġlie u
Ġle p
ĠÐ²Ð½ ÑĥÑĤÑĢ
ĠP la
ita l
al ny
ÑĥÑĤ Ð±
Ġam or
Ġkil ka
Ġs istema
ĠÐ´Ð¾Ð¼ Ð°
Ġhtt ps
Ġsh ort
Ġrap ide
Ġæľ Ī
ĠB eit
Ġwur den
ĠÐºÐ¾Ð½ ÑĤ
Ġt áº¡o
Ã©r ence
æĶ ¯
os podar
ĠB on
Ġcuis ine
Ġpres ent
ten ir
ĠÑģÐ¾Ð² ÐµÑĢÑĪ
Ġæ īĭ
ĠktÃ³ rzy
ÑģÑĤ ÑĢÐ¾
Ġ, .
å° Ĥ
mer o
è¦ ³
Ġpr endre
ĠÑģÐ» Ð¾Ð¶
ggi ung
Ġl etz
ie m
Ġequi po
ĠM er
R O
ten er
ang er
ĠÐļÑĢ Ð°Ñģ
Ð¡ Ð
ĠÐ³ÑĢ Ð°Ð¶Ð´Ð°Ð½
Ġc m
ve mbre
Ì ī
Ġna y
ĠÐºÐ°Ð· Ð¸Ð½Ð¾
Ġl ist
Ġprofession nel
ĠÐŁ ÐµÑĤ
Ġs our
ÑĥÑĤ ÑģÑĤÐ²
Ġu omo
Ġw al
f Ã¼r
Ġesta ble
s es
ĠÐ¢ ÑĢ
w u
å¤ļ ãģı
uf fi
Ã©n Ã©
Ġs ei
ĠÐ¿Ð¾Ð·Ð² Ð¾Ð»Ñı
Ġa li
Ġd osta
t ku
ĠrÃ©s ul
Ð°Ðº Ð¾Ð²
ĠA ber
Ð°Ð¹ Ð´
en de
Ġ Þ
Â »
ĠÄ ĥn
ta ur
Ġk ont
ĠÐ¸Ð· Ð±
Ġæ ķ
Ð² ÐµÑĢÐ¶
cor so
Ġdem ande
Ġp ie
Ġlas sen
Ġf ais
fi ka
ur z
ĠÑĢÑĭ Ð½
è ¬
Ġsi gui
Ġfil es
Ġservi ces
ĠÄĳ o
ĠÐ¿ÑĢ Ð¸Ñģ
ãĤī ãĤĮãģ¦
Ġest as
Ġr ÄĻ
k un
Ġch ia
ĠT out
ww w
Ġpo le
cion ales
ĠWas ser
ĠÐ¼ Ð°ÑģÑģ
Ð¾Ð» ÐµÐ²
r is
Ġp osta
ab ri
Ð¸ Ð»Ñı
èĸ ¬
ce mbre
pa gne
Ġo t
ãĤµ ãĤ¤ãĤº
Ġï½ ľ
Ġæ ¯
ĠÐ´ Ð¾Ð±Ð°Ð²
te les
Ġre mp
ĠéĢ ļ
Ð½ ÐµÐ¼
Ġstron y
Ġb áº£n
Ġhab ÃŃa
Ġwar en
ĠÐ¾ÑĤÐºÑĢ ÑĭÑĤ
Ġexp Ã©ri
Ġfun ction
Ġn p
Ġb en
Ġte xt
ãĥ¼ãĥ ģ
Ġde llo
inh a
c Ã©d
ĠÑģÑĤ Ð°Ð²
ĠktÃ³r ym
ĠÐ¸Ð¼Ðµ ÐµÑĤ
æŃ ¢
i mento
li ka
ĠT am
c tions
4 5
el h
ĠÑģÑĤ Ð°Ð½
Ġoff er
ÄĻ zy
Ġinter es
z as
å¹ ³
Ġpo tre
ten ant
ĠN ue
ĠÑģÑĢÐµÐ´ ÑģÑĤÐ²
ĠÃ´ ng
Ã¤t z
ĠÐ¿ÑĢÐµÐ´ Ð¾ÑģÑĤÐ°Ð²
Ġs elon
åĲĪ ãĤıãģĽ
Ġj anvier
A M
un cios
i zione
en cias
ãģĪ ãģ°
ĠH ier
ĠBe wert
ĠM in
ÑĢ Ñĭ
Ġcho ix
Ġte m
Ġdom u
ãĤĴ ãģĬ
ch ar
ca use
Ġ200 9
Ġãĥ į
b ilitÃ©
ÑĢ Ð°Ð´
Ġdob rze
Ġãĥ ľ
Ġe u
ĠS eite
Ġo pp
tra g
g in
ĠãĤ¹ ãĥ¼ãĥĳ
¡ å¸ĥ
æĽ ´
ãĤ³ ãĥ³
Ġä¸ Ĭ
re a
ĠÑģÐ² ÐµÑĤ
å ¦
ĠczÄĻ ÅĽci
e ll
si ma
Ġç ·
èĲ ½
ÑĤÐ¾ Ñĩ
b r
ĠBer lin
io re
i as
ĠÐ¸Ð³ÑĢ Ñĭ
Ã¼ tz
Ã ļ
Ġhá» ĩ
ĠX xx
e x
Ð»ÐµÐ½ Ð¾
v Ã©e
re dni
æ £
Ð°ÑĢ Ð°
ci endo
âĢĭ âĢĭ
Ġãģ ł
Ġå¥ ³
I O
Ġe conom
é¡ ĺ
Ġjak i
èĢĥ ãģĪ
am t
ÑģÑĤÐ² Ðµ
Ġme dio
Ġbe cause
N E
g Ã©
Ġp ÅĤy
z w
Ġque d
d lich
li Ã¨re
â ĺ
Ġæ Ħ
Ð¾Ð² ÑĭÐ¹
Ġf ine
á» ģn
ĠÑĦ ÑĥÐ½Ðº
åŃ ĺ
Ġcos as
Ñĩ Ð¸Ðº
g ÄĻ
Ġmie ux
ĠÐ¾ ÑĨÐµÐ½
fahr en
Ġe ng
Ġcol le
Ãĵ N
Ġqu ier
Ġh ombres
ÐµÐ½ Ð½Ð¾ÑģÑĤÐ¸
Ġk las
Ġestu di
ĠÐ»ÑİÐ´ ÐµÐ¹
Ġj am
at ter
ä¹ Ĺ
va tion
Å¼ u
Ġpo int
Ġo czy
d Ã¬
ut es
Ġm iaÅĤ
Ġ. .
Ġs ino
Ġrag az
Ġall er
ĠR i
ÐµÐ» Ð°
es i
ä½ İ
Ð½ Ñİ
Ġf az
Ðŀ ÐĴ
ĠÐ¡ Ð¾Ð²
Ã¬ m
Ġda tos
Ġb esch
Ġf Ã©v
Ġc ou
ĠÐ¼Ð¸Ð½ ÑĥÑĤ
Äħ ce
ĠC an
2 7
Ðº Ð¸Ðµ
Ġlo ca
ĠG o
è± ¡
t ung
gl Äħd
t nie
ÑĭÐ² Ð°ÐµÑĤÑģÑı
Ġempres a
Ġson dern
c ciones
h b
Ġp osz
» Ĵ
Ġgr oupe
Ġsoll te
Ð¸ Ð¾Ð´
Ġç ı¾
ĠÐ¿ÑĢÐ¾Ð´ ÑĥÐºÑĤ
ĠÐ¾ÑĤ Ð´ÐµÐ»
m l
st ÄĻp
ĠM ujer
Ġp ens
Ñĳ Ð¼
Ġqu áº£
Ã¤n der
lÃ© ment
Ġl ar
ãĤ¸ ãĥ£
ĠÐ¾ Ð·
le m
Ġgi Ãºp
ĠwÅĤa ÅĽci
Ġgr os
Ġcit tÃł
æĸ Ń
Ġd ise
t ÄĻ
it h
Ġpossi ble
f ern
ĠM Ã¡s
Ġzro bi
uf f
ues to
i om
çİ ĩ
it te
b s
ĠÐ± ÐµÑĢ
Ġp elo
ãģª ãĤĭ
ĠÐŁÑĢ Ð¾
ind ow
wor z
Ġz ei
Ðº Ð»ÑİÑĩ
ĠZa pa
oles c
Ġdes c
ĠÐ² Ð°ÑĢÐ¸Ð°Ð½ÑĤ
Ġhá» ĵ
Ġsal le
od za
st ra
Ġnuo va
Ġpro gram
ãĤ± ãĥ¼ãĤ¹
ãĤı ãĤĬ
ĠÐĳ ÐµÐ»
ĠJ an
Ã¢ ce
ĠÐ¿Ð¾Ð» Ð¾Ð¶
ãĥ³ãĥ Ĳ
ĠÃ© ch
Ġaus ge
ĠM Ã©
Ġth Ã¡ng
Ġa gua
Ġch w
Ġ ãģĭ
Ġra c
w od
Ġi phone
ãĤ Ĩ
ĠÑģ ÐµÐ¹ÑĩÐ°Ñģ
Ġques ti
ĠSp e
is me
ĠÐ· ÐµÐ¼
ä¼ ĳ
ãģķãĤĮãģ¦ ãģĦãĤĭ
Ġna tur
Ġer sten
ĠÐ³Ð¾ÑģÑĥÐ´Ð°ÑĢ ÑģÑĤÐ²ÐµÐ½
Ġser Ã¡
ãģ¨æĢĿ ãģĨ
ĠÐ± Ð¸Ð·Ð½ÐµÑģ
ÐµÑĢ Ð²
ato ri
ãģ ŀ
ĠJ est
ĠmÃ¼s sen
ãĥ ´
Ġin v
Ġoff re
sze go
ÑģÐ¿ Ð¾ÑĢÑĤ
Ġeje mp
Ġc ad
ĠÑģ ÐµÑĤ
Æ° u
Ġmui to
im mer
ĠÃ Ħ
Ġza pe
ĠÐ°Ð² ÑĤ
in iones
ci Ã³
ãģł ãĤįãģĨ
Ġm ode
vi ent
ÑģÑĤ ÑĥÐ¿
Ġt ow
åĢ į
ch io
ãĤµ ãĥ¼ãĥĵãĤ¹
cze ÅĦ
b ung
Ġtr ouv
u ali
ĠkÃ¶n n
ĠConta ctos
li co
ç ±
ĠÑģÐ¾Ð² ÑĢÐµÐ¼
Ġ200 8
kow y
at ri
li dad
ĠÑģÐ¸ÑģÑĤÐµÐ¼ Ñĭ
Ġph áº§n
Ġen d
Ġann un
9 5
le ÅĦ
Ġczas u
u ciÃ³n
ĠÑģÐ²Ð¾ ÐµÐ¹
ä¸į åı¯
Ġma ggio
ãĥ¼ãĤ Ń
z ug
Ġtam b
Ġde p
è¦ §
Ġdro it
szta ÅĤ
te llt
ĠÑĥ Ñģ
ĠJe d
ãģ«ãģª ãģ£ãģŁ
Ġderni er
) )
Ð»Ñı ÑİÑĤÑģÑı
ãĤ± ãĥĥãĥĪ
Ġda ti
Ġver dad
vil u
Ã©r er
ãģ®æ ĻĤ
Ġv ente
Ġzur Ã¼ck
b res
ĠÑĤ Ð¾Ð¶Ðµ
Ġk siÄħÅ¼
cuer do
ĠÐº Ð¾Ð¶
ĠÐ½Ð°Ð´ Ð¾
ãĥ¼ãĥ ĩ
ĠÐº Ð°Ð¿
ver so
Ġp endant
Ðł ÐĲ
Ð°Ð»ÑĮ Ð½Ð¾Ðµ
Ġo trzym
ĠÄĳ áº¹p
Ġåī į
ĠÑĢ ÑĥÐº
Ġph ÃŃ
Ġfun cion
Ġå Ĭ
Ġp ost
ãĤ¿ãĤ¤ ãĥĹ
ĠåĽ ½
Ð¿Ð¾Ð» Ð¾Ð¶
Ġter az
k lich
Ġv iene
Ġsk lep
u ten
Ġs ÃŃ
Ġzaw sze
ãĥ Ĵ
ĠrÃ©g ion
Ġsc on
ĠÂ º
ĠÄĳ iá»ĩn
WW W
Ġrze czy
Ġre f
Ġpubb lica
ãģ ģ
2 6
ĠÐ´ Ð¾Ð³Ð¾Ð²Ð¾ÑĢ
ãĥķ ãĤ§
Ġf ol
ÑĢ Ð¾Ð¼
hl t
Ġuti lizza
ent as
and a
ÐµÑĩ Ð½Ð¾
Ġden n
ÑĮ ÑİÑĤ
u ÃŁ
Ġinforma tions
tu a
åŁ º
ĠÐĴ Ð°ÑĪ
Ġkom mt
ĠÐ½ÐµÐº Ð¾ÑĤÐ¾ÑĢ
Å¼e li
Ġcono cer
Ġo ctobre
ĠM Ã¤
ĠÃ Ń
or ts
ãģ® ãĤĤ
Ġr odzin
Ġkom men
am e
ãĤĴæĮ ģ
te au
Ġd in
al en
ni os
ul o
Ġdo p
Ġmill ones
Ġlin k
å¼ķ ãģį
m us
n es
Ð¸ÑģÑĤÑĢÐ° ÑĨÐ¸Ð¸
Ġtamb Ã©m
ĠÐĺÐ½ ÑĤÐµÑĢ
Ġdz iÄĻki
Ġå ĭ
Ġinforma zioni
ĠÐ¡ ÐºÐ°ÑĩÐ°ÑĤÑĮ
ĠÐŁÑĢ Ð¾Ð´
ĠÑį Ð½
onne ment
Ġl Ã©g
å® ³
ĠuÅ¼y tkow
ĠE L
Ġa que
á»Ļ ng
utsch ein
Ġk aufen
i ti
Ð Ń
Ð¸ ÑĨÐ¸Ð°Ð»ÑĮ
ĠMe hr
Ġpoz iom
ĠÃ ¶
ãĥ¬ ãĥĵ
ĠÑĢ Ð°Ð½
Ġes ti
an Äħ
va re
Ġãĥ¡ ãĥ³ãĤº
ãģŁãĤģ ãģ«
I T
ĠrÃ© ser
w s
is piel
Ñĩ ÐµÑĤ
ĠÅ¼e by
ĠÑĢ ÐµÐ¶
Ġznaj d
ĠÐ¡ Ð²
ĠÐ¼ÐµÑģÑĤ Ð¾
ĠAl le
ck t
Ġto tal
Ġv eces
ent re
Ġd á»ĭch
Ð² Ð°ÑĤ
wer k
zza to
Ġpou voir
ma to
stell ung
Ġzak res
b ir
ma ch
Ġpar f
ĠÐ¸Ð¼ ÐµÐ½Ð½Ð¾
Ġc ur
åī ²
Ġpor n
ĠcÃ³ mo
kun ft
Ġhis toire
ĠÑĤÐ°Ðº Ð¾Ð¹
Ġkre dy
Ġa demÃ¡s
ĠÐºÐ²Ð°ÑĢÑĤ Ð¸ÑĢ
ĠS tr
oba cz
m io
ĠÐŀ ÑĢ
ãģĳ ãĤĮãģ°
Ġp ela
ĠC Ã´ng
ar t
Ġu wa
un kt
ĠÐ¿ÑĢ Ð¸Ð´
ĠÐ³Ð¾ÑĢÐ¾Ð´ Ð°
Ġann on
r um
Ġapp el
Ġtá» Ľi
Ġl ine
Ġpop rze
Ġ3 4
Ð¸Ð»ÑĮ Ð½Ð¾
è© ¦
b ol
Ġhe ute
vo le
Ġdi jo
ĠÐ¿ Ð¾ÑĤÑĢÐµÐ±
Ġfir my
ĠåĲ Į
Ġpre cios
o g
Ġpo ko
Ð¸ÑĢÐ¾Ð²Ð°Ð½ Ð¸Ñı
Ġmo je
Ġra z
Ġfiles _
ĠN i
Ġå® ¶
p ond
Ġsep tembre
i fica
ĠE UR
h Ã¤lt
m F
k ania
æĤ ª
Ġjam ais
ĠÐ°Ð² ÑĤÐ¾ÑĢ
Ġch á»©c
ion y
Ġi f
ãĤĴæ İ
ĠAr t
Ð¾Ð´ Ðµ
Ġvrai ment
Ġv endre
Ġeff ec
ĠC ON
Ġesta do
Ġb ois
Ġan ci
Ð°ÑĢ Ð¾Ð²
Ġtrze ba
Ġst esso
Ġh as
ãĤ¹ ãĤ¯
lie ÃŁ
, \"
K I
Ġob ec
ÐµÐ½ ÐµÑĢ
ĠV ia
ce d
æĿ ¿
Ġä» £
Ġdonn Ã©es
ĠÑģÑĤÐ¾ Ð¸ÑĤ
é«ĺ ãģĦ
Ã¼r lich
3 3
ĠNo ir
au l
Ġcom men
ÑĨÐ¸ ÐµÐ¹
uf en
Ġpoz osta
Ġt al
æ¥½ ãģĹ
ver o
cas ion
al nie
Ġth Æ°á»Ŀng
Ð¸ÑĤ Ñĭ
il lo
s etz
ab ile
Ġalgun os
in ts
ÐµÐ¼ Ð°
Ð¸ ÐµÐ²
ÐµÑĪ ÑĮ
ĠãĤ ¬
Ġroz po
ĠÑĤÐµÑĢ ÑĢÐ¸ÑĤ
Ġver schieden
ĠC i
Ġtrab al
ç´ ļ
ÐµÐ½ Ð½ÑĭÐ¼
Ġ' ,
Ġpr omo
Ġal tre
ĠCh am
ĠW iel
Ġes cu
è²© å£²
ä»ķ äºĭ
y er
ÑĥÐ¶ Ð´
p ort
ãĥĥãĤ· ãĥ¥
ãģ«ãĤĪ ãĤĭ
Ġme d
Ð¼ Ð¾ÑĤ
Ġne uen
ĠÐ²Ð¸Ð´Ðµ Ð¾
ĠPols ce
f s
ĠÐ¿ÑĢÐ¾Ð² ÐµÑĢ
ch ron
ĠÑģÐ²Ð¾ Ñİ
Ġer ste
Ġin for
Ġno i
Ġok re
m ina
æ¼ Ķ
au d
ĠÐ¿ÑĢ Ð¾Ñĩ
åħ ±
Ġk onn
ca re
ĠÐ² Ð¾ÑģÐ¿
ien i
Ġpod e
Ġt us
Ġmuch os
7 8
Ġsyst Ã¨me
Ð¾Ð¹ Ð´
ĠG ro
ka za
ĠåĮ Ĺ
v ento
und er
ĠÑģ Ñĭ
ç¨ ĭ
st wa
Ġlist _
Ġun i
ĠÐ·Ð´ ÐµÑģÑĮ
ĠF ahr
åº «
äº Ĩ
Â ¡Â
Ġkh u
Ð± Ð°
1 00
ĠPro ble
an ze
ĠÐ¿Ð¾Ð» Ð¸ÑĤ
kie go
ĠC H
Ġe lles
Ġa gli
æĿ ĳ
Ġhis toria
ĠÐĹ Ð°Ðº
ĠÑĢÐµÐ³ Ð¸Ð¾Ð½
ãģı ãĤĭ
ry wa
w Ã¤
ĠT or
Ġæľ ¨
c ci
ãģ£ãģ¦ ãģĦãģŁ
ĠÐĽ Ñİ
Ġce ux
æŃ ³
Ġde f
Ġrep res
æĹ¥ ãģ¯
å ´
Ġju illet
Ġnost ra
Ġfin al
I G
am a
ĠÐ¿ÑĢÐµÐ´ Ð»Ð°Ð³
po zy
ĠB uen
Ġimport ante
le ge
Ġk r
ĠæĻĤ è¨Ī
Ġçµ Ĳ
ĠG em
ĠB y
Ġ ãģ§ãĤĤ
éģ ©
ĠdÃ©velo ppe
ĠF all
ĠT wo
Ġpas ado
ĠÐ²Ñĭ Ð³
Ġkon ie
C E
la is
ĠN el
ÑĦ ÐµÑĢ
Ġï¼ Ĩ
ãģĹ ãģªãģĦ
ĠÄĳ áº¡i
ten ciÃ³n
n Ã©
te ll
Ð» Ñĭ
Ð°Ð» Ñı
ĠÐ½Ð°Ð· Ð²
éĽ £
cz nym
Ġho ch
Ġa quÃŃ
Ġposi ble
Ġur zÄħdz
Ġapp lica
ĠÐĴ Ð»Ð°Ð´
ĠDam en
tis ch
ÐµÐ½ Ð½Ð¾Ðµ
ãģĵ ãĤĮ
Ġp esso
Ġm Ã³wi
Ġ] ,
Ġno ta
æĸĻ çĲĨ
ind et
ĠN r
s u
Ġpos iada
Ġsich er
åĭ Ŀ
Ġ. )
Ð½Ð¾ Ñģ
rÃ© sent
Ġs ca
is tre
ĠÐ½ ÐµÐ³Ð¾
Ġap lica
as sen
Ġwiel u
Ġgi áº£i
æ ¹
Ġespe cial
Ð°ÑĢÑĤ Ð°
ĠC hr
x te
Ġs os
Ġå® ī
ĠCh ar
ĠÑĢÐ°Ñģ ÑģÐºÐ°Ð·
ĠÑģÐ¾ÑĤ ÑĢÑĥÐ´
ð Ł
Ġå İ
Ġ3 9
Ġre tr
ĠÐ½Ðµ Ñģ
Ã® tre
ĠÐ¿ ÐµÑģ
ĠÐ»ÑĥÑĩÑĪ Ðµ
Äħ dz
ĠS am
éĺ ª
ĠC al
Ġdis p
å² ¡
å¥³ æĢ§
ãģ®å Ĳ
Ġno vembre
ĠÐ¾Ð±Ð¾ÑĢ ÑĥÐ´
g te
Ð½ ÑĥÑĤÑĮ
Ġsz ko
da p
r ero
Ġmad uras
Ġservi cio
Ġpeti te
ĠQu á»ĳc
ĠwÅĤa ÅĽnie
olo re
Ġä» ¥
Ð»Ð¸ Ð·
ÅĽ nia
ĠT er
ĠãģĹãģĭ ãģĹ
A CI
Ġcam bi
Ġprac ow
ĠDz ie
ĠÃ© l
ÑģÐº Ðµ
ĠÐºÐ°ÑĩÐµÑģÑĤÐ² Ðµ
w al
Ġ3 6
Ġcel ui
Ġbas e
ĠÐ²Ñĭ ÑħÐ¾Ð´
p ol
ĠT a
ĠÐ½Ð°ÑģÑĤ Ð¾ÑıÑī
ãģ® äºº
ci Äĩ
ĠÃ ĥ
Ã ħ
á»Ł i
Ġkon ta
Ġus o
ĠÐ¼ Ð°Ñģ
ĠÐ·Ð°Ð² Ð¸Ñģ
ĠÅĽ wie
us ch
Ġcent re
Ġhab ita
éĺ ²
Ġprofes ion
Ñģ ÑĭÐ»
ĠÐļ Ð¾ÑĢ
olo gÃŃa
Ġima ge
sch ein
Ã± as
c in
ÑģÑĤ Ð°Ð½Ð¾Ð²
Ġm Ã¡
2 8
æ§ ĭ
Ġhe ure
Ġj o
ĠÐ¾Ñģ ÑĥÑīÐµÑģÑĤÐ²
ra re
b ud
åį ģ
ĠFo ll
r ada
ÑĢ Ð°ÑĤÑĮ
Ġservi cios
ĠFo to
Ð° ÑĦ
ĠSt and
Ġk áº¿
Ġe lla
ĠÃ ¢
Ġpon ad
ãĤ¦ ãĤ§
Ð°ÑĤ ÐµÐ»Ð¸
i ciÃ³n
Ġda zu
Ġv endita
ĠN ero
ĠnÃ© ces
c ce
por te
ar ze
ĠÑģ Ð¸ÑĤÑĥ
ÐµÐ½ Ð·
ĠD urch
ĠM erci
ĠÐ²Ð¾Ð·Ð¼Ð¾Ð¶ Ð½Ð¾ÑģÑĤÑĮ
Ġsie bie
ãĤĴ ä½¿
c ine
Ġni Ã±os
ĠÑģÐ²Ð¾ Ð¸
ĠIn tern
Ġãĥ ĭ
ess age
c ono
Ġla ng
ĠÐ´ÐµÐ½ÑĮ Ð³Ð¸
ÑĤ Ñĭ
ç® ¡
Y X
Ġsy tua
Ð°ÐºÑģ Ð¸Ð¼
ĠG l
Ð°ÑĢ Ð¾Ð´
owiÄħ z
il ia
Ġi gu
ĠÃł s
Ġb á»ĩnh
Ġbes ten
ĠÐ´Ð² ÑĥÑħ
ĠãĤ· ãĥ£
Ġal bo
ãĥ¼ãĥ ª
li zar
Ġm eine
ĠSch ul
åį Ĭ
n isse
ĠÐ¿ÑĢ ÑıÐ¼
tori o
ĠdÃ© cembre
p Ã©
Ġsi ng
Ġsu i
Ġho áº·c
ind a
Ġseg ur
Ġwe il
Ð»ÐµÐ½ Ð¸Ð¸
åī ¤
Ġl it
ãĥ³ãĤ µ
æĶ ¾
Ġcomp ar
ĠB ere
Ð°Ð¶ Ð°
ĠÐĿ Ð°Ð¿
ĠF amil
Ġas p
y ba
Ð¸ÑĢÐ¾Ð²Ð°Ð½ Ð¸Ðµ
Ġst ra
Ġï¼ ħ
ĠæĿ± äº¬
ãĥ¼ãĥ ķ
Ġvo yage
ĠÐ¾ ÑģÑĤÐ°Ð²
gen es
Ġâĺ Ĩ
Ġãĥķ ãĤ¡
b et
Ð¸ÑģÑĤ ÑĢ
ier a
ãģ«ãģª ãĤĬãģ¾ãģĻ
Ġd rei
ĠÐ¿ÑĢÐ¾ÑĦÐµÑģÑģ Ð¸Ð¾Ð½
Ġz god
u jÄħc
ĠÐ¼ Ð¾Ð»
Ġuti li
ĠÑĢÐ¾ÑģÑģ Ð¸Ð¹
ĠÐ» ÐµÑĩ
ÐµÐ» Ð¸Ðº
Ġservi zio
za Ã§Ã£o
Ġpon ie
ĠR Ã¼ck
Ġn ing
ãĥģ ãĤ§
Ġv in
Ġ _
ãģ«ãĤĪ ãĤĬ
wa re
Ġna t
ĠÐ½ ÐµÐ·
Ġprodu ctos
Ġed u
na hme
ĠdÃ© ta
Ġfor me
ç ĭ
Ġgra cias
ĠÐ¿Ð» Ð¾Ñī
Ġa si
kl Ã¤r
ĠÃ Ī
al noÅĽci
Ġfir m
Ġspo ÅĤe
ĠÐ´Ð² Ð°
Ġv Ã©
st wo
ãĥ¼ãĥ Ĭ
ct ura
Ġspiel en
ĠA ll
ĠÐ¿Ð¾Ð² ÑĭÑĪ
ĠçĶ Ł
Ð»Ñı Ð´
w em
Ġv idÃ©
ĠÐ¾Ð± ÑĢÐ°ÑĤ
Ġå £
èŃ ĺ
Ġdies en
Ð¾ÑģÑĤ Ð¾
Ġj Ã¡
ĠÑĤÐ¾ÑĢ Ð³
Ġmi ent
Ġau jourd
Ġza wi
Ġein z
ĠÐŁÑĢ Ð°Ð²
ĠÐĿ Ð¸Ðº
Ġo tti
Ġj Äħ
ĠÐ¤ ÐµÐ´ÐµÑĢ
ĠÑģÑĤÑĢÐ¾ Ð¸ÑĤÐµÐ»ÑĮ
ĠB ras
çŃ ĸ
a Ã§Ã£o
Ġrapp ort
ĠÑĪÐº Ð¾Ð»
ãģ®è ©
Ġu p
b as
Ġabb iamo
g Ãºn
é º
u le
Ð°ÐµÑĤ Ðµ
ãģ¦ ãģĦãĤĭ
ze k
Ġlá»Ľ n
sp iel
ch nik
ian co
Ġf i
Ġï¼ İ
åĮ Ĺ
Ã¼n s
ĠÐ´ Ð°
ĠÑĥÐ´ Ð¾Ð±
ĠÑĢÐ°Ð· Ð¼
Ã¤hr end
Ã¡ri os
cyj nych
u ma
Ð°Ð· Ñĥ
Ġm io
ĠP i
ãĤĩ ãģ£ãģ¨
ĠãĤ ´
Ð½Ñı Ñı
ar si
Ġpre gun
t out
ĠÐ² Ð¾Ð¹
ãģŁ ãĤī
ĠQu Ã©
å Ŀ
Ġd entro
Å ļ
Ġf ak
æº Ģ
v ille
ãģ¯ ãģªãģĦ
le u
cy d
Ġbeso in
äº ķ
Ġ ãģªãĤĵ
æĻĤ è¨Ī
Ġwid th
Ġåľ °
Ġv ar
an ego
ĠPri x
Ġn Ãº
Ġav ril
Ġav ere
Ð°ÑİÑī Ð¸Ñħ
ĠrÃ© se
r Ã³w
Ġs vilu
qu oi
ãģ« å¯¾
ie d
ĠG ay
Ġmient ras
Ġa ide
m Ã¤
ãģı ãĤīãģĦ
ĠÑĢÑĥ ÐºÐ¾Ð²Ð¾Ð´
zy n
Ġj ÄĻzy
Ġãĥ Ĭ
ven ir
Ð¾Ð² Ð°ÑĤÐµÐ»ÑĮ
Ġd Ã¹ng
ĠF in
Ð¼Ð¾ÑĤÑĢ ÐµÑĤÑĮ
ãĤĴ è¡Į
ven tion
æĿ ¡
vers idad
Ð¸ ÐµÐ¹
Ġa tÃ©
ul es
Ġim mag
æ Ĳ
ĠÑįÑĤ Ð¸
us tr
åıĹ ãģĳ
ĠÐ´Ð¾ÑĢ Ð¾Ð³
ĠInforma tionen
Ġ3 8
ĠÑĤÐµÑħÐ½ Ð¾Ð»Ð¾Ð³
to wy
Ġph Ã¡p
Ð°Ð¹ÑĤ Ð¸
ĠC ont
Ġdes car
ĠProdu kt
od Ã³w
do ch
Ġa per
t tes
ÐµÑĢ Ð¾
un ta
an ej
Ġcom b
Ġmar gin
ãĥ¡ ãĥª
isse ment
ica tion
Ġä¸ į
Ġa se
ĠÐ´ÑĢÑĥÐ³ Ð¸Ðµ
Ġmus i
in te
ra gen
ãģ®å ¾
Ġcon si
Ġcas ino
ĠM od
Ðº Ñģ
ĠHo ch
ĠfÃ©v rier
b 3
Ġ ÅĤa
Ġdis f
n elle
Ġgiá» Ľi
Ġfa ce
ar o
ÑĭÐ² Ð°ÑİÑĤ
ãģĭ ãĤĭ
ĠSp ort
cul ar
Ġpho tos
z on
en sioni
ug no
é¤ ¨
for der
Ġcham bre
Ġsouv ent
Ġqual itÃł
Ġï¼ ŀ
è ¥¿
Ġin ve
Ġdi a
Ġsc el
ĠS E
Ã¡ m
Ġw aÅ¼
åŁ Ł
ĠC Ã³
en da
ĠÐ·Ð´ Ð¾ÑĢÐ¾Ð²
ĠP res
Ġc ump
ri ngen
Ð² Ð°
Ġc entro
ĠktÃ³re j
ib ilidad
Ġsein er
Ġprodo tti
ĠÑĢ ÐµÐ´
c cio
ĠrÃ©p ond
Ġreali zar
Ġbez pie
ub le
Ġcar te
ÑĢ ÑĮ
Ġnota mment
ĠNa cional
ak ter
ãģĹ ãĤĥ
Ġä¸ ī
å» º
ĠB ou
ĠÃ©le ctri
ĠÐ¼ Ð¾Ð»Ð¾Ð´
urs os
Ġca pa
ĠÐ¾Ð± ÑĭÑĩ
M D
dz ier
ĠA ug
é ľ
ech os
ĠK re
Ġin ne
is ation
nh o
Ġsal ud
Ġs etti
ãĥ³ãĥ ĳ
uni cip
Ġle y
ĠdÃ© s
ä¸ĸ çķĮ
e ich
r ia
Ġfam ille
x im
ent en
ie me
Ð¸ÑĤ Ð°ÑĤÑĮ
Ġoc casion
w orzy
ĠÐ¸Ñģ ÑģÐ»ÐµÐ´
Ġc ode
Ġm ul
ĠsÃ©cur itÃ©
ĠR is
Ġcir ca
Ġtr ang
sch e
Ġg as
Ġro bi
âĢ ľ
ĠÐłÐ¾ÑģÑģ Ð¸Ð¹
sa ire
ĠÐ¿Ð¾ ÑįÑĤÐ¾Ð¼Ñĥ
Ġæ ±
czy n
ĠWy ÅĽwiet
Ġwo j
ãģł ãģ¨
Ġc la
Ġs ort
Ġay ud
ie f
éł Ĥ
Ã «
ĠãĤ ½
Ġes c
ÐµÑĢ Ð¼
Ġtr á»ĭ
Ġdifer entes
ĠW ei
ĠVo ir
Ġf emmes
ĠV on
Ġ= "
Ġtr ouve
for m
åĳ ¨
ĠCas ino
Ġste ht
r ado
f ort
ĠB esch
ĠÐµ Ð¼Ñĥ
Ġãģ Ĩ
áº© n
Ġè ³
Ġs Ã©rie
ĠI s
åŃ Ĺ
ĠÐºÑĢ Ð¾Ð²
Ġp unto
ĠÐ¿ÑĢÐ¾Ð´ Ð¾Ð»Ð¶
ãģĹãģ¦ ãģĦãģŁ
Ġpo ja
Ġ8 0
Ġl ivre
Ġam bi
Ġok res
lo ad
ĠH ol
ĠThe ma
Ñı Ñħ
Ġpr Ã³
ĠNe u
ci d
Ġwel che
ç¢º èªį
ĠÐ¿ Ð¸ÑĤ
Ġk rÃ³
Ġunser er
ĠB re
vi ce
Ġsem ana
ĠÐ¿ÑĢÐ¾ Ð¸Ñģ
ĠJ o
ãģ¨ ãģĨ
ãģ® ä¸Ģ
f o
Ġacc om
lich er
EN T
in Ã©
Ġnh iÃªn
Ġs ens
ĠÐ¸Ð³ ÑĢÐ¾Ð²
?? ??
ĠÐ° Ð»
zza re
ĠP utas
Ġop iniones
Ġseg Ãºn
Ġprzeci w
ĠwÃ¼r de
Ġservi zi
enn es
ãĥļ ãĥ¼ãĤ¸
ĠÐ¿Ð¾Ð¼ Ð¾Ð³
ron i
ĠM ej
Ġin vestig
ãģ¾ ãģŁ
Ġfin ans
ĠG eld
il fe
Ġstr ut
Ñĩ ÐµÑģÐº
Ġmiejs ca
Ġj ug
om men
Ð¾Ð½ Ñĥ
° ·
Ġnum ero
b io
Ġ4 4
ous e
ale ur
Ġz ÅĤo
ãģĮ ãģªãģĦ
Ġao Ã»t
ĠE le
ĠÑĢ Ð°Ð±Ð¾Ñĩ
ĠA v
Ġsp or
Ġæ ´
Ð¡ Ðļ
Ã¡ b
ãĥ© ãĥ³
ma tique
ĠÐ·Ð°Ð½ Ð¸Ð¼
ĠH Ãł
ti Ã³n
Ġwir klich
Ġver b
Æ° ng
Ġpro te
Ġf ut
\\\\\\\\ \\\\\\\\
Ġpo czÄħ
ÑĢÐ°Ð½ Ð¸Ñĩ
Ġ ÅĤ
Ġde ber
ä¼ģ æ¥Ń
áº§ m
Ġdo cu
Ġcon ten
åº §
æĶ ¿
al itÃ¤t
ĠIl s
Ġsul le
Ġle k
an den
ÅĽ ni
ãĥį ãĥ«
Ñı Ð³
Ã³ Åº
Ñģ Ð¸Ñħ
ĠÐ¼ ÑĥÐ·Ñĭ
Ġmen o
Ġdi r
Ġfre e
cto res
Ã¤ ft
Ã© rÃ©
ĠÐ½Ð°Ñĩ Ð¸Ð½
æı Ĳ
ol d
ĠÐ½ Ð°Ð³
con Ã³mi
or gen
Ġt on
Ġsi Ã¨
Ġjed no
od en
ĠÐ±ÐµÐ· Ð¾Ð¿Ð°Ñģ
Ĭ Ģ
Ġth o
ke hr
ĠÐĹ Ð°Ð¿
Ġl etto
Ġr ad
ĠÐº ÑĥÐ»ÑĮÑĤ
éł Ń
ty czne
ĠB Ã¼
ãģ®å ¥
æĪ ¸
åĲĮ ãģĺ
Ġbuen a
ĠO ber
po li
Ġre tour
ien za
Ġein mal
wi ÅĽcie
Ġcáº£ m
sta wi
ï¼ ĸ
åı į
ĠC ons
ĠÐ¿ Ð°ÑĢÑĤ
le it
Ġkom p
Ġdo tycz
al ten
il es
ĠÐ²Ñģ Ñĳ
Ġpres so
p ada
á» ¹
Ġãĥ Ķ
char ger
ĠdÃ©c ouv
ĠÅ¼y cia
Ġpr Ã¨s
Ġmuch as
ĠéĽ »
ÐµÐ» Ñİ
wa li
5 4
Ġschne ll
ĠÑı Ð½
ãģ® ãĤ¢
ĠÑĥ ÐºÑĢÐ°
Ġgio v
kow ych
ÐµÐ½ ÐºÐ¾
ĠÐŀ Ð¿
á»į ng
Ġha cia
gr und
ĠÑģÐ¾ ÑĨÐ¸Ð°Ð»ÑĮ
ÐĿ Ðŀ
Ð¾Ð» ÐµÐµ
Ġsi mple
Ġtu a
Ġm elh
Ġa ver
Ġcie ka
Ġresp ons
Ġä¸Ń åı¤
Ġæ ¬
kow o
ei gne
cia lis
ĠÐŁÐ¾Ñģ Ð»Ðµ
Ġm niej
Ġforma tion
ge ment
Ġæ ³
Ġje doch
tto bre
Ġv ac
c teurs
ta ta
éĿ ŀ
ĠÃª tes
ĠÐ² Ð¼ÐµÑģÑĤ
ÃŃ vel
gl ÄĻ
á» Ľ
Ġb ajo
Ġpre zzo
Ġa dap
Ðł Ðŀ
ĠÐĵÐ»Ð°Ð² Ð½Ð°Ñı
ĠÐ» Ð¸Ð½
fol g
den ti
ĠÑĥÐ² ÐµÐ»Ð¸Ñĩ
Ġou v
um mer
Ġren cont
h in
Ġt ant
Ġmu a
Ð¾Ð· Ñı
Ġlle gar
i i
ĠçĽ ¸
Ð¾Ð¶ ÐµÑĤ
æķ ´
ĠS to
ubb lica
ĠH ome
es a
æ¡ Ī
ti eren
Ð» Ñĥ
Þ ¦
Ġha i
li g
Ġwar un
Ġãģ ¤
ĠÑģÑĩ ÐµÑĤ
ĠÐ´ÐµÑĢ ÐµÐ²
uer to
c ÄĻ
Ð¸ÑĩÐµÑģÐº Ð¾Ðµ
çī Ī
Ġby ÅĤy
Å ĵ
v vero
Ġn ego
it Ã¤
Ġå ķĨåĵģ
çĶ ³
Ð°ÑĤ Ð¾ÑĩÐ½Ð¾
Ġsi mp
Ġnuest ros
Ġv enta
ĠR E
bi anas
Ġempres as
ert as
ĠS icher
Ġf as
ĠM al
ãģ®å Ĩ
ĠÑĨ ÐµÐ½Ñĭ
Ġma ja
i esz
Ð½Ð¾ÑģÑĤ ÐµÐ¹
fall s
Ġsu jet
Ġcontr ol
f ique
Ġele t
Ġwszyst kim
ĠÑħ Ð¾Ñĩ
ĠÐ¼ÐµÑĤ Ð¾Ð´
Ġè¦ ĭ
au er
Ð» Ð°Ð½
ãģ ¼
Ġw ska
Ġv ue
Ġgra zie
Ð°ÑĢ Ñĭ
ĠFra uen
Ġbes onder
us i
Ġthá»© c
Ġcom paÃ±
Ġtr zy
Ġ3 2
Ð» Ð¾Ð½
ï¼Ĳ ï¼Ĳ
é Ł
ĠrÃ© du
Ãª s
ĠR en
Ġse ul
uo i
Ġni m
ĠÑģÐ¾ÑģÑĤ Ð¾ÑıÐ½
Ġdo v
w and
k oÅĽci
a ciones
Ġjue gos
Ġpro ceso
Ġãĥ «
Ġ3 7
Ġre pr
ĠÐļ Ð¾Ð»
Ġh and
Ġsu p
Ð ĸ
ĠÐĹ Ð°
Ġä» ĸ
Ġse hen
Ġoper a
ĠH omme
S E
Ġb an
Ð¾Ðº Ð¸
ĠÐ½Ð° Ðº
au pt
Ġmeille ur
Ġus u
Ġese mp
op Ã©
ÑĢ ÐµÐ¶Ð´
ĠMÃ© xico
Ġu zy
éĸ¢ ä¿Ĥ
Ġa pr
ĠD ien
ĠÐ² Ð¿
ette mbre
Ġinter nation
Ðŀ Ðŀ
Ð¾Ð½ Ð´
ĠC er
ãģĻãĤĭ ãģĵãģ¨ãģĮ
Ġinve ce
ĠÑģ Ð¸Ð¼
Ġgener al
Ġqual che
cia li
ro c
ĠwÅĤ os
Ġje der
ĠÐĹ Ð´
ĠÐ¼ ÐµÑĢ
Ġd onne
ãģ¨ ãģ®
Ġtut ta
sch luss
tow ej
ĠÐ¼Ð°Ð³Ð°Ð· Ð¸Ð½
r ad
ĠÑĢ ÐµÐ¼Ð¾Ð½ÑĤ
1 æĹ¥
ĠÐľÐ¾ÑģÐºÐ² Ð°
Ð»ÐµÐ½ Ð°
Ġqu Ã¡
ĠÑĢ Ð°Ð²
w eit
Ġb Ã©nÃ©
Ġç ¥
ĠÐ¿ÑĢ Ð¾Ð¿
nh a
Ġpoli tique
Ġbez p
Ð» Ð¾Ð¼
cie tÃł
sion s
Ń ¦
y o
k ro
ag no
k le
ĠPro je
Ġgru po
Ġg et
i Ã¨me
ĠÐº Ð°Ð½
Ġi o
Ġn ic
re zza
pr Ã¼
Ġc Ã¡i
Ġz ona
ĠczÄĻ sto
ĠÐ¿Ð¾Ð¼Ð¾Ñī ÑĮÑİ
Ġs uf
ĠÑĢ ÑıÐ´
f l
Ġa illeurs
Ġa llo
Ġn et
Ġè £
ĠÐľÐ¾ÑģÐºÐ² Ðµ
ÐµÐ² ÑĢ
Ġ áº£nh
ĠÑĥÑģÐ» ÑĥÐ³
åķı é¡Į
Ġs ommes
ĠAl s
Ġsema ine
ĠÐĲÐ»ÐµÐºÑģ Ð°Ð½Ð´
Ġrisp etto
Ġa ma
æİ ¥
fi co
Ðº Ð°Ñı
c ra
Ġsur tout
Ġw ichtig
Ð»ÐµÐ½ Ñĭ
t ru
Ġper fec
Ġperson al
ĠÑĦÐ¸Ð½ Ð°Ð½Ñģ
ç© ¶
Ġejemp lo
Ġbie tet
Ġan os
Ġcerta ins
cyj ny
Ġspra wie
Ġalle m
è¾¼ ãģ¿
ĠlÃŃ nea
ĠÐ¿ÑĢ Ð¸Ð·Ð½
Ġm ÃŃ
Ġs za
mb H
un st
æī ķ
uel a
noÅĽci Äħ
ta da
Ġrapp res
ãĤĪ ãģı
l en
o tros
ĠÐ¿Ð¾ÑģÑĤ Ð¾ÑıÐ½
áº ³
c ter
Ġa po
ĠæĬ ķç¨¿
± æ¯Ľ
Ġs d
éł ¼
è¦ ĸ
j on
h Ã¶
ãĥª ãĥ¼ãĤº
ãģłãģĳ ãģ§
Ġdes n
enn t
ĠÑĥ ÑģÑĤÑĢÐ¾Ð¹
ĠAcc ueil
Ġch ange
l Äħ
Ġ. -
ĠJu an
Ġpare ja
Ġz ami
Ġmes es
Ġm entre
ĠÐ¸ Ð´Ðµ
Ġy Ãªu
Ġp Ã¡g
ãĤ¢ ãĥĥãĥĹ
ĠPo li
ãģ§ãģ¯ ãģªãģĦ
ÐłÑ ķ
ĠÑĨ ÐµÐ½Ð°
pp a
Ð¾Ð¼ ÐµÐ½Ð´
ãģ« ãģĹãģ¦
ĠÑĢÐ°Ð· Ð´ÐµÐ»
Ġæ Ķ
c Ã³
Ġcomp os
Ð°ÑİÑī Ð¸Ðµ
Ġor d
Ġm acht
ĠÃ ·
Ġw a
ĠR ec
Ġc in
n ow
å¯ Ħ
v on
ĠÑĢÐ°Ð· ÑĢÐ°Ð±Ð¾ÑĤ
Ġä»Ĭ åĽŀ
to ra
f ono
ĠÐ´ Ð°Ð»
° ¡
ĠTr ung
Ġd ich
Ġsz k
Ñģ Ð¾Ð½
ÅĤ ych
å½ ±
Ġbus ca
Ð½ ÑĥÐ»
ĠLeben s
on ces
f ier
¨ ÐĲ
R Z
Ġg ospodar
Ġdo anh
Ġembar go
Ġch ose
á»į c
se hen
Ġrec om
Ã©ri que
ist ro
åĩ ¦
Ġlu dzi
ĠâĢľ ,
Ġmar chÃ©
Ã Į
Ġch á»įn
00 åĨĨ
ãĥ ¦
Ġproy ecto
ĠÐĴ Ð°Ñģ
ĠÐ¿ÑĢ Ð¾Ð¼
ĠD is
ãģĮ åĩº
Ġesp ec
éĢ ±
Ġtrav aux
Ð» Ð¸Ñı
ĠprÃ©s ident
ĠZ immer
ch n
f eld
Ġweit ere
Ã³ g
Ġno ir
Ġs antÃ©
Ġç ľ
Ġs toria
åı ĭ
Ġx em
ĠPh o
illa ge
is er
Ġt Ã©c
ÐµÐ» ÐµÐ¼
oun t
ä¸Ĭ ãģĮ
ĠS ol
te ty
Ġteng o
ĠM ay
b or
Ġli cz
ãģ ľ
ĠÐĴ Ð¾
Ġje unes
ĠT od
tif ic
åĲ «
Ġhe ures
ng ono
ãĥ©ãĤ¤ ãĥ³
Ġjue go
Ñī Ñĳ
ĠP ue
Ġli p
ÂµÃ Ħ
à ³
Ġt áºŃp
ĠG mbH
rie ben
d s
ãģĬ ãĤĬ
an Ã§a
Ġje dy
ĠT ri
ki ng
Ġpropos e
ĠC re
ĠA demÃ¡s
Ð½ÐµÐ¹ ÑĪ
Ġc elle
Ġå ģ
Ġp ad
æ³ ģ
Ð½Ð¸ ÑĨ
x e
ĠÅĽ wiad
Ġmis ma
ĠÐ¿ÐµÑĢ Ðµ
Ġso li
ãĥĿ ãĤ¤ãĥ³ãĥĪ
sta g
ĠdÃ©b ut
ĠÐ´ÐµÑıÑĤÐµÐ»ÑĮ Ð½Ð¾ÑģÑĤÐ¸
Ġer halten
ÑģÐº Ð°
Ġt ay
ĠÐĲ Ð´
ÑĢÑĥ ÐºÑĤ
Ġczas ie
ç Ĩ
ĠÃ© ner
ĠO s
ti cias
Ġ uffi
Ñĥ ÐµÐ¼
Ġprogra ma
Ġnicht s
ding s
Ð°Ð» Ð¾Ð²
Ġp Ã©ri
éļ İ
ĠâĢ ĭ
ĠÐ»Ð¸ÑĪ ÑĮ
ĠQues to
Ġcu er
ak i
åĽ £
ÑģÑı Ñĩ
Ġp iÄĻk
Ġa ir
Åº dzier
ĠAn d
ĠC ali
le k
ĠÐ¡ Ðº
Ġ5 5
Ġob ra
ĠespaÃ± ol
iá»ĩ m
ç ĸ
Ġt end
ĠÐ¿ÑĢ Ð¸Ðº
al s
ĠÑĪ Ð¸ÑĢ
Ġcad re
ĠD ar
olo gia
ĠJ ue
Ġsp az
Ġwp ÅĤy
ĠSh op
ĠÑĦ Ð¸Ð·
ier te
Ã¡m ara
ĠÅ ĵ
Ġb lan
Ġè ī
min ar
Ġï¼ ł
å® Į
Ġc á»©
Ġde ve
Ġcli ents
Ð¸Ð½ Ð¾Ð¹
Ġæ ²
â Ĺ
ãģĭ ãĤĤãģĹãĤĮ
Ġha ber
ib les
ĠÐº ÑĢÑĥÐ¿
bar dziej
lau b
an zia
we g
Ġcol lec
è Į
âĶ ģ
Ġfal se
åģ ´
Ġsuo i
Ġk ul
A C
Ġseu lement
ĠÐ²Ð¾Ð· Ð½Ð¸Ðº
scha ften
Ġsou ha
ĠÐµ Ð´Ð¸Ð½
N G
Ã³ c
Ġresp ec
Ġç ¬ĳ
Ġãĥ ¦
na io
a teur
á» Ŀ
Ġihr er
Ġa ca
Ġpi ano
Ġs ym
Ġinter no
Ġç ¨
ĠÐ¾Ð±ÑĬ ÑıÐ²
è© ķ
Ġpubli c
Ġk ons
Ġsegur idad
ĠM ai
Ġgr Ã¢ce
Ð¸Ð² Ð°Ð½Ð¸Ñı
çŁ ³
Ã¤ng er
Ġau tor
Ġkon k
Ġ Ã¡n
Ġconta ctos
ti os
Ð¸Ð² Ð°ÐµÑĤÑģÑı
ĠÐºÐ¾Ð½ Ðº
Ġkom ent
Ġap ri
Ġtr ud
s icht
Ð´ Ð¸
ti to
ãģ§ ãģ®
ill as
uf t
Ġv Ã©ri
ĠÃ ĺ
Þ¦ Þ
âĢ¦ âĢ¦
Ġs ao
zion ali
é£Ł ãģ¹
Ġex tra
lo g
ĠÐ¿ÐµÑĢ Ð¸Ð¾Ð´
Ġs tycz
ãĤ¯ ãĤ»
ĠPar t
ÑĢ ÐµÑĤ
Ġbe g
cy z
Ġesta ba
Ñģ Ñģ
nÄħ Äĩ
ãģı ãĤĮãĤĭ
Ġdi ce
E L
Ġet c
Ġ19 9
Ġv ou
Ġce le
Ġemplo i
Ġï¿½ï¿½ ï¿½ï¿½
Ġv áº«n
æŀ ļ
ĠÑģÐ²Ð¾ Ð¸Ñħ
Ġun ique
\ /
Ġlle g
ierz ch
ãĥĩ ãĥ«
ĠT Ã©lÃ©
ĠC es
ĠE ng
Ġ( )
łĶ ç©¶
ĠÐ¿Ð¾ Ñħ
Ġdes p
tif ica
ĠÐ½ Ð¸Ñĩ
ĠD en
ãģ« ãģĭ
ĠÐ¿ Ð¾ÑĢÑĤ
ĠÐ¿Ð¾Ð¿ ÑĥÐ»ÑıÑĢ
cz nÄħ
Ġ08 15
Ġl et
ei to
äºº ãģ¯
Ġp m
ĠPubli cado
Ġparti ci
Ã¼n d
ĠÑĤÑĢÐ°Ð½ ÑģÐ¿Ð¾ÑĢÑĤ
Ġper i
Ġ], [
ĠA prÃ¨s
ÑģÑĤÐ² Ð¾Ð¼
Â ª
Ġv áºŃy
min istra
est is
Ġv iv
le gen
å½ ¹
Ġa cuerdo
ÑĢ ÐµÐ²
Ä ĺ
ow aniu
Ã©d ia
Ġd ort
w iÄĻk
ĠãĤ³ ãĥĶãĥ¼
ãģ£ãģ¦ ãĤĭ
ãĥ³ãĥ ĩ
na cional
Ġf ont
ĠÐ¿Ð¾ÑĢ ÑıÐ´
ĠÐºÐ¾Ð½ ÑĨ
ãģ® ãģ¿
Ġfuer on
ĠF rank
Ġp an
Ġt Ãłi
ĠÐ´ Ð½ÐµÐ¹
Ã§ os
Ġattra verso
gra mm
l Ã¨me
Ð°Ð» Ñĭ
ni ct
çĹ ħ
ĠAn t
tow ych
cie l
Ġsch Ã¶n
ĠÐ¾Ð±ÑĬ ÐµÐºÑĤ
ste llen
ici le
ĠÐ¼ Ð¾Ð½
å¢ ĥ
Ġcer ca
om mer
ĠÐºÐ¾ÑĤÐ¾ÑĢ Ð¾Ð¹
d it
Ġsta ti
ãĥ ¨
uyá» ģn
3 5
Ġcons ul
Ġzosta ÅĤ
ĠK am
Ġc at
ma cht
h eim
la uf
ĠÐº ÑĥÑĢ
Ġ) ;
æĹ ©
ĠÐ¾ÑĢÐ³Ð°Ð½Ð¸Ð· Ð°ÑĨÐ¸Ð¸
Ġai me
ag es
Ġzak up
åĮ »
ĠÐ¾Ð¿ ÑĭÑĤ
Ã¶ ÃŁe
ÅĦst wo
ĠIn s
ãģĭ ãģ«
Ð¾Ðº Ñģ
Ġpod ob
ĠTr ans
Ġt ur
ĠÐ¿ ÐµÑĩ
Ġentrepr ises
è °·
ĠCom m
ĠR Ã©s
ĠÑĤ ÐµÐ±
ĠdÃ©veloppe ment
ĠÑĩÐ°ÑģÑĤ ÑĮ
ĠâĹ ĭ
Ĵ °
kt ue
ĠS tre
Ġpop ula
è¼ ĥ
zei gen
ze ug
ãĤ· ãĥ§ãĥ³
ÑĢ Ð¸Ð´
Ġ ^
ãĥĽ ãĥĨãĥ«
Ġth i
Ã¨ g
Ġcas i
Ġlie gt
ĠÐ¾Ð¿ ÐµÑĢ
Ġcom pa
Ġg odz
ĠIntern et
ĠÑģÐ¿ÐµÑĨÐ¸ Ð°Ð»Ð¸ÑģÑĤ
ï¼ ī
æı ´
Ñı Ñĩ
Ð°ÑĢ ÑĮ
ĠF rei
ĠÐ± Ð¾Ð»ÑĮ
ĠÐĿÐ¾Ð² Ð¾ÑģÑĤÐ¸
ĠÐ¸ ÑĤ
ĠåĲįçĦ¡ãģĹ ãģķãĤĵ
ãģª ãģĹ
ku ment
Ġt Äĥng
Ġs il
æ¥Ń èĢħ
ĠLe ist
Ġ Ñī
åº ľ
ĠM ein
ĠÐ´ ÐµÐ½
Ñĥ Ð³Ð¸
Ġw od
Ġap ar
w alt
Ġeur os
ĠÐ¾ ÑĦÐ¾ÑĢÐ¼
ĠÑģ Ð±Ð¾ÑĢ
ind re
ĠÐ²ÑģÑĤÑĢ ÐµÑĩ
á» Ŀi
ĠV iel
Ð½ Ð¸Ð²
Ġsa ber
Ġh Ã©
Ġç ¶
Ġe llo
u ale
Ġæ Ģ
ĠE ins
Ġb elle
ri que
Ġå¹ ´
mo re
Ã§ as
ÐµÐ· Ð¸Ð´
Ġalcun i
ãģĻ ãģİ
Ġp yt
Ġnat Ã¼rlich
Ġg Ã©
Ð¾Ð» Ð¾
Ġcen a
ĠPol ski
ÅĤ ow
Ġb zw
ãģı ãĤĬ
æ° ı
ĠU N
tu bre
Ġdin ero
ĠEn de
Ġz m
cie mbre
fer encia
si que
Ġzaw od
ĠD ire
ie mbre
dz e
Ġproble m
ĠprÃ³ xi
m el
Ġdesarro llo
g rÃ©
Ġgiá» ¯
ĠI de
d nie
ĠB ilder
ĠÐ¿ÑĢ Ð¸Ð»
u tos
ĠBere ich
ĠA ch
alitÃ© s
Ð¼ Ð°Ð½
Ġzd r
ie b
ĠÃ©c rit
ĠÐºÐ¾Ð¼ Ð½
isten za
Ġpeli culas
Ġl uego
Ġjus te
Ġpro ces
ĠÐ¿ÑĢ Ðµ
ĠÐ¿Ð¾Ðº Ð°
Ġcor so
ĠÂ ¬
ĠW i
g abe
Ġch arge
ĠÐº ÑĥÑĢÑģ
ÑĤ Ð¸Ðº
ĠPol ska
Ġpod at
ĠÑĤ Ð¾Ñĩ
é¡ Ķ
ĠâĹ Ĩ
æº ĸ
Ġi hn
Ġutilis ation
ĠÐ¡Ð ¨ÐĲ
Ġ) {
Ġosob y
ter a
Ġgen au
Ġpue des
Ġe conÃ³mi
Ġri ce
Ġapp ro
ä» »
ri ff
Ġmiejs c
Ġch u
Ġconc ern
iss ant
ĠÐº Ð¾
ve is
Ġexper iencia
ÐµÑģÐ¿ ÑĥÐ±Ð»Ð¸
ĠM Ã¶glich
åĥ į
Ġpar la
Ġd anych
sen ce
ĠÐ´ÐµÐ» Ð°ÑĤÑĮ
ĠP al
Ġè ĭ
Ġigu al
Ġenf ant
Ð¿ Ð°ÑĢ
ÅĤu ma
par ation
ĠcÃ´ tÃ©
æ¶ Ī
ĠÐ°Ð´ ÑĢÐµÑģ
p ow
ç ħ
Ġor den
Ġ08 1
Ġtec n
Ã¶r per
t ina
æ¬ ²
ĠãģĿ ãĤĵãģª
ãĥ¼ãĥ Ģ
ÑģÐº Ð¸Ð¼
ĠÃ į
Ġs á»ĳng
c ours
Ġo kaz
er y
ĠJ os
res o
ç® Ĺ
lla tion
ĠW szyst
ĠC V
Ġf abri
ĠÐ± Ð°Ð·
Ġbamb ini
Ġd wa
è¨ĺ äºĭ
Ġw or
ãģ¤ ãĤĤ
Ġg ouver
la y
Ġy ou
å¤§ ãģį
Ġf eb
Ñĩ Ð°ÑģÑĤ
vie mbre
ÅĽ rÃ³d
Ġis so
Ġæ¥ ½
Ġna v
æ® ĭ
Ġdo c
Ð»Ñı ÑİÑī
el Ã©
Ġp s
ĠH Ã¶
dzie Äĩ
Ġszczeg Ã³l
Ġth á»§
åĬ¹ æŀľ
ub e
Ġw ith
Ġå¤ ĸ
Ð¸Ð¼ Ð¾
Ġemp le
Ġihr en
Ġprogram ma
Ġr odza
Ġch auf
ra in
g et
æĽ ¿
ãĤī ãĤĮãģŁ
a je
ĠEuro pe
{ "
ĠÐ³ Ð¾ÑģÑĤ
Ġsz kol
Ġrich ies
ÅĤ ada
ĠCu ando
Ġ4 3
6 5
Ġutilis er
Ð¸ Ð³ÑĢ
Ġmes mo
Ġn Ã¤ch
éĽ ¢
« a
c ura
Ð¾ÑĤ Ð¾
Ġf est
ĠÐ´Ð¾Ð»Ð¶ Ð½Ñĭ
tar ia
rais on
Ġan al
Ġ200 7
Ġob jet
Ġre d
ĠPL N
Ġ9 9
ali z
ĠB ad
Ã¼n f
Ġv u
Ġch or
Ġmad rid
pt iembre
éĻ º
Ġsi gni
cz one
ĠÐ´ Ð¸Ð·
tig t
Ð ħ
ĠÐĴ Ð°Ð¼
Ġmu á»ĳn
uy e
ĠÐ¾ÑĦ Ð¸ÑĨÐ¸Ð°Ð»ÑĮ
Ġtak i
Ġges tion
Ġrec ono
Ġz usammen
Ġf is
Ġc iÄĻ
Ġcomp Ã©
ĠÐ¼Ð¾Ð¼ ÐµÐ½ÑĤ
è¦ ļ
nh eit
Â ¹
áº¡ m
Ġar tis
ĠnÃº mero
c ent
Ð½ Ð¾Ð·
Ð¾Ð¶Ð´ ÐµÐ½Ð¸Ñı
ĠãģŁ ãģł
mÃ¤ ÃŁ
ĠC our
c tÃ©
Ġbis o
Ġna praw
ç´ ¢
ty ka
Ġgior na
ĠÐ¿Ð¾ Ð¸ÑģÐº
Ġres taur
ãĤĬ ãģĮ
z er
ÑĥÑĢ Ð½
le icht
Ð°Ð½ Ð¸ÐµÐ¼
ãĥ³ãĤŃ ãĥ³ãĤ°
ãģ®åł´ åĲĪ
Ġc aus
ĠÐ¿ÑĢ ÐµÐº
f ek
åīį ãģ«
ĠÐ¿Ð¾Ð»ÑĥÑĩ Ð¸ÑĤÑĮ
Ġ") ,
Z G
Ġtak ich
ĠT op
cia tion
Ġh aut
Ġste hen
ĠÑĢÐ°Ð· ÑĢ
Ġdo bre
Ġtr iá»ĥn
ec tos
Ġsz tu
Ġa llen
Ġmer cado
Ġm ini
Ġf ran
Ġãģĵ ãģĵ
Ġç ©
O UR
Ġes s
ĠÐ¾ ÐºÑĤ
ĠTe am
ãĥ³ãĤ »
ba ll
ĠÐ´ Ð½Ñı
Ġl iÃªn
Ġm Ãº
ãģĺãĤĥ ãģªãģĦ
ãģł ãģĭãĤī
ãģĵ ãģĨ
ãĥ¼ãĤ³ ãĥĶãĥ¼
ï¼ ĺ
æł ¹
uest ra
r ich
Ð²ÐµÑĢÐ¶ Ð´
Ġnos otros
è« ĸ
ta rio
ĠB est
Å¼y Äĩ
h rze
ÃŃ tu
Ġou ti
ol tre
Ġval or
ãģĪ ãģŁ
ĠÐ¾ÑĤ Ñģ
bo ok
ĠMais on
Ġvoit ure
ud io
Ġpoz w
cie dad
ãĥ¼ãĥĨ ãĤ£
ĠKom ment
ini Ã³n
Ġh ora
ĠÐ¾Ð±ÑĢÐ°Ð· Ð¾Ð¼
C OM
Ġcel u
n itt
kt ur
ãģ£ ãģĭãĤĬ
å± ķ
ãĤĬ ãģ«
ia le
å± Ģ
Ġl um
ĠÐ· Ð°Ñģ
Ġt Ã¬m
Ġfam ili
ĠJu li
Ġw ymi
ĠÐ³ Ð¾Ð»Ð¾Ð²
k to
Ġma teria
ĠÐ¾Ð¿ Ð¸Ñģ
ĠÐ± Ñİ
ĠÐłÐ¾ÑģÑģ Ð¸Ñı
tiv en
ĠÐ´Ð¾Ð»Ð¶ ÐµÐ½
a mente
Ġm m
7 5
u vre
li ers
ob ile
Ġj ardin
ĠÐ´Ð² Ð¸Ð¶
Ġp amiÄĻ
ma ge
tic les
æĸ¹ ãģĮ
Ġacc ueil
a ter
Ġle gg
Ġ7 0
Ġprob lÃ¨me
Ġw eiÃŁ
Ġpal ab
ĠÅĽ wiet
Ġå¹ ³
é Ĥ
Ġsein en
M E
ĠDÃ© c
Ġmat Ã©r
00 3
ĠO u
Ġprodo tto
Ġr end
ĠÐ»ÑİÐ´ Ð¸
ĠE ur
Ġbe m
am enti
Ġsi tio
Ġprz est
ĠM ann
áºŃ u
obil ier
Ġin ten
å¥½ ãģį
Ġåħ Ī
by wa
é¡ĺ ãģĦ
ãģ®å ŃĲ
Ġth Æ°Æ¡ng
Ġser ont
ĠA pr
ÐµÑĢ Ð¾Ð¼
Ġge hÃ¶r
ĠÐºÐ¾Ð¼ Ð°Ð½Ð´
Ġobje c
un o
è²· åıĸ
æĹ ı
Ġc res
Ġz ost
ora ciÃ³n
ĠÐ¿Ð¾Ð¼ ÐµÑī
Ġcon fer
ĠÐ²Ð¾Ð· ÑĢÐ°ÑģÑĤ
Ġpres idente
wa hl
I R
ta ires
Ġro k
ĠÐļ Ð°ÑĢ
ĠY o
u do
Ġmin utes
} ,
ĠD om
p nia
ĠÄĳá» ķ
c ando
Ġdire kt
ĠÐ¿ÑĢÐ¸ Ð¾Ð±ÑĢ
Ġop is
ĠÃ© lÃ©
Ġarty ku
tycz nie
ta mos
ĠEs to
Ġger ade
Ġmes ure
schei d
ĠÐ¼ Ð¸Ð»
ĠB or
ãĤĴ ãģĻãĤĭ
Ġde cis
ne k
mi er
³ ç´°
Ġter ri
Ġpri m
ãĤ¶ ãĤ¤ãĥ³
Ġsu ll
Ġç¾ İ
ãģ¾ ãģ¾
ie u
Ġz arz
Ġwo hl
ä¸ İ
ĠÃ İ
Ġb ao
Ġje den
ment ation
ÐµÐº Ð°
Ġli ber
st Ã¼ck
Ġa do
wo hn
ard s
ĠÐºÐ°Ð¶Ð´ ÑĭÐ¹
ãģĮ ãģĤãĤĬ
ĠÐ´ ÐµÐ¿
Ġlav or
v illa
gent ina
Ġm or
Ġfam ilia
Î ¿
ĠÐ¼ÑĥÐ¶ Ñĩ
Ð¾Ð±ÑĢ Ð°Ð¶
Ġal ta
Ġl ado
ĠprÃ© f
ĠTam biÃ©n
b uch
Ġte il
Ġprze pis
æĢĿ ãģĦ
Ġg ag
ĠCh i
ĠÐ¾ÑĤ Ð¿ÑĢÐ°Ð²
ĠâĢ ĺ
Ġrela ciÃ³n
ZI ONE
ĠT ut
å¤ «
jaz d
ä¹ ³
Ġpar ce
ãĥ¼ ãģ®
Ð¾Ð· Ð¼Ð¾Ð¶
Ġfa Ã§on
Ġcon ver
ÅĽ niej
Ġb Ãłi
Ġr und
ĠÐ¿ÑĢÐµÐ´Ð¿ÑĢ Ð¸ÑıÑĤ
ĠÐ³Ð» Ð°Ð·
ĠÑģ ÐµÐ·
è²· ãģĦ
ç ª
Ġd Æ°á»
ĠR ei
m Ã³
own load
ĠF eb
Ġs or
tar beit
Ġsetti m
Ġcul ture
Ð¾Ð¿ÑĢ Ð¸ÑıÑĤ
ĠK auf
ĠM Ã¼n
z ÄĻ
ĠF ach
b and
Ġ äººæ°Ĺ
ĠTe le
Ð°ÑĤ Ð¸
ãģĭ ãģĳ
Ġmus ica
at ura
ĠÐ´ Ð°Ð»ÑĮ
Ð½ Ñĥ
å½ĵ ãģ«
Ġinf atti
Ġcon ne
ãĤĴ ãģĹãģ¦
ĠWo chen
ĠWarsza wa
Ġn adz
ãĤ¯ ãĥ©
ÐµÑĤ Ð¾Ð²
ans tal
ĠG li
ĠÑģ ÐµÐº
ff re
Ġmar ca
Ġe ux
ĠÑĤ Ð¾Ð½
so cia
ĠÑĤÑĭ ÑģÑıÑĩ
Ġæ° Ĺ
Ġl áº§n
Ġm l
ĠEs tado
I I
Ġent sp
è¶Ĭ ãģĹ
æ ¢
çĽ¸ è«ĩ
Ġsp rz
Ġãģ© ãģĨ
åħ¥ ãĤĮ
ĠH ei
Ġdi f
min y
Ġch ce
Ġdo ÅĽwiad
ãĥĪ ãĥ©
ĠÐļ Ð°Ð·
ĠÑħÐ¾ÑĢÐ¾ÑĪ Ð¾
ĠR ou
Ġpas ser
rei ben
Ġer o
Ġorig in
ĠÐĵ ÑĢ
oni ble
Ġqu oi
Ġl isto
ti ert
ĠÂ ©
Ġvac ances
Ġen vo
ĠÂ µÃ
á»ĵ n
ĠGra cias
ka l
ÃŃ cula
ĠÐºÐ¾Ð¼Ð¿Ð» ÐµÐºÑģ
ĠÑĤ ÐµÐºÑģÑĤ
Ġa inda
Ġãĥĸãĥ© ãĥ³ãĥī
ãģķãģĽ ãģ¦
j es
Ġnombre ux
ĠçĶ ·
æ¨ ©
los sen
ÑĤ Ñĥ
te gor
Ġd or
ĠÐ°Ð´ Ð¼Ð¸Ð½
rz ej
Ġspe cjal
ĠFra ge
Ð°Ð² Ð»Ð¸Ð²
Ġge ben
etto re
çĶŁ æ´»
Ġm ang
ĠÑĢ Ð°Ð´
mi ast
è· ¯
b ach
Ġfol gen
ÑĢ Ð¾Ð½
Ġprog etto
Ġda fÃ¼r
li ci
ĠÐºÐ¾Ð¼Ð¿ ÑĮÑİÑĤ
Ġma ter
Ġg ute
il o
Ġk ro
wÃ³ r
Ð¼ÐµÐ½ÑĤ Ð°ÑĢ
Ġdzie ÅĦ
å¸ ¯
ĠÑģ Ð¾Ð³Ð»Ð°Ñģ
it ur
Ã¶ ÃŁ
b lis
ci ar
ĠÐ° Ð¿ÑĢ
Ñı Ð»
Ġr Ã¡p
Ġso i
Ġm ia
gu ar
Ġco lla
ĠÐºÐ¾Ð»Ð¸Ñĩ ÐµÑģÑĤÐ²Ð¾
Ġin ser
Â ´
Ġngh Ä©
ene z
ere z
ãģ§ãģį ãģªãģĦ
Ġlle var
Ġper Ã²
Ĺ ¤
Ġt itre
ĠÐ¾Ð± ÑĥÑĩ
ci pa
Ġm amy
j est
ĠãĤ¢ ãĤ¤
er ÃŃa
Ġbes ser
6 4
id s
ä»ĺ ãģĳ
Ġd ara
ĠÃ©ta t
Ġpos to
Ġan terior
Ġinforma cji
ĠÐ½Ð° ÑĢÑĥÑĪ
Ġcam bio
ĠÑĥ Ð»Ð¸
le tz
bra io
Ġd ow
ĠÐ½Ð°Ð¿ Ð¸Ñģ
ig lie
ĠM ich
ti ent
ç¿ Ĵ
c ta
Ġpas se
ĠÐ´ ÑĥÐ¼
Ġletz ten
Ã¡ vel
ĠÑĨÐµÐ½ÑĤ ÑĢ
G E
Ġach at
Ġen er
Ã¨ te
Ġtr á»įng
ĠexpÃ©ri ence
we is
ĠÐ¿Ð¾Ð½ Ð¸Ð¼
Ġé£ Ł
w nÄĻtrz
ĠPl atz
Ġmay o
Ġnouve lles
Ġsk Ã³
pr asz
Ġsi er
ï¼ Ĺ
åĢ Ł
Ġdist in
pi Äĩ
ãģ® ãĤĪãģĨãģª
ĠH al
ĠÐ¼ Ð¸Ðº
Ġw rze
un ku
o le
ll te
ĠÐŀÐ´ Ð½Ð°ÐºÐ¾
Ġbe kann
Ġacc Ã¨s
ĠS Ã£o
ãģ« ãģĤãĤĭ
Â ²
ĠÄĳ áº¥t
Ġcompr ar
odz enia
Ġmin utos
Ġf rais
Ġjak oÅĽci
ure au
Ġes ter
ti l
gi i
Ġp Ã©
Ð¸ÑĤ ÐµÑĢ
ti cia
ĠÐĺ Ð³
ĠÐ·Ð°Ð´ Ð°Ñĩ
ĠÑĢÐµÐ¶ Ð¸Ð¼
om ini
cion ado
ĠK unst
ĠÑģÐ¾ ÑħÑĢÐ°Ð½
Ġter m
Ġte ma
Ġcontin u
k us
ĠSe p
Ġlo g
ãĤī ãģĹãģĦ
ĠÑĦ Ð°ÐºÑĤ
Ġeff ica
Ġda te
Ġæµ ·
ĠÐ½Ð°Ð· Ð°Ð´
ch ÄĻ
ĠN utz
Ġp Ã³ÅĤ
ĠBras il
ĠÐ½ ÐµÐ¹
Ġfin an
4 4
Ġb Ã¡o
Ġæ İ
en en
Ð² Ð¾
Ġmar que
Ġb ut
Ġfaz er
Ġ ä¿Ŀ
ĠÑĤÐ°Ðº Ð¸Ðµ
ĠãģĵãĤĮ ãģ¯
ol f
Ġ ung
Ġsc or
ort un
ĠG ener
Ġpare ce
iel le
Ġmar zo
Ġh ommes
ĠÐ°Ð²ÑĤÐ¾Ð¼ Ð°ÑĤ
Ġczy m
ÐµÐ» ÐµÐ½
gos to
Ġas sez
Ð°Ð»ÑĮ Ð½ÑĭÐ¼
ĠSer vi
è» ½
zn es
ĠÑĩ ÑĥÐ²
dos e
Ġth á»ĳng
wick lung
Ġan ti
cz ych
ĠS ac
ĠP ierre
Ġeur opÃ©
ĠÑĢÐ°Ð·Ð²Ð¸ÑĤ Ð¸Ñı
ãĥĪ ãĥ¬
k ten
ĠÐº ÑĥÐ¿
ĠÑĢÐ°Ñģ Ð¿Ð¾Ð»Ð¾Ð¶
Ġå ŃĲ
ĠL ei
Ġrec ensioni
Ġcz ar
ï¼ Ł
æĢ ¥
Ġda ta
on nen
b ym
iss ent
osz enia
æĬ Ģ
Ġdes ta
Ġnun ca
Ġproble mas
ach e
a te
Ġk wiet
ÑĢÑı Ð´
Ġs ob
ãĤ¸ ãĤ§
Ġb iá»ĩt
Ġr in
ÐµÐºÑĤ Ð¾ÑĢ
Ġbe f
ĠÐ¾Ñĩ ÐµÑĢÐµÐ´
Ġdire c
ÅĤ oÅĽci
ĠÑģÑĢ Ð°Ð·Ñĥ
Ġs iamo
ĠN uo
å´ İ
Ð¾Ð· Ð½
Ġãĥĸãĥ© ãĥĥãĤ¯
a ine
ãģĵ ãģ¡ãĤī
è¦ ª
czy na
Ġfe u
Ð´Ð° Ñĩ
ens ione
ar od
å¤§ åŃ¦
is iÃ³n
Ġw Ã¤re
ĠÐº Ð¼
Ġpropr ie
Ġvo ll
Ġsais on
Ġh Ã³a
f es
Ġæ¥ Ń
ãĤĵ ãģ©
Ġ5 3
te dy
ĠVers and
re cht
ÐµÐ² Ð¾Ð¹
ÄĻ dzie
ĠÐ¿Ð¾Ð´ Ð³Ð¾ÑĤÐ¾Ð²
AL E
ver no
ĠD r
pl atz
Ġch yba
Ġderni Ã¨re
ĠÐ¿ ÑıÑĤ
Ġwo llen
ĠZ d
Ġno che
jÄħ ca
Ġpo ints
ĠÐł Ð°Ñģ
ĠÑįÑĦÑĦ ÐµÐºÑĤÐ¸Ð²
az z
gl ie
ĠÑĢÐ°Ð±Ð¾ÑĤ Ñĥ
mer y
ĠHotel s
Ġse us
ĠÐ¼ Ñĥ
Ġf Ã¡
ĠÐ¿ÑĢÐ¸Ð½ Ð¸Ð¼
ĠBeit rag
ut zen
Ġpar ten
la ck
Ġth Ã©
ei ght
ãĤĴ ãģĶ
ĠÑĩÐ°ÑģÑĤ Ð¸
Ĭ ±
Ġfu era
áº³ ng
Ġd Ã¨s
åį °
ĠS ono
Ġpo Å¼y
ÅĦ ska
u ki
åĨ į
Ġinforma tion
f il
Ñĩ Ð¸ÑĤ
os es
Ġein ige
Ġver so
Ġw iad
Ð¾ÑĢ Ð¾Ð¶
r ÃŃa
iáº¿ u
çķ °
Ġjourn Ã©e
ĠÑĥÐ· Ð½
Ġk up
Ã³ s
Ġ ÅĤat
Ġo ft
ĠÐ¶Ð¸Ð·Ð½ ÑĮ
v ista
U N
ab ilidad
le il
ti llas
ri g
ĠÐµ Ð²
Ġnaj bardziej
Ġa tra
Ġins ieme
ia ge
Ġta ille
ĠÐ·Ð°Ðº Ð»ÑİÑĩ
Ġon ly
â ĸ
ãĥŃ ãĥ³
é¦ ¬
áº§ y
ĠS y
Ġc ade
e ux
Ġser ie
ĠÑģÐ¾Ð± Ð¾Ð¹
åĽ ²
Ġdis pon
Ġn ier
Ġ1 er
Ġe lement
h mer
c itÃł
ĠGesch Ã¤ft
Ġv ais
Ġb el
Ġcor ps
Ġgia o
Ġå½ ¼
Ġm ano
Ġwz glÄĻ
Ð¸Ð² Ð°ÑİÑĤ
en nen
ĠE T
Ġau g
ier ra
Ġmain tenant
ĠÑģ ÑģÑĭÐ»
ĠÑĢÐµ Ð°Ð»Ð¸Ð·
ÐµÑĢÐ± ÑĥÑĢÐ³
Ð¾Ð± Ð¸Ð»ÑĮ
Ġtá» ī
Ðł Âµ
Ġ": {"
ĠÐ¾Ð±Ð»Ð°ÑģÑĤ ÑĮ
hl er
SI 6
ĠC ie
Ġpo ch
ĠArbeit s
ĠF er
Ð¸Ðº Ñĥ
Ġth Ãªm
Ġ4 9
de z
ĠZ um
ĠÐ¾ÑĤÐ·ÑĭÐ² Ñĭ
ĠÐ¿Ð»Ð¾Ñī Ð°Ð´
Ġs vol
Ġ7 5
Ġc ri
la ng
ĠÑĤÑĢ Ð¸
ãĥ¼ãĥĸ ãĥ«
ĠktÃ³re go
Â ¼
Ġr á»ĵi
ĠJos Ã©
ĠI ni
Ð» ÐµÑĩ
Ġp ap
ĠCh er
Ġlo i
¿Ģ å®ī
ä¹ ħ
Ġtr ung
ĠA h
Ġs el
çµĲ æŀľ
Ġu b
Ã©ri ca
ĠÐ° Ð±
ut ter
æĻĤ ãģ«
Ġh Ã¶
cze ÅĽniej
u di
Ð¾ÑĢ ÑĥÐ¼
ĠÐ± Ð°Ð»
Ġ$ (
ãģ® ãģĤãĤĭ
Ġe ig
ĠL in
ĠÐ¿ ÑģÐ¸Ñħ
ĠÑĩ ÐµÐ³Ð¾
us to
i ble
k oÅĽÄĩ
rie b
it to
ĠÐ¿ Ð°Ð¼
çĻ» éĮ²
Ġl á»±c
m ber
ĠÐ¾Ð± ÑĢÐ°Ñī
æĺ ł
ĠGem ein
gli ere
gen cia
Ã¨ tres
Ġstycz nia
ĠÐ¿ÑĢ ÐµÐ²
au en
tt utto
Ġmo c
Ġuti liz
ĠãĤ¯ ãĥŃ
ĠJ es
ãģ£ãģŁ ãĤĬ
op ej
ĠÐ¾Ð±Ñī ÐµÑģÑĤÐ²
Ġcons ider
ĠSicher heit
d ruck
ĠÐ½Ð° ÑĥÑĩ
Ġdonn er
ãĤĬ ãģŁãģĦ
Ġãģ ¿
ãĥĭ ãĥĥãĤ¯
ĠCom p
ĠEn tre
Ġ4 2
ĠÃ©ta ient
ï¼ ļ
ï¼ Ļ
é£ ²
Ġkonn te
Ġmu zy
Ġstron ie
Ġproble ma
ÐµÐ» Ð¾
Ġt ÃŃch
p unkt
ĠC r
Ġtemp or
ĠczÅĤ owie
çµĮ é¨ĵ
ĠÐŀ ÐŀÐŀ
ĠÐĴ Ð¸Ð´
y j
ĠÐ²ÐµÑĢ Ñģ
ĠÐ¿ÑĢ Ð°Ð·Ð´
ĠRe ise
ĠÐ½Ð°Ð¿ ÑĢÐ¸Ð¼ÐµÑĢ
ist rz
Ġt ito
Ġnu it
Ġk am
Ġjun io
ĠÐ±Ñĭ Ð²
cu ola
éĥ¨ åĪĨ
Ġab ril
by t
Ġho áº¡t
Ð°Ñģ Ð¸Ð±Ð¾
Ġli bre
ĠÐ¼Ð°Ð³Ð°Ð· Ð¸Ð½Ðµ
Ð ¨
ĠÑģ Ð¿ÑĢÐ°Ð²
ĠÐŃ Ðº
æĹ¥ ãģ®
ĠR os
Ġpor ta
ĠpiÃ¨ ces
U S
ĠNe gro
ĠÐ¼ÐµÑĤ Ð°Ð»
Ġs are
ĠGr and
ãģĮ ãģĤ
°¡ åįĺ
c tr
ĠÐ¿ÑĢÐ¸Ð¼ ÐµÑĢ
Ġreali z
ª å¼ı
ãĥª ãĤ¹
m Ã©e
Ġimp e
Ġcen y
ĠH am
ĠÐ½ Ð°Ð¹ÑĤÐ¸
ĠAl ter
Ð» ÐµÐ³
Ġcab e
m eld
Ġesemp io
Ġpa Åºdzier
Ġdisf ru
b l
ãĤĦãģĻ ãģĦ
ĠÐ¡ Ð°Ð½
ĠN ap
ru ppe
ĠL ub
y ÅĤ
ri ca
Ġver sion
ri Ã¨re
èĪ Ĺ
ãģ®å ī
ra t
3 8
Ġser ait
Ð°Ðº ÑĤÐ¾ÑĢ
Ġjes tem
Ġwie m
Ġsyste m
Ġdesarro ll
ia re
æ² ¢
Ġs Ã»
ĠÐĶ Ð°
æİ ¢
Ġbud ow
Ġti Ãªu
Ð½Ð¸ ÑĨÐ°
Ð¾Ð» Ð°
an ni
ãģ®æ Ħ
Ġin wes
n ich
ĠÐ½ Ð¸Ð·
it ti
Ġãģ »
ch s
ĠC os
ĠÐ´ Ð¸ÑģÐº
es te
tem ber
ĠÐ´Ð¾ÑģÑĤ Ð°ÑĤÐ¾ÑĩÐ½Ð¾
Ġa ktu
Ġrep rÃ©sent
ben d
ãģ© ãĤĤ
Ġger ne
Ġï¼ ĵ
æ¸ ©
ig keit
Ġima ges
Ġzna le
Ġtiáº¿ ng
ĠP age
ĠH Ã´tel
re g
Ġnost ri
Ġparticol are
é ī
ĠS ec
Ġde ta
or z
ĠÐ² Ð»Ð°ÑģÑĤ
çĲ ĥ
ostr ar
Ġk ry
ĠE mp
Ġten emos
Ġc ub
Ġn owo
v ado
Ð³ ÑĥÑģÑĤ
reich en
Ġnasze j
ĠÐ¿ Ð¸Ñģ
ĠdÅĤu go
Ġb lanc
Ð°Ð½ Ð½ÑĭÐµ
rÃª t
Ġlib ro
Ġl iste
ĠE m
ĠÐ½ Ð°Ð»Ð¾Ð³
Ġexp res
Ġach eter
ĠFl ug
Ġ4 6
è¿ ½
ĠÃ©tu di
Ñģ Ð°
Ġse mb
ĠS P
Ġch odzi
ĠH ay
Ġsemp lice
ĠS anta
Ġæ ¨
ĠG obierno
ant as
ĠÐºÐ¾Ð½ Ñģ
sI m
wi Äĩ
ãĤ¢ ãĥĹãĥª
Ð° ÑģÑĤÐ²
Ġa fec
Ġme glio
èĪ ¬
Ð¸Ð· Ð¼
Ġwer s
ra to
Ġmies iÄħ
Ġch á»ĭ
Ġl arge
ĠF unk
ĠEsta dos
Ġl uo
Ġdo kument
ĠÄĳ Æ¡n
7 4
Ġ5 9
Ġacc ord
ĠBewert ungen
ĠWe g
Ä Ħ
ĠÅ¼y cie
ĠÐŁÑĢ Ð¾Ñģ
ĠÐ¿ÑĢ Ð¸Ñħ
ãģĦ ãĤį
ĠÐº Ð°Ð±
Ġãĥ ļ
Ġv ÃŃ
Ġespa ce
Ġa Å¼
it zen
ÑĥÐ½ Ð°ÑĢÐ¾Ð´
Ġnav ig
ãĥ ¶
ãģĦ ãģĳ
Ġb ol
b lo
ĠStr ona
ko ÅĦ
Ġac er
Ġpr is
Ġh t
éĢļ è²©
ãĤı ãĤĮãģ¦
Ġv Äĥn
ÑĤ Ð¾Ð²
dzi Äĩ
ĠI mp
ĠP rÃ©
Ġprogram me
Ġç§ģ ãģ¯
Ġb out
ĠR ic
Ġpres enta
vie w
Ġé ĥ
Ġver fÃ¼
Ġt Ãªte
Ġra mach
Ġè Ĥ
ãĥĻ ãĥ«
ĠÑįÑĤ Ð¸Ñħ
Ġques te
ta tions
r era
cze k
Ġofer ty
ãĥ³ãĥ Ħ
niej sze
Ġth at
Ġg obierno
k tion
Ġoff i
ĠÐ¸ÑģÐ¿Ð¾Ð»ÑĮÐ· Ð¾Ð²Ð°ÑĤÑĮ
Ġa os
Ġczy n
ãģĬ ãĤĬãģ¾ãģĻ
å¸ °
ĠPubli Ã©
Ġdev ant
Ġty god
Ġde ter
ĠEr fahr
ĠÑĤÐ°Ðº Ð¾Ðµ
Ġsigui ente
ĠÐº Ð¾Ñģ
T Y
Ġwy glÄħda
Ġpeti ts
Ġnh au
us iÃ³n
Ġmer cato
ĠåĨ ħ
CI 6
Ġw sz
Ġnavig ation
å± Ĭ
Ġlive llo
Ġo fi
ãĤī ãģ«
ĠGar ten
ĠÐ¿Ð¾ÑĤ Ð¾Ð¼Ñĥ
Ġs ites
Ġviel en
âĶģ âĶģ
æĽ ²
Ġcara cter
Ġau tori
ĠÑĩÐ°ÑģÑĤ Ð¾
è² ł
uo le
on ej
Ġres s
Ġinter na
Ġprop re
Ġwen ig
Ġç ģ
Ġwy ra
Ġmilli ons
å¡ Ĺ
co li
ãģ§ãģĹãĤĩãģĨ ãģĭ
Ġdi ciembre
Ġan un
Ġus ÅĤug
ri gen
éł ĥ
odi ce
ĠOr t
r ut
Ġo l
ĠÐ¿Ð¾ÑĤ Ð¾Ð¼
Ġszczeg Ã³ÅĤ
ĠÐ¾Ð´ Ð½Ð¾Ð¹
Ġcar atter
Ġnie j
ĠZ ak
Ġz de
Ġcu atro
men o
ç· ¨
Ġra zem
ĠNo tre
) .
Ð¸ÑĢÑĥ ÐµÑĤ
ãģ®å ĩº
Ġactiv itÃ©s
áº¯ m
Ġza ba
ĠHer ren
ĠJ uni
Ġw pis
ç Ī
ĠÑĩ Ð¸ÑģÑĤ
Ġ5 4
Ġmani Ã¨re
ĠÑģÐ²ÑıÐ· Ð¸
I n
Ġla ta
la f
ä½¿ ãģĦ
Ġty pu
Ġele ctr
ĠÐŁÐµÑĢ Ð²
Ġmigli or
Ġå¤ ©
Ġne u
ãĥ¯ ãĤ¤ãĥĪ
f Ã¤
Ãª t
½ ¢
Ġczerw ca
or ta
ĠÐµ ÑīÑĳ
an ym
Ġv it
ãģ¾ ãģĹãģ¦
ãģª ãģĳãĤĮãģ°
ĠF uÃŁ
Ã¬ n
ĠB i
ĠMad uras
Ġoc tubre
li cz
Ġne gli
Ġge hen
Ġra ison
Ġser wis
Ġbene fi
ÑģÑĤÑĢÑĥ Ð¼ÐµÐ½ÑĤ
ĠÅ¼ ad
ĠV ol
ĠÐ¿ÑĢ Ð¾Ðº
um en
ĠÐ¿ÑĢ Ð¸ÑĢ
ĠãĤ¹ ãĤ¿
und heit
Ġsopra ttutto
ĠE du
Ġsi m
Ġsta tt
Ġtr á»Ł
ãģ¾ ãģł
ĠÐ´ ÑĥÑĪ
ĠÑģÑĢ Ð°Ð²
Ġmul ti
Ġpod staw
ki er
2 00
p endant
Ġc itas
Ġsitu aciÃ³n
ci mento
Ð¾Ð± Ð¾Ð´
siÄĻ bior
ci da
ck s
à ¸
Å »
Äħc ych
äºº ãģ®
Ġh Ã¤t
ĠÑĥ ÑĢ
p rze
Ġsegu ir
ĠgÃ©nÃ©ra l
al o
Ã¼ hr
ci ente
Ñİ Ð·
Ġo chron
Ġpr Ã¡c
ĠMÃ¤ rz
s cy
Ġm ach
vers itÃ©
Ľ ¸
ĠÑĢ Ð°Ð´Ð¸
H o
ĠP ER
Ġde tta
ĠC ono
ĠÑĤÐ°Ðº Ð¸Ñħ
Ġqu o
ãģ§ ãģĬ
ãģĻ ãģĲ
x to
Ġgro ÃŁ
Ġroz wiÄħz
Ġprodu cto
Ġr it
Ġk ap
us za
èĢĥ ãģĪãģ¦
ĠÃ ĭ
Ġqu á»ĳc
Ñį Ð½
Ġvis ite
Ã¤ ter
Ġkwiet nia
Å¼ li
Ĭ ãģ³
æ°Ĺ ãģĮ
Ġp in
ãĥ³ãĤ¿ ãĥ¼
Ġami gos
å¤ ª
Ġincl uso
Ð¾Ð¼ Ð½
Ġtrova re
ĠÑģÐ»ÐµÐ´ ÑĥÐµÑĤ
Ġmelh or
Ġf ich
ĠCon se
ĠCom me
Ġæ ¸
ĠBe ispiel
Ġs ci
li k
ãĥ¼ãĥ« ãĥī
Ð¾Ð²Ð°Ð½ Ð¸Ð¸
Ġu da
Ġgus ta
Ġalgun a
ell schaft
Ġw Ã¤hrend
ĠÐºÐ°Ðº Ð¾Ð¹
Ġjed n
Ġï½ ¥
ĠåĪ Ŀ
ien tos
ÐµÐ¹ ÑĤ
ÑģÐ» ÑĥÐ¶
Ðķ ÐĿ
Ð¾ÑĢ Ð¾Ð½
Ġpesso as
ãĥ ĺ
Ġmi asta
ĠÑį Ð»ÐµÐ¼
Ġåı £
ãĤģ ãģŁ
de p
ĠÐ±Ñĭ ÑģÑĤÑĢÐ¾
Ġlo cation
tycz nych
c om
3 4
ĠA t
ĠÑįÐ»ÐµÐºÑĤÑĢ Ð¾Ð½
Ġr ue
Ġje ux
ĠÑģÐ¼Ð¾ÑĤÑĢ ÐµÑĤÑĮ
æľ Ŀ
ĠM ag
Ġenvir on
ĠÂ ¦
ĠÐ¾Ñģ Ð½
Ġsi cu
d W
w ane
ãĥĬ ãĥ¼
R I
Ġacqu a
ĠA L
to res
Ñĩ Ð¸Ð²
ĠÐŁ Ð¾Ðº
cri p
© ĭ
Ð³ÑĢ Ð¾Ð¼
er on
ĠSp iele
Ã¶ff entlich
Ġus t
ta kt
ãĤĴ ä½ľ
Þ °
Ġgiá» Ŀ
Ð¢ Ðŀ
Ð°Ð½Ð´ Ð°ÑĢÑĤ
bra uch
ĠMa il
Ġtu taj
k tÃ³
ĠR ad
ĠNe w
ãĤ¢ ãĤ¤
äºĭ æ¥Ń
Ġpon er
ĠvidÃ© o
ãģ§ ãģĤ
vis iÃ³n
ĠÐ° ÑĤ
m Ã¶glich
Ġvol te
Ġau tour
åŁ İ
ĠDes ign
U L
gu ir
t ante
li en
ĠãĤĤ ãģĨ
Ð¾Ð± ÑīÐµ
æ¸ Ľ
ce ll
ÑĢ ÐµÐ·
ten s
ĠdiffÃ©r ents
èĤ ī
Ġalgun as
ä¸ĭ ãģķãģĦ
ŀ į
ĠÐ·Ð°Ð± Ð¾Ð»ÐµÐ²
Ġar ticolo
ĠPrze d
Ġt as
le gt
Ðķ Ðł
Ð¸Ðº Ð°Ð½
Ġmie Äĩ
Ġag it
ola zione
èĬ ±
ĠF ir
ãĤ¹ãĥĨ ãĥł
ĠEr geb
hal t
Ġfa vor
å£ ģ
Ġtr ÃŃ
ĠÐºÐ½Ð¸ Ð³
ĠEn er
E T
Ġactiv itÃ©
ãģłãģĳ ãģ©
åľ Ł
uest as
Ñı Ð¼Ð¸
Ġcam bia
Ijo i
ĠÅĽwia t
Ġjo ven
ä¼ ¼
Ġch ica
ĠUni versidad
ĠF ol
ro y
ĠGro ÃŁ
ir s
éģķ ãģĦ
Ġin ver
ÑĬ ÐµÐ¼
alidad e
ĠÐŀ Ð½Ð¸
Ġden en
Ġc anti
Ġcli ent
æľ į
Â ¨
Ġv áº¥n
Ġad ministra
ĠsÃ© jour
Ġincont ri
ra le
ch y
ĠæŃ £
Ġgro ÃŁe
Ġpol ity
Ã³r ia
ãģªãĤĵ ãģ¦
: .
ãĤĬ ãģ®
Ġcomun ica
ĠSch warz
Ġge macht
ing e
Ġh y
iO i
ĠkaÅ¼ dy
ĠÐ´ÐµÐº Ð°Ð±
Ð¸Ð½ ÐºÐ¸
ÑģÑĤ Ð°Ð½
Ġo ttobre
Ġg ry
Ġse ptiembre
ber t
å¤ ľ
ÑĢÐ° ÑĪ
ĠÐ½ Ð¾Ð³
Ġh eight
ĠÑģÐ²Ð¾ ÐµÐ³Ð¾
Ġag rÃ©
Ġofre ce
i ques
Ġter ra
ĠMil li
ĠÐŀ Ñĩ
Ġchar akter
ãģ¹ ãģį
Ð¡ Ð¡
ĠÐºÑĢÐ°Ñģ Ð¸Ð²
ĠY a
Ġj unto
Ġm erci
enn ent
ĠÐ² ÑĢÐ°Ñĩ
Ġd áº«n
ĠÐ½Ð°ÑĢ Ð¾Ð´
ĠÑĢ ÐµÑģ
ĠÐ¿ÑĢÐµÐ¿ Ð°ÑĢ
ÐµÐ½ Ð´Ð°
Ġa re
ĠÅĽ ci
ĠÑıÐ½ Ð²Ð°ÑĢ
Ġæ¬ ¡
ĠCÃ³ mo
Ġ q
ĠpÃºb lico
Ġ48 5
ÅĤ ÄĻ
Ġ Åº
Ġno viembre
g ato
ãĥª ãĥ³ãĤ°
Ġsitu ation
ĠÑģÑĤ Ð°Ð»
åį ´
åį Ĺ
ĠB ien
Ġele g
ra um
Ġpi cc
ĠOdpowie dzi
Ġbu dy
ab or
Ġge mein
Ð½ Ð¸ÑĤ
Ġcu á»Ļc
ĠMit tel
age m
ĠÐ´Ð¾Ð¿ Ð¾Ð»Ð½Ð¸ÑĤÐµÐ»ÑĮ
Ġso ciales
ĠP el
Ġmo vi
Ġtele fon
Ġlin ks
ãĥĸ ãĥŃãĤ°
è¡¨ ç¤º
ï¼ ¡
ãĤ¦ ãĥ³
di r
ĠMar kt
vis ion
ãĤ ¾
Ġen ero
zia l
ĠÐ½ Ð¾Ñĩ
Ġst anie
b ind
ãĥį ãĥĥãĥĪ
Ġju lio
ĠprÃ© cis
isten cia
ĠP au
Ġht ml
Ġç´ Ħ
res so
und i
Ġan o
ãģŁ ãģı
Ð¸ÑĨ Ð¸Ð½
ãĥĿ ãĥ¼ãĥĪ
og le
Ġpen se
M A
les s
Ġklas y
as e
Ġno t
Ġ( '
å¤ī ãĤı
ĠÐ¿Ð¾Ð´ Ð°ÑĢ
ĠÑħ Ð¾Ð·Ñı
Ġv arios
Ġme dia
ĠÐł ÑĥÑģ
ĠÐ²Ð½Ð¸Ð¼ Ð°Ð½Ð¸Ðµ
Å¼ enia
ãģĮ ãģĬ
Ġbei den
Ġb or
ä½ľ åĵģ
ĠãģĿ ãģĵ
ĠÑģ Ñħ
Ġp ein
æĬ ľ
ste ller
ĠT age
ĠÑĢ Ð¾Ð·
ĠÐŁÐµÑĤ ÐµÑĢÐ±ÑĥÑĢÐ³
z ÅĤ
ĠA nh
Ġm essage
ĠÐ· Ð°ÑģÑĤ
Å¼ Äħ
Ġla iss
Ġå¥³ æĢ§
Ġå¼ ķ
çĦ ¼
ÑĥÐ»Ñı ÑĤÐ¾ÑĢ
Ð¸Ð½ Ð°Ð¼
Ġpod sta
ĠAug ust
Ġcham bres
Ġï¼ į
èª¬ æĺİ
ĠÐ¼ Ð°Ñı
pa gna
åĭ Ł
ara ciÃ³n
ãĥĥ ãĤŃ
ĠÑģÐ°Ð¹ÑĤ Ð°
ÑĢ Ð¸ÑģÑĤ
il ar
ri ft
e urs
ãĤ« ãĥ¼ãĥī
Ġdi v
ion a
Ð¾Ð½ ÑĥÑģ
ĠÐ¾ÑĤÐ´ ÐµÐ»ÑĮ
ĠãĢį ãĢĮ
æĶ ¹
ĠPro zent
Ġje une
ro id
Ġå± ±
Ð¼ Ð°ÑĤ
Ġur l
ç¾ ©
Ġpas o
ĠM ode
Ġw issen
u k
Y 2
Ġ\": \"
ent y
Ġb al
Ð¸Ð´ Ñĥ
Ho tel
Ġmes i
ĠÑģÑĤÐ¾ÑĢ Ð¾Ð½Ñĭ
Ġapp are
Ġph Æ°Æ¡ng
Ġh emos
Å¼ enie
Ð¾ÑĢ ÑĮ
Ġgi ugno
ĠÐ¾Ðº Ð¾Ð»Ð¾
ni cas
åı£ ãĤ³ãĥŁ
ï¼ ³
ãģ®å °
schie d
tive ment
Ġch cia
Ġma g
en dere
Ġokre ÅĽl
ãĥĬ ãĥ«
Ġcons um
Ĵ° å¢ĥ
ĠDes de
Ġparti cip
Ġè ¶
ãĥ³ãĤ· ãĥ§ãĥ³
Ġ ðŁ
æĴ ĥ
Ġcondi tions
ĠG dy
at te
Ġla nge
ĠÑģ ÑĥÐ±
ais e
Ġa ggior
Ġvis ita
ÑĪ Ð¸Ð±
Ð°Ð½ Ðº
Ġet wa
Ġs Ã³
Ġme mb
Ð¾Ð½ Ñĩ
ÃŃcul as
Ġpra tique
Ġwrze ÅĽnia
ĠN á»Ļi
Ġch Æ°a
Ġãĥ İ
Ġm unicip
ĠAs ÃŃ
Ð² Ð¸Ð½
b m
kow i
ub o
ÃŃcul os
pu ter
jou ter
Ġind ustr
ãĥ³ãĥ Ķ
Ġry nku
Ġpour rait
Ġprzy sz
Ġcuer po
ĠÃ ķ
7 6
Ã ĳ
Ġl Ãºc
isch es
ĠN Ã£o
Ġleg ge
Ġb ad
Ð½Ð¸Ð² ÐµÑĢÑģ
u che
cor ts
Ġap are
ĠDE L
Ġesp anol
Ġun as
r Ã¤n
Ġjes te
Ġtra vers
en as
d is
Ġlip ca
b bero
ãĤī ãģļ
ĠÐ· Ð½Ð°
Ġz do
Ġre al
ro ng
Ġar gent
ĠÐº ÑĢÑĥÐ³
ur t
kto ber
se mb
Ġe jer
ĠÐĳ Ð¾Ð»ÑĮÑĪ
åĩºä¼ļ ãģĦ
ĠFra u
Ġpl u
ãģ¾ ãģ¨
Ġ ãģ£ãģ¦
æľ «
Ġi hm
Ġpr ue
Ġencuent ra
ĠãģĤ ãģªãģŁ
ft ware
ĠN etz
o ÅĦ
ãģ« ãģ¨
Ġso gar
Ð¿ Ð¸Ð¾Ð½
ÐĽ Ð¬
ÐºÐ¸ Ð´
ĠÑģ Ð¸Ð½
ĠÐ¾ÑĤ Ð¼ÐµÑĤ
ãĤ² ãĥ¼ãĥł
Ä Ĳ
Ġb Ãªn
le x
Ðº Ð¾Ð³Ð¾
Ġp elle
V y
ĠduÅ¼ o
mp a
å°ĳ ãģĹ
iss ione
ĠÐĶ Ð¾Ð±Ð°Ð²
ĠÐºÐ¾ÑĤÐ¾ÑĢ Ð¾Ð³Ð¾
ãĤ¹ãĤ¿ ãĥ¼
ĠA ma
ĠP AR
Ġfr ente
f rei
bild ung
ĠKom m
ty n
Ġbor der
Ġç ¦ı
æ »
Ġb aj
inh o
ĠÐ¿Ð¾Ð·Ð²Ð¾Ð»Ñı ÐµÑĤ
ĠG ia
age ment
Ġl ire
ĠMi tarbeit
Ġs ettembre
Ġ... .
Ġ! !
Ã¨ mes
ÑĥÐ½ ÐºÑĤ
ie ÅĦ
Ġa Ãºn
olo g
ĠsÃ© lection
ĠS Ã©
ux e
Ġv ai
Ġdem and
Ð¾ÑĤ Ð¸Ð²
ne hmer
ĠÑĤ Ð²Ð¾ÑĢ
Ġsicu rezza
ĠãĤ¢ ãĥ«
ĠO ktober
ĠÐĺ Ð¼
p he
Ġna z
en sa
ge mein
ĠA ir
ãĥĥ ãĤ«
ªå¼ı ä¼ļç¤¾
ç§ »
ÑģÐº ÑĥÑİ
Ġfun zion
er as
Ã« l
ĠN icht
u elle
Ġcal le
Ġen fer
ĠÄĳá»ģ u
ster reich
ĠkÃ¶nn te
ĠÐĴÐ»Ð°Ð´ Ð¸Ð¼
ĠÐ¿Ð¾Ð´ ÑħÐ¾Ð´
Ġpre cis
Ġent ra
on ego
a W
uni ka
ĠÐ§ ÐµÑĢ
ĠÑĩÐ°Ñģ Ð¾Ð²
Ġac tion
la ire
Ġw ido
ãĥ© ãĥ³ãĤ¹
ĠS ystem
ĠÐĲÐ½ Ð´
ĠÐ¼ Ð°ÑģÑĤ
ĠÑģÐ¾Ð² ÐµÑĤ
ĠL ou
ĠA ut
Ã® t
Ð¼ Ð°ÑĤÑĢ
li cy
ĠÐ²ÑĭÐ¿ ÑĥÑģÐº
ĠS Ã¼
Ġ Î
y on
for me
Ġcon cer
ĠÐ¢Ð°Ðº Ð¶Ðµ
Ġne gro
Ġlar go
Ġwyb or
ÑĢÑĥ ÑĤ
Ġr Ã¨g
Ġso cietÃł
Ġprzy kÅĤad
è¨Ģ ãģĨ
éĥ ¡
ĠâĨ Ĵ
è¾ º
ĠApr il
ĠT ous
3 9
ĠbÃ©nÃ© fi
ĠÑĤÐµÐ¿ ÐµÑĢÑĮ
Ġnuo vi
sch uhe
ous el
ãģ® ãģł
ãĥ© ãĥł
Ġcu es
us ion
Ġnie go
ĀĀĀĀĀĀĀĀ ĀĀĀĀĀĀĀĀ
Ġazien da
ei o
æĬ ŀ
áº¥ m
ÐµÑħ Ð°Ð½
ĠÐºÐ» ÑĥÐ±
ier ten
Ġpotre bbe
ta mi
ĠUni dos
Ġa ider
ĠÐ² ÐµÑģÑĮ
Ġå¤ ļ
an ten
Ġsouha ite
ĠÐ¿Ð¾Ð´ Ð¾Ð±
Ġwsp Ã³l
Ġprz et
cu p
Ã¼ns tig
pos aÅ¼
Ġh uma
ĠÐļ Ð¾Ð³Ð´Ð°
ĠRe gel
Ġper f
ta zioni
24 80
Ġlisto pada
á» ħ
Ġtra itement
Ġenvir onnement
Ġla bor
ĠÃ©ta blis
Ġcze go
si co
Ġat te
Ġdla tego
Ġå Ł
Ã¤ us
ĠÐ½Ð¸Ðº Ð°Ðº
ãģĹãģŁ ãĤī
Ġre du
Ġl Ã¤s
Ġ0815 30
Ġmigli ori
ãĤª ãĥ³
Ġ5 30
ora zione
Ð°Ð¼ ÐµÐ½
ta Äĩ
Ġci Ã²
ĠWer k
Ãĥ O
si m
ig h
Ġpr om
Ġho Ãłn
ĠMus ik
Ġay ant
Ð¼Ð¾ÑĤ ÑĢÐ¾Ð²
Ð°Ðº Ð°
te j
te ile
olesc ente
Ġnue vos
ãģį ãģ¦
Ġdara uf
Ġse ctor
ĠÐ½Ð¸Ñĩ ÐµÐ³Ð¾
ni enie
Ġsp esso
å· ®
Ġfeb rero
Ġkann st
ĠI nh
ĠÐ¸ÑģÑĤ Ð¾ÑĢ
Ġkra j
Ġparti do
ĠrÃ©sul tats
ĠÃ£ ÆĴ
ĠÃ Ĩ
Ġtá» ¥
Ġtrabal ho
ber eich
Ġex pos
ãĤĦ ãģ£ãģ¦
Ġåº Ĺ
Ġe uch
ng er
Ġè Ħ
las sen
Ġcoment arios
qu is
ãģ¸ ãģ®
ĠBe g
ĠÑĢÐµÐº Ð»Ð°Ð¼
Ġth am
ĠÐ²Ð½ ÐµÑĪ
ĠÐ¿ÑĢÐ¾Ð´ Ð°Ð¶
ĠÐļ Ð°ÑĤ
ĠÐ½ÐµÐ± Ð¾Ð»ÑĮÑĪ
ĠK ul
Ã¡ ria
å Ĥ¬
Ġs uff
elÃ© fono
ĠWyÅĽwiet leÅĦ
wÃ³ dz
ĠÐ³ ÑĢÐ°Ð½
Ġ485 2480
Ġgru dnia
arÃ³w no
Ġay uda
ĠK ir
t he
i ores
ĠSep tember
ĠCh a
ĠÐ¿ÑĢÐ¾Ð³ÑĢÐ°Ð¼ Ð¼
Ġucz est
wa ch
ĠCi udad
ĠÐ²ÐµÐ´ ÑĮ
ĠåĲį åīį
ãĤĴ ãģ¤
ÐµÐ» Ðµ
us a
ĠV ente
Ġu 003
Ġau tant
le ist
ĠH ombre
Ġactiv idades
Ġv ista
Ġp Ã³Åº
** **
ĠA f
ĠÑģÐµÑĢ Ð²
ĠÐ²Ð¾Ð´ Ñĭ
éĻĲ å®ļ
ãĤĭ ãģĵãģ¨ãģĮ
Ġb áº¥t
Ġda von
Ġma ior
cion ar
or ie
ĠÐ¼ Ð°ÐºÑģÐ¸Ð¼
Ġfor ni
åĳ ½
ĠÐ± ÑĥÐº
ĠÐ¸ÑģÐº Ð»ÑİÑĩ
ĠM or
p re
liÃ¨re ment
ĠÃºlti mo
ĠÐ¸Ð³ ÑĢÐ°
ĠPare ja
Ġs um
h ic
Ġï¼ī ãĢģ
ĠÑĤ ÑĥÑĤ
Ð¾Ð´Ð°ÑĢ Ñı
å® ®
Ġåħ ¥
Ĺ i
r ÃŃ
Ġimp res
ĠÐĴ Ð¾ÑĤ
va ti
ta w
ãĥĸãĥ© ãĥ³ãĥī
ĠÐ¿ÑĢÐ¸ ÑĪ
tycz ny
ãĥ¼ãĤ¿ ãĥ¼
Ġhab it
Ð»ÐµÐ½ Ð¸ÐµÐ¼
c 3
ĠC ent
wÃ³ ch
ãĤ¸ ãĥ¥
Ġcost ru
es se
Ðµ Ñı
ãĤĴ èªŃ
es sen
ãģĭãģª ãĤĬ
Ġre cht
ĠÑģÑĢ Ð¾Ðº
ĠÐ²Ð¾Ð» Ð¾Ñģ
ĠÑģÐ²Ð¾ Ð¸Ð¼Ð¸
ĠÄĳá»ĭ a
ĠmÃ¶ chte
ĠS eiten
ĠW iÄĻ
u dos
va it
ĠÐŁÐ¾ ÑįÑĤÐ¾Ð¼Ñĥ
ĠDz iÄĻki
ãĥ¼ãĥ ĭ
it ud
ĠÑģÑĤ Ð°ÑĤ
ĠS ommer
ĠCh e
Ġto i
our g
ĠÑĢÐ°Ð¹ Ð¾Ð½
Ġnapraw dÄĻ
åĳ ¼
ĠÐºÐ¾Ð¼Ð¿ Ð°Ð½Ð¸Ñı
Ġprzygo tow
ri os
Ð°ÑİÑī Ð¸Ð¹
Ġmod Ã¨le
ĠÃ©v ol
Ġchw il
dz enia
ge ber
or er
Ġpossi bilitÃł
Ġm uer
ĠL ire
Ġquel que
ĠB Ã¼r
ĠÐŃ ÑĤ
Ġpro pie
Ġri fer
b n
Ġcho Äĩ
ĠN atur
Ġani ma
ĠÐ¡Ð¾ Ð¾Ð±Ñī
ĠÐ¿ÑĢÐ¾Ð´ ÑĥÐº
ĠÐ» Ð¸ÑģÑĤ
st Ã¼tz
i tos
ĠwspÃ³ÅĤ pra
ĠÐ§ ÑĤÐ¾Ð±Ñĭ
ãĥ« ãĥķ
use ment
Ġswo ich
ĠÑĥÑĩ ÐµÐ±
ãģ» ãģĨ
ãĤĮ ãģªãģĦ
O K
ĥ ħ
8 5
ous se
Ġblo g
Ġdes ign
Ġver sch
Ġapplica tion
Ġam Ã©li
Ġac om
ĠDi os
ĠÐĲÐ² ÑĤÐ¾ÑĢ
ĠÐ°Ð½ Ð³
ÅĽ cia
Ġè» Ĭ
omb ia
Ġna cional
Ġv elo
Ġre con
Ġr ichtig
ĠÑĤ Ð¾ÑĤ
ib t
Ġsz uka
åĽ ł
la tion
Ġpod ej
ĠVer fÃ¼
Ð¸Ð± Ð¾Ð»ÐµÐµ
Â £Â¬
ĠÃ Ĥ
Ġr os
ãģªãģı ãģª
ĠL un
v ant
ĠRe chts
Ġmol ti
ÃŃs ticas
ĠÐ½Ð°Ð· Ð½Ð°Ñĩ
Ġques tions
ãĥ¡ãĥª ãĤ«
u de
Ġ5 6
Ġmemb res
Ġpun tos
ĠÐ²Ðº ÑĥÑģ
ĠÑĥ Ð¶
wy Å¼
Ġid Ã©e
ÑĦ Ð¸Ðº
ĠÐ¿Ð» Ð°ÑģÑĤ
Ð¸Ñģ Ð°
åİ »
Ġs Ã¡ng
ĠVer ein
Ġau cun
ĠÐ¿Ð¾Ð» Ð½Ð¾ÑģÑĤÑĮÑİ
Ġesper ienza
Ġre alidad
Ġw nios
Ġpr end
onn es
Ġpodr ÃŃa
ÑģÑĤÐ² Ñĥ
le Å¼
çĶ¨ åĵģ
Ġab ord
ĠÐ±Ñİ Ð´Ð¶
ãģĹãģ¦ ãģ¿
ĠÑĤ Ð°Ð±
ĠÐ¼ÐµÐ½ ÐµÐµ
Ġpi en
Ġr om
Ġw ych
åĽ ³
st Äħ
ste hen
Ġ4 7
Ġpr ise
Ġcoule ur
ina ire
Ġimport ant
Ġdi cembre
ten ti
Ġdisp lay
ãģĨ ãģ¡
d G
Ġda lej
ĠÐĺ ÑģÑĤ
gen s
ĠÐ´Ð¾Ð» Ð³
Ġot ten
je wÃ³dz
Ġpomo c
c us
Ġlors que
= =
ãĤĤ ãģ®ãģ§
ĠÐº ÑĥÑħ
Ð¸ÑĢ Ð°
Ð» ÐµÐ¶
ĠWeit er
Ã¤n d
ĠÐ¸Ð½ÑĦÐ¾ÑĢÐ¼ Ð°ÑĨÐ¸Ð¸
ĠT rong
ĠPor n
z os
ĠÐ¶Ð¸Ð² Ð¾ÑĤ
us Ã¤tz
Ġr ol
ãģ® ãĤ³
ib ili
ĠP ag
Ġpod emos
gi co
al na
Ġbie ten
Ġb ain
iv ent
Ġop ortun
Ġzape w
ĠãĤ ı
Ġfal ta
ĠÑĩÐ¸Ñģ Ð»Ðµ
ĠVer gleich
ĠÑħ Ð¾Ð´
Ġcar ousel
ĠçĻ ½
Ġgen naio
Ġbus car
Ġter cer
ãģ®å¾ Į
met y
Ġosta tni
Ġpass Ã©
ĠÐĿ Ð°ÑĪ
Ġcu cina
um enti
to ry
Ġu dziaÅĤ
Ġv an
Ġart ÃŃculo
ge m
ĠÑĢ Ð°Ð¼
Ġcre o
Ġsy n
ĠfÃ¡ cil
c une
ĠÐ¿ÑĢÐ¸ Ð³
ç· Ĵ
Ġè ħ
uy áº¿n
Ġpo ÅĽ
å¹ ħ
or ia
ĠÑĥÑģÐ»Ð¾Ð² Ð¸ÑıÑħ
Ġtrad u
ut lich
Ġd wÃ³ch
Ðº Ð°Ð¼
ãģ£ãģŁ ãĤī
f as
Ġcons om
âĺ ħ
ãģ® ãĤĪãģĨãģ«
Ġat ta
Ġe li
ÅĽ la
ĠÑĢ Ð¾ÑģÑĤ
Ð¾ÑĢ Ð¾ÑĤ
Ð¾Ð» ÐµÑĤ
ï¼ Į
ç¯ Ģ
æ ½
Ġcon te
ut Ã´t
Ġw ÅĽrÃ³d
Ġf ast
ÑĭÑĪ Ð»ÐµÐ½
ues tos
ĠrÃ©se au
Ġog ÅĤ
å¸¸ ãģ«
ĠÑĤÐµÐ¼ Ð¿ÐµÑĢ
ĠÐĲ Ðº
ÐµÑĢ Ð¸Ð½
ĠÑĢÐ°Ñģ Ð¿ÑĢ
i fic
am es
al nych
Ġa ktue
ĠZ ug
Ġf ort
ĠL uis
Ġv ir
ĠÐŁ Ð¾Ñĩ
Ð¸ ÑĨÐ¸Ð¸
p om
Ġbesonder s
pa ciÃ³n
on se
Â ½
ĠC Ã¡c
ĠFra gen
ow oÅĽci
Ġan zeigen
Ġde ine
Ã§ u
ĠT as
Ð½Ð¸ ÑĨÐ¸Ð¿
ĠÑįÐ½ ÐµÑĢÐ³
o ÅĤ
Ġde cl
ãĥ© ãĤ¤ãĥĪ
Ġçģ «
ĠG Ã¤
czy ÅĤ
il t
Ġsi gn
æİ ²
å° İ
Ġri con
Ġeigen en
ĠintÃ© rieur
Ð°Ð´ Ð°
ĠH ab
Ġnue vas
Ġad ul
ĠFre e
ĠL at
ĠRe p
qu ent
Ġl ig
ĠÐ¼ Ð¾Ñī
ãģį ãģŁãģĦ
è¨ ³
ÐµÐ½Ð¸Ñı Ñħ
ĠWeb cam
Ġus ted
Ġapri le
mas ch
Ġinter net
Ġwym aga
ve mber
qu ad
pp er
ĠÑĢÐµÐ³ Ð¸ÑģÑĤÑĢÐ°ÑĨÐ¸Ð¸
ĠÐŁ Ðŀ
ĠÐ½Ð¾Ð¼ ÐµÑĢ
Ġç Ł
ãĥ¢ ãĥĩãĥ«
å½ ¼
ien ne
ĠI hren
ĠÐ² ÐµÑĩ
Ġc ura
Ġes cl
um s
Ġä¸ ĸ
Ġg ens
Ġspe ci
ĠÐ¾Ð³ ÑĢÐ°Ð½Ð¸Ñĩ
nh aus
Ġcon du
r Ã¼ck
Ġm asz
ĠÃ Ĳ
ĠÃ ı
Ġc Ã¡
Ġap res
Ġbes timm
Ġat tu
ãģªãģı ãģ¦
ãģ®å Ľ
Ġl iá»ĩu
Ġdo kon
ĠÐŀÐ± Ñī
ĠÑģÑĢÐ°Ð² Ð½
Ġad resse
ces s
Ġgr ado
g ani
th Ã¨
ĠE ro
ent al
ĠS A
Ġmoy en
ĠÑģ ÐµÐ½ÑĤ
ĠÄĳá»ķ i
ĠSch wei
Ġcump li
ÑĢ Ð¾Ð¹
Ġbuen o
Ġa tenciÃ³n
ĠJu gend
Ġz ar
ig ung
ĠÑģÑĢÐµÐ´ ÑģÑĤÐ²Ð°
ĠJan u
Ġon e
å± ŀ
und ial
ĠÐľ Ð°ÑĤ
ĠÐ²Ð½ÑĥÑĤÑĢ ÐµÐ½
ĠZ iel
gg etti
fa ce
Ð¸ÑĨ Ðµ
ow ski
Å¼ czy
ĠÑģÑĤ Ð°Ð½Ð¾Ð²
cz aj
ãģĿãģĨ ãģ§ãģĻ
Ã¤t ze
ï½ ¥
éĻ į
Ġtr am
Ġf l
âĢ Ŀ
ĠÐ°Ð½ ÑĤ
ÑĭÐ² Ð°ÐµÐ¼
Ġtech n
Ġfr om
I ER
Ġco ll
on ie
ç± ³
ĠÐ»ÑİÐ± Ð¾Ð¹
Ã ¦
Ġch uyÃªn
p en
mi ca
jÄħce go
cia ux
ĠÐ¸Ð½ ÑĦ
mÃ¡ tica
w elt
ĠW el
u tions
Ġid Ã©
cch ia
Ġeffec tu
Ġ! !!
ĠÐºÐ¾ÑĢ Ð¿
ĠÑħÐ¾ÑĤ Ñı
ãģ« åĩº
ou re
Ġa more
Ã² a
ier on
Ġdire tta
Ġsu as
cz eniu
Ġgro ÃŁen
ĠdÃ©couv rir
Ġple in
" ,"
Ġç¥ ŀ
Ġqu asi
as to
Ġseg unda
ÑĥÐ½ Ð´
ĠÃ¶ ff
ie ux
Ġf ix
Ð»ÐµÐ½ Ð¸Ð¹
Ġãģ ²
Ġä¸ ĭ
ec ta
Ġo zna
åıĤ åĬł
sta tt
ĠÐ°Ð½ Ð°Ð»Ð¸Ð·
Ð°Ð¼ Ð¿
Ġpas ar
Ġcit tad
dor f
ĠB en
ĠV ille
Ġv aleur
ĠÐµ Ñĳ
ĠB ra
Ġk urz
Ġdes tin
ter ial
Ġsein em
va mente
ãĥģ ãĥ¥
Ġlo in
Ġkle ine
ĠÐ¾Ð±ÑĢÐ°Ð· Ð¾Ð²Ð°Ð½Ð¸Ñı
g hi
Ġobje tivo
ãĢ ĳ
ãĥĵ ãĥ¥ãĥ¼
çŃ Ķ
Ġh á»Ļ
ĠÐ¿Ð¾Ð´ ÑĤ
ãĤĴæ Ħ
Ġb est
fica tion
Ġpour quoi
Ġs w
ç¥ Ŀ
ĠHol z
ĠMe di
ĠÐļÑĢ Ð¾Ð¼Ðµ
æ ©ĭ
ĠLie fer
ĠSt Ã¼ck
Ã¶r der
Ġon de
ãģĵãģ¨ ãģ«
b lick
Ġex tÃ©
Ġres er
Ð»Ñı ÐµÐ¼
ĠGr Ã¶ÃŁe
Ġwra z
8 2
Ġngo Ãłi
ĠÐ¿Ð¾Ð» ÐµÐ·
f lÃ¤
Ġam Ã©rica
ĠÑĦÐ¸Ð»ÑĮ Ð¼
Ġdiver si
ĠãĥĹ ãĥŃ
ĠÑĥÐ¿ÑĢÐ°Ð² Ð»ÐµÐ½Ð¸Ñı
Ġ ă
Ġprodu ktu
Ġswo jÄħ
Ġé ĺ
çĹ ĩ
ĠÐ¸ÑģÐ¿ Ð¾Ð»Ð½
Ðļ ÐĲ
ĠÐļ Ð¸ÐµÐ²
ĠÐºÐ¾ÑĤÐ¾ÑĢ Ð¾Ðµ
t ne
Ġespa cio
åĨħ å®¹
Ġder echo
ges tellt
u il
ãĤ¤ ãĥ¬
Ġdisp onible
Ġch oses
ãĥ³ãĥ ķ
Ġn owe
Ġesto y
Ġcor res
Ġa gosto
ĠÐºÐ°ÑĤ ÐµÐ³
Ġdz is
ĠCh ica
r ol
ĠpolÃŃ tica
Åĵ ur
vo ll
Ġnuo ve
Ã¤ te
ĠÐ¾Ð´ Ð½Ð¾Ð³Ð¾
Ġmod elo
Ġvi vi
Ġsoll ten
Ġava is
Ġnouve aux
ĵ ģ
ĠãĤ¸ ãĥ£
Ġpre zzi
Äħ t
Ġob owiÄħz
Ġ á»©ng
ĠC ap
ĠÐ² ÑħÐ¾Ð´
ĠF u
Ã³ vil
Ġes tre
Ġ ãģĹ
åĬ ©
ÐµÑģÑĤ ÑĮ
ra tion
ãĥ³ãĤ ³
ĠÑĢÐµÐ±ÐµÐ½ ÐºÐ°
ÑĮ ÑĤÐµ
Ġinforma cje
3 6
Ġcho is
Ġtr áº»
ãģ®æ ķ
Ġent onces
i Ã¨re
ĠpaÅºdzier nika
Ġwy na
ador as
ĠSu per
åĩº ãģĹ
Ġima gen
ĠÑĤÐµÐ»ÐµÑĦ Ð¾Ð½
Ġsu e
Ġpow ierzch
c chi
çİ ī
ãĥ¡ ãĥ¼ãĥ«
od es
ĠÐ¼ Ð°ÑĢÑĤÐ°
ĠT our
Ġgouver nement
i ra
å°Ĥ éĸĢ
ĠÐ± Ð¾
Ġpas sa
ä¼ļ ãģĦ
ãĥĲ ãĥĥãĤ¯
ĠÐ·Ð°Ð¿ Ð¸Ñģ
Ġj s
å®¢ æ§ĺ
ãĥĿ ãĥ¼ãĥĦ
Ġal um
Ġna g
ĠÐ²Ñĭ ÑģÑĤÑĥÐ¿
Ġs á»Ł
Ġmedi ante
id es
va ta
åħ Ĳ
Ġc ine
æĸ¹ ãģ¯
r or
in do
Ġw prowadz
Ã± ana
Ġprodu ction
Ð¾Ðº Ð¾
ç¯ ī
Ġl an
w ki
wor ten
ĠÐķÐ² ÑĢÐ¾Ð¿
Ġ/ /
ãĤī ãģĽ
k or
æ©Ł èĥ½
Ġch uyá»ĥn
Ġsi endo
Ġir gend
Ġlu glio
le cciÃ³n
Ġprimer o
Ġwy sz
ste in
c our
Ġå ĳ
Ġque lli
ĠNo vember
ĠCas a
Ġseg undo
alis ation
Ġ} ,"
ÐµÐ´ Ð¶
ad za
ĠÐ¾ÑĤ ÐºÐ°Ð·
Ġéĸ ¢
ch ter
Ġau ÃŁer
ĠC uis
Ġfaci le
ĠÑģÐ°Ð¼ ÑĭÑħ
Ġdos kon
ãģ£ãģ ±
ãĥ¼ãĤ ¶
Ġ9 5
gu es
o z
Ġresul tados
ĠÐłÐ¾ÑģÑģÐ¸Ð¹ ÑģÐºÐ¾Ð¹
ĠÐ¿ÑĢÐ°Ð² Ð¾
ĠR ob
Ġt est
ĠÐ¾ÑĤ Ðº
om os
Ġle ft
ï¾ ŀ
æĴ ®
is o
Ġins titu
Ġitali ano
ĠBes te
ĠÃ© tra
Ð¾Ð¼ Ð¸Ð½
vin cia
4 6
uyá» ħn
ı i
ĠAb s
Ġmes e
ãĥ¼ãĤ °
Ġæ Į
g an
Ġtien es
et es
éŁ ¿
ĠÃ ³
ob ili
ĠdÃ©c lar
ĠlÃ¤s st
Ġzawi era
ter i
ĠK e
Ã¶ ne
ĠÑĤ Ð¾Ð³Ð´Ð°
cj ach
Ġr áº±ng
Ġeing e
Ġv es
ĠC entro
ĠÑĤÐµÑĢÑĢÐ¸ÑĤ Ð¾ÑĢÐ¸Ð¸
Ġz b
Ġop iniÃ³n
Ġc ru
p lan
ĠÐ³Ð¾ÑĢÐ¾Ð´ Ðµ
ãĥŀ ãĥĽ
ĠZa hl
Ġve dere
ãĤĮ ãģ¾ãģĻ
ĠÐ³ ÑĢÑĥÐ·
ty m
ĠÑĦ ÐµÐ²ÑĢ
ĠÐ½ÐµÐ¿ ÑĢ
Ġunser en
on en
ĠDes n
ing o
ĠÐ¡ ÑĢÐµÐ´
Ġami ci
çĬ¶ æħĭ
Ġprincip al
Ġsc ri
ĠÑģÑĤ ÑĢÐ°Ñħ
Ġvis to
to waÄĩ
gu ien
Ġpropr ia
Ġpo tra
ĠDo ch
Ġ. âĢľ
éħ Ĵ
ĠÐ² ÑģÑı
ĠÐ¿ÑĢ Ð¸Ð·
di Ã³
Ġac cep
ĠÐ¸Ð½ ÑĤ
Ġayud ar
p as
ĠÐ´Ð°Ð½ Ð½ÑĭÑħ
Ġloka li
ĠA ff
Ġimp os
Ð¾Ñĩ Ð½Ð¸Ðº
ĭ äºº
Ġtr ak
tor en
ĠÐ£ÐºÑĢÐ° Ð¸Ð½Ñĭ
ĠÑĤ ÐµÑĩÐµÐ½Ð¸Ðµ
ia do
de x
Ġre v
Ġzosta ÅĤa
zem ber
ĠT re
Ġpla isir
Ġpro v
Ġlo gos
Ĵ æŃ©
Ġè² ·
Ġt un
ri mer
Ġ5 00
Ġè¿ Ķ
æµ· éģĵ
ãģ«ãģĬ ãģĦãģ¦
Ġè µ
ÑĪ Ð¸Ñħ
ĠspÃ© cialis
ca le
Ġde cyz
åľ §
on do
Ġw czeÅĽniej
ĠW inter
Ð°ÑĢ Ð´
ĠC rÃ©
ĠD ou
Ġg l
ãģ¾ãģĽãĤĵ ãģĮ
ĠÐ²Ñĭ ÑĪ
r ou
ĠR et
Ġser r
graph ie
Ð¾Ð² Ð¾
ĠÐ¼Ð¸ÑĢ Ð°
ãĥĥ ãĥķ
ĠpÃ¡g ina
k ra
æĽ ľ
si er
lis ation
ĠprÃ©s ente
Ġth ÃŃch
ĠÐ¾Ð¿ ÑĤ
ĠH ombres
c ados
ĠL iv
Ġch au
ÐµÑĨ ÐµÐ¿
Ð»Ñı ÑİÑĤ
ĠB el
ĠA y
Ġincl u
Ġkil ku
ãĤį ãĤĵ
Ġ5 8
Ġ4 1
ĠdÃ©c is
ĠÐ²Ð¾ Ð¾Ð±ÑīÐµ
ĠÐ· Ð½Ð°ÐºÐ¾Ð¼
Ġãĥĩ ãĤ£
ĠÑħÐ°ÑĢÐ°ÐºÑĤÐµÑĢ Ð¸ÑģÑĤ
ĠÐ¸Ð· Ð´ÐµÐ»
ĠÐ½Ð°ÑĪ ÐµÐ¹
ĠMar t
Ġt etas
Ġa de
Ð½ Ð¾Ð³
ran no
Ġth Ã¢n
M j
Ġs m
Z SI6
ki en
w ers
lace ment
ie z
ãĥĭ ãĥ¥
el os
graf ÃŃa
ĠÐ¾ Ð¶
ĠK li
Ġstrut tura
sk Äħ
Ġvo y
Ġcanti dad
Ġal tra
ĠÑĤ ÐµÑģÑĤ
ĠS elbst
Ġwsp om
ĠãģĿãģ® ä»ĸ
Ġm áº¯t
ĠÐ¤ÐµÐ´ÐµÑĢ Ð°ÑĨÐ¸Ð¸
Ð¾Ñĩ Ð½ÑĭÐµ
ĠmoÅ¼liw oÅĽÄĩ
b il
ĠÐ¿ÑĢÐ¾Ð³ÑĢÐ°Ð¼ Ð¼Ñĭ
Ġè² ¡å¸ĥ
Ġæľ ª
åĲĪ ãģĦ
Ġase gur
ĠÑĢÐ°Ð±Ð¾ÑĤ Ð°
en cji
ãģ®å¥ ³
ãģĪ ãģªãģĦ
Ġlong ue
ĠBer uf
m men
Ġä» ķ
Ġåİ Ł
ĠV á»
ĠÐ ¹
dzi esz
Ġoc ur
en vol
Ġannun ci
____ ____
Ð¸ÑĤ ÑĢ
V A
Ġter min
Ġ) :
ĠÑģ Ð±
t ente
se gna
an owi
Ġc ount
ãĤ· ãĥªãĥ¼ãĤº
ĠSch ne
éĢ Ķ
ĠÐ²Ð¼ÐµÑģÑĤ Ðµ
Ã£ i
Ġpre z
éħ ¸
å® ¿
ĠM y
Ġw tedy
Ġpl utÃ´t
mar t
ĠÑĢÐµÐº Ð¾Ð¼ÐµÐ½Ð´
ĠÐĺ Ð²
ĠÐ¿Ð¾Ð± ÐµÐ´
Ġobie tti
ion ych
Ġli mp
Ġtr itur
Ġcas os
be ding
ĠC ela
ĠÃ Ļ
Ġx Ã£
Ġ0 16
Â ¸
Ġn áº¿u
ĠMo Å¼
et en
ĠÐ¿ÐµÑĢ ÑģÐ¾Ð½
Ð¾Ð» Ð½Ñı
Ġåħ ¬
ĠN O
d ra
cia to
Ġt it
Ð± Ð¸Ð½
ĠÐ´Ð² Ð¸Ð³
Ġtu do
us zy
ç łĶç©¶
ĠseÃ± al
ĠFil m
Ġmiejs cu
æī ĵ
ÑıÑģ Ð½
Ġde tto
ĠBes uch
Ġcher che
Ð¾ÑģÑĤ ÑĢÐ°Ð½
Ġto p
ĠãĤµ ãĤ¤ãĤº
å£ °
Ġh Ã¡
C A
Ġdej ar
ĠãĥĢ ãĤ¤
ãģ® ãģŁãĤģ
Ġave va
ÃŃtu lo
c Ã©e
v ÃŃa
ĠÃ ĩ
Ġc ung
ĠProdu kte
Ġse mble
ĠÑı ÑĢ
ãģĹãģ¾ ãģ£ãģŁ
ãģı ãģ¦
m Ã¶
Ġh au
ĠdiffÃ©r entes
Ġæ ģ
Ð¾Ð² Ð°Ð»
Ġpow sta
b ilidad
Ġad el
Ġde ci
is Ã©
Ġorgani z
ãĥĥãĤ· ãĥ§ãĥ³
æ į
ĠNe ws
Ð¾Ð»ÑĮ Ð½Ð¾
hr t
olo gique
g h
ĠA p
Ġãģĵ ãģ¡ãĤī
Ġ ï
å· ŀ
zo gen
ÐµÐ½ÑĮ ÑĪ
ĠR y
Ġvi ol
Ġz war
Ġp iÄĻ
M P
ĠAr gentina
x ic
az o
ĠMar ÃŃa
t an
Ð¼ Ð¾
is simo
ĠM á»¹
ĠFran ces
ĠP ubblica
si mi
tur n
ĠT om
ĠÐ³ÑĢ Ð½
ĠÑĢ Ð¸Ñģ
on ym
etz en
ĠÐ¿ÑĢÐ¸Ñħ Ð¾Ð´
ĠGesch ichte
Ġar ticles
ĠB u
ĠÑĥÑģÐ» ÑĥÐ³Ð¸
C O
Ġqu er
Ġmayor ÃŃa
ĠGra zie
ĠÐ· ÑĢ
ĠF R
Ġob tenir
Ġsar anno
c 2
cie m
ÑģÑĤÐ²ÐµÐ½ Ð½Ð¾
ĠA N
Ġreg istra
ĠPau lo
Ġãĥ ´
Ġou tros
Ġre turn
ck o
ni u
fÃ¼hr ung
Ġl im
ĠÐ½Ð¾Ð² ÑĭÐµ
è Ĺ¤
áº¯ p
Ð°Ðº Ð¸
Ġå¤§ éĺª
ãĥĥ ãĥĶ
ĠEin z
éĩĳ ãĤĴ
ĠAm or
Ġcu anto
ĠÑıÐ² Ð»ÑıÑİÑĤÑģÑı
Ġgru ppo
ĠDe zember
on dere
ãģªãģ© ãģ®
Ġzd jÄĻ
è ŀį
ri bu
Ġder echos
Ġpozw ala
Ġmein er
ĠW or
Ġsenti do
Ð¸Ñģ Ð»
g Äħ
on ique
ĠAl ors
ÑģÑı ÑĤ
ĠJanu ar
as tica
[ ]
Ġmin uti
Ġäº Į
Ġl ista
ine ment
ç· ı
Ġlo gi
ĠF emmes
ita tion
Ġqu ar
ĠF ern
ãģĹ ãĤĪãģĨ
z ul
iv os
ĠÑĦ Ð°Ð¹
Ð¾ Ñĥ
ĠÂ §
Ġch áº¿
Ġob ej
Ġrela cion
Ġannon ce
Ġindi vid
h na
Ġgr Ã¶ÃŁ
Ġre m
Ð¸Ð² Ð°Ð½Ð¸Ðµ
èµ °
ĠÐ¸ÑĤ Ð¾Ð³
ie ur
ĠC ode
Ġaura it
ĠÐ¦ ÐµÐ½Ð°
ÑĢ Ð¸
Ġæ Ł
Ġprodu ct
Ġli mi
æİ Ľ
ãĥĩ ãĤ¶ãĤ¤ãĥ³
ç ¦ı
ĠÐ¿Ð¾Ð´ ÑĢÐ¾Ð±
ĠÄĳ Ã¡nh
Ġæ Ļ
ĠÐ¡ ÐµÑĢÐ³
ĠÐ¿ ÑĥÐ½ÐºÑĤ
ãģĻ ãĤĮãģ°
åĭķ çĶ£
è¶ ħ
Ġzam Ã³wi
ci ÄĻ
Q UE
ch arge
Ġ200 6
ist ance
Ġbe kommen
ĠÐ±Ñĭ ÑģÑĤÑĢ
ãģ®å į
or n
Ġess ay
ca ciones
Ġtr i
ic ol
ĠEle kt
ĠPerson en
ĠÑģÐµÑĢ Ð´
wia m
cz ni
ĠÐºÐ°Ðº Ð¸Ðµ
Ġv ient
ãģ¡ ãĤįãĤĵ
T R
Ġt et
Ġesta mos
Ġconta cto
at ure
Ġ ÅĤad
Ġpad ding
ï¼ £
ı Ĳ
ĠK ap
ĠmÃ© di
ĠÑģ Ð¾Ð¿
Â ·
Ġvá» «a
Ġs ettore
ĠÑĢ Ð°ÑģÐº
Ġb re
£ i
ra mi
ĠmoÅ¼liw oÅĽci
ãģ® ãĥĲ
oni bile
it en
w iel
cia is
ãģ«ãģª ãĤĬ
Ġcli entes
ĠÐ¡ Ð¼
us si
ĠÑģÑĢÐµÐ´ Ð¸
l Ã©s
Ġz arÃ³wno
Ġå£ ²
å¤ ±
ag er
ĠÐ¿ Ð°
Ġquy áº¿t
Ġpermi te
Ġsegu ito
er nen
uer re
Ġob sÅĤu
Ð½Ð¸ Ð¶
ãģ®å ¯
ĠÐ¼ÐµÑĢ Ð¾Ð¿ÑĢÐ¸ÑıÑĤ
g Ã³w
v io
Ġtro chÄĻ
owa ÅĤa
ĠÐĺ ÑģÐ¿
Ã °
ĠÄĳ áº·t
j ar
ĠçĻ º
ä½ľ æ¥Ń
Ġk or
ä»¥ å¤ĸ
ĠÐļÐ¾Ð¼ Ð¿
at ten
ĠcrÃ© ation
ĠÐ² ÐµÑĤ
ĠFr Ã¼h
ĠB lanc
ĠdÃ© si
Ġãģ¾ ãģļ
ini i
ci dos
Ġdi man
Ġunsere m
Ġtechni que
ĠintÃ© ress
ĠãĥĹ ãĥ¬
ãģĭ ãģªãģĦ
Ġme isten
ĠAn n
Ġf ille
Ġappar tement
ĠÑĤ Ð¾Ð»
Ġsuc cessi
Ġmod el
wi cz
Ġswo im
çİ ĭ
si ble
Ġqui ere
p le
ĠÐ¼Ð¸Ð» Ð»Ð¸
á»± a
Ġgran di
ca Ã§Ã£o
Ġponie waÅ¼
Ġcham p
tif i
Ġpubb lico
ĠPe li
ĠVi vo
ĠLe y
h os
Ġfam iglia
ĠpaÃŃs es
Ġæ Ĥ
ĠIta li
Ġcos e
ãģ§ãģĻ ãģĭ
åŃ¦ æł¡
Ġl á»ĭch
o c
cre di
ĠÑģÑĤÐ¾ Ð¸Ð¼Ð¾ÑģÑĤÑĮ
2 1
ĠãĤ ®
ĠÃ© cole
Ġsier pnia
ĠÐĿ Ñĥ
ĠÐĴ Ð¾Ð»
Ġscar pe
Ġnaj wiÄĻk
ĠÐ´ÑĢÑĥÐ³ Ð¾Ð¹
Ġfeb braio
çĶ· æĢ§
Ġn ess
å ©
D E
Ġso ir
:::: ::::
Ġâ Ī
éł ħ
Ġw h
æĬ ķ
Ġph y
Ð¾Ð² ÐµÑĢ
zia le
Ð¸ÑĩÐµÑģÐº Ð¸Ð¼
P S
ĠAn s
ĠAu tor
ÅĤu gi
ĥħ åł±
il li
Ġve ut
ĠÐ± Ð¾Ð½ÑĥÑģ
ĠÐ°Ð² Ð³ÑĥÑģÑĤ
ãĥĻ ãĥ³ãĥĪ
Ġdise Ã±o
Ġc and
ĠBe au
ĠU rz
ãģ® ãĤ¹
Ġrapide ment
ĠÐ¾ Ð¿Ð»Ð°ÑĤ
Ð¾Ñĩ Ð½ÑĭÐ¹
Ð¸Ð½ Ð¸Ð¼
Ġa tto
Ġof ert
ab an
ĠÐ½Ð¾Ð² ÑĭÐ¹
ca ti
ĠÐ¸Ð³ÑĢ Ð°ÑĤÑĮ
ĠÐ¾ ÑĪÐ¸Ð±
ĠSer vice
Ðº Ð¸Ð¼
lich es
Ġre ce
w it
---- ----
ãĤı ãĤĮãĤĭ
Ġind Ã©
Ġre kl
Ġpom ys
Ġmiesz kaÅĦ
Ġperson ale
Ġsa gen
is i
æŁ» å®ļ
ãĤ¹ ãĥ¡
ãĤĴ éģ¸
ãģ®å Ĭ
Ð¸Ð³ Ð¸Ð½
ĠR ela
Ġdi p
Ġre un
Ġr uch
ĠÐ¸Ð½ ÑģÑĤÑĢÑĥÐ¼ÐµÐ½ÑĤ
ĠAngebo te
or ation
Ã¤ nge
Ġri es
Ġf eira
èĦ ±æ¯Ľ
æ ¿
ĠÐ´ÐµÐ» Ð¾
Ġmod i
æľ ª
ĠÐ½Ð°ÑĪ ÐµÐ¼
Ð°Ð½ Ð½ÑĭÑħ
Ġf echa
Ġme to
ro it
ç´ Ļ
Ġpre zent
Ñģ ÐµÐ¼
Ġest Ã£o
tig keit
Ð¾Ð»Ð¾Ð³ Ð¸Ð¸
Ġdro its
ĠÐł Âµ
ĠÐ±ÑĥÐ´ ÑĥÑī
meld ung
am me
D I
Ġgio co
ĠZ obacz
Ġo cen
Ġes cen
Ġd v
ĠGe b
Ġsie ci
Ġé ł
ĠÑģÑĤ ÑĥÐ´
isti che
Ġgi áº£m
Ġo e
Ġt ari
ãĤ¶ ãĥ¼
Ġç ļ
Ġç «
ĠrÃ³Å¼ nych
d el
b are
8 6
ĠÃ© to
ĠÐ¼Ð¸Ð½ Ð¸Ð¼
åĭ ¤
Ġcu ar
f el
Ġqua tre
Ġquel le
ãģ®å ķĨåĵģ
é¦ Ļ
ä¸ ¡
Ġin ner
Ġu04 4
ĠÐŁ Ð°ÑĢ
Ġnaszy ch
ĠSch uhe
Ð¾Ñĩ ÐºÐ°
i Ã§Ã£o
Ġwie ku
Ġch Æ¡i
Ð°ÑĤ Ñĥ
Ġri cor
lich t
ĠÐ¼Ñĥ Ð½Ð¸ÑĨÐ¸Ð¿
ĠÐ³Ð°ÑĢ Ð°Ð½ÑĤ
Ġpr on
ĠÐ² Ð´
ini ng
Ġg utschein
or f
Ġb agno
Ġsigni fica
å¾ ´
mal s
å¾ ¡
å± ħ
ĠÐ¶ Ð´
Ġinsta llation
Ð¾Ð» Ð¾ÑĤ
İ æĹ¥
å¯ Į
ven ue
ĠÐĶ ÐµÑĤ
ĠÐ´ ÑĥÑħ
å® Ī
ĠZapa tos
ni cos
Ġex iste
ĠÐ¿ÐµÑĢÐ² ÑĭÐ¹
Ġoko ÅĤo
ĠProble m
Ġsta g
Ġn á»Ļi
ĠB lick
è² ¸
ãĥĻ ãĥĥãĥī
ÑĪ Ð¸Ð¹
ĠFor m
Ġ- -
ãģ®è ³
a teurs
ĠH ola
D O
Ġso y
ĠRe al
Ġpa ar
Ġç ¤
ï¼ ı
ãĥį ãĤ¹
Ġest ra
Ġh inter
Ġent rada
re ur
ĠÑĩ ÐµÑĤ
Ġnor ma
Ã ĺ
Ġdá»± ng
ch u
Ġv iej
ĠmoÅ¼e my
Ġactiv idad
ĠÑįÑĤ Ñĥ
Ġdzi ÅĽ
ãģ® å¤§
Ġ5 7
Ġh aute
ĠÐ¿ÑĢÐ¸Ð» Ð¾Ð¶
ĠK op
Ġpap el
Ġpos ibilidad
Ġob lig
ĠÐ´ Ð»
ĠH in
Ġmil ioni
M z
ĠP an
éī Ħ
ĠG en
Ã¨ ge
Ġad res
ãĥĭ ãĥ¼
ĠFeb ru
sto ff
Â ¿
ĠNg uyá»ħn
Æ°á»£ t
........ ........
Ġhi zo
ĠÐ½ Ð¾Ñģ
ĠZ ap
9 1
ĠG ru
Ġlu tego
Ġzrobi Äĩ
Ġzakres ie
Ġ6 5
Ġdocu ment
Ġdess us
Ġuwa gÄĻ
Ġentsp rechen
ĠWir tschaft
ĠÐ¾ÐºÑĤ ÑıÐ±ÑĢÑı
æ Ĩ
ĠÐ¾ Ð³ÑĢÐ¾Ð¼
ti re
CI ON
Ġlu z
y se
wie k
åį Ķ
Ġou i
ĠK at
que l
ĠÑĥÐ² Ð¸Ð´
ĠD ann
Ġdzie w
s ku
mm t
Ġam ministra
Ġnom e
ĠãĤ· ãĥ§
ĠãĥĲ ãĥĥãĤ°
ãĥ¡ ãĥ¼ãĤ¸
Ġãĥ ĺ
Ġv ier
c les
ĠZ es
Ġz im
Ġpel ÃŃcula
Ġf os
ÐĿ ÐĲ
Ð¾Ð³ ÑĢÐ°Ð¼
ĠÐ´ÐµÐºÐ°Ð± ÑĢÑı
ĠÐ¿Ð¾Ð² ÐµÑĢÑħ
ĠmÃ¡ xi
åº ·
ĠB á»Ļ
ĠB ay
vil ion
fÃ¼hr t
ãĢ İ
çµ ¶
ri do
ĠdÃ© mar
pr it
áº± m
ĠÐ¾ÑĤÐ½Ð¾ Ñģ
Ġpierw szy
V E
ve ux
ous s
ħ è¡Į
Ġe vi
r ichten
m ission
ĠÐ½Ð°ÑħÐ¾Ð´ Ð¸ÑĤÑģÑı
qu ina
ĠCom un
Ġn ero
Ġpres ente
ĠN or
k an
Ġtá»ī nh
ĠUn is
ĠÑĦÐ¾ÑĤ Ð¾Ð³ÑĢÐ°ÑĦ
Z Y
Ġfunk cjon
Ġv ent
Ġt iáº¿t
Ġak tyw
pp ia
ĠÐ²Ð¾Ð¿ÑĢÐ¾Ñģ Ñĭ
di to
ÑĪ ÑĤ
Ðĵ Ðŀ
ĠÑĤ Ð¾Ð¿
ĠS on
ÑĢ ÐµÐ½ÑĤ
Ð¾Ð»Ð¾Ð³ Ð¸Ñı
ĠÑĢÐµÑĪ ÐµÐ½Ð¸Ðµ
Ġe fek
ĠÑıÐ½Ð²Ð°ÑĢ Ñı
Ġm ak
ĠB lan
Ġaller dings
ĠÑĩ Ð¸ÑĤ
ĠÐŀÑĤ Ð²ÐµÑĤ
Ð¾ÑĢ Ð´
ĠCar los
o o
Ġest udio
Ġsu bito
ei ros
Ġsp ie
Ġogr ani
Ġrac con
Ġes sent
va ciÃ³n
ina ciÃ³n
ĠÑĢÐ°Ð±Ð¾ÑĤ Ðµ
ĠÐº Ð¾Ð´
Ġda vvero
Ġng ay
na hmen
ti ce
ĠÑĤÐ¾Ð²Ð°ÑĢ Ð°
ĠÐ¾ÑĤÐ´ ÑĭÑħ
Ġgrand s
um ento
ÑģÐº Ð¸
ãģ¾ ãģĹãĤĩãģĨ
ĠEins atz
ĠÐ´ÐµÐ² ÑĥÑĪ
ĠÐ¿Ð¾Ñĩ ÐµÐ¼Ñĥ
Ġcom une
Ġso ciedad
Ġprofessionnel s
ĠÐĶ Ð¾Ð¼
nos i
Ġa ire
Ġdiman che
ĠÐº Ð¾ÑĤ
Ð¸ÑĤÐµÐ»ÑĮ Ð½ÑĭÐµ
ĠGe gen
ti ers
ĠÐ·Ð°Ð½ ÑıÑĤ
Ġcam po
{ \"
te le
Ġlá» Ŀi
Ġ") .
ç Į
Ġrou ge
Ġconc ours
au che
Ġa qui
ãĥĭ ãĤ¢
Ġoff res
Ġp rywa
ĠcrÃ© er
Ġna tura
Ġes se
Ð» ÐµÑĢ
Ġlle v
Ġauf ge
ĠÐ¿Ð¾Ñĩ ÑĤÐ¸
Ġper form
Ġmie mb
ĠN A
tur y
Ġnh anh
ĠPho to
Ġsol ution
Ġpo za
an ke
Ġcon n
x a
d ar
Ġh el
ven es
Ġsch warz
ĠW issen
ĠÐł Ñĳ
ĠÑįÑĤ Ð¸Ð¼
Ġmod ifica
ni ku
mb ro
ç®¡ çĲĨ
ĠÑħ Ð¾Ð»Ð¾Ð´
Ġtu á»ķi
Ġri p
r ant
a Ã±o
Ġmus ique
es ta
Ġmater iaÅĤ
Ġé ħ
ĠN ouve
® éĢļ
Ġini ti
ĠÑģ ÑĥÐ¿
ÅĦ skiego
Ġãģĵ ãģĨ
ĠA U
ĠmÃ© th
Ġmon dia
ĠÑģÑĤ Ð°Ð»Ð¸
Ġzak oÅĦ
ĠK Ã¶
ÐµÐ½Ð¸Ñı Ð¼Ð¸
Ġha ciendo
ĠJue gos
ĠÐĶ Ð°ÑĤÐ°
ĠÐ· Ð°Ð»
Ð²ÐµÑĢ Ð´
Ġap enas
ï¼ ¯
èĤ Į
èį ·
Ġkh á»ı
N A
Ġpros tu
ĠÐ¾Ð´ Ð½Ð¾
Ġcon j
ĠC itas
Ġa cep
as za
ç¨ İ
Ġ5 2
Ġapp r
kow ej
ĠGener al
Ġin st
ĠÐ¸Ñİ Ð½Ñı
ĠÑģÐ² Ð¾Ðµ
ĠÐ´ Ð¾Ð±
Ġw indow
Ġcor az
Ġperson ali
Ð· Ñı
Ġeig entlich
ĠPa vilion
ĠK osten
Ġkto ÅĽ
Ġho teles
ĠÐ² Ð»Ð°Ð´
ve ment
T ER
Ġulti mo
ĠT ur
Ġï¼ī ãĢĤ
ff er
ĠGio v
Ġmes sa
ĠÐ¸Ð· ÑĥÑĩ
ĠProje kt
Ġst essa
ter s
le ben
æµ ľ
è£ ľ
Ġcon fi
Ð¸Ð² Ð¸Ð´Ñĥ
ÐµÑģÑģ Ñĥ
Ġquo ti
ÑĪ Ð¸ÑĢ
ig dy
áº· ng
ĠR od
ĠÃºlti ma
Ġtar de
ĠÃ© tant
kow ego
ãģ¨ ãģĹãģŁ
ĠÐ¶ ÑĥÑĢÐ½
Ġincont ro
ĠÐ°ÑĢ Ñħ
ob ra
ĠM ona
Ġreal tÃł
po is
ãĥ¼ãĥ ¡
ura ciÃ³n
ite l
Ð¾Ð²Ð°Ð½ Ð¸Ð¹
Ġtr y
vers itÃł
czÄĻ ÅĽcie
Ġal gÃºn
ĠMin uten
Ġse cteur
ĠD U
Ġmal ad
Ġb Ã¬nh
ÐµÑĩ Ð°ÑĤ
Ġa ggi
ãĥ³ãĤ ¬
ur en
ÐµÐ½ Ð½Ð¾Ð¼
Ġcondi ciones
l Ã¼s
par tement
ĠMar ie
ĠT u
Ġma tiÃ¨re
Ð°Ð½ Ð½ÑĭÐ¹
ĠW sp
Ġszyb ko
Ð¾Ð· Ð°
Ð°Ð± Ð°ÑĤ
Ġher aus
Ġäº Ī
ti mento
Ġsam e
ĠÐ¸Ð¼Ðµ ÑİÑĤ
Ġfor am
ĠCuis ine
Ġris que
est ra
wa gen
ĠMo Å¼e
Ã³ nico
ĠQues ta
ãģ«éĸ¢ ãģĻãĤĭ
ĠÄĳ áº·c
ga ben
Ġrepres ent
Ġb Ã¢
ĠmoÅ¼ esz
ge hen
Ġè Ģ
quil er
j us
ãģķãĤĵ ãģ®
ãģ®å ¹
li car
ĠDes car
os p
Ð¾Ðº Ð¾Ð²
ĠÐĺ ÑĤ
ni mo
Ġoc cas
Ġcl aro
Ġt aux
Ġinte gra
Ġpra wa
Ġneces ita
Ġcomm ande
ãĥ¬ ãĥ³ãĤ¸
Ġconse ils
ĠÐ¸Ð½ Ð²ÐµÑģÑĤ
ĠÐ· Ð¸Ð¼
id era
ow er
æĭ ħ
Ġcomp lÃ¨
Ġkier ow
Ġes os
Ġchauf f
Ġch ac
Ġpew no
ãĤĤ ãģĤãĤĭ
Ġph á»ĳ
Ġau ment
Ġwyk orzyst
Ġac ceso
ĠÐ¼ÐµÐ´ Ð¸ÑĨÐ¸Ð½
ãĤĴæ Ĭ
lÃ¤ s
8 9
ĠT able
Ġdom aine
Ġ> <
ar do
me dia
ĠIhr er
ola ire
ĠÑĢÐ°Ñģ Ð¿
ãģ®æ °
ĠÐºÐ¾Ð½ ÐµÑĩÐ½Ð¾
Ġw ier
ĠÐ¡ ÐµÐ³Ð¾Ð´Ð½Ñı
ves ti
gi Ã³n
ĠT ro
ras se
Ġnombre uses
ãĥĲ ãĥĥãĤ°
Ġé ¦
t wier
ĠMo tor
ĠÐ¾ÑĤÑģ ÑĥÑĤÑģÑĤÐ²
éģ £
Ġå ĴĮ
ĠæĬķç¨¿ æĹ¥
è¿ İ
ĠGr Ã¼n
çĨ ±
ĠV e
Ġr il
d ÅĤug
ĠÐ»Ð¸ÑĨ Ð°
Ġher m
Ġcorres pond
Ġb ord
Ġf indet
ĠÑĥÐ´ Ð°Ð»
Ġs á»©c
t ten
ĠÐ´Ð¾Ð¼ Ð°ÑĪ
ĠAngebo t
Ð¸Ñı Ð¼Ð¸
Ġha cen
Ġpr od
Ġl ien
Ð»ÐµÐ½ Ð¸Ñİ
åı ²
Ġcon tri
fa llen
ĠS and
Ġproduct _
Ġtratta mento
di zione
Ġon a
u ve
si asi
Ð¸Ð² Ð°ÐµÐ¼
Ġdob r
Ġs an
ĠÑħ ÑĢÐ°Ð½
tr Ã¤
Ġf ic
sch lieÃŁ
Ġv ite
ĠÐ¸Ñİ Ð»Ñı
ĠW roc
mi ar
Ġinc re
Ġpro xim
ĠÐ²Ñĭ ÑĪÐµ
od a
ĠÑģ Ð°Ð´
cie Å¼
Ġlu Ã´n
r ont
éĽ ĳ
ĠE U
ind est
Åº Äĩ
Ġdi rig
at is
Ġam our
ĠÐºÐ¾Ð¼Ð¿Ð» ÐµÐºÑĤ
ĠÑĨÐµÐ½ Ðµ
Ġma ggior
ĠL ors
ĠÑģ Ð¾Ñĩ
icht ung
Ġngh á»ĩ
Ġpues to
ĠÑĤ ÑıÐ¶
Ġ ÅĤÄħ
ter o
Ġtom ar
ĠÐ¾ÑĤ Ð²
ãĤ¯ ãĥŃ
h ung
ãĥ³ãĥ Ń
wyk le
Ġh Æ°á»Ľng
Ġorig ine
ÐµÐ½ Ð½ÑĥÑİ
åł´ æīĢ
Ġbar celona
Ġresp ecto
ĠÐ¿Ð¾ÑģÑĤ ÑĥÐ¿
hn t
ÑĪ Ð¸Ðµ
ĠQ ui
Ġlo cal
ĠÑĦ ÑĥÑĤÐ±
Ġt ÄĻ
ĠGes undheit
ĠÐ½Ð°Ñģ ÐµÐ»
Ġaff aires
h Ã¤ng
Ġrze cz
ĠÐŀ Ð½Ð°
Ġcaus e
k w
Ġkh Ã³
Ġen ti
é ½¢
äºĪ å®ļ
S O
Ġide a
ĠÐ±Ð¾Ð»ÑĮÑĪ Ð¾Ð¹
Ġot war
ter os
Ġten ÃŃa
ĠWeit ere
ÑĥÐ¹ ÑĤÐµ
Ġprzed siÄĻbior
Ġwen iger
ĠÐ¸Ð· Ð³Ð¾ÑĤÐ¾Ð²
ÐµÐ½ÑĤ ÑĢ
Ġi le
Ġzde cyd
3 2
Ġang lais
ĠÐ¼ ÐµÐ»
ĠDo po
Ġda w
Ð¸ÑģÑĤ ÑĢÐ°ÑĤ
Ñĥ ÐºÐ°
Ġseg uro
Ġkonk urs
j cie
ĠÐŀÑģ Ð½Ð¾Ð²
ĠczÄĻ ÅĽÄĩ
äºĭ åĭĻ
lÃ¨ mes
Ñĩ Ð°ÑĤ
ĠÑģÑĤ ÐµÐº
ta te
æľŁ éĸĵ
Ġh Ã£
A B
sa je
Ã¤n de
ĠÐ½ Ð¸Ð¼
Ġweb cam
Ġre cu
Ġm ÅĤ
æķ ħ
Ġterri torio
Ġwska z
Ġgu ida
ĠÐ± Ð¾Ð³
Ġlung o
stru k
wa ÅĤa
Ġf ÃŃ
k ces
ãģķãĤĵ ãģĮ
è² ¨
ĠãĤ¹ãĥ¼ãĥĳ ãĥ¼ãĤ³ãĥĶãĥ¼
ç °¡åįĺ
Ġdou ble
tÃ© es
ĠW and
ÑĢ ÑĭÐ²
Ġu kÅĤad
Ġpare jas
Ġma Ã±ana
ĠK ind
ĠFor um
ĠT Ã¼r
æĺ Ł
Ġdz ien
Ġri us
adz ie
Ġdescar gar
Ġal to
rÃ© es
ĠÐ¸Ð· Ð´
Â ±
ĠÃ Į
Ã Ĺ
á» ĥ
ĠZ e
Ġvia je
ĠÐ²Ð¾Ð· Ð²
la i
8 4
Ġin sp
Ġri guar
Ġvia ggio
on te
O T
jÄħc ym
Ġfor um
Ġseu le
j ahr
ĠÐ¼ ÑĭÑĪ
é »Ĵ
p reis
Ã¤ d
cz ym
Ġå¾ Į
Ġpis cine
ĠÑģ Ð°Ð»
Ð¸Ð± Ð¸ÑĢ
Ð½ Ð¾Ð¿
Ġbas tante
Ġst ru
ãĤ¼ ãĥ³ãĥĪ
Į æľĽ
ĠÑģ ÑĥÑĤ
I mage
ãģ®å ¼
áº· p
ĠÐ¾Ð± Ð»Ð°Ð´
Ġza war
Ġs tori
ia j
Ġcomment aire
Ġte xte
k ung
ma in
ĠÐľ ÐµÑĤ
ãģ¨ ãģ¦ãĤĤ
ãģĦãģ¦ ãģĦãĤĭ
Ġc uy
Ġsto p
Ġãĥ Ĵ
Ġimp ression
ĠÑģ Ð¿ÑĢ
Ġar ch
ĠFebru ar
uf e
ĠnÃ©ces saire
ĠÐ½ Ð°Ð¹Ð´
Ġsa p
ujÄħ cy
Ġconse il
Ġpes o
å· »
ÐµÐ´ Ð¸
Ġperi odo
Ġsie ht
Ġprote ction
qu et
ÑĮ ÐµÑĢ
ĠReg ion
ĠÃ© lÃ¨
Ġf le
ĠQu el
Ġb Ã³ng
ÑĢÐ¾ ÑĦ
Ġmin istre
ta Ã§Ã£o
Ġzas tos
15 0
ĠdziaÅĤ ania
Ã³ venes
ĠÑģÐ¾Ð± ÑĭÑĤ
ĠBar dzo
ĠkaÅ¼de go
ãĥ© ãĥ³ãĤŃãĥ³ãĤ°
ãģ§ãģ¯ ãģªãģı
ÅĤ asz
er ÃŃo
Ġe dad
t ures
ĠWa hl
Ġcon he
Ġy our
Ġconf ron
Ġth anh
ĠÑĥÑĩ ÑĢÐµÐ¶Ð´
Ġp at
éļĽ ãģ«
Ã¤ hlen
Ð ®
Ð² Ñĭ
u ge
ĠÑģ Ð¸Ð»ÑĮ
Ġty tu
ä¸ Ī
Ġãģ į
åĭ ¢
Ġm usz
Ġx Ã¢y
Ġstu dio
ĠGeschÃ¤ft s
sch nitt
Ġi den
ation en
½ çī©
ãģ«ãģ¤ãģĦãģ¦ ãģ¯
Ġmies iÄĻ
rit ti
Ġh Ã´
ĠÐ½Ð¾ ÑıÐ±ÑĢÑı
ab ili
ced ente
Ġzd jÄĻcia
Ġè ĸ
Ġå° ĳ
ĠÐ¾ Ñħ
ĠgÅĤ os
bi Ã³
pp s
ĠC ena
Ġwy jÄħ
Ġdo ivent
ĠUni vers
æŃ »
por to
ÑĢ ÐµÐ¹
Ð½Ð¸ ÑĨÑĭ
kol wiek
ĠÃ©ner gie
Ã¡n d
ĠÐ¿ÐµÑĢ ÐµÐ¿
ĠQu alitÃ¤t
ĠciÄĻ Å¼
ĠÐ¡ ÐµÐ²
et ro
æ´ Ĺ
è³ ŀ
ĠL ig
çĹ Ľ
Ġmedi os
h le
çµĲ å©ļ
Ġb áº¯t
Ġco cina
Ġdesc ub
Ñī Ð¸Ðº
Ġcam era
Ġm ÅĤod
è¡ Ĺ
Ġpas sen
ĠW ert
ĠC entre
ĠP ie
Ġhat ten
ic ro
Ð· Ð¾ÑĢ
ĠÃ©v Ã©
A G
Ġulti ma
ĠÑģÑĤÑĢÐ°Ð½ Ñĭ
va zione
Ġsi ti
Ġsi ze
ãĤĤ ãģĨ
qu etas
Ġprzed stawi
Ġv arias
ãĥ¼ãĥ Ŀ
ãģĦ ãģ§
Ġent wick
Ġswoje j
Ġs quad
Ġåı ĸ
aj as
ãĤ· ãĤ¹ãĥĨãĥł
æī ¿
ras es
Ġquien es
Ġdi as
cz ba
ĠAs s
ãĤ¦ ãĥĪ
è Ķ
ci ÄħÅ¼
Ġatten d
ve ur
Ġri f
ãĥ¥ ãĥ¼ãĤº
ãģ®è ī
Ġcons titu
Ġpun ti
Ġa ten
Ġodpowie dz
Ġd re
inter es
Ð¸ÑĤÐµÐ»ÑĮ Ð½ÑĭÐ¹
Ġjed nym
} .
ķ ı
ĠrÃ©p onse
Ġi Å¼
ĠÐ¿ÑĢÐ¸ Ð±
ĠF ranÃ§ais
ĠpÃ©ri ode
Ġwy stÄĻp
ÃŃ cio
ĠRa hmen
Ġprojet s
u ite
ur so
Ġas es
mp f
Ġç¨ İ
Ġha ve
ur i
Ġgemein sam
ĠSt unden
Ġau prÃ¨s
ãģ®å º
ĠÐ² Ð»Ð¸Ñı
Ġra zy
Ã¡ genes
Ġfon da
ĠÄĳ áº¡o
Ġsa gt
Ġu d
Ġkle inen
Ãº de
tori as
ï¼ ¥
ĠRe view
ãģĤãĤĬ ãģĮ
ãģĭ ãĤı
Ġt Ã©
ĠP ia
Ġv ost
h op
Ġkein en
Ġel a
Ġgen re
Ġph p
ta ger
Ġasso cia
Ġwy posaÅ¼
Ġreg ist
Ġpour ra
Ð»Ð¸ Ð¶
Ġer klÃ¤r
ĠÐ°Ð¿ÑĢ ÐµÐ»Ñı
ĠÐ¢ ÐµÐ¿
wy czaj
Ð² Ð¸
Ġl Ã©
ãģ®å ľ
ĠÐ¿Ð¾Ð¼Ð¾Ñī Ð¸
Ġm á»įi
Ġg ab
Ġconcern ant
Ġch ie
Ðº Ð°ÑĤ
Ð¸Ð³ Ð½
Ġf ron
Ð¾Ð¶ Ð½Ð¾
te g
ĠC las
Ġr endre
ĠÑĢÐ°Ð±Ð¾ÑĤ Ð°ÐµÑĤ
tiv idad
Ġdiver se
Ij p
Äħd u
ĠC ul
Ġab ier
Ġpe ux
ĠL ong
ar s
ĠAc tu
Ð¸ÑĤ ÐµÑĤ
ul ares
ĠD ruck
Ġdich i
Ð¿ Ð¾ÑĢÑĤ
Ġna p
Ġsour ce
çĽ¸ æīĭ
Ġg ilt
ĠÐ¼ ÐµÑħÐ°Ð½
ĠÐ¾Ñģ Ð²
cz o
ãĤ» ãĥĥãĤ¯ãĤ¹
ĵ åĽ½
Ġneces ario
Ġsame di
ĠD y
Ġå Ń¦
Ġparticu lier
Ġth áºŃt
Ġes col
ĠÐ¡Ð°Ð½ ÐºÑĤ
on Äħ
ĠI st
ĠÑĢÐ°ÑģÐ¿ÑĢ Ð¾ÑģÑĤÑĢÐ°Ð½
k ur
Ġle icht
Ġpue do
ta les
Ġcade au
Ġproxim itÃ©
Ġse ja
ĠN Ã¤
ĠT H
Þ ¬
Ġnh á»ı
è²» çĶ¨
Ġa gu
ĠCham bre
ĠÑģÐ¸ÑģÑĤÐµÐ¼ Ð°
Ġ ~
le gÅĤ
ur ent
ãĥ¼ãĥ ľ
Ġpro tÃ©
Ñĳ ÑĢ
Ġpers Ã¶n
Ġusu arios
åĨ ĻçľŁ
d an
Ġpersonn el
Ġg az
ĠAh ora
ãĥª ãĥķãĤ©ãĥ¼ãĥł
çµ ±
Ġd Ã¼r
ĠFamil ie
Ġani m
Ġh ast
Ġt Ã¤
Ġgiov ani
Ð»Ð¸ Ð¹
Ġab s
at tro
ĠÐ¼Ð°Ð» ÐµÐ½ÑĮ
g um
ĠNie der
Ġen reg
Ġob ser
z in
ä½ĵ é¨ĵ
Ġu omini
un ek
iáº¿ m
tel le
éĽ» è©±
icher ung
ĠRa um
ng th
N 0
Ġtr en
ĠÐ¼ÐµÑģÑĤ Ð°
glio re
are k
Ġwy pad
Ġsettim ana
Ġhay a
ä½ Ļ
sta dt
Ġp ier
ĠÐ¿Ð°Ð¼ ÑıÑĤ
ori i
ĠFar be
ĠÐ´Ð¾ÐºÑĥÐ¼ ÐµÐ½ÑĤ
Ġis titu
ĠPart ner
Ð Ĩ
Ð½ Ð°Ð·
ãĥ³ ãģ®
d ido
v Ã©s
Ġje we
ĠmÃº sica
ĠÐ± Ð°ÑĢ
Ġm Ã³
Ġa Ã±
Ã© ctri
Ġfu ori
ta ura
Ġal guien
ĠSo ftware
icht s
Ã ¸
áº« u
Ð¾Ð» Ð¸ÑĤ
Ñı ÐµÑĤÑģÑı
ente mente
ĠvÃ© hic
ÐµÐ¹ Ñģ
ãģ¾ ãĤĭ
ĠL Ã¶s
è± Ĭ
Ġn á»¯
Ġf rei
ni kiem
ĠmÃł u
Ġcin co
ze pt
æ¯Ķ è¼ĥ
ĠÄĳ Ã¡
ĠIn f
ĠK las
Ġty le
ĠConse il
Ã¨ les
âĢĭâĢĭ âĢĭâĢĭ
6 æľĪ
Ġse cre
Ġcier to
ri gio
Ġstr ada
rit t
our ces
ĠB lack
ãĥī ãĥ¬ãĤ¹
ĠT odo
Ġde ben
Ġpie d
Ġk l
Ġs ce
çµ ¡
Ġdo ty
Ġge b
Ġsal on
Ġcho isir
ĠÑģÐ²Ð¾ Ð¸Ð¼
æ¥ µ
ĠÐ½Ð¾Ð² ÑĭÑħ
Ġvendre di
Ġ' '
Ġcl ub
Ġpra wo
Ġtá» Ń
Ġdo vre
ĠÑĢÐ°Ð·Ð»Ð¸Ñĩ Ð½ÑĭÑħ
ay s
id i
N I
Ġza interes
Ġprze de
ais on
ĠÐ¿ÑĢ ÐµÐ·Ð¸Ð´
ĠF ranÃ§
Ġcoule urs
Ġcon for
ĠÐ¡ ÐµÑĢ
ca ch
anta ge
Ġt ÅĤuma
ãģĮ ãģĤãģ£ãģŁ
Ġe mo
èĪ Ī
am ientos
ÑĦ Ð¾ÑĢÑĤ
ĠãģĿãĤĮ ãģ¯
ĠÐ¼Ð°ÑĤ Ñĩ
Ġnum er
Ġ ãģ§ãģĻ
tar ÃŃa
ĠKÃ¼ che
Ġserr ur
Ġapp rÃ©
ĠK Ã¶rper
Ġnum Ã©ro
Ġsemb ra
ãģķãĤĮãģ¦ ãģĦãģ¾ãģĻ
AD O
L O
Ġp iel
Ġlle va
Ġse le
ag lia
Ġm áº¡nh
Ġpue blo
ĠS ter
ĠÐº Ð¾Ð¿
Ġg ol
ĠBas k
i tions
ĠpoczÄħ tku
ĠfranÃ§ais e
jer os
le g
ĠÐ¿ÑĢÐ¸ ÐµÐ¼
Ġau cune
Ð¸Ñħ ÑģÑı
lich keit
ĠCan ada
Ðł Ðĺ
Ð¼ÐµÑĢ Ð¸ÐºÐ°Ð½
ãĤ¦ ãĤ¹
Ġpo ten
ĠPar k
Ġl undi
Ġæ ¶
áº¡ y
Ġfor m
ĠÐ½Ð° Ð¸Ð±Ð¾Ð»ÐµÐµ
ä¸ ģ
ãĥ¡ ãĥ©
ant wort
ven u
Ġsa gte
ãģ®æ Ń
ĠÐºÐ¾Ð½Ðº ÑĥÑĢÑģ
Ð¸Ðº Ñģ
ÐµÐ² Ð¸Ñĩ
ĠÐ¸ÑģÐº ÑĥÑģ
Ġas sim
cze ÅĽnie
tor no
Ġdo kÅĤad
Ġes ca
Ġter re
ĠÐł ÐµÑģÐ¿ÑĥÐ±Ð»Ð¸
¤ ĩ
Ġk sztaÅĤ
Ġthu áºŃt
id ence
ĠÑĤ ÑĢÑĥÐ±
Ii wi
Ġz oba
Ġacom paÃ±
ĠIni cio
Ġdich o
ĠMej or
Ġdes cu
ĠÐ´ Ð¸ÑĢ
ĠÐ´ Ð¾Ð±ÑĢ
K S
ĠTwo je
Ġcu ad
va is
Ġsku te
ĠTa ille
cri re
Ġdef ini
Ġdi vers
ãĤĮãģ¦ ãģĦãĤĭ
Ġpre par
Ġ3 00
ĠÑģ Ð¾Ðº
ere m
c rÃ©
sI n
Ġinwes ty
cz ony
Ġmat in
ï½ į
ãĤĪãĤĬ ãĤĤ
ĠS pa
ĠÐĳ ÑĢ
ĠÂ ®
Ġnh Ã¬n
dien st
Ġcand id
c tez
Ġcerta ines
c G
Ġcze ka
ĠÐ¿ÑĢÐµÐº ÑĢÐ°Ñģ
Ġle ben
Ġs ze
tar on
Ġinter ess
oul d
ĠÐ¾Ð¿ Ð°Ñģ
Ġnecess ario
Ġw ody
ĠZ usammen
ĠD ank
ll ig
Ã¡n dose
ĠSu che
ĠsÃ» r
Ġv áºŃt
ãģ² ãģ¨
èĮ ¶
ãģĭãĤī ãģªãģĦ
Ġbe b
ĠSp ra
Ġm ort
Ð¾Ð» Ð¸
Ðº Ð¾ÑģÑĤÑĮ
ãģ¨ãģĦ ãģ£ãģŁ
Ð¾ÑģÑĤÐ¾ ÑıÑĤÐµÐ»ÑĮ
ÐµÐ½ Ð½Ð¾ÑģÑĤÑĮ
zy d
re as
Ġbi znes
é Ĺ
on da
ãĤĴæİ ¢
ĠÐ½Ð°Ð»Ð¸Ñĩ Ð¸Ð¸
Ð¸ÑĤ Ð°Ð¹
Ġprze prowadz
Ġdispon ibles
ãģ®å ĭ
Ġexp lo
Ġscel ta
ĠA R
Ġm Ãª
ĠÐ»ÐµÐ³ ÐºÐ¾
Ġzost anie
ĠDien st
ĠsiÃ¨ cle
å «
Ġpi cco
ãģ®æ Ķ
bei tet
ĠZ ur
ĠÑħ ÑĥÐ´
Ġos iÄħ
a go
ĠS us
ĠA G
ĠD ia
Ġ8 54
ĠO ri
ĠÑĤ ÑĢÑĥ
ÑĪ ÐµÐ³Ð¾
r Ã¼
ĠB ol
ÑĮ Ð¸
Ġde di
Ġesti lo
Ã¨ de
Ġuti l
Ð» Ð¾Ð¿
Ġauto ma
Ġaplica ciÃ³n
Ð± ÑĥÑĢÐ³
Ġ ãģªãģ©
ĠM E
Ġde li
Ġent rÃ©e
ãĥĭ ãĥ³ãĤ°
Ġve ngono
Ġne hmen
ĠVo tre
w ski
Ġzmi an
ãĤ¹ ãĥļ
Ġre co
Ġla que
Ð¾Ð»ÑĮ ÐºÑĥ
ĠEner gie
Ġpla ta
ĠG re
ĠÐ³Ð» ÑĥÐ±
Ġqual siasi
ko j
« ª
ä½ Ĳ
Ġa tu
ĠÐ¿ Ð°Ð½
id encia
ĠÐ¾ÑĤÐ²ÐµÑĤ ÑģÑĤÐ²ÐµÐ½
ĠÐŁ Ð¾ÑģÑĤ
ĠC ze
Ġæľ ī
_ c
Ñı Ð»Ð¸
Q iO
N l
Ġmy ÅĽl
S t
unk te
ĠP ros
Ġpalab ras
ĠÑĢÐµÑģ ÑĥÑĢÑģ
ĠÐ» ÐµÐº
Ñĥ ÑİÑĤÑģÑı
á»« ng
ĠÃ©v al
å ¨
Ġcam p
b ro
ĠÐ¾Ð±ÑĬ ÐµÐ¼
Ġnasze go
ĠBe z
Ġ; )
Ġps ych
ÅĽwiet l
Ġus ar
ĠRÃ© f
ĠD im
tiv itÃ©
Ġcomun que
i LCJ
Ġzw iÄĻk
ãģ® ãģĶ
ĠWo che
ãģĪ ãģ¾ãģĻ
Ġter me
ÑĥÑģ Ð°
Ġprodu k
Ġnu ll
ĠEs c
c ada
Ġnie ktÃ³
ĠhÃ´tel s
ĠÐ¼ÐµÑģÑĤ Ðµ
cos a
ĠS il
ãģ¨ãģĦãģĨ ãģ®ãģ¯
Ġso fort
ra u
ä½ı å®ħ
Ġex cel
Ġzei gt
par tamento
b esch
Ġsecon da
ãģĽ ãĤĭ
Ġpro por
ĠVer anstal
Ġparf ois
ĠÐº Ð³
Ġg áº§n
ĠÐ²Ñģ ÐµÐ¹
ti ma
schei den
ĠÑĥ Ð½Ð¸Ð²ÐµÑĢÑģ
Ġä¸ »
sion es
ĠPe d
ĠA M
tu be
enez uela
cu encia
ĠspÃ© ci
è¨Ń å®ļ
Ġrisul tati
e hen
ãģ«ãģª ãĤĬãģ¾ãģĹãģŁ
ĠÑģÐ¼ Ð¾Ð³
ĠJe u
ĠtÃ©lÃ© phone
ĠktÃ³r Äħ
Ġtram ite
m s
g lichen
ĠÑģ Ð¾Ñģ
Ġque m
å¾ ©
ĠJ our
mi que
ch Ã¨
Ġa bi
Ġdes envol
ĠÐ¿ÑĢÐ¸Ð½ ÑĨÐ¸Ð¿
ĠGl Ã¼ck
ÐµÐ² ÑĭÐµ
ĠÐĳ Ð¾Ð³
Ĳ Ĩ
ĠÐ¾ÑĤ Ð¼
ĠAn che
g bar
isse z
Ġmad re
ĠFa ce
Ġpos ition
Ð¾Ð´ Ð°ÑĤÐµÐ»ÑĮ
gra fi
Ġle er
ĠF est
Ġu trzym
Ġé »Ĵ
ãģ®æ īĭ
33 5
Â ¶
á»ķ ng
ĠÑģÑĤ Ð°Ð½Ð´Ð°ÑĢÑĤ
ĠQ UE
Ġcapa cidad
Ġká» ³
ĠpiÃ¨ ce
ĠÐĺÐ½ÑĤÐµÑĢ Ð½ÐµÑĤ
g les
ta ri
d ym
ãĤĵ ãģ¨
æĹ¥ ãģ«
Ġo cas
Ã¡ r
le b
Ġsort ie
Ð¾Ð¼ Ð°ÑĤ
Ġcor po
ĠP om
Ġwor den
Ġop ie
Ġk orzysta
Ġso leil
Ð°Ð»ÑĮ Ð½ÑĥÑİ
th er
I EN
ĠI B
Ġher rami
ãģĦ ãģ¤
Ġprodu cciÃ³n
ckie go
ĠÐĽÑİ Ð±
tegor ia
Ġl uch
Ġliv res
ĠReview Image
åį ĥ
Ġph Ã¢n
Ġr odz
Ñĭ ÑģÐ»
Ð» Ð°Ð¶
Ġeff etti
Ġwarto ÅĽci
ĠP R
ĠCol ombia
ĠCas erÃŃo
Ġperson ales
Ġ5 1
ĠrÃ© un
ĠÑĢÐµÐ·ÑĥÐ»ÑĮÑĤ Ð°ÑĤ
rz u
Ġacc or
Ġes sa
Ġtempor ada
ĠH ilfe
ãĢħ ãģª
ĠÑĢÐ°Ð· Ð³
ĠæľĢ è¿ĳ
vo li
ç² ¾
Ġmeille urs
ĠÐ°Ð²ÑĤÐ¾Ð¼ Ð°ÑĤÑĭ
ĠÐ± ÑĥÐ¼
Ġwe gen
Ġse zon
Ġé Ļ
Ġsimp lement
Ġsi tios
cia re
Þ ª
Ġn Æ¡i
Ġcons Ã©
ĠÐ± Ð¸
é ³
ĠrÃ© ussi
Ð¸Ð· Ð²Ð¾Ð´
ĠÑĢ Ð¸ÑģÐº
Ġdo is
ĠCon si
Ġparte cip
Ġ6 4
5 5
ise z
ĠZ am
Ġwy p
Ġle ider
ĠT V
æŃ Į
u h
åĪĩ ãĤĬ
ĠÐµ Ð¶
n oÅĽ
åĬ ´
Ġcre ar
end u
Ġprzed mio
Ġcomp ra
Ġrecu per
ĠJ etzt
å¤ī æĽ´
ãĥ¼ãĥ Ń
ĠMitarbeit er
ĠÃ©lectri que
Ð°Ð² Ð°ÑĤÑĮ
hand lung
Ġviel leicht
Ġprze j
za ciones
Ġra ggiung
Ġr oute
Ġnaszy m
ng ua
Ġznajd uje
ĠÐ´ÐµÐ¹ÑģÑĤÐ² Ð¸Ñı
Ð°ÑĢ ÑĥÐ¶
Ġens uite
b os
Ġuti lizar
ĠRes taur
æŁ ĵ
Ġcon cas
iss on
Ġpodsta wie
ĠO ff
pr ise
Ġb ureau
Ð¾Ð» Ñİ
Ã¢n cia
ig i
Ġe g
Ġresp uesta
Ġn arz
ĠmÃ© dica
as se
Ð¿Ð¾Ð» Ð°Ð³
teil ung
ĠL icht
gg etto
ill os
ab ilitÃ©
Ġquier o
Ġtrata miento
ĠDE S
ĠrÃ© gu
ĠAb b
Ġas si
Ġzes po
ur os
ãģĳ ãģŁ
am in
Ġsz ero
ĠÐĺ ÑĢ
fic os
Ġab ge
ãĤ° ãĥ©
ĠÑĢ ÐµÑĩ
ĠÐ¿Ð¾Ð½ ÑıÑĤ
Ġpr Ã³b
ier i
Ġcat Ã©g
ĠÐ²Ñĭ Ð´ÐµÐ»
Ò ĳ
ĠÐ¸Ð½Ð´ Ð¸Ð²Ð¸Ð´Ñĥ
Ð± Ñĥ
na to
Ġtá» ·
00 00
Ġali gn
ï¼ ´
Ġç¶ ļ
ĠÐ¾Ð± Ð½
é£ Ľ
ĠP lan
Ġl ing
Ġv ari
rz es
ãĤ¤ ãĥ³ãĥģ
Ġprzez na
Ġquy á»ģn
æĿ ¾
ãģĦãģŁ ãģĹãģ¾ãģĻ
Ġå ²
ãģ¿ ãģ«
Ġè ±
Ġrecenz ji
ĠO sta
Ġlep iej
æĻ ¯
ng o
cz noÅĽci
æľĢ å¤§
ĠÐ¡ Ð»
uer ra
n ent
Ġver w
Ð¢ ÐĲ
ĠÑĢÐ°Ð¹ Ð¾Ð½Ð°
Ġu t
Ġwyb ra
å¸Ĥ åł´
f ois
ĠÐ¼ ÐµÐ±
Ġne ben
ĠÐ´Ð¾ ÑħÐ¾Ð´
ãĥ¼ãĥ į
Ġbe de
Ġk an
ĠÐ°Ð¿ Ð¿Ð°ÑĢ
ĠHo y
Ġd ane
ei r
W U
Ġodpowie dni
ÐĽ ÐĲ
ĠÑįÑĦÑĦ ÐµÐºÑĤ
Ġph á»¥c
Ġen se
aul t
Ġinv est
Ġsup Ã©rie
Ġb iaÅĤ
Ġn owych
Ġa di
Ð³ ÐµÐ½ÑĤ
Ġog Ã³l
ĠN os
or ter
ãĤĴ ãĤĤ
zy ka
wo ju
P E
v res
ÑģÐº Ð¾Ð¼Ñĥ
ĠÐ¼Ð» Ð½
ĠÐ¶ÐµÐ» ÐµÐ·
Ġprz esz
ãģ« ãģ¦
éĥ İ
Ġï¼ģ ãĢį
ãģ®å ½
Ãºb lica
Ġcon st
k osten
ĠÐ³Ð¾Ð» Ð¾Ñģ
Ġb á»Łi
ĠprÃ© cÃ©d
fÃ¼hr er
ĠÐ³ÑĢÑĥÐ¿Ð¿ Ñĭ
Ġe her
ãģ¨ãģª ãĤĭ
ĠNue va
t ka
ĠÑĤÐ¾ÑĢ ÑĢÐµÐ½ÑĤ
Ðł Ñĳ
ĠÑģÐ² Ð¾Ð±Ð¾Ð´
Ġpoprze z
Ġcon ser
tis che
ÐµÐ¹ÑĤ Ð¸Ð½Ð³
ĠÑģÐµÑĤ Ð¸
Ġh ist
è Ĩ
ãģĮ è¦ĭ
ĠÐ½ÐµÐ´ Ð¾ÑģÑĤ
Ġwer de
Ġam is
Ð² Ð°Ð»
ĠP io
Ġzmi any
æĪ ¿
å¸ Ń
ĠD enn
k el
Ġvo is
ĠAr ch
ĠÐ±ÐµÐ·Ð¾Ð¿Ð°Ñģ Ð½Ð¾ÑģÑĤÐ¸
ç¨ĭ åº¦
Ġdi vent
Ġorigin al
Ġist nie
ze p
ĠçĽ ®
Ġdi gi
ĠÐ¿ÑĢÐ¾ÑĨ ÐµÐ´
Ġinter ior
si te
Ġma gas
ãĤĦ ãĤĬ
wit ter
çĶ³ ãģĹ
Ġassur ance
éĸĭ çĻº
Ġcontr Ã´le
ĠÐ·Ð°ÑĢ Ð°Ð±Ð¾ÑĤ
ĠÐ´ ÐµÑģÑı
Ġh áº¿t
Ġs ent
Ġz usÃ¤tz
Ġla tach
Ġdispos i
ãĤĴæ ±
Ġmed ida
Ġste llen
T S
er ne
Ð°ÑĤÑĮ Ñı
ĠÑĢÐ°Ð·Ð¼ ÐµÑī
ologi i
Ġz gÅĤ
ĠÐŁ Ð¾Ð¼
3 7
ĠÃ© dition
Ġal cune
Ġpar fa
10 æľĪ
ĠB leu
s us
Ġå ĥ
ï¼ ²
§ ĺ
ãģ¯ ãģļ
Ġm Ã³vil
Ġini cia
ro p
ĠÑĢÐ°Ñģ ÑħÐ¾Ð´
cie li
ĠM uch
åĢŁ ãĤĬ
ĠSch laf
li we
èĭ ¦
Ġtechni ques
ĠÑĢÐµÑĪ ÐµÐ½Ð¸Ñı
Ñĭ Ð½
qu ant
Ġcon cep
ĠKa tegor
Ð°Ð»ÑĮ Ð½Ð¾Ð¼
è¨Ģ èĳī
ĠmÄĻ Å¼czy
ĠA g
Ġnuest ras
Ġb itte
ĠAma zon
Ġar beit
M ENT
Ġbeso ins
ĠÐ´ ÐµÐ¼
Ġle ngth
ĠwiÄĻk sz
Ġejer ci
ĠI ng
us se
Ð°ÑĤÐ¾ÑĢ Ð°
ĠÐ£ Ñĩ
am er
Ġconstru ction
ĠÐºÑĢ ÐµÐ¿
Ġme u
è¢ ĭ
ar am
ãģ®åī į
ĠÃºlti mos
Ġb Ãłn
ire ment
ĠÐºÐ¾ÑĤÐ¾ÑĢ Ð¾Ð¼
Ġpag ina
Ġa pos
ĠprÃ© v
æŁ Ħ
ĠãĤ¹ ãĥĨ
Ġno ti
ãģ¨ãģĹãģ¦ ãģ¯
ĠKon takt
Ġal ter
ãģ° ãģĭãĤĬ
äºĭ ãģĮ
Ġm ouve
ãģĹãĤĥ ãĤĮ
æĸĻ éĩĳ
Ġactu al
leit ung
s eite
Ġcommun au
ti Ã³
éģķ ãģĨ
Ġihre m
Ġuni vers
Ð½Ð¸Ðº Ð¾Ð¼
ĠÃ ¥
Ġb iáº¿n
Ġs cuola
Ġwsz el
ãĥĲ ãĤ¤
n as
c rit
lis is
Ġfut uro
ĠÐ²Ñĭ Ð´
Ġpar is
u ille
ãģĹãģ¦ãģĬ ãĤĬãģ¾ãģĻ
Ġçı¾ åľ¨
Ġh il
Ġstra tÃ©
Ġin dex
Ġca ÅĤy
ĠEsp anol
Ã³g ica
ĠMar ke
om it
ĠC at
ĠMich el
Ã® ne
ĠÐ´Ð¾Ð»Ð¶ Ð½Ð°
Ġcos titu
Ġsu cc
dz enie
é ĬĢ
Ġinvestig aciÃ³n
ĠS ing
ÐĲ ÐĹ
ÐµÐ³ Ð¸ÑģÑĤÑĢ
f ar
ĠÑĢÐ°Ð±Ð¾ÑĤ Ð°ÑĤÑĮ
ato r
ĠC et
ĠM am
Ġt war
ĠJe Å¼eli
åı¯èĥ½ æĢ§
Ã¶ffentlich t
Ġb le
Ðº Ð¾Ð²Ð°Ð½
ĠÐ²Ñĭ Ð²Ð¾Ð´
Ð½Ð¾Ð² Ð°
Ġlaque lle
Ġz g
ĠB Ã¬nh
Ġhab lar
ada mente
ĠK ur
Ð¸ÑĤÐµÐ»ÑĮ Ð½ÑĭÑħ
ĠSpiel er
ĠÃ ¦
76 7
Ġtá»¥ c
ĠÑģÐ» Ð¾Ð²Ð°
ĠÐ¿ÑĢ Ð¸ÑıÑĤ
ÑİÑī Ð¸Ðµ
ĠV ene
ĠR om
ĠÑĦÐµÐ²ÑĢ Ð°Ð»Ñı
ĠÑģÑĤ ÐµÐ½
ĠÐłÐ°Ð· Ð¼ÐµÑĢ
Ð¸Ð· Ð°ÑĨÐ¸Ð¸
ĠÐ³ ÑĢÐ°ÑĦ
Ġfar ma
ne ak
ĠNa poli
Ġsvilu ppo
ĠÃº nico
te li
Ġeben falls
er st
Ġf ig
Ġcompr is
ĠÐ´Ð°Ð½ Ð½ÑĭÐµ
ĠÑĤÑĢ ÐµÐ½
Ġacqu ista
Ġter rain
44 7
Ġph á»¥
Ġpar ler
odz ien
Ãªte ments
ĠÑĤ Ð¾Ð¼Ñĥ
ãĥ¬ ãĥ¼
Ġade cu
ĠÅĽwie cie
Ġfunk tion
ĠdÃ©c ouver
Ġoffer te
; ;
ä¾ Ŀ
Ġsare bbe
ĠPre ise
ĠÐ¼Ð½Ð¾Ð³ Ð¸Ðµ
ĠC Ã¡mara
ar en
Ġf unda
tiva mente
ĠÃ©conom ique
ãģĻãĤĭ ãģĵãģ¨
Ġpo b
Ġpag es
Ġdeux iÃ¨me
79 66
Ġth ay
ÐµÐ² Ð¾
èª¿ æŁ»
Ġ our
ĠMÃ¼n chen
ĠD ab
ĠÑĦ Ð¾ÑĢÑĥÐ¼
Ġcam ino
Ġsp Ã¤ter
ĠÑĢÐ°Ð· Ð±
Ġgestion e
zza ta
Ġmo re
Ġbezpie cze
ci entes
Ġprop ia
t anto
ï½ ŀ
çĬ¶ æ³ģ
ĠAn uncios
pon der
Ġpue da
ĠÑĨ ÐµÐ»ÑĮ
ĠWiÄĻ cej
ĠCz ÄĻ
Ã©b Ã©
na ire
ĠV is
indow s
Ġ| --
mo ire
en ica
ãģĹãģŁ ãĤĬ
ĠTra b
ĠdÃ©ta il
Ġprofesion al
oule ur
Ġm ostra
Ġkra ju
de dor
Ġtr iá»ĩu
f urt
ĠDe ta
ĠAus wahl
cesso ires
Ġag ri
ĠÐ¿ÑĢÐ¾Ð±Ð»ÐµÐ¼ Ñĭ
ĠO ui
Ġcondi zioni
ĠQu and
ĠMÃ¶glich keit
Ġvon t
Ġprob lÃ¨mes
ĠÐ¢ ÐµÐ»
ĠÑĩ ÐµÑĤÑĭ
di ta
Ġest ru
er mo
ĠGÃ¤ ste
Ġpre fer
ç ¬ĳ
3 æľĪ
ĠDies er
ãĥ¶ æľĪ
ãģ¦ ãĤĭ
um n
¥ åº·
Â ³
ĠÄĳ Ã¬nh
pp i
ĠÑĥ Ð²ÐµÑĢ
Ġp y
me m
ĠDab ei
åĢ Ĵ
Ġsu chen
ĠÐŁ Ð»
ĠÐ²Ð¾Ð·Ð´ ÑĥÑħ
ma re
Ġp ostÄĻp
ab el
Ġblan co
Ġaf ir
Ġne uf
Ġw ahr
Ġconta ct
Ġe ks
ãģĹãģ¦ ãģĦ
c ano
Ġch á»©ng
li r
ĠÐļ Ð»
Ġk uch
Ð°Ð¼ Ð¸Ð½
Ġ ğ
R l
a ÅĤa
ãĥ¬ ãĤ¤
ĠÐ´Ð¸Ð· Ð°Ð¹Ð½
ti dos
Ġevi tar
ĠBon jour
ĠVo ici
x y
ĠÑĢÐ°Ð· Ð½ÑĭÑħ
Ġnie za
äºĪ ç´Ħ
ĠÃ© qu
ĠEuro pa
ty tu
ĠVerfÃ¼ gung
åħ ħ
Ġver o
ãĥ¬ ãĥĥãĥĪ
Ġc ouver
ĠÐ¾Ð± Ð½Ð¾Ð²
ĠÑģÐµÐ½ÑĤ ÑıÐ±ÑĢÑı
Ġhand l
ãģ£ãģ ±ãģĦ
¸ ı
78 46
Ġtr á»£
Ġa ta
ĠS ud
Ġäº ¤
ĠÑģÑĤ ÑĢÑĥÐºÑĤ
ç Ĵ°å¢ĥ
Ã¤ch st
Ġn Ã¤
Ġproble mi
å ¬
åħ¥ ãĤĬ
çĶ» åĥı
Ġth eir
Ġra is
çĤ º
ĠÑģÐ¾Ð² ÑģÐµÐ¼
ĠLa ge
Ġenf in
ĠÃ©c ran
Ð¸Ð± Ð»Ð¸
ĠP ierw
ar ch
ĠÑĥÑĩÐ°ÑģÑĤ Ð¸Ðµ
Ġimm obilier
ĠÑĢÐ°Ð·ÑĢ ÐµÑĪ
IN E
Ġmar ch
Ġda re
ãģ¡ ãĤĩãģ£ãģ¨
Ġç Ĺ
çµĦ ãģ¿
Ġ03 7846
Ġ07 7966
335 17
Ġ039 767
Ġ016 82
Ġ039 447
Ġ03 33517
Ġs Ã¡ch
ĠD ec
Ġprop io
ĠHer z
ada ÅĦ
Ġmat ri
Ġwys tar
ube hÃ¶r
Ġda her
ci en
Ġl ou
ra m
ina teur
ä¸Ģ çķª
Ġæ ¿Ģå®ī
ĳ ç´Ħ
pr uch
Ġliv raison
ru re
ouv el
r one
Ġpoz na
Ġãĥķ ãĤ£
Ġ ä¾¡æł¼
1 æľĪ
Ġes erci
res a
Ġprofesion ales
Ġb lei
Ġr ent
ĠÑĩ ÑĤ
Ġcie p
ãģ¨ãģĦãģĨ ãģĵãģ¨
Ð¿ Ð¾Ð½
Ġning Ãºn
Ġex cell
Ġman tener
zeich net
Ġm áº¹
Ġl áºŃp
Ġkos mety
Ġproje ktu
éĢļ ãĤĬ
Ġche f
Ġsprzeda Å¼
Ġnier uch
Ġsi gue
ÐµÐ½ Ð½ÑĭÐ¼Ð¸
Ġsen so
ĠK aÅ¼
Ġda to
Ġpro ce
Ġ000 åĨĨ
ĠãĥĽ ãĥ¯ãĤ¤ãĥĪ
ï¼ ¤
ĠæĦ Ľ
ãĥ© ãĥ«
9 4
ar ma
Ġmo t
ĠãģĤ ãĤĭ
Ġpo tr
Ġk ol
ãĤĴ åĩº
ĠÐ£ Ð´
Ġs mart
Ð¿Ð¸Ñģ Ð°Ð½Ð¸Ðµ
ĠÑĢÐµÐ·ÑĥÐ»ÑĮÑĤ Ð°ÑĤÐµ
ãģĵ ãģĿ
bie ter
åł´åĲĪ ãģ¯
Ġpo ter
ien cias
or en
Ġemplo y
cu pa
Ġcomm une
pa gn
usam me
ĠK rzy
Ġod by
9 6
Ġdirec tement
Ġe dy
Ġsch le
Ġeffet tu
ĠÐ¾Ð± ÑģÐ»ÑĥÐ¶
Ġc ois
Ã³w ki
ãĥª ãĤ¨
ĠKop f
Ġ7 7
ĠÃ©le ctr
ĠJ un
di go
ĠNo ticias
Ð°Ð½ ÑĮ
Ġri vol
jÄħc Äħ
Ġç´ ł
å¥ Ī
ãĤĪãģĨ ãģ§ãģĻ
ĠE di
ara go
ĠH is
Ġcomple to
Ġnation al
ĠÑģÐ¼ Ð¾Ð¶
ãģ§ ãģĤãĤĬ
ga ciÃ³n
ĠÑĥÐ´ Ð¾Ð²
Ġ01682 79
iáº¿ c
uer ta
ĠÑģÐ¾Ð¾ÑĤÐ²ÐµÑĤÑģÑĤÐ² Ð¸Ð¸
Ġdisfru tar
ĠÐºÐ¾Ð½ ÑĦ
ĠÐºÐ°ÑĩÐµÑģÑĤÐ² Ð°
Ġconse guir
mon io
ĠG utschein
sch lag
Ġa ur
Z S
Ġusta wy
ĠÃ¢ ge
ĠÑĤ ÐºÐ°Ð½
ĠÑģ ÐµÐ»ÑĮ
A K
ier o
ĠÑįÑĤ Ð°Ð¿
ĠÐĲÐ»ÐµÐºÑģÐ°Ð½Ð´ ÑĢ
Ġwy nika
Ġal c
Ġk Ã¼
ĠÐ½Ð°Ñĩ Ð°Ð»Ð°
ĠDie u
ĠN ord
ĠÐ¼ Ð¾Ð±Ð¸Ð»ÑĮ
ĠÐ¿ÑĢÐµÐ´ ÑĥÑģ
ĠÐ¾Ð´ Ð½Ð°
ĠÐ²ÑĭÐ± ÑĢÐ°ÑĤÑĮ
Ġgi udi
Ġz one
ĠÐ±Ð¾Ð» ÐµÐ·
is ty
ĠJed nak
Ġpod em
Ġt ard
ff t
ĠSe villa
ĠÐ¼Ð¸ÑĢ Ðµ
ĠBus ca
ACI ON
Ġles bianas
Ġe llas
Ġsch wer
Ġou t
Ġdeta lles
ma is
res z
ab ilitÃł
t Ã¡
Ġpro che
n Ã©e
z ess
iel s
ĠÐ°Ð² Ð¸
tow ego
ens ajes
Ġdeb ido
Ġpro cÃ©d
Ġpoli tica
å®ī å¿ĥ
Ġm iá»ħn
ãģ£ ãģ¡
wend ung
Ġme dy
9 æľĪ
Ġricon os
en ir
Ġä»¥ ä¸ĭ
ãģ§ãģĻ ãĤĪãģŃ
ãģķãģĽ ãĤĭ
ĠM Ã¤n
ãģ¨ ãĤĵãģ©
Ã¼ l
Ġcommun ication
Ġn á»¯a
ta ll
ÐĿ Ð«
ĠÐł Ð°Ð±Ð¾ÑĤ
Ñĭ Ð´
ĠpÃ³Åº niej
ĠC D
Ġar rÃª
Ġs osten
Ã¼t zen
ĠEn cu
Ġhabita ciones
ĠÑģÐºÐ°Ð· Ð°Ð»
dep endi
Ġv Ã´
Ġpl anta
Ġc Åĵur
Ġma ÅĤ
il a
Ġprincip ales
Ġder en
Ġcul tura
ĠThe men
sch ule
it ze
ĠAr ticle
szy scy
Ġr Ãª
ei gn
Ġstan owi
ĠÐ¼ Ð¸ÑĢÐ¾Ð²
Ġd á»ħ
ĠW indows
l d
Ġcomment aires
Ġk lar
qu Ã©e
Ġdire ction
cri zione
ies ta
c endo
Ġvi vo
ĠÐ¿ÑĢ ÐµÑģÑĤ
u gen
ill on
fi Ã©
Ġres ol
ĠDer ni
Ġm au
ĠÐ¼ Ð°Ð¼
ĠÑģÐµÑĢ ÑĮ
ãĥ« ãĥĢ
mar kt
Ġa rea
Ġin dy
Ġnatur al
ĠIhre m
Ġr oul
ĠdÃ© part
ĠNi ke
Ġpre vis
Ġf ff
æĪ »
Ġin tent
ĠV ie
ĠÐ» ÐµÑģ
Ġnation ale
ĠÑĤÑĢ Ð°Ð²
Ġ à²
Ġd iá»ĩn
jÄħ cej
Ġne ues
Ġfor te
ĠNach t
Ġp ul
Ð°Ð´ ÑĮ
ĠV in
Ġmo ts
ĠÐ¾Ð± Ñģ
ãĥ¼ãĥ ¬
ĠÄĳ Æ°a
ĠT en
Ġapo yo
ĠÐ¿ÑĢÐ¾Ð¸Ð·Ð²Ð¾Ð´ ÑģÑĤÐ²Ð°
Ġå· ¥
èı ľ
çļ ®
ãģıãģª ãĤĭ
Ð¾Ñĩ Ð½Ð¾Ð¹
Ġcam ere
Ġclas si
Ġcomun idad
Ġverschieden en
Ġu bezpie
12 æľĪ
Ġåı£ ãĤ³ãĥŁ
ãĥ¼ãĤ µ
Ã¢ teau
Ġpro pi
cyj nego
h Ã©
ĠP elle
Ġgio ca
Ġeje cu
ĠA S
ĠRe cher
ĠL ES
Ġg uerre
ĠÐ¸ÑģÑĤ Ð¾ÑĢÐ¸Ð¸
Ġpo k
w in
ĠçµĲ å©ļ
ãĥ³ãĥĹ ãĥ«
ç ĩ
Ġ2016 å¹´
ci mientos
Ł ãģĺ
åĭŁ éĽĨ
ĠS eit
ãĤĴè¦ĭ ãĤĭ
ĠÐ¿ Ð¾Ð¿ÑĢ
ĠI L
Ġvic ino
Ġnaj m
ĠãĥĽ ãĥĨãĥ«
èĩ ´
ĠPare jas
ĠZapa tillas
arago za
ĠTod os
h ein
ĠLand es
ĠCom une
Ġer ano
æ´ ¾
Ġre des
ÑģÑĤÑĢÑĥÐº ÑĨÐ¸Ñı
ÐµÑħ Ð½
ĠÐļ ÑĥÑĢ
ĠÐ¿ÑĢÐ°ÐºÑĤ Ð¸ÑĩÐµÑģÐºÐ¸
Ġvá» ±c
ĠV illa
ĠV enta
cul o
Ġcon sta
ĠÐ¾ÑģÐ½Ð¾Ð² Ðµ
8 æľĪ
Ġrec ursos
ĠÐ½Ð¾Ð² Ð¾ÑģÑĤÐ¸
å© ¦
Ġinter Ã©s
ĠÃ©lÃ© ments
Ġcu ales
Ġ2017 å¹´
ãģ® ä¸Ĭ
ĠÐº ÑĢÐ°
ĠkaÅ¼ dym
Ġdu da
Ã¡ lisis
ĠG el
Ġ200 5
ch ain
ãģ® æĹ¥
ÃŃs tica
Ġrencont res
Ġè ĥ
ãĥĩ ãĥ¼ãĤ¿
8 7
ĠS ite
Q U
Ġdev rait
ÑģÑĤ Ð°
ĠÑĢ ÐµÑĨÐµÐ¿
Ġb lis
ĠÐ° Ð»ÑĮ
Ġæ ®
éĽ ¨
ĠM ig
Ãºs que
ĠSch utz
ÑĥÑİÑī Ð¸Ðµ
Ġparti re
d ida
ĠÅĵ uvre
odz Äħ
ĠB an
v estis
Ġs ir
Ġconf ir
ĠPro f
s weise
ĠÑĦ Ð¸ÑĢ
ĠE tat
ĠÑĥÑĤ Ð²ÐµÑĢÐ¶Ð´
ĠB ois
c r
z iert
Z A
Ġgiorna ta
Ġsamoch od
Ġpar le
ta gne
èĭ ¥
Ġdif ÃŃ
ĠÐ²Ñĭ Ð·
Ġum owy
owie m
Ġthe y
ĠHer r
Ġmin ut
f iche
» çĻĤ
Ġvol ver
us ione
g ner
z ji
Ġsen ci
ĠÑĥÑģÐ»Ð¾Ð² Ð¸Ñı
å® ĺ
ut t
ri ge
ĠÐ¼ Ð°Ð½
ĠÐ¸Ð½ÑĦÐ¾ÑĢÐ¼ Ð°ÑĨÐ¸Ñİ
ĠÑħÐ¾Ð·Ñı Ð¹
ĠÐ»ÑİÐ± Ð¸Ð¼
et ter
mp o
Ð¾ÑĢ Ðµ
Ġline a
est Ã£o
Ġjeu di
oup es
Ġkom puter
Ġj Ã³venes
ĠÑģÐº Ð»Ð°Ð´
LL A
ĠS tiva
te zza
ĠNe ben
Ġdisp onibile
Ġ ÑĨÐ¸
am entos
Ġz wier
pe ti
Ð»ÐµÐ½ Ð½ÑĭÐµ
ç ł´
si g
Ġv iáº¿t
ĠRe d
ĠCh ile
ctÃ© ris
ĠÑģ Ð½Ð¸Ð¶
Ġobjec tif
ĠÐ¼Ð¾Ð´ ÐµÐ»Ð¸
ol are
Ġcap ital
Ð¸Ð½ Ð°ÑĢ
Ð°Ð· Ð°ÑĤÑĮ
ĠÐ²Ð· Ð°
ĠÐŀÑĩ ÐµÐ½ÑĮ
ĠO ut
Ġsp ecta
Ð¸ÑĢÑĥ ÐµÑĤÑģÑı
ĠãģĬ ãģĻãģĻãĤģ
ç« ¯
ĠhÃ¤t te
ru z
val u
Ġin vi
n ess
ab y
ĠFa hrze
Ġng uyÃªn
Ġre fer
ĠÐ² Ð°Ð½
Ð¸Ð¼ ÑĥÑīÐµÑģÑĤÐ²
Ðº Ð¸Ð½
ãģĳ ãĤĮ
ĠÑģÐ¾ÑģÑĤ Ð¾
èĶ µ
Ġenfer me
Ġtro tz
ni ng
s y
æīķ ãģĦ
æº Ĳ
Ġgratu ite
Ġeffica ce
onc Ã©
al te
ĠM Ã¶
Ã¤r en
Ġcomp les
ĠÅĽwia ta
ay a
me ister
Ð¾Ð· Ð¸ÑĤ
ĠÐŁÑĢÐ¾Ñģ Ð¼Ð¾ÑĤÑĢÐ¾Ð²
ĠÐĿ Ð°Ð´
Ġar te
ãĥĥ ãĤ»
ãĥ¼ãĤ ±
ĠKul tur
ĠÃ©tu de
ĠÑĦ ÑĢ
ÐµÐ»ÑĮ Ð·Ñı
ĠÐ¶ Ð¸Ð»
ĠÐ½ Ð°Ð½
Ġmi gliore
Ġri ght
çľ ģ
Ġindustr ia
Ġfor ce
ĠÐ¢ ÐµÐ¼
Ġm inha
Ãªn cias
Ġzmi eni
Ġanci en
ãģ£ãģ¦ ãģ¿
l ado
Ġav re
Ġç¤ ¾
Ġ: "
5 æľĪ
Ġw under
Ġnh áºŃp
tig ung
Ġs wÃ³j
ĠZ wei
ãĥ© ãĤ¯
d ores
Ġlet tre
Ñı ÐµÑĤ
Ġemp e
Ð° ÑĨÐ¸Ð¹
la ciones
Ġ8 5
l Ã©e
kow ie
Ġbut ton
Ġcol umn
Ġi tem
èĲ½ ãģ¡
crip ciÃ³n
Ġfinan ci
ĠÑĤÑĢ ÐµÑħ
liw oÅĽci
b ank
lie gen
pond re
Ġpar ents
czy k
ĠAn ton
fica ciÃ³n
ĠVer sion
ĠÐ¥ Ð¾ÑĤ
è² ¡å¸ĥ
ãģĮ å¤ļãģĦ
ĠTe chn
ĠR ab
Ġhabita ciÃ³n
Ġdem as
ĠD re
Ġt el
åĸ Ħ
ens ter
Ġs atis
Ġhis tori
äºº ãĤĤ
Ġma cch
Ä© nh
Ġde fen
ance ment
Ġna zionale
ĠT etas
ar Ã¡n
Ġmein en
ĠPAR A
ĠTra vestis
ment al
Ġent ren
itÃ¤ ten
ÑĨ Ð¾Ð²
ĠÑģÐ°Ð¼ Ð¾ÑģÑĤÐ¾ÑıÑĤÐµÐ»ÑĮ
ĠÑģ ÑĦ
ĠM inh
ĠmÃ© de
Ġp az
Ġg Ã¢y
ĠÐºÐ¾Ð½ÑĤ Ð°ÐºÑĤ
éļ ľ
ere mos
Ġob tener
Ġer folg
Ġqual quer
Ġus ÅĤugi
ĠW al
stra ÃŁe
Ġpo ids
Ġluo go
Ġso llen
Ġpar mi
ĠÐº Ð»ÑİÑĩ
ĠStar t
pow iada
åĲ Ħ
ĠÐ²ÑĤÐ¾ÑĢ Ð¾Ð¹
ch odzi
ĠPh ili
ĠDe puis
Ġ( );
ĭ èŃ·
ĠãĤ ²
ĠÐ±Ð¾Ð»ÑĮÑĪ Ð¸Ð½
Ġdesn udas
ci encia
ĠD ownload
Ġbekann t
u jÄĻ
su ÅĦ
w z
ti es
Ġï½ ¤
Ġï¼ Ķ
Ġä¸ĸ çķĮ
ĠP C
Ġf en
ĠN áº¿u
Ġclas se
Ġzak ÅĤad
ĠÃº nica
cz ona
Ġ& &
ow ymi
ais se
Ġau teur
ĠFin anz
ãģĦãģŁ ãģłãģĳ
ãģ®æ µ
Ġtrad ition
Ġopp ure
Ġjedy nie
Ġpor nos
anti ago
ĠÑĤÐ¾Ð²Ð°ÑĢ Ð¾Ð²
Ã³ gico
ĠÐ´Ð¾Ð» Ð»
Ġt ale
i ro
Ġza pa
Ġåį ĺ
Ġges tiÃ³n
ti ble
ĠagrÃ© able
ãĥĥ ãĥĳ
at es
ĠÐ°Ðº Ðº
Ġbra k
Ġpr in
_c rop
ÑıÑĤÑĮ ÑģÑı
ei ta
Ġz iel
Ġnghiá»ĩ m
ĠÐ¿Ð°ÑĢÑĤ Ð½
ĠÐ°Ð²Ð³ÑĥÑģÑĤ Ð°
Ġzapew nia
Ġcons id
ĠB al
Ñĳ Ð»
Ġw ÅĤad
Ġequi pos
ĠPro gramm
ĠÐ´Ð¸ Ð°Ð³
Ġindi ri
Ġpr Ã¤
vol u
ĠÐ¾ÑģÐ¾Ð± ÐµÐ½Ð½Ð¾
ĠIn d
ãĥ© ãĥĥãĤ¯
æ³ ¢
Ġqu est
ter as
s os
ĠdziaÅĤ alnoÅĽci
Ġz nak
Ġval ore
ĠBÃ¼r ger
Ġme uble
Ġsp ort
ãģ« ãģĻãĤĭ
Ð² Ðµ
Ġno vo
Ġm iÄĻ
Ġspe ÅĤ
éĥ¨ å±ĭ
au to
ĠM at
ar u
ein ander
ĠM AR
Ġre gar
ĠÐķ ÑģÑĤÑĮ
ĠÂ µ
Ġt iÃªn
ri Ã³
l ungs
ĠR io
ä½ľ ãĤĬ
ĠÐ¿ Ð¸ÑĪ
ĠÐ²Ð¾Ð·Ð¼Ð¾Ð¶ Ð½Ð¾
is tica
Ġs endo
arbeit en
ï¼ °
ãĥ³ãĤ° ãĥ«
Ġto ile
Ġouver ture
N j
Ġro bo
ĠH ar
éĸĵ ãģ«
ĠÐ¼ÐµÐ¶Ð´ ÑĥÐ½Ð°ÑĢÐ¾Ð´
Ġble ibt
Ġst and
ĠÑįÐºÑģÐ¿ Ð»Ñĥ
Ġofi cial
ĠÐ¾Ðº ÑĢÑĥÐ¶
Ġbiso gno
Ġm are
çħ §
ĠGew inn
Ð¼ ÑĥÐ½
Ã¼ ge
Ġdonn Ã©
æ¯ į
tr Ã¡s
ÑģÑĤÑĢÑĥ ÐºÑĤ
ord in
ĠÐĳ ÐµÐ·
Ñĥ ÐºÐ¸
Ġle kar
ĠgÅĤÃ³w na
Ġis to
ãģĮ å¿ħè¦ģ
Ġpia ce
Ġbis her
ĠÑĢÑĥÐº Ð°Ð¼Ð¸
ĠÐĳ Ð»Ð°Ð³
Ġso ggior
ver a
ich en
Ð¸Ð» Ðµ
Ġop Ã©ra
Ġd oute
ĠRÃ© p
Ġdire cciÃ³n
Ġr Ã´le
um es
b ourg
ĠP O
Ġspe cj
Ġsitu Ã©
Ġal gum
Ġfoll ar
Ġrela ciones
ĠÑģÐµÐ· Ð¾Ð½
cyj na
iste mas
Ġdem Ã¡s
OR E
Ġs tre
Ġre tra
ĠPf lege
au p
Ðķ ÐĿÐĺ
Ð¾Ð² Ð°Ð»Ð¸
ĠA mi
Ġmay ores
Ã©b ec
ĠintÃ© rÃªt
it ure
ĠrÃ©alis er
Ġpres enti
iÄĻ cia
áº£ y
Ġex cl
Ġouti ls
ĠA C
ĠH i
Ġt Ã©r
Ġmer credi
re t
Ġp ouv
ĠÑįÐºÑģÐ¿ ÐµÑĢÑĤ
ãģļ ãģ«
ĠÐ¿ÐµÑĢ ÐµÐ¼
ãģ¨ ãģĻãĤĭ
no vation
ĠQu Ã©bec
m ande
ĠÃ©tu des
ciÄħ g
ĠFoll ando
vi ar
c te
Ġun ico
ma ten
ĠÐ¿ÑĢÐ°Ð² Ð°
ĠÐ¸Ð· Ð¾Ð±ÑĢÐ°Ð¶
Ġå¯ ¾
Ġde utlich
ub les
Ġprodu zione
re m
ç¸ Ħ
Ġæĺ ¨
den cia
our ce
ĠÃ© du
ĠH aupt
Ġm 2
Ġg war
Ġing lÃ©s
ara zione
Ġtow arzy
ãģķ ãģ¾
Ġatten tion
ĠÐŁÐ¾Ð´ ÑĢÐ¾Ð±
ĠÐºÐ¾ÑĤÐ¾ÑĢ ÑĥÑİ
Ġver kauf
Ġosta t
Ġfuer te
Ġqual cosa
ĠnÃ¤ch sten
ä¸ ¦
ven ciÃ³n
onn er
es si
Ġproy ectos
Ġmejor ar
Ġmo teur
Ð¸Ñģ Ð¾Ðº
Ġc io
å¯ Ł
Ġ. "
ĠB lu
Ġini zio
ÃŃ tica
Ġtr an
Ġse lec
Ġne g
dz ÄĻ
Ġser ÃŃa
Ġus z
Ġsuiv ant
Ġna to
ĠSal le
Ġdispos ition
ĠÐ¿ÑĢÐ°Ð² Ð¸Ð»ÑĮÐ½Ð¾
ĠÐ¾ Ð²
Ġc ra
ĠÐľÐ¾ÑģÐº Ð¾Ð²
Ð°Ñĩ Ð¸
Ġdifer encia
Ġsprzeda Å¼y
ĠÂ ¨
Ġch iáº¿n
Ġkom unika
ue lles
Ġelet tr
Ġcab o
Ġv ivre
ĠÑģÐºÐ°Ð· Ð°ÑĤÑĮ
ĠX X
ĠÐĽ ÐµÐ½
Ġin oltre
ad es
ĠÐ¿Ð¾Ñģ ÐµÑĤ
ãĥĢ ãĤ¤
cyj nej
Ġé ¢¨
Ġte k
iss ions
ĠçĦ¡ æĸĻ
Ġå¹ ħ
ĠIns titu
Ġg al
çĦ¡ ãģĦ
Ġãĥķ ãĤ©
est as
Ġorganis ation
Ġpre o
ĠÐ¤ ÑĢÐ°Ð½
ãģ«ãģ¨ ãģ£ãģ¦
ĠâĢľ .
Ġsp Ã³ÅĤ
Ġdiff icile
Ġcul o
Ġen car
ĠEur opej
Ġblei ben
Ġb ras
Ġob sz
é¤ Ĭ
Ð°ÑĤÐ¾ÑĢ Ñĭ
h ar
ĠSe gur
Ġresul tado
ĠÑĥÑĢÐ¾Ð² ÐµÐ½ÑĮ
Ġçī¹ ãģ«
ĠG old
Ġsmart _crop
Ð»ÐµÐ½ Ð½ÑĭÑħ
Ġal ma
ĠV en
Ġtrouv Ã©
ĠdÃ©f ini
ĠS ans
Ġsa c
ĠÑĥÐ» ÑĥÑĩÑĪ
ĠL ÃŃ
Ġv ec
Ġcu ir
ĠG Ã©n
Ġmar di
ĠÐļ Ð°Ð»
ak e
ĠÐĴ ÐµÐ´
ãĤ·ãĥ£ ãĥĦ
Ġæĸ ĩ
ĠÐ´ Ð¸Ñģ
ĠÐ²Ð¾Ð·Ð¼Ð¾Ð¶ Ð½Ð¾ÑģÑĤÐ¸
Ġbu on
Ġche min
ĠFe der
ĠÐļ ÑĥÑĢÑģ
Ð°ÑĤ Ð°ÑĢ
Ð°ÑĤ ÑĥÑĢÑĭ
Ġrec or
fin den
Ġconfi ance
Ġitali ana
ĠÃ© di
ard ia
Ġra zie
A P
Ġali ment
ĠÑĤÐ¸Ð¿ Ð°
Ġpomo cy
ãĥ¬ ãĥĥãĤ¯ãĤ¹
Ġmeille ure
Ġoccas ione
Ġnon e
ãģ¯ ãģĬ
ĠÐ¿ÑĢÐ¾ ÑħÐ¾Ð´
Ġèī ²
ãģĺ ãĤģ
Ġch ung
Ġg or
Ġï¼ ķ
æ¬² ãģĹãģĦ
åıİ ç´į
åĭķ çĶ»
Ġc olore
Ġgi us
ãĤĤ ãģĤãĤĬãģ¾ãģĻ
Ġcali ente
Ð¾ÑĤ Ñĥ
N z
Ġk urs
Ġman ten
Ġconten ido
Ġb l
Ġmil ieu
an Ã§as
osz ÄĻ
ĠÅĽ wiÄĻ
ĠH inter
Ġsupp lÃ©ment
ĠV Äĥn
Ġv as
Ġesc ort
ta ciones
ĠÐºÐ½Ð¸ Ð³Ð¸
Ġb á»ı
ĠÐ²ÑĭÐ³ Ð¾Ð´
un sch
letz t
ĠÐ² Ð°Ð»
ĠÐ¼ Ð¾Ð¹
ÑĥÐ´ ÑĮ
tto re
ĠG ior
AL I
Ġsti le
Ġzas ad
ãģ®å ¿
Ġo ben
ter min
ĠÑģÑĩ Ð°ÑģÑĤ
Ġ ä¼ļ
æ¨ ¡
Ġque da
Ġ7 9
ĠÑĢ ÑĥÑĩ
Ġda gli
Ġc olo
ĠWei hna
ĠS itz
Ġy eux
ĠÐ´Ð² Ðµ
ĠC O
Ġinter nacional
Ġse k
Â °
ĠM á»Ļt
ĠW ien
Ġinner halb
Ġso ciale
Ġcompr endre
ĠÐ½ ÑĢÐ°Ð²
ä¸Ģ ç·Ĵ
Ġgar anti
ãĤ¿ ãĥ³
æ±Ĥ äºº
ãĤ³ ãĥ¡ãĥ³ãĥĪ
ĠÐ° ÑģÑģ
Ġnau czy
ãĤī ãģĹ
ĠL OS
Ġre almente
ĠM ie
Ġnato miast
» çĶ¨
ĠL eit
Ã¤ hlt
ãģ®å £
Ġcomun icaciÃ³n
pp el
ÐµÐ¹ Ð½
Ġforma zione
ĠB and
Ġdess ous
c ych
ķ æĻĤè¨Ī
Ġãģķ ãĤīãģ«
Ġauto m
Ð°ÑĤ ÑĥÑĢÐ°
Ġtrabaj ar
fi ques
ĠÐĹÐ´ ÐµÑģÑĮ
ĠÑģÑĤ ÐµÐ¿
Ġincl uy
ĠAl so
å§ Ķ
sp ra
Ġal meno
Ġter enie
ĠL ib
Ã© is
ãĤī ãģĭ
ac to
ĠÐ¾Ð±ÑıÐ· Ð°ÑĤÐµÐ»ÑĮ
Ġn is
Ð°Ñı ÑģÑĮ
Ð¡ ÑĤ
ĠÐ¡ Ð¾Ð±
Ðľ Ðĺ
Ġba Ã±o
ĠAn al
ri co
å¾Į ãģ«
ann t
ĠÑģ ÐºÐ¸Ð´
te llo
ĠÐ² Ð¾Ðº
wi enia
m ir
Ġzosta ÅĤy
Ġor dre
ĠÐľ Ð¸Ñħ
ĠÐ¸Ð½ÑĦÐ¾ÑĢÐ¼ Ð°ÑĨÐ¸Ñı
ĠÐ¿Ð¾Ð´ ÐºÐ»ÑİÑĩ
ãĥ¼ ãģĮ
Ġwh ich
Ġa na
ĠÐ±Ð» Ð¾Ðº
Ġb om
Ð¾Ñĩ Ð½ÑĭÑħ
ĠÐ·Ð°Ð¼ ÐµÑĤ
ĠÐĳ Ð°ÑĢ
Ġspaz io
Ġvo ix
sch ul
Ġen vie
Ġche veux
Ġes prit
Ñĥ ÐºÐ¾Ð²
ĠÑĤÐµÐ± Ñı
Ðķ Ð¢
ĠÑĤÑĢÐµÐ± Ð¾Ð²Ð°Ð½Ð¸Ñı
Ġu waÅ¼
æ°Ĺ æĮģãģ¡
ãĥŀ ãĥ³
Ġs Ä©
ul os
ie g
Ġin no
ĠFranÃ§ ois
par er
Ġval uta
æ ĳ
ĠJahr es
Ġcli enti
éĿ ©
ĠS ig
te ca
ĠÐ° Ð¼
tar Ã¡
Ġproces sus
Ð¾Ñħ ÑĢÐ°Ð½
Ġre te
Ġh om
æĻĤ ä»£
Ġcu id
ĠÐĴ ÐµÐ»Ð¸Ðº
x is
Ġindi ca
Ġroz m
7 æľĪ
ĠW eiÃŁ
ĠII I
Ġelekt ry
Ġd iá»ħn
rei bung
ĠmÃ¶ chten
Ġpro c
tor Ã³w
res as
ĠP RO
Ġpes ar
Ġcaus a
æľĢ é«ĺ
ĠStu d
Ð»Ð¸ ÑĪ
n owa
ĠÐ´ ÐµÑĢÐ¶
ĠÑĪÐ¸ÑĢ Ð¾Ðº
Ġdur Ã©e
om oÅĽÄĩ
ĠÑįÑĤ Ð°
Ã ľ
kle id
arbeit ung
Ġ7 6
Ġf rÃ©
N D
t wa
et h
å¸ ³
å¤ ı
ĠÐŁ Ð¾ÑĤ
usz cz
ĠÐľ Ð¾Ð¶Ð½Ð¾
è£½ åĵģ
ĠÐĴÐ»Ð°Ð´Ð¸Ð¼ Ð¸ÑĢ
Ð¾Ð¹ ÑĤÐ¸
er ia
p ia
ĠIn nen
¹ æŀľ
Ġ5 C
Ġid Ã©es
L I
Ġcolla b
ĠÑĥÑĩ ÐµÑĤ
ĠS co
ĠÐ¢ ÑĥÑĢ
ori es
graf ia
éĢģ æĸĻçĦ¡æĸĻ
ãģĭ ãĤĤ
åı ¸
Ġf ina
Ġsch a
Ġf ru
Ġer war
Â ¾
Ġk iá»ĩn
Ġarri ve
ĠwzglÄĻ du
ãĥ³ãĤ «
Ġ6 9
ĠcompÃ© ten
op Ã¤
Ġsuc cesso
Ġf amos
Ġch anger
f Ã©
Ð¾ Ð¸
Ð½ Ð¾Ðº
Ġsmart_crop _
ĠÐ¿ Ð¸ÑģÑĮ
Ġje Å¼eli
ãĥ¼ãĥĩ ãĤ£
Ġpeti tes
ĠÐ½ÐµÐ´ Ð²Ð¸Ð¶
Ġprodu ktÃ³w
Ġpod rÃ³Å¼
ãĤŃ ãĥ¥
ĠÐ¿ Ð¸Ñī
Ġv illage
Ġsp etta
:. :.
èģ ´
äº¤ æıĽ
Ġcommer ce
Ġv amos
ĠNue vo
z us
ma il
Ġpar ole
Ġè ģ
Ñģ ÐµÐ´
Ġæ ī
ĠGrand es
Ġa socia
om as
re iche
Ġstag ione
ãĥ´ ãĤ£
Ġg auche
ĠÑį Ð¿
ĠåĪ ©
ĠPor te
va ge
Ġéĺ ²
Ġp anta
ĠÐµ Ð¹
ï¿ £
æ¸ ¯
Ġoportun idad
ÑĢÑĥ Ñĩ
g anis
ĠÑĤÐ°Ðº Ð¾Ð³Ð¾
Ġnad ie
u it
ĠÐ¡Ð¾Ð¾Ð±Ñī ÐµÐ½Ð¸Ðµ
Ð¾Ñĩ ÑĮ
Ġah ÃŃ
ver si
Ġho je
Ġï¼Ł ãĢį
æ ¿Ģ
Ġt Æ°á»£ng
ne o
ri m
Ġchac un
ĠÑĥÑĢÐ¾Ð² Ð½Ñı
Ġlegg ere
Ġpas a
ĠFace book
tor ial
Ġal re
Ġrecon na
Ġ\": [
i ÅĤ
Ġcon cl
ãĤ« ãĥ«
Ġposi zione
Ġava ient
ĠÐĲ Ð·
ĠçĽ ´
az zo
Ġtro ppo
Ġhel fen
ãĤĴ åıĹãģĳ
Ġco in
wia jÄħ
ĠÐ² Ð¸Ð·
zei tig
ich ter
uy áº¿t
Ġass ol
Ġdiff er
Ġj as
Ġs ola
Ñĭ Ñģ
ĠÐ¼ÐµÑģÑı ÑĨ
Ġhi jos
ĠÐ²ÐµÑĢ Ñħ
Ġcabe za
f y
ãģĦ ãģ¯
Ġer z
ãģ ¬
Ġcor ri
ct ures
ato ire
Ñİ ÑĢ
åĲį çĦ¡ãģĹ
Ġè ¥¿
Ġtet onas
Ġman os
Ð¾Ð¿ Ð¾Ð»
Ġpop ular
ĠLie be
ĠC olle
ãĤĪ ãģĦ
ĠrÃ©pond re
ĠP aul
Ã¨ tre
ĠDÃ©c ouv
il Ãł
ãģĦ ãģ«
Ġam Ã©
Ġn utzen
Ð¸Ð½Ð³ Ð°
ĠÐ²Ñĭ ÑģÑĤÐ°Ð²
Ġal b
ĠTr Ã¨s
or mais
ma i
Ġdi men
ĠGo ogle
Ġma il
ĠÐ¼ÐµÑģÑı ÑĨÐµÐ²
Ġt elÃ©fono
ĠgehÃ¶r t
ĠÐ± Ð»Ð¸Ð·
Ġm ur
Ġasso ciation
Ġå ĵģ
çª ģ
Ã® te
Ġman que
ĠÐ´ ÑĢÑĥÐ·
Ġsali r
Ġk siÄĻ
Ġm uestra
Ã¢ te
ĠM undo
ĠdÃ© partement
ne lles
ĠÐ´ ÐµÑĪ
Ġvá» ĩ
Ġpres encia
ĠVer kauf
ĠEnt wicklung
Ġe vid
Ġdar f
Ġg Ã¼nstig
AN O
Ġo v
ĠÐ²Ð¾Ñģ ÑģÑĤÐ°Ð½Ð¾Ð²
Ġn owy
ãģ®å ·
ĠSal ud
mit t
Ãª tes
Ġsi g
ĠÐ° Ð·
Ġap lika
Ġper mis
Ġãĥ Ħ
Ġges am
ĠÑģÐ¾Ð± Ð¸ÑĢ
Ġlu ce
M T
Ġznale ÅºÄĩ
Ġt inh
ĠãĥĿ ãĤ¤ãĥ³ãĥĪ
éł Ĩ
zy j
ĠÐ½Ð°Ð¿ ÑĢÑı
ĠÐºÐ°Ð¿ Ð¸ÑĤ
ĠÐ· Ð°Ð¹
ĠÐ¾Ð¶ Ð¸Ð´
Ġc idade
éĸĭ åĤ¬
ie gel
c n
ni Äĩ
bind ung
ĠS ar
ÐµÐ½ ÑĨÐ¸Ð¸
ĠÑģÐµÑĢÐ² Ð¸Ñģ
Ġsema ines
ĠÐ± Ð¸Ð»
va te
Ġg amme
è¨ ±
ie ment
Ġgar ant
ĠJ ac
Ġvol on
Ġle cture
Ġlá» £i
ĠZ arz
Ġk ennen
Ġcontra t
Ġtr ou
cz or
ÐºÐ¾ Ðµ
ĠÐ¾ Ñī
Ġpres enza
ti quetas
Ġreci bir
Ð¿ÑĢÐµÐ´ ÐµÐ»Ñı
r Ã¡n
cie j
ag t
Ġsu ivre
Ġentre tien
ĠLo cation
L e
Ġcro is
Ð» Ð¾Ðº
F F
Ġma gni
ĠJ us
ĠÐ° ÑĥÐ´
Ġve h
H Ã´tel
AN D
Ġpl as
Ġhi ver
ĠÐµ Ð´
Ġsch e
Ġpo is
Ġm Ã³w
ä¼ Ĭ
ãĤĴèªŃ ãĤĢ
Ġkh iáº¿n
Ġu tenti
Ġè¿ ĳ
di gen
ĠÅĽrod owis
ĠAc qu
cch io
çģ «
ur re
ĠJ ob
ĠStra ÃŁe
Ġpom i
Ġgra ph
na ges
ten u
Ð½ ÐµÑģ
N Y
Ġsam ym
z ca
ĠE u
ni o
Ġl Ã²ng
Ġgef unden
Ã© cu
Ġm obile
Ã© ment
ĠÑĩÑĥÐ² ÑģÑĤÐ²
it an
Ġpyt anie
Ġpor Ã³w
Ð°Ð½ Ð°Ð²Ð»Ð¸Ð²
Ġqu attro
ĸ ç¸Ħ
ãģ®ä¸Ń ãģ§
Ġinforma Ã§Ãµes
Ġho a
ĠS ym
tu al
b ution
tr odu
ich tet
Ð¸ ÑĨÐ¸
æ¨ Ļ
tar se
setz ung
an nage
Ġmoy enne
Ġjou er
ĠÐ¯ Ð½
ĠÐ¼Ð½ Ð¾Ð¶
lie ÃŁen
de aux
ĠmÃª mes
ĠD al
ĠÄĳ á»§
ĠC ab
ãĤĵãģ§ ãģĦãĤĭ
ĠRÃ© pondre
ĠÃ©v iter
Ġa gen
pr Ã¤
ĠÐ» Ð¾Ð³
Ġdzie cka
ow ano
Ġgay s
Ã¡n dez
ĠprÃ¡c tica
Ġcontro llo
æ´» åĭķ
Ġma j
f rage
Ġi hnen
Ġplu part
ĠÐ² ÑĢ
Ð³ Ð¾ÑĢÐ¾Ð´
ĠÐ¿ÑĢ ÐµÑģÑģ
Ġdi rei
ĠÄĳá» ©
ĠÐ¿ÑĢÐ¸Ð¾Ð±ÑĢ ÐµÑĤ
Ġan uncios
do ba
Ġmater ial
tag s
Ġac ciÃ³n
ĠCono cer
ĠÑģÐ°Ð¼ ÑĭÐµ
Ġhi jo
Ġsi ano
tycz na
Ġener gÃŃa
ĠÐ¿ÐµÑĢ ÐµÐº
rÃ¤ ge
glie der
Ġprim eiro
ĠczÅĤ on
ĠSe e
ĠOdpowie dz
Ġb rz
Ġroz um
æ³ Ĭ
Ġdi ritto
Ġab out
bo ten
ĠÐ¾Ð±ÑıÐ· Ð°ÑĤÐµÐ»ÑĮÐ½Ð¾
Ġfi zy
Ġf at
ter iores
ĠN ur
Ð°Ð± Ð¾ÑĢ
ĠÐ¿ÑĢÐ¾Ð¸Ñģ ÑħÐ¾Ð´Ð¸ÑĤ
ĠW ita
R p
Ġu ch
ĠA ktu
Ġn igdy
Ġub ic
rei b
olo gna
ĠÃ¼ b
Ġdni u
Ġcontin ua
Ġph im
Ġw ei
ĠN ies
ĠTr as
ĠÐ´ Ð¶
ãģª ãģ®ãģĭ
Ġbu ona
Ã³ rio
Ġsytua cji
® ®
Ġgen era
k lus
al le
èĢħ ãģĮ
ĠÑĤÐµÐ» ÐµÐ²
Ġp li
rz ym
c ode
ĠfÃ¼ hren
ĠPubblica to
Ġv uole
ber to
Ġlib ros
Ġso ciaux
Ġpas sion
Ġper corso
ĠT P
Ã¹ a
ord as
Ġd ado
Ġte x
dz Äħ
iss ons
ĠÑģÐ°Ð¼ Ð¾Ð¼
ĠÐ¡ Ð»ÐµÐ´
Ð¾Ð² Ð¾Ðµ
Ġazien de
ess ione
ãĥĳ ãĥ¼ãĥĪ
ĠÃ©tablis sement
ĠÑĤÐ°Ðº Ð¸Ð¼
ĠKom p
è¨ º
ĠNÃ¤ he
Ġpres se
Ġe vent
ak Ã³w
è¬ Ŀ
Ġac ciones
Ġm eio
Ġtr ady
ne ments
Ġatten zione
ort es
ĠÐŀÑģ Ð¾Ð±
ãĥª ãĥ³ãĤ¯
ãģ®ãģ§ ãģĹãĤĩãģĨ
Ð¸ÑĤÐµÐ»ÑĮ Ð½Ð¾Ð¹
Ġries go
ĠEs sen
ĠÐ¡ ÑĤÐ¾
n arod
ĠÐ½ÐµÐ¼ Ð½Ð¾Ð³Ð¾
éĩį è¦ģ
Ġconstru cciÃ³n
ib lio
Ġf Ã©
ĠA vis
Ġpro chain
ap on
ach sen
ĠÐ·Ð° Ñħ
ĠPeli culas
ru p
Ã¤ f
Ġdispon ibili
ÐĽ Ðĺ
ĠÑĤÑĭ Ñģ
ĠÐ½Ð°Ð´ ÐµÐ¶
ÑĥÐ±Ð»Ð¸ ÐºÐ¾Ð²Ð°Ð½
ĠÑĤÑĢÑĥ Ð´Ð°
ĠÐ¿ÑĢÐ¾Ð¼ ÑĭÑĪÐ»ÐµÐ½
Ġorgani za
ĠI mm
ĠÑģÐ¾Ð² Ð¼ÐµÑģÑĤ
ĠEinz el
ĠTor ino
Ġb ianco
cess ori
Ġpre cedente
ÃŃ amos
ĠÐºÐ¾Ð¼ Ð¼ÐµÐ½ÑĤÐ°ÑĢ
Ġk wo
Ġdru gi
ĠPros titutas
iv il
ĠÐĴÑĭ Ñģ
ĠÐ¿ÑĢÐ¾ ÑıÐ²
åħ ¸
anti l
Ġb Ã©
Ġim Ã¡genes
ĠÐºÐ¾Ð¼Ð¿ÑĮÑİÑĤ ÐµÑĢ
Ð± Ðµ
ĠNh á»¯ng
Ð¸ÑĤ ÐµÑģÑĮ
Ã¡ri as
tow ania
Ġåı İ
Ġedu caciÃ³n
ĠDies es
Ġcomp let
YW x
rze w
ĠâĢ¦ âĢ¦
èĭ ±
z uf
Ġa men
ĠÑĢÐ°Ð¹ Ð¾Ð½Ðµ
I RE
Ġpe au
Ġfour ni
Ġex ception
ĠdÃ©cis ion
te i
ĠÐŀÑĤ Ð·ÑĭÐ²
ĠÐ¿ÑĢÐ¸ Ð³Ð¾ÑĤÐ¾Ð²
ĠS neak
Ġtor na
blo ck
Ġz byt
ig es
Ġh ors
ĠK iedy
Ġfor se
ĠszczegÃ³ÅĤ owo
ÅĤ oÅĽÄĩ
wid ual
ister io
ĠÐ¿ ÑĭÑĤ
ãĥª ãĥĥãĤ¯
Ġes as
fe hl
î Ģ
Ġreg ard
ĠAch eter
ĠO fer
ĠB itte
h inder
Ġrela tion
ĠM u
ãģ£ ãģıãĤĬ
Ġäº ¬
Ġtit le
ãĤĤãģ® ãģ§ãģĻ
ĠM ur
Ġcambi ar
Ġrac col
gr ani
ĠC l
ĠV ill
Ġmuch a
Ġnature l
Ġrappres ent
ra ca
ast ÄĻp
Ġtu vo
Ġsui vi
ges amt
ĠHÃ¶ he
Ġrecom mand
ÑĢÐ¾Ñģ Ð»
ĠÐ¿ÑĢ ÐµÐ¶
Ġeuro pe
Ġmach ine
ĠÃ© po
ĠI t
Y S
Ġbezp oÅĽ
ç¤¾ ä¼ļ
ãĥĥ ãĤº
è©ķ ä¾¡
u tet
u 04
AN T
Ġ5C u04
Ġb leu
Ã´ me
ĠÐ¿Ð¾Ð· Ð´
p end
ko ÅĤa
ĠÐ¿Ð» Ð¾Ñħ
ce m
åħĪ çĶŁ
ãģªãĤī ãģªãģĦ
Ġe mer
ĠÐºÐ»Ð¸ ÐµÐ½ÑĤ
ĠÐ¸ÑģÐ¿Ð¾Ð»ÑĮÐ· Ð¾Ð²Ð°Ð½Ð¸Ñı
Ġwy ÅĤÄħ
ÐµÐ´ ÐµÐ½Ð¸Ñı
æĸ½ è¨Ń
Ġje dem
es tiv
ĠÐ² Ð¿ÐµÑĢ
\\\\\\\\\\\\\\\\ \\\\\\\\\\\\\\\\
ĠD O
Ġw ej
ĠZu kunft
Ġimp i
Ġmode llo
Ġk iáº¿n
Ġrapp orto
Ġer fol
Ġ' ).
æĿ± äº¬
æĦı åĳ³
ĠM es
iss u
li quer
ĠLe hr
Ġin stru
Ðł Ðħ
ĠÐŁÐ¾Ñģ Ð»ÐµÐ´
les e
ĠÃĸ sterreich
ĠB ur
ĠÐľ Ð¾Ð´
Ð½Ð°Ð· Ð½Ð°Ñĩ
Ġda ÃŁ
ass ung
Ġre qu
Ġlo gement
Ð°Ð½ Ðµ
Ġderni Ã¨res
ĠBar dziej
Ġpow odu
Ġterm ine
Ġent fern
ãģ¯ ãĤĬ
ãģĬ ãģĻãģĻãĤģ
è¨ İ
ĠM uy
8 3
... ]
h 00
ĠprÃ© sence
ĠÐ½Ð° ÑĨÐ¸Ð¾Ð½
ãĥª ãĤ¹ãĥĪ
ĠC ub
ad er
Ġcol lection
iv es
re ment
CI ÃĵN
Ġj ur
ĠSe gÃºn
Ġãģ µ
åĮ ħ
Ġe cce
Ġzdo by
ķı é¡Į
ĠgiÃ¡ o
ĠGes ellschaft
Ð¾Ð² Ð°ÑĤÑĮÑģÑı
ĠW est
Ġcu ore
ĠTele fon
ĠEro ticos
Ġmuer te
Ġg re
ĠÐ¿ ÐµÐ½Ñģ
ĠÐ´Ð¾ÐºÑĥÐ¼ ÐµÐ½ÑĤÐ¾Ð²
ĠS mart
ĠÐ¿ Ð°Ð»
ĠS lo
ĠAu gen
Ġæ¨ ª
ĠåĲ Ħ
Ġsuper ior
ãĤı ãģªãģĦ
ĠL yon
Ġpossi bilitÃ©
Ġver wend
å¯¾ çŃĸ
era it
ĠÐºÐ¾ÑĢ ÑĢ
ĠÐĳ ÐµÑģ
ãĤ·ãĥ§ ãĥĥãĥĹ
ãģ«ãģĬ ãģĳãĤĭ
ĠÐ¾ÑĢ Ð¸Ð³Ð¸Ð½
Ġco che
ĠV enezuela
ĠÐ¼Ð°ÑĤÐµÑĢÐ¸Ð°Ð» Ð¾Ð²
ĠÐ²Ð»Ð°ÑģÑĤ Ð¸
Ġd r
Ġdro ite
Ġpierw sze
Ġæ¥Ń åĭĻ
ãĤ¤ ãĥĹ
ĠFran cis
Ġrela ted
è¨ ª
ch os
ĠUS A
ĠÐĿ ÐĲ
ĠÐ¿ÑĢ Ð¸ÑģÑĤ
ĠÐ¼Ð½Ð¾Ð³ Ð¸Ñħ
ĠE d
C h
Ġforma t
ÃŃ lia
Ġb Ã¡
Ġgener ale
ĠS onn
ĠApp ar
ri c
h 30
Ġco eur
ĠNouve au
ĠW h
Ġpermet tre
ĠWeb site
ĠÐ² ÐµÐ»
ãĥģãĤ§ ãĥĥãĤ¯
æĬ ķç¨¿
ãģĹãģ¦ ãģıãģłãģķãģĦ
ĠÐ°Ð²ÑĤÐ¾Ð¼Ð¾Ð± Ð¸Ð»Ñı
ĠCz as
Ġmar iage
Ġ. :
Ð°Ð¼ ÐµÑĤÑĢ
ĠÐŁ ÑĥÑĤ
Ãĩ ÃĥO
Ġdei x
olesc entes
di miento
ĠBewert ung
Ġza hl
ĠrÃ©f Ã©rence
Ġmar che
Ð¾Ð·Ð¼Ð¾Ð¶ Ð½Ð¾
rÃ³ t
Ġproje k
ãģŁãģı ãģķãĤĵ
ĠB our
ĠgÃ©nÃ©ra le
ĠÑģÐº Ð¾Ð»ÑĮÐºÐ¾
Ġdis se
Ġju gar
ĠÑģÐ¼Ð¾Ð¶ ÐµÑĤÐµ
åº Ń
Ġrec ord
prasz amy
Ġin nymi
ÑĤÐ¸Ðº ÑĥÐ»
Ð¾Ð¹Ð´ ÐµÑĤ
Ġtá»« ng
ĠWohn ung
ãģ¾ ãģ£ãģŁ
Ġ[ ...]
te mps
Ġm and
Ġpri mi
ĠLa uf
Ãĵ W
ni j
Ġca tegor
ĠÐ¾Ð±ÑĢÐ°Ð· Ð¾Ð²Ð°ÑĤÐµÐ»ÑĮ
1 l
Ġpra kty
ãģ® ãģĵãģ¨
ĠD ach
k reis
ĠÐ°Ð² ÑĤÐ¾
Ñĩ Ð¸ÐºÐ°
ĠE ing
Ġpubli que
ĠÐ´ÐµÐ½ ÐµÐ³
ĠFamil ien
Ġ15 0
ĠÐĶ Ð¸
Ġan ty
wi ce
rÃ³ b
Ġesta d
Ġpres que
ĠÐ½Ð°Ð± Ð»ÑİÐ´
m ette
æĤ ©
ãģ®åĲ į
er zy
ĠS c
lla re
¡ ng
ĠÐĽ ÑĥÑĩÑĪ
ĠÐ² Ð¾ÑģÑĤ
vi mento
ĠrÃ© gi
l mente
Ġd wie
ĠM A
Ġasso ci
Ġæľ Ŀ
f ung
x ito
Ã¤ mp
ãģª ãĤĬ
all er
Ġedu ca
Ġdur ant
tu je
Þ ¨
ĠNh Ãł
ĠAnt wort
Ġou tras
ge w
Ã¨ ve
ĠA less
ĠÐ¿ ÑĥÐ±Ð»Ð¸
ie za
Ġno te
Ġw ÄĻ
rie ure
ĠÐłÑ ķ
Ð°Ð» ÑĥÐ¹
ĠÑģ Ð¸Ð´
ĠBus car
ĠAnton io
Ġpel ÃŃculas
Ġswoje go
Ġch uyá»ĩn
bar en
Ġ20 00
r ons
Ð°ÑİÑī ÐµÐ¹
Ġmet ros
Ð°Ð½ Ð´Ð°
Ġatra k
Ġforma ciÃ³n
Ġnego cio
Ġben Ã¶
ita ire
ĠdÃ© mo
Ġconten u
Ð¾Ð²Ð°Ð½ Ð¸ÐµÐ¼
ĠMar ia
d ale
Ġob bli
amer ic
Ġragaz zi
Ġs od
ĠQu ando
tow anie
ãģ¤ ãģĭ
ĠCh ine
Ġop ciones
åį ³
éģİ ãģİ
Â ¢
á» ģ
Ð° ÑīÐµ
Ġor y
ãģŀ ãĤĮ
ĠD ir
ĠEnt scheid
Ã¡ l
Ġwy j
Ġucz ni
ĠÐĿ Ð°Ð·
ĠÐľ Ð°Ð³
ĠÑĤÐ¾ÑĢÐ³ Ð¾Ð²
col es
Ġéĸ ĭ
ĠrÃ© c
om ma
ON I
Ġrichies ta
Ġbe kom
Ġ48 95
owanie m
ĠL uft
Ġre mar
Ġsou ff
Ġpr eno
ieni u
ãĤ ħ
Ġãĥķ ãĤ§
Ġc Äĥn
ĠÐ·Ð°ÑĤ ÐµÐ¼
Ġum o
ãĥŀ ãĥĥãĥĪ
Ġpa go
Ġob ras
Ġlaiss er
ti me
ĠÑĥ Ð¿ÑĢ
ĠçĶ· æĢ§
ãģ¨ãģª ãĤĬãģ¾ãģĻ
ĠÑģÐ¾ÑģÑĤÐ°Ð² Ð»ÑıÐµÑĤ
ÐµÐ½ÑĮ ÑĪÐµ
Ġ] .
Ġparticu liÃ¨rement
Ã¼ ler
L A
ĠP OR
Ġ2 F
Ã¡ tico
je un
Ġjed nej
ĠUn sere
Ġav uto
Ġãģ¡ ãĤĩãģ£ãģ¨
ãĥĽ ãĥ¼ãĥł
Ġå¸ Ĥ
ge gen
Ġ6 6
Ġven ir
Ġti me
Ġres to
Ġaus ges
ĠA si
Ġamp lia
Ġ `
è¦ĭ ãģ¦
Ġnu its
Ġfilm s
w Äħ
ãĥ¼ ãĤĴ
ĠS onnen
Ġprze my
Ġcur so
Ġweit eren
Ġutilis Ã©
Ġc á»Ńa
Ġgru pos
ĠÐ¾Ð±Ð½ Ð°ÑĢÑĥÐ¶
Ġdeutsch en
ãĥ³ãĥĨ ãĤ£
zza ti
Ġpra wie
ĠB lo
ĠH el
lis ch
c cion
ĠA unque
Ġtito lo
Ġsc Ã¨ne
ĠS Äħ
Ð½Ð¾ ÑĪ
ĠCam p
çļĦ ãģ«ãģ¯
Ġsta te
ÅĤa ty
ĠS zy
ĠR ady
Ġmat ch
ĠÑĥÑĩ ÐµÐ½
Ġac onte
k Ã³ÅĤ
ĠÄĳ Äĥng
ĠEx per
Ġlie gen
Ġh ub
ĠÑĥ ÑħÐ¾Ð´
ĠÐ¿ÑĢ Ð¾Ð¶
å¤ ®
Ġm obil
ĠK ran
al az
ĠB oden
Ġc Ã©
Ġsen si
Ġzgod nie
ĠÄĳ a
Ġat tes
Ġsyste mu
ĠAn fang
åĽ °
w endi
ĠÐĴÐ¸Ð´ Ðµ
ĠÐ¿Ð¾ÑģÑĤ ÑĢÐ¾
Ġæµ· å¤ĸ
tag on
Ġappar tamento
Ġprac ÄĻ
Ġ{ "
ãĥ¯ ãĥ¼ãĤ¯
Ġdo ÅĽÄĩ
utz t
Ġp ur
ĠÑĢÐ°Ð¼ ÐºÐ°Ñħ
cor r
Ġmed idas
or itÃ©
ãģ®æ Ī
Ġh iá»ĥu
Ġest Ã©
ĠCu ir
ĠA insi
Ð¸Ð» ÐµÐ¹
Ġ4895 150
Äħd Åº
Ġjp g
Ġcompr end
ia ÅĤy
Ġnor mal
ĠÐ´Ð¾Ð² Ð¾Ð»ÑĮÐ½Ð¾
Ġb aja
Ġoffer ta
ic ul
ID AD
Ġama teur
Ġacer ca
ion ale
Ġrodza ju
Ðļ Ðŀ
Ð¡Ð Ĥ
ĠÑģ Ð½Ð¸Ð¼
Ġpla te
ĠWar to
Ġm icro
Ġå »
Ġfr ance
ĠdÃ© li
Ð¸Ð´ ÐµÑĤ
Ġrepres enta
Ġsz cz
Ġpres tamos
al u
ĠY ou
vol uciÃ³n
ent lichen
ĠÑģÐ°Ð¼ ÑĭÐ¹
is is
Ġfaci lement
Ġfor za
â Ī
Ġg rid
_ id
Ġåģ ½çī©
çĽ ¤
ãģ»ãģĨ ãģĮ
ãģĭãĤī ãģ®
da ten
ĠP on
Ġt Ãªn
Ð¾Ð´ ÐµÐ¹ÑģÑĤÐ²
ista d
Ġin cor
Ð¸ÑĤÐµÐ»ÑĮ Ð½Ð¾Ð³Ð¾
ãĤ¸ ãĥįãĤ¹
Ġprof ission
na j
s ung
ĠãĤ³ ãĥ¡ãĥ³ãĥĪ
Ġèµ ¤
Ġmein em
Ġdire ct
ĠPri ma
ĠÄ ĩ
wach sen
Ġauto matique
Ð°Ð½ Ð³
ĠT ar
ĠMi esz
æ¤ľ ç´¢
Ġn etto
Ġa tiv
dzia ÅĤu
Ġâ Ķ
æ³¨ æĦı
ĠD ig
ĠHam burg
Ġens eigne
Ġchange ment
ĠSo cial
ĠMig uel
Ġreci b
ĠMilli onen
ĠI T
vis o
Ġnowo czes
Ġvier nes
Ġes f
Ġvo i
ow od
ãģ¯ ãģĵãģ¡ãĤī
è¬ Ľ
Ġen or
Ġ) )
Ð¾Ð´ Ñĥ
ãģĬ é¡ĺãģĦ
ãģ®æ ´
gl ise
Ġelekt roni
Ġlu dzie
Ġtr uyá»ģn
ACI ÃĵN
ĠprÃ³xi mo
pe z
Ġse an
Ġis ol
Ġassur er
èª ²
Ġulti mi
Ġ7 4
o ir
Ġm Ã¨re
ÑĥÑĪ ÐºÐ¸
ÑĥÑİÑī Ð¸Ñħ
s Ã©
Ġzei gen
ãĥª ãĥ³
ĠM Ã¼
Ġeinz el
Ġmes ures
ĠÑģÐ¼ ÑĭÑģÐ»
ĠciÄħ gu
ĠÐŁÑĢ Ð¸Ð¼
ĠÐ¿Ð° ÑĨÐ¸
Ã¼n st
ubli que
Ġor o
ou x
ia Ã§Ã£o
tÃ© ra
ĠÐºÐ°ÑĩÐµÑģÑĤÐ² Ð¾
ĠPri mer
ĠÑģÐ¿Ð¾ÑĢÑĤ Ð¸Ð²
ĠÑģÐµÑĢ Ð¸Ð¸
ĠÐ¸Ð¼ ÑĥÑīÐµÑģÑĤÐ²
ĠH D
ÑİÑī Ð¸Ñħ
Ġno tte
çĻº è¡¨
Ġero ticos
Ġclas e
Ġpro cha
ĠÑĥÐºÑĢÐ° Ð¸Ð½
ĠÑĥÐ·Ð½ Ð°ÑĤÑĮ
Ġnos so
h aupt
ĠH aute
am ing
IL LE
ĠM ain
Ġi P
ĠM ac
ĠÐ¾Ð´ Ð½Ð°ÐºÐ¾
ites se
Ã¡b ado
ĠO g
Ġt ierra
ĠSte uer
ĠG as
Ġpo chi
Ġav al
ĠÐ° Ð¼ÐµÑĢÐ¸ÐºÐ°Ð½
owa li
Ġãĥĸ ãĥ«
Ġimmag ini
Ġde pois
å¡Ĺ è£ħ
Ġbef ore
éĿ Ĵ
il b
am or
Ġr ub
Ġpeque Ã±o
ãģĤãĤĬãģĮ ãģ¨ãģĨ
åĽ Ľ
ĠFre und
ÐµÐ¼ Ð°ÑĤ
ĠÐº Ð¾ÑģÑĤ
Ġæ Ľ
ç¹ Ķ
Â «
Ãª ng
Ġten ido
ĠL ang
Ġbo ok
ĠH igh
Ð¾Ð³ ÑĢÐ°Ð´
ĠÐ¿Ð¾ÑĤ ÐµÑĢ
k niÄĻ
ĠBo ok
tre ten
7 3
Ġpour su
Ġprod ut
ĠB ianco
Ġconse gu
ĠHa ce
ac ciÃ³n
ĠÐ¿Ð¾ ÑĪ
ĠÐ³ Ð¸Ð¿
Ġcal me
ĠvÃ©ri table
ar za
Ġco le
Ġabs ol
Ð¶ ÐµÐ½Ð¸Ñı
ç«ĭ ãģ¡
ĠOri gin
ĠÐ¿ÑĢÐ¾Ð²ÐµÐ´ ÐµÐ½Ð¸Ñı
lic ÃŃa
ĠU p
l am
ĠÐ¿Ð¾ ÑģÐº
f r
ĠZ ent
Ġqu ad
Ġpoli tiques
Ġd ys
Ġou b
ĠÐ¾Ð´ Ð½Ð¸Ð¼
ĠãĤ¯ ãĥ©
ĠÃ¡ rea
ere ch
ĠB is
Ġc á»ķ
richt ung
ĠzwiÄħz ku
ç Ŀ
Ġfait es
Ġrespons able
cie ux
Ġsitu azione
le y
, ,
Ġal o
geb ung
Ġpos te
æĮ ¯
g he
ter y
Ġce lles
ĠÐ·Ð°Ð¿ ÑĢÐ¾Ñģ
ÐµÐ² ÑĭÑħ
Ġï¼ ľ
Ġæĸ Ļ
ĠãĤ·ãĥ£ ãĥįãĥ«
ãģĦãģŁ ãģĦ
ãĤ· ãĤ¢
ĠAf rique
ĠVer kehr
ll y
Ġsind a
ĠÐ¦ Ð²ÐµÑĤ
ĠÐľ ÐµÐ´
Ġord ine
ĠÐ¿ÑĢ ÐµÐ¼
Ġsigui entes
Ġof ertas
Ġbus cando
ĠSe g
ĠI S
at ung
Ġk ur
ĠÐ´Ð°Ð» ÐµÐµ
fi ci
ĠKh Ã´ng
es zy
Ð°Ð½ Ð¸
w Ã¼r
Ġc inÃ©
ãģ®è© ±
Ġress ources
Ãª che
Ġwe ek
z Ã¡
Ġcar go
Ġso ient
ĠÐ½ ÐµÐ»ÑĮÐ·Ñı
ĠÐºÐ¾Ð¼ ÑĦÐ¾ÑĢÑĤ
ĠDa ta
ti ene
ÅĤ os
ĠÑĤÑĢÐ°Ð½ Ñģ
è« ĭ
ig t
Ġag ora
Ġneces idad
Ġza g
Ġfuer za
ei le
ĠÐ¿ÑĢÐ¸Ð² Ð¾Ð´
Ġp uoi
ĠskÃ³ ry
Ġg Ã³r
ĠNe lla
Ġmá» Ĺi
Ġch ance
ĠÐ³Ð¾Ð²Ð¾ÑĢ Ð¸ÑĤ
Ġte mas
ĠD ort
ĠS et
ir t
Ġgan ze
ĠspÃ© cial
ĠÐ¡ Ð²ÐµÑĤ
ĠÐ¼Ð¾Ð´ ÐµÐ»ÑĮ
Ðº ÐµÑĤ
Ġpla ya
ĠÑĨÐ¸ ÑĦ
Ġedi ciÃ³n
ĠÐ½Ð°ÑĪ ÐµÐ³Ð¾
ĠÐºÐ¾Ð¼ Ð¸ÑģÑģ
ĠãĤĪ ãĤĬ
ĠS elon
ĠÐºÐ°Ð¶Ð´ Ð¾Ð³Ð¾
Ġre gi
ĠGe bur
ĠÐ¸ÑģÐ¿ ÑĭÑĤ
IC A
+ []
ĠE cco
ha ft
Ġv arie
owan ej
ĠÐ¿ÑĢÑıÐ¼ Ð¾
ãģ¤ ãģ®
ĠÄĳá»Ļ i
de ck
Ġty s
OW E
wa ÅĤy
Ġimport antes
ĠMa terial
Ã´ ne
Ġpraw dzi
ãĥ³ãĥ ĵ
ring t
Ã¨ ce
ĠÐ¿Ð¾Ñģ ÐµÐ»
ĠÐ»ÐµÐº Ð°ÑĢ
ĠÐĿ ÐµÑĤ
m ini
ĠÐ¼Ð°ÑģÑĤ ÐµÑĢ
Ġpra tica
ä¸Ģ è¦§
ãĥĳ ãĥ³
ãĥ« ãĥ¡
ĠK reis
ĠÐļ Ð¾Ð½ÑĤ
ĠÐ°Ð²ÑĤÐ¾Ð¼Ð¾Ð± Ð¸Ð»ÑĮ
li d
Ġpad re
uch te
f ie
è§ Ĵ
Ġcorres pon
ilb ao
Ġencu entro
Ġkli entÃ³w
G B
ĠBa um
wir tschaft
ĠT ec
met ros
Ġoczy wiÅĽcie
åħ ļ
ĠÐŃÑĤ Ð¾ÑĤ
Ġtakie go
a ben
Ġpowin ien
ĠTag es
alis i
Ġes sen
Ġod b
Ġsex ual
Ġdi o
ĠåĮĹ æµ·éģĵ
éģ ł
Ġobie ktu
sze ch
ĠÐ² Ð¸ÑĤ
Ñĭ Ð¿
Ġqu áº£n
Ġarri vÃ©e
Ġambi ente
Ġconj unto
Ġc ita
t Ã³n
ĠÐĵ Ð¾ÑĢ
ĠÐ³ ÑĥÐ±
Ġpos sa
åĪ Ĺ
p Z
Ġogr om
Ġusu ario
ĠÐ¾ Ð½Ð¾
Ġprimer os
Ġb ringen
Ġ9 4
x es
Ġe vento
ĠCent rum
rz t
ra c
ĠKomment are
te lier
Ġpremi ers
Ġsz ans
ZX J
Ġpomo cÄħ
Ġcá»© u
zahl ung
ĠHer steller
ĠA bend
æĽ¿ ãģĪ
ãĤĴæĦ Łãģĺ
Ġãĥģ ãĤ§
ãĥ¢ ãĥ³
ĠP ost
ãĤ¹ ãĥ¼ãĥĳ
© æŁ»
Ġop Ã©ration
Ġcon to
ĠMode ll
ĠÐº Ð½Ð¾Ð¿
ĠÐ¸Ð³ÑĢÐ¾Ð² ÑĭÐµ
ĠÐ² Ð¸Ð½
ÐºÑĢ ÐµÑĤ
itÃ¤ ts
ĠN ouvelle
na le
çĽ Ľ
ĠFrances co
Ġco o
is cono
Ġele mentos
ĠG las
çķ ¥
ÐµÑĪ ÐµÑģÑĤÐ²
Ġk orzyst
se e
Ġfa j
wia Äĩ
ĠV ic
ãģĻ ãģĶ
ĠInter nacional
Ġste llt
Ġhabit ants
ãģĹãģ¦ ãĤĭ
ãģķãĤĵ ãģ¯
Ġel Ã©ctri
Ġãģ¾ ãģł
an Ã³w
Ġd Ãłi
Ġa go
Ġmod Ã¨les
èµ· ãģĵ
ĠRe cht
ĠrÃ©sul tat
Ġpl ante
æ´ ¥
ãģı ãģ¨
Ġcomp et
ĠPla y
is mus
Ġil lus
Ġchi co
Ġadul tos
Ãºsque da
ei ras
Ġsu d
Ġop inie
Ġ uro
ãģ®å ĳ
tur al
z m
Ġç· ¨
èĢĥ ãģĪãĤĭ
ĠÃ© xito
Ġwo llte
ba hn
ĠCh ina
ver saire
ĠÐ¿ÐµÑĢ ÐµÑģ
Ġk as
çĽ¸ åł´
çļ Ĩ
Ġdispos izione
ĠA by
å¹ ¸
Ġcos to
ĠTÃ©lÃ© charger
ĠdÃ©s ormais
äº ī
Ġpos e
ti ment
Ġh ina
ĠG R
Ġanal yse
Ġgl ob
Ġde vis
ĠS T
Ġp ierre
ĠÐ¾Ð± ÑĢÐ°Ð±Ð¾ÑĤ
ĠÐ¼ Ð¾ÑģÐº
Ġph ong
uel s
ĠÑĢ ÐµÑģÑĤ
Ġs ang
k od
Ġprze kon
Ġh alten
ĠD ur
ĠÐ·Ð°Ñī Ð¸ÑĤ
ÄĻ b
ĠÃ©val u
ĠÐ²Ð· Ð³
ĠÑįÐº ÑĢÐ°Ð½
ura ta
ni c
¹ ¿
Ġä»£ å¼ķ
Ġï¼ ½
ĠãĥĹ ãĥ©
ãĤ¿ ãĥ«
ĠC ro
n ant
re f
ĠÐ¿ÑĢÐ¾ÐµÐºÑĤ Ð°
ĠVo cÃª
ãĤ¹ãĤ¿ ãĥĥãĥķ
si ert
Ġinter vention
ĠP S
Ġaug ment
ĠÐ¿Ð¾Ð» Ð¾Ð²
ĠT itel
ĠÐ¿ÑĢÐ°Ð² Ð¸Ð»ÑĮ
Ġscon to
Ġme zzo
ze ÅĦ
ĠMich a
fahr t
ãĥĹ ãĥ©
Ġsa it
éģ¸ æĬŀ
Ã¨ rent
ĠFor sch
ĠÅļ wiÄĻ
ĠNaj lep
ia ÅĤo
Ġv ig
ĠÐ´Ð¾Ð»Ð¶ Ð½Ð¾
Ġy e
Ġc odzien
Ġa cu
é Ĭ
v an
Ġta ka
h ei
Ġcent rum
Ġk Ã½
ĠVo ll
rit ten
Ġall ora
Ġh Ã¤uf
Ġof ere
ĠÐ½Ð¾Ð² Ð¾Ð³Ð¾
å¯ Ĩ
ĠÐ¿ ÐµÐ´
ĠÐ²Ð·Ð° Ð¸Ð¼
la cji
ĠÑĢÑĭ Ð±
c enza
Ġex tre
ĠÐ¿Ð¾ÑģÑĤÐ¾ÑıÐ½ Ð½Ð¾
Ġpo tem
ãģ«å¯¾ ãģĹãģ¦
ÑĢ Ð¾Ðº
ĠÐ°Ð½ Ð°Ð»Ð¾Ð³
ĠÐ¡Ð¿ Ð°ÑģÐ¸Ð±Ð¾
ĠÐ½Ð°ÑĪ Ð¸Ñħ
å¼ ģ
Ġpropri Ã©tÃ©
ĠÑģ Ð¾ÑĢ
si to
ĠÑĢÐ°Ñģ ÑĪÐ¸ÑĢ
Ġhá» ıi
Ġlie ux
ĠG da
Ġsz p
Ġdi m
Ġæ¥½ å¤©
ãģ© ãģĵ
ĠK od
Ġumo Å¼li
ĠpÃºb li
ÑĢÐ°ÑĤ ÐµÐ³
ĠÑĦ Ð»
ãĤ¨ ãĥĥãĥĪ
ãĤ» ãĥ³ãĤ¿ãĥ¼
Ġçµ Į
Ġrappres enta
Ġdise Ã±
ĠÃ©to iles
æ ¤
Ġgu ten
ĠPoli zei
le ts
ac t
Ġd ol
Ġtr á»±c
ĠÐ¾Ð¿ ÐµÑĢÐ°
ĠÐ½ÐµÑģÐº Ð¾Ð»ÑĮ
Ġcar rera
Ġlum iÃ¨re
çĲĨ çĶ±
ĠÐ·Ð°Ð¼ ÐµÐ½
I 6
ĠLi czba
æķ µ
b st
ĠÐ·Ð°ÐºÐ¾Ð½ Ð¾Ð´Ð°ÑĤÐµÐ»ÑĮ
ĠPag inas
ĠEdu caciÃ³n
ad i
Ġo cze
Ġ2018 å¹´
Ĭ ¶
ĠW es
ĠÐ¦ ÐµÐ½ÑĤÑĢ
Ġpa cj
Ġtecn ologÃŃa
Ġestra te
Ð½ ÐµÐ½Ð¸Ñı
Ñı ÑİÑĤ
Ġapres ent
Ġdist ribu
Ġgi ng
ĠextÃ© rieur
ĠÃ ĳ
Ġcáº£ nh
CI A
Ġex ten
ÑĪ ÐµÐ¹
Ġpi ÅĤ
ĠÐ¾ÑĤ Ð¿
bli Å¼
Ġbe vor
Ġderni ers
ÑģÐº Ð°Ð¶
Ð¾Ðº Ð¾Ð¹
ä¿Ŀ è¨¼
ĠÐ² ÐµÐ»Ð¸Ðº
ĠÑħÑĥÐ´ Ð¾Ð¶
ãĤ« ãĥ©ãĥ¼
ãģ®æ İ
Ġp oni
Ġde dica
ĠÐ¿Ð¾Ð´ Ð¿Ð¸Ñģ
Ġj an
Ġé §
èĢħ ãģ®
Ġco per
Ġod wie
ĠGra tu
Ġty pes
Ġcoment ario
ĠEs per
Ġpeque Ã±a
ĠÑģÐ» ÑĥÑĪ
Ġacqu isto
ĠAr ticolo
ar di
U B
ĠâĢ º
Ġlong temps
Ñĭ ÑģÐº
ãģ§ãģĻ ãģĹ
è¼ ª
it ten
æķ £
ĠÑĥÐ´ Ð¸Ð²
» ¿
ĠÑĤÑĢ ÐµÑĤÑĮ
ard ino
ka Äĩ
Ġfil s
ĠÐĴ Ð¸Ðº
Ãºt bol
gles ia
et ten
Ġcam pagne
Ġsta mpa
ãĥ¼ ãĥ¼
ä¹ Ŀ
fe hlen
3 1
gen ommen
Ġarch ite
ĠÐ²Ñĭ Ð¸Ð³ÑĢ
ĠWy sÅĤ
i my
Ġpo ÅĤoÅ¼
Ġprue ba
çĭ ¬
Ð¸ÑĢÐ¾Ð² ÐºÐ¸
ĠTh is
ĠG on
Ġf und
ĠP u
ĠIn sta
ĠÑĨÐ²ÐµÑĤ Ð°
E U
Ġmon tre
ĠÑİ ÑĢÐ¸Ð´
Ġdeter min
ĠB ank
Ġè Ĭ±
åĲ Ľ
ãĤı ãĤĮ
Ġpob laciÃ³n
Ġpropri Ã©
Ã© l
ĠÑģÐµÑĢ Ð¸
ĠÐ¾Ðº Ð¾Ð½Ñĩ
Ġsc rit
¯ u
Ġ- ,
ĠPoli tik
çĻ» åł´
k Ã¼
cid ent
ãģ¾ ãģĦ
Ġconc re
Ġen v
Ð½Ð¸Ðº Ð°Ð¼Ð¸
Ġme xic
in ar
Ġka teg
ãģ£ãģ± ãĤĬ
Ġãĥ ¤
ĠW Ã¼r
ĠPr Ã¤
ï¼ Ń
å° Ħ
ĠG ast
ĠÄĲ áº¡i
b ano
Ġtritur adora
r Ã³n
ĠÐł Ð¾ÑģÑĤ
ĠÐ²Ð¾Ð·Ð´ ÐµÐ¹ÑģÑĤÐ²
a zioni
V I
Ġescl usi
ĠWszyst kie
G O
Ġprywa t
ãģ£ ãģ¡ãĤĥ
çŃ ĭ
Ġbeste ht
Ġin via
ãĥĥãĥĶ ãĥ³ãĤ°
Ġprincip io
Ġ20 04
äºº ãģ«
in et
Ġh ref
ÑĢÐµÐ¼ ÐµÐ½Ð½Ð¾
ãģĭãĤī ãģ¯
ĠvÃŃ de
åł Ĥ
ĠãĤª ãĥ³
ej o
Ġcre a
Ġj az
Ġop ciÃ³n
Ġex am
Ġ ä½ĵ
al noÅĽÄĩ
ĠÐ½Ð¸Ðº Ð¾Ð³Ð´Ð°
ga ti
ei er
ÅĽ rod
gl ied
Ġch Ã¢n
va in
Ġter rasse
Ġl y
h ait
ĠÐ»ÐµÑĩ ÐµÐ½Ð¸Ñı
Ð¸Ð³ Ð¸
czenie m
z um
ãģ®è ĩª
and onn
Ġel es
f est
Ġf Ã¼nf
Ġâĸ ¼
ä¾¿ åĪ©
ĠÑĥ ÐºÑĢ
Ġå® ļ
ãģ®ãģ§ ãģ¯ãģªãģĦ
ustr ie
ĠÐ·Ð½Ð°Ñĩ Ð¸ÑĤ
Ġfin ale
Ġ2019 å¹´
ï½ °
æ³¨ æĸĩ
æ³ ī
å¯ º
Ġrifer imento
C B
ow nie
Þª Þ
Ġthu á»Ļc
ĠÐł ÐµÐ³
Ġpu li
Ġe cc
ãĤĪ ãģ³
ĠDam it
ĠÐ¿ Ð°Ð¿
ĠÐº Ð¾ÑĪ
ÑģÑĤÐ² Ð¸Ðµ
u jÄħcych
Ġï¼ ĭ
Ġãĥ© ãĤ¤
Ġpro vincia
ãģĭãģª ãģĭ
æĬĢ è¡ĵ
Ñĩ Ð¸ÐºÐ¾Ð²
ĠÐºÐ¾ÑĢ Ð·
ÐĲ ÐĿ
Ð¸ÑĤ ÑĥÑĤ
Ġse de
ãĤĴ åıĹ
Ġverschieden e
Ð¸ÑĢÑĥ ÑİÑĤ
Ġand are
Ġinternation al
v olo
ĠPed ro
Ġpag inas
Ġfor o
Ġes pos
Ġmen or
ĠÑĤ Ð°Ð½
Ġac tions
wo li
Ð¸Ð· Ð¼Ð°
Ġpo ÅĤÄħ
ĠFe uer
Ġtra in
çµĤ ãĤı
Ġpowierzch ni
ãĥĥ ãĤ¸
Ġchauff age
6 9
Ġcin q
Ġme ta
Ð°ÑĢÑĤ ÑĦ
Ġcar ta
ĠÑģÑĤ Ð¸Ñħ
ĠÐľÐ¾ÑģÐºÐ² Ñĭ
ĠÐ¾ÑĤÐ¼ ÐµÑĩ
ĠNe ue
Ġcontri b
ĠLe der
ĠD ein
áº¿ p
ir ie
ĠÐ¿Ð¾ÑģÐº Ð¾Ð»ÑĮÐºÑĥ
Ġvor h
Ġw elt
Ġen tiÃ¨re
ĠIB _
mer ic
tto m
æ¸ ¡
ĠcompaÃ± ÃŃa
Ġimp orte
cia Å¼
owo hl
ĠLou is
ãģ£ãģ¦ ãģĹãģ¾
Ġsucc Ã¨s
Ð¸ÑģÑĤ ÐµÑĢ
ĠãĤµ ãĥŀ
èµ ¤
ãĥī ãĥ©
ĠåĪ Ĩ
Ġutili zzo
Ġmoy ens
ãģ®è £
ĠGar cÃŃa
ÐµÐ¶ Ð´Ð°
Ð¸Ð· Ð°ÑĨÐ¸Ñı
pe lli
Ġpa ese
ĠS ty
Ġ owo
ĠCont rol
ĠC lub
Ġtrad i
Ġretr ouver
ĠÐº Ð°Ñģ
Ġang iel
Ġm á»©c
çĽ Ĭ
Ġren for
Ġs ome
ĠÐ´ÐµÐ» Ð°
ĠÑģÐ¾ÑģÑĤ Ð¾Ñı
ÃŃ os
tif ication
ĠNie m
k m
cour t
ve ill
ĠÐ¿Ð¾Ðº ÑĢÑĭÑĤ
ĠÐº Ð¾Ð³Ð¾
ĠÐ¿ÑĢÐµÐ´ Ð½Ð°Ð·Ð½Ð°Ñĩ
Ġmol te
Ġtrav estis
Ġaque llos
ĠÐ¾ÑĢ Ð³
ÃŃ veis
åı¯ æĦĽ
éĸĭ å§ĭ
Ġentfern t
et Ã©
Ġsz t
z Äħd
Ġfour nisse
Ð¼ Ð¼
p Ã³ÅĤ
ĠÐ½Ð¸ Ð¶Ðµ
Ġend roit
V s
Ġd w
vo ca
rei fen
st r
ĠÐ³Ð¾Ð´ Ñĭ
çĻº çĶŁ
Ġparti cular
bie t
ĠÐ±Ð»Ð°Ð³ Ð¾Ð´Ð°ÑĢÑı
uyá»ĩ t
Ġar re
ÐĲ Ðŀ
ĠÐ¤ Ð¾ÑĤÐ¾
Ð¸ÑĢÑĥ Ñģ
arz enia
Ġp Ã¨re
Ġfron te
Ġnum Ã©rique
ĠÑģÑĤÐ°ÑĤÑĮ Ð¸
ĠÐ¼ ÐµÐ½ÑĮÑĪÐµ
an ach
ĠmatÃ©r iel
Ġanima ux
Ġpro cesso
ĠTh anh
Ġkh ai
Ġde por
Ġfun ciÃ³n
Ġeigen e
Ġe venti
ä¿Ŀ éĻº
Ġk lu
ĠNg h
ta das
ĠB ran
ĠH il
ĠG a
ĠÃī tats
âĺ Ĩ
ãģ£ãģ¦ ãģĦ
ĠB il
ach ten
Ġmen saje
rz wi
é ®®
Ġsex y
ĠÃ ļ
i miento
Ġper man
ĠÐ§ ÐµÐ¼
Ġproje kt
ãĥķ ãĥ«
ãĤ¹ ãĤ¹ãĥ¡
11 æľĪ
ĠÐŁÐ¾Ñĩ ÐµÐ¼Ñĥ
ĠÐº Ð°Ð»
Ġ osz
ĠÑĦÑĥÐ½Ðº ÑĨÐ¸Ð¾Ð½
åĲĳ ãģĳ
ĠV ors
rÃ³ ci
ĠÐ½ÐµÐºÐ¾ÑĤÐ¾ÑĢ ÑĭÐµ
ab il
çĲĨ è§£
Ġviv ir
Ġd ung
g iej
Ġsuf ici
Ġz ie
Ġpre ve
Ġver t
ĠrÃ©se aux
ĠAn ne
Ġimm Ã©dia
Ġs Ã¡t
Ġsch ein
Ġdar Ã¼ber
A d
ĠtÃ© mo
Ġex erci
Ġphy sique
Ġsig lo
ĠÐ»ÑİÐ± Ð¾Ð²
æıĲ ä¾Ľ
ÐµÐ· Ð´Ð°
Ġre li
ãģ§ãģĻ ãģĭãĤī
çŁ Ń
ĠÐķ ÐºÐ°ÑĤ
ĠÑĢÐµÐ³ ÑĥÐ»Ð¸
ĠÐĿ Ð¸Ð¶
ĠÐ²Ñģ Ñİ
ãĥª ãĥĨãĤ£
åĿ ĩ
ãģĤ ãģªãģŁ
æľŁ å¾ħ
ĠZ o
Ġmani fes
ĠÑįÑĤ Ð¾Ð¼Ñĥ
ĠÐ·Ð°Ð²Ð¸Ñģ Ð¸Ð¼Ð¾ÑģÑĤÐ¸
ãĥĨ ãĥ¬ãĥĵ
Ġprzy jem
n al
Ð°Ð² Ð¸Ñģ
row ia
ber eit
ĠC ia
Ġcre are
Ġza ÅĽ
Ġmog ÄĻ
ª ¨
Ġlokali zacji
Ã¤ llt
Ġdom icile
ĠÐ¾Ð± Ð»
Ġkobie t
è» į
Ġgiá»¯ a
Ġw ho
en zen
Ġpopula tion
ĠFir enze
Ġun ica
cion ais
Ġindy widual
ÑĥÑĪ ÐºÐ°
Ð¸ÑĨ Ñĥ
Ġent ro
ĠE igen
Ġor ient
Ġodpowiedz ial
ces z
Ã¤ch lich
Ġdos sier
ĠBask ets
ou ch
ami que
Ġutilis ateurs
ĠÐºÐ¾Ð¶ Ð¸
ĠÑģÑĤ Ð°Ð»Ð¾
Ġpr Ãªt
ĠÃ ®
5 1
ÅĦst w
ĠZ ubehÃ¶r
Ġh eiÃŁ
la re
ĠÑģ Ð°Ð¼Ð¸
Ġper chÃ¨
Ġaggior n
ĠAn dre
Ġf anno
ĠÑĥÑģÐ¿ ÐµÑĪ
we ÅĤ
Ġpop ra
Ġk wia
Ġing res
ĠF Ã¼hr
Ðŀ Ðł
Ð½Ð¾ÑģÑĤ ÑĢÐ°Ð½
Ġcon sen
ej a
Ġstron ÄĻ
fÃ¼ hl
ang eb
ĠTa gen
u z
Ġsol utions
Ġpubli Ã©
Ð¸ÑĪ ÑĮ
ĠÑĦ Ð°ÐºÑĤÐ¾ÑĢ
iss Ã£o
Ġprofes jon
ĠMa ÃŁ
w Ã¤r
m ont
Ġpo twier
Ġprofession nelle
ĠÐ¿Ð¾Ð½ ÑĢÐ°Ð²
ÐµÐ½ Ð½
is sima
Ġm á»¥c
ĠÃ©po que
ĠÐ¾Ð¿ÑĤ Ð¸Ð¼
ib ilitÃł
ĠÐ¸Ð½ÑĦÐ¾ÑĢÐ¼ Ð°ÑĨÐ¸Ð¾Ð½
Ġver sione
tri ce
pi ti
å¸ ĮæľĽ
AR E
ĠC it
çĻº å£²
el es
å¿ «
ĠÐ²Ð· ÑĢÐ¾ÑģÐ»
ĠÐ±ÐµÑĢ ÐµÐ¼
ĠÐ¡ ÐµÐ¹ÑĩÐ°Ñģ
Ð¸ÑģÑĤ Ð¾Ð²
Ġbras ile
qu Ã©s
Ġt anti
tico li
czeg Ã³l
ãĥĭ ãĥ¡
ĠK ri
Ġitali ani
en Ã§a
Ġac cesso
ĠW il
ãģĤ ãģĴ
ç«ĭ ãģ¦
ĠIde en
c ts
ĠÐ¿ÑĢÐ¸Ð² Ð»ÐµÐº
ĠEl tern
N O
t tura
Ġsab e
k Ã¼n
è³ Ģ
ĠÐ¼Ð°ÑĤÐµÑĢÐ¸Ð°Ð» Ñĭ
ĠÐ°Ð± Ñģ
ÅĤ owa
Ġpour rez
Ġsquad ra
ĠH um
å± ¤
Ġactu ali
Ġpu di
ĠP RZ
Ġek sp
Ġkho áº£ng
Ġma xim
ing en
Ġlogi ciel
ĠdÃ© termin
ĠÐļ Ð°Ð¶Ð´
gg er
ä¿ º
ç´ł æĿĲ
Ġal Ã©m
Ġå¿ ħ
ĠPour quoi
ĠM ul
Ġsou hait
Ġt wo
çī¹ å¾´
Ġelet tri
ãģĵ ãģĵ
Ġa jus
Ġoff en
Ðŀ ÐĿ
gu ay
Ġden un
Ġapro ve
ĠTout es
ĠDe ux
Ð¸Ñĩ Ð½Ð¾
ti da
ĠProble me
Ġãģĵ ãĤĵãģª
åķ Ĩ
Ġcele b
Ġaff er
Ð» Ð¾ÑģÑĮ
ĠdifÃŃ cil
ĠÃ©lÃ¨ ves
Ġappare il
Ġg Ã³
ĠåŃĲ ä¾Ľ
ĠÐĸ ÐµÐ½
ĠÐ» Ð¸ÑĤÐµÑĢ
Ġcr isis
ĠAu jourd
æĲ º
Ġer hÃ¤lt
Ġt ÅĤ
ãģ®æĸ¹ ãģĮ
ĠÐ°Ð½Ð³ Ð»Ð¸Ð¹
Ġkonie c
an che
an cias
ãģ® ãĥŀ
Ġent scheiden
Ġa j
ĠP ays
Ġprof iter
Ġte xto
Ġm ission
Ġpoja wi
Ġp owy
ĠÐ¢ Ð¸Ð¿
Ð¾Ð· Ð²
\/ \/
ĠEs paÃ±
ĠK an
Ġf ini
Ð¸ÑĤÐµÐ»ÑĮ Ð½Ð¾ÑģÑĤÑĮ
z ada
Ġpra tiques
o li
æ´ ĭ
ĠArt ÃŃculo
ra ciÃ³n
Ġor mai
ĠDÃ©couv rez
ĠComment aires
Ġpu issance
Ġcerta in
ĠÑĩÐµÐ»Ð¾Ð² ÐµÑĩ
Ġloca li
ĠÐº Ð¸ÑģÐ»
Ð¸ÑģÑĤÑĢÐ° ÑĨÐ¸Ñı
ĠR ein
ĠT ier
ĠRou ge
vol ution
ÐµÑĤ ÐºÐ¸
cun o
V O
ĠGiov anni
ĠF i
ĠI o
ĠÐ¿Ð¾Ð¼Ð¾Ñī ÑĮ
Ġpro ve
Ã¶ sen
æ¶ ²
res si
ĠÑĦÑĥÑĤÐ± Ð¾Ð»
ĠÐ¾ÑĩÐµÑĢÐµÐ´ ÑĮ
ÐµÑĤ ÑĢÐ¾Ð²
le ga
iss age
ĠæĻĤ éĸĵ
ĠD io
Ġpar tes
cj ami
ĠTut ti
ĠÑĢÐ°Ð· Ð°
ĠD etta
Ġcoin vol
ĠÄĳá» Ŀi
rie bs
ĠÐ¡ÑĤ ÑĢÐ°Ð½
ri to
Ã¼ hren
ĠÐ½Ðµ Ðµ
g ry
ĠæĹ ©
Ġ> >
è ´
ãĥ¼ãĥĭ ãĥ³ãĤ°
Ġle quel
ĠÐ³ Ð¾
ĠÐ¢ Ð°Ð¼
ÑĥÐ¼ ÑĥÐ»ÑıÑĤÐ¾ÑĢ
ÑĥÐ» ÐºÐ°Ð½
Ġsal ute
Ġå¿ ĥ
Ġcre cimiento
ĠT ener
Ð¾Ð² ÑĭÐ¼
ãĤĴ å®Ł
ĠAd idas
ar lo
Ġmod er
timm ung
f Ã¤h
we gen
ĠÐºÐ¾Ð½Ñģ ÑĥÐ»ÑĮÑĤ
Ġsk rzy
Ġra czej
ĠÑĢÑıÐ´ Ð¾Ð¼
Ġdire ctor
Ġen qu
Ġåħ ĥ
Ġris chio
ÄĻ dz
ĠB áº¡n
ĠÐ¿Ð¾Ð´ Ñģ
Ġza bezpie
Ġé Ł
Ġrecom end
ĠÐ¿Ð»Ð°Ð½ ÑĪ
Ġz re
Ġles en
Ð¸Ð² Ð°ÑĤÑĮÑģÑı
Ġsod dis
ĠãģĬ ãģĹãĤĥãĤĮ
ãģ®åĨ ħ
Ġan y
ĠÐĹ Ð°ÑĢ
Ġpro va
ĠDes puÃ©s
ar beitet
Ġstar k
ĠÐ¿Ð¾Ð² ÑĤÐ¾ÑĢ
ãĥ©ãĤ¤ ãĥĸ
ue ll
te ments
Ġstan owis
ãĤ¹ ãĤŃ
ing er
HÃ´tel s
Ġsouhaite z
g eld
ĠMe dien
ĠÐ½Ð°ÑģÑĤ ÑĢÐ¾
inn astica
f ia
Ġsob Äħ
Ġå® Į
Ġopp os
Ġd Ã³l
ĠÐķ ÑīÐµ
Ñİ Ñģ
Ġpo te
ãģĤ ãģ£ãģ¦
ĠPe tit
Ġa gence
Ġren dez
ĠmÃ© c
an ne
ĠR ue
ĠintÃ© gra
titu de
é į
á»Ń i
ĠÃ© n
ĠBer g
ĠA o
nel s
ÐµÑģÑģÑĥ Ð°ÑĢÑĭ
Ð°Ð³ Ð¾Ð³
ĠÐĲ Ð»ÑĮ
ãģ®æ Į
ito y
ĠS C
ĠM ol
Ġpra cu
E C
Ġtam aÃ±o
ĠÐ¾ÑĦ Ð¸Ñģ
ĠéĿ Ĵ
Ġç Ń
åĲ ¹
åĬĽ ãĤĴ
Ġch iáº¿c
Ġz eit
Ġord inateur
ĠÐºÐ¾Ð½ ÐºÑĢÐµÑĤ
ste lle
Ġfor mu
ĠSte llen
ãĥ© ãĥ³ãĥī
Ġdem ander
ĠÐ² ÑĢÐµÐ´
ĠÐ¿ÐµÑģ Ð½Ð¸
ĠÐºÐ² Ð°Ð»Ð¸
Ð¸Ð¼ ÐµÐ½ÑĤ
itÃ© e
ĠÐ¾ Ð¿ÑĢÐµÐ´ÐµÐ»Ñı
Ġcas e
Ġfonda ment
ĠÐ¼ ÐµÑĩ
Ġher mos
Ġz uf
Ð½Ð¸Ðº Ð°Ð¼
ÅĽ le
ĠA ni
Ġestudi antes
ĠÐĵ ÐµÑĢÐ¼
si Äħ
Ġpi Äħ
Ġhui le
Ġtemp i
tiva tion
Ġen ci
Ġ< /
Ġre jo
Ġkateg orii
Ġedi zione
ÑģÑĤ ÐµÑģÑĤÐ²
Ġpaz i
ale za
ĠKra ft
Ġprim eira
ob ec
ĠpÃºb lica
Ð»Ð¸Ñĩ ÐµÑģÐº
Ġris ol
ĠStr om
all y
Ġpol y
Ġco Ã»
Ġning una
Ġbe ge
ĠÐļ Ð¾Ð´
ĠÐ¿ÐµÑĢÐµ ÑħÐ¾Ð´
st an
I H
Ġjaki ÅĽ
ĠT isch
obil ien
ĠNap is
Ġ: :
ĠDla tego
º å®ļ
m ado
Ġ4 00
ĠÑĢÐ°Ð· Ð½Ð¾
Ġtoda vÃŃa
Ġru olo
ĠK Ã¶l
ĠBon us
Ġka um
ĠÐ½Ð°ÑĪ Ð¸
Ġlav ori
we isen
se ille
ou d
w ol
Ġãĥ ½
è¼ ¸
Ġmin ist
Ġlang ue
ĠÐ²Ñģ Ð¿
Ġimport anti
Ġlog rar
ĠThe o
Ġwa ka
ÑģÑĤ ÑĢÐ°
Ġdop iero
ÑİÑī Ð¸Ð¹
Ġnaj waÅ¼
Ġè£ ½
æ°Ĺ ãģ«åħ¥
Ġestudi os
ä¸Ń ãģ«
Ġcompr om
Ð¸ÑĤ ÐµÑĤÐ°
d l
an ka
Ġprz er
Ġge bra
Ġdiretta mente
kow ane
Ġdob ry
Ġ9 7
dy n
Ġense Ã±
Ġexe mp
m oni
v at
Â ¤
Ġch ÃŃ
s ko
~ ~
n Ã©s
Ð¢ Ðķ
ĠÑģ Ð¾Ð»Ð½
Ġam bito
cion a
Ġpr ome
ĠH y
ĠÐ¿ÑĢÐ¾Ð´ÑĥÐº ÑĨÐ¸Ð¸
ĠÐ¢ÐµÐ¿ ÐµÑĢÑĮ
Ġp ÅĤat
Ġcambi os
Ġmeille ures
ÑĢÐµÐ¼ Ñı
ĠÅĽ lub
ĠAu ÃŁer
ĠC li
s age
Ġrep as
Ð»Ñı Ð½
ĠÐķ Ð³Ð¾
Ġli ke
Ġet Ãł
Ġza bie
Ġwy god
ĠFrancis co
ä¸ ¸
è ¯
§ ĭ
Ã¤s ident
Ã³n de
Ġpersonn alis
Ġalgun s
Ġtak im
ĠrÃ¡p ida
Ġmod erne
Ġle cz
ĠÐ´ÐµÐ¹ÑģÑĤÐ² Ð¸ÑĤÐµÐ»ÑĮÐ½Ð¾
ÑĢ ÐµÐ¿
ĠÐ·Ð°Ð²Ð¸Ñģ Ð¸ÑĤ
Ġperi od
ĠC y
Ġ' :
g nie
ĠÐ²Ð¾ÑģÐ¿ Ð¸ÑĤ
ĠÐ¾ ÑħÑĢÐ°Ð½
Ġorgani zaciÃ³n
Ġm ind
Ðº Ð¾Ð³
ĠdÆ°á» Ľi
Ġb ian
ĠÐ¿ÑĢÐ¾Ð³ Ð½Ð¾Ð·
Ġæ ·
ĠMÃ¤n ner
ĠÐ½ Ð¸Ð±
Ġris er
ĠPre zzo
ost ante
Ã¼ gen
Ġo jos
Ġr ens
Ġin media
Ġuzy ska
åŃĺ åľ¨
Ġaff ich
Ð¸Ð¼ ÑģÑı
Ġtrava iller
or ge
Ġall ÃŃ
ãģķãĤĮ ãģ¾ãģĻ
stell ungen
ĠÐ¿Ð¾Ð´ Ñĩ
oule z
ĠÐ¿Ð¸ÑĤ Ð°Ð½Ð¸Ñı
ad urch
Ð¢ Ðĺ
ĠÐ· ÑĥÐ±
ÑģÑĤÑĢÑĥÐº ÑĨÐ¸Ð¸
Ð¾Ð»Ð½ Ðµ
ĠÑĥ Ðº
ĠÐ¾ÑģÑĤ Ð°Ð½Ð¾Ð²
M O
et ri
Ġr and
Ãª tre
ti go
c enia
IN G
ĠrÃ© alitÃ©
Ġou tro
Ġst wier
Ġw hen
Ġw eni
Ñĭ Ð±
Ð¾Ð½ ÐµÑĨ
ĠÐ·Ð°Ð² ÐµÑĢÑĪ
t ano
K O
Ġmas ajes
Ġinte gr
Ġde vient
Ġter en
Ãº a
Ġunter schied
Ã³ nica
Ġad block
ĠkrÃ³ t
or as
Ġpermet tant
kow ania
ĠÑĩÐµÐ¼ Ð¿Ð¸Ð¾Ð½
vi le
Ġb Ã©bÃ©
Ġre ven
ĠMar co
v anti
lo go
Ġcli ente
ĠGay s
Ġhab l
osz enie
ĠãĤ¢ ãĥ¡ãĥªãĤ«
Ġx Ã¡c
Ġop tion
ĠÑĢ Ð¾Ð¼
Ġchia ma
Ġtre ÅĽci
ĠB ade
Ã¶ nen
eign et
Ġ12 0
ĠÐŃ Ð»ÐµÐºÑĤÑĢ
ĠÐ¿Ð¾Ð´ Ð²
ĠÑĢÐ°Ð· Ð´
ĠÐºÐ°ÑĤ Ð°Ð»Ð¾Ð³
ĠÐº Ð¸Ð½Ð¾
ĠÐ´Ð°Ð² Ð½Ð¾
ĠM ini
ĠÐĳ Ñĭ
ï¼ ¼
2 æľĪ
éģ¸ æīĭ
Ġeing es
Ġinf o
Ġgratu itement
ĠL Ã©
ci ence
cidad e
ĠÐ¶ ÐµÑģÑĤ
ow ska
ĠZ as
ĠEs cu
el as
ĠSp raw
T C
Ġv illes
ĠMej ores
ĠD ere
Ġneces idades
ĠPerson al
po co
ĠK ont
Ġs r
ĠkoÅĦ ca
ĠÐ¿ÑĢÐµÐ´ Ð¼ÐµÑĤ
Ġver siÃ³n
Ġcon ec
Ġvost ro
ÅĤo p
era pie
ĠÃ¤ hn
Ġmouve ment
ÅĤe ÅĽ
Ġmar ki
Ġloka l
a a
ĠCom pr
ter ÃŃa
Ġsto ck
Ñĥ ÑĢÑĥ
Ġing resso
ara tos
Ġentre ga
lic ante
Ġver ano
Ġai mer
ĠRen contre
Ġv ali
ãĤĴè¦ĭ ãģ¦
Ġpass age
R L
ĠãĤ Ĩ
ï¼ĳ ï¼Ĳ
Ġæĺ İ
Ġn á»ķi
Ġa ggiung
U O
Ġpro tagon
Ġval ori
ï¼ ©
ãģĽ ãģ¦
ĠLo ire
Ġcal cul
p ens
â Ĩ
¡ çĶ¨
Ġgen ere
Ġmul her
ĠæĿ±äº¬ éĥ½
æŃ ´
jeun er
ĠÐ±ÑİÐ´Ð¶ ÐµÑĤ
Ġm ud
ĠÑģÐ¸ÑĤÑĥ Ð°ÑĨÐ¸Ð¸
Ġotten ere
Ġre gel
Ġve ux
atter ie
Ġb ac
Ð¾Ð» ÑİÑĤ
Ġpap ier
Ġcl Ã©s
ãģ®æĦ ı
Ġpanta lla
ĠEn fin
ct ur
Ġjed nego
ĥ è²¸
ãģ« è¦ĭ
Ġgio chi
ĠSta to
ts eite
Ġtemp Ã©ra
Ð¸Ð² Ð°ÑİÑĤÑģÑı
nho f
ĠÐ¿ÑĢÐµ Ð¸Ð¼ÑĥÑīÐµÑģÑĤÐ²
ĠÐ¿ÐµÑĢÐµÐ² Ð¾Ð´
ĠSch i
ti tion
Ġme m
ÑģÑĤ Ð¾
Ġsh are
æľ¬ å½ĵãģ«
ãĤī ãģı
Ġnh iá»ĩm
ĠDescar gar
r ados
Ġde vez
Ð¸Ð»Ð¸ Ð·
Ġed uka
ãĥķãĤ© ãĥ³
cto ra
åĨ ·
Ġsol u
Ġer an
ĠÐ¼Ð°ÑĪ Ð¸Ð½
ta cji
Ð¾Ñģ Ð½
Ġchu áº©n
Ġo ver
Ġsc ritto
ĠN ation
l ent
Ð¸ÑĤÐµÐ»ÑĮ ÑģÑĤÐ²Ð°
Ġãĥ¡ ãĥ¼ãĤ«ãĥ¼
å±Ĭ ãģĳ
ãĥĨ ãĥł
ï¿ ¥
æĻ ´
Ġg wia
Ġno cle
ç¥Ŀ ãģĦ
Ġç ķ
ta lia
cipa li
Ġpla zo
Ġac or
Ð¸ÑĤ Ð¾ÑĢ
Ġt ent
ĠA P
ĠÐºÑĢ Ð°Ð¹
ĠD zi
Ġre pos
ĠÐ½Ð¸Ð± ÑĥÐ´ÑĮ
Ġfas e
Ġav ent
Ġãģ¨ æĢĿ
Ġbo ttom
Ġçľ Ł
kar te
ĠÑģÐ¾ ÐµÐ´Ð¸Ð½
ĠLa v
ff i
Ġ ãģĭãĤī
wer b
P ri
Ġrestaur ant
ti lla
Ġmiemb ros
Ġsoggior no
ĠB ud
Ġåº ĥ
å¥³ åŃĲ
Ġåĥ ķ
ä¹ ¾
Ġpa ti
d no
Ġ( .
ãĥĬ ãĥł
Ġcon ven
fe kt
flÃ¤ che
é¦ ĸ
ĠÐ²Ñĭ Ð·ÑĭÐ²
Ġpicc olo
enta i
Ġin m
ĠdÃ© cid
ĠÑĩ Ð»ÐµÐ½
Ġc Ã¢u
ĠMas ajes
ĠR ub
ĠBuen os
Ġlugar es
ĠPa olo
Ġpor t
ĠÐ¿Ð¾ ÐµÐ·Ð´
ĠC ou
Ġcapa citÃ©
Ġdev ono
Ġmehr ere
ãģĹ ãģªãģĮãĤī
Ġcommen ce
Ġbuen as
ĠR u
Ġza pis
Ġaff ir
Ġf antas
Ġcons idera
Ġo lej
Ġszko ÅĤy
Ġç© º
Ġfin de
ĠEr n
tig er
ĠÐ¼ ÑıÐ³
ĠWy da
ĠPo zna
ch ani
ĠR ze
Ġng u
Ġd olor
Ġprodu kty
ĠÑģ Ð´
Ġdzie cko
ĠD ru
æ² ¹
ĠÐ¼Ð°ÑĪ Ð¸Ð½Ñĭ
cie le
dar f
ÅĤ on
Ġcol ores
ĠFoll ar
Ġle ngua
Ġun ver
Ð¾ÑĢ ÑĥÐ¶
col are
Ġn iÄħ
ty ki
Ġh al
ĠE tats
ĠÃī tat
ĠÑģÐ»ÑĥÑĩ Ð°Ñı
Ġco lec
ĠT ien
Ġespecial mente
Ġam bos
ĠÐĿ Ð°Ñĩ
ãģ¤ ãģĳ
z quier
ĠÐ¾ÑĤ ÑĤ
Ġver de
Ġch aussures
Ð· Ð´
Ġfos se
ĠkoÅĦ cu
Ġé ¡
ĠH aut
ĠSch w
éĢ Ģ
osp ital
Ġenc anta
ĠServi cio
ĠKÃ¶ ni
ÐµÑĢÐ¸ Ð°Ð»
ĠÐ½ Ð°ÑĤÑĥÑĢ
ĠÐĳ ÑĥÐ´
ĠN astÄĻp
Ġg á»įi
ĠD urante
Ġgar de
ãĥŃ ãĥ¼
Ġcara ctÃ©ris
Ð»Ð¸ Ð¼
ujÄħce go
Ġannon ces
Ġlors qu
Ġfir ma
ãĤ¤ ãĥĻãĥ³ãĥĪ
Ġe ta
ĠÅļ wia
æĺ ¥
Ġnu lla
Ġbas so
niej szych
ãĥ³ãĥ ĸ
Ġdom ingo
Ġpar c
Ġth em
ĠÐ¡ ÐŁ
Ð¾ÑĢ Ð³
Ġv aria
Ġhand elt
Ð¼ Ð¾Ñģ
Ġc Ã¡mara
ak ie
ãģĹ ãģ£ãģĭãĤĬ
å¥½ ãģįãģª
åĩºæĿ¥ ãĤĭ
æī ±
ĠC ong
Ġroz wi
Ġdo ble
on ia
å¾Į ãģ®
Ġouver t
Ġalb um
Ġv itesse
Ġje de
ĠÐ¾Ð±ÑĭÑĩ Ð½Ð¾
mp er
Ġåı Ĺ
ĠNam en
é «ª
Ġåĭ ķ
Ġnos sa
ne as
Ġpracow nikÃ³w
bo x
Ġfr Ã¼
Ġso lic
ĠPor tu
Ġno va
Ġcap ita
d ÅĤ
å¯ Ŀ
Ġatra vÃ©s
Ġmis mos
ĠÐł ÐµÑĪ
Ġhina us
ĠEn f
Ġi con
åı Ĭãģ³
å¤§ ãģįãģª
Ġsoi rÃ©e
ĠÐ¿Ð¾Ð»ÑĥÑĩ ÐµÐ½Ð¸Ñı
Ġpo bli
zy w
ĠT oute
Ġap Ã³s
Ġbe lla
ĠConsi glio
Ġreg ol
ĠlÃŃ der
ĠU l
ĠF le
ĠR at
Ġch á»ĳng
ĠS antiago
ust and
gu en
Ġç¶ļ ãģį
ãĤ¯ ãĤ·ãĥ§ãĥ³
çķª åı·
Ð½ ÑĥÑĤ
ĠUni versitÃł
Ġth ere
v ideos
tr an
Ġ8 4
ĠÃ©conom ie
Ġz bior
ãĤ« ãĥĲãĥ¼
èı ¯
Ġcer to
ĠÐ¾Ð±Ð¾ÑĢÑĥÐ´ Ð¾Ð²Ð°Ð½Ð¸Ñı
æ²» çĻĤ
ĠTe chnik
Ġlib ri
Ġpor tal
ĠÅº rÃ³d
ãģ£ ãģį
ĠB ro
ĠÐ¼Ð°ÑĢ ÑĪ
ab lo
Ġqu anti
ãĥ³ãĥĩ ãĤ£
Ġefec to
we hr
ï¿½ï¿½ ï¿½ï¿½
Ġm áº¥t
Ġin se
Ġorigin ale
he ma
i bile
ĠwyjÄħ tkow
Ġso ins
Ġ7 8
Ġd ra
ĠÐľ Ð½Ðµ
Ð¸ÑĩÐµÑģÐº ÑĥÑİ
é£ ¯
ãĤĴ ä½¿çĶ¨
re mos
Ġcollab orazione
Ġunique ment
Ð°Ð¶ ÐµÑĤÑģÑı
g om
Ġinterna zionale
ãģ®å ±
Ġmas tur
ĠSec re
Ġofer ta
Ġrespec t
Ġm ala
c la
Ġhau teur
Ġdiff icul
ĠÑĤÐ¾Ð²Ð°ÑĢ Ñĭ
ĠÑĤÑĢ Ð°Ð´Ð¸
Ġth Æ°
Ġsali da
wo hl
Ġcomun ic
ĠB ologna
Ġozna cza
ãĤĴ åıĸãĤĬ
estiv al
ĠÐĺÐ½ ÑĦÐ¾ÑĢÐ¼
ĠÐĴ ÑĤÐ¾ÑĢ
Ġdou ce
ib ilitÃ©
Ġactu ellement
Ġm q
ĠC odice
Ġriguar da
Ġto tale
éĩ Į
âĶ Ģ
ĠæĪ Ĳ
Ġä¸Ń åĽ½
ĠÐ¿ÑĢÐ¸Ð½ ÑıÑĤ
ĠA na
ab b
Ġcol ori
gen za
ce der
ĠEx p
n Ã©es
Ġparf ait
Ġobjet s
ĠÐ£ÐºÑĢÐ° Ð¸Ð½Ðµ
Ð¾Ñĩ Ð½Ð°Ñı
ĠÐ¿ÑĢÐ¾Ð¸Ð· Ð²ÐµÐ´
ãĤ¹ãĤ¿ ãĤ¤ãĥ«
ĠãĤ¨ ãĤ¢
Ġkh ÃŃ
Ġcapa citÃł
ane m
AR D
Ġs orte
ãĤ« ãĥ©
ar te
Ġhacer lo
ĠÐ¾Ð´ ÐµÐ¶Ð´
å¹´ ãģ®
ĠÐ²ÑĭÐ± Ð¸ÑĢ
Ġmod elos
ĠMan uel
ven tos
ĠÐ§ Ð°ÑģÑĤ
ĠE dition
Ã§ ons
ĠÑĢÐ°ÑģÑģ Ð¼Ð¾ÑĤÑĢ
ter Ãł
Ġwyso koÅĽci
Ġf aud
Ġod powiada
Ġda je
ĠEr folg
Ñĩ Ð¸Ñģ
ch ia
éº Ĺ
æķ Ĺ
cep ciÃ³n
Ã¶ hn
ĠPre mi
fica zione
Ġtotal mente
Ġt iáº¿n
vi ng
ãģ¾ãģĹãģŁ ãģĮ
ma ciÃ³n
ĠCom er
qu ette
met tre
ĠÐ¿ Ð°ÑĤ
Ġsam a
Ġg am
ĠDetta gli
Ġobietti vo
ĠVal encia
Ġl anz
ĠGran de
ĠÐ¼Ð¾Ð³ Ñĥ
Ð¾Ðº Ð¾Ð»
Ġdy sk
f unk
ĠTra ining
ĠTer az
ĠksiÄħÅ¼ ki
Ð¸ÑĩÐµÑģÐº Ð¾Ð¼
ons es
Ġrisp osta
Ġ ä¾ĭ
Ġwe g
Ġsci enti
Ġtemp er
Ġan sehen
Ð°Ð´ Ñĭ
ĠszczegÃ³l nie
éŃ ħ
ĠS au
Ġbe wer
ĠÐ´ÑĢ ÐµÐ²
setz en
ili gen
Ġdiv enta
ni Äħ
§ £
Ġdis co
ĠÐ±ÑĥÐ¼ Ð°Ð³
åħ¬ éĸĭ
Ġcam paÃ±a
ĠÐ¾Ðº ÑĢÑĥÐ³
ĠÐ¸Ð·Ð¼ÐµÐ½ ÐµÐ½Ð¸Ñı
Ġh id
Ġå ĸ
s ystem
Ġpar tager
äº Ķ
ãĤĴæ Ķ
Ġgag ner
ĠÐ¢ Ð¾Ð»ÑĮÐºÐ¾
Ġide as
Ġd uro
ĠD on
I B
Ġprin cipali
jer o
ĠÑıÐ·Ñĭ Ðº
ĠPio tr
Ġ(" .
Ġza j
ĠÃ ħ
Ġt áº¥t
ber icht
ĠK r
ĠS ou
Ġt els
ĠÑĦ ÐµÐ´ÐµÑĢ
Ġp ani
Y m
redni o
ung e
si me
Ġmil h
Ġmini m
bes ondere
éĻ ½
ĠN um
al er
Ġinst ant
ĠÐ¿Ð¾Ð¼ Ð¾Ð¶ÐµÑĤ
Ñį Ðº
Ġrec ensione
anz o
Ġv anta
M S
ĠC zar
Ð½Ð¸Ðº Ñĥ
ÐµÐ¿ ÑĢ
ĠÐ¿ÐµÑĢ ÐµÑĩ
Ġnapis aÅĤ
wi enie
Ġde venir
ĠÐºÑĥÐ»ÑĮÑĤ ÑĥÑĢ
Ġander s
ĠP rÃ©s
rze d
Ġapo y
ĠF our
ĠC E
able ment
Ġri le
Ġos p
Ġtr wa
b ado
Ġhist Ã³
ãĥĩãĤ£ ãĤ¢
re ch
Ġreg ion
r l
Ġcom Ãºn
ĠÑģÐµÑĢ Ð¸Ñı
ĠÑĤ Ñĥ
il en
Ġsur face
ĠÐ¼ÐµÐ½ ÐµÐ´Ð¶
Ġk iá»ĥm
ĠÐ³ Ð¸Ð´
ĠÑģÐ¼ ÐµÑĢ
ue bles
C om
Ġexp lica
or k
è¡ Ģ
le z
at as
ĠÐºÐ¾Ð½ ÑĨÐµ
den za
å®ī åħ¨
ient ÃŃ
Ġpar cours
az io
c ente
Ġfich ier
Ġexp lique
ĠNo Ã«l
Ġpermet tent
ĠÑĢÑĭÐ½ ÐºÐµ
ĠÐ¼ ÑĥÐ»ÑĮÑĤ
Ġtar get
Ġjak im
Ġâ ĳ
Ġæ ©Ł
ãģĮ ãģĭ
Ġvo glia
Ġparte cipa
ĠÐ³ ÐµÐ½ÐµÑĢ
Ġris pos
Ġæ¥ŃåĭĻ çĶ¨
± ³
ĠJac ques
ĠA D
era i
Ġparti es
Ġmulti p
Ġfor mas
Ð¾Ð¶Ð´ ÐµÐ½Ð¸Ðµ
ĠP atri
ĠJu in
Ġb ons
ÅĤ ym
ri mÃ©
Ġfon do
ĠÑħ Ð¸Ð¼
sa ires
5 9
5 6
ign es
ĠcompÃ©ten ces
ĠÐ¿ÑĢÐ¾ÑĪ Ð»
iej ÄĻt
Ġdom anda
Ġo ther
ĠC Ã´
E n
ĠMe uble
Ġsim il
ggia re
Ġm inh
fas st
Ġquar tier
ÑĭÐ² Ð°ÑİÑĤÑģÑı
Ġsi cura
O i
ĠÅļ lÄħ
Ġm iaÅĤa
å· ±
ĠÑģ Ñĥ
Ġper mette
Ġah or
Ġn our
ĠÐĶ Ð¼
ĠÑģÐ»ÑĥÐ¶ Ð±Ñĭ
ĠD A
ĠMon te
Ġ) ))
Ñĩ Ð¸ÐºÐ¸
77 27
ĠÐ¿ÐµÑĢ ÐµÐ½
ar da
Ġver ifica
ãĤĴ çŁ¥
ĠG et
Ġï »¿
ĠÑģÐµÑĢÑĮ ÐµÐ·
ĠK urz
owan ego
Ġna ve
çī© ä»¶
æŃ ¦
Ġarri Ã¨re
ĠÑĢ Ð¾Ð¶Ð´ÐµÐ½Ð¸Ñı
ãģı ãĤĮ
les en
in ner
ÑıÐ± ÑĢÑĮ
" >
ĠÐ¿ÑĢÐ°Ð² Ð¸Ð»
å¹´ ãģ«
b W
Ġseg ment
ĠPhili ppe
Ġquoti dien
ĠÑģÐ»ÑĥÑĩ Ð°Ð¹
Ġzape wni
ĠSÃ¼ d
ti Ã©
st w
Ġdy n
ĠÑģÐµÐ¼ ÐµÐ¹
EN TO
Ġcres cita
Ġuti le
Ġg ara
Ġprzy ja
Ġpobli Å¼u
v ada
Ġposta ci
Ġcommun i
Ġdotycz Äħce
Ġce ll
ĠCh o
Ð° ÑĨÐ¸ÐµÐ¹
Ġ9 11
es tens
Ġj ul
ĠTh u
je ta
Ġm áº¡ng
se ments
ĠÑģ Ð¸Ð³Ð½
Ġ3 90
Ġapp ena
Ġcom en
in ess
Ġh ol
Ġdire cteur
ÑĦ ÑĤ
ĠSal on
x ion
Ġsos titu
ĠW etter
ĠÐĳ ÐµÑĢ
ĠDe us
Ġling ua
f ond
ĠÐºÐ²Ð°ÑĢÑĤÐ¸ÑĢ Ñĭ
ÐµÐ» Ð¸ÑĤÑĮÑģÑı
ĠÑģ Ð¾Ð»
Ġvez es
Ġdom in
mÃ¤ÃŁ ig
åĵģ è³ª
ĠÐ¡ÐµÑĢÐ³ ÐµÐ¹
Ġ05 7727
Ð¦ Ðĺ
ĠÐ³ ÑĢÐ°Ð¼
ĠÐ·Ð² Ð¾Ð½
ĠwÅĤaÅĽci w
èª °
Ġbe ispiel
Ġb Ãºsqueda
pr odu
Ġhab itu
ĠçĶ »
Ã¢ ng
Ġbad ania
ä¼ ¸
ĠBet t
ĠÐ¡ ÐµÐ¼
Ġcr ise
cz onych
ĠSex y
ĠLi ber
ĠÑĤÐ°Ðº Ð°Ñı
ĠÑĤ Ð¾ÑĩÐ½Ð¾
ãĥ¼ ãģ¯
ĠÐ² Ð°Ðº
Ġs áº¯c
ĠCom ent
Ġedi fi
ĠÐ°ÑĢ ÐµÐ½Ð´
ĠA lles
u ter
ita g
ĠA ller
ĠÑĪÐº Ð¾Ð»ÑĮ
ist ant
ĠÐ´Ð°Ð½ Ð½Ð¾Ð¹
Ð°ÑĤ ÐµÐ»ÐµÐ¼
ãģı ãģªãģĦ
Ġãĥį ãĥĥãĥĪ
Ġquier es
ĠInforma ciÃ³n
Ġco Ã±o
Ġj orn
Ġmovi miento
Ġpla ge
ĠÑĤÐµÐ¿ Ð»
æ¹ ¯
ĠåĨ ĻçľŁ
Ġpuis que
ĠÐ¿ÑĢÐ¾Ð¸Ð· Ð¾ÑĪ
ãĥªãĥ¼ ãĥ³
Ġe valu
ĠH ommes
ĠDa te
Ġcour se
ĠPre cio
cier on
Ġhá» ¯u
Ġin ici
Ġg lau
ct wo
ar ki
Ġb io
Ġroul ant
ĠPe ti
Ġsou tien
ĠT ym
ĠÐĲÑĢ ÑĤÐ¸ÐºÑĥÐ»
ĠÐ¿Ð¾Ñģ Ð²
ĠD ob
to m
Ð¸Ð¿ ÐµÐ´
ãĥ³ãĥ ¬
Ġpartici par
Ġessent iel
Ñĥ Ñı
ãģ§ãģĻ ãĤĪ
ï½Ĺï½Ĺ ï½Ĺï½Ĺ
åı ³
Ġ á»
Ġes igen
ĠC U
Ġespec ÃŃ
ĠAnt worten
ĠcatÃ©g orie
Ġloca le
ĠEr k
sch t
ĠÑģÐ°Ð¼ Ð¾Ðµ
Ġspos ob
ĠÐ·Ð°Ð¼ ÐµÑĩ
Ð¾Ð±Ñĭ Ñĩ
ĠÐ¿ÐµÑĢ ÐµÐ³
ĳ å¼µ
Ġãĥ ¨
Ġcompar tir
ĠK la
Ð¸ÑĢÑĥ ÐµÐ¼
Ġcaracter ÃŃsticas
cul ta
Ġre giÃ³n
Ð¸ÑĤÐµÐ»ÑĮ Ð½Ð¾Ðµ
ĠÃĸ ff
Ġc iaÅĤa
Ġbe en
ĠTi pps
å¤§ å¤ī
ãĥ« ãĥ¼ãĥĹ
åŃ¦ çĶŁ
ĠPres ario
ĠSch n
t ungen
ĠÐĿ Ð°ÑģÑĤ
Ġtrans port
Ð°Ð´ Ð»ÐµÐ¶
ĠB amb
Ġa gg
ĠÐĲ Ð±
Ð¾ÑĢ Ð¸
åľ° åŁŁ
Ġsprz ÄĻ
Ġ áº¥y
Ġnos tre
Ġs et
N v
Ġdru giej
ĠEsc ort
i tar
Ġm anger
ĠGr is
Ġh ar
Ġcar tes
ft ung
ĠDeta ils
ĠB log
zi p
ĠurzÄħdz enia
Ġteng a
ÐµÐº Ð¸
Ġrequ ire
y n
ãģĭãĤĤãģĹãĤĮ ãģ¾ãģĽãĤĵ
Ð¾ÑĢ Ð°ÑĤÐ¸Ð²
Ð°Ðº ÐµÑĤ
< /
ĠÐºÐ¾ÑĤÐ¾ÑĢ ÑĭÐ¼
ĠÐĿÐ°Ð¿ ÑĢÐ¸Ð¼ÐµÑĢ
Ġcittad ini
ĠAch at
Ġ6 2
Ġus age
s s
Ġnh u
fen se
ĠÐ¶ÐµÐ½Ñī Ð¸Ð½
ĠÑĤÐµÐ± Ðµ
ĠÐ±Ð°Ð½ ÐºÐ¾Ð²
ora Ã§Ã£o
h end
ĠÃ© li
ĠÐ¿ÑĢÐ°Ð² Ð¸Ð»Ð¾
Ġw es
ãģł ãģĹ
çģ ½
Ġarbeit en
Ġconta cter
ec t
or ti
ä¿® çĲĨ
ĠåĢ ĭäºº
Ġc Ã¢y
Ġcorre o
Ġins cription
ĠRÃ©p ublique
Ġso le
Ġobec nie
che ment
Ġmal grÃ©
ĠãĤ¹ ãĥĪ
cul ture
ĠU ma
Ġex Ã©cu
d Ã©
ĠD onne
mes so
ĠKo lej
å¬ ī
Ġé ļ
Ġob li
Ð¸ÑĤÐµÐ»Ñı Ð¼
ĠAk tiv
ĠÐ½ ÐµÐ¶
mF t
Å¼ d
Ġmo vil
ne z
ĠéĢļ è²©
Ġãĥ¦ ãĥĭ
ãĤ¤ ãĥ¡ãĥ¼ãĤ¸
mi te
ÑĭÑĤ ÑĮ
Ġèĭ ±
T 00
Ġop ti
gi es
Ġcara ct
ĠÑĥÐ¼ ÐµÐ½ÑĮÑĪ
Ġraz Ã³n
Ñģ Ðµ
ca mb
Ġindiri zzo
u ty
Ġ Ã¡p
Ġpad res
Ġ iss
ĠÐ¿ÑĢÐµÐ´Ð¿ÑĢ Ð¸Ð½Ð¸Ð¼
Ġs omos
Ġcono cimiento
ĠÐ¾Ð´ Ð½Ð¾Ð¼
Ð» Ð°ÑĪ
ĠÐ´ÐµÐ» Ðµ
èĬ ¸
um Ã©
Ġconf ort
ĠÑģÐ² ÐµÐ¶
Ð¸ÑĩÐµÑģÐº Ð¸Ð¼Ð¸
Ġos ser
ĠMicha el
ĠK olle
l aden
Ġb ran
ĠÐĵ Ðŀ
ĠÑĥÑģ Ð¸Ð»
ĠÐ¿ÐµÑĢÐ² ÑĭÑħ
ungs ver
d am
ĠÐ·Ð°Ð¿Ð¸Ñģ Ð¸
ĠÐ·Ð°Ðº ÑĢÑĭÑĤ
Ġhistori i
ĠP ap
Ġgegen Ã¼ber
ãģ®ç Ĥ
ĠÑħÐ°ÑĢÐ°ÐºÑĤÐµÑĢÐ¸ÑģÑĤ Ð¸ÐºÐ¸
ĠÑģÑĤÐ°Ð½ ÐµÑĤ
rÃ© al
Ġrom an
ĠdÃ© g
Ġpou co
Â ¯
Ġg áº·p
ĠK aufen
Ġvorh anden
ĠFer ien
Ġver gleich
er Ãł
ãģ®æ Ŀ
Ġav an
ci de
ta ine
Ġverwend et
Ġbi ur
ĠâĪ Ĵ
éĢ£ çµ¡
gue z
mi co
Ð¸Ð±Ð»Ð¸ Ð¾ÑĤ
ĠÐ» Ð¸Ð´
ĠP ani
Å¼y w
Ġreali zacji
Ġdoty czy
èĢ ģ
ãĥŁ ãĥ¥
and es
è© ³ç´°
ãģ¨ãģĹãģ¦ ãĤĤ
Ġpod rÃ¡
Ġoff rir
wy ciÄĻ
ĠKomment ar
ĠR und
Ġges tal
pie le
ite t
Ã©r os
ĠÐ¸ Ð½Ð¾ÑģÑĤÑĢÐ°Ð½
ĠDire cciÃ³n
Ġalter na
ãĥ³ãĥ ļ
ãģĦ ãģĭ
ĠS U
Ġres pe
ĠeuropÃ© enne
Ġscor so
Ġb Ãł
Ġal quiler
ro ffen
ĠÐĴ Ð°Ð»
Ġå° Ĥ
Ġv n
Ġh áº¡n
ĠJes Ãºs
ĠUni versitÃ©
ĠÐ¼ Ð¾Ð½ÑĤ
ĠÐ¼ Ð°Ð»Ð¾
qu ite
Ã¢ tre
ma gne
Ð¼Ð¾ÑĤÑĢ Ñı
Ġconsi gli
ãģ®è ¿
Ġinteres se
Ġpas e
Ġnadz iej
id en
Ġstu di
Ġc ere
en ch
Ġjou eurs
Ġå® ®
ãĥĲ ãĤ¤ãĥĪ
ãĤ³ ãĥ¼ãĤ¹
i fe
Ġesf uer
Ġinsta ll
ĠrÃ¨g les
Ġb ai
ba ciÃ³n
ĠÐ½ÐµÐ´ Ð¾ÑĢ
teri ori
Ġzarz Äħdz
ĠH Ã¼
è¦ĭ ç©į
ĠServi cios
Ġwykon yw
ãĤı ãĤĮãģŁ
om in
Ġris ques
Ġres taura
ĠS eine
qu ence
ĠÐº Ð°Ð´
ĠÐ´Ð°Ð½ Ð½ÑĭÐ¹
ĠIn oltre
ç ¦
Ġma Ã®
Ġm Ã¨tres
ĠÐºÐ» Ð¸Ð½
ĠÑĥ Ð½Ð¸Ðº
Ġne llo
Ãł m
Ġprogra mu
ÑĭÐ´ ÑĥÑī
ãĥ³ãĥ Ĭ
l ungen
ãĤ» ãĥķãĥ¬
Ġãĥĭ ãĥ¥
ĠKh i
Ġma ÅĤo
b ÄĻd
Ġefec tos
Ġfonction nement
ĠWysÅĤ any
ÄĻ dzi
om Ã©
ĠÐ¿ÑĢÐµÐ´ Ð¿
ÑĤ ÐµÑģÑĮ
Ġing lese
iÃªn cia
ĠFar ben
ĠP resse
Ġaff aire
Ð³ Ð¾ÑĢ
Ġwy ro
ÃŃ do
an lage
Ġin kl
ĠMit t
Ð² Ð¸Ð´
º «
ini que
Ġfais ant
ĠÑĦÐ¾ÑĢÐ¼ Ñĭ
ĠC iÄĻ
hb WU
Ġprzy pom
Ġay er
Ġcon tar
ĠF Ã©v
Ġdi pl
Ġç Ĩ
ĠW ald
si v
ĠÐľ Ð°Ð»
ĠÐĶ ÑĢÑĥÐ³
æ· ±
Ġkle in
ho f
Ġinter vento
ãģĺ ãģ¦
ĠS uch
ĠS cra
Ġ9 2
nage ment
iOi J
I m
Ġs ter
ĠWe ise
A r
ĠÑģÐ¾Ð·Ð´ Ð°Ð½Ð¸Ñı
nict wa
ãģ¨ åĲĮãģĺ
Ġfo ot
Ġexper t
ĠÐ¿ÑĢÐµÐ´Ð»Ð°Ð³ Ð°ÐµÑĤ
Ġimpres e
Ġgo verno
dzie ÅĦ
Ġau th
Ġb owiem
Ġdos tar
an na
Ġroz woju
ĠÃ ±
ĠÄĳ áº§y
ĠConta ctez
ti Ã¨res
Ġp unk
Ġami go
Ð¸Ð² Ð°
ĠÑģ ÑĥÑħ
ĠÐ²Ñĭ ÑĢÐ°Ð¶
ĠA li
ÑĨ Ñĥ
ãĥĪ ãĥ³
Ġâ ī
ãĤĴæ ķ
Ġper der
Ġgan ar
ra nge
Ġfond s
ĠG miny
Ġr ower
Ġk Äħ
Ġå ¡
Ġvor her
c ou
Ã© tique
Z E
ĠO czy
æ¨ ª
ĠÑģÐ°Ð¼ ÑĭÐ¼
Ġjed nÄħ
Ġt ÃŃn
vel a
g al
ãģł ãģĮ
d amento
ãĥĲ ãĤ¹
Ġri m
ling s
Ġpregun ta
Ġc ic
ĠÐ²Ð°Ð¶ Ð½Ð¾
ĠCie bie
ĠmÃ³ gÅĤ
Ġwy Å¼
ĠUnter stÃ¼tz
ĠÐ° Ð³ÐµÐ½ÑĤ
Ġngh i
vier on
W y
Ġnies tety
ĠN au
Ġterri toire
ãģĦãģ¾ãģĻ ãģĮ
Ã¤n dern
Ġres ter
Ġmis ura
Ġre jest
Ð¸ÑĤ ÐµÐ»ÐµÐ¼
Ġac co
ÅĦ skiej
Ġser Ã¡n
Ġrius ci
Ġho gar
Ġme mbre
ĠÐĹ Ð°Ð¼
åĩ¦ çĲĨ
ĠE X
ul as
Ġconsom mation
ĠÑĦ Ð¸Ð³
es to
Ġè¨ ĺ
Ġu003 e
Ġsupp ort
Ġ6 8
ĠidÃ© al
Ġconn u
ĠÐĵ Ð¾Ð»
Ġmaggio re
ãģł ãģª
ãģ¾ãģ¨ ãĤģ
Ġéģ ĭ
ĠÐ¿ÑĢÐ¸Ñģ ÑĥÑĤÑģÑĤÐ²
ĠÅĽrod kÃ³w
Ġnieruch omoÅĽci
Ġczas em
å« Į
ĠÐ¼Ð°Ð» ÑĭÑĪ
ĠÑĪ Ð°Ð³
ĠAd ministra
Ġposi ciÃ³n
ĠÑĦ Ð¾Ð½
ĠÐ¼ÑĥÐ·Ñĭ Ðº
Ġk g
ãĥŀ ãĤ¹
Ì ĥ
Ġtr áº£
ĠÐ¸Ð´ ÐµÑĤ
ĠÑģÑĤ Ð°Ð»Ð°
Ġku piÄĩ
Ġobra z
Ġne w
æĪ ĳ
ĠamÃ©li orer
Ġä»ĬåĽŀ ãģ¯
ãĤĴ éĢļ
Ġpropos er
J l
Ġza tru
Ġh yd
ĠCh ico
Ġd an
chi vo
ĠÐĺ Ð³ÑĢ
ĠÑģÐ² Ð¸Ð´ÐµÑĤ
kuje my
Ġjak Äħ
Ġt ab
Ġac cessi
Ġse is
ta dt
ĠÐł ÐµÐº
Ġa zione
b 2
Ġwsp ar
Ã© p
ĠHa cer
ber n
ue ur
ĠÐº ÑĥÐ´Ð°
ĠÐ± Ð¾ÑĢÑĮ
Ġver re
Ġth er
Ð²ÐµÑĢ Ð³
ĠLe ggi
OL O
ica re
Ġper dere
Ġdom enica
Ġprz ych
Ġl ut
Ġp ÅĤ
Ġå¹³ æĪĲ
ãģĳ ãģ°
h am
ĠÐ½ Ð°Ð¶
éĸ¢ éĢ£
ĠE tiquetas
Ġrespons abilidad
Ġcl Ã¡
vis or
tori os
ĠÐ³ Ðµ
D A
Ġè Ī
ch as
Ġsap ere
ĠKra kÃ³w
Ġtek st
Ġris or
ac co
g Ã©e
Ġquoti di
Ġdist ancia
o te
Ð½Ð¾ Ñĩ
Ġro ÅĽl
ç® ±
è Ļ
ÐµÑĢ Ð°Ð¼
Ġf ica
Ġti pos
en ant
ĠÑģÐº ÑĢ
] ,
OW Y
ĠN as
Ġza pr
ãģĻ ãģ¹ãģ¦
u ern
Ġmar ques
Ġchau di
Ġc ong
ĠÑģÑĤÐ¾ÑĢ Ð¾Ð½
Ġwym ag
Ġwh at
Ġ6 7
ur er
uis se
ac cia
Ġpartici paciÃ³n
Ġpor tes
ĠÐ³ ÐµÑĢ
ĠÐ¤ Ð¾ÑĢÐ¼
ĠÅĽ w
4 8
ĠM az
Ġ ost
Ġmagni fique
Ġgr oupes
ĠÑģÐ¸Ð¼ Ð¿
Ġconos cere
ĠLÃŃ nea
cul ares
Ġm ec
ex ual
Ġper u
Ġl unes
ĠH au
Ġpie ds
ĠÐºÐ°ÑĢÑĤ Ñĭ
den do
Ġç·¨ éĽĨ
ãĥ³ãĤ ±
ĠM eine
Ġher vor
ĠHa llo
ĠTe ch
ten tion
ĠSonn tag
it ant
ĠÑģÐ¸Ð» Ñĥ
owan ym
ãĤ· ãĤ§
ci to
ĠÑģÐ¿ Ð°Ñģ
Ġãĥı ãĤ¤
ĠG ruppe
Ġpass ato
Ġsal ari
Ġcon dition
æľ Ń
ĠÑģÐ¾Ð²ÐµÑĢÑĪ ÐµÐ½Ð½Ð¾
ĠÐļÑĢ ÑĭÐ¼
Ð¸Ñĩ Ð½ÑĭÐ¹
ãģ® ãĤª
k ungen
I d
Ġv oulez
ĠÐ° Ñį
áº ¢
ĠÅĤa zien
ĠAnd rzej
z j
ĠÂµÃ Ħ
ĠÄĳ Ãºng
ç¥ Ń
ĠAs socia
Ġaff ron
Ġre gu
ri eren
ĠÐļ ÑĤÐ¾
ĠÐ·Ð°Ñī Ð¸ÑĤÑĭ
Ġtrabaj adores
Ġv ien
ĠL ond
ĠU RL
å¹´ åº¦
ĠT Ã´i
ĠÐ³ ÑĢÑĥÐ´
ĠÐ°ÑĢ Ð¼
Ġk wes
je k
ãĥª ãĤ¸
èĩª åĭķ
Ġpro ches
Ġm ale
ĠsÅĤu Å¼
æ¸ ¬
Ġc Ã¡o
ĠF on
Ġma ins
tes i
ÅĤu Å¼
Ġw ould
Ġof ic
ĠÐºÐ°ÑĤÐµÐ³ Ð¾ÑĢÐ¸Ð¸
ter iore
thÃ¨ que
ologi es
ĠÃ©tra ng
iste mi
ĀĀĀĀĀĀĀĀĀĀĀĀĀĀĀĀ ĀĀĀĀĀĀĀĀĀĀĀĀĀĀĀĀ
Ġsp ia
rze Äĩ
Ð°Ð± Ð¸Ð»
Ġg anh
ane k
un tos
Ġalre dedor
ĠÐ±ÑĢ Ð¾Ð½
Ġgru py
ĠNuo vo
ĠAnn un
cia lizza
ķ çĶŁ
al ter
Ġmagas in
ĠW ill
le tt
sch rift
min ister
ĠT oul
ĠB ri
la in
Ġpour tant
0 7
¯ ãģĦ
Ġutilis ateur
we k
Ġutil ise
Ġpos ti
Ġbe lles
v Ã©es
ãĤīãĤĮ ãģªãģĦ
ÐµÐº Ð¾
Ġsol uzione
ĠÄĩ wi
ãĤ¤ ãĥ³ãĤ¿
ita re
Ġwi zy
it ter
ĠAm Ã©rica
Ġdemas iado
bur ger
ĠZ w
ĠÐ¼ Ð°Ð»ÑĮ
Ġprodu tos
Ġesper a
ur r
Ġtes ti
Ġpo kaz
ĠçŁ ¥
ÐłÑķ Ðł
ĠÐĿÐ¾Ð² ÑĭÐ¹
ĠÐ´ÑĥÑħ Ð¾Ð²
ãģ« åĲĳ
ĠVá» Ľi
titu d
w us
Ġrec ru
ÑĤ Ð¾Ð½
Ġpen si
ĠMe ille
g y
Ð»Ð¸ÑĪ ÐºÐ¾Ð¼
ĠÐ¸Ð¼ ÐµÑĤÑĮ
ĠL am
ĠAppar tement
Ġur gence
Ġkon kre
Ġtr Ãªs
Ġjakie ÅĽ
Ġza po
Ġad olescente
ĠRes p
g ada
S ch
Ġs lo
ĠAn bieter
Ġpe ur
Ġfa ccia
Ġs omit
b Ã¼
n der
ĠÐ» ÐµÑĩÐµÐ½Ð¸Ðµ
Ðº Ð¾ÑģÑĤÐ¸
Ġus un
Ġm á»Ł
ĠÐ¢ Ð¾
tor ie
ĠA F
Ġconna Ã®tre
Ġ100 0
Ð°Ð»ÑĮ Ð½ÑĭÐ¼Ð¸
ÐµÐ¹ Ð´
ĠÑįÐºÑģÐ¿Ð»Ñĥ Ð°ÑĤ
ĠS ant
fic ado
ĠÑģ Ñİ
al nego
ot he
di ge
ĠÐĵ Ð´Ðµ
ĠÐ¾Ð± ÑĥÐ²
ç ı
ãĥĭ ãĥ¥ãĥ¼
ãģ®è »
c ola
h el
Ġber eit
ÑĢ Ð´
ĠÐ°Ð´Ð¼Ð¸Ð½ Ð¸ÑģÑĤÑĢÐ°ÑĤ
Ð¾Ð²Ð°Ð½ Ð¸Ñİ
ĠzamÃ³wi enia
ĠkaÅ¼de j
ne y
Ġæł ªå¼ıä¼ļç¤¾
Ġä»£å¼ķ ä¸įåı¯
Ġåľ ¨
ĠÐ´ Ð»Ð¸Ð½
å¯Ħ ãģĽ
Ġï¼ Ŀ
Ġï¼ ¼
ĠåĨ į
éĿ¢ çĻ½
èª Į
ãĤĤãģ® ãģ®
Ġinter pre
Ġc itoy
ĠÑģÐ¼ Ð°ÑĢÑĤÑĦ
Ġimport ancia
Ġsm ak
Ġpra ca
Ġodpowie dzi
ĠW ett
ĠÑģÑĤÐ°Ð½Ð¾Ð² Ð¸ÑĤÑģÑı
Ġado p
ãģ®æ ĺ
Ġp kt
Ġsk ÅĤada
ĠHaus e
ãĤĤ ãĤĬ
ãĤ½ ãĥ³
ĠÂ ¢
ĠÂ ¯
Ġthu á»ĳc
Ġc á»±c
Ġacc ue
Ġvis uali
Ġrisul tato
ki r
ĠÑģ Ð½Ð¾Ð²Ð°
ĠMa x
Ġs owohl
ma tiques
ãģ£ãģ¦ ãģįãģŁ
Ġth Ã¨me
Ġri por
ĠÐ´Ð²Ð¸Ð¶ ÐµÐ½Ð¸Ñı
Ġdigi tal
Ġzmi enia
Ġè ĳ
Ġpue dan
mo ine
ĠÂ¡Â £
ĠÄĳ áº¥u
Ġgratu ita
å§Ķ åĵ¡
Ġne ed
Ġni Ã±o
ĠhÃ© si
om ie
ĠdÃ© jeuner
ĠÐ°ÐºÑĤ Ñĥ
Ġsvilu pp
ĠÑħÐ¾ÑĢÐ¾ÑĪ ÐµÐ¼
ĠÑĢÐ°Ð·Ð²Ð¸ÑĤ Ð¸Ðµ
ĠÐºÑĢ ÑĭÑĪ
Ñİ Ð½
ĠÐł Ðħ
ĠÐ¿ÑĢÐµÑģÑĤ ÑĥÐ¿
Ġlle ga
IL L
Ġcommen cer
Ġenreg ist
ei tos
iÄĻ cie
ï¼ ¦
Ġ2015 å¹´
ä»ķ æ§ĺ
ĠÐ½ÐµÐºÐ¾ÑĤÐ¾ÑĢ ÑĭÑħ
ãģ®æ ¥
Ġelectr Ã³nico
Ġpag amento
ggi ori
ĠãģĦ ãĤį
ãģ¹ ãĤĭ
ĠÅ» y
Ġh ue
Ġin dependi
ĠP eter
ãģ®å¯ ¾
ĠKle in
n ers
Ġwy t
è§ ¦
l ad
ÑĭÐ² Ð°Ñı
ĠB io
d chen
ĠLE D
un Ã¤chst
Ġpes quis
Ã¤ um
Ġdist ance
ĠÐ± Ð»Ð¸Ð¶
Ġseg re
Ġutilizza re
Ġcoup le
ĠÑĥÑģÐ¿ ÐµÑħ
stÄħ pi
æĬ ĺ
ina zione
Ġdu as
ĠS istema
Ġpre ten
statt ung
ĠO li
m ant
auss ure
Ġjourn al
ĠÐ¿ÑĢÐ¾ÑģÑĤ ÑĢÐ°Ð½
nh eim
ĠR olle
Ã Ļ
Ġc Æ°
ĠS ab
Ġpie dra
ĠverfÃ¼ gbar
Ġgu ide
ĠUn ion
Ð¸ÑĤ Ð¾Ð²
ĠS em
Ġtien da
Ġtend rÃ¡
ÑģÑĤÐ²ÐµÐ½ Ð½ÑĭÑħ
ĠÐľ ÐµÐ¶Ð´
Ġo kaza
ãĤĴ åĪ©çĶ¨
tal ie
ĠPro fes
Ġmateria les
Ġun be
ĠÐ½ÐµÐ´Ð¾ÑģÑĤ Ð°ÑĤ
unta miento
ĠmiesiÄĻ cy
P A
Ġme z
Ġal t
Ġstru cture
ĠÐºÑĥÐ»ÑĮÑĤ ÑĥÑĢÑĭ
Ġb lu
lla zione
Ġhá» Ĺ
ĠRes ponder
ĠMin isterio
ĠfÃ¼ hrt
Ġperf etta
r ano
Ġw Ã¼n
re ise
ĠÐŀÑĤ Ð¿ÑĢÐ°Ð²
Ð¾Ð³Ð» Ð°ÑĪ
ka Å¼
èĢħ ãģ¯
Ġmalad ie
ĠEs corts
cia liz
Ġsce gliere
Ġzami esz
Ġt Æ°Æ¡ng
ĠÐ²Ð¾Ñģ Ð¿ÑĢ
Ġdovre bbe
Ġcomple ta
ĠHis toire
5 3
Ġpl at
Ġsex uales
Ġm undial
ĠJ ardin
Ġ200 3
Ġp ilo
uch ten
ĠÑĢ Ð°ÑģÑĤÐ²
ĠÐľ Ð°Ð¹
ver y
ĠÐ½ Ñĥ
ĠÐ²Ð¿ Ð¾Ð»Ð½Ðµ
ÑģÑĤ Ð¸ÑĤÑĥÑĤ
ĠÐ´ÐµÑĤ Ð¸
Ġn ord
la ch
ĠL ink
ĠCom puter
ĠÐ²Ð¾Ð¹ Ð½Ñĭ
ow ol
Ġty p
å¾ ĭ
ĠBlan co
si cos
Ġch icos
Ġalo j
ĠCas inos
Ġr áº»
Ġpod z
ĠVer tra
ĠN un
do b
ĠSe hr
je ch
Ġverw enden
Ġw ere
Ð¸Ð½ ÑĤÐµÑĢ
ĠÑĤ ÐµÐ¼Ñĥ
Ġservi Ã§os
çĽ® çļĦ
ĠÐ¡Ð¾Ð² ÐµÑĤ
Ġjed es
ĠFunk tion
tis chen
ĠAless and
YW 1l
Ġz y
ÑģÑĤÐ²ÐµÐ½ Ð½Ð¾Ð¹
Ġtho áº¡i
Ġg uerra
Ġfour n
Ġtele wi
ĠBl ue
Ġ8 6
alis te
ĠÐ¿Ð¾Ñģ Ð¼Ð¾ÑĤÑĢÐµÑĤÑĮ
ĠStu di
ph ie
is ant
è¡ £
w issen
Ġsp iele
s tre
Ġremp la
ĠÐ´ÐµÐ¿ ÑĥÑĤ
ĠÐ°ÑĢ ÑĤ
ãĥĥãĥģ ãĥ³
Ġéĩ İ
ĠÐ£ ÑĢ
ĠÑĦÐ¾ÑĢÐ¼ Ðµ
ma ges
Ġencuent ran
Ġsuff it
Ġw ich
Ġconna issance
ĠÐ¶ Ð°Ð»
ĠÑģÑĤ ÑĢÐ°ÑĤÐµÐ³
Ð°Ð½ Ð½Ð°Ñı
Ġrozpo czÄĻ
t us
Ġé Ł³
ĠÐľ Ð½Ð¾Ð³
ãģ®å Ģ
Ġcom enz
ĠSch Ã¼ler
v am
Ġgru p
ĠP uerto
ab oraciÃ³n
Ġim media
ti ti
Ġtr anh
U C
Ġre cl
ĠÐ·Ð°Ð±Ð¾Ð»ÐµÐ² Ð°Ð½Ð¸Ñı
ı ¡
was ser
Ġc lÃ©
h ilfe
ĠrÃ©du ction
ĠÐ· Ð½Ð°Ðº
Ġle i
Ġmas sa
ga ta
ĠK ostenlos
Ġkonn ten
Ġpubli cs
ru zione
Ġenf rent
Ġpoli ce
z ja
Ð¾Ñĩ ÐµÐº
ÐµÐ· Ð¶
cz nik
pr ow
Ġge h
Ð°Ð² Ð½Ð¾
owa Å¼
ä¸į åĭķçĶ£
ĠãĥĪ ãĥĥãĥĹ
è ®
ĠãĤ¹ ãĥŀãĥĽ
ĠZ us
ĠReg ione
etta re
u tare
Ġãģ ı
Ġå Ĥ
Ð»Ð¸ ÑģÑĮ
ãģĻãĤĭ ãģŁãĤģ
di entes
Ġpres up
ĠInter nation
Ð¸Ð½ ÑģÐºÐ¸Ð¹
Ð± Ð¸ÑĢ
ĠÐĹ Ð°ÑĤ
on ica
vis ione
id ores
ĠBÃ¼ cher
mp ora
h one
cula tion
Ġpens ar
ĠKar te
hand el
Ã¤uf er
Ð°ÑģÑģ Ð°Ð¶
t one
ĠÃ©vol ution
Ġsp a
ĠÃ©tudi ants
ĠAd ul
Ġsu elo
Æ°Æ¡ i
Ġpowie dziaÅĤ
ä» ²
er ung
ĠK l
z ieren
ener dÃ¬
te lli
èº į
ĠÑģÑĤÑĢÐ°Ð½ Ðµ
ĠS ub
ĠRe y
¦ Ĥ
B A
Ġprogra mas
Ġb onnes
di mento
ĠT uy
èĩª èº«
ĠLes bianas
Ġcoraz Ã³n
ĠR ose
ĠL ivre
Ġouti l
Ġcap ire
ä»£ è¡¨
ãģĵ ãĤĵãģª
ĠãĢ ĭ
ãģ®ç ¨
I M
Ġrich ie
ĠHo teles
Ġmin er
or ca
ĠNa v
r eno
ĠÐ¿ÑĥÑĤ Ð¸
b w
ĠC olor
Ġm ostr
ĠDes arro
ĠP Ã¡g
ĠEn tr
ĠAd olescente
Ġvelo cidad
ĠC lau
S S
Ġf lo
ĠÐ´ÐµÐ½ ÐµÐ¶
Ð¾ÑģÑĤÐ°Ð² ÐºÐ°
ÐµÑī ÐµÐ½Ð¸Ðµ
Ġèª ¿
ĠGr Ã¼
ĠB aby
ĠUr laub
ĠÐŁÑĢ Ð¾Ð³ÑĢÐ°Ð¼
ĠÐºÐ»Ð¸ ÐµÐ½ÑĤÐ¾Ð²
ĠNies tety
ĠK al
ÐµÑĩ ÐµÑģÑĤÐ²
Ġex tr
ĠÐĹ Ð°Ð³
kow ski
Ġnie co
ãĥŀ ãĤ¤
ĠGes chen
ĠP s
ĠLa ger
ges sen
Ð¸ÑĨ Ð¸Ñı
ç· ´
f Ã¤l
Ġsr c
ĠwaÅ¼ ne
ä¸Ń ãģ§
Ġcro issance
Ġspot kania
Ġconcas seur
bor ation
Ġpan ne
Ġloca les
ĠÐ¶ Ð¸Ð´
Ġt worzy
ĠBe handlung
tig es
k unden
Ġbre ve
Ġåı Ĥ
Ð°ÑĢÐ¸ ÐµÐ²
ĠU lti
Ġge wor
ĠH u
Ġcontin ue
ologi ques
Ġu a
ĠÐ¾ÑĢÐ³ Ð°Ð½Ð¾Ð²
iglia mento
Ġpie di
åĪ °
Ġide al
ĠW Y
cia ch
Ġb ay
Ġbuen os
di ente
Ġsu el
ĠD anke
ient Ã´t
ge ments
ĠÐ²Ð½ ÐµÑģ
Ġproje to
ut ung
ĠCont in
Ġcom mento
Ġin fer
Ġj et
éĿŀ å¸¸ãģ«
sp iele
Ġp ÅĤa
ul er
ĠÐ°Ð±Ñģ Ð¾Ð»ÑİÑĤ
Ġak tiv
niej szy
Ġacor do
di tos
Ġpag ar
Ġfre qu
ĠConta cto
ĠprÃ© sta
Ġp uerta
ĠB lau
j Ã¤h
Ġparten aires
Ġconcer ne
ĠS O
pe dia
ba te
ÑĥÐ¼ Ð°
Ġsem anas
ĠÐ¿ÑĥÑĤ ÐµÑĪÐµÑģÑĤÐ²
Ġdecis iÃ³n
f ter
ĠD V
teil t
Ġdu Å¼e
Ġmon ta
pf lich
ti le
Ġzw eiten
ci pe
czy ny
ĠK u
ĠWy kon
ĠM aj
uj esz
ãģ« ãģı
R e
ĠS ource
Ġ8 9
) ,
Ġtable au
Ġmont ant
ĠW ind
Ġfa ible
Ġs ani
ĠStar tseite
lÃ¼s sel
ta rz
Ġprote cciÃ³n
Ġdar an
Ġsoddis f
ĠsÅĤ owa
Ġnatur ale
ł çĶ»
as si
Ġtuo i
Ġmas simo
ci lia
ĠP es
Ġabb ia
ku jÄĻ
itel ist
wa j
Ġnor te
b us
ï¼ ®
ãĤ¤ ãĥ¼ãĥ«
Ġm idi
ãģĿãģĨ ãģª
ãģĮ ãģĦ
je kt
Ġc ouv
ãģĮ ãģ¤
Ġh Ã¶r
ä¾Ŀ éł¼
ĠSchwei z
4 æľĪ
ĠÐ¿ÑĢÐ¾Ð³ÑĢÐ°Ð¼ Ð¼Ð°
ĠÐ¾Ð±ÑĬ ÐµÐ´Ð¸Ð½
Ġes ser
ãģĭ ãģĦ
Ġgi áº£
ĠErgeb nisse
ĠâĢ ķ
Ġbeispiel sweise
Ġza u
ĠJo hn
Ð°Ð´ ÑĨ
Ġåį Ĺ
w nÄħ
ĠtÃ©lÃ© charger
Ġm ent
Ġ its
ĠBay ern
Ã¤n dig
Ġesp Ã¨re
Ġbef indet
ani i
Ġb ru
ur Ã©
ĠdÃ© pos
åİ ļ
ĠLe ute
ĠF ond
ĠÐ¾Ð¿Ð¸Ñģ Ð°Ð½Ð¸Ðµ
ĠÐ¼ÐµÑģÑı ÑĨÐ°
ãģ§ãģĹãģŁ ãģĮ
Ġ', '
Ġser rure
Ġf aute
ĠL igne
o x
inte mps
Ġc Ãłng
Ġza jÄĻ
Ġsenti r
Ð¾Ñĩ Ð½Ð¾Ð³Ð¾
tur ale
ka li
ãĤ¹ ãĤ«
ĠM Ã¡
Ġes corts
Ã©r coles
Ġa st
ãĤ¦ ãĤ©
ĠC L
Ġpein ture
è² ¬
l Ã¶s
Ġdispos e
ĠÐĶ Ð¾
Ġpop raw
ãĤ ¥
Ã¡ tica
ĠcrÃ© dit
ĠÐ·Ð°Ð´ ÐµÑĢÐ¶
ĠA socia
ĠGes amt
Ġph arma
ĠL et
ĠrÃ©gi me
Ġpres sion
Ġc á»¥
ĠS olo
forder ungen
ĠWarsza wie
Ġmo im
Ġcieka w
ow ÄĻ
Ġprze wod
ĠSegur idad
Ġ3 D
Ġofre cer
Ð°Ð» Ð»
Ġl iter
Ġfre uen
Ġdes halb
te chnik
ĠOrigin al
ĠT al
ign on
de ment
90 11
Ġfin anzia
Ġdocu ments
ĠÐŀÑĤÐ·ÑĭÐ² Ñĭ
ĠÐĺÐ½ Ð´
Ġer reichen
Ġag rad
Ġcomer cial
Ġvoyage urs
Ġcom ida
Ġbe ll
Ġmet ri
ĠT rze
Ġdes tina
Ġw szyscy
Ġbel ieb
åĪĿ ãĤģãģ¦
á»ĵ m
ĠÐ¿Ð»Ð°ÑĤ ÐµÐ¶
Ðº Ð¾Ð½
Ġ3 A
Ġaccom pagn
ĠÐĲÑĢ ÑĤ
at u
ĠSe Ã±
Ġ6 3
ĠÃ©qui p
Ġprodu c
ia t
Ġvo let
ĠG ÅĤÃ³w
Ġs istemas
ta rios
Ġmar i
ĠÐ±Ð¸Ð·Ð½ÐµÑģ Ð°
ÐµÐº ÑĥÑī
ra zione
ĠÐ¾ÑĤÐ² ÐµÑĩ
Ġnie mie
ãĥĥ ãĤµ
Ġs Ã¡bado
Ġe aux
ĠÐ´Ð¾Ð¿ Ð¾Ð»Ð½
ĠÐºÐ¾Ð½ÑĤÑĢ Ð¾Ð»ÑĮ
Ġnatur aleza
ĠSch ule
Ã¨ se
Ġstr umenti
Ġmad era
Ġm ara
Ġescu ela
Ġç ®
çķ Ļ
cie ls
Ġre mb
Ġp eine
Ġde ja
ĠV endita
g ge
Ġk lub
Ġqu alidade
Ġr od
ĠF it
ĠÐ·Ð½Ð° Ñİ
Ð°Ð» Ð¾Ð¼
ç į
Ġgr und
Ã©ra l
Ġali mentos
ĠÑģÑĤ ÑĢÐµÐ¼
Ġdob ra
ĠDz iaÅĤ
an ki
Ġav enir
Ġtras fer
Ġstron a
ĠzwiÄħz ane
ĠFre itag
ann ten
m Ã©s
ãģ®æ ¯
å¼· ãģĦ
åħ «
pos ts
Ġ":" .
è¨Ī çĶ»
ĠÐŀ Ðĳ
ĠÐ¿ÐµÑĢÐ² Ð¾Ð¹
tal y
zz ando
ĠAl gun
st Ã¤r
Ġpromo tion
Ġstand ard
ĠÐ²Ñĭ ÑıÐ²
Þ¬ Þ
ĠÄĳ áº£m
ĠRab att
Ġsch Ã¶ne
ĠTe xt
ci ano
ãĥŀ ãĥ¼ãĥĪ
ĠFrank furt
ief el
ĠÑįÐº Ð·
ãģ«ãģª ãģ£ãģ¦ãģĦãĤĭ
ĠmatÃ©r ia
éŃ Ķ
ãĤĴ åĲ«
Ġâ ľ
Ġrece voir
ĠprÃ© c
Ġr ose
ĠO f
ĠC A
Ġmaxim um
ĠÐļ Ð½Ð¸
ĠÐĶÐ¼ Ð¸ÑĤÑĢ
ĠÐ¡Ð ĥ
Ðľ ÐĲ
ĠÐºÑĢ Ð¾Ð¼Ðµ
ÑģÑĤÐ²ÐµÐ½ Ð½ÑĭÐ¹
ĠmÃ© to
ĠL iter
ĠBel gique
Ġ390 9011
Ġesta te
ãģĭãģ£ãģŁ ãģ§ãģĻ
æĭ ł
Ġer hÃ¶
ĠÑĤ Ð°
Ã©ro port
Ġde mo
Ġincl uye
ĠV iele
ĠÐĲÐ² ÑĤ
Ġcon tes
ĠÐ½ Ð¾Ð¶
ĠÑģÐ¸Ð¼ Ð²
ĠSta ti
Å¼e k
ĠdÃ³l ares
Ġgdy Å¼
ĠnghÄ© a
a ient
ÐĴ ÐĲ
ĠÐŁ Ð¾Ð²
Ġth an
Ġz onas
r uf
ĠGe h
Ð¸ÑĢÐ¾Ð² Ð°Ð»
Ġæķ °
je my
pa nh
ĠwÅĤos Ã³w
Ġt zw
ĠÑģÐ²Ð¾ ÐµÐ¼
mi eren
Ġra y
Ġdru gie
æĺł çĶ»
ĠÑģÐ°Ð¼ Ð¾Ð³Ð¾
ãĤīãĤĮ ãģ¾ãģĻ
ĠS ÃŃ
# #
Ġbra ucht
ĠprÃ©sent ation
a ction
ĠÐĴ ÐµÑģ
Ġconna iss
ĠÐ¾ÑĤÐ½Ð¾ÑĪ ÐµÐ½Ð¸Ñı
ha ter
Ġk rzy
Ø §
Ã³ pez
Ġimp ul
kar ten
ĠÐ¾Ð±Ð¾ÑĢÑĥÐ´ Ð¾Ð²Ð°Ð½Ð¸Ðµ
Ġimmag ine
Ġpel os
ãĤ¨ ãĤ¢
Ġåı ¤
ĠÐ·Ð°ÑĢ ÐµÐ³Ð¸ÑģÑĤÑĢ
ĠTe mat
Ġko le
Z hb
ĠK ato
Ġzes ta
Ġprodu kt
ĠCh ate
di co
Ġåį ĥ
ĠÑĢÐ°ÑģÑģ Ð¼Ð°ÑĤÑĢ
ĠSz cz
Ġza czyna
ãĤ± ãĤ¢
Ġä¸Ģ èĪ¬
f assen
ĠSo ciÃ©tÃ©
Ġ25 0
Ġfaci li
Ġwe dÅĤug
Ġci ento
ĠÎ Ķ
ĠCer ta
ĠÐ¾Ñī ÑĥÑī
Ð°Ð½ ÐºÐ°
che z
AD A
Ġt are
ÑĥÑģ Ð¾Ð²
Ġdi ritti
ãģĮ ãģ§ãģįãĤĭ
Ġer forder
Ġaper to
Ã§ ar
ĠÃ ¸
Ġqu Ã½
Ġbenefi cios
ĠåŁ º
Ð¾Ñģ Ð¸Ð±Ð¸ÑĢ
ĠÐŁÐ¾Ð» ÑĥÑĩ
Ġan alisi
Ġmet tere
Ġas col
ĠÑĢÐ°Ð² Ð½Ð¾
odz enie
Ġkh áº£
ĠV ir
ç§ °
ĠÐĿ ÐµÐ´
ĠN uest
ĠO ggi
Ġan Ã¡lisis
ĠÐ½Ð°Ð³ ÑĢÑĥÐ·
mina ciÃ³n
ĠÐ²ÑĭÐ¿ Ð¾Ð»Ð½Ñı
Ġwy po
ato rio
ĠGru po
Ġfe men
Ġper ten
ãģĹãģ¦ãĤĤ ãĤī
ck iej
ï¼ ¿
ãģ®æ ±
Ġini cio
Ðł Ðķ
ĠÑħ Ð²Ð°ÑĤ
ĠÑģÐ¿ Ð¸ÑģÐ¾Ðº
åĪ »
Ġpar tage
T T
Ġc odice
pri re
at Ã³w
Ġco Ã»t
ĠÐ½ ÐµÐ³
Ġd ados
åĩº ãģĻ
Ġprodu kcji
ĠUn ser
Ġson st
Ġtend ance
Ġpar i
Ġne m
Ġeff ets
odz iel
Ġngh e
Ġf iesta
Ġk osten
Ġge geben
Ġb ur
ĠCons ul
Ġbe gr
ĠÐ¿ÑĢÐµÐ´ÑģÑĤÐ°Ð² Ð»ÑıÐµÑĤ
ĠéŁ ĵåĽ½
Ġt oma
ĠMar seille
Ġ" -
ro ir
Ġcour t
Ġca tegoria
ĠD onc
Ġä»Ĭ æĹ¥ãģ¯
Ġæ³ ¨
Ġda nh
ng a
Ġka ta
ĠWy b
Ġze wnÄĻtrz
Ġob u
t ons
ç¶ Ļ
Ġum iejÄĻt
Ġcali entes
ĠG leich
Ġmod alitÃł
Ð¸Ð² Ð°Ñı
Ġcomunica zione
Ġap re
zie hen
camb io
ons ieur
6 7
Ġoffi ciel
Ġno ticias
Ġaktue llen
Ġcaratter istiche
Ġti pi
Ġje mand
g liche
Ġjur id
ĠÐ¿ÑĢÐ¸Ð½ Ð°Ð´Ð»ÐµÐ¶
Ġdi z
Ġjus t
ĠÑĢÑĥ ÐºÐ¸
Ġz ÅĤoÅ¼
ãĥĥ ãĥĦ
Ġt ats
Ġcon ception
Ġposs ÃŃvel
ĠS obre
Ġparti dos
Ġal ten
ĠÐ²Ð°ÑĪ ÐµÐ³Ð¾
ä¸Ń å¿ĥ
Ġb á»ĳ
Ġliber tad
pis ode
ti les
ale urs
ĠDz iÄĻ
ĠrÃ³Å¼ ne
Ġsol che
ĠÃ©ta is
Ġserrur ier
Ġcompa gnie
Ġ ãģ§ãģ¯
Ġcele bra
ĠÑģ Ð»Ð¸ÑĪÐºÐ¾Ð¼
Ġãĥķ ãĥŃ
ĠMit glieder
ĠÐł ÐµÐ¼Ð¾Ð½ÑĤ
ĠÐ¸ÑģÑģÐ»ÐµÐ´ Ð¾Ð²Ð°Ð½Ð¸Ñı
Ġtrans porte
es ter
éł ĺ
ros o
cia do
ÑĥÐ» Ð°
Ġt Ãº
Ġac ces
Ġemp fehlen
ĠKar ten
Ġ7 2
Ġtrois iÃ¨me
Ġfinan zi
Ġme chani
W x
Ġs ÅĤa
ĠL Ã³pez
Ġmad ura
r adas
ĠDeutsch e
ĠÃ¼ber haupt
Ð°Ð½ ÐµÐµ
Ġapr ender
Ġlie be
Ġander em
mper atur
Ġm g
ĠdÃ© n
Ġc oupe
ĠTag s
Ġsor tir
Ġar ia
w ent
Ġokres ie
Ġç ¢º
ier ungs
ĠÐļ Ð°Ð¼
ãĥī ãĤ¢
Ġenvo y
ãģı ãĤĮãģŁ
Ġcontinu aciÃ³n
Ġer sch
ĠÐĲÐ½ Ð³
ĠZ aw
Ġniez bÄĻd
Ġcla ve
ĠPr Ã¼
Ġsu kces
æ£ ļ
äºĭ æķħ
Ã¡ fico
ĠO ption
ĠÐ¿ÑĢÐµÐ¿ Ð¾Ð´
Ġcommunau tÃ©
un ti
Ġl á»±a
Ġh ad
ĠmÃ¡xi mo
ĠF enster
ĠS UR
ta lement
ÑĤ ÑĢÐ°
i ff
Ġrela tions
ĠÑĤÐ°Ðº Ð¸
ĠWo j
Ġent rar
ĠÑģÐ¾Ð¾ÑĤÐ²ÐµÑĤÑģÑĤÐ² ÑĥÑİÑī
tow ane
ãĤ³ ãĥĶãĥ¼
Ġdes a
ĠÑĢ ÐµÐ»
Ġpro ced
ĠæĪ ĳ
ãģĦ ãģ£ãģŁ
Ġper te
Ġmind estens
Ã©r ant
ĠC ruz
uel o
Ġmod a
ro om
f ait
Ġeff etto
åĪĨ ãģĳ
Ġencont ra
Ġf era
ĠeconÃ³mi ca
Ġä»Ĭ æĹ¥
Ġl áº¥y
Ġexcel ente
ĠDa vid
Ġav ance
Ġtak iej
Ġhum anos
z ig
Ġt ess
Ġris tor
ç¤ ¼
ĠÐŁÑĢÐ¾ Ð¸Ð·Ð²Ð¾Ð´
ĠÐ½Ð°ÑģÐµÐ» ÐµÐ½Ð¸Ñı
ĠDod at
Ġdescu ento
ĠC ara
AL ES
ĠG ir
Ġempe zar
Ġre cuer
Ġ^ )
æŀ Ĳ
Ġéĥ ¨
æ¸ ħ
ãĥŀ ãĥ³ãĤ·ãĥ§ãĥ³
æļ ®
Ġapr endi
ver gleich
ak tion
Ġzna cznie
ãģ® ãĤ«
Ġl Æ°u
ĠSu pp
Ġsyst Ã¨mes
Ġdist ri
ĠÐ¼ ÑıÑģ
Ð» ÐµÐ²
p to
Ġprincip ale
ĠÑģÐ¾Ð± ÑĢÐ°Ð½
ĠÐĴÐ¸Ðº ÑĤÐ¾ÑĢ
ĠUm gebung
ĠÐ²Ñĭ Ð¿Ð»Ð°ÑĤ
Ðº Ð¸Ð¼Ð¸
pa ck
æ ĵ
Ġb ÄħdÅº
Ġejerci cio
Ġam ar
tif icaciÃ³n
ĠSam stag
Ġcla ir
ier ze
Ġrelated posts
Ġ) ãĢģ
ç¤º æĿ¿
ãĥĵ ãĥ¼
we gs
ĠComm un
si f
li quÃ©
Ð°ÑİÑī Ð°Ñı
" #
ãģ» ãģ¨ãĤĵãģ©
ĠlÃ©g Ã¨re
Ġuffi ciale
ĠÑĥÑģÑĤ Ð°Ð½Ð°Ð²Ð»Ð¸Ð²
ĠÐ¿Ð¾ÑĢÑıÐ´ ÐºÐµ
m uje
Ġh d
c ador
ĠcÃ³ m
ĠFar b
ĠBei m
ĠÐ´Ð¾ÑģÑĤ Ð¸Ð³
Ġmom entos
Ġi zquier
vo re
Ġclas sique
ĠHÃ´tel s
ure usement
ici lio
ĠJ ap
Ġprof il
Ġinforma tique
ĠGi Ã¡
ĠÂ £
ĠNg Æ°á»Ŀi
Ġa jouter
Ġorgani zza
u ment
Ð¾ ÐµÐ²
5 7
ĠÎĶ E
Ġper d
Ġl iens
ĠÅ¼y ciu
Ġt ir
ĠEs pe
id or
Ġprze p
ĠP ablo
Ġpropie dad
ĠindÃ© pend
ĠÐ¿ÑĢÐµÐ´ÑĥÑģ Ð¼Ð¾ÑĤÑĢ
Ñı ÐµÐ¼
Ġtes ta
ĠJo h
sch rank
ĠSpiel othe
ĠOr ganis
Ġpeque Ã±os
ĠÐ¼ÐµÐ± ÐµÐ»ÑĮ
ĠÑģÐ¾Ñĩ ÐµÑĤ
ÅĤo Å¼y
ĠÐŀ Ð¿Ð¸ÑģÐ°Ð½Ð¸Ðµ
ĠÐ¿ÑĢÐ¸ Ð±Ñĭ
Ġdetta gli
ĠÐ¿Ð¾ÑģÑĤ Ð°Ð½Ð¾Ð²
ĠÐ¿Ð» Ð¾ÑĤ
ĠÑģÐ¿ÑĢ Ð¾Ñģ
Ġpod pis
ãĥĭãĥ¥ ãĥ¼ãĤ¹
ĠÑģÐ°Ð¼ Ð¾Ð¹
Ġf em
va Ã§Ã£o
ca li
Ġb il
Ġmen tion
ÑģÐº Ð¸Ð¼Ð¸
ĠG rigio
Ġav vi
ãģķãģĽãģ¦ ãģĦãģŁãģł
éģ ħ
fic ar
5 hbWU
Ġdzis iaj
Ġká» ¹
Ġind is
Ġad qui
Ġwe wnÄĻtrz
çĽ £
ĠSand ales
ĠE lles
Ġnadziej ÄĻ
Ġæ ¼
ãĥ¼ãĤ¹ ãĥĪ
ĠKle id
Ġrekl am
rei bt
Ð½Ñİ Ñİ
Ġstori co
Ġu dziel
Ġdes sen
Ġt worz
ãģ® å®Ł
ãģ£ãģ ½
æŃ ¯
ãĤ¸ ãĤ¢
ĠSi tios
Ġro pa
ĠÐ¿ Ð°Ñģ
áº© u
Ġcon vi
ĠÐº Ð¾ÑĢÐ¼
Ð± ÐµÑĢ
ĠÐ¾ ÑĢÑĥÐ¶
ĠWie der
ĠÐ¥ Ð¾ÑĢÐ¾ÑĪ
ĠÐ¡Ð Ĭ
ĠÐ°Ðº Ñģ
Ñİ Ð¼
Ð¿ÑĢ ÐµÑģÑģ
ĠÑħÐ¾ÑĤ ÐµÐ»
ĠÑĢÐ°Ð·Ð½Ð¾ Ð¾Ð±ÑĢÐ°Ð·
Ġsp er
ĠK oÅĽci
ĠErfahr ung
Ġbou tique
Ġac cessoires
Ġvis ion
Ġos piti
v ola
ic ÃŃ
or u
Ġè¡ Į
Ġol vid
mp or
Ġlav ora
bilidad e
ãĥī ãĥ«
ĠMar tin
AN CE
Ġrem ise
Ð¸ÑĤÐµÐ»Ñı Ð¼Ð¸
Ġdecl ar
ĠdÃ©p end
ĠÄĲ á»©c
ci uto
ĠÑĨÐµÐ½ÑĤ ÑĢÐµ
Ġchw ili
lic itÃł
ĠBet riebs
Ð¾ÑĢ Ð¾Ð¼
ri re
ĠHa ar
ĠErfahr ungen
Ġ^ ^
ĠP ort
Ġ6 1
roy eur
he ur
Ġpermet tra
y J
ĠÅĽ mi
Ġdi bu
ĠH aup
ĠÑĥÑĢÐ¾Ð² Ð½Ðµ
ĠÐºÐ»Ð°ÑģÑģ Ð°
Ġcos ti
Ġéĩ į
Ġconsum o
end ido
Ġindustr ie
Ġt Äħ
ĠåĪ ¥
Ġespe ci
Ð¾Ð¹ ÑĩÐ¸Ð²
ĠVene zia
um i
Ġex isten
Ð°Ð»ÑĥÐ¹ ÑģÑĤÐ°
Ð½Ð¸ÑĨ Ñĥ
da zione
Ġs ost
Ġhist Ã³ria
ĠÐŃ Ð½
ĠKÃ¶l n
por ts
ĠCam era
ï¾ Ŀ
ãģĦ ãģ¾ãģĽãĤĵ
Ġt iá»ĩn
Ġung e
ĠÐ²ÑĭÐ³ Ð»ÑıÐ´
ĠSp o
Ġwy nosi
ĠdÃ©mo cra
Ġgr is
ill ant
ĠÐ½Ð¸Ðº ÑĤÐ¾
Ġle gno
Ġan zi
ĠÐ²Ð·Ð³ Ð»ÑıÐ´
ÑĭÐ² Ð°Ð½Ð¸Ñı
ist rut
Ġaplica ciones
Ġbamb ino
Ġpierw szej
Ġmit tel
b on
Ġauf grund
Ġinternation ale
Ġstu denti
Ġall Ã¡
ĠConse jo
v ador
Ġæ ļ
ĠTra ng
ĠCh ÃŃnh
Ġsal a
ĠT E
Ġeleg ir
Ġac teurs
Ġu003 c
Ġsecon de
ÑĥÑģ ÑĮ
Ġtur ys
Ġin to
ĠP in
ĠA ires
ĠEs tos
Ġentra Ã®
Ð°ÑİÑī ÐµÐ³Ð¾
ãĥĪ ãĥĬãĥł
Ġtr Æ°á»Łng
Ġdes te
Ġ] [
ä¾¡ åĢ¤
ĠÑģÐ¾Ð·Ð´ Ð°ÑĤÑĮ
Ġconse gna
ĠÐŁÐµÑĢ ÐµÐ´
Ġo ggetti
la Ã§Ã£o
Ã¨ nes
Ð°Ð» Ð¸ÑĤ
Ð°Ð´ ÐµÐ¼
ĠÐ²Ð· ÑıÑĤÑĮ
Ġhum ano
ĠE ben
Ġe cco
it ano
Ġæľ¬ å½ĵãģ«
Ġautori dades
gra phe
çµ µ
ĠWohn zimmer
Ã¤us er
ĠPow er
be wert
ĠFuÃŁ ball
ĠK or
Ġnas z
ãĥĪ ãĥ«
Ġt á»ĳi
ĠCe pendant
Ð¸ÑĨ ÐµÐ¹
Ġbudow l
ta m
Ġwybra Äĩ
te te
Ġcomple tamente
ari co
ĠRep Ãºblica
Ñĥ ÑģÑĤÑĮ
Ñĥ Ð¿ÑĢ
Ġsol uciÃ³n
Ð¸ÑĢÐ¾Ð²Ð°Ð½ Ð½ÑĭÐµ
Ġnajlep iej
Ġpros simo
Ġti p
åĸ ľ
Ġllam a
ĠF C
teil en
Ġarri va
Ġacquista re
Ġmi mo
k g
Ġhoch wer
ĠÐ· ÐµÑĢÐº
Ġart ÃŃculos
Ġb ist
ĠFe hler
utt gar
ĠLeist ung
Ð¾Ð» Ñĭ
ĠN E
Ġb at
æ± Ł
ãģ¨æĢĿ ãģ£ãģ¦
ãĥ¯ ãĥ¼
ãĥ³ãĥ ŀ
çĹħ éĻ¢
ĠãĤ¦ ãĤ§
ĠTh Ãłnh
ĠÐĶ ÐµÐ½ÑĮ
ĠÐ¿ÐµÑĢÐ² ÑĥÑİ
z co
ĠE je
ĠEn cont
Ġd on
ĠTri p
Ġc ientÃŃ
use ppe
da ta
Ġsel ber
Ġmus ste
ĠÐ» ÑĮ
Ġkobie ty
Ġjed na
li ngen
Ġwel ches
åĩº ãģ¦
ãĥ¬ ãĥĻãĥ«
do pod
Ġp atri
Ġè² ©
Ġè¿Ķ ä¿¡
ty pe
æĿ¡ ä»¶
ĠÂ ª
Ġr Ãµ
ĠZ aragoza
g rÃ¡
Ġles que
ĠÐ¸Ñģ ÑħÐ¾Ð´
inn t
Ġ Ĉ
æĤª ãģĦ
åĪ º
EN TE
Ġjue ves
Ġdes ap
ĠÑĢ Ð¾Ð»ÑĮ
ĠÑĤÐµÑħÐ½Ð¾Ð»Ð¾Ð³ Ð¸Ð¸
ĠÐ¿ ÑĤ
Ġvelo ce
Ġwor k
ĠPro gra
ĠC AR
Ġbien es
Ġdi rige
Ġn owego
Ġbeste llen
ĠRis i
Ġaj ud
Ġç ĿĢ
Ġto Ã¡n
par k
Ġw nÄĻtrz
éļ Ĭ
Ġl á»ĩ
mar as
ĠLiv raison
Ġ= >
ten d
ĠK ata
ĠczÅĤowie ka
Ġjedn ost
ĠÑĢÐµÑģÑĤ Ð¾ÑĢ
ĠMa ggio
Ġdim ostra
ĠSpa ÃŁ
ita ciÃ³n
is a
le iter
ĠR ichtung
Ġenci ma
c H
Ġpod kre
Ġv ui
l ant
Ġzn alaz
ĠD ise
T OR
Ġt ÃŃtulo
Ġrapp el
ĠÐłÐµÑģÐ¿ÑĥÐ±Ð»Ð¸ ÐºÐ¸
ĠÐ½ÐµÑģÐºÐ¾Ð»ÑĮ ÐºÐ¸Ñħ
Ġtes to
Ġtra fi
ĠCa tal
Ġva caciones
ĠÃ©qui pes
Ġel en
Ġdru Å¼y
Ġfabri c
ĠGebur ts
ĠÐºÐ¾Ð» Ð»ÐµÐº
ĠÐ´Ð°Ð»ÑĮ ÑĪÐµ
ĠD ÃŃa
ĠD os
Ġ8 8
r ine
ĠS ci
ve ille
Ġsta tion
ÑĦ Ð°
ĠÐ¶ Ð¸Ð»ÑĮ
ĠH á»ĵ
re o
tiv itÃł
Ġreali za
zia li
Ġpe qu
s ym
ĠrÃ¡p ido
ĠMe tall
ida Äĩ
ĠJes te
9 3
se m
iá»ĩ p
ĠM utter
ĠÐ² ÐµÐºÐ°
ori os
u li
p lay
ord nung
Ġric ord
bi ana
R ES
Ġre ferencia
ĠD az
Ġa che
ala xy
Ġz ob
ÅĤasz cza
Ġver m
tit ut
ç £
ĠR am
ĠJ ul
er te
b ble
ĠdÃ©cid Ã©
Ġide ale
m ia
Ġç ²
æĺ ĵ
Ð°Ðº Ð¾Ð½
Ġlu áºŃt
Ġc ach
Ġpr endere
Ġvo z
ĠM ostrar
ĠL O
Ġor igen
ĠÐºÐ¾Ð»Ð¸Ñĩ ÐµÑģÑĤÐ²
åı¯èĥ½ ãģ§ãģĻ
Ġ9 6
Ġtari fs
Ġd unque
Ġparla re
ines e
Ġzw ro
Ġb ro
tif ier
ãģĿ ãĤĵãģª
ãģ«å¯¾ ãģĻãĤĭ
ĠW ein
ĠErgeb nis
hal ts
Ġros so
Ġf id
ĠT utto
ti ere
Ġpos iad
ĠrÃ©p onses
ĠMe er
Ġdev ra
Ġob ro
ãĥ³ãĥ ľ
end as
Ġ% .
ÑģÑĤ Ð°ÑĤÐ¸
ĠÐºÐ¾Ð¼Ð¿ Ð°Ð½Ð¸Ð¹
Ġsa car
Ġen e
ĠÐ¸Ð½ Ð¾Ð³Ð´Ð°
Ġgu ard
Ġkont rol
ĠInstitu to
Ġper mit
Ġg ui
Ġaff ec
Ġrela zione
Ġ ć
ãĤĴ åıĸ
Ġener gia
ĠAle m
ãģ® æĸ°
Ñĭ Ðº
ĠÑĩ Ð°ÑīÐµ
Ġy áº¿u
ĠKomm unika
le ks
t ut
pe k
ç¸ ¾
Ġexpos ition
ĠÑĢÐ°Ð½ ÐµÐµ
Ġwsp ania
rod y
Ġval ores
ãĤ¦ãĤ§ ãĤ¢
ãģ®å İ
Ġperfec to
ĠS ala
Ġde te
ĠEn d
Ġver gang
Ġs telle
ĠN icol
U M
Ġre le
Ġmode le
anta ges
ĠÃ©vÃ© nement
Ġwy cie
ĠÐĺÐ¼ ÐµÐ½Ð½Ð¾
ĠÐ¿Ð¾ÑģÐ² ÑıÑī
Ġso ftware
Ġapplica zione
ĠStiva li
ĠO ra
ĠÐ´Ð¾Ð¼ Ðµ
yste me
Ġde in
ĠStand ard
ĠAndre a
Ġsco per
ãĥ¬ ãĥĥãĥī
ĠÃ ¯
Ġm áº«u
z an
ĠÐĵ Ð°ÑĢ
Ġ" >
Ġrep rÃ©s
ĠÐ¿ÐµÐ´ Ð°Ð³Ð¾Ð³
ĠÐ²Ð¸Ð´ Ð¾Ð²
Ġc ob
ĠN at
ĠAut res
ĠAle x
Ġç ±³
ĠÐ·Ð°Ð² Ð¾Ð´
Ð¸ÑĤÐµÐ»ÑĮ ÑģÑĤÐ²Ð¾
z ze
ĠD ist
į ng
Ġl un
ĠÐ¦ ÐµÐ½Ñĭ
ĠÑģ Ð°Ð½
Ġpozy tyw
ĠO der
ĠheiÃŁ t
Ġhistori que
lan zen
Ġsor pr
Ġcomen zar
ÑģÑĤÐ² Ð¸Ñı
de d
ĠC ouleur
ĠvÃ©hic ule
ĠÐĹ Ð²
Ġco llo
Ġokaz ji
ãģ® ãģªãģĦ
Ġges ehen
ĠÐ¿ÑĢÐµÐ´Ð¿ÑĢÐ¸ÑıÑĤ Ð¸Ñı
ĠÐ¼ ÑĥÐ·
Ġau tore
re d
Ð³ÑĢ Ð°Ð´
ĠÑģ Ð¸Ð»ÑĮÐ½Ð¾
Ġkwes ti
Ġon et
Ġrodzin y
Ġch á»©
Ġalum nos
iel t
Ġre Ã§u
Ġvo ce
Ġprze czy
wers y
ĠR ag
ĠSand ali
ĠPres idente
g ine
Ġç Ī
Ġcom in
Ġcal cio
ĠVe di
Ġproprie tÃł
ĠC ada
at um
ĠÐµ ÑģÑĤÐµÑģÑĤÐ²
Ġb ringt
ĠS itu
çĶŁ ãģ¾
Ġutili za
ĠF abri
ĠvidÃ© os
ĠMit glied
ĠÐ» Ð¾Ð¶
ĠÐ° Ð³ÑĢ
ĠS amo
ĠCh em
ĠAlle magne
Ã³ le
Ġtá» ©
une hmen
Ġa meric
Ð³ Ð°Ð»
Ġil oÅĽci
ç¶ļ ãģį
ĠÑģÐ»Ð¾Ð² Ð°Ð¼
m un
Ġparfa itement
Ġfamili as
Ġi denti
ĠÐĴÐµÐ´ ÑĮ
Ð¾Ñģ Ð¸Ð¿ÐµÐ´
ĠWroc ÅĤaw
Ġzu peÅĤ
di gt
Ġdou che
Ġvo ie
Ð» ÑĥÑĪ
Ð¸ÑĢÐ¾Ð² Ð°ÑĤÑĮÑģÑı
ãģ®å ¸
V ER
Ġpubblica to
Ġk al
Ġtr ib
ãģ® ãĥĳ
Ð¼ Ð¾Ð½
ÅĤ ego
ĠN go
Ġgew esen
ĠÑģÐ°Ð¼Ð¾ÑģÑĤÐ¾ÑıÑĤÐµÐ»ÑĮ Ð½Ð¾
ĠÑģÐ°Ð¼ Ð¾
Ġsab ato
Ġprzy zna
wus st
Ġus ine
de ur
Ġvo ici
Ġpor ter
Ġad d
an cio
Ġç İ
ĠÐ´ÐµÑģÑı ÑĤ
Ġaccor do
Ġop tions
Ġg os
Ã©ri o
ãģ ĩ
ãĥ¼ãĥª ãĥ³ãĤ°
ãģĮ é«ĺ
ĠTh omas
r t
mi i
Ġl ic
Ġoc cupa
å Ķ
Ã³ m
ĠwÃ¼r den
si ve
Ġpa iement
Ġla isse
Ġpremi Ã¨res
ĠÑģÐ¾ÑģÑĤÐ¾ÑıÐ½ Ð¸Ðµ
Ġconc ent
is ji
ĠB iaÅĤ
R o
Ġprzest rz
ÃŃs tico
ĠÑĥÐ¿ Ð°ÐºÐ¾Ð²
ĠÑģÐ¾ÑģÑĤÐ¾ÑıÐ½ Ð¸Ð¸
Ġpol it
Ġnaj wyÅ¼
ĠEsta mos
ro ll
ĠÐ¾ÑĢÐ³Ð°Ð½Ð¸Ð· Ð°ÑĨÐ¸Ñı
ãĥ¼ãĥį ãĥĥãĥĪ
ĠP en
Ġzapa tos
haus en
schaft s
Ġop ere
Ġma qu
ĠS en
Ġsimple mente
Ġpodr Ã¡s
Ġest Ã¡s
Ġanim ales
ĠdÃ©ta ils
ĠÐ°Ð» ÐºÐ¾Ð³
Ġchi ff
Ġsecon d
ali zacja
c uro
Ġa zul
Ġpresenta ciÃ³n
ĠAuÃŁer dem
ĠAn ti
ĠÑĥÐºÑĢÐ° ÑĪ
ĠG ian
Ġv ostra
or gani
Ġh Æ°á»Łng
Ġer es
ĠLi ve
ĠM ala
Ã¡c ter
4 3
Ġpart out
ĠÐºÐ¾Ð½ÑĤÑĢ Ð¾Ð»
is l
æĻĤ ãģ¯
ãĥŃ ãĥ¼ãĥ³
Ġdi ario
Ġoc cu
ĠÐºÐ¾ÑĢ Ð¾ÑĤ
ĠCh ies
za hlen
ĠEncu ent
Ġse par
ar mente
k owaÄĩ
âĢ ķ
Ġ= =
æ°Ĺ ãģ«
ĠGemein de
Ñ ĵ
ĠÐ´Ð¾ÐºÑĥÐ¼ ÐµÐ½ÑĤÑĭ
Ð¾Ñĩ ÐºÑĥ
ãĥ¼ãĥ Ļ
ãĤīãĤĮãģ¦ ãģĦãĤĭ
ĠB ack
ĠÑģÐ»ÑĥÑĩÐ°Ñı Ñħ
to ff
ĠmÃ© moire
ĠÐĳÐµÑģ Ð¿Ð»Ð°ÑĤ
ĠÐ½ Ð¸Ð¶
Ġtras forma
Ġk na
und ert
Ġus tal
ĠPho tos
ĠM essage
tis ation
Ġs omme
Ġpicco li
Ġesta va
è¢ «
ĠJu lio
ĠGran ada
Ġpr ensa
Ġtrak cie
ĠÐ¿ÐµÑĢ ÐµÑĢ
Ð¶ Ð¸
Ġpol ski
Ġlu jo
Ġnad al
ĠC ulo
ĠM undial
Ġprop res
Ġcomb at
ÐµÐº Ðµ
Ġch aleur
ä½į ç½®
Ġd rzwi
ĠL AS
I P
Ġa co
Ã©r ences
Ġm orte
ĠM aÅĤ
k rÄĻ
à³ į
ĠH á»Ļi
ĠAmi gos
ta urante
ba ck
ĠRo t
ku l
ĠÐĴ Ð½
Ã¨ ces
Ġass ure
Ġtrabaj os
ĠÐ¸Ð¼ Ñı
U suÅĦ
Ġtren ing
ĠZ eich
C M
ĠÃ¢ m
ĠEr st
or g
k rÃ¤
Ġcategor ÃŃa
ĠY ork
Ðº ÑĥÑĤ
ĠmÅĤ odzie
Ġæ² ĸç¸Ħ
Ġim g
éģ ¿
ain es
Ð¸Ð² Ð½ÑĭÐµ
ĠÐ· ÐµÐ»ÐµÐ½
Ð½Ð¸Ðº Ðµ
ĠÑĩ ÑĥÑĤÑĮ
kt ury
ĠÐ´Ð°Ð»ÑĮ Ð½ÐµÐ¹ÑĪ
Ñİ ÑģÑĮ
ĠÑĥÑĩ Ð¸ÑĤ
Ġwy peÅĤ
ob en
ai x
Ġcr isi
ĠF ue
ĠM ON
Ġme ubles
Ġf ou
Ġ8 3
æĶ »
na t
ĠÐŁÐ¾Ð´ÑĢÐ¾Ð± Ð½ÐµÐµ
ĠÐ³Ð¾ÑĢ ÑıÑĩ
ti enten
Ġassol uta
te o
ga te
op le
ĠÑģÐ¾ÑĤÑĢÑĥÐ´ Ð½Ð¸Ñĩ
ĠÑĢ ÐµÐ²
via mente
Ġmo gli
Ġloca ux
Ġst essi
Ð» ÑĥÐ¶
Ġper dita
de cken
ĠN owy
Ġsk ar
able mente
los s
Ð² ÑĭÐµ
f ano
Ġt aglia
ag ue
Ġcz war
Þ° Þ
ĠÄĳ Ã¢u
åĸ¶ æ¥Ń
Ġãĥģ ãĥ£
Ġver ein
Ġtrans f
ie fer
ĠL Ã¶
???? ????
Ðļ Ðĺ
ÑĨ Ð²ÐµÑĤ
Ġâ Ĥ
ĠÐ²ÐµÐ´ ÑĥÑī
Ġreg ionale
ita to
Ã© t
ĠMÃ¤ dchen
ĠGeb Ã¤
ĠprÃ©sent er
ĠÑĩ Ð¸ÑĤÐ°ÑĤÑĮ
Ġt Ã£o
Ġml n
ĠJ uÅ¼
sz enie
Ġãĥŀ ãĤ¤
Ġãģ¨ è¨Ģ
Ġmes a
Ġkolej ne
ãĤ¢ ãĤ¯ãĤ»
Ġtiemp os
ĠÐŁÑĢ Ð¸Ñĩ
Ð½Ð°Ñĩ Ð°Ð»Ð°
Ġfam iglie
Ġex terior
F A
ĠScra bble
ĠS ous
ĠM onde
Ġb ÅĤ
ĠM ari
sz to
ow iada
ĠMart ÃŃn
un cio
Ġvuel ta
ĠChar les
ĠÐ·Ð² ÐµÐ·Ð´
Ġil oÅĽÄĩ
ÐµÑĢ Ð½Ð¾Ðµ
° ãĤĬ
Ġ7 3
L a
Ã©g Ã©
ĠÃ© cri
ĠÐĹ Ð°Ð²
ĠÐºÑĢ Ð°Ñı
ĠV ari
Ġa it
Ġf im
ĠciÄħ g
w ka
Ġtrans por
ri ert
Ġp ill
Ġdirec tamente
Ð¸ÑģÑĤ ÐµÐ¼Ñĥ
åĦ Ħ
ĠÃŃ t
Ġrice v
Ð¸Ð½ ÐºÐ°
ÐµÑĢÐ¸Ð½ Ð±ÑĥÑĢÐ³
Ð¡Ð¡ Ðł
ĠÐĸ ÐµÐ»
Ð°ÑĤÐ¾ÑĢ Ð¾Ð²
ĠÐºÑĢÑĥÐ³ Ð»
Ġac tri
li minar
Ġge m
ver stÃ¤n
ĠÐ´ Ð°ÐµÑĤ
Ġpiel ÄĻ
Ġviol encia
Ġllam ado
ĠSer ie
Ð¾Ð³ Ð¸
isto ry
te llen
Ã¡ veis
ta il
ĠrÃ©alis ation
ÐµÑī ÐµÐ½Ð¸Ñı
Ġsele zion
Ġwo jewÃ³dz
Ġprze cieÅ¼
Ġsp ad
ĩ Ĵ
ãģĶãģĸ ãģĦãģ¾ãģĹãģŁ
æ± ł
Ġæ £
Ġem b
wor k
ãģ§ãģį ãģŁ
Ġra ff
ech as
ĠdÃ¼r fen
ĠPro v
ill y
Ġbud get
ĠvÃŃ c
M e
ĠNach richten
ĠÐļÐ¾Ð¼Ð¿ Ð°Ð½Ð¸Ñı
ĠNicol as
Ġm ou
Ġtwar zy
Ġs ÅĤy
Ġæ ¡
ãĥŃ ãĥĥãĤ¯
ãĥĨãĤ£ ãĥ³ãĤ°
b ec
O P
ll ier
Ġrad io
Ġè¶ ħ
ãģ¯ ãģĤãĤĬãģ¾ãģĽãĤĵ
ĠÐ¸Ð³ ÑĢÑĥ
Ġfil les
Ġb ientÃ´t
l it
ĠÃ©v ent
ĠÐ¿Ð¾Ð¿ ÑĭÑĤ
ĠBe d
Ġcin que
Ġin nym
Ġv ÃŃa
Ġa un
ãĤĵãģ§ãģĻ ãģĳãģ©
ĠæĢ Ŀ
2 æĹ¥
å§ ¿
Ġb oule
ĠÐ¾Ð´ Ð½Ñĥ
zei gt
Ġjus tice
Ġza b
dan ken
Ġoc chi
ce u
Ġæ® ĭ
Ġex tran
Ġjo li
ĠRÃ©s ul
ĠJe ux
è¨Ń ç½®
ĠÐ²Ð¾Ð·Ð² ÑĢÐ°Ñī
Ġman iera
ĠNo t
IN I
Ġgratu ito
Ġro b
ãģ©ãģĨ ãģĭ
áºŃ m
ĠZ ach
Ġca pelli
ĠA lla
Ġpom iÄĻdzy
ĠK rie
Ð¼ÐµÐ½ÑĤ Ð°ÑĢÐ¸ÐµÐ²
iss ante
ĠÐ¿ÑĢÐµÐ´Ð»Ð¾Ð¶ ÐµÐ½Ð¸Ñı
ĠÐ¿Ð¾Ð¿ Ð°Ð´
Ġsim ili
éĢģ ãĤĬ
Ġdifer ente
8 1
ĠdÃ© fin
ĠMont rÃ©al
Ġgarant ie
9 2
Ġin t
ĠÐ·Ð°ÐºÐ°Ð· Ð°ÑĤÑĮ
ĠÑħÐ¾Ñĩ Ñĥ
ĠÑģÐ¿ Ð°ÑģÐ¸Ð±Ð¾
Ð¾ÑĤ Ð²Ð¾ÑĢ
ĠB E
c tif
ÑĨÐ¸Ð¾Ð½ Ð½Ð¾Ð¹
ĠÐ¿ÑĢÐµÐ·Ð¸Ð´ ÐµÐ½ÑĤ
Ġt elle
Ġlas cia
G I
Ġprog etti
ĠGi useppe
tu to
Ġcu á»ĳi
ÑĬ ÐµÐºÑĤ
ÐĶ ÐĲ
ĠÑĥÑģÑĤÑĢÐ¾Ð¹ ÑģÑĤÐ²Ð°
åĪĨ é¡ŀ
Ġèħ ķæĻĤè¨Ī
Ġæĸ° åĵģ
åĪ¤ æĸŃ
Ġv entas
em as
ĠrÃ©alis Ã©
Ġo to
Ġproces os
ĠdÃ©velo pper
ĠÐ¿ÑĢÐ¸ Ð±Ð¾ÑĢ
ĠDesn udas
as a
Ġhab la
Ġbeau tÃ©
ĠÐľ Ð¸ÑĢ
ma ti
od ni
» å®ļ
Ġæ¶ Ī
Ð´ Ñĥ
ĠEnt wick
ĠQu al
Ħ ª
ĠV este
Ġ200 2
OU S
Ġtechn ologie
am p
ĠcomplÃ¨ te
no ch
is h
ĠÑĤÐµÐ» Ð°
Ġprin cipe
an ca
Ġtam poco
ĠEsp ana
Ġpalab ra
Ġstra te
çĿ £
ĠÑĢÐµÐ°Ð»Ð¸Ð· Ð°ÑĨÐ¸Ð¸
ĠÐł Ð¾Ð´
enden ti
or Ã©
ol ie
ino is
Ġ9 3
Ġv entes
Ġquel qu
ãĥ¡ ãĥ¼ãĤ«ãĥ¼
ĠLe er
Ġcre aciÃ³n
aj aj
Ġfun ciones
Ġli bero
IN O
Ġviv ere
Ġb iá»ĥu
klÃ¤r ung
ĠÐĲ ÐºÑĤ
Ð»ÐµÐ½ Ð½ÑĭÐ¹
åĪ ¸
Ġnatur ales
Ġmodi fier
Ġg eni
Ã£ os
ÑģÑĤÐ² ÑĥÐµÑĤ
Ġsupp orto
Ġwi os
Ġcomp lÃ©ment
ĠÐ¾Ð±ÑıÐ· Ð°Ð½
Ġtec nico
Ġprofession ale
Ġsicura mente
ĠÑĤÐµÐ»ÐµÐ² Ð¸Ð·
ĠG I
Ġver a
om et
Ġen viar
que z
ĠÃ© t
Ġli Ã©s
ĠCon f
onc tions
Ġver rÃł
âĢ Ķ
ãĥĥãĤ« ãĥ¼
è¿½ åĬł
ĠÑģÑĥÐ´ ÐµÐ±
ĠA quÃŃ
sta hl
m lung
Ġo vvero
Ġdi c
ite z
ãĤ½ ãĥķãĥĪ
sa ciÃ³n
ĠÐ¿Ð°Ð¼ÑıÑĤ Ð¸
Ġfunktion iert
ĠÐ¿ ÑıÑĤÑĮ
Ġexemp lo
âĸ ł
ç¨® é¡ŀ
Ġsup uesto
ch at
ĠÃ©ta pe
ks am
Ġdi ag
å°Ĥ çĶ¨
Ð¸ÑģÑĤ Ñĭ
iss es
ãģĦãģ¦ ãĤĤ
Ġtá»ķ ng
Ġcontr ario
Ġb anda
Ġdo ll
Ġpowie trz
ç¾İ åĳ³
ç± į
ĠhÃ¤uf ig
Ð¸ÑĢÐ¾Ð²Ð°Ð½ Ð½ÑĭÑħ
ci das
ĠÃ©po ca
ĠÐ¿ÑĢÐ¾ÑĨÐµÑģÑģ Ðµ
ãĥĪ ãĥĥãĥĹ
ĠS uisse
ĠÐ¿ÐµÑĢÐµÐ² Ð¾Ð·
ÐµÑģÑĤ Ð¸Ð²
ĠZ ab
s tar
èĪ ŀ
ĠÄĳ áº¡t
ĠMar s
ĠC C
4 2
Ġtrouv erez
Ġfam illes
ÐµÐ² Ð¾Ð³Ð¾
Ð´Ð° ÑİÑĤ
Ã³w ka
ces oria
Ġpozy cje
Ġlu dz
Ġauto mÃ¡tica
z enia
kow ym
gi as
Ġin trodu
Ð¾Ñģ ÑĢÐµÐ´
èį ī
Ġnecess itÃł
ãĤ· ãĥ¥
ĠF und
al nej
ãģĭ ãģ£ãģ¦
ut ri
Ġau mento
Ġal cal
ĠG ente
Ġbus can
Ġnivel es
ĠÐĳ Ð°Ð»
Ġpro pozy
w na
O d
cyj nym
ĠMur cia
Ġpo cos
ĠTe x
Ġconten uti
ĠLie b
wnÄħ trz
Ġens eign
ÐĽ Ðŀ
ÐºÐ¾Ð² Ð°
ĠÑģÑĦ ÐµÑĢÐµ
el ho
ãģªãģı ãģ¦ãĤĤ
cul os
ĠT Ã¤
ti enne
ĠÐ¼Ð½Ð¾Ð¶ ÐµÑģÑĤÐ²Ð¾
Ġtec nica
ĠA gen
Ġord in
Ġge d
a ten
ĠRo y
ãĤĤãģ® ãģĮ
Æ ¯
Ġbudy nku
ãģĤ ãģ¾ãĤĬ
á» ³
ĠÃ©du cation
ĠPo z
ĠP ues
ĠV all
ĠFran cia
Ġza czÄĻ
å£ Ĭ
Ġrec ette
Ġado re
ĠGr oupe
ĠAv ant
ĠÐŁ Ð¾Ð½
ĠÐĿ Ð°ÑĤ
ĠÐ¸Ð¼ ÐµÐ½Ð¸
ĠÃŃ n
Ġde mi
ĠÐ¡ÑĤ Ð°ÑĢ
Ġent Ã£o
ac ch
Ġgi ardino
rze g
b ÄĻ
ãĤ· ãĥ¼
Ġmak e
IN T
Ġatten dre
Ġmar cha
iel o
Ð²ÐµÑģÑĤ Ð¸
ĠÐĵ Ð¾ÑĢÐ¾Ð´
m lich
ĠÐ¢ Ñĭ
Ð¹ ÑĤÐµ
c ow
ĠM ic
onn Ã©es
ĠPo le
ĠV AT
Ġod kry
çĸ ĳ
ĠÐ³ ÐµÑĢÐ¾
ÐµÑĢ Ñĥ
ĠdÃ©velo pp
ĠS aison
ĠSec ondo
ĠÑģÐ» Ð°Ð±
ĠKre dit
ĠÐ¿ÐµÑĢÐ² Ð¾Ð³Ð¾
Ġg á»ĵm
ĠhÃ¶ ch
åº ķ
Ġcon sa
Ġch ap
Ġapp elle
Ġp si
Ġmas aje
ĠP M
c Ã³n
Ġdeutsch e
ĠÑĢ ÐµÐ¿
Ġeconom ÃŃa
ĠJ ego
ĠRÃ© g
ĠB onne
o ks
Ġpri vÃ©e
ĠÐľ Ð¾ÑĢ
ĠKa ffe
å¤§ åĪĩ
ĠÑģ Ð°Ñħ
ĠÐ½Ð¾Ð² Ð¾Ð¹
ĠÐ¸Ð³ ÑĢÑĥÑĪ
Ð°Ñİ ÑģÑĮ
Ð°Ð· Ð°
ĠÐŁ Ð°Ð²
ÑĢÐ¾ Ð¸Ð´
ĠÐ· Ð¾Ð»Ð¾ÑĤ
ãģĶ ãģ¨
Ġce pendant
ala v
Ġwy ja
Ġcon ex
Ã¤t zen
ĠÐºÐ¾Ð» Ð»ÐµÐºÑĤ
Ġ( -
Ġzro zum
Ġpr Ãª
Ð¼ÐµÑĢ ÑĩÐµÑģÐº
ï¼ ¾
Ġæ ¤ľ
ĠãģĿ ãģ®å¾Į
ve d
ero p
Ġnot wendi
Ġou tre
ĠÑģÑħ ÐµÐ¼
ĠÐĹ ÐµÐ¼
use o
Ġmais ons
Ġch aud
Ġaff id
im enti
Ġposs iamo
pon di
Ġpre p
sch lÃ¤
Ġreg ul
ãģ» ãģĹãģĦ
æŀ Ĺ
va cy
Ġmateria le
Ġpo cz
na ch
g ruppe
Ġele menti
ĠA jouter
Ġsi x
Ġcho ciaÅ¼
ãģªãģ© ãĤĴ
ich ert
Ġjo go
N H
Þ¨ Þ
ĠÄĳo Ãłn
Ġmo tor
ĠÐ¿ Ð°Ð»ÑĮ
Ġ1 px
ĠãģĿãģĨ ãģĦãģĨ
ãģł ãģ¨æĢĿãģĦãģ¾ãģĻ
Ġãģł ãģĭãĤī
Ġå¤ ı
Ġcaratter i
ĠV a
i va
Ġple ine
Ġpowin no
Ġfor mes
ĠÐ´Ð¾ÑģÑĤÐ°Ð² ÐºÐ¾Ð¹
ĠÐ²Ðº Ð»Ð°Ð´
ÑĢÐ¾Ð¿ ÐµÐ¹
åºĹ èĪĹ
Ġwar um
Ġpien iÄħ
ãĥªãĤ¸ ãĥĬãĥ«
ãĤ¦ ãĥ³ãĥī
ĠCar te
Ġcommer cial
Ġory gin
ĠMar c
Ġ6 00
ĠK osz
li za
Ġprze ch
Ġsur pr
Ġfa ite
å·¥ äºĭ
èĩ Ń
æİ¢ ãģĹ
ãģ§ãģ¯ ãģĤãĤĬãģ¾ãģĽãĤĵ
Ġre chts
âĢ¦ ]
w il
Ã¨ che
Ġrais ons
en cie
ĠHe ute
Ð¾Ðº Ðµ
ec er
Ġn ouvel
Ġg Ã¡i
Ġngu á»ĵn
ger Ã¤te
Ġpre ce
Ã¼ck en
ĠMod Ã¨le
Ġpos er
ĠF aire
lo gue
cula ire
ĠMen sch
Ð¸ÑĤÐµÐ»ÑĮ Ð½Ð°Ñı
Ð² Ð¸Ð³
ver ein
Ġfre und
Ġl our
Ġsing le
Ġu tente
sz cz
Ġza jm
an ismo
Ġein igen
ãģ« æĿ¥
ĠÐºÐ¾Ð½Ðº ÑĥÑĢ
Ġtrova to
Ġf Ãªte
Ġåı ¯
uss ie
Ġf atti
Ġm Ã³j
ĠPon ad
ĠãĤĤ ãģ£ãģ¨
ĠÐļ Ð°Ð½
å¥ ĳç´Ħ
Ġten iendo
Ġsh ow
Ġmar tes
ĠScar pa
ĠM ostra
ĠV es
ĠIs titu
Ġpri me
Ġsta ra
ĠhÃ©si tez
ĠdÃ© di
une dÃ¬
ĠãĤ¯ ãĥª
Ġt áº£i
Ġa jou
ĠÐ´Ð¾ÑĢ Ð¾Ð¶
J v
Ġk oÅĽci
ãģĦãģ¾ãģĹãģŁ ãģĮ
Ġdistin tos
ĠR em
Ġexplo itation
ad Ã©
ĠRob e
ĠR h
ĠM me
ĠI talie
Ġcor r
Ġd wu
Ġng Ãłnh
U NG
ĠW Ã¤hrend
ĠÑĩ ÑĥÐ´
ãģ® ãģŁãĤģãģ«
ĠÐĲ Ð¼
Ġmie i
Ġspe dizione
Ġraggiung ere
ĠÐ´Ð¾Ð» Ð³Ð¾
ĠMoÅ¼ na
Ġen ca
ĠÐ§ Ð¸ÑĤÐ°ÑĤÑĮ
ĠÐ¢Ð°Ðº Ð¸Ð¼
Ġal gu
c Ã©s
Ġpri vÃ©
Ġchois i
Ġca fÃ©
Ñģ Ñĭ
Ġgodzin y
Ð¾Ð² ÑĥÑİ
Ġb ande
Ð°Ð¹ÑĤ ÐµÑģÑĮ
Ġåıİ ç´į
è± Ĩ
å¯¾ è±¡
ĠbÄĻdzie my
rÃ³ ciÄĩ
ĠA B
Ġr as
Ġla it
Ġdess in
Ġcour ant
( ^
ä¿Ŀ èŃ·
Ġdecis o
Ġlu áºŃn
Ġconsi glia
ĠAus bildung
ĠSch lag
ĠP unkte
Ġanni versaire
ĠÐ¿ÑĢÐ¸Ñĩ Ð¸Ð½
ec u
li Äĩ
ç´ Ķ
Ð¸Ðº Ð¾Ð¼
b b
g re
Ġpom aga
ĠF echa
be x
Ġlleg Ã³
Ġpor table
Ð¸ Ð°Ð½
Ġliv ro
ĠdokÅĤad nie
ĠMas ch
ĠDaz u
Ġalle z
ãģ®åĽ ½
ĠÄĲ Ã´ng
Ġab and
ier to
Ġpicc ola
Ġemple o
Ġme ist
ĠB elle
0 1
Ġregar der
Ð°ÑĤ Ð¾Ð¼
op y
Ġchcia ÅĤ
Ġbede utet
ĠÑĥÑĩ Ð°ÑģÑĤÐ²
Ġsa Ãºde
Z m
owa ÅĦ
Ġth áº§n
Ġza gro
Ġadel ante
ĠcinÃ© ma
ĠPue de
ĠiP hone
ĠUS B
ĠP uis
ĠÑģ Ð¸ÑģÑĤÐµÐ¼Ñĥ
Ġn esta
Ãį A
f icas
7 2
Ġur ba
Ġsimp les
Ġf rases
Ã³ sito
ĠÑĩÐµÑĢ Ð½ÑĭÐ¹
ĠÐ¿Ð¾ÑģÐ»ÐµÐ´ Ð½Ð¸Ðµ
Ġmessa ges
Ġenseigne ment
Ġ[ âĢ¦]
Ã©r itÃ©
Ġrin no
v aux
Ġi po
Ġk w
Ġus e
Ġent ender
ann es
ĠmÃ©th ode
Ġpay er
Ġc áº¡nh
las s
auto maten
ĠSicherheit s
Ġau ton
fÃ¼ hren
Ð°ÑĤÐµÐ»ÑĮ Ð½ÑĭÐ¹
åŃĲ ä¾Ľ
Ġad min
r ador
mÃ¡ tico
Ġobjec tifs
ĠÐ·Ð½ Ð°ÑĤÑĮ
Ġeconom ico
Ġgen ug
ĠÐ±Ð°Ð½ Ðº
U rl
Ġp Ã©r
Ġfun zione
Ġconse jos
ĠM unicip
Ġre par
Ġr á»Ļng
ĠÑĪÐºÐ¾Ð» Ñĭ
ĠP rz
Ġinver siÃ³n
Ġestre llas
ra ti
ia m
ãģķ ãģ«
ĠÑħ Ð¾Ð´Ðµ
Ġes encia
ĠK urs
ĠdÃ©couver te
Ġjedno czeÅĽnie
ãģĲ ãĤīãģĦ
äºº éĸĵ
ãģ®ç ¾
Ġins gesamt
ĠBes tell
rit te
ĠChr ist
ĠÑĩÐ°Ñģ Ð°
pp ing
Ġt ellement
ĠÐºÐ½Ð¸Ð³ Ñĥ
Ġit p
ãģ§ãģį ãģ¾ãģĽãĤĵ
Ġav anti
ĠA st
Ġcom peti
Ġsi gna
ĠOp tima
ĠÑĦ ÑĢÐ°Ð½
ĠCo Ã±o
ta dor
L 2
g ety
czÄĻÅĽcie j
Ġb all
Ġsuper iore
å¦ »
Ġãĥ ł
Ġde fin
ĠA V
s itÃ©
Ġmem oria
ĠS icht
ãĤĴ å¾Ĺ
Ġnego cios
Ġch Æ°Æ¡ng
I TE
Ġmis es
ĠÑĤÐµÑħ Ð½Ð¸ÐºÐ¸
ĠÑĢÐ°Ð·Ð»Ð¸Ñĩ Ð½ÑĭÐµ
ti endo
Ã¼nst ler
Ġliber tÃ©
ĠO l
Ġzd rowia
Ġe mail
Ġass istenza
ĠwyÅĤÄħ cznie
ĠIn cont
Ġfa vore
ä¼ģ çĶ»
ĠCha que
ĠÐºÐ°ÑĢÑĤ Ñĥ
ĠãĤªãĥ³ ãĥ©ãĤ¤ãĥ³
ĠÑģÐ¾Ð¾Ð±Ñī Ð°ÐµÑĤ
ĠÐ·Ð°Ñī Ð¸Ñī
Ġterm ini
Ð± Ð¸
Ġrep rez
owie c
éĩĳ é¡į
åĬ Ł
Ġpron to
Ġopp ortun
Ġp one
Ġcono cido
en zia
Ġ9 78
5 8
Ġv end
ĠÐ²ÐµÑĢ Ð¾
c enie
Ġal ko
Ġp au
ta bles
Ã¡n do
Ġmit t
Ġge eignet
ãĤĴè¡Į ãģĨ
Ġç Ł³
Ġmar co
ĠHand y
il er
Ġv aleurs
Ġw Äħ
ĠI f
ĠCom par
Ġherrami entas
tr itt
Ġele ctri
Ġartis an
ĠTy pe
ĠNo v
ti mes
ge Ar
geAr tis
ĠÐŀÑĢ Ð³Ð°Ð½
Å ĥ
Ġg oÅĽci
Ġè Į
æģ ¯
b sp
ĠÐł Òĳ
ĠÐ¿ÑĢÐ¸Ð¼ÐµÐ½ ÐµÐ½Ð¸Ñı
Ġ\":\" ^
}, {\"
Ġzoba czyÄĩ
° åĽ²
ĠR us
ĠÐ½Ðµ Ð¸Ð·
cu le
æİ ¨
ĠS telle
ĠÐ·Ð´Ð¾ÑĢÐ¾Ð² ÑĮÑı
Ġzas t
ĠFahrze ug
ĠAy untamiento
Ġmiejsc owoÅĽci
ãģĭ ãģ¨
Ġvis it
Ġd ownload
ĠW ahr
ĠÃ© mo
Ġsa int
Ġca ta
Ġba ins
Ġlit tÃ©ra
ĠÐ´Ð°Ð½ Ð½ÑĭÐ¼
Ġpas so
Ð½ Ð¾Ð´Ð°ÑĢ
ĠÑĥÐ¿ Ð¾ÑĤÑĢÐµÐ±
Ġdiff icol
mFt ZSI6
cz noÅĽÄĩ
ĠBen utz
æİ² è¼ī
Ġb our
ĠM Ãªme
ĠãĤ¦ ãĤ©
ll ten
ten za
Ġavre bbe
çµĤ äºĨ
Ġpoziom ie
Ġu043 e
Ð¸ ÐµÐ½ÑĤ
ãģ®ç ·
Ġdá»¥ c
Ã¤nder t
ĠDerni Ã¨re
ĠtempÃ©ra ture
Ġse pt
h as
Ġob ja
ken nen
Ġouv rir
Ġdam skie
ĠP raw
Ġconfi anza
ĠÐļ Ð²
ĠÐ¿Ð¾Ñħ Ð¾Ð¶
Ġzale Å¼
7 1
4 9
Ġ9 8
Ġgar der
ĠCali ente
Ġpl ane
Ġna issance
itz er
Ġder riÃ¨re
Ġb ri
ĠÐ½Ð°Ñĩ Ð°Ð»Ðµ
lla to
ĠB in
Ã¤ hl
ĠnÃ©ces saires
ä¹Ĺ ãĤĬ
Ġadministra tion
ĠPrÃ©s ident
ĠÐ´ÐµÑıÑĤÐµÐ»ÑĮ Ð½Ð¾ÑģÑĤÑĮ
Ð°ÑĤÐµÐ»ÑĮ Ð½Ð¾Ð¹
EN TI
tica mente
Ġxu á»ĳng
ĠOff i
ĠF ait
Ð°Ð¼ ÐµÐ½ÑĤ
Ġsta ge
Ġpar am
Ġch ien
Ġapplica tions
ĠÑģÐ¸ÑĤÑĥ Ð°ÑĨÐ¸Ñı
Ġjaz dy
k enn
ĠÐ´Ð¾Ð² ÐµÑĢ
Ġst anno
Ġma ga
Ġkredy t
Ġch cesz
ĠI ma
per a
ist ente
Ġjug adores
sch au
ĠÐ²Ð°Ð» ÑİÑĤ
ĠÐŁ Ð¾Ð¿
Ġjet pack
Ġ ãģĦãģĦ
å¤ ¢
ĠM ir
ĠP ad
ti llo
leist ungen
Ã© der
ĠÐ² Ð²ÐµÐ´
D AD
ĠtÃ©c nica
Ġcomprom iso
Ð¾Ð² Ð¸Ñĩ
Ð°Ð½ Ð½Ð¾Ð¹
ĠÐ± Ð¸Ð±Ð»Ð¸Ð¾ÑĤ
Ġin da
Ġcam a
ĠSal z
Ð¾Ðº Ð¾Ð¼
ãĤĴ çĽ®
zeich en
Î ±
Ġen tier
ie fe
ĠUm welt
fang en
Ġocze ki
Ġtr ue
ãĤ¢ ãĥ¼
Ġs etzen
ĠM obil
ĠÐ¿Ð¾ÑĤ ÐµÐ½
Ġè¡ ¨
Ġcar Ã¡cter
ĠDaten schutz
rank heit
Ġinsp i
ĠcÃ© lÃ¨
ni cze
ĠÐ¾Ð±ÑĥÑĩ ÐµÐ½Ð¸Ñı
ĠçĽ¸ åł´
ç¸ ®
vi Ã³
Ġå¾ ĴæŃ©
åĢ «
Ġ8 00
ãĤ³ ãĥ¼ãĥī
ãģķãĤĮ ãģ¾ãģĹãģŁ
ÐµÐºÑĤ Ð¾ÑĢÐ°
ĠÐ¿ÑĢÐµÐ´Ð¿ Ð¾Ñĩ
ra ta
Ð°ÑİÑī Ð¸Ð¼
ĠÑĨÐµÐ½ÑĤ ÑĢÐ°
Ġkon cer
ĠT á»ķng
Ġris par
ĠBor sa
Ġs istemi
Ġamp io
áº µ
ĠÐ¸Ð·Ð´ÐµÐ» Ð¸Ñı
ĠD 0
ĠÑĢÑĭÐ½ ÐºÐ°
res e
Ġpubb lici
ĠS iamo
T TI
IN A
ĠÐ¿ ÑĥÑģÑĤ
Ġrit ro
o ÅĤa
ĠprÃ¤ sen
Ġappr endre
Ġarri vo
ÑĬ ÑıÐ²
Ġwers ji
Ġgewor den
Ġin nego
Ġpl antas
Ġb az
lieÃŁ lich
ĠE so
is Ã©e
Ð¾ÑĢ Ð¸Ð¹
ĠCub a
ĠW olf
sp l
masch ine
da te
ĠAd resse
Ġb iblio
wi esen
beding ungen
Ġapp ara
ĠÐŀ ÑģÑĤ
Ġ() {
CJ A
Ġza trzym
Ġanci enne
Ġfi gli
Ġde pos
Ġpa cientes
y l
ĠF ak
ĠNa zionale
Ġrice vere
ĠX em
ĠTh á»§
ĠÐ¿Ð¾Ð´ ÑĢÐ°Ð·
ĠAbb iamo
Ġcomp on
Ġpra kt
Ġu k
Ġd rod
ĠCh á»§
ĠP ic
ĠÐ¿Ð» Ð¸ÑĤ
ĠÐºÐ¾Ñģ Ð¼ÐµÑĤ
ÐµÐ´ ÑĢ
ĠÑħ Ð¾Ð»
v amo
ĠMein ung
ĠÃ©ta bli
Ġh ow
ĠÐºÐ¾Ð¼Ð¿ Ð¾Ð½
ĠÐ¶ÐµÐ½Ñī Ð¸Ð½Ñĭ
Ġdimen sioni
Ġpole ga
ur al
ĠÐ´ÑĢÑĥÐ· ÑĮÑı
um entos
ĠKli ma
ĠT á»«
Ġperfec ta
Ġiden tific
Ġinter ven
Ġdi x
Ð¾Ð· Ñĭ
ãģª ãģ®
Ġè²© å£²
ãĥĨ ãĥ¼ãĥĸãĥ«
ãģĦ åĲĪãĤıãģĽ
D R
ĠMona te
Ġener gii
ĠChate ar
or ÃŃa
ãĤ¦ ãĤ£
ĠNg Ãły
ĠÑĢÐ°Ð· Ð½ÑĭÐµ
Ġç¶ļãģį ãĤĴèªŃãĤĢ
åı¤ å±ĭ
ãĥ¼ãĥĢ ãĥ¼
ĠãĥĻ ãĥĪãĥĬãĥł
æīĭ ãģ«
A n
rie f
Ġvaluta zione
ĠcaÅĤ ej
Ġpotr Ãł
ĠnÃ³ s
czy ÅĤa
ĠåĬ ł
æĮ Ļ
rÃŃ guez
Ġac to
ĠCong reso
kra ft
ĠTor re
Ġhab ÃŃan
ĠÐľ ÐµÐ½
ĠÐĳ Ð¾ÑĢ
di ti
cor si
Ġx á»Ń
Ġm ost
Ġali mentation
F R
Ġeffectu er
ĠÐ±Ð»Ð¸Ð¶ Ð°Ð¹
ĠEs pagne
ĠÑģÐµÐ¼ ÑĮÐ¸
Ġpia tta
ist Ãªncia
Ġerfolg reich
ĠÐ¾ÑĤ ÑĩÐµÑĤ
Ð¡ ÐŁ
ĠÐĲÐ² ÑĤÐ¾Ð¼
Ġn bsp
Ñı ÑĢ
Ġparti ta
ĠW ort
ĠBor deaux
ĠAl pes
on ce
ĠtÃ©lÃ© charge
Ġtari f
ĠÐ¸ÑģÐ¿Ð¾Ð»ÑĮÐ· ÑĥÐµÑĤÑģÑı
b3 V
aÅĤ em
ÅĽ mie
ĠÐ´Ð¾ÑģÑĤÐ°Ð² ÐºÐ°
ĠÑį Ð¼Ð¾
ĠÑĤÑĢÐµÐ± ÑĥÐµÑĤÑģÑı
Ġâĺ ı
ĠwspÃ³ÅĤpra cy
Ġt Æ°á»Łng
ĠNa tale
Ġri pr
Ġn este
Ã³ ÅĤy
èħ ¹
Ġper dre
Ġfonction ne
Ġpre Ã§o
Ġservi Ã§o
Ġcze mu
Ġri fi
Ġ\" ,\"
ĠK rÃ³
ãģĮ åħ¥
ä¸Ģ åº¦
Ġeben so
Ġcommun es
ĠBo ttes
P ar
ãģ®æ ĥħåł±
in tes
Ġalgum as
ĠãĤ· ãĥ«
ãģ§ è¦ĭ
Ġrespons abilitÃ©
ĠÐł ÐµÐ·
ÑĢ ÐµÑģÑģ
Ġotti ma
Ġvia jes
ĠPr in
ç« ł
ĠCh ap
Ã© nie
ãģ¨ãĤĤ ãģ«
ĠrÃ©f lex
b H
Ġdar m
Ġretr ouve
Ġer reur
Ġconte mpora
Ġ9 1
aria t
Ġch ans
Ġappro che
ĠPa ese
Ġw obec
ĠE is
ĠÐ¸ÑģÑĤ Ð¾ÑĢÐ¸Ñı
ãĤĤãģ® ãģ¯
Ġvis iter
ī å¼·
Ãł u
Ġé¦ Ļ
Ð¾Ð³ Ð¾Ð´
åī¤ å¸«
ãģ®å Ł
Ġod bior
tow ym
ĠdiffÃ©r ence
ĠÐ ©
ĠÑĢ ÑĥÐ»
ĠÐŁ Ð¾Ð±
ak et
ĠSch o
ĠgÃ©nÃ©ra lement
ĠÐ½Ð°Ð·Ð² Ð°Ð½Ð¸Ðµ
ĠmieszkaÅĦ cÃ³w
Ġma est
ĠPer Ãº
ĠR Ã¤
Ġkonta kt
Ġæķ Ļ
Ġf lu
Ð¡Ð ĥ
ĠÐ³Ð»Ð°Ð² Ð½Ð¾Ðµ
ĠÐ±Ð¾Ð»ÑĮÑĪ Ð¾Ðµ
Ġins besondere
Ð¾ÑĤ Ðµ
kow any
Ã¡ logo
Ġcent ral
ĠÑģÐµÐº ÑĢÐµÑĤ
Ġéģ ¸
ĠÐ¾ÑĤÐ½Ð¾ÑĪ ÐµÐ½Ð¸Ð¸
ĠUnterstÃ¼tz ung
å¿ Ĺ
ãģ®åľ °
ĠÃ¡ m
Ð¸ Ð¾
t ando
ĠÑħÐ¾ÑĤ Ð¸ÑĤÐµ
orzysta Äĩ
ĠDeutsch en
ni er
AN S
6 8
ĠÃ©n or
p rÃ©
Ġresul ta
Ġto talement
ĠrÃ© el
lÃ© m
Ġznaj dzie
Ġal can
mÃ¶glich keiten
Ġer ne
ĠÑĤÐµÐ¼ Ðµ
ĠÐĴÐ¸Ð´Ðµ Ð¾
Ð¾ÑģÑĤÑĮ Ñİ
Ġu lub
cion ados
ĠLors que
ĠK siÄħÅ¼
Z T
ĠWo jewÃ³dz
ĠG Ã³
ĠE del
ĠBes onder
l ak
Ġinfor me
Ġgan zen
tta re
Ġsp an
ĠeconÃ³mi co
bi es
Ġnie wiel
Ġcomp ter
ĠTh Ã©
ĠP y
Ġfran ces
Ġæ´ Ĺ
Ġå®Ł éļĽ
olo gue
ke ting
Ġt ap
Ġsa uf
Ð»Ð¸ Ðº
ĠÑģ Ð¾Ð¶
Ġminim um
ĠÐ£ÐºÑĢÐ° Ð¸Ð½Ð°
ĠÑįÐº ÑģÐº
ĠÐĲÑĢ Ñħ
ĠU Å¼y
ĠPra xis
ĠH en
ein ture
Ġs om
Ġjewe ils
om adz
ÐĴ Ðŀ
Ð¿Ð» Ð°Ñĩ
ÑģÑĤÐ²ÐµÐ½ Ð½Ð¾Ð³Ð¾
Ð¸ÑĢÐ¾Ð² ÐºÐ°
ĠÐ¿Ð¾ÑĢ Ð°Ð¶
ĠMÃ¶glich keiten
Ġuzy sk
Ġgesch rieben
ĠamÃ©rica in
Ñİ Ñĩ
ĠÑģÑĥÐ¼ Ð¼Ñĥ
Ġcol om
ĠRod rÃŃguez
le o
Ġmo tivation
ĠÑģÐ¾Ð± Ð»ÑİÐ´
ĠãĤ¹ãĥ¼ãĥĳ ãĥ¼
tu de
ç© ´
Ġang es
Ġpowin na
ĠFir men
ĠPa tienten
Ġmo tivo
n om
ĠÐ² Ð¾Ð²
Ġãĥ´ ãĤ£
ĠãĤ¸ ãĤ§
Ġma je
Ġop ar
Ġl ud
ĠdÆ°á» ¡ng
ĠGes etz
ĠÐ£ ÑģÐ»
Ġ/ ">
Ðµ Ð¸
e le
çĻº éĢģ
ãģĭãĤī ãĤĤ
ĠÐ·Ð°Ð¿ ÑĢ
Ġå ¦
å£² åį´
ãĥĥ ãĤ±
ãĥ¼ãĤ ¬
ĠhÃ© ber
con i
pr Ã³
º éºĹ
000 åĨĨ
Ġï¼ Ĳ
éģ Ĭ
Ġph Ã¹
c ana
Ġni ente
Ġso ggetti
ĠÐ¿ÐµÑĢ ÐµÑģÑĤ
ĠÐ½Ð°Ð»Ð¸Ñĩ Ð¸Ðµ
ĠÐ¸Ð·Ð²ÐµÑģÑĤ Ð½Ð¾
ĠR O
d itÃ©
Ġpo tent
ĠnastÄĻp nie
esso re
Ġri du
Ġi eri
Ġgiov ane
ãģĤãĤĬãģ¾ãģĻ ãģĮ
Ã ¿
Ġg ame
ĠE ig
ĠÐ½ Ð¸Ð¼Ð¸
Ġo ggetto
od aw
id ÅĤ
ãģ£ãģ¦ ãģĬ
Ġinteres ante
Ġh echos
ĠWar um
ĠåĲ Ī
Ġv Ã¹ng
Ġin nen
ĠSch ritt
ĠImm obilien
Ġcent rale
ĠpeÅĤ ni
Ġèª °
Ġ" );
ç¾ ¤
Ġesta ban
Ġent halten
ĠÐ²ÑĢÐµÐ¼ ÐµÐ½
Ġcaract Ã¨re
Ġni mi
ĠF oro
Ã¼s s
gang en
t ino
Ġno c
ĠÐ£ Ð¿ÑĢÐ°Ð²
Ñĥ ÑĤÐ¾Ñĩ
æĹ ħè¡Į
Ġaccom pagne
ĠC R
se urs
ĠÑĤ Ð°Ð¹
Ġpe ople
Ġrec onn
ĠO st
ĠÑĢ ÐµÐ¹ÑĤÐ¸Ð½Ð³
Le geArtis
ĠÑĤ ÐµÐºÑĥÑī
Ġcompos to
ĠLÃ¶s ung
ĠÑĢÐ°ÑģÑģ ÑĩÐ¸ÑĤ
Ġnajm niej
are mos
ÃŁ t
st ieg
Ġp ub
ĠÐĲ ÑĦ
ya ume
ĠAssocia zione
Ġinter essa
lis te
Ġho he
be g
ent ino
Ġcon d
ĠSte in
Ġmilli ards
g ere
Ġda vanti
Ã¶ st
Ġde ver
Ġsoli ci
s ei
Ġdist anza
ĠCham p
Ġv id
ĠNutz ung
Ġluch a
Ġpla ces
Ġassi cura
ĠdostÄĻp ne
ĠCom isiÃ³n
Ġapro xim
ĠÐ½ÐµÐ´ ÐµÐ»Ñİ
ĠO ffer
am ica
Ġentra m
ĳ ĳ
Ġéħ į
ãģĭ ãĤĬãģ¾ãģĻ
ĠentiÃ¨re ment
Ġ8 2
ĠmÃ© tier
ong e
ÑĮ ÑĪÐµ
Ġel se
Ġå¥ ¥
Ġãĥ¬ ãĥĵãĥ¥ãĥ¼
Ġv m
Ġ Ï
æĺ ¯
ãĤ¦ ãĥł
sa zione
ĠÄĳá»Ļ c
fi z
and is
Ð°Ð» Ð¸Ñı
ane a
Ġpia zza
ĠKrzy szto
Ġpol skich
Ġnie p
Ġro ot
èĦ Ĥ
ãĥĹãĥ¬ ãĤ¼ãĥ³ãĥĪ
ä»¥ ä¸ĭ
ĠÐĴ Ð¸ÑĤ
ĠÐ Ļ
Ġl ont
IC O
Ġses iÃ³n
Ġpro vo
ĠSter ne
Ð¼ Ð°ÑĢ
ãĤĴæ ıĲ
ĠR hein
ĠIde e
ĠÐºÑĢ ÐµÑģÑĤ
X B
Ġmiesz kania
ion o
sz eit
Ð¸ÑĢÐ¾Ð²Ð°Ð½ Ð½ÑĭÐ¹
ĠÑģÑĤ Ð¸Ð»ÑĮ
ĠÐ¤ Ð¸Ð»ÑĮ
Ð¸ÑĤ Ð°ÑĢ
ĠÑģ Ð¾Ð³Ð»Ð°ÑĪ
Ġag r
Ġun idad
m ania
w ald
ĠEst as
re icht
ĠÐĶ ÐµÐº
ĠÐ¾ÑĢÐ³Ð°Ð½Ð¸Ð· Ð°ÑĨÐ¸Ð¹
Ġé«ĺ ãģķ
Ġ ï¿¥
ç² §
ãĥ¼ãĥĲ ãĥ¼
ĠA lÃ©m
Ġpyt ania
ĠC Ã¡
Ġinsta laciones
kow anie
Ġzale Å¼y
ar as
Ġpo lla
ĠTra vesti
ĠTe ma
ĠP P
ĠMe d
ĠFr ied
ĠUnternehmen s
li ga
Ġbekom mt
Ġc rit
ĠÃ© lÃ©ment
i p
ĠÐł Ñĥ
ĠÐĵ Ð¾ÑģÑĥÐ´Ð°ÑĢ
ĠBo x
ĠÐºÑĢÐ¾Ð² Ð¸
ÑĢÑĥ Ð½
ÅĤ ka
ta us
Ġthu Ãª
ĠpolÃŃ tico
Ġj ard
Ġcio Ã¨
ten do
Ġcontra tto
ĠUS D
ãģ® ãĤµ
ãģĹãģ¦ ãģ¯
Ð³ Ð¾ÑĤ
ĠChies a
Ġrend u
ĠÐ¿Ð¾Ð»ÑĮÐ·Ð¾Ð² Ð°ÑĤÐµÐ»Ñı
ĠÐ¿ ÐµÑĤ
Ġma ggiori
e ÅĦ
Ġdla czego
c tar
f ragen
Ġprocha ine
ĠÐ¼ Ð³
ãĤ½ ãĤ³ãĥ³
ãģ®æ ³
min os
ĠÐ´Ð¸Ð°Ð³ Ð½Ð¾ÑģÑĤ
Ġpen ser
Ġde lika
Ġd Ã¹
Ġprop uesta
ĠVer bindung
Ñģ Ð¼
ĠÑĢ ÐµÐ¼
ĠÐĿÐ¸Ðº Ð¾Ð»
ĠD ol
ĠÐ¿ÑĢÐ¸Ð¼ÐµÑĢ Ð½Ð¾
w ÄĻ
Ġwar szta
ta ment
Ġsu kien
Ġrzeczy w
Ġåħ¨ åĽ½
æ® º
Ġmar cas
ãĥ¦ ãĥĭ
Ġg a
Ġblo que
Ġstr umento
ãĤ« ãĥ¡ãĥ©
ĠstratÃ© gie
ĠSchlaf zimmer
ĠSpielothe k
ĠSpiel en
Ġmondia le
Ġestru ctura
éŁ³ æ¥½
åħ¨ ãģ¦
ãģĮ å¢Ĺ
Ġcas as
Ġi ba
ãģ® ãĤ¨
ĠÐ²Ð¸Ð´ Ñĭ
Ġmoje j
Ġeks per
Ġespe ciales
ĠFrÃ¼h stÃ¼ck
Ġdzie dz
Ġclas s
Ġbo a
bi os
ĠBeit rÃ¤ge
los e
Ġessay er
Ġcar ga
ĠÐ²ÐµÑĢÐ¾ ÑıÑĤ
Ġimp osta
Ġper fek
Ġfin anz
ĠdÃ©clar Ã©
Ĵ ®
ck ich
Ġconver tir
Ġdu b
ĠWeihna chts
ĠSta d
ĠaÃ± ad
Ġpes os
Ġcas ero
ĠEncont rar
Ġmol ino
Ġqui Ã©n
Ġpregun tas
ĠW unsch
ĠF Ã¶rder
k as
ĠÐ¡ Ð¸Ð¼
Ġar ticoli
Ġdi ab
ten ido
Ġobje to
ĠPal ermo
å¹´ éĸĵ
ĠÑĨÐµÐ» Ð¾Ð¼
zz ano
ĠÑģÐ¼ ÐµÑĪ
Ġcent ros
Ġsu cht
Ġevi tare
ĠRad io
gi os
ĠJahr h
ĠÑģ Ð¾Ð·
Ġtak Äħ
Ġcomm enti
ãĥı ãĤ¤
Ġsu erte
ĠÐ¿Ð¾Ð¿ÑĢ Ð¾Ð±
Ġemp re
Ġpew nie
ĠbÄĻ dÄĻ
Ġjeste ÅĽmy
Ġdar mo
ĠS im
Ġpr osta
Ġsp ese
kon omi
Ġwys yÅĤ
ĠpolÃŃ ticas
Ġobje tivos
ĠÐ¼ Ð¾Ð·
is tico
Ġmie ÅĽcie
Ġrela Ã§Ã£o
ãĥ« ãĤ³
Ð² ÐµÐ¹
ina li
w ska
ĠL le
Ġvia ggia
dzie la
Ġwe ll
Ġvia jeros
ĠÑĨÐµÐ»ÑĮ Ñİ
Ġt Ãªm
ĠTh á»ĭ
Ġwysz uki
Ġbe d
Ġfolgen den
ĠPs ych
st anden
ÅĤu dni
Ġ Ã¡o
Ġges agt
Ġsuper fi
Ð² Ð¾Ð¹
Ġç§ ĭ
èĸ Ħ
ĠÐºÐ¾Ð¼Ð°Ð½Ð´ Ñĭ
Ìģ c
ĠNh áºŃt
c ount
ĠÃ© vo
æĻ ®éĢļ
ck el
na ires
æģ ĭ
ãĤı ãģļ
ĠEr satz
ĠM om
let ter
ob ei
Ġrecher ches
Ñį ÑĦÑĦ
Ð» Ð°Ð½Ð´
ĠTeil nehmer
ĠStra ÃŁen
ĠRecher che
ang es
Ġè²· åıĸ
ĠæĤ ª
çĶ¨ æĦı
ĠrÃ©s ol
ĠRestaur ant
åį Ĵ
Ġper fil
sp ort
etz te
Ġcontri bu
Ġkho a
å®¶ æĹı
k las
ĠL it
Ġ7 1
Ġz ones
ĠDesarro llo
ĠA zul
osi ciÃ³n
Ġc um
ĠJ orge
Ġse lecciÃ³n
rar se
ĠStr and
ĠÑĢÐµÐ¶Ð¸Ð¼ Ðµ
Ġt wÃ³r
Ġop rac
Ġklas s
Ð¸ÑģÑĤ Ð°Ð½
Ġme cz
ĠL ux
ãģĬ ãĤĪãģ³
Ġwar sza
Ġpoz woli
ĠobsÅĤu gi
ĠéĿ ŀ
Ġquestion e
Ġak cji
schein lich
Ġperform ance
gie m
ĠfÃ© min
ĠÐĿÐ¾Ð² Ð¾ÑģÐ¸Ð±Ð¸ÑĢ
ĠÐ¾Ð±Ñģ ÑĥÐ¶Ð´
ĠAu teur
l itÃ©
ĠÐ´Ð°Ð½ Ð½Ð¾Ð³Ð¾
ca mi
Ġl Ã¡
ãģĮ é«ĺãģĦ
Ġde me
Ġcom ien
ĠÃ® le
Ð» ÐµÐ±
ĠÐ»ÑĥÑĩÑĪ Ð¸Ñħ
Ġimpe gno
ĠPia zza
ĠIn di
Ð´ ÐµÑĢ
Ġmode lli
in to
Ġå¤ ľ
y e
semb lÃ©e
Ġdi min
ĠgÅĤÃ³w nie
Ġen torno
ĠÐ¼Ð°ÑĤÐµÑĢÐ¸ Ð°Ð»Ð°
ÐµÐ² Ð°Ñı
ĠCas as
ãģ®æ Ĺ
Ġp ena
á ½
Ã§ ant
ĠÑĤ Ð¾Ð¹
Ġob st
j esz
Ġen dlich
ĠFran z
ĠÐĴ Ð¾ÑģÑĤ
ani que
ĠÐ²Ð¾Ðº ÑĢÑĥÐ³
Ġester no
wi g
ĠFir ma
Ġz da
si bile
rou gh
ĠF ort
ÃŃ cias
Ġv áºŃn
Ġrens eigne
Ġv illa
Ġsie dzi
Ð°ÑĤÐµÐ»ÑĮ Ð½ÑĭÑħ
ĠÐŁ Ð¾ÑĢ
ĠÐļÐ¾Ð¼ Ð¼ÐµÐ½ÑĤÐ°ÑĢ
ĠÐ½ÐµÐ· Ð°Ð²Ð¸Ñģ
Ġse zione
Ġreali zzazione
Ġse ks
ĠP rÃ©sent
ĠAs so
I X
ch mal
Ġfich iers
Ġau rez
ĠUni ti
Ġw ita
ãģ® é«ĺ
Ġod legÅĤ
la nge
Ġbi z
Ġat tri
Ġacc ro
s as
ĠRÃ©f Ã©rence
ta in
pa ge
ĠÐ¼ Ð°Ð¹
ĠÐº Ð¾ÑĦ
æ· ·
æĬ ¼
ĠD inge
ĠÐ²ÐµÑī ÐµÑģÑĤÐ²
UR E
ĠrÃ© par
æľī åĲį
Ġredu ction
Ġconf ig
ĠGu ide
ch ant
Ġfru its
Ã© di
ĠÐ±Ñĭ ÑĤ
ĠÑħÐ¾ÑĤ ÑĮ
ĠÐ£ Ð·
ÑĨÐ¸Ð¾Ð½ Ð½ÑĭÑħ
u vres
f eito
Ð³ Ð°ÑĢ
re x
ĠP ass
Ġdro g
ĠM eth
CH E
Ġch ale
ĠU ti
ĠPar ti
ĠÐ²ÑĭÐ· Ð²
col at
ĠRet our
ĠÃ©valu ation
ĠB ern
jou x
ĠÃ©vÃ© nements
ze mbro
ĠÃ¡ gua
Ġx in
Ġpis o
Ġbei de
Ġh u
ĠÑģÐ²Ð¸Ð´ÐµÑĤ ÐµÐ»ÑĮ
es ti
ãģ®æ Ĭ
t nych
ĠLeist ungs
Ġconsom ma
Ġann oncÃ©
ĠÐ½Ð¾ ÑĥÑĤÐ±
Ġno vitÃł
ĠD ra
ĠÐ³Ð¾ÑģÑĥÐ´Ð°ÑĢ ÑģÑĤÐ²Ð°
tu ale
ï¼ «
ãĥ³ãĥ Ŀ
Ġde cora
ll s
ĠÐ² Ð°Ð¼Ð¸
ãģª ãģģ
Ġãģ¨ ãģ¦ãĤĤ
ct uras
ĠÐ¢ Ð¾Ð¼
Ġz wyciÄĻ
ï¼ ¬
Ġè² »çĶ¨
åĪ¶ åº¦
Ġo tor
uttgar t
ĠKinder n
Ð¸Ðº Ð¾Ð¹
Ġter zo
tiv itÃ©s
m Ã©dia
å¤ī åĮĸ
Ġinsta ller
Ġd Ã»
ĠMon at
Ġtele fono
Ã¡n chez
rer as
Ġref us
ĠÐĶ Ð¾Ð¿
ĠÐ¿ÑĢÐ¸ÑĢ Ð¾Ð´
Ġex er
ĠOczy wiÅĽcie
bex _
R es
Ġenferme dad
ig ar
Ġcons idÃ©
ĠÐ¼ ÐµÐ¶
ĠÐ²Ð¿ ÐµÑĩÐ°ÑĤ
ĠÐ¡ Ð¡Ð¡Ðł
Ð¾Ð² Ð¾Ð´
ĠÑģ ÐºÐ°Ñĩ
Ġlet ter
ĠÐ½Ð°ÑĢ Ðº
ĠPod czas
ĠPro gram
Ġpreve de
ãĥĪ ãĥŃ
Ġdor mi
ĠN Ãº
ĠC osta
ur ias
ĠTrab ajo
Ġdistin tas
hn ung
ĠÐ´ Ð¸Ð²
Ġz unÃ¤chst
ĠÐĿ ÐµÐº
Ġlá»Ľ p
Ġla ut
vol le
Ġa cier
Ġpesso a
T RE
Ġ200 1
alis er
Ġpubli cation
Ġcar re
en k
ĠH ans
Ġsch reiben
Ġli qu
Ġk od
cze p
ĠÄĲ á»ĵng
ĠUnter kunft
ĠNam e
Ġdur able
ta it
ĠãĢį ï¼Ī
ãĥ¼ãĥĬ ãĥ¼
Ġåį ³
åī Ĭ
Ġth áº¥t
Ġjak oÅĽÄĩ
ĠespaÃ± ola
Ġtecn ologia
Ġprote zione
Ġesigen ze
Ġroz p
è ¤ĩ
Ġcues tion
ri ften
Ġretr ouv
ĠPr odo
ga zione
Ġdrod ze
ei gen
ito lo
Z Z
Ġren dere
Ġna he
Ġoe uvre
ĠÃ©c oute
ĠsiÃ¨ ge
Ġbas se
Ġjeste ÅĽ
Ġprecis a
velo ppe
is Ã©s
Ġo lio
Ġfa cendo
ãģĹãģ¾ ãģĹãĤĩãģĨ
Ġth rough
Ġcono ce
ĠÑĥ ÑĪ
YW1l Ijoi
Ġzosta ÅĤo
Ġb iá»ĥn
ĠSex uales
Ġmi tad
Ġf iche
Ġenqu Ãªte
Ġl ernen
ĠÐ½ÐµÐ´ ÐµÐ»Ð¸
ĠA tti
gen to
ĠFern ando
ĠÑģÑĥÑīÐµÑģÑĤÐ² ÑĥÐµÑĤ
Ad visor
Ġespa cios
Ġjorn ada
ĠMas tur
Ġexper i
Ġt ante
Ġpor tare
Ġcumpli r
Ġcomp ro
prÃ³ cz
ĠSing les
T U
Ġp ais
ĠgehÃ¶r en
Ġad idas
Ġtecn iche
ä¸Ģç·Ĵ ãģ«
ĠAff icher
t ie
ãģ®ç Ĭ¶
ĠLin ks
Ġb lau
Ġs ow
Ġcar riÃ¨re
ĠÑģÑĤ Ð°Ð´
res sione
fika cji
ou e
Ġpouv ons
Ġinf os
ĠÐĹ Ð°Ð´
Ġdire cto
ĠSta ats
Ġexcell ent
ĠÐ·Ð½Ð°Ñĩ ÐµÐ½Ð¸Ðµ
Ġc aja
ĠPla ta
Ġcl ara
Ġt aller
Ġfamili ar
Ġve de
Ġspe ciale
ĠEst udi
Ġau di
Ġrisor se
Ġca po
ĠuÅ¼ytkow nikÃ³w
Ġcal or
ãģ® æľĢ
ĠMon tag
Ġter mes
ĠÐ¿Ð¾Ð²ÑĭÑĪ ÐµÐ½Ð¸Ñı
ĠÐ½Ð°ÑģÑĤÐ¾ÑıÑī ÐµÐµ
ĠNh Æ°ng
Ġav antage
je dno
titu ciÃ³n
ĠM use
Ġdifficol tÃł
Ġfu ente
ĠKir che
ĠN ombre
Ġdirei to
ĠvÃł ng
ĠI r
ï¼ ¢
éŃ ļ
é ª¨
s uch
ve aux
tar d
ĠÐ²Ð»Ð°Ð´ ÐµÐ»ÑĮ
S A
ĠU ffi
Ġl Ã£
Ġk now
ĠKategor ie
Ġspaz i
Ġv Ãªtements
Ġsettim ane
å®ī ãģĦ
ĠT witter
met ro
enez ol
Ñģ Ð¸
Ġpos so
Ġconos cenza
ĠâĢ¦ ãĢĤ
éĻĲ ãĤĬ
Ġtrava ille
Ġtor n
i ve
ĠW ild
ĠÑį Ð¼
ĠÑĤÑıÐ¶ ÐµÐ»
ĠÐĲÐ½Ð´ ÑĢÐµÐ¹
ĠÐ¿ Ð°Ð´
ĠÄĲ iá»ģu
» Ħ
ĠÐ¾ÑģÑĤ ÑĢÐ¾Ð²
Ġçī ©
P ER
Ġm anti
ĠHoch zeit
O f
ĠCzy taj
ĠB ry
ĠE inh
ĠæĿ ¾
å°ĳ ãģªãģĦ
Ġau dio
éĢ± éĸĵ
Ġacqu is
Ġs ale
Ġreali zado
Ġarri ba
ĠD onner
ĠBus iness
rei ber
ĠInd ustrie
Ġra con
ĠEs cri
ãģĭ ãģĹ
d H
Ġzes taw
cie la
Ġä»Ĭ å¹´
Ġse c
ĠFol ge
ĠAn zahl
Ġm Ã´i
uille z
is tique
Ġmas zyn
prow adza
Ġprue bas
Ġz al
åĤ ·
Ġspraw dz
Ġgus to
w any
ient ras
Ġtá»© c
Ã¤n z
Ġmod ern
Ġst worz
Ġiniti a
ĠB ain
Ġpati ents
ĠAn na
nict wo
Ġer fahren
ĠÐ½ÐµÐ¾Ð±ÑħÐ¾Ð´Ð¸Ð¼ Ð¾ÑģÑĤÐ¸
Ġcon vin
cz kÄĻ
Ġestable cimiento
ãģ¿ãģŁãģĦ ãģª
è¿Ķ ä¿¡
éŃħ åĬĽ
alidad es
Ġlut te
ĠC ina
ĠT iene
Ġclas es
ĠcrÃ© Ã©
ĠÐ·ÐµÐ¼ ÐµÐ»ÑĮ
Ġklu cz
Ġbe ein
vi ennent
ĠÐ´Ð¾Ð³Ð¾Ð²Ð¾ÑĢ Ð°
ĠÐ» ÐµÐ¶
ĠÐĲ Ð¿
ve m
ĠÐ²Ð½ÑĥÑĤÑĢ Ð¸
ĠjÄĻzy ka
ãĥģ ãĥ¼ãĥł
Ġï¿½ï¿½ ï¿½
ĠÂ ¥
ĠÄĳ Ã´
lo t
graph ique
ĠB ilbao
und os
ĠrÃ© cup
ĠW ander
ÑĢ Ð³
ĠServi ces
ig ner
ĠÐŁÑĢ Ð¸Ð²
ĠÐ´ÑĢÑĥÐ³ Ð¸Ð¼Ð¸
Ġro be
ĠmÃ©di as
Ġreg istro
ma zione
Ġni kt
ĠP K
ĠSch a
Ġopportun itÃł
Ġ} ,
ãĤĦ ãĤĭ
ãģ« ãģĹãģŁ
Ġconse cu
Ġf Ãºtbol
Ġpres iÃ³n
z ub
Ġin ves
niej sza
Ġb less
Ġf ur
Ŀ éĽ¢
Ġm Ã´
roso ft
Ġz obacz
wiÄħ za
wa jÄħ
f Ã¤hr
Ñı ÑİÑĤÑģÑı
Ġfir st
ĠS Ã¡nchez
ĠU no
ĠprÃ³ pri
Ìģ t
Ġc á»ĳ
Ð¸Ð¼ Ð°
ĠÐ¿ÑĢÐµÐ´ Ð²Ð°ÑĢ
ĠS onder
ĠFu ente
Ġvivi enda
d et
omb in
ĠPar ty
B ay
Ġer schein
Ġpl omb
Ġfer me
ĠS ign
c Ã©es
Ġpu ta
Ġe ventos
ĠN et
Ġåĩº ä¼ļãģĦ
ãĤĴ ãģĹãģŁ
ĠL iste
ĠsociÃ©tÃ© s
ĠÑĦÐ¸Ð»ÑĮ Ð¼Ñĭ
ĠÐĶ Ð¾ÑģÑĤÐ°Ð²ÐºÐ°
ĠÐºÐ²Ð°ÑĢÑĤ Ð¸ÑĢÑĥ
ÑĦÐ¸Ðº Ð°ÑĨÐ¸Ð¸
ĠÐ°ÐºÐº ÑĥÐ¼ÑĥÐ»ÑıÑĤÐ¾ÑĢ
ĠÑįÐºÑģÐ¿Ð»ÑĥÐ°ÑĤ Ð°ÑĨÐ¸Ð¸
ĠÑģÐµÑĢ ÑĤÐ¸
ĠÐĽ Ñĥ
ãģ¨ãģį ãģ«
Ġpartici per
Ġjak by
ÅĤo ÅĦ
Ġna me
Ġjou e
[...]
